{"learner":{"attributes":{"scikit_learn":"{\"n_estimators\": 256, \"objective\": \"reg:squarederror\", \"max_depth\": 7, \"learning_rate\": 0.02, \"verbosity\": null, \"booster\": null, \"tree_method\": null, \"gamma\": null, \"min_child_weight\": 1, \"max_delta_step\": null, \"subsample\": 0.7, \"colsample_bytree\": 0.7, \"colsample_bylevel\": null, \"colsample_bynode\": null, \"reg_alpha\": null, \"reg_lambda\": null, \"scale_pos_weight\": null, \"base_score\": null, \"missing\": NaN, \"num_parallel_tree\": null, \"kwargs\": {\"lambda\": 0.3334715916858647, \"alpha\": 0.014264071277341226, \"eta\": 0.1}, \"random_state\": 24, \"n_jobs\": null, \"monotone_constraints\": null, \"interaction_constraints\": null, \"importance_type\": \"gain\", \"gpu_id\": null, \"validate_parameters\": null, \"n_features_in_\": 12, \"type\": \"XGBRegressor\"}"},"gradient_booster":{"model":{"gbtree_model_param":{"num_trees":"256","size_leaf_vector":"0"},"tree_info":[0,0,0,0,0,0,0,0,0,0,0,0,0,0,0,0,0,0,0,0,0,0,0,0,0,0,0,0,0,0,0,0,0,0,0,0,0,0,0,0,0,0,0,0,0,0,0,0,0,0,0,0,0,0,0,0,0,0,0,0,0,0,0,0,0,0,0,0,0,0,0,0,0,0,0,0,0,0,0,0,0,0,0,0,0,0,0,0,0,0,0,0,0,0,0,0,0,0,0,0,0,0,0,0,0,0,0,0,0,0,0,0,0,0,0,0,0,0,0,0,0,0,0,0,0,0,0,0,0,0,0,0,0,0,0,0,0,0,0,0,0,0,0,0,0,0,0,0,0,0,0,0,0,0,0,0,0,0,0,0,0,0,0,0,0,0,0,0,0,0,0,0,0,0,0,0,0,0,0,0,0,0,0,0,0,0,0,0,0,0,0,0,0,0,0,0,0,0,0,0,0,0,0,0,0,0,0,0,0,0,0,0,0,0,0,0,0,0,0,0,0,0,0,0,0,0,0,0,0,0,0,0,0,0,0,0,0,0,0,0,0,0,0,0,0,0,0,0,0,0,0,0,0,0,0,0],"trees":[{"base_weights":[2.099906E0,7.576549E-1,3.3305187E0,2.9154375E-1,1.1123488E0,1.0374899E1,3.1829846E0,1.10425115E-1,1.0817114E0,-9.805836E-3,1.3319921E0,2.035895E1,9.239409E0,2.2216477E0,3.433271E0,-2.148496E-1,3.52785E-1,2.1462126E-1,1.6079234E0,-1.9963835E-1,1.318854E-1,1.9598758E0,1.0441301E0,2.6562574E1,8.392372E0,3.9839008E0,1.1480665E1,2.8284292E0,2.1767604E0,5.035408E0,3.3778408E0,1.1496711E-1,-2.8639516E-1,1.4926516E-2,4.5660424E-1,3.7764106E0,1.7232938E-1,1.0863175E1,1.53947E0,1.0009704E0,-2.1817279E-1,7.491317E-1,1.08292945E-1,1.3753462E0,2.3500855E0,8.4258467E-1,1.2109627E0,1.9098928E1,3.3422623E1,8.700571E0,3.4050453E0,2.2010489E1,8.2457075E0,3.4374945E0,2.618928E0,2.0099692E0,2.2738683E0,4.128158E0,6.0554533E0,3.5072339E0,3.0410156E0,2.370175E0,6.1459806E-2,-8.558925E-2,-2.986386E-1,2.0596354E0,-2.3674734E-2,2.4222782E0,3.7063733E-1,6.57289E-2,4.7999352E-1,1.1594702E0,1.714008E0,-5.5837788E-2,-2.3093589E-1,1.0992886E0,2.1471189E-1,2.2487769E-1,5.168824E-2,6.544346E-1,1.5890453E0,2.2448316E0,2.7848744E0,7.8188556E-1,1.6588045E0,1.1105179E0,1.4979088E0,2.988992E0,1.2225634E1,3.5891716E1,1.39096575E1,2.9236176E0,1.0143077E1,2.8900003E0,4.075345E0,2.9975116E0,2.423255E0,1.9296664E0,2.1127195E0,2.2083797E0,2.6948292E0,3.498856E0,4.6885905E0,8.980158E0,5.5007663E0,3.2028005E0,4.324197E0,3.6847036E0,2.9024332E0,-2.1465828E-1,1.6571355E-1,2.111583E0,-1.9630724E-1,-2.0043218E-1,1.1706732E-1,2.3388109E-1,2.725695E0,2.5625455E-1,5.4434484E-1,1.7214304E-1,-7.897056E-2,7.2469074E-1,4.4239804E-1,3.5064385E0,1.099967E0,2.408138E0,1.6792408E0,-1.8171325E-1,-1.5402855E-3,-2.1320307E-1,-2.4709648E-1,5.8169108E-2,4.24258E-1,9.2670584E-1,2.084319E-1,3.1797464E-3,1.8828961E-1,5.5973196E-1,8.69851E-1,2.1781E0,1.532991E0,3.4981978E0,2.212284E0,2.916005E0,2.3723888E0,8.876019E-1,6.5253973E-1,2.4036813E0,1.2883883E0,1.4012202E0,1.0300081E0,1.3521247E0,1.8086408E0,4.910921E1,2.70096E1,1.2956345E1,7.1082883E0,1.7933519E0,3.1559823E0,2.1643841E0,1.700824E0,1.9196504E0,2.2806902E0,3.4905643E0,2.3353326E0,4.5319333E0,3.0173764E0,6.096953E0,3.9645288E0,3.0081341E0,6.453318E0,2.2923517E-1,3.228532E0,4.4891367E0,3.4259734E0,4.579852E0,3.3709643E0,3.5046475E0,2.8778243E0],"categories":[],"categories_nodes":[],"categories_segments":[],"categories_sizes":[],"default_left":[true,true,true,true,true,true,true,true,true,true,true,true,true,true,true,true,true,true,true,true,true,true,true,true,false,true,true,true,true,true,true,true,true,true,true,false,true,false,true,false,true,true,true,true,true,true,true,false,false,true,false,true,true,true,true,true,true,true,true,true,true,false,true,true,false,false,true,true,true,true,true,true,true,true,true,false,true,true,true,true,true,true,true,true,true,true,true,false,false,true,false,false,true,false,false,true,false,false,true,true,true,true,true,false,true,true,true,true,true,false,false,false,false,false,false,false,false,false,false,false,false,false,false,false,false,false,false,false,false,false,false,false,false,false,false,false,false,false,false,false,false,false,false,false,false,false,false,false,false,false,false,false,false,false,false,false,false,false,false,false,false,false,false,false,false,false,false,false,false,false,false,false,false,false,false,false,false,false,false],"id":0,"left_children":[1,3,5,7,9,11,13,15,17,19,21,23,25,27,29,31,33,35,37,39,41,43,45,47,-1,49,51,53,55,57,59,61,63,65,67,-1,69,-1,71,-1,73,75,77,79,81,83,85,-1,-1,87,-1,89,91,93,95,97,99,101,103,105,107,-1,109,111,-1,-1,113,115,117,119,121,123,125,127,129,-1,131,133,135,137,139,141,143,145,147,149,151,-1,-1,153,-1,-1,155,-1,-1,157,-1,-1,159,161,163,165,167,-1,169,171,173,175,177,-1,-1,-1,-1,-1,-1,-1,-1,-1,-1,-1,-1,-1,-1,-1,-1,-1,-1,-1,-1,-1,-1,-1,-1,-1,-1,-1,-1,-1,-1,-1,-1,-1,-1,-1,-1,-1,-1,-1,-1,-1,-1,-1,-1,-1,-1,-1,-1,-1,-1,-1,-1,-1,-1,-1,-1,-1,-1,-1,-1,-1,-1,-1,-1,-1,-1,-1,-1,-1,-1],"loss_changes":[1.3038891E4,6.242007E2,4.268922E3,2.3355309E2,5.2854517E2,8.929209E2,9.680742E2,1.0474448E2,1.3871814E2,9.459775E0,3.234087E2,5.438076E2,8.836543E2,2.059961E1,2.7842188E2,1.3400747E1,2.6695694E1,1.7099892E1,1.1419922E2,3.40697E0,2.8926053E0,1.27359375E2,4.0999634E1,5.9462646E1,0E0,5.3654633E1,1.7557715E3,4.0996704E0,1.102124E1,8.9923584E1,1.3121094E2,1.2144656E1,1.1325035E0,1.4199791E1,9.8065186E1,0E0,3.731506E0,0E0,1.1787384E1,0E0,2.9894114E-1,1.2748656E0,1.2746332E0,3.4489746E1,1.3280884E1,2.7194641E1,1.8786194E1,0E0,0E0,3.4578506E1,0E0,1.2196992E3,4.0730884E2,6.2939453E-1,7.1051025E-1,9.700928E-1,1.1435547E1,1.4633179E1,6.3354248E1,5.507285E2,7.317383E1,0E0,2.8706112E0,6.7602286E0,0E0,0E0,4.3956976E0,1.5902542E1,1.1035667E1,1.319833E0,1.4629412E-1,7.073799E0,1.6902771E0,7.4753866E-2,1.5222073E-2,0E0,9.423661E-2,6.50398E-1,8.673276E-1,8.8487625E-1,4.5898743E0,8.488159E0,1.0974426E0,6.899933E0,9.491379E0,1.1170654E1,6.991394E0,0E0,0E0,6.53374E1,0E0,0E0,2.27979E2,0E0,0E0,5.863724E-1,0E0,0E0,1.3418579E0,7.3603516E0,1.560202E1,9.425476E0,2.1708496E1,0E0,9.3906494E1,1.2429492E2,8.444043E1,3.7239258E1,7.072754E0,0E0,0E0,0E0,0E0,0E0,0E0,0E0,0E0,0E0,0E0,0E0,0E0,0E0,0E0,0E0,0E0,0E0,0E0,0E0,0E0,0E0,0E0,0E0,0E0,0E0,0E0,0E0,0E0,0E0,0E0,0E0,0E0,0E0,0E0,0E0,0E0,0E0,0E0,0E0,0E0,0E0,0E0,0E0,0E0,0E0,0E0,0E0,0E0,0E0,0E0,0E0,0E0,0E0,0E0,0E0,0E0,0E0,0E0,0E0,0E0,0E0,0E0,0E0,0E0,0E0,0E0,0E0,0E0,0E0,0E0],"parents":[2147483647,0,0,1,1,2,2,3,3,4,4,5,5,6,6,7,7,8,8,9,9,10,10,11,11,12,12,13,13,14,14,15,15,16,16,17,17,18,18,19,19,20,20,21,21,22,22,23,23,25,25,26,26,27,27,28,28,29,29,30,30,31,31,32,32,33,33,34,34,36,36,38,38,40,40,41,41,42,42,43,43,44,44,45,45,46,46,49,49,51,51,52,52,53,53,54,54,55,55,56,56,57,57,58,58,59,59,60,60,62,62,63,63,66,66,67,67,68,68,69,69,70,70,71,71,72,72,73,73,74,74,76,76,77,77,78,78,79,79,80,80,81,81,82,82,83,83,84,84,85,85,86,86,89,89,92,92,95,95,98,98,99,99,100,100,101,101,102,102,104,104,105,105,106,106,107,107,108,108],"right_children":[2,4,6,8,10,12,14,16,18,20,22,24,26,28,30,32,34,36,38,40,42,44,46,48,-1,50,52,54,56,58,60,62,64,66,68,-1,70,-1,72,-1,74,76,78,80,82,84,86,-1,-1,88,-1,90,92,94,96,98,100,102,104,106,108,-1,110,112,-1,-1,114,116,118,120,122,124,126,128,130,-1,132,134,136,138,140,142,144,146,148,150,152,-1,-1,154,-1,-1,156,-1,-1,158,-1,-1,160,162,164,166,168,-1,170,172,174,176,178,-1,-1,-1,-1,-1,-1,-1,-1,-1,-1,-1,-1,-1,-1,-1,-1,-1,-1,-1,-1,-1,-1,-1,-1,-1,-1,-1,-1,-1,-1,-1,-1,-1,-1,-1,-1,-1,-1,-1,-1,-1,-1,-1,-1,-1,-1,-1,-1,-1,-1,-1,-1,-1,-1,-1,-1,-1,-1,-1,-1,-1,-1,-1,-1,-1,-1,-1,-1,-1,-1],"split_conditions":[6.621175E-1,1.6666667E-1,7.4137926E-2,7.090609E-2,3.9510223E-1,7.876776E-1,9.8790765E-1,5.5555556E-2,3.443045E-1,7.6129995E-2,6.572582E-1,1.8181819E-1,8.2218254E-1,1.7758621E-1,1.8427517E-2,1.7815007E-2,3.7411445E-1,1.5454546E-1,2.7272727E-2,1.8181819E-1,2.0884521E-2,7.920965E-1,2.777778E-1,7.563675E-1,1.6784744E-1,9.8790765E-1,8.349742E-1,1.8427517E-2,7.7778685E-1,6.818182E-1,8.4422266E-1,1.8181819E-1,2.9374653E-1,1.8181819E-1,6.572582E-1,7.552821E-2,2.8854463E-1,2.172635E-1,3.989272E-1,2.0019406E-2,1.6551724E-1,7.180253E-2,8.100967E-2,3.7966675E-1,6.450739E-1,7.827586E-1,9.9787235E-1,3.8197857E-1,6.6845244E-1,8.1042445E-1,6.810091E-2,1.8181819E-1,8.571358E-1,6.818182E-1,1.15517244E-1,5.8854413E-1,9.212121E-1,8.2218254E-1,7.7025306E-1,8.2218254E-1,5.181818E-1,4.7403496E-2,7.1924664E-2,1.8181819E-1,-5.972772E-3,4.1192707E-2,8.513586E-2,5.003473E-1,7.5757575E-1,1.4037362E-1,1.3234043E-1,1.8181819E-1,1.8427517E-2,8.275862E-2,2.777778E-1,2.1985771E-2,3.4811437E-1,1.15517244E-1,3.1517088E-1,3.443045E-1,3.8608843E-1,7.985258E-2,6.5037763E-1,6.0565114E-1,6.242424E-1,5.181818E-1,4.0172416E-1,5.9779838E-2,2.4451266E-1,2.7272727E-2,2.7819315E-1,5.847235E-2,1.8181819E-1,5.7800006E-2,8.15069E-2,1.6666667E-1,4.84651E-2,3.8593326E-2,7.738564E-1,9.5682657E-1,1.4619164E-1,7.6706135E-1,8.349742E-1,1.7960316E-1,8.2218254E-1,5.5555556E-2,8.349742E-1,2.3103449E-1,1.5862069E-1,-4.2931656E-3,3.3142709E-3,4.223166E-2,-3.926145E-3,-4.0086433E-3,2.3413463E-3,4.6776216E-3,5.4513898E-2,5.125091E-3,1.0886896E-2,3.4428607E-3,-1.5794111E-3,1.4493815E-2,8.84796E-3,7.012877E-2,2.1999339E-2,4.816276E-2,3.3584815E-2,-3.634265E-3,-3.080571E-5,-4.2640613E-3,-4.9419296E-3,1.1633821E-3,8.48516E-3,1.8534116E-2,4.168638E-3,6.3594925E-5,3.7657921E-3,1.1194639E-2,1.739702E-2,4.3562002E-2,3.065982E-2,6.9963954E-2,4.424568E-2,5.8320098E-2,4.7447775E-2,1.7752038E-2,1.3050795E-2,4.8073623E-2,2.5767764E-2,2.8024403E-2,2.060016E-2,2.7042493E-2,3.6172815E-2,9.821842E-1,5.40192E-1,2.5912687E-1,1.4216577E-1,3.5867035E-2,6.311964E-2,4.3287683E-2,3.401648E-2,3.839301E-2,4.5613803E-2,6.9811285E-2,4.670665E-2,9.063867E-2,6.0347527E-2,1.21939056E-1,7.929058E-2,6.0162682E-2,1.2906636E-1,4.584703E-3,6.457064E-2,8.978273E-2,6.8519466E-2,9.159704E-2,6.741928E-2,7.009295E-2,5.7556484E-2],"split_indices":[1,4,3,7,6,1,6,4,1,6,1,2,1,3,11,7,1,2,2,2,11,6,4,1,0,6,1,11,1,2,1,2,1,2,1,0,1,0,1,0,3,1,1,1,1,3,10,0,0,1,0,2,1,2,3,7,2,1,1,1,2,0,6,2,0,0,6,1,2,1,10,2,11,3,4,0,1,3,1,1,1,11,1,11,2,2,3,0,0,2,0,0,2,0,0,4,0,0,1,6,11,1,1,0,1,4,1,3,3,0,0,0,0,0,0,0,0,0,0,0,0,0,0,0,0,0,0,0,0,0,0,0,0,0,0,0,0,0,0,0,0,0,0,0,0,0,0,0,0,0,0,0,0,0,0,0,0,0,0,0,0,0,0,0,0,0,0,0,0,0,0,0,0,0,0,0,0,0,0],"split_type":[0,0,0,0,0,0,0,0,0,0,0,0,0,0,0,0,0,0,0,0,0,0,0,0,0,0,0,0,0,0,0,0,0,0,0,0,0,0,0,0,0,0,0,0,0,0,0,0,0,0,0,0,0,0,0,0,0,0,0,0,0,0,0,0,0,0,0,0,0,0,0,0,0,0,0,0,0,0,0,0,0,0,0,0,0,0,0,0,0,0,0,0,0,0,0,0,0,0,0,0,0,0,0,0,0,0,0,0,0,0,0,0,0,0,0,0,0,0,0,0,0,0,0,0,0,0,0,0,0,0,0,0,0,0,0,0,0,0,0,0,0,0,0,0,0,0,0,0,0,0,0,0,0,0,0,0,0,0,0,0,0,0,0,0,0,0,0,0,0,0,0,0,0,0,0,0,0,0,0],"sum_hessian":[7.894E3,3.776E3,4.118E3,1.632E3,2.144E3,8.4E1,4.034E3,1.328E3,3.04E2,3.51E2,1.793E3,8E0,7.6E1,8.34E2,3.2E3,5.67E2,7.61E2,1.15E2,1.89E2,1.5E2,2.01E2,5.63E2,1.23E3,5E0,3E0,2.3E1,5.3E1,5.6E1,7.78E2,1.06E2,3.094E3,1.01E2,4.66E2,1.79E2,5.82E2,1E0,1.14E2,1E0,1.88E2,2E0,1.48E2,7E0,1.94E2,2.26E2,3.37E2,5.58E2,6.72E2,3E0,2E0,2E0,2.1E1,1.2E1,4.1E1,1.3E1,4.3E1,2.89E2,4.89E2,5.7E1,4.9E1,2.233E3,8.61E2,2E0,9.9E1,2.7E1,4.39E2,3E0,1.76E2,2.4E1,5.58E2,8.5E1,2.9E1,6E1,1.28E2,1.1E1,1.37E2,4E0,3E0,6.3E1,1.31E2,5.2E1,1.74E2,2.73E2,6.4E1,5.2E2,3.8E1,4.99E2,1.73E2,1E0,1E0,4E0,8E0,1.1E1,3E1,8E0,5E0,1.3E1,3E1,1.66E2,1.23E2,4.25E2,6.4E1,2.8E1,2.9E1,7E0,4.2E1,1.628E3,6.05E2,1.51E2,7.1E2,2.7E1,7.2E1,1E0,2.6E1,7.8E1,9.8E1,3E0,2.1E1,3.37E2,2.21E2,4.9E1,3.6E1,3E0,2.6E1,1E0,5.9E1,5E0,1.23E2,3E0,8E0,6.8E1,6.9E1,2E0,1E0,1E0,6.2E1,9.7E1,3.4E1,3.7E1,1.5E1,1.4E1,1.6E2,6E0,2.67E2,4.7E1,1.7E1,2.85E2,2.35E2,1.2E1,2.6E1,1.07E2,3.92E2,1.19E2,5.4E1,1E0,3E0,1.5E1,1.5E1,2E0,1.1E1,1.08E2,1.5E1,8.7E1,3.38E2,1.9E1,4.5E1,8E0,2E1,9E0,2E1,1.2E1,3E1,1.4E1,1.614E3,5.1E2,9.5E1,3.8E1,1.13E2,2.6E1,6.84E2],"tree_param":{"num_deleted":"0","num_feature":"12","num_nodes":"179","size_leaf_vector":"0"}},{"base_weights":[2.1033447E0,7.560421E-1,3.3012512E0,1.7363992E-2,9.4902635E-1,3.0964369E1,3.2196612E0,1.893389E0,-5.4737837E-3,1.8295406E0,6.162946E-1,4.1708687E1,2.1740292E1,8.607969E0,3.1088693E0,3.7197702E0,1.5236652E0,-2.1844181E-1,1.2004415E-1,1.3695208E0,2.3317828E0,5.350108E-1,7.305066E-1,1.7824202E1,6.986216E1,2.6306865E0,3.4763866E1,1.5714261E1,7.7943697E0,2.1532958E0,3.355116E0,1.0899557E0,2.0608869E0,4.4076744E-2,-2.2712812E-1,2.3693407E-1,6.388043E-2,9.270884E0,1.3060403E0,2.102291E0,2.52663E0,5.180813E-1,7.1136963E-1,7.545785E-1,1.5474105E-1,3.0613539E1,7.962352E0,1.9399727E1,8.241316E0,3.2833335E0,9.600506E0,2.736664E0,2.1017554E0,3.961589E0,3.2359214E0,1.1933193E-1,-1.7149892E-2,-6.0614E-2,-2.2822037E-1,5.895067E-1,2.2145991E-1,1.0148536E-2,1.5217702E-1,6.785097E-1,1.5182133E0,3.7995956E0,2.066352E0,2.7059195E0,2.3526711E0,5.8432454E-1,4.4078493E-1,1.2994719E0,4.5126128E-1,7.41328E-1,1.5747052E0,-1.6868262E-1,5.550839E-1,1.2042268E1,1.8805312E0,1.4953737E1,7.795844E0,2.581009E0,3.251178E0,2.0458329E0,2.3318908E0,3.3655934E0,4.5372877E0,3.3801515E0,2.872832E0,1.7167524E-2,1.9833006E-1,-5.572882E-2,1.01814486E-1,-0E0,-9.859368E-2,-2.3889501E-1,-2.1427652E-1,7.239004E-1,2.4956726E-1,4.0466154E-1,1.9852868E-1,8.7030225E-2,-6.439582E-2,4.641493E-1,1.347832E-1,5.172337E-1,9.315121E-1,2.227508E0,1.4925036E0,2.1728876E0,1.8115778E0,3.6682303E0,2.6635451E0,2.087432E0,2.4319878E0,5.4343814E-1,9.395311E-1,-3.0037176E-3,4.720474E-1,-2.7627757E-1,1.458822E0,1.5069493E0,3.5385507E-1,9.361696E-1,6.946586E-1,2.4122083E0,9.739732E-1,-3.0393657E-1,2.2803824E-1,-2.807799E-1,8.3492005E-1,2.0958195E1,1.3276216E1,2.967639E0,9.304715E0,2.7356877E0,2.2351775E0,2.7228203E0,3.7729475E0,2.0808883E0,1.6849672E0,4.145633E0,3.0719063E0,6.326391E0,3.7375388E0,3.0964644E0,4.1418786E0,3.6292758E0,2.8215096E0],"categories":[],"categories_nodes":[],"categories_segments":[],"categories_sizes":[],"default_left":[true,true,true,true,true,true,true,true,true,true,true,true,true,true,true,false,true,true,true,true,true,true,true,true,false,false,false,true,true,true,true,false,false,true,true,true,true,false,true,true,true,true,true,true,true,false,true,false,false,false,true,true,true,true,true,true,true,true,true,true,true,true,true,true,true,false,true,true,true,true,true,true,true,true,true,true,true,false,false,true,true,true,true,true,false,true,true,true,true,false,false,false,false,false,false,false,false,false,false,false,false,false,false,false,false,false,false,false,false,false,false,false,false,false,false,false,false,false,false,false,false,false,false,false,false,false,false,false,false,false,false,false,false,false,false,false,false,false,false,false,false,false,false,false,false,false,false,false,false],"id":1,"left_children":[1,3,5,7,9,11,13,15,17,19,21,23,25,27,29,-1,31,33,35,37,39,41,43,45,-1,-1,-1,47,49,51,53,-1,-1,55,57,59,61,-1,63,65,67,69,71,73,75,-1,77,-1,-1,-1,79,81,83,85,87,89,91,93,95,97,99,101,103,105,107,-1,109,111,113,115,117,119,121,123,125,127,129,-1,-1,131,133,135,137,139,-1,141,143,145,147,-1,-1,-1,-1,-1,-1,-1,-1,-1,-1,-1,-1,-1,-1,-1,-1,-1,-1,-1,-1,-1,-1,-1,-1,-1,-1,-1,-1,-1,-1,-1,-1,-1,-1,-1,-1,-1,-1,-1,-1,-1,-1,-1,-1,-1,-1,-1,-1,-1,-1,-1,-1,-1,-1,-1,-1,-1,-1,-1,-1],"loss_changes":[1.2827266E4,5.3332007E2,9.462363E3,3.324896E1,8.6865063E2,9.19042E2,2.4954414E3,4.3376846E0,2.0495243E1,1.867959E2,1.9842224E1,3.1698906E3,1.7940901E3,4.4640918E2,9.649375E2,0E0,1.1476688E0,6.5431976E-1,3.157168E0,2.0915118E2,1.5527344E1,3.6195374E0,1.2343353E1,3.3860327E2,0E0,0E0,0E0,1.7580493E2,6.1123486E2,2.3369385E1,2.3188281E2,0E0,0E0,4.51451E-2,4.1344643E-2,7.978153E-1,1.5454075E0,0E0,5.585675E1,8.298462E0,4.3026123E0,5.789612E0,1.6504257E1,8.905182E0,4.7412057E0,0E0,5.0150833E1,0E0,0E0,0E0,4.857036E2,2.511078E0,8.338135E0,1.7847461E2,1.398125E2,3.0765284E-2,2.571281E-2,4.388988E-3,1.7148972E-2,2.1521807E-1,5.961628E-1,1.1675154E0,6.3985085E-1,4.1982193E0,4.588623E0,0E0,3.4437256E0,7.428589E-1,5.217285E-1,8.788727E0,7.392723E0,8.521168E0,7.645051E0,7.4466553E0,5.876503E0,1.11525E0,3.9065585E0,0E0,0E0,4.1027588E1,2.9173682E2,7.4295044E-1,4.3302917E-1,6.7128906E0,0E0,5.620581E1,3.802046E2,4.179375E2,2.6749023E1,0E0,0E0,0E0,0E0,0E0,0E0,0E0,0E0,0E0,0E0,0E0,0E0,0E0,0E0,0E0,0E0,0E0,0E0,0E0,0E0,0E0,0E0,0E0,0E0,0E0,0E0,0E0,0E0,0E0,0E0,0E0,0E0,0E0,0E0,0E0,0E0,0E0,0E0,0E0,0E0,0E0,0E0,0E0,0E0,0E0,0E0,0E0,0E0,0E0,0E0,0E0,0E0,0E0,0E0,0E0,0E0,0E0,0E0,0E0,0E0],"parents":[2147483647,0,0,1,1,2,2,3,3,4,4,5,5,6,6,7,7,8,8,9,9,10,10,11,11,12,12,13,13,14,14,16,16,17,17,18,18,19,19,20,20,21,21,22,22,23,23,27,27,28,28,29,29,30,30,33,33,34,34,35,35,36,36,38,38,39,39,40,40,41,41,42,42,43,43,44,44,46,46,50,50,51,51,52,52,53,53,54,54,55,55,56,56,57,57,58,58,59,59,60,60,61,61,62,62,63,63,64,64,66,66,67,67,68,68,69,69,70,70,71,71,72,72,73,73,74,74,75,75,76,76,79,79,80,80,81,81,82,82,83,83,85,85,86,86,87,87,88,88],"right_children":[2,4,6,8,10,12,14,16,18,20,22,24,26,28,30,-1,32,34,36,38,40,42,44,46,-1,-1,-1,48,50,52,54,-1,-1,56,58,60,62,-1,64,66,68,70,72,74,76,-1,78,-1,-1,-1,80,82,84,86,88,90,92,94,96,98,100,102,104,106,108,-1,110,112,114,116,118,120,122,124,126,128,130,-1,-1,132,134,136,138,140,-1,142,144,146,148,-1,-1,-1,-1,-1,-1,-1,-1,-1,-1,-1,-1,-1,-1,-1,-1,-1,-1,-1,-1,-1,-1,-1,-1,-1,-1,-1,-1,-1,-1,-1,-1,-1,-1,-1,-1,-1,-1,-1,-1,-1,-1,-1,-1,-1,-1,-1,-1,-1,-1,-1,-1,-1,-1,-1,-1,-1,-1,-1,-1],"split_conditions":[6.621175E-1,3.9510223E-1,2.7272727E-2,5E-1,6.572582E-1,8.349742E-1,7.4137926E-2,2.7272727E-2,7.6129995E-2,7.920965E-1,7.5757575E-1,8.2218254E-1,8.7090075E-1,7.8173023E-1,9.8790765E-1,7.43954E-2,2.4243233E-1,1.8427517E-2,8.23977E-2,5E-1,6.341465E-1,7.724138E-1,7.224138E-1,7.9204714E-1,1.3972431E0,5.2613728E-2,6.9527733E-1,5E-1,8.2218254E-1,1.7758621E-1,2.5344828E-1,2.1799114E-2,4.1217737E-2,3.9234042E-1,3.3636364E-1,1.15517244E-1,3.0192327E-1,1.8541767E-1,3.7966675E-1,1.2285012E-2,4.3103448E-1,4.2413792E-1,6.242424E-1,7.017242E-1,9.212121E-1,6.122708E-1,8.1822E-1,3.8799453E-1,1.6482632E-1,6.566667E-2,8.349742E-1,9.212121E-1,9.5665354E-1,8.2218254E-1,8.4422266E-1,1.3211198E-2,6.818182E-1,2.6262212E-1,2.3029846E-1,4.7589697E-2,1.3390663E-1,1.4037362E-1,1.4742015E-2,3.443045E-1,1.8427517E-2,7.599191E-2,6.324857E-1,1.3793103E-1,9.689189E-1,6.666666E-1,4.413793E-1,6.0565114E-1,6.0565114E-1,3.5106385E-1,8.30303E-1,9.533169E-1,6.4742017E-1,2.4084535E-1,3.7610624E-2,5E-1,8.5870504E-1,5.181818E-1,6.893617E-1,9.02244E-1,4.6637814E-2,7.6706135E-1,8.349742E-1,8.2218254E-1,4.2424244E-1,3.4335046E-4,3.966601E-3,-1.1145764E-3,2.0362898E-3,-0E0,-1.9718737E-3,-4.7779E-3,-4.28553E-3,1.4478007E-2,4.991345E-3,8.09323E-3,3.9705737E-3,1.7406044E-3,-1.2879164E-3,9.282986E-3,2.6956638E-3,1.0344675E-2,1.8630242E-2,4.455016E-2,2.9850071E-2,4.345775E-2,3.6231555E-2,7.33646E-2,5.3270902E-2,4.1748635E-2,4.8639756E-2,1.0868763E-2,1.8790621E-2,-6.007435E-5,9.440947E-3,-5.5255513E-3,2.917644E-2,3.0138986E-2,7.077101E-3,1.8723393E-2,1.3893171E-2,4.8244167E-2,1.9479465E-2,-6.0787313E-3,4.5607644E-3,-5.615598E-3,1.6698401E-2,4.1916388E-1,2.655243E-1,5.9352778E-2,1.860943E-1,5.4713752E-2,4.470355E-2,5.4456405E-2,7.545895E-2,4.1617766E-2,3.369934E-2,8.291266E-2,6.1438125E-2,1.2652782E-1,7.475077E-2,6.1929286E-2,8.283757E-2,7.2585516E-2,5.643019E-2],"split_indices":[1,6,2,0,1,1,3,2,6,6,2,1,1,1,6,0,1,11,1,0,1,3,3,1,0,0,0,0,1,3,3,0,0,10,2,3,1,0,1,11,3,3,2,3,2,0,1,0,0,0,1,2,1,1,1,6,2,1,1,1,11,1,11,1,11,0,1,3,6,2,3,11,11,10,2,11,11,0,0,0,1,2,10,1,0,1,1,1,2,0,0,0,0,0,0,0,0,0,0,0,0,0,0,0,0,0,0,0,0,0,0,0,0,0,0,0,0,0,0,0,0,0,0,0,0,0,0,0,0,0,0,0,0,0,0,0,0,0,0,0,0,0,0,0,0,0,0,0,0],"split_type":[0,0,0,0,0,0,0,0,0,0,0,0,0,0,0,0,0,0,0,0,0,0,0,0,0,0,0,0,0,0,0,0,0,0,0,0,0,0,0,0,0,0,0,0,0,0,0,0,0,0,0,0,0,0,0,0,0,0,0,0,0,0,0,0,0,0,0,0,0,0,0,0,0,0,0,0,0,0,0,0,0,0,0,0,0,0,0,0,0,0,0,0,0,0,0,0,0,0,0,0,0,0,0,0,0,0,0,0,0,0,0,0,0,0,0,0,0,0,0,0,0,0,0,0,0,0,0,0,0,0,0,0,0,0,0,0,0,0,0,0,0,0,0,0,0,0,0,0,0],"sum_hessian":[7.948E3,3.741E3,4.207E3,7.75E2,2.966E3,1.2E1,4.195E3,9E0,7.66E2,8.13E2,2.153E3,5E0,7E0,8.4E1,4.111E3,1E0,8E0,2.84E2,4.82E2,4.25E2,3.88E2,1.259E3,8.94E2,3E0,2E0,3E0,4E0,8E0,7.6E1,8.43E2,3.268E3,5E0,3E0,9E0,2.75E2,1.56E2,3.26E2,3E0,4.22E2,1.8E2,2.08E2,1.15E3,1.09E2,8.58E2,3.6E1,1E0,2E0,5E0,3E0,2.2E1,5.4E1,6.7E1,7.76E2,5.35E2,2.733E3,4E0,5E0,2E0,2.73E2,6E0,1.5E2,2.03E2,1.23E2,1.07E2,3.15E2,3E0,1.77E2,1E2,1.08E2,6.18E2,5.32E2,3.3E1,7.6E1,8.45E2,1.3E1,2E1,1.6E1,1E0,1E0,1.3E1,4.1E1,5.3E1,1.4E1,6.27E2,1.49E2,2.64E2,2.71E2,1.954E3,7.79E2,2E0,2E0,4E0,1E0,1E0,1E0,1.51E2,1.22E2,4E0,2E0,1.6E1,1.34E2,1E2,1.03E2,6E0,1.17E2,6.6E1,4.1E1,1E1,3.05E2,1.23E2,5.4E1,3E0,9.7E1,2.7E1,8.1E1,5.55E2,6.3E1,3.5E1,4.97E2,3E0,3E1,6E0,7E1,1.62E2,6.83E2,5E0,8E0,1.5E1,5E0,4E0,1.2E1,2E0,1.1E1,1E1,3.1E1,3.5E1,1.8E1,8E0,6E0,5.7E2,5.7E1,7.1E1,1.93E2,8.3E1,1.88E2,1.425E3,5.29E2,4.8E1,7.31E2],"tree_param":{"num_deleted":"0","num_feature":"12","num_nodes":"149","size_leaf_vector":"0"}},{"base_weights":[2.0491805E0,1.5706638E1,2.0014293E0,8.2320935E-1,1.7529703E1,6.5115914E-3,2.2086413E0,2.5151918E0,-2.5521114E-1,2.6051361E1,1.487576E1,1.7431532E0,-8.511484E-3,3.596645E-1,2.3856564E0,3.9237366E0,1.8603914E1,1.0417635E0,1.9834033E0,-2.1040735E-1,1.20531544E-1,1.800977E0,-2.5891647E-1,7.0605345E0,2.3423004E0,1.1861652E1,1.1758924E0,1.9792297E1,2.0580597E0,4.3969058E-2,-2.1975125E-1,5.602322E-1,1.0477437E-1,8.626431E0,1.673519E0,2.2966415E-2,-2.6697767E-1,3.278476E0,8.95545E0,1.8965743E0,2.4814935E0,9.167026E-2,-6.1090723E-2,-2.7405089E-2,-2.2468176E-1,2.8453913E-1,7.257665E-1,3.6801714E-2,1.3305253E-1,5.443043E0,1.2029139E1,1.3058896E0,2.2856297E0,-2.6688105E-1,8.364992E-1,-2.8021726E-1,-2.1980144E-1,6.6956916E0,2.985497E0,7.774291E0,1.0833727E1,1.4033313E0,1.9440185E0,4.009709E0,2.4308307E0,-0E0,-1.514612E-1,-6.3943304E-2,1.4229368E-1,-0E0,-2.2549722E-1,3.3817476E-1,1.3815708E-1,5.3771806E-1,8.3050424E-1,5.519565E-2,-2.4791667E-2,2.1168076E-1,1.2751938E-1,1.772291E0,1.2654877E0,4.1805787E0,2.1770604E0,1.3256396E0,-2.1795134E-1,-2.2879702E-1,-3.0170187E-1,-2.559584E-1,-7.438565E-2,1.185329E1,6.2792583E0,2.5431738E0,1.3709747E0,2.278161E0,1.8957013E0,3.1899216E0,4.4317656E0,1.9330685E0,2.5365326E0],"categories":[],"categories_nodes":[],"categories_segments":[],"categories_sizes":[],"default_left":[true,true,true,true,true,true,true,false,false,false,true,true,true,true,true,true,true,false,false,true,true,true,true,true,true,false,false,false,false,true,true,true,true,true,true,true,true,true,true,true,true,false,true,true,true,true,true,true,true,false,false,true,true,false,true,true,true,false,false,false,true,true,true,true,true,false,false,false,false,false,false,false,false,false,false,false,false,false,false,false,false,false,false,false,false,false,false,false,false,false,false,false,false,false,false,false,false,false,false],"id":2,"left_children":[1,3,5,7,9,11,13,-1,-1,-1,15,17,19,21,23,25,27,-1,-1,29,31,33,35,37,39,-1,-1,-1,-1,41,43,45,47,49,51,53,55,57,59,61,63,-1,65,67,69,71,73,75,77,-1,-1,79,81,-1,83,85,87,-1,-1,-1,89,91,93,95,97,-1,-1,-1,-1,-1,-1,-1,-1,-1,-1,-1,-1,-1,-1,-1,-1,-1,-1,-1,-1,-1,-1,-1,-1,-1,-1,-1,-1,-1,-1,-1,-1,-1,-1],"loss_changes":[5.1148086E3,7.3657764E2,3.237623E3,6.3287745E0,4.2051025E2,1.9266499E1,2.3219531E3,0E0,0E0,0E0,7.647383E2,3.3506393E-1,1.9063354E1,5.532473E2,1.3067969E3,1.1149728E2,2.679414E2,0E0,0E0,6.839304E-1,3.063335E0,1.5714124E2,9.924698E-1,4.1525903E2,3.9644922E2,0E0,0E0,0E0,0E0,5.4089665E-2,2.554674E-1,6.1649275E-1,8.250284E-1,1.4025314E1,4.0208984E1,2.9908092E0,2.361145E-1,1.3553131E1,5.8911133E1,3.4808105E1,3.751328E2,0E0,1.814973E-2,4.7387682E-2,4.765606E-2,2.735126E-2,1.53923035E-2,1.4515176E-1,1.1856413E-1,0E0,0E0,1.3820343E0,1.0932739E1,0E0,1.8314676E0,3.3213806E-1,4.8492527E-1,0E0,0E0,0E0,4.147937E1,3.7727966E0,2.0995605E1,4.9267822E1,2.4728906E2,0E0,0E0,0E0,0E0,0E0,0E0,0E0,0E0,0E0,0E0,0E0,0E0,0E0,0E0,0E0,0E0,0E0,0E0,0E0,0E0,0E0,0E0,0E0,0E0,0E0,0E0,0E0,0E0,0E0,0E0,0E0,0E0,0E0,0E0],"parents":[2147483647,0,0,1,1,2,2,3,3,4,4,5,5,6,6,10,10,11,11,12,12,13,13,14,14,15,15,16,16,19,19,20,20,21,21,22,22,23,23,24,24,29,29,30,30,31,31,32,32,33,33,34,34,35,35,36,36,37,37,38,38,39,39,40,40,42,42,43,43,44,44,45,45,46,46,47,47,48,48,51,51,52,52,54,54,55,55,56,56,60,60,61,61,62,62,63,63,64,64],"right_children":[2,4,6,8,10,12,14,-1,-1,-1,16,18,20,22,24,26,28,-1,-1,30,32,34,36,38,40,-1,-1,-1,-1,42,44,46,48,50,52,54,56,58,60,62,64,-1,66,68,70,72,74,76,78,-1,-1,80,82,-1,84,86,88,-1,-1,-1,90,92,94,96,98,-1,-1,-1,-1,-1,-1,-1,-1,-1,-1,-1,-1,-1,-1,-1,-1,-1,-1,-1,-1,-1,-1,-1,-1,-1,-1,-1,-1,-1,-1,-1,-1,-1,-1],"split_conditions":[2.7272727E-2,5.5555556E-2,3.9510223E-1,5.719247E-1,1.6666667E-1,5E-1,5.5555556E-2,5.0303835E-2,-5.104223E-3,5.210272E-1,2.777778E-1,6.7664776E-3,7.6129995E-2,9.8790765E-1,5E-1,9.8790765E-1,4.4444448E-1,2.0835271E-2,3.9668065E-2,7.985258E-2,1.8427517E-2,5E-1,2.1276595E-3,1.6666667E-1,1.6666667E-1,2.3723304E-1,2.3517847E-2,3.9584595E-1,4.1161194E-2,1.8427517E-2,3.3636364E-1,6.818182E-1,1.3484347E-1,8.110852E-1,7.920965E-1,6.965602E-1,9.9787235E-1,9.8790765E-1,2.777778E-1,7.920965E-1,1.8427517E-2,1.8334051E-3,5.909091E-1,1.6878912E-2,1.48936175E-2,1.6666667E-1,1.6666667E-1,7.2727275E-1,1.3390663E-1,1.08860865E-1,2.4058276E-1,1.3390663E-1,2.0884521E-2,-5.337621E-3,3.3636364E-1,5.181818E-1,6.965602E-1,1.3391383E-1,5.970994E-2,1.5548582E-1,5E-1,1.2285012E-2,4.2424244E-1,6.818182E-1,9.8790765E-1,-0E0,-3.029224E-3,-1.2788661E-3,2.8458734E-3,-0E0,-4.509944E-3,6.763495E-3,2.7631416E-3,1.0754361E-2,1.6610084E-2,1.103913E-3,-4.9583334E-4,4.233615E-3,2.5503875E-3,3.5445817E-2,2.5309753E-2,8.361157E-2,4.3541208E-2,2.6512792E-2,-4.359027E-3,-4.5759403E-3,-6.0340376E-3,-5.119168E-3,-1.487713E-3,2.3706579E-1,1.2558517E-1,5.0863475E-2,2.7419493E-2,4.556322E-2,3.7914027E-2,6.379843E-2,8.863531E-2,3.866137E-2,5.0730653E-2],"split_indices":[2,4,6,6,4,0,4,0,0,0,4,9,6,6,0,6,4,0,0,11,11,0,10,4,4,0,0,0,0,11,2,2,6,6,6,11,10,6,4,6,11,0,2,6,10,4,4,11,11,0,0,11,11,0,2,2,11,0,0,0,4,11,2,2,6,0,0,0,0,0,0,0,0,0,0,0,0,0,0,0,0,0,0,0,0,0,0,0,0,0,0,0,0,0,0,0,0,0,0],"split_type":[0,0,0,0,0,0,0,0,0,0,0,0,0,0,0,0,0,0,0,0,0,0,0,0,0,0,0,0,0,0,0,0,0,0,0,0,0,0,0,0,0,0,0,0,0,0,0,0,0,0,0,0,0,0,0,0,0,0,0,0,0,0,0,0,0,0,0,0,0,0,0,0,0,0,0,0,0,0,0,0,0,0,0,0,0,0,0,0,0,0,0,0,0,0,0,0,0,0,0],"sum_hessian":[7.859E3,2.7E1,7.832E3,3E0,2.4E1,7.37E2,7.095E3,1E0,2E0,5E0,1.9E1,6E0,7.31E2,6.2E2,6.475E3,5E0,1.4E1,2E0,4E0,2.85E2,4.46E2,1.86E2,4.34E2,5.9E1,6.416E3,1E0,4E0,1.3E1,1E0,1E1,2.75E2,1.5E1,4.31E2,3E0,1.83E2,1.2E1,4.22E2,2E1,3.9E1,1.528E3,4.888E3,7E0,3E0,7E0,2.68E2,6E0,9E0,1.27E2,3.04E2,2E0,1E0,1.15E2,6.8E1,9E0,3E0,3.28E2,9.4E1,1E0,1.9E1,2.5E1,1.4E1,1.35E2,1.393E3,1.56E2,4.732E3,2E0,1E0,6E0,1E0,1E0,2.67E2,4E0,2E0,4E0,5E0,9.8E1,2.9E1,1.9E1,2.85E2,8E0,1.07E2,3E0,6.5E1,2E0,1E0,9.8E1,2.3E2,7.5E1,1.9E1,1.1E1,3E0,3E0,1.32E2,1.74E2,1.219E3,5.4E1,1.02E2,8.3E2,3.902E3],"tree_param":{"num_deleted":"0","num_feature":"12","num_nodes":"99","size_leaf_vector":"0"}},{"base_weights":[2.004774E0,6.3635488E0,1.9042782E0,3.8077445E0,1.1301418E1,-9.005159E-3,2.112702E0,3.3984265E0,8.508829E0,2.2639008E1,8.673402E0,-2.0796719E-1,1.148505E-1,3.7678033E-1,2.2736342E0,1.9626E0,5.096717E0,1.1503185E1,5.541217E0,2.4566872E1,2.0271919E0,3.655716E0,9.1996155E0,-6.409127E-2,-2.253155E-1,2.9218334E-1,8.020372E-2,1.6817818E0,-2.587405E-1,1.839043E0,2.4071035E0,5.1223564E-1,2.732239E0,1.1990964E0,5.424263E0,7.6723206E-1,4.259936E0,1.1052513E1,7.9572954E0,3.2124238E-3,-1.3971004E-1,-3.8962826E-2,-2.2735827E-1,2.3505165E-1,4.5878512E-1,2.3394242E-2,1.0470516E-1,1.3744862E0,2.263491E0,3.0275157E-1,-2.675094E-1,3.7962923E0,1.8107566E0,3.0772498E0,2.3075078E0,2.4369826E0,-2.929886E-1,9.663838E0,2.4669752E0,6.2915077E0,4.1038632E0,5.798843E0,3.213903E0,1.3973436E1,8.621532E0,2.1198392E0,8.144476E0,-9.811259E-2,3.7133213E-2,1.4015947E-1,-1.418677E-1,-2.3437344E-1,-2.0890398E-1,7.19597E-1,2.1333596E-1,-8.677766E-2,4.9089932E-1,1.0673385E-1,8.247978E-3,1.641023E-1,7.854132E-2,1.7024211E0,1.2980806E0,2.9557285E0,2.0630307E0,-2.7374226E-1,1.336201E0,-1.377358E-1,-2.851686E-1,1.0666791E1,3.282763E0,2.1064506E0,1.725972E0,3.639525E0,2.825327E0,1.3013366E0,2.3636894E0,1.3616693E0,6.1177697E0,2.0003138E0,3.8439407E0,9.903938E-1,4.254895E0,8.4188595E0,5.322515E0,-1.5850607E-1,6.670054E-2,9.719466E-2,6.3920794E-3,-5.8913153E-2,-1.7864734E-1,-2.5352252E-1,-2.226963E-1,-2.189136E-1,-1.7753728E-1,3.4742036E-1,9.011215E-1,2.4233401E-1,1.0217587E-1,4.1253838E-1,7.979606E-1,6.1502114E-2,6.573014E-1,-4.7436813E-3,6.484173E-2,1.1079612E-1,2.1104282E-1,1.00623846E-1,5.672109E-2,1.7656515E0,1.1421448E0,1.2062991E0,1.68955E0,1.5020128E0,3.1496956E0,-2.1218048E-1,2.528532E0,-2.503893E-1,-2.9353416E-1,1.8153304E0,4.3933907E0,1.9023786E0,2.434077E0,1.29894E0,1.7731594E0,3.4661374E0,5.7594867E0,2.4820611E0,3.102592E0,1.3270348E0,9.3982047E-1,2.0424469E0,2.4146664E0],"categories":[],"categories_nodes":[],"categories_segments":[],"categories_sizes":[],"default_left":[true,true,true,true,true,true,true,true,true,true,true,true,true,true,true,true,true,false,false,false,false,true,true,true,true,true,true,true,true,true,true,true,true,false,true,false,true,true,true,true,false,true,true,true,true,true,true,true,true,true,true,true,true,true,true,true,false,false,true,false,true,false,false,false,false,false,true,true,true,false,true,true,true,true,true,false,true,true,true,true,true,true,true,true,false,false,false,true,true,false,true,true,true,true,true,true,true,false,false,false,false,false,false,false,false,false,false,false,false,false,false,false,false,false,false,false,false,false,false,false,false,false,false,false,false,false,false,false,false,false,false,false,false,false,false,false,false,false,false,false,false,false,false,false,false,false,false,false,false,false,false,false,false],"id":3,"left_children":[1,3,5,7,9,11,13,15,17,19,21,23,25,27,29,31,33,-1,-1,-1,-1,35,37,39,41,43,45,47,49,51,53,55,57,-1,59,-1,61,63,65,67,-1,69,71,73,75,77,79,81,83,85,87,89,91,93,95,97,-1,-1,99,-1,101,-1,-1,-1,-1,-1,103,105,107,-1,109,111,113,115,117,-1,119,121,123,125,127,129,131,133,-1,-1,-1,135,137,-1,139,141,143,145,147,149,151,-1,-1,-1,-1,-1,-1,-1,-1,-1,-1,-1,-1,-1,-1,-1,-1,-1,-1,-1,-1,-1,-1,-1,-1,-1,-1,-1,-1,-1,-1,-1,-1,-1,-1,-1,-1,-1,-1,-1,-1,-1,-1,-1,-1,-1,-1,-1,-1,-1,-1,-1,-1,-1,-1,-1,-1],"loss_changes":[3.5038066E3,2.2612842E3,3.1217676E3,2.1981335E2,1.7615269E3,1.896765E1,1.9718125E3,2.6560645E2,6.1438904E1,4.3336914E2,1.2150073E2,7.2821045E-1,2.9011846E0,4.9722595E2,3.731953E2,6.6834656E1,6.1994873E1,0E0,0E0,0E0,0E0,8.14679E0,7.475342E1,1.6665539E-1,9.3491554E-2,6.9022036E-1,5.5041003E-1,3.400653E1,2.0123844E0,8.1743164E1,3.2735938E2,3.3332428E1,6.41994E1,0E0,4.4298462E1,0E0,6.3235474E-1,8.2583496E1,2.5054932E1,5.992067E-2,0E0,6.809956E-2,1.1052132E-2,5.492976E-1,3.5869884E-1,1.499613E-1,4.2323303E-1,2.4608612E0,7.2385864E0,3.9104683E0,8.914356E-1,6.3392822E1,3.6296875E1,8.6898926E1,2.4218164E2,2.2183247E1,0E0,0E0,2.1984726E1,0E0,7.6111755E0,0E0,0E0,0E0,0E0,0E0,6.0255127E0,4.796894E-2,2.2933602E-2,0E0,2.2124872E-4,1.5821457E-2,5.036831E-3,3.5438895E-2,1.6841578E-1,0E0,3.1409073E-1,4.32827E-1,7.620017E-2,1.9863272E-1,8.9009285E-2,1.1265564E-1,3.0995789E0,2.3976898E0,0E0,0E0,0E0,9.739554E0,6.937027E-2,0E0,3.0390762E1,2.0613647E1,2.2690186E1,6.537842E1,3.945166E1,1.6730957E0,6.50293E1,0E0,0E0,0E0,0E0,0E0,0E0,0E0,0E0,0E0,0E0,0E0,0E0,0E0,0E0,0E0,0E0,0E0,0E0,0E0,0E0,0E0,0E0,0E0,0E0,0E0,0E0,0E0,0E0,0E0,0E0,0E0,0E0,0E0,0E0,0E0,0E0,0E0,0E0,0E0,0E0,0E0,0E0,0E0,0E0,0E0,0E0,0E0,0E0,0E0,0E0,0E0,0E0,0E0,0E0,0E0,0E0],"parents":[2147483647,0,0,1,1,2,2,3,3,4,4,5,5,6,6,7,7,8,8,9,9,10,10,11,11,12,12,13,13,14,14,15,15,16,16,21,21,22,22,23,23,24,24,25,25,26,26,27,27,28,28,29,29,30,30,31,31,32,32,34,34,36,36,37,37,38,38,39,39,41,41,42,42,43,43,44,44,45,45,46,46,47,47,48,48,49,49,50,50,51,51,52,52,53,53,54,54,55,55,58,58,60,60,66,66,67,67,68,68,70,70,71,71,72,72,73,73,74,74,76,76,77,77,78,78,79,79,80,80,81,81,82,82,83,83,87,87,88,88,90,90,91,91,92,92,93,93,94,94,95,95,96,96],"right_children":[2,4,6,8,10,12,14,16,18,20,22,24,26,28,30,32,34,-1,-1,-1,-1,36,38,40,42,44,46,48,50,52,54,56,58,-1,60,-1,62,64,66,68,-1,70,72,74,76,78,80,82,84,86,88,90,92,94,96,98,-1,-1,100,-1,102,-1,-1,-1,-1,-1,104,106,108,-1,110,112,114,116,118,-1,120,122,124,126,128,130,132,134,-1,-1,-1,136,138,-1,140,142,144,146,148,150,152,-1,-1,-1,-1,-1,-1,-1,-1,-1,-1,-1,-1,-1,-1,-1,-1,-1,-1,-1,-1,-1,-1,-1,-1,-1,-1,-1,-1,-1,-1,-1,-1,-1,-1,-1,-1,-1,-1,-1,-1,-1,-1,-1,-1,-1,-1,-1,-1,-1,-1,-1,-1,-1,-1,-1,-1],"split_conditions":[7.4137926E-2,2.777778E-1,3.9510223E-1,1.3137093E-1,2.7272727E-2,7.6129995E-2,5.5555556E-2,1.6666667E-1,5E-1,4.4444448E-1,9.689189E-1,1.8518186E-1,2.0075622E-1,9.8790765E-1,1.6666667E-1,5.5555556E-2,2.7272727E-2,2.300637E-1,1.1082433E-1,4.9133742E-1,4.0543836E-2,3.2317758E-1,3.5289884E-2,3.275862E-1,3.3636364E-1,8.30303E-1,1.3484347E-1,9.5682657E-1,3.006842E-2,3.4479655E-2,1.8428159E-1,8.231776E-1,5.0082594E-1,2.3981929E-2,6.545454E-1,1.5344641E-2,5E-1,3.888889E-1,5.50054E-2,5.5555556E-2,-2.7942008E-3,2.1308967E-1,8.30303E-1,2.4576882E-2,1.0689655E-1,2.7758622E-1,3.2068965E-1,2.3620689E-1,1.9490457E-1,2.817789E-2,1.4259993E-1,1.1034483E-1,2.5927258E-1,1.6034484E-1,7.920965E-1,3.9510223E-1,-5.8597717E-3,1.9327676E-1,2.6737487E-2,1.2583016E-1,3.8609636E-1,1.15976855E-1,6.427806E-2,2.7946872E-1,1.7243065E-1,4.2396784E-2,5E-1,1.5205258E-1,1.1034483E-1,2.8031894E-3,2.7758622E-1,3.6677136E-3,4.8103446E-1,4.2424244E-1,5.8793104E-1,-1.7355531E-3,1.6330573E-1,2.689655E-1,2.777778E-1,1.6666667E-1,4.6034485E-1,4.78574E-1,7.920965E-1,1.5E-1,4.1260615E-2,-5.474845E-3,2.6724018E-2,1.4160964E-1,5.181818E-1,2.1333581E-1,4.2424244E-1,6.242424E-1,7.920965E-1,1.5E-1,2.777778E-1,9.6678066E-1,9.8790765E-1,2.7233385E-2,1.22355394E-1,4.0006272E-2,7.6878816E-2,1.9807875E-2,8.50979E-2,1.6837719E-1,1.064503E-1,-3.1701212E-3,1.3340107E-3,1.9438931E-3,1.2784159E-4,-1.178263E-3,-3.5729466E-3,-5.0704503E-3,-4.453926E-3,-4.3782718E-3,-3.5507455E-3,6.9484073E-3,1.802243E-2,4.84668E-3,2.0435173E-3,8.250767E-3,1.595921E-2,1.2300422E-3,1.3146028E-2,-9.487363E-5,1.2968347E-3,2.2159223E-3,4.2208564E-3,2.0124768E-3,1.1344218E-3,3.531303E-2,2.2842895E-2,2.412598E-2,3.3791002E-2,3.0040257E-2,6.2993914E-2,-4.2436095E-3,5.057064E-2,-5.007786E-3,-5.870683E-3,3.630661E-2,8.786781E-2,3.804757E-2,4.868154E-2,2.5978798E-2,3.5463188E-2,6.932275E-2,1.1518973E-1,4.964122E-2,6.205184E-2,2.6540697E-2,1.8796409E-2,4.0848937E-2,4.8293326E-2],"split_indices":[3,4,6,7,2,6,4,4,0,4,6,5,5,6,4,4,2,0,0,0,0,6,5,3,2,2,6,6,5,5,5,6,8,0,2,0,0,4,5,4,0,5,2,5,3,3,3,3,5,5,5,3,5,3,6,6,0,0,5,0,6,0,0,0,0,0,4,5,3,0,3,6,3,2,3,0,5,3,4,4,3,5,6,3,0,0,0,5,2,0,2,2,6,3,4,5,6,0,0,0,0,0,0,0,0,0,0,0,0,0,0,0,0,0,0,0,0,0,0,0,0,0,0,0,0,0,0,0,0,0,0,0,0,0,0,0,0,0,0,0,0,0,0,0,0,0,0,0,0,0,0,0,0],"split_type":[0,0,0,0,0,0,0,0,0,0,0,0,0,0,0,0,0,0,0,0,0,0,0,0,0,0,0,0,0,0,0,0,0,0,0,0,0,0,0,0,0,0,0,0,0,0,0,0,0,0,0,0,0,0,0,0,0,0,0,0,0,0,0,0,0,0,0,0,0,0,0,0,0,0,0,0,0,0,0,0,0,0,0,0,0,0,0,0,0,0,0,0,0,0,0,0,0,0,0,0,0,0,0,0,0,0,0,0,0,0,0,0,0,0,0,0,0,0,0,0,0,0,0,0,0,0,0,0,0,0,0,0,0,0,0,0,0,0,0,0,0,0,0,0,0,0,0,0,0,0,0,0,0],"sum_hessian":[8.008E3,1.8E2,7.828E3,1.19E2,6.1E1,7.69E2,7.059E3,1.1E2,9E0,1.1E1,5E1,2.95E2,4.74E2,5.99E2,6.46E3,6E1,5E1,4E0,5E0,1E1,1E0,5E0,4.5E1,3.2E1,2.63E2,7.7E1,3.97E2,1.96E2,4.03E2,1.519E3,4.941E3,2.1E1,3.9E1,4E0,4.6E1,1E0,4E0,1.7E1,2.8E1,1.7E1,1.5E1,3E0,2.6E2,5.8E1,1.9E1,1.2E2,2.77E2,1.29E2,6.7E1,6E0,3.97E2,2.1E1,1.498E3,6.38E2,4.303E3,6E0,1.5E1,1E0,3.8E1,2.7E1,1.9E1,1E0,3E0,7E0,1E1,1E0,2.7E1,4E0,1.3E1,1E0,2E0,1.85E2,7.5E1,2E0,5.6E1,1E0,1.8E1,1.8E1,1.02E2,8.4E1,1.93E2,2.3E1,1.06E2,1.4E1,5.3E1,4E0,2E0,4.8E1,3.49E2,1E0,2E1,3.32E2,1.166E3,1.96E2,4.42E2,2.28E2,4.075E3,5E0,1E0,2.9E1,9E0,1E0,1.8E1,2.4E1,3E0,3E0,1E0,4E0,9E0,1E0,1E0,6.7E1,1.18E2,5.5E1,2E1,1E0,1E0,4.4E1,1.2E1,1.5E1,3E0,1.7E1,1E0,8.3E1,1.9E1,4E1,4.4E1,9.5E1,9.8E1,2E1,3E0,8.7E1,1.9E1,2E0,1.2E1,4.7E1,1E0,7E1,2.79E2,9E0,1.1E1,2.06E2,1.26E2,1.17E2,1.049E3,1.82E2,1.4E1,1.99E2,2.43E2,2.12E2,1.6E1,5.6E2,3.515E3],"tree_param":{"num_deleted":"0","num_feature":"12","num_nodes":"153","size_leaf_vector":"0"}},{"base_weights":[1.9694915E0,1.7551742E-2,2.176499E0,1.5510888E0,-1.6179154E-2,6.6716075E0,2.0817862E0,3.243248E0,1.3692673E0,-2.0358272E-1,1.0892369E-1,1.0706564E1,5.7774315E0,2.6020644E0,1.9944246E0,1.5721662E0,8.878687E-1,-7.989467E-2,-2.1992898E-1,3.135318E-1,7.3643215E-2,5.959291E0,3.6302404E0,3.0405567E0,2.3673332E0,1.3035089E0,2.050007E0,9.3590343E-1,1.6857041E0,9.6267295E-1,4.120392E-1,1.926579E-2,-1.2557058E-1,-1.1971098E-2,-2.2226427E-1,7.088958E-1,2.9708883E-1,1.4070438E-1,4.398265E-2,5.580351E0,7.2370634E0,1.0540793E0,4.204617E0,1.5705636E0,3.147345E0,3.2562454E0,2.264408E0,1.3173201E0,1.0832587E0,2.9304705E0,2.0460026E0,-1.3484901E-2,1.536223E-1,-9.070538E-2,-1.5588409E-1,1.3805729E-1,-1.02107465E-1,-2.3073803E-1,-1.9994791E-1,3.4220958E-1,8.8760597E-1,2.0146906E-1,3.4259814E-1,4.531515E-2,1.8660323E-1,-7.1748015E-3,6.433544E-2,-2.1129997E-1,5.648417E0,1.241417E1,6.314318E0,2.2929716E0,-4.3771774E-1,2.9818115E0,1.3990223E0,4.6887074E0,3.0519361E0,4.0650268E0,2.860112E0,1.6111481E0,2.3346794E0,1.4972972E0,1.300107E0,7.208138E-1,1.16923E0,3.258264E0,5.3522974E-1,2.0279465E0,2.1540806E0,-3.7826583E-2,1.3131268E-1,-6.722844E-2,-1.430861E-1,-2.109958E-1,-2.4253345E-1,-2.1780036E-1,-1.544905E-1,2.7858695E-1,6.830756E-2,2.3227316E-1,3.738824E-1,1.0574737E-1,-2.9111741E-2,2.1818708E-1,9.223238E-2,-7.4363984E-2,5.7220818E-3,7.827328E-2,2.1669265E-2,5.838948E0,3.6297152E0,-3.111954E-1,7.005817E0,1.6464051E0,9.9410665E-1,3.5059252E0,9.656005E0,5.3573956E0,2.9843044E0,1.8405508E0,4.5421305E0,2.7731676E0,5.0899725E0,1.9156437E0,4.2252296E-1,1.5015626E0,2.3923907E0,1.2016941E0,1.3299955E0,2.9415765E-1,7.797433E-1,5.111315E-1,1.2248764E0,2.8804758E0,4.2088256E0,8.9340496E-1,-2.1470116E-1,2.20645E0,2.013234E0,8.876879E-1,2.1733305E0],"categories":[],"categories_nodes":[],"categories_segments":[],"categories_sizes":[],"default_left":[true,true,true,true,true,true,true,false,true,true,true,false,true,true,true,true,true,true,true,true,true,true,true,true,true,true,true,false,false,false,false,true,true,true,true,true,true,true,true,true,true,true,false,true,true,true,true,true,true,true,true,true,false,true,false,false,false,true,true,false,false,true,true,true,true,true,true,false,true,false,true,false,false,false,true,true,true,true,true,true,true,false,true,true,true,true,true,true,true,false,false,false,false,false,false,false,false,false,false,false,false,false,false,false,false,false,false,false,false,false,false,false,false,false,false,false,false,false,false,false,false,false,false,false,false,false,false,false,false,false,false,false,false,false,false,false,false,false,false,false,false],"id":4,"left_children":[1,3,5,7,9,11,13,-1,15,17,19,-1,21,23,25,27,29,31,33,35,37,39,41,43,45,47,49,-1,-1,-1,-1,51,53,55,57,59,61,63,65,67,69,71,-1,73,75,77,79,81,83,85,87,89,-1,91,-1,-1,-1,93,95,-1,-1,97,99,101,103,105,107,-1,109,-1,111,-1,-1,-1,113,115,117,119,121,123,125,-1,127,129,131,133,135,137,139,-1,-1,-1,-1,-1,-1,-1,-1,-1,-1,-1,-1,-1,-1,-1,-1,-1,-1,-1,-1,-1,-1,-1,-1,-1,-1,-1,-1,-1,-1,-1,-1,-1,-1,-1,-1,-1,-1,-1,-1,-1,-1,-1,-1,-1,-1,-1,-1,-1,-1,-1,-1],"loss_changes":[3.1942305E3,3.9257015E1,3.0381758E3,3.4786339E0,1.7412544E1,5.1071045E2,3.1638672E2,0E0,9.971256E-1,5.910244E-1,3.2014933E0,0E0,4.002832E1,1.0099951E2,2.2929883E2,1.8298912E-1,3.7956238E-2,1.6235702E-1,1.2317181E-1,3.401494E-1,7.518127E-1,4.0257324E1,1.373735E1,5.312207E1,5.751123E1,8.50647E-1,1.7490234E1,0E0,0E0,0E0,0E0,5.256006E-2,1.7485231E-2,4.9266636E-2,2.751255E-2,3.4080505E-2,2.4482346E-1,5.032096E-1,2.761925E-1,3.490381E1,8.983777E1,4.673826E0,0E0,4.437214E0,4.2961426E1,1.759674E1,2.5743164E1,6.100464E-1,5.748558E-1,1.8469635E1,9.265625E0,3.3219803E-2,0E0,8.959204E-3,0E0,0E0,0E0,1.9623756E-2,4.3792486E-2,0E0,0E0,2.0778227E-1,1.0850525E-1,1.7453535E-1,2.2234178E-1,6.6399805E-2,1.1060053E-1,0E0,2.6003418E1,0E0,9.85625E1,0E0,0E0,0E0,1.6536674E0,9.623654E1,4.2469482E1,1.9762482E1,4.1636047E0,2.0809448E1,2.4292969E1,0E0,5.6433105E-1,6.743455E-2,5.843315E-1,3.5171356E0,9.690386E-1,1.090625E1,1.845752E1,0E0,0E0,0E0,0E0,0E0,0E0,0E0,0E0,0E0,0E0,0E0,0E0,0E0,0E0,0E0,0E0,0E0,0E0,0E0,0E0,0E0,0E0,0E0,0E0,0E0,0E0,0E0,0E0,0E0,0E0,0E0,0E0,0E0,0E0,0E0,0E0,0E0,0E0,0E0,0E0,0E0,0E0,0E0,0E0,0E0,0E0,0E0,0E0,0E0,0E0,0E0,0E0],"parents":[2147483647,0,0,1,1,2,2,3,3,4,4,5,5,6,6,8,8,9,9,10,10,12,12,13,13,14,14,15,15,16,16,17,17,18,18,19,19,20,20,21,21,22,22,23,23,24,24,25,25,26,26,31,31,32,32,33,33,34,34,35,35,36,36,37,37,38,38,39,39,40,40,41,41,43,43,44,44,45,45,46,46,47,47,48,48,49,49,50,50,51,51,53,53,57,57,58,58,61,61,62,62,63,63,64,64,65,65,66,66,68,68,70,70,74,74,75,75,76,76,77,77,78,78,79,79,80,80,82,82,83,83,84,84,85,85,86,86,87,87,88,88],"right_children":[2,4,6,8,10,12,14,-1,16,18,20,-1,22,24,26,28,30,32,34,36,38,40,42,44,46,48,50,-1,-1,-1,-1,52,54,56,58,60,62,64,66,68,70,72,-1,74,76,78,80,82,84,86,88,90,-1,92,-1,-1,-1,94,96,-1,-1,98,100,102,104,106,108,-1,110,-1,112,-1,-1,-1,114,116,118,120,122,124,126,-1,128,130,132,134,136,138,140,-1,-1,-1,-1,-1,-1,-1,-1,-1,-1,-1,-1,-1,-1,-1,-1,-1,-1,-1,-1,-1,-1,-1,-1,-1,-1,-1,-1,-1,-1,-1,-1,-1,-1,-1,-1,-1,-1,-1,-1,-1,-1,-1,-1,-1,-1,-1,-1,-1,-1,-1,-1],"split_conditions":[3.9510223E-1,6.724138E-2,6.724138E-2,2.7272727E-2,7.6129995E-2,2.7272727E-2,1.8374145E-1,6.4864956E-2,5.272727E-1,1.8518186E-1,1.7572922E-1,2.1413128E-1,1.3854879E-1,2.086207E-1,7.920965E-1,3.6677136E-3,1.3484347E-1,1.6379312E-1,3.3636364E-1,2.4576882E-2,3.2068965E-1,1.3161685E-1,1.389089E-1,7.920965E-1,3.4299605E-2,9.663306E-1,9.3103446E-2,1.8718068E-2,3.3714082E-2,1.9253459E-2,8.240784E-3,1.717681E-1,4.2931035E-1,2.1308967E-1,8.30303E-1,4.2424244E-1,1.3484347E-1,1.3484347E-1,1.3484347E-1,5.0041294E-1,1.3224703E-1,8.231776E-1,8.409234E-2,3.871084E-2,4.1296717E-4,2.741379E-1,4.8973713E-2,2.3620689E-1,6.8793106E-1,2.2767374E-1,9.212121E-1,6.068796E-1,3.072446E-3,1.6878912E-2,-3.1176817E-3,2.7611458E-3,-2.0421492E-3,6.242424E-1,4.1206896E-1,6.8441913E-3,1.7752118E-2,1.12531506E-1,4.1296717E-4,4.838855E-1,5.915556E-1,3.6551723E-1,7.2727275E-1,-4.225999E-3,1.2882608E-1,2.482834E-1,1.3332734E-1,4.585943E-2,-8.754355E-3,5.9636228E-2,1.4899172E-1,3.8980916E-2,2.0975873E-2,1.9805547E-2,4.4827586E-1,1.2389015E-3,7.920965E-1,2.9945944E-2,3.2068965E-1,7.5757575E-1,9.6822107E-1,2.2182211E-1,2.3406553E-1,4.2424244E-1,1.8986318E-1,-7.5653166E-4,2.6262535E-3,-1.3445687E-3,-2.8617221E-3,-4.2199157E-3,-4.850669E-3,-4.356007E-3,-3.08981E-3,5.571739E-3,1.3661513E-3,4.645463E-3,7.477648E-3,2.1149474E-3,-5.822348E-4,4.3637413E-3,1.8446475E-3,-1.4872797E-3,1.1444163E-4,1.5654656E-3,4.3338528E-4,1.16778955E-1,7.25943E-2,-6.223908E-3,1.4011633E-1,3.29281E-2,1.9882133E-2,7.01185E-2,1.9312009E-1,1.0714791E-1,5.9686087E-2,3.6811016E-2,9.0842605E-2,5.546335E-2,1.0179945E-1,3.8312875E-2,8.450459E-3,3.003125E-2,4.7847815E-2,2.4033882E-2,2.659991E-2,5.883153E-3,1.5594866E-2,1.0222631E-2,2.4497528E-2,5.7609513E-2,8.417651E-2,1.78681E-2,-4.294023E-3,4.4129E-2,4.0264677E-2,1.7753758E-2,4.346661E-2],"split_indices":[6,3,3,2,6,2,5,0,2,5,5,0,5,3,6,6,6,3,2,5,3,5,5,6,5,5,3,0,0,0,0,5,3,5,2,2,6,6,6,8,5,6,0,5,8,3,5,3,3,5,2,11,0,6,0,0,0,2,3,0,0,5,8,5,5,3,11,0,5,0,5,0,0,0,5,5,5,5,3,8,6,0,3,2,5,5,5,2,5,0,0,0,0,0,0,0,0,0,0,0,0,0,0,0,0,0,0,0,0,0,0,0,0,0,0,0,0,0,0,0,0,0,0,0,0,0,0,0,0,0,0,0,0,0,0,0,0,0,0,0,0],"split_type":[0,0,0,0,0,0,0,0,0,0,0,0,0,0,0,0,0,0,0,0,0,0,0,0,0,0,0,0,0,0,0,0,0,0,0,0,0,0,0,0,0,0,0,0,0,0,0,0,0,0,0,0,0,0,0,0,0,0,0,0,0,0,0,0,0,0,0,0,0,0,0,0,0,0,0,0,0,0,0,0,0,0,0,0,0,0,0,0,0,0,0,0,0,0,0,0,0,0,0,0,0,0,0,0,0,0,0,0,0,0,0,0,0,0,0,0,0,0,0,0,0,0,0,0,0,0,0,0,0,0,0,0,0,0,0,0,0,0,0,0,0],"sum_hessian":[7.905E3,7.58E2,7.147E3,1.6E1,7.42E2,1.47E2,7E3,1E0,1.5E1,2.97E2,4.45E2,2.6E1,1.21E2,1.005E3,5.995E3,1E1,5E0,3.5E1,2.62E2,6.5E1,3.8E2,1.11E2,1E1,3.49E2,6.56E2,4.47E2,5.548E3,2E0,8E0,4E0,1E0,1.1E1,2.4E1,3E0,2.59E2,2E0,6.3E1,1.16E2,2.64E2,8.7E1,2.4E1,2E0,8E0,2.4E1,3.25E2,6.7E1,5.89E2,4.19E2,2.8E1,2.4E1,5.524E3,9E0,2E0,1.2E1,1.2E1,1E0,2E0,1.85E2,7.4E1,1E0,1E0,2.1E1,4.2E1,3.8E1,7.8E1,7.5E1,1.89E2,1E0,8.6E1,3E0,2.1E1,1E0,1E0,2E0,2.2E1,1.8E1,3.07E2,2.1E1,4.6E1,5.8E1,5.31E2,3.4E1,3.85E2,6E0,2.2E1,2.1E1,3E0,4.739E3,7.85E2,8E0,1E0,9E0,3E0,7.2E1,1.13E2,5.2E1,2.2E1,1.3E1,8E0,1E1,3.2E1,2.1E1,1.7E1,5.8E1,2E1,1.2E1,6.3E1,1.42E2,4.7E1,7.8E1,8E0,2E0,1.9E1,1.3E1,9E0,1.5E1,3E0,8E0,2.99E2,4E0,1.7E1,4.5E1,1E0,4.6E1,1.2E1,3.5E1,4.96E2,9.3E1,2.92E2,1E0,5E0,2E0,2E1,1.6E1,5E0,2E0,1E0,3.57E2,4.382E3,1.2E1,7.73E2],"tree_param":{"num_deleted":"0","num_feature":"12","num_nodes":"141","size_leaf_vector":"0"}},{"base_weights":[1.9275471E0,5.950306E-1,3.1277254E0,1.0522092E-2,7.464592E-1,1.5001897E1,2.969699E0,1.4103142E0,-1.2289991E-2,1.6206088E0,4.2640263E-1,2.2982891E1,1.2041271E1,2.0354316E0,3.203816E0,2.0261257E0,1.138459E0,-1.9549155E-1,1.04968764E-1,1.2138516E0,2.1323004E0,3.7607226E-1,5.3666204E-1,9.153895E0,3.257159E1,2.1375408E1,1.0202041E1,2.659534E0,1.950493E0,7.6051583E0,3.156774E0,9.7835857E-1,2.329214E0,1.2974124E0,7.182858E-1,-5.2054834E-2,-2.1403195E-1,2.281811E-1,5.2101802E-2,1.0312685E1,1.1854746E0,3.0017023E0,2.0509317E0,4.4779745E-1,2.9740474E-1,1.3448477E0,4.920435E-1,2.1107483E1,2.0094657E0,6.7860435E1,1.7852728E1,2.9849737E0,1.2356215E1,7.3182073E0,2.585693E0,1.8858384E0,2.1717288E0,2.9189992E0,9.230983E0,3.907565E0,2.991939E0,7.571569E-1,1.4851964E0,3.9188772E-2,-1.0230478E-1,-2.3766983E-1,-2.0210716E-1,3.5553014E-1,1.916892E-1,2.3754497E-1,1.9433232E-2,5.8184665E-1,1.4044462E0,1.9575629E0,2.4222274E0,3.178774E-1,6.975922E-1,2.5169858E-1,6.032485E-1,1.4529854E0,-3.8596797E-1,7.887763E-1,3.9098105E-1,2.557512E1,1.1350635E1,2.0959833E0,3.1819254E1,1.9082365E1,9.591023E0,2.7792437E0,2.4119983E0,1.909089E0,1.4973261E0,2.0479052E0,2.514348E0,1.2781862E1,6.636302E0,3.250488E0,4.5401583E0,3.1509311E0,2.590061E0,1.6078509E-3,1.9389772E-1,-1.3425428E-1,-7.161358E-2,-1.9027582E-1,-2.355812E-1,8.742933E-1,3.2741964E-1,2.4163055E-1,1.598709E-1,1.6352019E-1,3.7836006E-1,-3.1613935E-2,9.835329E-2,3.053829E0,5.519779E-1,1.6958662E0,1.3347384E0,1.869795E0,2.0632937E0,2.631162E0,1.9006034E0,3.3513758E-1,-3.91155E-1,8.2488096E-1,3.8840595E-1,-1.9840236E-1,2.7874973E-1,8.749094E-1,3.148505E-1,1.1103047E0,2.178505E0,7.0349985E-1,2.1691535E0,6.9125414E-1,3.4434626E-1,7.8628216E0,2.2795294E1,2.2200325E0,1.210963E1,3.4161928E0,2.5268764E0,1.8008417E0,2.027276E0,1.3450141E0,2.1360965E0,2.023109E0,3.3023827E0,2.5038438E0,7.1924734E0,4.2571454E0,2.9119127E0,6.533227E0,3.7507508E0,2.8954043E0,3.830336E0,2.9513454E0,2.5261734E0],"categories":[],"categories_nodes":[],"categories_segments":[],"categories_sizes":[],"default_left":[true,true,true,true,true,true,true,true,true,true,true,true,true,true,true,true,true,true,true,true,true,true,true,true,true,false,true,true,true,true,true,false,false,true,false,true,true,true,true,false,true,false,true,true,true,true,true,true,false,false,true,false,true,false,true,true,true,false,true,true,true,false,false,true,true,false,true,true,true,true,true,true,true,true,true,true,true,true,true,true,false,true,true,false,false,false,false,true,true,true,false,true,false,true,true,false,true,true,true,true,true,false,false,false,false,false,false,false,false,false,false,false,false,false,false,false,false,false,false,false,false,false,false,false,false,false,false,false,false,false,false,false,false,false,false,false,false,false,false,false,false,false,false,false,false,false,false,false,false,false,false,false,false,false,false,false,false,false,false],"id":5,"left_children":[1,3,5,7,9,11,13,15,17,19,21,23,25,27,29,31,33,35,37,39,41,43,45,47,49,-1,51,53,55,57,59,-1,-1,61,-1,63,65,67,69,-1,71,-1,73,75,77,79,81,83,-1,-1,85,-1,87,-1,89,91,93,-1,95,97,99,-1,-1,101,103,-1,105,107,109,111,113,115,117,119,121,123,125,127,129,131,-1,133,135,-1,-1,-1,-1,137,139,141,-1,143,-1,145,147,-1,149,151,153,155,157,-1,-1,-1,-1,-1,-1,-1,-1,-1,-1,-1,-1,-1,-1,-1,-1,-1,-1,-1,-1,-1,-1,-1,-1,-1,-1,-1,-1,-1,-1,-1,-1,-1,-1,-1,-1,-1,-1,-1,-1,-1,-1,-1,-1,-1,-1,-1,-1,-1,-1,-1,-1,-1,-1,-1,-1,-1,-1],"loss_changes":[1.2594014E4,3.303402E2,7.7595664E3,2.4560278E1,8.290939E2,1.1910459E3,8.922031E2,1.2504215E0,1.625568E1,1.6441724E2,1.1963715E1,1.800626E3,6.192588E2,4.1690674E1,6.6875E2,2.5150013E-1,2.83844E-1,7.7789116E-1,2.9970999E0,1.1022662E2,2.2729004E1,8.359711E0,2.4249954E1,5.264144E2,3.9232803E3,0E0,5.212578E2,2.7031372E1,8.923096E0,2.5242358E2,3.9639648E2,0E0,0E0,2.3555565E-1,0E0,1.5965572E-1,5.1372528E-2,6.1233234E-1,1.9536016E0,0E0,5.816565E1,0E0,9.530762E0,2.5203552E1,9.894844E0,6.8154716E0,1.9202957E1,4.3847656E0,0E0,0E0,1.3710642E3,0E0,4.2833813E2,0E0,9.2907715E-1,4.077759E0,5.062317E0,0E0,2.0484375E2,2.3660645E2,1.6679688E2,0E0,0E0,6.8815425E-2,1.5756845E-2,0E0,4.8813343E-2,3.2974315E-1,1.5353847E-1,4.7545767E-1,1.1112098E0,8.123623E0,5.7905884E0,1.0639038E0,5.170166E0,6.325096E0,1.0357651E1,7.5726204E0,7.125168E0,7.4339066E0,0E0,1.8676727E1,6.6460495E0,0E0,0E0,0E0,0E0,2.4528589E2,3.4974902E2,4.002228E0,0E0,5.5E0,0E0,6.451599E0,1.3696838E1,0E0,2.9098022E1,9.335474E1,4.5634277E2,3.2611523E2,1.4847168E1,0E0,0E0,0E0,0E0,0E0,0E0,0E0,0E0,0E0,0E0,0E0,0E0,0E0,0E0,0E0,0E0,0E0,0E0,0E0,0E0,0E0,0E0,0E0,0E0,0E0,0E0,0E0,0E0,0E0,0E0,0E0,0E0,0E0,0E0,0E0,0E0,0E0,0E0,0E0,0E0,0E0,0E0,0E0,0E0,0E0,0E0,0E0,0E0,0E0,0E0,0E0,0E0,0E0,0E0,0E0,0E0,0E0,0E0],"parents":[2147483647,0,0,1,1,2,2,3,3,4,4,5,5,6,6,7,7,8,8,9,9,10,10,11,11,12,12,13,13,14,14,15,15,16,16,17,17,18,18,19,19,20,20,21,21,22,22,23,23,24,24,26,26,27,27,28,28,29,29,30,30,33,33,35,35,36,36,37,37,38,38,40,40,42,42,43,43,44,44,45,45,46,46,47,47,50,50,52,52,54,54,55,55,56,56,58,58,59,59,60,60,63,63,64,64,66,66,67,67,68,68,69,69,70,70,71,71,72,72,73,73,74,74,75,75,76,76,77,77,78,78,79,79,81,81,82,82,87,87,88,88,89,89,91,91,93,93,94,94,96,96,97,97,98,98,99,99,100,100],"right_children":[2,4,6,8,10,12,14,16,18,20,22,24,26,28,30,32,34,36,38,40,42,44,46,48,50,-1,52,54,56,58,60,-1,-1,62,-1,64,66,68,70,-1,72,-1,74,76,78,80,82,84,-1,-1,86,-1,88,-1,90,92,94,-1,96,98,100,-1,-1,102,104,-1,106,108,110,112,114,116,118,120,122,124,126,128,130,132,-1,134,136,-1,-1,-1,-1,138,140,142,-1,144,-1,146,148,-1,150,152,154,156,158,-1,-1,-1,-1,-1,-1,-1,-1,-1,-1,-1,-1,-1,-1,-1,-1,-1,-1,-1,-1,-1,-1,-1,-1,-1,-1,-1,-1,-1,-1,-1,-1,-1,-1,-1,-1,-1,-1,-1,-1,-1,-1,-1,-1,-1,-1,-1,-1,-1,-1,-1,-1,-1,-1,-1,-1,-1,-1],"split_conditions":[6.621175E-1,3.9510223E-1,1.7734967E-2,6.724138E-2,6.572582E-1,2.2506302E-3,9.8790765E-1,3.4743626E-2,7.6129995E-2,6.028142E-1,6.983255E-1,8.2218254E-1,7.7943826E-1,1.7725962E-1,7.4137926E-2,1.4517292E-2,1.2432481E-1,1.7662945E-1,8.23977E-2,2.2506302E-3,2.2731364E-1,3.510083E-1,2.7021277E-1,9.8790765E-1,8.349742E-1,4.2750815E-1,7.938249E-1,6.724138E-2,9.345995E-1,8.2218254E-1,2.042672E-1,1.9567171E-2,4.6584282E-2,1.6878912E-2,1.4365716E-2,1.8965518E-1,3.6677136E-3,2.0219663E-1,1.7239827E-1,2.0625369E-1,3.7966675E-1,6.0034044E-2,6.450739E-1,2.3865682E-1,5.672414E-1,8.0725604E-1,4.2413795E-1,8.012924E-1,4.0189315E-2,1.3572087E0,8.7090075E-1,5.9699472E-2,8.349742E-1,1.4636414E-1,2.5344828E-1,9.02244E-1,9.9787235E-1,5.837998E-2,8.349742E-1,8.2218254E-1,8.4422266E-1,1.5143137E-2,2.9703926E-2,1.6878912E-2,2.0297873E-1,-4.7533964E-3,3.206274E-1,3.2679148E-2,3.2931036E-1,3.204424E-1,2.9355994E-1,5.3448275E-2,2.2173208E-1,6.341465E-1,6.4979887E-1,2.331653E-1,3.948276E-1,3.6739287E-1,6.586207E-1,8.5862064E-1,-7.7193594E-3,4.0862072E-1,3.9234042E-1,5.115024E-1,2.2701268E-1,4.1919664E-2,6.363851E-1,8.2218254E-1,8.571358E-1,5.068419E-2,4.8239965E-2,7.7778685E-1,2.9946523E-2,9.5665354E-1,3.327586E-1,2.5563723E-1,8.54249E-1,7.6706135E-1,8.349742E-1,8.2218254E-1,3.4308606E-1,3.215702E-5,3.8779543E-3,-2.6850854E-3,-1.4322716E-3,-3.8055163E-3,-4.711624E-3,1.7485866E-2,6.5483926E-3,4.832611E-3,3.1974178E-3,3.2704037E-3,7.5672013E-3,-6.322787E-4,1.9670657E-3,6.1076578E-2,1.1039557E-2,3.3917323E-2,2.6694767E-2,3.73959E-2,4.126587E-2,5.262324E-2,3.801207E-2,6.7027514E-3,-7.8231E-3,1.649762E-2,7.7681188E-3,-3.968047E-3,5.5749947E-3,1.7498188E-2,6.29701E-3,2.2206094E-2,4.3570098E-2,1.4069997E-2,4.338307E-2,1.3825082E-2,6.886925E-3,1.5725642E-1,4.5590585E-1,4.4400647E-2,2.4219258E-1,6.832385E-2,5.0537527E-2,3.6016833E-2,4.054552E-2,2.6900282E-2,4.2721927E-2,4.0462177E-2,6.604765E-2,5.0076876E-2,1.4384946E-1,8.51429E-2,5.8238253E-2,1.3066454E-1,7.5015016E-2,5.7908084E-2,7.660672E-2,5.9026908E-2,5.0523467E-2],"split_indices":[1,6,5,3,1,5,6,1,6,1,5,1,1,5,3,1,5,5,1,5,5,5,10,6,1,0,1,3,1,1,5,0,0,6,0,3,6,5,5,0,1,0,1,5,3,5,3,1,0,0,1,0,1,0,3,1,10,0,1,1,1,0,0,6,10,0,1,5,3,1,1,3,5,1,1,5,3,5,3,3,0,3,10,0,0,0,0,1,1,5,0,1,0,1,3,0,1,1,1,1,5,0,0,0,0,0,0,0,0,0,0,0,0,0,0,0,0,0,0,0,0,0,0,0,0,0,0,0,0,0,0,0,0,0,0,0,0,0,0,0,0,0,0,0,0,0,0,0,0,0,0,0,0,0,0,0,0,0,0],"split_type":[0,0,0,0,0,0,0,0,0,0,0,0,0,0,0,0,0,0,0,0,0,0,0,0,0,0,0,0,0,0,0,0,0,0,0,0,0,0,0,0,0,0,0,0,0,0,0,0,0,0,0,0,0,0,0,0,0,0,0,0,0,0,0,0,0,0,0,0,0,0,0,0,0,0,0,0,0,0,0,0,0,0,0,0,0,0,0,0,0,0,0,0,0,0,0,0,0,0,0,0,0,0,0,0,0,0,0,0,0,0,0,0,0,0,0,0,0,0,0,0,0,0,0,0,0,0,0,0,0,0,0,0,0,0,0,0,0,0,0,0,0,0,0,0,0,0,0,0,0,0,0,0,0,0,0,0,0,0,0],"sum_hessian":[7.875E3,3.732E3,4.143E3,7.68E2,2.964E3,5.4E1,4.089E3,1.2E1,7.56E2,7.94E2,2.17E3,1.4E1,4E1,8.2E2,3.269E3,3E0,9E0,2.95E2,4.61E2,4.43E2,3.51E2,1.491E3,6.79E2,6E0,8E0,6E0,3.4E1,9.7E1,7.23E2,3.4E1,3.235E3,1E0,2E0,6E0,3E0,3.4E1,2.61E2,1.38E2,3.23E2,1E0,4.42E2,2.9E1,3.22E2,7.79E2,7.12E2,3.5E1,6.44E2,2E0,4E0,2E0,6E0,8E0,2.6E1,1E0,9.6E1,5.62E2,1.61E2,9E0,2.5E1,5.81E2,2.654E3,2E0,4E0,1.2E1,2.2E1,8.5E1,1.76E2,3E1,1.08E2,4.8E1,2.75E2,1.18E2,3.24E2,2.59E2,6.3E1,5.13E2,2.66E2,6.2E2,9.2E1,3.3E1,2E0,1.63E2,4.81E2,1E0,1E0,3E0,3E0,7E0,1.9E1,4.3E1,5.3E1,5.29E2,3.3E1,1.2E2,4.1E1,1E1,1.5E1,2.86E2,2.95E2,1.9E3,7.54E2,1E1,2E0,1E1,1.2E1,1.32E2,4.4E1,1E0,2.9E1,4.1E1,6.7E1,3.2E1,1.6E1,1.67E2,1.08E2,1E0,1.17E2,6.1E1,2.63E2,1.45E2,1.14E2,4.4E1,1.9E1,5.01E2,1.2E1,1.88E2,7.8E1,3.5E1,5.85E2,4.7E1,4.5E1,2.3E1,1E1,1.54E2,9E0,6.4E1,4.17E2,2E0,5E0,5E0,1.4E1,1.1E1,3.2E1,2.79E2,2.5E2,1.4E1,1.06E2,2.6E1,1.5E1,2E0,1.3E1,7.1E1,2.15E2,8.3E1,2.12E2,1.382E3,5.18E2,1.11E2,6.43E2],"tree_param":{"num_deleted":"0","num_feature":"12","num_nodes":"159","size_leaf_vector":"0"}},{"base_weights":[1.8801439E0,6.339257E-1,2.9936166E0,2.3848307E-1,9.3871564E-1,9.250625E0,2.8699987E0,4.6600692E-2,1.0363325E0,5.083136E-3,1.1290431E0,1.740321E1,8.514304E0,3.101342E0,1.9824282E0,-2.5639644E-1,2.6040164E-1,6.856941E0,9.5362794E-1,-1.77628E-1,1.3139024E-1,1.7409326E0,8.505387E-1,2.1463171E1,7.3703203E0,4.366745E0,1.0343975E1,3.6970935E0,2.9897547E0,2.2870486E0,1.9212084E0,8.883901E-2,-3.35078E-1,-1.5222056E-1,3.0738983E-1,3.5379012E0,9.189957E0,2.737788E-1,1.4329389E0,8.450818E-1,-1.9396399E-1,9.85186E-1,1.0893031E-1,1.2290534E0,2.097551E0,6.517303E-1,1.012958E0,2.8877542E0,1.2947161E1,1.4892309E1,8.980043E0,3.1787682E0,4.175253E0,3.1353354E0,2.642333E0,2.1622157E0,3.6320279E0,1.8740139E0,2.1063282E0,1.054306E0,6.548197E-2,-2.013934E-1,-3.4680828E-1,1.1814847E0,-1.9251306E-1,6.098775E-1,2.4161108E-1,1.4631219E-1,7.8953934E-1,2.3216069E0,1.3980314E0,1.9057398E-1,-1.9995613E-1,1.0912036E0,3.8358364E-1,2.2490019E-1,5.6972302E-2,5.6715685E-1,1.3986449E0,3.5283854E0,2.061785E0,6.2521225E-1,2.1336868E0,7.8139085E-1,1.1293486E0,2.158116E1,1.2686414E1,2.3879912E0,1.1424418E1,3.9303E0,2.9118319E0,5.8627086E0,3.4928012E0,2.8624957E0,3.8737724E0,3.2314758E0,2.6019423E0,2.5481138E0,1.928595E0,1.754261E0,7.958711E0,1.8973436E0,1.4829633E0,1.4064461E0,2.1233177E0,4.680519E-1,1.3662047E0,-1.9354244E-1,1.2851045E-1,-5.3644255E-2,-2.0466498E-1,1.6111963E0,4.4561318E-1,1.1709087E-2,-2.0405762E-1,1.6755487E-1,2.388394E0,1.3392104E-1,3.9866292E-1,6.2999524E-2,3.5528386E-1,1.1800885E0,4.613682E-1,1.273387E0,1.6283381E0,-2.1863358E-1,-1.7624632E-1,6.840607E-1,2.1364558E-1,2.5752738E-2,2.2369497E-1,4.2678848E-1,8.1538725E-1,1.210525E0,1.4483008E0,2.2080874E0,3.8827507E0,1.949275E0,2.4410584E0,7.980527E-1,4.8567414E-1,1.2529181E0,4.590671E0,4.6967927E-1,9.5320094E-1,1.1644133E0,6.645553E-2,2.6684427E0,1.7263333E0,1.5729563E1,6.5521307E0,5.7669673E0,3.5904102E0,6.62244E-2,2.9431899E0,5.173257E0,7.6420627E0,2.7052948E0,3.9101768E0,-1.270963E-1,2.881861E0,4.04044E0,3.0727158E0,2.5296075E0,3.4288127E0,2.6614716E0,2.4481933E0,2.8092148E0,2.3222704E0,1.841854E0,2.1742554E0,1.746059E1,1.3853492E0,1.8084137E0,1.9822054E0,1.683573E0,3.5125417E-1],"categories":[],"categories_nodes":[],"categories_segments":[],"categories_sizes":[],"default_left":[true,true,true,true,true,true,true,true,true,true,true,true,true,true,true,true,true,true,true,true,true,true,true,false,false,true,true,true,true,true,true,true,true,true,true,false,false,true,true,false,true,true,true,true,true,true,true,false,false,true,true,true,true,true,true,true,true,true,true,true,true,true,false,true,true,true,true,true,true,false,true,false,true,false,false,true,true,true,true,true,true,true,true,true,true,false,false,true,true,true,true,true,true,true,true,true,true,true,true,false,true,true,false,true,false,false,false,false,false,false,false,false,false,false,false,false,false,false,false,false,false,false,false,false,false,false,false,false,false,false,false,false,false,false,false,false,false,false,false,false,false,false,false,false,false,false,false,false,false,false,false,false,false,false,false,false,false,false,false,false,false,false,false,false,false,false,false,false,false,false,false,false,false,false,false,false,false],"id":6,"left_children":[1,3,5,7,9,11,13,15,17,19,21,23,25,27,29,31,33,35,37,39,41,43,45,-1,-1,47,49,51,53,55,57,59,61,63,65,-1,-1,67,69,-1,71,73,75,77,79,81,83,-1,-1,85,87,89,91,93,95,97,99,101,103,105,107,109,-1,111,113,115,117,119,121,-1,123,-1,125,-1,-1,127,129,131,133,135,137,139,141,143,145,-1,-1,147,149,151,153,155,157,159,161,163,165,167,169,-1,171,173,-1,175,-1,-1,-1,-1,-1,-1,-1,-1,-1,-1,-1,-1,-1,-1,-1,-1,-1,-1,-1,-1,-1,-1,-1,-1,-1,-1,-1,-1,-1,-1,-1,-1,-1,-1,-1,-1,-1,-1,-1,-1,-1,-1,-1,-1,-1,-1,-1,-1,-1,-1,-1,-1,-1,-1,-1,-1,-1,-1,-1,-1,-1,-1,-1,-1,-1,-1,-1,-1,-1,-1,-1,-1,-1],"loss_changes":[1.0914873E4,4.4734473E2,3.204254E3,2.4741818E2,3.7249194E2,4.3245312E2,8.3447656E2,8.445367E1,1.4854391E2,8.207408E0,2.9621655E2,2.0481897E2,5.4881934E2,2.110332E2,1.4201904E1,1.4663712E1,1.4836994E1,2.2531921E1,1.0064398E2,2.4734564E0,3.9820006E0,9.8458496E1,3.8418457E1,0E0,0E0,2.8341632E2,2.735166E2,1.2145557E2,1.3489453E2,2.069226E1,4.7805176E0,2.2235706E0,6.578331E-1,4.2712507E0,1.35948715E1,0E0,0E0,8.385059E0,4.4897766E0,0E0,3.43112E-1,1.7955399E-1,1.2289567E0,2.4889313E1,1.3887573E1,2.0710815E1,1.7421997E1,0E0,0E0,7.543506E1,6.406167E2,4.5302734E1,2.9629443E2,3.8250195E2,1.6300293E1,9.867126E0,8.7284454E1,4.1619873E0,6.224365E-1,1.8727589E-1,1.6127504E0,1.0216832E-2,0E0,4.6911168E-1,1.8350816E-1,9.606717E1,9.519123E0,1.7856042E0,3.0419397E0,0E0,4.3003235E0,0E0,4.410553E-2,0E0,0E0,2.6574636E-1,7.353678E-1,1.4806623E0,1.0433044E0,4.8521423E-1,1.1721191E1,1.2642944E1,1.8196564E1,1.168396E1,1.6256104E1,0E0,0E0,5.042114E-1,5.806101E2,3.2498535E1,1.6161987E1,7.9051025E1,5.8280518E1,8.1291016E1,6.4694824E1,3.9940186E0,4.676758E0,5.4248047E-1,3.4039307E-1,0E0,1.998711E2,2.760376E0,0E0,1.0409756E0,0E0,0E0,0E0,0E0,0E0,0E0,0E0,0E0,0E0,0E0,0E0,0E0,0E0,0E0,0E0,0E0,0E0,0E0,0E0,0E0,0E0,0E0,0E0,0E0,0E0,0E0,0E0,0E0,0E0,0E0,0E0,0E0,0E0,0E0,0E0,0E0,0E0,0E0,0E0,0E0,0E0,0E0,0E0,0E0,0E0,0E0,0E0,0E0,0E0,0E0,0E0,0E0,0E0,0E0,0E0,0E0,0E0,0E0,0E0,0E0,0E0,0E0,0E0,0E0,0E0,0E0,0E0,0E0,0E0,0E0,0E0,0E0,0E0],"parents":[2147483647,0,0,1,1,2,2,3,3,4,4,5,5,6,6,7,7,8,8,9,9,10,10,11,11,12,12,13,13,14,14,15,15,16,16,17,17,18,18,19,19,20,20,21,21,22,22,25,25,26,26,27,27,28,28,29,29,30,30,31,31,32,32,33,33,34,34,37,37,38,38,40,40,41,41,42,42,43,43,44,44,45,45,46,46,49,49,50,50,51,51,52,52,53,53,54,54,55,55,56,56,57,57,58,58,59,59,60,60,61,61,63,63,64,64,65,65,66,66,67,67,68,68,70,70,72,72,75,75,76,76,77,77,78,78,79,79,80,80,81,81,82,82,83,83,84,84,87,87,88,88,89,89,90,90,91,91,92,92,93,93,94,94,95,95,96,96,97,97,98,98,100,100,101,101,103,103],"right_children":[2,4,6,8,10,12,14,16,18,20,22,24,26,28,30,32,34,36,38,40,42,44,46,-1,-1,48,50,52,54,56,58,60,62,64,66,-1,-1,68,70,-1,72,74,76,78,80,82,84,-1,-1,86,88,90,92,94,96,98,100,102,104,106,108,110,-1,112,114,116,118,120,122,-1,124,-1,126,-1,-1,128,130,132,134,136,138,140,142,144,146,-1,-1,148,150,152,154,156,158,160,162,164,166,168,170,-1,172,174,-1,176,-1,-1,-1,-1,-1,-1,-1,-1,-1,-1,-1,-1,-1,-1,-1,-1,-1,-1,-1,-1,-1,-1,-1,-1,-1,-1,-1,-1,-1,-1,-1,-1,-1,-1,-1,-1,-1,-1,-1,-1,-1,-1,-1,-1,-1,-1,-1,-1,-1,-1,-1,-1,-1,-1,-1,-1,-1,-1,-1,-1,-1,-1,-1,-1,-1,-1,-1,-1,-1,-1,-1,-1,-1],"split_conditions":[6.621175E-1,1.6666667E-1,7.4137926E-2,7.090609E-2,4.2840246E-2,7.703592E-1,7.090609E-2,5.5555556E-2,1.8181819E-1,8.981001E-3,6.572582E-1,1.8181819E-1,8.2218254E-1,2.5344828E-1,1.4619164E-1,1.7815007E-2,2.3846036E-2,3.7589142E-1,3.7966675E-1,1.8181819E-1,7.241379E-2,6.028142E-1,2.777778E-1,4.292634E-1,1.474064E-1,1.166234E-1,8.349742E-1,8.2218254E-1,8.4422266E-1,3.327586E-1,9.5665354E-1,8.793104E-2,5.2628934E-1,1.8181819E-1,6.572582E-1,7.075802E-2,1.8379913E-1,3.443045E-1,1.8427517E-2,1.6901636E-2,7.125307E-2,1.4930731E-1,8.23977E-2,3.7966675E-1,1.5172413E-1,8.5862064E-1,3.5106385E-1,5.7755083E-2,2.589432E-1,1.8181819E-1,8.571358E-1,7.6706135E-1,8.349742E-1,8.2218254E-1,4.2424244E-1,2.5344828E-1,8.973799E-1,9.0605086E-1,2.2481573E-1,1.8342562E-1,1.5337423E-3,3.3636364E-1,-6.9361655E-3,1.7545955E-1,7.985258E-2,5.003473E-1,7.5757575E-1,3.704274E-2,3.7000573E-1,4.6432137E-2,4.4565028E-1,3.8114793E-3,2.3029846E-1,2.1824071E-2,7.6716724E-3,7.125307E-2,3.279013E-1,3.443045E-1,3.989272E-1,2.777778E-1,6.450739E-1,3.9234042E-1,8.2186735E-1,3.783784E-1,8.327586E-1,4.316232E-1,2.5372827E-1,2.777778E-1,1.6382979E-1,1.8427517E-2,5.5555556E-2,9.212121E-1,8.76709E-1,5.5555556E-2,8.349742E-1,8.76709E-1,3.888889E-1,1.6034484E-1,9.5664775E-1,3.508522E-2,2.777778E-1,7.7778685E-1,2.9659266E-2,3.5689655E-1,4.2466354E-2,9.361038E-3,2.7324094E-2,-3.8708486E-3,2.5702089E-3,-1.0728851E-3,-4.0932996E-3,3.2223925E-2,8.912263E-3,2.3418173E-4,-4.0811524E-3,3.3510972E-3,4.776788E-2,2.6784209E-3,7.973258E-3,1.2599905E-3,7.105677E-3,2.360177E-2,9.227363E-3,2.5467739E-2,3.256676E-2,-4.3726712E-3,-3.5249263E-3,1.3681213E-2,4.272911E-3,5.1505474E-4,4.473899E-3,8.53577E-3,1.6307745E-2,2.42105E-2,2.8966015E-2,4.416175E-2,7.765501E-2,3.89855E-2,4.8821166E-2,1.5961055E-2,9.713483E-3,2.5058363E-2,9.181342E-2,9.393585E-3,1.9064019E-2,2.3288267E-2,1.3291106E-3,5.336885E-2,3.4526665E-2,3.1459126E-1,1.3104261E-1,1.15339346E-1,7.1808204E-2,1.3244881E-3,5.8863796E-2,1.0346513E-1,1.5284126E-1,5.4105897E-2,7.820354E-2,-2.5419258E-3,5.763722E-2,8.08088E-2,6.1454315E-2,5.059215E-2,6.8576254E-2,5.3229433E-2,4.8963863E-2,5.6184296E-2,4.6445407E-2,3.683708E-2,4.3485105E-2,3.492118E-1,2.7706983E-2,3.6168274E-2,3.9644107E-2,3.367146E-2,7.025083E-3],"split_indices":[1,4,3,7,9,1,7,4,2,9,1,2,1,3,11,7,9,1,1,2,3,1,4,0,0,7,1,1,1,3,1,3,1,2,1,0,0,1,11,0,11,1,1,1,3,3,10,0,0,2,1,1,1,1,2,3,1,1,11,1,7,2,0,1,11,1,2,9,1,0,1,0,1,0,0,11,1,1,1,4,1,10,11,11,3,0,0,4,10,11,4,2,1,4,1,1,4,3,1,0,4,1,0,3,0,0,0,0,0,0,0,0,0,0,0,0,0,0,0,0,0,0,0,0,0,0,0,0,0,0,0,0,0,0,0,0,0,0,0,0,0,0,0,0,0,0,0,0,0,0,0,0,0,0,0,0,0,0,0,0,0,0,0,0,0,0,0,0,0,0,0,0,0,0,0,0,0],"split_type":[0,0,0,0,0,0,0,0,0,0,0,0,0,0,0,0,0,0,0,0,0,0,0,0,0,0,0,0,0,0,0,0,0,0,0,0,0,0,0,0,0,0,0,0,0,0,0,0,0,0,0,0,0,0,0,0,0,0,0,0,0,0,0,0,0,0,0,0,0,0,0,0,0,0,0,0,0,0,0,0,0,0,0,0,0,0,0,0,0,0,0,0,0,0,0,0,0,0,0,0,0,0,0,0,0,0,0,0,0,0,0,0,0,0,0,0,0,0,0,0,0,0,0,0,0,0,0,0,0,0,0,0,0,0,0,0,0,0,0,0,0,0,0,0,0,0,0,0,0,0,0,0,0,0,0,0,0,0,0,0,0,0,0,0,0,0,0,0,0,0,0,0,0,0,0,0,0],"sum_hessian":[7.866E3,3.712E3,4.154E3,1.616E3,2.096E3,8E1,4.074E3,1.303E3,3.13E2,3.55E2,1.741E3,6E0,7.4E1,3.231E3,8.43E2,5.39E2,7.64E2,4E0,3.09E2,1.45E2,2.1E2,5.44E2,1.197E3,4E0,2E0,2.3E1,5.1E1,5.08E2,2.723E3,1.39E2,7.04E2,1E2,4.39E2,7.8E1,6.86E2,2E0,2E0,1.28E2,1.81E2,2E0,1.43E2,5E0,2.05E2,2.24E2,3.2E2,5.39E2,6.58E2,2E1,3E0,1.1E1,4E1,2.45E2,2.63E2,1.917E3,8.06E2,1.28E2,1.1E1,5.64E2,1.4E2,2E0,9.8E1,3.6E1,4.03E2,2E0,7.6E1,1.22E2,5.64E2,1.03E2,2.5E1,6E0,1.75E2,2E0,1.41E2,4E0,1E0,6.3E1,1.42E2,4.6E1,1.78E2,7E0,3.13E2,5.3E2,9E0,2.21E2,4.37E2,2E0,9E0,1.1E1,2.9E1,6.3E1,1.82E2,7.5E1,1.88E2,1.401E3,5.16E2,5E1,7.56E2,4.7E1,8.1E1,8E0,3E0,5.31E2,3.3E1,4E0,1.36E2,1E0,1E0,1.9E1,7.9E1,1E0,3.5E1,1E0,1E0,4E0,7.2E1,9.8E1,2.4E1,3.35E2,2.29E2,7.4E1,2.9E1,1.1E1,1.4E1,1.15E2,6E1,7.7E1,6.4E1,1E0,6.2E1,1.2E2,2.2E1,3E1,1.6E1,3.9E1,1.39E2,2E0,5E0,2.43E2,7E1,2.36E2,2.94E2,7E0,2E0,7.9E1,1.42E2,4.23E2,1.4E1,7E0,4E0,1.5E1,1.4E1,9E0,5.4E1,2E0,1.8E2,5.5E1,2E1,6.6E1,1.22E2,9E0,1.392E3,4.26E2,9E1,1.2E1,3.8E1,5.41E2,2.15E2,2E1,2.7E1,6.2E1,1.9E1,1E0,2E0,2.63E2,2.68E2,3E0,1E0],"tree_param":{"num_deleted":"0","num_feature":"12","num_nodes":"177","size_leaf_vector":"0"}},{"base_weights":[1.8638215E0,6.199193E-1,2.9823794E0,2.1104725E-1,9.3126893E-1,1.1192644E1,2.811561E0,2.9616931E-2,9.537069E-1,5.374109E-3,1.1211509E0,2.2244104E1,9.0744095E0,1.9470462E0,3.0369272E0,-2.3809119E-1,2.2296095E-1,1.4375351E-1,1.4160366E0,-1.7076711E-1,1.2848288E-1,1.6911268E0,8.653836E-1,9.619706E0,3.2133587E1,1.6756117E1,8.151502E0,2.5056052E0,1.9053173E0,3.7581463E0,2.9601917E0,6.269093E-2,-3.3469993E-1,-1.3175909E-1,2.6174346E-1,5.340659E-2,3.7468207E-1,1.0020176E1,1.356337E0,7.176566E-1,-1.7851828E-1,9.6738E-1,1.0662753E-1,1.2261465E0,2.0468063E0,6.9538623E-1,1.0119121E0,2.9221016E1,4.114857E0,3.6833813E1,1.7627549E0,2.24781E1,7.6370926E0,3.4354854E0,1.0252858E1,3.109079E0,2.3864398E0,1.8553742E0,2.2633855E0,3.0623603E0,4.4638815E0,3.629954E0,2.8861957E0,2.2787623E0,5.301443E-3,1.1667722E-1,-3.3703527E-1,1.3826361E0,-1.8020312E-1,-1.0125589E0,2.6982424E-1,1.513818E-1,-6.828253E-2,7.789048E-1,3.3899698E-1,1.0586076E0,1.4840465E0,-2.8922668E-2,-1.9281729E-1,1.0710589E0,3.778305E-1,2.1865323E-1,4.7647133E-2,5.522329E-1,1.4198864E0,1.9307147E0,2.4508235E0,6.5573305E-1,2.006663E0,3.1455002E0,9.836839E-1,1.0986205E1,1.6805042E0,1.1596297E1,2.8126218E0,1.5298668E1,8.22197E0,2.2142324E0,1.8236885E0,1.9857366E0,3.0342982E0,3.6794126E0,2.8606381E0,6.133706E0,3.9103286E0,3.0887764E0,4.1932554E0,3.0339713E0,2.482115E0,-1.8006544E-1,1.3497923E-1,-2.104406E-1,-3.403192E-1,3.1087453E-2,-1.9968611E-1,4.657381E-1,2.3298593E-1,2.7096903E-1,6.4426795E-2,5.3920534E-2,-8.817709E-2,2.9549634E0,1.0106075E0,1.3611273E0,1.6568412E0,-1.1075328E-1,9.80704E-2,-6.421679E-2,-2.0287351E-1,3.4937137E-1,1.6869639E-1,-1.2747552E-4,1.3777885E-1,4.2020363E-1,7.7643514E-1,5.577137E0,1.3868077E0,2.935703E0,1.9007438E0,2.6751792E0,1.9581828E0,1.4387002E0,6.4021343E-1,3.5425882E0,7.2663635E-1,4.999746E0,1.7872342E0,6.346218E-1,1.0357949E0,2.0288045E0,3.788539E-1,2.1639765E1,1.3371657E1,2.2990382E0,9.827734E0,2.448652E0,1.9130895E0,1.7756338E0,2.018263E0,2.9740233E0,1.8779274E0,7.6896152E0,2.2587805E0,2.6062062E0,2.982532E0,7.538577E0,5.7840037E0,6.05793E0,3.4384437E0,4.3344297E0,2.786799E0,6.2682967E0,3.483785E0,2.7922685E0,3.6668835E0,3.058881E0,2.4268017E0],"categories":[],"categories_nodes":[],"categories_segments":[],"categories_sizes":[],"default_left":[true,true,true,true,true,true,true,true,true,true,true,true,true,true,true,true,true,true,true,true,true,true,true,true,true,true,true,true,true,true,true,true,true,true,true,true,true,false,true,false,true,true,true,true,true,true,true,false,true,false,false,false,false,true,true,false,false,true,true,true,true,true,true,false,true,false,true,false,true,false,true,true,true,false,false,true,true,true,true,false,false,true,true,true,true,true,true,true,true,true,true,false,true,false,false,true,true,true,true,true,true,false,true,true,true,true,true,true,true,false,false,false,false,false,false,false,false,false,false,false,false,false,false,false,false,false,false,false,false,false,false,false,false,false,false,false,false,false,false,false,false,false,false,false,false,false,false,false,false,false,false,false,false,false,false,false,false,false,false,false,false,false,false,false,false,false,false,false,false,false,false,false,false,false,false,false,false],"id":7,"left_children":[1,3,5,7,9,11,13,15,17,19,21,23,25,27,29,31,33,35,37,39,41,43,45,47,49,51,53,55,57,59,61,63,65,67,69,71,73,-1,75,-1,77,79,81,83,85,87,89,-1,91,-1,-1,-1,-1,93,95,-1,-1,97,99,101,103,105,107,-1,109,-1,111,-1,113,-1,115,117,119,-1,-1,121,123,125,127,-1,-1,129,131,133,135,137,139,141,143,145,147,-1,149,-1,-1,151,153,155,157,159,161,-1,163,165,167,169,171,173,175,-1,-1,-1,-1,-1,-1,-1,-1,-1,-1,-1,-1,-1,-1,-1,-1,-1,-1,-1,-1,-1,-1,-1,-1,-1,-1,-1,-1,-1,-1,-1,-1,-1,-1,-1,-1,-1,-1,-1,-1,-1,-1,-1,-1,-1,-1,-1,-1,-1,-1,-1,-1,-1,-1,-1,-1,-1,-1,-1,-1,-1,-1,-1,-1,-1,-1,-1,-1],"loss_changes":[1.0948541E4,4.7428833E2,5.8001875E3,2.1708922E2,3.7188013E2,1.9064531E3,7.8884375E2,6.7063644E1,1.18365814E2,7.820375E0,2.5537012E2,1.5609902E3,4.5981592E2,1.7931885E1,1.7436133E2,1.579916E1,1.0363159E1,2.3935018E0,9.872345E1,1.0565033E0,3.8432856E0,8.8974976E1,2.9939575E1,6.4282367E2,1.0246484E3,3.249768E2,6.25605E2,1.570404E0,1.2549072E1,1.4673877E2,1.4069922E2,1.6793457E1,4.4984818E-1,5.51929E0,7.065544E0,9.981772E-1,3.6240387E-1,0E0,7.0570984E0,0E0,3.1013393E-1,1.7038631E-1,1.3626461E0,3.0567017E1,1.2774414E1,2.8762482E1,3.807715E1,0E0,8.287716E1,0E0,0E0,0E0,0E0,9.227446E1,4.120249E2,0E0,0E0,6.434082E0,1.8110565E1,1.5856079E1,1.3266577E2,8.347461E1,1.540586E2,0E0,3.1163757E0,0E0,1.3843536E-1,0E0,3.0224085E-1,0E0,4.8206024E0,4.712026E-1,9.283839E-2,0E0,0E0,4.530487E0,2.1643372E0,1.4236332E-1,1.6557026E-1,0E0,0E0,4.3878245E-1,5.890223E-1,1.4528694E0,2.2532715E1,5.309204E0,5.629181E0,6.301895E0,3.119271E1,1.7911713E1,1.1440979E1,0E0,1.6739893E0,0E0,0E0,5.3714355E1,2.998108E2,2.2112427E0,4.691162E0,5.562134E0,8.191661E1,0E0,1.0291748E0,3.611084E0,1.09799805E2,5.166736E1,1.9917505E2,2.9010742E2,1.9916504E1,0E0,0E0,0E0,0E0,0E0,0E0,0E0,0E0,0E0,0E0,0E0,0E0,0E0,0E0,0E0,0E0,0E0,0E0,0E0,0E0,0E0,0E0,0E0,0E0,0E0,0E0,0E0,0E0,0E0,0E0,0E0,0E0,0E0,0E0,0E0,0E0,0E0,0E0,0E0,0E0,0E0,0E0,0E0,0E0,0E0,0E0,0E0,0E0,0E0,0E0,0E0,0E0,0E0,0E0,0E0,0E0,0E0,0E0,0E0,0E0,0E0,0E0,0E0,0E0,0E0,0E0,0E0,0E0],"parents":[2147483647,0,0,1,1,2,2,3,3,4,4,5,5,6,6,7,7,8,8,9,9,10,10,11,11,12,12,13,13,14,14,15,15,16,16,17,17,18,18,19,19,20,20,21,21,22,22,23,23,24,24,25,25,26,26,27,27,28,28,29,29,30,30,31,31,32,32,33,33,34,34,35,35,36,36,38,38,40,40,41,41,42,42,43,43,44,44,45,45,46,46,48,48,53,53,54,54,57,57,58,58,59,59,60,60,61,61,62,62,64,64,66,66,68,68,70,70,71,71,72,72,75,75,76,76,77,77,78,78,81,81,82,82,83,83,84,84,85,85,86,86,87,87,88,88,89,89,90,90,92,92,95,95,96,96,97,97,98,98,99,99,100,100,102,102,103,103,104,104,105,105,106,106,107,107,108,108],"right_children":[2,4,6,8,10,12,14,16,18,20,22,24,26,28,30,32,34,36,38,40,42,44,46,48,50,52,54,56,58,60,62,64,66,68,70,72,74,-1,76,-1,78,80,82,84,86,88,90,-1,92,-1,-1,-1,-1,94,96,-1,-1,98,100,102,104,106,108,-1,110,-1,112,-1,114,-1,116,118,120,-1,-1,122,124,126,128,-1,-1,130,132,134,136,138,140,142,144,146,148,-1,150,-1,-1,152,154,156,158,160,162,-1,164,166,168,170,172,174,176,-1,-1,-1,-1,-1,-1,-1,-1,-1,-1,-1,-1,-1,-1,-1,-1,-1,-1,-1,-1,-1,-1,-1,-1,-1,-1,-1,-1,-1,-1,-1,-1,-1,-1,-1,-1,-1,-1,-1,-1,-1,-1,-1,-1,-1,-1,-1,-1,-1,-1,-1,-1,-1,-1,-1,-1,-1,-1,-1,-1,-1,-1,-1,-1,-1,-1,-1,-1],"split_conditions":[6.621175E-1,1.6666667E-1,7.4137926E-2,7.090609E-2,3.9510223E-1,2.7272727E-2,9.8790765E-1,5.5555556E-2,3.443045E-1,7.6129995E-2,6.572582E-1,2.777778E-1,7.7943826E-1,5.0082594E-1,5.0082594E-1,3.350106E-1,8.513586E-2,3.8609636E-1,2.7272727E-2,1.8181819E-1,7.241379E-2,6.028142E-1,2.777778E-1,7.7843237E-1,4.4444448E-1,1.8181819E-1,8.2218254E-1,2.3620689E-1,9.212121E-1,8.2218254E-1,1.7758621E-1,1.8181819E-1,2.607362E-2,2.0909092E-1,2.7272727E-2,1.1767921E-1,3.0341724E-1,2.0040351E-1,3.989272E-1,1.4353132E-2,1.7758621E-1,1.4930731E-1,8.23977E-2,3.7966675E-1,6.450739E-1,8.5862064E-1,4.1296717E-4,5.844203E-1,9.8790765E-1,7.366762E-1,3.5255097E-2,4.4956198E-1,1.5274185E-1,9.8790765E-1,8.349742E-1,6.2181577E-2,4.7728796E-2,4.2424244E-1,9.345995E-1,7.7943826E-1,8.349742E-1,8.2218254E-1,8.4422266E-1,4.5575246E-2,8.513586E-2,2.3335442E-3,5.2172124E-1,2.765272E-2,2E-1,-2.025118E-2,6.572582E-1,3.3965516E-1,5.0082594E-1,1.5578096E-2,6.7799394E-3,1.8181819E-1,4.4565028E-1,1.2931034E-1,1.2389015E-3,2.1421177E-2,7.55661E-3,2.8275862E-1,3.0192327E-1,3.443045E-1,1.8181819E-1,5.0082594E-1,6.4979887E-1,1.8181819E-1,6.242424E-1,3.8448274E-1,2.1896552E-1,2.197241E-1,8.7090075E-1,2.3192593E-1,5.6252435E-2,1.8181819E-1,8.571358E-1,2.6551723E-1,9.5665354E-1,1.6551724E-1,9.532107E-1,7.358825E-2,4.1296717E-4,2.5344828E-1,2.5344828E-1,7.6706135E-1,8.349742E-1,8.2218254E-1,4.2424244E-1,-3.6013087E-3,2.6995847E-3,-4.208812E-3,-6.8063834E-3,6.2174903E-4,-3.993722E-3,9.3147615E-3,4.6597184E-3,5.4193805E-3,1.2885359E-3,1.0784107E-3,-1.7635418E-3,5.909927E-2,2.021215E-2,2.7222544E-2,3.3136822E-2,-2.2150655E-3,1.961408E-3,-1.2843359E-3,-4.0574702E-3,6.9874274E-3,3.3739277E-3,-2.5495103E-6,2.755577E-3,8.404072E-3,1.5528702E-2,1.1154274E-1,2.7736153E-2,5.871406E-2,3.8014878E-2,5.3503584E-2,3.9163657E-2,2.8774003E-2,1.2804268E-2,7.0851766E-2,1.4532726E-2,9.999491E-2,3.5744682E-2,1.2692436E-2,2.0715896E-2,4.057609E-2,7.5770775E-3,4.327953E-1,2.6743314E-1,4.5980763E-2,1.9655468E-1,4.897304E-2,3.826179E-2,3.5512675E-2,4.036526E-2,5.9480466E-2,3.755855E-2,1.537923E-1,4.517561E-2,5.2124124E-2,5.965064E-2,1.5077154E-1,1.1568007E-1,1.211586E-1,6.8768874E-2,8.668859E-2,5.573598E-2,1.2536593E-1,6.96757E-2,5.584537E-2,7.333767E-2,6.117762E-2,4.8536032E-2],"split_indices":[1,4,3,7,6,2,6,4,1,6,1,4,1,8,8,1,6,6,2,2,3,1,4,1,4,2,1,3,2,1,3,2,7,2,2,1,1,0,1,0,3,1,1,1,1,3,8,0,6,0,0,0,0,6,1,0,0,2,1,1,1,1,1,0,6,0,1,0,3,0,1,3,8,0,0,2,1,3,8,0,0,3,1,1,2,8,1,2,2,3,3,0,1,0,0,2,1,3,1,3,1,0,8,3,3,1,1,1,2,0,0,0,0,0,0,0,0,0,0,0,0,0,0,0,0,0,0,0,0,0,0,0,0,0,0,0,0,0,0,0,0,0,0,0,0,0,0,0,0,0,0,0,0,0,0,0,0,0,0,0,0,0,0,0,0,0,0,0,0,0,0,0,0,0,0,0,0],"split_type":[0,0,0,0,0,0,0,0,0,0,0,0,0,0,0,0,0,0,0,0,0,0,0,0,0,0,0,0,0,0,0,0,0,0,0,0,0,0,0,0,0,0,0,0,0,0,0,0,0,0,0,0,0,0,0,0,0,0,0,0,0,0,0,0,0,0,0,0,0,0,0,0,0,0,0,0,0,0,0,0,0,0,0,0,0,0,0,0,0,0,0,0,0,0,0,0,0,0,0,0,0,0,0,0,0,0,0,0,0,0,0,0,0,0,0,0,0,0,0,0,0,0,0,0,0,0,0,0,0,0,0,0,0,0,0,0,0,0,0,0,0,0,0,0,0,0,0,0,0,0,0,0,0,0,0,0,0,0,0,0,0,0,0,0,0,0,0,0,0,0,0,0,0,0,0,0,0],"sum_hessian":[7.869E3,3.726E3,4.143E3,1.611E3,2.115E3,8.4E1,4.059E3,1.295E3,3.16E2,3.6E2,1.755E3,1.3E1,7.1E1,8.4E2,3.219E3,5.43E2,7.52E2,1.15E2,2.01E2,1.48E2,2.12E2,5.43E2,1.212E3,6E0,7E0,7E0,6.4E1,5.7E1,7.83E2,3.08E2,2.911E3,1.32E2,4.11E2,7.4E1,6.78E2,8.3E1,3.2E1,1E0,2E2,1E0,1.47E2,5E0,2.07E2,2.36E2,3.07E2,5.62E2,6.5E2,1E0,5E0,6E0,1E0,4E0,3E0,2E1,4.4E1,8E0,4.9E1,6.89E2,9.4E1,1.56E2,1.52E2,2.88E2,2.623E3,3E0,1.29E2,2E0,4.09E2,2E0,7.2E1,4E0,6.74E2,4.6E1,3.7E1,2E0,3E1,6.1E1,1.39E2,1.3E1,1.34E2,4E0,1E0,7.1E1,1.36E2,5.3E1,1.83E2,2.4E2,6.7E1,5.46E2,1.6E1,8E0,6.42E2,1E0,4E0,1E0,1.9E1,1.2E1,3.2E1,5.4E1,6.35E2,7E1,2.4E1,3.7E1,1.19E2,3.7E1,1.15E2,1.48E2,1.4E2,1.919E3,7.04E2,5.3E1,7.6E1,1.1E1,3.98E2,6E0,6.6E1,1.06E2,5.68E2,1.9E1,2.7E1,5E0,3.2E1,1E0,6E1,8.3E1,5.6E1,8E0,5E0,1E1,1.24E2,1.9E1,5.2E1,8.9E1,4.7E1,3.4E1,1.9E1,1E0,1.82E2,6E0,2.34E2,4.5E1,2.2E1,1E1,5.36E2,7E0,9E0,3E0,5E0,8.4E1,5.58E2,3E0,1E0,2E0,1E1,7E0,2.5E1,2.9E1,2.5E1,5.12E2,1.23E2,6E0,6.4E1,3E0,2.1E1,4.1E1,7.8E1,6E0,3.1E1,2E1,9.5E1,2.8E1,1.2E2,3.5E1,1.05E2,1.39E3,5.29E2,6E1,6.44E2],"tree_param":{"num_deleted":"0","num_feature":"12","num_nodes":"177","size_leaf_vector":"0"}},{"base_weights":[1.8293923E0,6.521523E0,1.7360243E0,1.3608442E1,5.171228E0,-1.4190852E-2,1.928471E0,-4.4662344E-1,1.5592573E1,2.356212E0,6.468762E0,-1.794415E-1,9.1506615E-2,2.7826563E-1,2.081863E0,1.6244846E1,1.7363162E0,1.3506144E0,1.0834969E1,7.825243E0,5.291876E0,-3.5347536E-2,-1.9849429E-1,2.8398502E-1,5.9501953E-2,1.5004462E0,-3.0605373E-1,2.7191458E0,1.9750965E0,3.1152015E0,1.6869492E1,1.1101148E0,3.0933354E0,9.250402E-1,8.176833E0,1.1434231E0,5.557679E0,-5.730485E-2,1.2284486E-1,-3.4178417E-2,-2.0092978E-1,2.3163E-1,4.675382E-1,1.0741989E-2,8.235419E-2,1.239042E0,1.9980392E0,-9.310155E-3,-3.1361154E-1,3.265525E0,2.434259E0,1.5439913E0,2.1072805E0,1.2449185E-1,1.6619095E0,4.957988E0,7.805078E-1,8.530423E0,4.7428656E0,3.7216362E-1,1.4146453E0,6.649392E0,4.224902E0,-2.7180389E-2,-1.2581208E-1,7.803758E-2,1.9343837E-1,-1.05288E-1,1.414348E-1,-2.0651059E-1,-1.8564124E-1,6.8053484E-1,2.0900068E-1,4.1146868E-1,6.9096375E-1,1.3422613E-1,-0E0,1.19860366E-1,4.871664E-2,1.3462211E0,1.0154312E0,2.5099163E0,1.8003882E0,-3.4304574E-1,1.1777695E0,-2.588093E-1,-3.2876736E-1,4.280845E0,2.9428756E0,1.4838101E0,2.5066755E0,1.4951274E0,1.8389369E0,1.6206709E0,2.2193449E0,1.4796395E0,-3.6242202E-1,8.010404E-1,1.6904083E0,7.996662E0,1.4701249E1,4.886772E0,9.306006E0,1.9105918E0,5.088012E0,-7.0443034E-2,2.7135855E-3,1.3604553E-1,-3.229034E-2,-1.8843068E-1,-2.1722183E-1,-1.0796498E-1,-1.8823974E-1,3.2745022E-1,8.527359E-1,1.4699139E-1,2.41564E-1,4.5393214E-1,2.4713293E-1,1.6248105E-1,-8.641077E-2,1.5631784E-2,-3.4281634E-2,1.103696E-1,4.604292E-1,6.65445E-2,6.3228593E-3,1.6285906E0,1.2497745E0,8.684943E-1,1.2307239E0,-2.967593E-1,1.6155759E-1,3.3933988E0,5.398167E0,2.0677128E0,3.3668854E0,2.6632636E0,1.3737093E0,2.0824041E0,2.6569417E0,1.1827924E0,1.5333391E0,1.1977121E0,1.8040651E0,2.532408E0,2.1735191E0],"categories":[],"categories_nodes":[],"categories_segments":[],"categories_sizes":[],"default_left":[true,true,true,true,true,true,true,false,true,true,true,true,true,true,true,true,false,true,false,true,true,true,true,true,true,true,true,true,true,false,false,true,true,false,true,true,true,true,true,true,true,true,true,true,true,true,true,true,true,true,true,true,true,true,true,false,false,true,false,false,false,true,true,true,false,true,false,false,false,true,true,true,true,true,false,true,true,true,true,true,true,false,false,false,false,true,false,true,true,true,true,true,false,true,true,false,false,false,false,false,false,false,false,false,false,false,false,false,false,false,false,false,false,false,false,false,false,false,false,false,false,false,false,false,false,false,false,false,false,false,false,false,false,false,false,false,false,false,false,false,false,false,false,false,false,false,false],"id":8,"left_children":[1,3,5,7,9,11,13,-1,15,17,19,21,23,25,27,29,-1,31,-1,33,35,37,39,41,43,45,47,49,51,-1,-1,53,55,-1,57,59,61,63,65,67,69,71,73,75,77,79,81,83,85,87,89,91,93,95,97,-1,-1,99,-1,-1,-1,101,103,105,-1,107,-1,-1,-1,109,111,113,115,117,-1,119,121,123,125,127,129,-1,-1,-1,-1,131,-1,133,135,137,139,141,-1,143,145,-1,-1,-1,-1,-1,-1,-1,-1,-1,-1,-1,-1,-1,-1,-1,-1,-1,-1,-1,-1,-1,-1,-1,-1,-1,-1,-1,-1,-1,-1,-1,-1,-1,-1,-1,-1,-1,-1,-1,-1,-1,-1,-1,-1,-1,-1,-1,-1,-1,-1,-1,-1],"loss_changes":[3.4418691E3,1.4435796E3,2.5977285E3,6.811279E2,4.6719214E2,1.33570175E1,1.7585918E3,0E0,1.8315088E2,3.4736432E2,1.2702124E2,8.1336784E-1,2.8621764E0,4.224673E2,4.3069727E2,1.4895215E2,0E0,1.4442268E1,0E0,9.519873E1,5.10813E1,1.2414276E-1,9.9739075E-2,5.9137344E-1,4.4445837E-1,2.4015533E1,8.922615E-1,1.3912305E2,3.0922266E2,0E0,0E0,1.8034317E1,1.7316307E1,0E0,3.2864014E1,4.9625158E-1,5.6437378E1,6.134159E-2,4.800953E-3,5.8565706E-2,3.7488937E-3,4.7150636E-1,6.902599E-2,1.7136614E-1,3.392284E-1,2.5382233E0,5.041626E0,4.216645E0,2.8744507E-1,9.768628E1,4.0022705E1,1.7473633E1,2.2599805E2,8.332882E0,3.6304474E-2,0E0,0E0,7.355884E1,0E0,0E0,0E0,9.857654E1,3.9272125E1,2.9913548E-2,0E0,2.4278773E-2,0E0,0E0,0E0,1.6649246E-2,3.7994385E-3,3.1929612E-2,8.4251404E-2,3.865695E-2,0E0,7.018672E-2,6.374948E-2,3.89719E-1,1.0790622E-1,1.5769196E0,9.528122E-1,0E0,0E0,0E0,0E0,1.3951888E0,0E0,6.747241E1,8.5670166E1,4.3496323E0,3.3619385E1,1.2477051E1,0E0,5.984326E1,4.6679688E1,0E0,0E0,0E0,0E0,0E0,0E0,0E0,0E0,0E0,0E0,0E0,0E0,0E0,0E0,0E0,0E0,0E0,0E0,0E0,0E0,0E0,0E0,0E0,0E0,0E0,0E0,0E0,0E0,0E0,0E0,0E0,0E0,0E0,0E0,0E0,0E0,0E0,0E0,0E0,0E0,0E0,0E0,0E0,0E0,0E0,0E0,0E0,0E0,0E0,0E0,0E0,0E0],"parents":[2147483647,0,0,1,1,2,2,3,3,4,4,5,5,6,6,8,8,9,9,10,10,11,11,12,12,13,13,14,14,15,15,17,17,19,19,20,20,21,21,22,22,23,23,24,24,25,25,26,26,27,27,28,28,31,31,32,32,34,34,35,35,36,36,37,37,38,38,39,39,40,40,41,41,42,42,43,43,44,44,45,45,46,46,47,47,48,48,49,49,50,50,51,51,52,52,53,53,54,54,57,57,61,61,62,62,63,63,65,65,69,69,70,70,71,71,72,72,73,73,75,75,76,76,77,77,78,78,79,79,80,80,85,85,87,87,88,88,89,89,90,90,91,91,93,93,94,94],"right_children":[2,4,6,8,10,12,14,-1,16,18,20,22,24,26,28,30,-1,32,-1,34,36,38,40,42,44,46,48,50,52,-1,-1,54,56,-1,58,60,62,64,66,68,70,72,74,76,78,80,82,84,86,88,90,92,94,96,98,-1,-1,100,-1,-1,-1,102,104,106,-1,108,-1,-1,-1,110,112,114,116,118,-1,120,122,124,126,128,130,-1,-1,-1,-1,132,-1,134,136,138,140,142,-1,144,146,-1,-1,-1,-1,-1,-1,-1,-1,-1,-1,-1,-1,-1,-1,-1,-1,-1,-1,-1,-1,-1,-1,-1,-1,-1,-1,-1,-1,-1,-1,-1,-1,-1,-1,-1,-1,-1,-1,-1,-1,-1,-1,-1,-1,-1,-1,-1,-1,-1,-1,-1,-1],"split_conditions":[6.724138E-2,2.7272727E-2,3.9510223E-1,5.5555556E-2,1.6666667E-1,7.6129995E-2,5.5555556E-2,-8.9324685E-3,4.4444448E-1,1.3137093E-1,5.272727E-1,1.7662945E-1,1.7338854E-1,9.8790765E-1,1.8374145E-1,5.318377E-1,3.472632E-2,7.090609E-2,2.1669936E-1,3.9510223E-1,7.920965E-1,1.6213539E-1,3.3636364E-1,8.30303E-1,1.3484347E-1,9.5682657E-1,3.1058697E-2,2.086207E-1,1.6666667E-1,6.2304027E-2,3.3738983E-1,5.5555556E-2,5.272727E-1,1.8500803E-2,5E-1,1.2441484E-1,1.343176E-1,7.0638824E-1,1.3211198E-2,1.6878912E-2,8.30303E-1,2.4576882E-2,1.6339576E-1,2.8231904E-1,3.948276E-1,6.621622E-1,1.9490457E-1,2.817789E-2,2.689655E-1,6.049694E-2,7.920965E-1,1.3137093E-1,9.8790765E-1,5.719247E-1,7.1924664E-2,9.9159755E-2,1.5610156E-2,3.888889E-1,9.485731E-2,7.4432725E-3,2.8292906E-2,1.3161685E-1,1.3665827E-1,1.6666667E-1,-2.5162415E-3,1.6666667E-1,3.8687673E-3,-2.10576E-3,2.828696E-3,6.242424E-1,2.2902411E-1,4.2424244E-1,1.3484347E-1,2.2222222E-1,1.38192745E-2,9.212121E-1,6.965602E-1,8.794563E-1,7.2727275E-1,2.6551723E-1,6.6051495E-1,5.0198324E-2,3.6007762E-2,-6.8609146E-3,2.355539E-2,2.6206896E-1,-6.575347E-3,2.7518427E-1,1.6666667E-1,4.0871445E-2,1.6666667E-1,8.231776E-1,3.6778737E-2,7.920965E-1,2.6206896E-1,2.959279E-2,-7.2484403E-3,1.6020808E-2,3.3808168E-2,1.5993324E-1,2.9402497E-1,9.773544E-2,1.8612012E-1,3.8211837E-2,1.0176024E-1,-1.4088607E-3,5.427171E-5,2.7209106E-3,-6.458068E-4,-3.7686136E-3,-4.3444363E-3,-2.1592996E-3,-3.7647947E-3,6.549004E-3,1.7054718E-2,2.9398277E-3,4.83128E-3,9.078642E-3,4.9426584E-3,3.249621E-3,-1.7282154E-3,3.1263568E-4,-6.8563264E-4,2.207392E-3,9.208583E-3,1.33089E-3,1.2645718E-4,3.257181E-2,2.4995489E-2,1.7369885E-2,2.4614478E-2,-5.935186E-3,3.2311517E-3,6.786797E-2,1.0796334E-1,4.1354254E-2,6.733771E-2,5.326527E-2,2.7474185E-2,4.1648082E-2,5.3138833E-2,2.3655849E-2,3.0666782E-2,2.395424E-2,3.6081303E-2,5.064816E-2,4.3470383E-2],"split_indices":[3,2,6,4,4,6,4,0,4,7,2,5,5,6,5,6,0,7,0,6,6,5,2,2,6,6,5,3,4,0,0,4,2,0,4,5,5,11,6,6,2,5,5,5,3,11,5,5,3,5,6,7,6,6,6,0,0,4,0,0,0,5,5,4,0,4,0,0,0,2,5,2,6,4,0,2,11,5,11,3,5,0,0,0,0,3,0,11,4,5,4,6,0,6,3,0,0,0,0,0,0,0,0,0,0,0,0,0,0,0,0,0,0,0,0,0,0,0,0,0,0,0,0,0,0,0,0,0,0,0,0,0,0,0,0,0,0,0,0,0,0,0,0,0,0,0,0],"split_type":[0,0,0,0,0,0,0,0,0,0,0,0,0,0,0,0,0,0,0,0,0,0,0,0,0,0,0,0,0,0,0,0,0,0,0,0,0,0,0,0,0,0,0,0,0,0,0,0,0,0,0,0,0,0,0,0,0,0,0,0,0,0,0,0,0,0,0,0,0,0,0,0,0,0,0,0,0,0,0,0,0,0,0,0,0,0,0,0,0,0,0,0,0,0,0,0,0,0,0,0,0,0,0,0,0,0,0,0,0,0,0,0,0,0,0,0,0,0,0,0,0,0,0,0,0,0,0,0,0,0,0,0,0,0,0,0,0,0,0,0,0,0,0,0,0,0,0],"sum_hessian":[7.865E3,1.53E2,7.712E3,2.4E1,1.29E2,7.64E2,6.948E3,3E0,2.1E1,4.1E1,8.8E1,2.98E2,4.66E2,5.91E2,6.357E3,2E1,1E0,3.7E1,4E0,4E1,4.8E1,3.5E1,2.63E2,6.6E1,4E2,1.91E2,4E2,9.11E2,5.446E3,1E0,1.9E1,3.3E1,4E0,2E0,3.8E1,3E0,4.5E1,3.1E1,4E0,4E0,2.59E2,5.2E1,1.4E1,1.28E2,2.72E2,1.26E2,6.5E1,1E1,3.9E2,3.11E2,6E2,1.279E3,4.167E3,1.2E1,2.1E1,2E0,2E0,3.4E1,4E0,1E0,2E0,2.4E1,2.1E1,2.2E1,9E0,3E0,1E0,3E0,1E0,1.86E2,7.3E1,2E0,5E1,1.2E1,2E0,1E1,1.18E2,1.28E2,1.44E2,8.4E1,4.2E1,1.7E1,4.8E1,8E0,2E0,8.6E1,3.04E2,7.4E1,2.37E2,4.3E1,5.57E2,1.099E3,1.8E2,7.81E2,3.386E3,3E0,9E0,1E0,2E1,3.2E1,2E0,1.5E1,9E0,6E0,1.5E1,9E0,1.3E1,2E0,1E0,7.2E1,1.14E2,3E0,7E1,1E0,1E0,1.8E1,3.2E1,9E0,3E0,9E0,1E0,8.1E1,3.7E1,1.25E2,3E0,1.01E2,4.3E1,2E1,6.4E1,2.6E1,1.6E1,7.9E1,7E0,4.2E1,3.2E1,7.8E1,1.59E2,3E0,4E1,1.47E2,4.1E2,1.21E2,9.78E2,2.37E2,5.44E2,4.3E2,2.956E3],"tree_param":{"num_deleted":"0","num_feature":"12","num_nodes":"147","size_leaf_vector":"0"}},{"base_weights":[1.7457244E0,5.568861E-1,2.8261962E0,1.933236E-1,8.4277886E-1,1.0580929E1,2.7329795E0,2.9525423E-2,8.977698E-1,-1.2801007E-3,1.0184991E0,1.7313599E1,8.012703E0,1.8639135E0,2.964814E0,-2.3454629E-1,2.1121755E-1,1.8868865E-1,1.3177965E0,-1.7563772E-1,1.2598503E-1,1.6671717E0,7.3776025E-1,8.3361225E0,2.4277658E1,5.5032277E0,1.2745998E1,2.4503615E0,1.7802907E0,3.8519816E0,2.7794583E0,3.2914042E-2,-3.2651332E-1,-1.7663012E-1,2.579483E-1,3.0684783E0,1.5501559E-1,4.8729987E0,1.2730029E0,6.9301873E-1,-1.8290308E-1,3.86622E-1,8.703176E-2,1.1977342E0,2.0075552E0,5.527195E-1,8.955055E-1,1.987002E1,1.4806156E0,7.061594E1,1.3240907E1,1.3095977E1,4.2301273E0,1.0624581E1,1.48633175E1,4.3100767E0,2.3829746E0,1.7185918E0,1.9726558E0,2.9773989E0,4.6277385E0,2.9255111E0,2.4199665E0,2.4322746E0,-7.2453776E-3,-1.8678708E-1,-3.2735446E-1,4.0617788E-1,-1.8521434E-1,-1.305293E0,2.6737076E-1,6.734145E-2,3.5496438E-1,9.596396E-1,1.3814133E0,-3.4828972E-2,-2.0117725E-1,9.373926E-1,2.7819663E-1,1.9417137E-1,4.8730705E-2,4.0201817E0,1.1400838E0,2.7931974E0,1.9219928E0,6.070751E-1,1.7401884E-1,1.2849842E0,8.5296315E-1,2.419188E1,1.0568414E1,8.5464597E-1,2.4298304E1,3.0263405E0,7.649501E0,1.6052961E1,7.269569E0,3.1741095E0,2.2381268E0,1.7364001E0,1.3650684E0,2.4988508E0,1.8592664E0,3.8886786E0,2.6797307E0,6.661195E0,3.7856812E0,2.6836627E0,3.5727816E0,2.7700477E0,2.346363E0,-1.7384826E-1,1.348733E-1,-4.0218818E-1,-3.254837E-1,-7.286879E-2,-1.979551E-1,4.2045254E-1,1.7336802E-1,2.5054234E-1,-6.079611E-3,5.305788E-1,3.197139E-1,1.01913E0,2.3270194E-1,2.1595645E0,1.3596996E0,1.2065518E-1,-4.7684982E-2,-2.194535E-1,-1.7807752E-1,8.7981695E-1,2.3748294E-1,2.3238526E-1,1.3703665E-1,9.895301E-3,1.3167188E-1,5.275412E-1,1.3151779E0,3.4346497E0,2.5402236E0,1.8362361E0,2.3056252E0,3.692284E-1,6.874193E-1,-1.1536513E-1,4.7035423E-1,1.0304387E0,2.4437666E0,-1.7773391E-1,8.76059E-1,1.4471731E0,3.8779545E-1,1.2015536E-1,3.4636467E1,2.4727201E0,8.624855E0,2.1333349E0,1.443031E1,1.9281197E1,1.0524518E1,4.3384986E0,2.6342406E0,2.1057727E0,2.5817916E0,1.6610014E0,1.8570853E0,1.7974746E0,8.206073E0,1.1701254E0,1.932122E0,4.6926327E0,3.5665734E0,-1.953614E-1,2.7091234E0,9.579441E0,5.8455305E0,2.7565398E0,4.190215E0,-2.3851736E-1,2.7048852E0,3.7162995E0,2.8880844E0,2.3032944E0,2.9547226E0,2.0268843E0,2.3663337E0],"categories":[],"categories_nodes":[],"categories_segments":[],"categories_sizes":[],"default_left":[true,true,true,true,true,true,true,true,true,true,true,true,true,true,true,true,true,true,true,true,true,true,true,true,true,true,true,true,true,true,true,true,true,true,true,false,true,false,true,false,true,true,true,true,true,true,true,true,false,false,true,false,true,false,true,false,true,true,true,true,true,true,true,false,true,false,true,false,true,false,true,true,true,true,true,true,true,false,true,true,true,false,true,true,true,true,true,true,true,false,false,true,true,true,true,true,false,true,true,true,false,true,true,true,true,true,true,true,true,true,true,false,false,false,false,false,false,false,false,false,false,false,false,false,false,false,false,false,false,false,false,false,false,false,false,false,false,false,false,false,false,false,false,false,false,false,false,false,false,false,false,false,false,false,false,false,false,false,false,false,false,false,false,false,false,false,false,false,false,false,false,false,false,false,false,false,false,false,false,false,false,false,false,false,false,false,false],"id":9,"left_children":[1,3,5,7,9,11,13,15,17,19,21,23,25,27,29,31,33,35,37,39,41,43,45,47,49,51,53,55,57,59,61,63,65,67,69,-1,71,-1,73,-1,75,77,79,81,83,85,87,89,-1,-1,91,-1,93,-1,95,-1,97,99,101,103,105,107,109,-1,111,-1,113,-1,115,-1,117,119,121,123,125,127,129,-1,131,133,135,-1,137,139,141,143,145,147,149,-1,-1,151,153,155,157,159,-1,161,163,165,-1,167,169,171,173,175,177,179,181,183,185,-1,-1,-1,-1,-1,-1,-1,-1,-1,-1,-1,-1,-1,-1,-1,-1,-1,-1,-1,-1,-1,-1,-1,-1,-1,-1,-1,-1,-1,-1,-1,-1,-1,-1,-1,-1,-1,-1,-1,-1,-1,-1,-1,-1,-1,-1,-1,-1,-1,-1,-1,-1,-1,-1,-1,-1,-1,-1,-1,-1,-1,-1,-1,-1,-1,-1,-1,-1,-1,-1,-1,-1,-1,-1,-1,-1],"loss_changes":[1.0207824E4,3.9327417E2,2.9997188E3,1.9225116E2,3.142025E2,8.0640234E2,8.2704297E2,6.490082E1,9.351445E1,8.114707E0,3.1885095E2,7.6565063E2,4.079209E2,4.1019287E1,5.303301E2,1.3569212E1,1.45400505E1,1.1173384E1,2.9269073E1,1.009007E0,2.12762E0,8.373401E1,3.5551697E1,4.906769E2,3.437516E3,2.1649469E2,2.3741455E0,9.930542E0,7.8410645E0,3.754629E2,1.3866016E2,1.3658926E1,2.0503998E-2,4.5385718E-1,1.063813E1,0E0,2.0253704E0,0E0,6.16037E0,0E0,4.0920687E-1,1.5279851E0,7.498034E-1,3.4737762E1,1.8734741E1,1.1570145E1,1.0545288E1,8.051697E0,0E0,0E0,8.601471E2,0E0,7.994061E1,0E0,8.933716E0,0E0,9.509827E0,2.8062744E0,9.267395E0,6.813428E1,4.9884912E2,2.9560156E2,1.7814941E1,0E0,3.307427E0,0E0,2.9907227E-3,0E0,1.1347008E-1,0E0,1.0203384E1,1.0979956E0,1.500349E-1,2.1230164E0,1.4093628E0,3.552574E-2,3.88546E-2,0E0,4.8592103E-1,8.9639306E-2,4.366836E-1,0E0,2.3266418E1,1.765274E0,7.6531982E0,9.327698E0,6.14034E0,1.80867E1,1.4257507E1,0E0,0E0,7.087896E-1,8.3134326E2,4.3354614E1,1.8899149E2,9.244995E0,0E0,5.728302E0,2.1835022E0,3.9197998E0,0E0,1.2036357E2,6.7999268E0,1.0960693E1,1.714209E1,1.8660718E2,8.361572E1,8.653613E1,4.726172E1,9.148621E0,2.4553223E0,0E0,0E0,0E0,0E0,0E0,0E0,0E0,0E0,0E0,0E0,0E0,0E0,0E0,0E0,0E0,0E0,0E0,0E0,0E0,0E0,0E0,0E0,0E0,0E0,0E0,0E0,0E0,0E0,0E0,0E0,0E0,0E0,0E0,0E0,0E0,0E0,0E0,0E0,0E0,0E0,0E0,0E0,0E0,0E0,0E0,0E0,0E0,0E0,0E0,0E0,0E0,0E0,0E0,0E0,0E0,0E0,0E0,0E0,0E0,0E0,0E0,0E0,0E0,0E0,0E0,0E0,0E0,0E0,0E0,0E0,0E0,0E0,0E0,0E0,0E0,0E0],"parents":[2147483647,0,0,1,1,2,2,3,3,4,4,5,5,6,6,7,7,8,8,9,9,10,10,11,11,12,12,13,13,14,14,15,15,16,16,17,17,18,18,19,19,20,20,21,21,22,22,23,23,24,24,25,25,26,26,27,27,28,28,29,29,30,30,31,31,32,32,33,33,34,34,36,36,38,38,40,40,41,41,42,42,43,43,44,44,45,45,46,46,47,47,50,50,52,52,54,54,56,56,57,57,58,58,59,59,60,60,61,61,62,62,64,64,66,66,68,68,70,70,71,71,72,72,73,73,74,74,75,75,76,76,78,78,79,79,80,80,82,82,83,83,84,84,85,85,86,86,87,87,88,88,91,91,92,92,93,93,94,94,95,95,97,97,98,98,99,99,101,101,102,102,103,103,104,104,105,105,106,106,107,107,108,108,109,109,110,110],"right_children":[2,4,6,8,10,12,14,16,18,20,22,24,26,28,30,32,34,36,38,40,42,44,46,48,50,52,54,56,58,60,62,64,66,68,70,-1,72,-1,74,-1,76,78,80,82,84,86,88,90,-1,-1,92,-1,94,-1,96,-1,98,100,102,104,106,108,110,-1,112,-1,114,-1,116,-1,118,120,122,124,126,128,130,-1,132,134,136,-1,138,140,142,144,146,148,150,-1,-1,152,154,156,158,160,-1,162,164,166,-1,168,170,172,174,176,178,180,182,184,186,-1,-1,-1,-1,-1,-1,-1,-1,-1,-1,-1,-1,-1,-1,-1,-1,-1,-1,-1,-1,-1,-1,-1,-1,-1,-1,-1,-1,-1,-1,-1,-1,-1,-1,-1,-1,-1,-1,-1,-1,-1,-1,-1,-1,-1,-1,-1,-1,-1,-1,-1,-1,-1,-1,-1,-1,-1,-1,-1,-1,-1,-1,-1,-1,-1,-1,-1,-1,-1,-1,-1,-1,-1,-1,-1,-1],"split_conditions":[6.621175E-1,1.6666667E-1,1.7734967E-2,7.090609E-2,3.9510223E-1,2.2506302E-3,9.8790765E-1,5.5555556E-2,3.443045E-1,7.6129995E-2,6.572582E-1,8.2218254E-1,8.7090075E-1,1.9265394E-1,1.903133E-1,3.7859324E-1,8.513586E-2,5E-1,5E-1,5E-1,1.6591646E-1,6.028142E-1,2.777778E-1,9.8790765E-1,8.3943033E-1,7.8173023E-1,2.777778E-1,2.5117032E-2,9.345995E-1,8.2218254E-1,8.4422266E-1,5E-1,5.2628934E-1,5E-1,2.2506302E-3,6.1369564E-2,3.8609636E-1,9.745997E-2,3.989272E-1,1.3860375E-2,1.7942023E-1,5.998201E-2,6.392436E-2,3.9791144E-2,2.10659E-1,8.524487E-1,1.1982355E-1,8.012924E-1,2.9612312E-2,1.4123187E0,8.7090075E-1,2.6191953E-1,3.888889E-1,2.1249162E-1,5E-1,8.620153E-2,2.0884521E-2,9.02244E-1,1.4619164E-1,7.7943826E-1,8.349742E-1,8.2218254E-1,3.4308606E-1,4.864549E-2,8.513586E-2,-3.7357416E-3,5E-1,8.123557E-3,2.2353259E-1,-2.6105858E-2,3.5694993E-1,2.8231904E-1,2.581923E-1,3.92902E-1,1.8427517E-2,6.142506E-3,4.0821142E-2,1.8747851E-2,5E-1,5.2781785E-1,3.1517088E-1,8.040363E-2,3.7966675E-1,5.4735325E-2,6.474741E-1,2.2227225E-1,9.3077064E-1,1.0109831E-1,1.389089E-1,4.8383757E-1,2.1136826E-1,2.777778E-1,2.2222222E-1,5E-1,8.0838656E-1,3.888889E-1,1.4539137E-1,1.3683832E-1,9.6009064E-1,7.9124916E-1,2.7301367E-2,6.385488E-1,9.5665354E-1,1.6584766E-1,5.5555556E-2,1.8427517E-2,8.76709E-1,5.5555556E-2,8.349742E-1,8.76709E-1,8.486788E-1,-3.476965E-3,2.697466E-3,-8.043763E-3,-6.5096742E-3,-1.4573757E-3,-3.959102E-3,8.40905E-3,3.4673603E-3,5.0108465E-3,-1.2159222E-4,1.0611576E-2,6.394278E-3,2.03826E-2,4.6540387E-3,4.3191288E-2,2.7193991E-2,2.4131036E-3,-9.5369964E-4,-4.38907E-3,-3.5615503E-3,1.7596338E-2,4.7496585E-3,4.6477052E-3,2.7407329E-3,1.9790602E-4,2.6334375E-3,1.0550824E-2,2.6303558E-2,6.869299E-2,5.080447E-2,3.672472E-2,4.6112504E-2,7.3845675E-3,1.3748386E-2,-2.3073026E-3,9.407084E-3,2.0608773E-2,4.8875332E-2,-3.5546783E-3,1.752118E-2,2.8943462E-2,7.7559086E-3,2.403107E-3,6.9272935E-1,4.9454402E-2,1.724971E-1,4.2666696E-2,2.886062E-1,3.8562393E-1,2.1049036E-1,8.676997E-2,5.268481E-2,4.2115454E-2,5.163583E-2,3.3220027E-2,3.7141707E-2,3.594949E-2,1.6412145E-1,2.3402506E-2,3.864244E-2,9.3852654E-2,7.1331464E-2,-3.907228E-3,5.4182466E-2,1.9158882E-1,1.1691061E-1,5.5130795E-2,8.38043E-2,-4.770347E-3,5.4097705E-2,7.4325986E-2,5.7761688E-2,4.6065886E-2,5.909445E-2,4.0537685E-2,4.7326673E-2],"split_indices":[1,4,5,7,6,5,6,4,1,6,1,1,1,5,5,1,6,0,0,0,5,1,4,6,1,1,4,5,1,1,1,0,1,0,5,0,6,0,1,0,5,1,1,5,5,5,5,1,0,0,1,0,4,0,0,0,11,1,11,1,1,1,5,0,6,0,0,0,5,0,5,5,5,1,11,11,7,0,0,5,1,0,1,5,1,5,5,5,5,0,0,4,4,0,1,4,0,5,1,1,0,5,1,11,4,11,1,4,1,1,1,0,0,0,0,0,0,0,0,0,0,0,0,0,0,0,0,0,0,0,0,0,0,0,0,0,0,0,0,0,0,0,0,0,0,0,0,0,0,0,0,0,0,0,0,0,0,0,0,0,0,0,0,0,0,0,0,0,0,0,0,0,0,0,0,0,0,0,0,0,0,0,0,0,0,0,0],"split_type":[0,0,0,0,0,0,0,0,0,0,0,0,0,0,0,0,0,0,0,0,0,0,0,0,0,0,0,0,0,0,0,0,0,0,0,0,0,0,0,0,0,0,0,0,0,0,0,0,0,0,0,0,0,0,0,0,0,0,0,0,0,0,0,0,0,0,0,0,0,0,0,0,0,0,0,0,0,0,0,0,0,0,0,0,0,0,0,0,0,0,0,0,0,0,0,0,0,0,0,0,0,0,0,0,0,0,0,0,0,0,0,0,0,0,0,0,0,0,0,0,0,0,0,0,0,0,0,0,0,0,0,0,0,0,0,0,0,0,0,0,0,0,0,0,0,0,0,0,0,0,0,0,0,0,0,0,0,0,0,0,0,0,0,0,0,0,0,0,0,0,0,0,0,0,0,0,0,0,0,0,0,0,0,0,0,0,0],"sum_hessian":[7.947E3,3.784E3,4.163E3,1.666E3,2.118E3,4.9E1,4.114E3,1.352E3,3.14E2,3.65E2,1.753E3,1.3E1,3.6E1,8.67E2,3.247E3,5.51E2,8.01E2,1.17E2,1.97E2,1.54E2,2.11E2,5.29E2,1.224E3,6E0,7E0,2.4E1,1.2E1,1.07E2,7.6E2,5.6E2,2.687E3,1.41E2,4.1E2,8.6E1,7.15E2,1E0,1.16E2,2E0,1.95E2,1E0,1.53E2,2.7E1,1.84E2,2.23E2,3.06E2,5.64E2,6.6E2,2E0,4E0,1E0,6E0,3E0,2.1E1,7E0,5E0,3E0,1.04E2,5.78E2,1.82E2,2.64E2,2.96E2,1.909E3,7.78E2,2E0,1.39E2,3E0,4.07E2,1E0,8.5E1,4E0,7.11E2,8.1E1,3.5E1,5.1E1,1.44E2,1.7E1,1.36E2,4E0,2.3E1,4.8E1,1.36E2,4E0,2.19E2,2.9E1,2.77E2,4.93E2,7.1E1,6.4E1,5.96E2,1E0,1E0,3E0,3E0,1.6E1,5E0,4E0,1E0,1.5E1,8.9E1,5.49E2,2.9E1,3.1E1,1.51E2,6.4E1,2E2,8.6E1,2.1E2,1.391E3,5.18E2,1.33E2,6.45E2,6.4E1,7.5E1,8E0,3.99E2,9E0,7.6E1,2.7E2,4.41E2,2.3E1,5.8E1,5E0,3E1,4.7E1,4E0,3E0,1.41E2,1E0,1.6E1,7.4E1,6.2E1,1E0,2.2E1,2.8E1,2E1,9.3E1,4.3E1,4.9E1,1.7E2,7E0,2.2E1,2.28E2,4.9E1,1.25E2,3.68E2,3.6E1,3.5E1,5.3E1,1.1E1,1.3E1,5.83E2,1E0,2E0,1E0,2E0,1.5E1,1E0,3E0,2E0,2E0,2E0,4E0,1.1E1,6.6E1,2.3E1,3.41E2,2.08E2,2.8E1,3E0,1.5E1,1.36E2,1.7E1,4.7E1,2E0,1.98E2,1.8E1,6.8E1,6E1,1.5E2,1E1,1.381E3,4.27E2,9.1E1,3.9E1,9.4E1,4E1,6.05E2],"tree_param":{"num_deleted":"0","num_feature":"12","num_nodes":"187","size_leaf_vector":"0"}},{"base_weights":[1.7393057E0,1.5418082E-2,1.92662E0,1.2680811E0,-6.7705144E-3,5.5673003E0,1.854098E0,2.3024871E0,1.1208001E0,-1.7187922E-1,1.0042133E-1,9.573364E0,4.8165784E0,2.8622252E-1,2.0008748E0,1.3062298E0,8.7410575E-1,-4.2928766E-2,-1.9131115E-1,2.4081348E-1,6.849429E-2,8.48077E0,2.382904E1,1.8361307E0,6.198719E0,1.5056782E0,-3.0131483E-1,1.5702019E0,2.1338322E0,1.8701464E0,1.0808941E0,3.910326E-2,-1.0034912E-1,-2.1075162E-1,-1.8034989E-1,2.0355931E-1,3.4697843E-1,2.4496472E-1,5.8733277E-2,1.2314089E1,5.660217E0,5.536443E0,1.4586143E0,6.932336E0,3.8016832E0,1.2513477E0,1.9934593E0,-2.0943795E-1,-3.082824E-1,1.9611464E0,1.4972234E0,2.756037E0,2.034428E0,1.2039195E0,4.0008584E-1,-4.462731E-3,9.47176E-2,-7.470709E-2,-1.3461415E-1,-1.4013924E-1,-2.1505214E-1,-1.8277715E-1,-1.06771685E-1,2.3374431E-1,9.3936466E-2,-6.8053536E-2,3.9182407E-1,1.5962276E-1,1.3463466E0,8.206179E-2,1.5963146E-2,3.6312275E0,1.6968357E1,1.5504605E0,6.4042273E0,-3.6356643E-1,2.21302E0,6.568912E0,1.0266657E1,4.170893E0,1.6080242E0,1.661484E0,1.2037469E0,3.7747974E0,1.8873034E0,-3.2271704E-1,4.6561664E-1,-2.7276325E-1,-3.1494656E-1,3.0582101E0,1.8646392E0,1.1387337E0,1.5368011E0,3.2808127E0,2.4693265E0,1.5915961E0,2.1331136E0,-3.157541E-2,1.5539584E-1,4.7356404E-2,1.8331943E-1,-4.2114466E-2,-1.1140622E-1,-1.8947478E-1,-1.6448207E-1,3.9469305E-2,-1.8059424E-1,2.8414232E-1,1.3441312E-1,-2.8559072E-2,1.157291E-1,4.997736E-1,3.296781E-1,2.9148161E-3,1.7787851E-1,2.8409366E-2,1.0419591E-1,-3.9769787E-2,2.4370939E-2,9.803499E0,-4.0876028E-1,6.8476825E0,1.6880672E0,2.3053896E0,1.3962123E0,7.301225E0,4.3033156E0,2.139549E0,4.7706947E0,1.051243E0,1.2961332E0,2.3360205E0,1.7529812E0,2.2461028E0,-2.8892213E-1,-3.1872687E-1,5.545758E-1,8.680237E0,2.1917114E0,9.9675393E-1,1.9325631E0,1.2282975E0,9.6935505E-1,1.7458837E0,1.4984348E0,4.704745E0,3.0868099E0,1.4263606E0,2.5297234E0,1.1612054E0,1.7686653E0,2.0209239E0,2.2017953E0],"categories":[],"categories_nodes":[],"categories_segments":[],"categories_sizes":[],"default_left":[true,true,true,true,true,true,true,false,true,true,true,true,true,true,true,true,false,true,true,true,true,true,false,true,true,true,true,true,true,false,true,true,true,true,true,true,true,true,true,true,true,false,true,true,true,true,true,true,true,true,true,true,true,false,false,true,true,true,false,false,false,true,true,true,true,false,true,true,false,true,true,true,false,false,true,false,true,true,false,true,false,false,true,false,true,false,true,true,false,true,true,true,true,true,true,true,true,false,false,false,false,false,false,false,false,false,false,false,false,false,false,false,false,false,false,false,false,false,false,false,false,false,false,false,false,false,false,false,false,false,false,false,false,false,false,false,false,false,false,false,false,false,false,false,false,false,false,false,false,false,false,false,false],"id":10,"left_children":[1,3,5,7,9,11,13,-1,15,17,19,21,23,25,27,29,-1,31,33,35,37,39,-1,41,43,45,47,49,51,-1,53,55,57,59,61,63,65,67,69,71,73,-1,75,77,79,81,83,85,87,89,91,93,95,-1,-1,97,99,101,-1,-1,-1,103,105,107,109,-1,111,113,-1,115,117,119,-1,-1,121,-1,123,125,-1,127,-1,-1,129,-1,131,-1,133,135,-1,137,139,141,143,145,147,149,151,-1,-1,-1,-1,-1,-1,-1,-1,-1,-1,-1,-1,-1,-1,-1,-1,-1,-1,-1,-1,-1,-1,-1,-1,-1,-1,-1,-1,-1,-1,-1,-1,-1,-1,-1,-1,-1,-1,-1,-1,-1,-1,-1,-1,-1,-1,-1,-1,-1,-1,-1,-1,-1,-1,-1,-1],"loss_changes":[2.520371E3,2.129317E1,1.8553105E3,1.1219349E0,1.3321804E1,3.9744043E2,1.5884238E3,0E0,1.5233421E-1,7.3645973E-1,2.0355139E0,2.644314E2,4.7531372E2,4.2384457E2,3.6028125E2,8.8614464E-2,0E0,1.8745494E-1,3.6581993E-2,3.0213976E-1,6.3222563E-1,1.9634766E2,0E0,4.935946E1,1.3056665E2,2.29823E1,2.267189E-1,4.1491455E1,2.9632227E2,0E0,2.6321077E-1,4.100263E-2,1.4162004E-2,1.2315273E-2,1.9246578E-2,1.97572E-1,4.1057706E-1,1.7240852E0,3.50708E-1,3.1593433E2,3.4287415E1,0E0,4.749166E1,5.038086E1,1.33396E1,1.7780914E0,9.898041E0,2.2911878E0,5.0628662E-2,2.27323E1,1.721753E1,9.702051E1,1.8058203E2,0E0,0E0,4.032314E-2,2.4588004E-2,1.3390154E-2,0E0,0E0,0E0,4.327297E-3,7.27654E-2,2.2826147E-1,4.0608764E-2,0E0,6.292558E-2,4.969704E-2,0E0,2.682786E-1,5.8833685E-2,8.459346E1,0E0,0E0,1.763501E1,0E0,7.0973206E-1,8.116211E1,0E0,1.6398376E1,0E0,0E0,1.1371155E0,0E0,2.3331146E0,0E0,6.066108E0,2.387937E0,0E0,8.281186E1,1.2009766E1,1.4880981E0,8.156494E0,5.9503906E1,2.58479E1,5.7141235E1,2.4657227E1,0E0,0E0,0E0,0E0,0E0,0E0,0E0,0E0,0E0,0E0,0E0,0E0,0E0,0E0,0E0,0E0,0E0,0E0,0E0,0E0,0E0,0E0,0E0,0E0,0E0,0E0,0E0,0E0,0E0,0E0,0E0,0E0,0E0,0E0,0E0,0E0,0E0,0E0,0E0,0E0,0E0,0E0,0E0,0E0,0E0,0E0,0E0,0E0,0E0,0E0,0E0,0E0,0E0,0E0,0E0,0E0],"parents":[2147483647,0,0,1,1,2,2,3,3,4,4,5,5,6,6,8,8,9,9,10,10,11,11,12,12,13,13,14,14,15,15,17,17,18,18,19,19,20,20,21,21,23,23,24,24,25,25,26,26,27,27,28,28,30,30,31,31,32,32,33,33,34,34,35,35,36,36,37,37,38,38,39,39,40,40,42,42,43,43,44,44,45,45,46,46,47,47,48,48,49,49,50,50,51,51,52,52,55,55,56,56,57,57,61,61,62,62,63,63,64,64,66,66,67,67,69,69,70,70,71,71,74,74,76,76,77,77,79,79,82,82,84,84,86,86,87,87,89,89,90,90,91,91,92,92,93,93,94,94,95,95,96,96],"right_children":[2,4,6,8,10,12,14,-1,16,18,20,22,24,26,28,30,-1,32,34,36,38,40,-1,42,44,46,48,50,52,-1,54,56,58,60,62,64,66,68,70,72,74,-1,76,78,80,82,84,86,88,90,92,94,96,-1,-1,98,100,102,-1,-1,-1,104,106,108,110,-1,112,114,-1,116,118,120,-1,-1,122,-1,124,126,-1,128,-1,-1,130,-1,132,-1,134,136,-1,138,140,142,144,146,148,150,152,-1,-1,-1,-1,-1,-1,-1,-1,-1,-1,-1,-1,-1,-1,-1,-1,-1,-1,-1,-1,-1,-1,-1,-1,-1,-1,-1,-1,-1,-1,-1,-1,-1,-1,-1,-1,-1,-1,-1,-1,-1,-1,-1,-1,-1,-1,-1,-1,-1,-1,-1,-1,-1,-1,-1,-1],"split_conditions":[3.9510223E-1,6.724138E-2,6.724138E-2,2.7272727E-2,7.6129995E-2,2.7272727E-2,5.5555556E-2,4.604974E-2,5.272727E-1,1.7662945E-1,2.0075622E-1,5.4282683E-1,1.6666667E-1,9.8790765E-1,1.6666667E-1,5.5555556E-2,1.7482115E-2,1.9482759E-1,3.6677136E-3,8.30303E-1,1.3390663E-1,1.6666667E-1,4.765808E-1,9.8790765E-1,1.3440764E-1,9.5682657E-1,3.3636364E-1,1.7590925E-1,1.8383147E-1,3.7402928E-2,4.0821142E-2,3.6677136E-3,8.2186735E-1,2.2299244E-1,8.4482753E-1,5.8793104E-1,1.2068965E-1,5.5959666E-1,7.3910695E-1,5.5555556E-2,2.777778E-1,1.1072886E-1,5.5555556E-2,1.3161685E-1,5E-1,1.3390663E-1,7.125307E-2,6.965602E-1,5.181818E-1,2.9438242E-2,7.920965E-1,2.086207E-1,9.8790765E-1,2.407839E-2,8.001717E-3,1.717681E-1,1.6666667E-1,6.666666E-1,-2.6922831E-3,-2.8027848E-3,-4.3010428E-3,8.30303E-1,8.4911776E-1,1.3800865E-1,6.220742E-2,-1.3610707E-3,3.051724E-1,2.1206897E-1,2.6926931E-2,1.3484347E-1,3.783784E-1,8.231776E-1,3.3936712E-1,3.1009208E-2,4.4444448E-1,-7.2713285E-3,1.32157E-1,1.2117393E-1,2.0533313E-1,1.3665827E-1,3.2160483E-2,3.322968E-2,3.327586E-1,7.549594E-2,1.6897732E-1,-6.4543406E-3,1.507022E-1,4.9310344E-1,-6.2989313E-3,1.1034483E-1,4.50126E-2,7.168707E-1,9.8790765E-1,1.2389015E-3,7.920965E-1,7.920965E-1,2.777778E-1,-6.3150824E-4,3.1079166E-3,9.4712805E-4,3.6663886E-3,-8.422893E-4,-2.2281243E-3,-3.7894954E-3,-3.2896413E-3,7.893861E-4,-3.6118845E-3,5.682846E-3,2.6882624E-3,-5.711814E-4,2.314582E-3,9.995472E-3,6.5935617E-3,5.8296322E-5,3.5575703E-3,5.681873E-4,2.083918E-3,-7.9539575E-4,4.8741876E-4,1.9606999E-1,-8.175205E-3,1.3695365E-1,3.3761345E-2,4.610779E-2,2.7924247E-2,1.460245E-1,8.606631E-2,4.279098E-2,9.541389E-2,2.1024859E-2,2.5922664E-2,4.6720408E-2,3.5059623E-2,4.4922054E-2,-5.7784426E-3,-6.374537E-3,1.1091515E-2,1.7360473E-1,4.3834228E-2,1.9935079E-2,3.865126E-2,2.4565948E-2,1.93871E-2,3.4917675E-2,2.9968696E-2,9.4094895E-2,6.1736196E-2,2.8527211E-2,5.0594468E-2,2.3224108E-2,3.5373304E-2,4.0418476E-2,4.4035904E-2],"split_indices":[6,3,3,2,6,2,4,0,2,5,5,7,4,6,4,4,0,3,6,2,11,4,0,6,5,6,2,5,5,0,7,6,11,5,3,3,3,5,5,4,4,0,4,5,4,11,11,11,2,5,6,3,6,0,0,5,4,2,0,0,0,2,5,5,5,0,3,3,0,6,11,6,0,0,4,0,5,5,0,5,0,0,3,0,5,0,5,3,0,3,5,5,6,8,6,6,4,0,0,0,0,0,0,0,0,0,0,0,0,0,0,0,0,0,0,0,0,0,0,0,0,0,0,0,0,0,0,0,0,0,0,0,0,0,0,0,0,0,0,0,0,0,0,0,0,0,0,0,0,0,0,0,0],"split_type":[0,0,0,0,0,0,0,0,0,0,0,0,0,0,0,0,0,0,0,0,0,0,0,0,0,0,0,0,0,0,0,0,0,0,0,0,0,0,0,0,0,0,0,0,0,0,0,0,0,0,0,0,0,0,0,0,0,0,0,0,0,0,0,0,0,0,0,0,0,0,0,0,0,0,0,0,0,0,0,0,0,0,0,0,0,0,0,0,0,0,0,0,0,0,0,0,0,0,0,0,0,0,0,0,0,0,0,0,0,0,0,0,0,0,0,0,0,0,0,0,0,0,0,0,0,0,0,0,0,0,0,0,0,0,0,0,0,0,0,0,0,0,0,0,0,0,0,0,0,0,0,0,0],"sum_hessian":[7.805E3,7.65E2,7.04E3,1.3E1,7.52E2,1.37E2,6.903E3,1E0,1.2E1,2.96E2,4.56E2,2.1E1,1.16E2,5.91E2,6.312E3,6E0,6E0,3.9E1,2.57E2,8.4E1,3.72E2,2E1,1E0,3.7E1,7.9E1,1.92E2,3.99E2,1.49E3,4.822E3,1E0,5E0,1.6E1,2.3E1,9E1,1.67E2,6.3E1,2.1E1,1.9E1,3.53E2,8E0,1.2E1,3E0,3.4E1,6E1,1.9E1,1.27E2,6.5E1,2.9E1,3.7E2,2.33E2,1.257E3,6.63E2,4.159E3,4E0,1E0,9E0,7E0,1.4E1,9E0,6E0,8.4E1,1.61E2,6E0,4.9E1,1.4E1,2E0,1.9E1,1.8E1,1E0,2.28E2,1.25E2,3E0,5E0,2E0,1E1,1E1,2.4E1,5.5E1,5E0,1.6E1,3E0,1.2E1,1.15E2,3E0,6.2E1,2.5E1,4E0,6.1E1,3.09E2,1.8E1,2.15E2,1.26E2,1.131E3,2.33E2,4.3E2,7.59E2,3.4E3,8E0,1E0,5E0,2E0,8E0,6E0,1.15E2,4.6E1,2E0,4E0,3.2E1,1.7E1,2E0,1.2E1,6E0,1.3E1,2E0,1.6E1,6.7E1,1.61E2,1.6E1,1.09E2,1E0,2E0,9E0,1E0,2.1E1,3E0,4.1E1,1.4E1,4E0,1.2E1,4.5E1,7E1,1.3E1,4.9E1,1E0,3E0,5.8E1,3E0,2E0,1.6E1,1.6E1,1.99E2,8.1E1,4.5E1,1.73E2,9.58E2,2.7E1,2.06E2,2.4E1,4.06E2,2.22E2,5.37E2,1.295E3,2.105E3],"tree_param":{"num_deleted":"0","num_feature":"12","num_nodes":"153","size_leaf_vector":"0"}},{"base_weights":[1.6999319E0,5.229991E-1,2.7563114E0,1.7388685E-1,7.932562E-1,9.887496E0,2.6631336E0,6.574203E-3,8.8151944E-1,8.012392E-3,9.582724E-1,2.0582228E1,8.160579E0,1.8065314E0,2.8823688E0,-2.2584869E-1,1.6635576E-1,6.4253526E0,8.036146E-1,-1.5857807E-1,1.2506035E-1,1.5556496E0,6.889166E-1,5.360204E0,1.2903397E1,2.3507874E0,1.7671568E0,2.6618323E0,3.12463E0,8.991335E-2,-2.9426464E-1,-1.4506868E-1,2.0332327E-1,3.2451587E0,8.6812E0,2.4688241E-1,1.2917082E0,7.699197E-1,-1.7263977E-1,2.3940109E-1,6.457445E-2,7.3024374E-1,1.728052E0,5.1491255E-1,8.311003E-1,6.8399377E0,1.7849433E0,8.196632E0,1.8946924E1,2.2431703E0,2.879178E0,1.6981674E0,1.9988331E0,3.5727978E-2,2.6846616E0,4.174052E0,2.6096447E0,-1.6389728E-1,1.693737E-1,-1.720866E-1,-3.0605766E-1,1.5301301E0,-1.7146525E-1,5.374965E-1,1.3631211E-1,1.4396611E-1,6.5525323E-1,1.1833313E0,1.5136651E0,-6.037661E-2,-1.8033953E-1,5.4488784E-1,2.1489778E-1,8.485642E-1,5.6978025E-2,4.5469847E-1,1.0862156E0,1.5449724E0,2.0207412E0,2.4575505E-1,5.4412013E-1,2.0927777E0,8.1282586E-1,3.571097E0,2.4129423E1,2.1576796E0,1.1855462E0,2.9250107E1,9.560018E0,1.6147894E0,1.7796565E0,1.8194634E0,2.4897156E0,2.212415E0,-1.6660963E-1,2.7340302E0,2.5065753E0,5.72908E0,4.0260587E0,3.5338986E0,2.5057359E0,-1.7601672E-1,-2.3561679E-2,1.224814E0,1.4921722E-1,-1.0190608E-1,-1.7848496E-1,-2.3478094E-1,-3.1441158E-1,-1.4429466E-1,-1.8984978E-1,1.5429722E-1,2.276764E0,-1.8359834E-1,1.6729634E-1,6.2142573E-2,3.1836447E-1,1.0393058E0,3.6855513E-1,1.3177688E0,8.8593644E-1,1.3973886E0,1.7705055E0,-3.9521683E-2,-1.2011421E-1,-2.062331E-1,-1.6655827E-1,6.7768925E-1,2.7119333E-1,2.0596121E-1,6.151143E-1,1.6881147E-2,1.5447506E-1,3.402801E-1,6.724054E-1,1.6693352E0,7.666581E-1,5.2037473E0,1.5256108E0,3.131261E0,1.953481E0,4.4049042E-1,2.0865361E-1,7.2758216E-1,4.8133227E-1,2.7877766E-1,3.433138E0,7.8479064E-1,1.4284328E0,1.2307452E1,2.2492E0,1.0576612E0,1.2000534E1,2.1544092E0,1.5806692E0,1.7955498E0,1.4370162E0,1.1045889E0,1.9068478E0,3.6384943E0,2.2248564E0,-7.2022796E-2,-1.9951878E-1,2.5500414E0,2.8156574E0,2.546098E0,2.3274434E0,6.694319E0,3.9638898E0,2.4355137E0,3.8973007E0,3.935365E0,2.464267E0],"categories":[],"categories_nodes":[],"categories_segments":[],"categories_sizes":[],"default_left":[true,true,true,true,true,true,true,true,true,true,true,false,true,true,true,true,true,true,true,true,true,true,true,true,true,true,true,true,true,true,true,true,true,false,false,true,true,false,true,true,true,true,true,true,true,true,true,false,true,false,false,true,true,true,true,true,true,true,true,true,true,false,true,true,true,true,true,true,true,true,true,true,true,false,true,true,true,true,true,true,true,true,true,true,false,false,false,false,true,true,true,true,true,false,true,true,true,false,true,true,true,false,false,false,false,false,false,false,false,false,false,false,false,false,false,false,false,false,false,false,false,false,false,false,false,false,false,false,false,false,false,false,false,false,false,false,false,false,false,false,false,false,false,false,false,false,false,false,false,false,false,false,false,false,false,false,false,false,false,false,false,false,false,false,false,false,false,false,false,false,false,false,false],"id":11,"left_children":[1,3,5,7,9,11,13,15,17,19,21,-1,23,25,27,29,31,33,35,37,39,41,43,45,47,49,51,53,55,57,59,61,63,-1,-1,65,67,-1,69,71,73,75,77,79,81,83,85,-1,87,-1,-1,89,91,93,95,97,99,101,103,105,107,-1,109,111,113,115,117,119,121,123,125,127,129,-1,131,133,135,137,139,141,143,145,147,149,-1,-1,-1,-1,151,153,155,157,159,-1,161,163,165,-1,167,169,171,-1,-1,-1,-1,-1,-1,-1,-1,-1,-1,-1,-1,-1,-1,-1,-1,-1,-1,-1,-1,-1,-1,-1,-1,-1,-1,-1,-1,-1,-1,-1,-1,-1,-1,-1,-1,-1,-1,-1,-1,-1,-1,-1,-1,-1,-1,-1,-1,-1,-1,-1,-1,-1,-1,-1,-1,-1,-1,-1,-1,-1,-1,-1,-1,-1,-1,-1,-1,-1,-1,-1,-1],"loss_changes":[9.961107E3,3.5755847E2,2.7966406E3,1.9585165E2,2.7680518E2,9.470596E2,7.81E2,4.971323E1,1.3479662E2,7.2467937E0,2.8366516E2,0E0,6.053423E2,1.677832E1,1.744336E2,1.1792667E1,9.143988E0,2.1523819E1,8.4744415E1,2.0377665E0,1.5005038E0,7.7573E1,2.9955566E1,1.562829E2,4.4088306E2,9.765625E-1,1.151123E1,1.04206055E2,8.498008E2,1.9723449E0,6.215935E-1,3.797295E0,1.58503E1,0E0,0E0,6.1072474E0,3.365387E0,0E0,1.237483E-1,5.1401806E-1,8.245857E-1,9.16423E0,2.3200195E1,4.254822E0,1.48237915E1,1.176565E3,1.1845398E0,0E0,6.154541E2,0E0,0E0,3.1673584E0,1.4306213E1,6.9053564E0,1.2800781E1,1.1168457E2,9.879346E1,3.5455585E-2,1.5008225E0,8.046508E-3,2.1068954E-1,0E0,2.772522E-2,7.871578E1,5.871413E0,1.6623106E0,3.0820093E0,4.110428E0,7.2255707E-1,9.013593E-3,3.366232E-2,1.1903393E-1,1.9759297E-1,0E0,5.531142E-1,1.2626848E0,7.2405586E0,1.7115356E1,1.0834656E1,3.5264826E-1,5.5602875E0,2.2321419E1,1.0991089E1,2.022864E2,0E0,0E0,0E0,0E0,8.550128E1,4.4697266E0,7.6708984E-1,7.583832E0,1.1618774E1,0E0,3.5951585E-2,1.7749023E1,6.328125E-1,0E0,6.9848145E1,3.9187866E1,5.325244E1,0E0,0E0,0E0,0E0,0E0,0E0,0E0,0E0,0E0,0E0,0E0,0E0,0E0,0E0,0E0,0E0,0E0,0E0,0E0,0E0,0E0,0E0,0E0,0E0,0E0,0E0,0E0,0E0,0E0,0E0,0E0,0E0,0E0,0E0,0E0,0E0,0E0,0E0,0E0,0E0,0E0,0E0,0E0,0E0,0E0,0E0,0E0,0E0,0E0,0E0,0E0,0E0,0E0,0E0,0E0,0E0,0E0,0E0,0E0,0E0,0E0,0E0,0E0,0E0,0E0,0E0,0E0,0E0,0E0,0E0,0E0,0E0],"parents":[2147483647,0,0,1,1,2,2,3,3,4,4,5,5,6,6,7,7,8,8,9,9,10,10,12,12,13,13,14,14,15,15,16,16,17,17,18,18,19,19,20,20,21,21,22,22,23,23,24,24,25,25,26,26,27,27,28,28,29,29,30,30,31,31,32,32,35,35,36,36,38,38,39,39,40,40,41,41,42,42,43,43,44,44,45,45,46,46,48,48,51,51,52,52,53,53,54,54,55,55,56,56,57,57,58,58,59,59,60,60,62,62,63,63,64,64,65,65,66,66,67,67,68,68,69,69,70,70,71,71,72,72,74,74,75,75,76,76,77,77,78,78,79,79,80,80,81,81,82,82,83,83,88,88,89,89,90,90,91,91,92,92,94,94,95,95,96,96,98,98,99,99,100,100],"right_children":[2,4,6,8,10,12,14,16,18,20,22,-1,24,26,28,30,32,34,36,38,40,42,44,46,48,50,52,54,56,58,60,62,64,-1,-1,66,68,-1,70,72,74,76,78,80,82,84,86,-1,88,-1,-1,90,92,94,96,98,100,102,104,106,108,-1,110,112,114,116,118,120,122,124,126,128,130,-1,132,134,136,138,140,142,144,146,148,150,-1,-1,-1,-1,152,154,156,158,160,-1,162,164,166,-1,168,170,172,-1,-1,-1,-1,-1,-1,-1,-1,-1,-1,-1,-1,-1,-1,-1,-1,-1,-1,-1,-1,-1,-1,-1,-1,-1,-1,-1,-1,-1,-1,-1,-1,-1,-1,-1,-1,-1,-1,-1,-1,-1,-1,-1,-1,-1,-1,-1,-1,-1,-1,-1,-1,-1,-1,-1,-1,-1,-1,-1,-1,-1,-1,-1,-1,-1,-1,-1,-1,-1,-1,-1,-1],"split_conditions":[6.621175E-1,1.6666667E-1,5E-1,7.090609E-2,3.9510223E-1,7.876776E-1,9.8790765E-1,5.5555556E-2,5E-1,7.6129995E-2,6.572582E-1,4.1164455E-1,8.571358E-1,5.0082594E-1,8.2218254E-1,1.7815007E-2,8.513586E-2,3.7589142E-1,3.8020277E-1,5E-1,8.23977E-2,3.989272E-1,2.777778E-1,8.349742E-1,2.777778E-1,9.859468E-1,9.345995E-1,5.5555556E-2,8.349742E-1,7.1924664E-2,5.2172124E-1,5E-1,6.572582E-1,6.490317E-2,1.73624E-1,3.443045E-1,4.4565028E-1,1.5398393E-2,1.2389015E-3,5.0082594E-1,5E-1,3.7966675E-1,6.341465E-1,1.6680852E-1,4.1296717E-4,8.2218254E-1,2.777778E-1,1.6393265E-1,3.888889E-1,4.4863403E-2,5.758356E-2,7.7778685E-1,9.9787235E-1,7.510687E-1,7.958708E-1,5.0082594E-1,5.0082594E-1,2.6818076E-1,5E-1,5.0082594E-1,5.0082594E-1,3.0602602E-2,1.4685363E-1,5.003473E-1,5.0082594E-1,3.8609636E-1,3.7000573E-1,4.3256068E-1,7.920965E-1,3.0902475E-1,1.7886794E-1,5.998201E-2,5E-1,1.6971285E-2,3.1517088E-1,3.443045E-1,3.8608843E-1,5E-1,5.0082594E-1,5E-1,3.5106385E-1,6.8723404E-1,6.1111116E-1,9.8790765E-1,4.8258844E-1,4.315359E-2,2.3710923E-2,5.850021E-1,5E-1,6.6854E-1,9.0605086E-1,9.5665354E-1,9.532107E-1,4.4248298E-2,2.7021277E-1,7.554066E-1,3.888889E-1,1.145816E-1,1.48936175E-2,8.5870504E-1,1.48936175E-2,-3.5203344E-3,-4.7123356E-4,2.4496282E-2,2.9843443E-3,-2.0381217E-3,-3.5696991E-3,-4.6956185E-3,-6.2882314E-3,-2.8858932E-3,-3.7969954E-3,3.0859443E-3,4.5535278E-2,-3.6719667E-3,3.3459265E-3,1.2428515E-3,6.3672895E-3,2.0786116E-2,7.3711025E-3,2.6355376E-2,1.7718729E-2,2.794777E-2,3.541011E-2,-7.9043367E-4,-2.4022842E-3,-4.124662E-3,-3.3311653E-3,1.3553785E-2,5.423866E-3,4.1192244E-3,1.2302285E-2,3.3762294E-4,3.0895013E-3,6.8056015E-3,1.3448108E-2,3.3386704E-2,1.5333163E-2,1.0407494E-1,3.0512216E-2,6.262522E-2,3.906962E-2,8.809809E-3,4.173072E-3,1.4551642E-2,9.626646E-3,5.575553E-3,6.8662755E-2,1.5695812E-2,2.8568655E-2,2.4614903E-1,4.4984E-2,2.1153223E-2,2.4001068E-1,4.3088183E-2,3.1613383E-2,3.5910994E-2,2.8740324E-2,2.2091776E-2,3.8136955E-2,7.276988E-2,4.4497125E-2,-1.4404559E-3,-3.9903754E-3,5.1000826E-2,5.6313146E-2,5.0921958E-2,4.6548866E-2,1.3388637E-1,7.92778E-2,4.8710275E-2,7.7946015E-2,7.87073E-2,4.928534E-2],"split_indices":[1,4,0,7,6,1,6,4,0,6,1,0,1,8,1,7,6,1,1,0,1,1,4,1,4,1,1,4,1,6,1,0,1,0,0,1,1,0,8,8,0,1,1,10,8,1,4,0,4,0,0,1,10,1,1,8,8,1,0,8,8,0,1,1,8,6,1,1,6,1,1,1,4,0,1,1,1,0,8,0,10,10,4,6,0,0,0,0,4,1,1,1,1,0,10,1,4,0,10,1,10,0,0,0,0,0,0,0,0,0,0,0,0,0,0,0,0,0,0,0,0,0,0,0,0,0,0,0,0,0,0,0,0,0,0,0,0,0,0,0,0,0,0,0,0,0,0,0,0,0,0,0,0,0,0,0,0,0,0,0,0,0,0,0,0,0,0,0,0,0,0,0,0],"split_type":[0,0,0,0,0,0,0,0,0,0,0,0,0,0,0,0,0,0,0,0,0,0,0,0,0,0,0,0,0,0,0,0,0,0,0,0,0,0,0,0,0,0,0,0,0,0,0,0,0,0,0,0,0,0,0,0,0,0,0,0,0,0,0,0,0,0,0,0,0,0,0,0,0,0,0,0,0,0,0,0,0,0,0,0,0,0,0,0,0,0,0,0,0,0,0,0,0,0,0,0,0,0,0,0,0,0,0,0,0,0,0,0,0,0,0,0,0,0,0,0,0,0,0,0,0,0,0,0,0,0,0,0,0,0,0,0,0,0,0,0,0,0,0,0,0,0,0,0,0,0,0,0,0,0,0,0,0,0,0,0,0,0,0,0,0,0,0,0,0,0,0,0,0],"sum_hessian":[8.012E3,3.79E3,4.222E3,1.654E3,2.136E3,5.4E1,4.168E3,1.338E3,3.16E2,3.71E2,1.765E3,7E0,4.7E1,8.5E2,3.318E3,5.45E2,7.93E2,4E0,3.12E2,1.53E2,2.18E2,5.48E2,1.217E3,3E1,1.7E1,5.6E1,7.94E2,1.739E3,1.579E3,9.7E1,4.48E2,8.4E1,7.09E2,2E0,2E0,1.46E2,1.66E2,2E0,1.51E2,7.5E1,1.43E2,9.5E1,4.53E2,5.48E2,6.69E2,2.1E1,9E0,1E1,7E0,4.8E1,8E0,6.14E2,1.8E2,1.5E1,1.724E3,5.19E2,1.06E3,2.3E1,7.4E1,4E1,4.08E2,1E0,8.3E1,1.18E2,5.91E2,1.17E2,2.9E1,1.13E2,5.3E1,1E1,1.41E2,5E0,7E1,1E0,1.42E2,5.4E1,4.1E1,2.8E2,1.73E2,5.4E1,4.94E2,9E0,6.6E2,1.8E1,3E0,5E0,4E0,3E0,4E0,3.07E2,3.07E2,1.33E2,4.7E1,1E0,1.4E1,1.346E3,3.78E2,4.4E1,4.75E2,1.06E2,9.54E2,2.1E1,2E0,1E0,7.3E1,4E0,3.6E1,4.4E1,3.64E2,3.5E1,4.8E1,9.7E1,2.1E1,5.2E1,5.39E2,8E1,3.7E1,1.2E1,1.7E1,7.7E1,3.6E1,3.8E1,1.5E1,8E0,2E0,4.7E1,9.4E1,3E0,2E0,6.9E1,1E0,1.01E2,4.1E1,3.6E1,1.8E1,1.4E1,2.7E1,1E0,2.79E2,9E0,1.64E2,8E0,4.6E1,1.25E2,3.69E2,4E0,5E0,6.32E2,2.8E1,2E0,1.6E1,1E0,3E0,1.7E1,2.9E2,2.92E2,1.5E1,1.5E1,1.18E2,8E0,3.9E1,4E0,1E1,4.17E2,9.29E2,3.06E2,7.2E1,1E1,4.65E2,2.7E1,7.9E1,2.6E1,9.28E2],"tree_param":{"num_deleted":"0","num_feature":"12","num_nodes":"173","size_leaf_vector":"0"}},{"base_weights":[1.676581E0,5.324247E0,1.5887078E0,9.601972E0,4.5153265E0,-1.2080789E-2,1.7637382E0,8.850231E0,2.3162941E1,2.7226965E0,5.5245376E0,-1.6552033E-1,8.7356865E-2,2.4160533E-1,1.9056035E0,3.5290017E0,9.433357E0,2.079502E0,7.790249E0,1.9429944E0,5.913687E0,-5.6040875E-4,-1.7914878E-1,1.518255E-1,5.2151725E-2,1.4152337E0,-2.8864372E-1,1.5159687E0,2.02518E0,9.5262575E0,-3.963638E-1,1.2162119E1,7.388314E0,2.4024594E-1,2.8362274E0,1.1286073E1,3.5108294E0,8.9443505E-1,3.3226788E0,7.0966797E0,5.0092087E0,6.886902E-2,-9.150878E-2,-1.968983E-1,-1.6931123E-1,2.3663217E-1,1.2356521E-1,1.1005089E-2,6.8577886E-2,1.1335467E0,1.9030563E0,-2.4598809E-1,-3.0118912E-1,1.9140791E0,1.478043E0,1.0994377E0,2.078641E0,2.9392498E0,1.3043726E1,9.136171E-1,8.937364E0,1.7505102E0,-3.4302977E-1,2.3532379E0,4.147821E0,5.0013313E0,2.151238E0,5.125699E0,2.2647548E0,7.4836006E0,4.7454734E0,4.21751E0,5.4178543E0,8.30567E-3,1.5651792E-1,3.6048302E-3,-1.540212E-1,-2.0926563E-1,-1.5460438E-1,-1.7180255E-1,-8.917544E-2,7.884468E-2,2.8065956E-1,2.978427E-1,1.037606E-1,-6.126773E-2,2.4290178E-2,7.13672E-2,-2.4532285E-2,1.2450764E0,9.9880314E-1,3.6174455E0,1.8318928E0,-2.7353483E-1,8.848593E-1,2.0996878E0,1.5420982E0,1.1215209E0,1.5179416E0,1.10596E0,1.9457072E-1,2.6892946E0,2.0198574E0,9.53302E0,1.6290144E0,2.564088E0,6.806577E-1,2.4625413E0,8.24168E-1,4.4684734E0,2.5412278E0,1.9230359E0,7.0889077E0,6.1105037E0,3.414013E0,3.3319726E0,5.834556E0,-5.2235533E-2,1.0861826E-1,1.9354998E-1,-0E0,-4.594606E-2,1.3726981E-1,-1.3084257E-1,-2.1178752E-1,-1.736662E-1,3.5647333E-2,-1.774178E-1,-1.572019E-1,4.1656673E-2,-1.5605476E-1,1.17284745E-1,4.000779E-2,1.638428E-1,3.3218732E-1,2.2147499E-1,8.61728E-1,1.23149924E-1,5.0160863E-2,2.2929613E-2,-9.969928E-2,9.933741E-3,9.387043E-2,8.0064796E-2,4.325103E-2,9.602334E-2,-5.5814117E-2,1.0706978E0,1.4113141E0,1.0326273E0,7.285114E-1,-1.6111368E-1,-3.072536E-1,1.794985E0,-2.3585318E-1,5.7139926E0,1.9446764E0,1.1791394E0,1.7982314E0,1.2201312E0,8.9334303E-1,1.5535114E0,1.143978E0,2.1871228E0,1.0990567E0,3.214061E0,2.4505768E0,2.3436983E0,1.9673067E0],"categories":[],"categories_nodes":[],"categories_segments":[],"categories_sizes":[],"default_left":[true,true,true,true,true,true,true,true,false,true,true,true,true,true,true,true,true,true,true,true,true,true,true,true,true,true,true,true,true,false,false,true,true,true,true,false,true,false,true,true,true,true,true,true,true,true,true,true,true,true,true,true,false,true,true,true,true,false,false,false,true,true,false,true,true,false,false,false,false,false,true,true,true,true,true,true,false,true,true,true,true,true,true,true,true,true,true,true,true,true,true,false,false,true,true,true,true,true,true,true,false,true,true,false,false,false,false,false,false,false,false,false,false,false,false,false,false,false,false,false,false,false,false,false,false,false,false,false,false,false,false,false,false,false,false,false,false,false,false,false,false,false,false,false,false,false,false,false,false,false,false,false,false,false,false,false,false,false,false,false,false,false,false,false,false,false,false,false,false],"id":12,"left_children":[1,3,5,7,9,11,13,15,-1,17,19,21,23,25,27,29,31,33,35,37,39,41,43,45,47,49,51,53,55,-1,-1,57,59,61,63,-1,65,-1,67,69,71,73,75,77,79,81,83,85,87,89,91,93,-1,95,97,99,101,-1,-1,-1,103,105,-1,107,109,-1,-1,-1,-1,-1,111,113,115,117,119,121,-1,123,125,127,129,131,133,135,137,139,141,143,145,147,149,-1,-1,151,153,155,157,159,161,163,-1,165,167,-1,-1,-1,-1,-1,-1,-1,-1,-1,-1,-1,-1,-1,-1,-1,-1,-1,-1,-1,-1,-1,-1,-1,-1,-1,-1,-1,-1,-1,-1,-1,-1,-1,-1,-1,-1,-1,-1,-1,-1,-1,-1,-1,-1,-1,-1,-1,-1,-1,-1,-1,-1,-1,-1,-1,-1,-1,-1,-1,-1,-1,-1,-1,-1,-1,-1],"loss_changes":[2.538045E3,6.301172E2,2.1690488E3,2.3021753E2,2.7950513E2,1.1652625E1,1.5067031E3,7.66311E1,0E0,1.81331E2,1.3589673E2,6.725979E-1,1.0460448E0,3.706374E2,2.9633398E2,7.986404E1,1.1112793E2,7.117543E1,8.132498E1,1.3898033E1,8.462866E1,1.4976355E-1,3.208542E-2,3.765664E-1,2.0160288E-1,2.470462E1,1.8706894E-1,2.1661133E1,2.408711E2,0E0,0E0,7.100806E1,1.5092554E2,1.372758E1,1.9669037E1,0E0,3.0653267E0,0E0,4.2894135E0,2.285608E1,9.17395E0,6.799364E-2,6.377128E-2,3.4409285E-2,2.737093E-2,2.6768804E-1,4.096508E-1,8.286198E-2,5.691707E-2,1.3315887E0,5.927231E0,3.0417438E0,0E0,7.7978516E0,1.8901611E1,1.4874573E0,1.6383203E2,0E0,0E0,0E0,4.8352966E1,3.143611E0,0E0,3.8446503E0,9.2152405E-1,0E0,0E0,0E0,0E0,0E0,3.721631E1,2.2313995E1,2.2359497E1,5.330582E-2,3.1680107E-2,3.210739E-2,0E0,3.7550926E-4,8.865297E-2,3.0088425E-4,5.9217222E-2,1.0125488E-2,1.6338062E-1,4.5201743E-1,1.11172676E-1,4.5002293E-2,7.1462974E-2,4.803276E-2,2.5098473E-2,1.2966232E0,2.2989655E-1,0E0,0E0,3.3061028E-1,2.543532E0,4.399408E1,3.3719482E0,2.7414856E0,1.5760986E1,1.1318665E0,0E0,4.7943848E1,7.008594E1,0E0,0E0,0E0,0E0,0E0,0E0,0E0,0E0,0E0,0E0,0E0,0E0,0E0,0E0,0E0,0E0,0E0,0E0,0E0,0E0,0E0,0E0,0E0,0E0,0E0,0E0,0E0,0E0,0E0,0E0,0E0,0E0,0E0,0E0,0E0,0E0,0E0,0E0,0E0,0E0,0E0,0E0,0E0,0E0,0E0,0E0,0E0,0E0,0E0,0E0,0E0,0E0,0E0,0E0,0E0,0E0,0E0,0E0,0E0,0E0,0E0,0E0,0E0,0E0,0E0,0E0],"parents":[2147483647,0,0,1,1,2,2,3,3,4,4,5,5,6,6,7,7,9,9,10,10,11,11,12,12,13,13,14,14,15,15,16,16,17,17,18,18,19,19,20,20,21,21,22,22,23,23,24,24,25,25,26,26,27,27,28,28,31,31,32,32,33,33,34,34,36,36,38,38,39,39,40,40,41,41,42,42,43,43,44,44,45,45,46,46,47,47,48,48,49,49,50,50,51,51,53,53,54,54,55,55,56,56,60,60,61,61,63,63,64,64,70,70,71,71,72,72,73,73,74,74,75,75,77,77,78,78,79,79,80,80,81,81,82,82,83,83,84,84,85,85,86,86,87,87,88,88,89,89,90,90,93,93,94,94,95,95,96,96,97,97,98,98,99,99,101,101,102,102],"right_children":[2,4,6,8,10,12,14,16,-1,18,20,22,24,26,28,30,32,34,36,38,40,42,44,46,48,50,52,54,56,-1,-1,58,60,62,64,-1,66,-1,68,70,72,74,76,78,80,82,84,86,88,90,92,94,-1,96,98,100,102,-1,-1,-1,104,106,-1,108,110,-1,-1,-1,-1,-1,112,114,116,118,120,122,-1,124,126,128,130,132,134,136,138,140,142,144,146,148,150,-1,-1,152,154,156,158,160,162,164,-1,166,168,-1,-1,-1,-1,-1,-1,-1,-1,-1,-1,-1,-1,-1,-1,-1,-1,-1,-1,-1,-1,-1,-1,-1,-1,-1,-1,-1,-1,-1,-1,-1,-1,-1,-1,-1,-1,-1,-1,-1,-1,-1,-1,-1,-1,-1,-1,-1,-1,-1,-1,-1,-1,-1,-1,-1,-1,-1,-1,-1,-1,-1,-1,-1,-1,-1,-1],"split_conditions":[7.4137926E-2,2.7272727E-2,3.9510223E-1,5.4282683E-1,1.6666667E-1,7.6129995E-2,5.5555556E-2,5.5555556E-2,4.632588E-1,1.3137093E-1,7.920965E-1,1.6034484E-1,3.2068965E-1,9.8790765E-1,1.6666667E-1,8.231776E-1,1.6666667E-1,5.5555556E-2,6.724138E-2,3.9510223E-1,5E-1,3.4520882E-1,3.6677136E-3,1.3390663E-1,1.3484347E-1,9.5682657E-1,5.181818E-1,1.7758621E-1,7.920965E-1,1.9052514E-1,-7.927275E-3,5.629188E-1,2.777778E-1,8.231776E-1,3.5106385E-1,2.2572145E-1,9.5682657E-1,1.78887E-2,5E-1,3.888889E-1,2.777778E-1,1.3793103E-1,3.3636364E-1,8.30303E-1,8.4482753E-1,1.6680852E-1,1.6680852E-1,3.6551723E-1,5E-1,6.0565114E-1,7.125307E-2,4.9310344E-1,-6.0237823E-3,2.923833E-1,7.920965E-1,7.222222E-1,1.7758621E-1,5.8784995E-2,2.608745E-1,1.827234E-2,4.4444448E-1,5E-1,-6.860595E-3,5E-1,9.9787235E-1,1.0002662E-1,4.302476E-2,1.0251398E-1,4.5295093E-2,1.49672E-1,5E-1,6.545454E-1,6.545454E-1,4.0821142E-2,4.0821142E-2,6.068796E-1,-3.080424E-3,2.7068967E-1,6.621622E-1,6.103448E-1,6.818182E-1,6E-2,1.3484347E-1,9.533169E-1,6.4742017E-1,1.4127764E-1,2.777778E-1,6.2931037E-1,6.5970516E-1,3.1034482E-1,9.212121E-1,7.234891E-2,3.6637858E-2,2.063882E-1,7.764128E-1,9.6551724E-2,6.4496315E-1,5.6379306E-1,7.224138E-1,9.3103446E-2,3.8914143E-3,3.5106385E-1,5.181818E-1,1.906604E-1,3.2580286E-2,5.128176E-2,1.3613153E-2,4.9250826E-2,1.648336E-2,8.936947E-2,5.0824556E-2,3.8460717E-2,1.4177816E-1,1.2221007E-1,6.828026E-2,6.663945E-2,1.1669112E-1,-1.0447106E-3,2.172365E-3,3.8709994E-3,-0E0,-9.189212E-4,2.7453962E-3,-2.6168514E-3,-4.2357505E-3,-3.4733238E-3,7.1294664E-4,-3.548356E-3,-3.144038E-3,8.3313347E-4,-3.1210952E-3,2.345695E-3,8.0015574E-4,3.276856E-3,6.6437465E-3,4.4294996E-3,1.723456E-2,2.4629985E-3,1.0032172E-3,4.5859223E-4,-1.9939856E-3,1.9867481E-4,1.8774086E-3,1.6012959E-3,8.6502056E-4,1.9204668E-3,-1.1162823E-3,2.1413956E-2,2.8226282E-2,2.0652546E-2,1.4570228E-2,-3.2222734E-3,-6.1450717E-3,3.58997E-2,-4.7170636E-3,1.1427985E-1,3.889353E-2,2.3582786E-2,3.5964627E-2,2.4402622E-2,1.7866861E-2,3.1070227E-2,2.287956E-2,4.3742456E-2,2.1981133E-2,6.428122E-2,4.9011536E-2,4.6873964E-2,3.9346132E-2],"split_indices":[3,2,6,7,4,6,4,4,0,7,6,3,3,6,4,6,4,4,3,6,0,11,6,11,6,6,2,3,6,0,0,6,4,6,10,0,6,0,0,4,4,3,2,2,3,10,10,3,4,11,11,3,0,11,6,4,3,0,0,0,4,0,0,0,10,0,0,0,0,0,4,2,2,7,7,11,0,3,11,3,11,10,6,11,11,11,4,3,11,3,2,0,0,11,11,3,11,3,3,3,0,10,2,0,0,0,0,0,0,0,0,0,0,0,0,0,0,0,0,0,0,0,0,0,0,0,0,0,0,0,0,0,0,0,0,0,0,0,0,0,0,0,0,0,0,0,0,0,0,0,0,0,0,0,0,0,0,0,0,0,0,0,0,0,0,0,0,0,0],"split_type":[0,0,0,0,0,0,0,0,0,0,0,0,0,0,0,0,0,0,0,0,0,0,0,0,0,0,0,0,0,0,0,0,0,0,0,0,0,0,0,0,0,0,0,0,0,0,0,0,0,0,0,0,0,0,0,0,0,0,0,0,0,0,0,0,0,0,0,0,0,0,0,0,0,0,0,0,0,0,0,0,0,0,0,0,0,0,0,0,0,0,0,0,0,0,0,0,0,0,0,0,0,0,0,0,0,0,0,0,0,0,0,0,0,0,0,0,0,0,0,0,0,0,0,0,0,0,0,0,0,0,0,0,0,0,0,0,0,0,0,0,0,0,0,0,0,0,0,0,0,0,0,0,0,0,0,0,0,0,0,0,0,0,0,0,0,0,0,0,0],"sum_hessian":[7.927E3,1.86E2,7.741E3,2.9E1,1.57E2,7.63E2,6.978E3,2.8E1,1E0,5.7E1,1E2,3E2,4.63E2,5.95E2,6.383E3,3E0,2.5E1,5.1E1,6E0,1E1,9E1,2.3E1,2.77E2,1.63E2,3E2,1.85E2,4.1E2,1.5E3,4.883E3,1E0,2E0,1E1,1.5E1,1.5E1,3.6E1,3E0,3E0,6E0,4E0,3.8E1,5.2E1,1.3E1,1E1,9.6E1,1.81E2,4E1,1.23E2,8.6E1,2.14E2,1.18E2,6.7E1,9.5E1,3.15E2,1.29E2,1.371E3,2.67E2,4.616E3,1E0,9E0,3E0,1.2E1,4E0,1.1E1,2.7E1,9E0,1E0,2E0,1E0,3E0,3.2E1,6E0,1.9E1,3.3E1,8E0,5E0,4E0,6E0,7.3E1,2.3E1,1.75E2,6E0,9E0,3.1E1,1.2E1,1.11E2,1.3E1,7.3E1,2.08E2,6E0,6.3E1,5.5E1,2E0,6.5E1,9.3E1,2E0,8.5E1,4.4E1,1.39E2,1.232E3,2.65E2,2E0,4.04E2,4.212E3,1.1E1,1E0,2E0,2E0,2.5E1,2E0,7E0,2E0,3E0,3E0,5E0,1.4E1,6E0,2.7E1,5E0,3E0,4E0,1E0,3E0,1E0,3E0,7E1,2.1E1,2E0,1.23E2,5.2E1,2E0,4E0,4E0,5E0,1E1,2.1E1,1.1E1,1E0,8.1E1,3E1,4E0,9E0,6.1E1,1.2E1,1.58E2,5E1,1E0,5E0,3.2E1,3.1E1,4.8E1,7E0,2.2E1,7.1E1,1E0,1E0,3E0,8.2E1,1.9E1,2.5E1,9.6E1,4.3E1,1.124E3,1.08E2,1E0,2.64E2,1.25E2,2.79E2,5.86E2,3.626E3],"tree_param":{"num_deleted":"0","num_feature":"12","num_nodes":"169","size_leaf_vector":"0"}},{"base_weights":[1.6350671E0,4.687431E-1,2.6893408E0,2.14596E-2,5.8677876E-1,2.4047611E1,2.6096754E0,1.5468638E0,-7.025055E-3,1.4115684E0,3.0002838E-1,3.1831371E1,1.6233887E1,7.32765E0,2.516886E0,2.8644512E0,1.254598E0,-1.6743103E-1,9.3798965E-2,1.0492052E0,1.8656774E0,-3.1914148E-1,3.1956738E-1,1.5902804E1,6.3683243E1,1.0236706E0,3.0191572E1,1.5469771E1,6.4681883E0,2.721154E0,1.7217447E0,1.4864764E0,8.5465014E-1,-1.3681198E-3,-1.8069467E-1,2.060296E-1,3.6399934E-2,9.383379E0,1.0221567E0,2.744856E0,1.8104562E0,-8.7523896E-1,-1.8045352E-1,6.1708665E-1,3.11867E-1,2.8901237E1,5.208587E0,1.8091017E0,6.027942E-1,2.0765394E1,7.0336943E0,2.8819377E0,8.341724E0,2.8589785E0,2.4278002E0,1.6585236E0,2.1190958E0,7.744887E-1,1.702366E0,6.0698397E-2,-9.151357E-2,-8.712598E-2,-1.874877E-1,3.7932217E-1,1.8434298E-1,6.9368863E-3,1.969857E-1,4.7367227E-1,1.2065547E0,2.8558605E0,1.5219204E0,2.8802245E0,1.7868603E0,-1.2270425E-1,-6.0940987E-1,1.1938317E0,-1.4088866E-1,6.776392E-1,3.0638725E-1,1.6124187E0,1.0188354E1,2.3883815E0,7.399273E0,1.3625865E1,6.4181147E0,2.5557654E0,3.8305893E0,3.3064487E0,2.3215687E0,2.2006042E0,1.6218805E0,2.7610643E0,1.8040849E0,-1.2125122E-1,9.763299E-2,3.5703443E-2,-1.5590498E-1,-0E0,-9.64858E-2,-2.004531E-1,-1.7154737E-1,2.8590196E-1,6.342814E-1,2.695108E-1,1.4517501E-1,1.8882231E-1,-1.3960332E-2,4.2096296E-1,1.6757359E-1,3.054303E-1,7.0120585E-1,1.6300077E0,1.1668489E0,3.014505E0,1.8837397E0,3.0592782E0,1.4330878E0,1.6079849E0,1.9123569E0,-1.7239669E-1,-2.9692352E-2,2.5971496E0,5.6054515E-1,8.421549E-1,-2.4688108E-1,1.3832785E0,-2.555678E-1,1.2263687E-1,3.2099742E-1,1.0785872E1,2.151583E0,1.9993748E1,1.1746789E1,2.0179522E0,7.6808195E0,3.101224E0,2.538254E0,5.9374957E0,3.6265028E0,4.4982967E0,3.0577028E0,3.013938E0,2.2452953E0,2.0809107E0,2.8069324E0,1.9885652E0,1.5880594E0,2.2791467E0,4.921529E0,2.3777766E0,1.7251086E0],"categories":[],"categories_nodes":[],"categories_segments":[],"categories_sizes":[],"default_left":[true,true,true,true,true,true,true,true,true,true,true,true,true,true,true,false,true,true,true,true,true,true,true,true,false,true,false,true,true,true,true,true,false,true,true,true,true,false,true,true,true,false,true,true,true,false,true,false,false,false,false,true,true,true,true,true,true,false,false,true,true,true,true,true,true,true,true,true,true,true,false,true,true,true,false,true,true,true,true,false,false,false,true,true,true,true,true,true,true,true,true,true,true,false,false,false,false,false,false,false,false,false,false,false,false,false,false,false,false,false,false,false,false,false,false,false,false,false,false,false,false,false,false,false,false,false,false,false,false,false,false,false,false,false,false,false,false,false,false,false,false,false,false,false,false,false,false,false,false,false,false],"id":13,"left_children":[1,3,5,7,9,11,13,15,17,19,21,23,25,27,29,-1,31,33,35,37,39,41,43,45,-1,47,-1,49,51,53,55,57,-1,59,61,63,65,-1,67,69,71,-1,73,75,77,-1,79,-1,-1,-1,-1,81,83,85,87,89,91,-1,-1,93,95,97,99,101,103,105,107,109,111,113,-1,115,117,119,-1,121,123,125,127,-1,-1,-1,129,131,133,135,137,139,141,143,145,147,149,-1,-1,-1,-1,-1,-1,-1,-1,-1,-1,-1,-1,-1,-1,-1,-1,-1,-1,-1,-1,-1,-1,-1,-1,-1,-1,-1,-1,-1,-1,-1,-1,-1,-1,-1,-1,-1,-1,-1,-1,-1,-1,-1,-1,-1,-1,-1,-1,-1,-1,-1,-1,-1,-1,-1,-1,-1,-1],"loss_changes":[9.685697E3,1.974596E2,7.0184316E3,3.3975006E1,6.9974255E2,7.595781E2,1.798373E3,4.262451E0,1.2416199E1,1.2491406E2,2.6605179E1,3.3818154E3,1.7584395E3,5.214829E2,6.550996E2,0E0,6.8675613E-1,6.500244E-1,3.0303378E0,9.25343E1,1.4703857E1,5.1253004E0,4.8009186E0,6.9070996E2,0E0,1.0344539E0,0E0,2.7851514E2,4.7782935E2,1.2765234E2,1.9557617E1,6.5223503E-1,0E0,1.2724799E-1,1.6500568E-1,5.6743765E-1,1.4743935E0,0E0,4.270227E1,1.1127167E0,6.277832E0,0E0,1.3105652E0,2.338629E1,4.0783997E0,0E0,5.4049507E1,0E0,0E0,0E0,0E0,5.0449677E1,4.5167798E2,6.4075E2,9.353174E1,1.2964233E1,2.0990692E1,0E0,0E0,9.321484E-2,8.0027625E-2,1.46069825E-2,3.599739E-2,3.3925653E-1,4.558401E-1,1.0080782E0,2.864853E-1,4.0230217E0,4.6613464E0,7.09671E-1,0E0,1.1500931E-1,5.958069E0,2.188071E-1,0E0,2.6426907E1,2.4920764E0,2.0108795E1,5.474182E0,0E0,0E0,0E0,3.3546722E1,6.88064E1,1.9100952E2,1.3220703E1,2.159917E2,2.8015747E1,4.6270508E1,1.1999207E0,7.2215576E0,3.3985962E1,2.0321198E0,0E0,0E0,0E0,0E0,0E0,0E0,0E0,0E0,0E0,0E0,0E0,0E0,0E0,0E0,0E0,0E0,0E0,0E0,0E0,0E0,0E0,0E0,0E0,0E0,0E0,0E0,0E0,0E0,0E0,0E0,0E0,0E0,0E0,0E0,0E0,0E0,0E0,0E0,0E0,0E0,0E0,0E0,0E0,0E0,0E0,0E0,0E0,0E0,0E0,0E0,0E0,0E0,0E0,0E0,0E0,0E0,0E0,0E0],"parents":[2147483647,0,0,1,1,2,2,3,3,4,4,5,5,6,6,7,7,8,8,9,9,10,10,11,11,12,12,13,13,14,14,16,16,17,17,18,18,19,19,20,20,21,21,22,22,23,23,25,25,27,27,28,28,29,29,30,30,31,31,33,33,34,34,35,35,36,36,38,38,39,39,40,40,42,42,43,43,44,44,46,46,51,51,52,52,53,53,54,54,55,55,56,56,59,59,60,60,61,61,62,62,63,63,64,64,65,65,66,66,67,67,68,68,69,69,71,71,72,72,73,73,75,75,76,76,77,77,78,78,82,82,83,83,84,84,85,85,86,86,87,87,88,88,89,89,90,90,91,91,92,92],"right_children":[2,4,6,8,10,12,14,16,18,20,22,24,26,28,30,-1,32,34,36,38,40,42,44,46,-1,48,-1,50,52,54,56,58,-1,60,62,64,66,-1,68,70,72,-1,74,76,78,-1,80,-1,-1,-1,-1,82,84,86,88,90,92,-1,-1,94,96,98,100,102,104,106,108,110,112,114,-1,116,118,120,-1,122,124,126,128,-1,-1,-1,130,132,134,136,138,140,142,144,146,148,150,-1,-1,-1,-1,-1,-1,-1,-1,-1,-1,-1,-1,-1,-1,-1,-1,-1,-1,-1,-1,-1,-1,-1,-1,-1,-1,-1,-1,-1,-1,-1,-1,-1,-1,-1,-1,-1,-1,-1,-1,-1,-1,-1,-1,-1,-1,-1,-1,-1,-1,-1,-1,-1,-1,-1,-1,-1,-1],"split_conditions":[6.621175E-1,4.2840246E-2,2.7272727E-2,6.724138E-2,6.572582E-1,8.349742E-1,7.4137926E-2,2.7272727E-2,8.981001E-3,6.028142E-1,7.4137926E-2,8.2218254E-1,8.7090075E-1,7.7943826E-1,7.090609E-2,5.7289023E-2,5E-1,1.7758621E-1,8.23977E-2,5E-1,5.0082594E-1,2.7272727E-2,4.1296717E-4,7.876776E-1,1.2736648E0,8.4844077E-1,6.038314E-1,5E-1,8.2218254E-1,8.349742E-1,9.212121E-1,1.5337423E-3,1.7093003E-2,3.4520882E-1,5.0082594E-1,5.0082594E-1,3.279013E-1,1.8766758E-1,3.7966675E-1,5.280793E-1,1.5172413E-1,-1.750478E-2,6.724138E-2,8.30303E-1,1.15517244E-1,5.7802474E-1,1.166234E-1,3.6182035E-2,1.2055883E-2,4.1530788E-1,1.4067388E-1,1.166234E-1,8.349742E-1,8.2218254E-1,5.0082594E-1,5.0082594E-1,1.4619164E-1,1.5489774E-2,3.404732E-2,1.2555015E-1,3.3636364E-1,2.8275862E-1,2.3029846E-1,6.965602E-1,2.7758622E-1,5.0082594E-1,5.0082594E-1,3.443045E-1,3.8608843E-1,6.2586206E-1,3.0438408E-2,3.3783785E-1,6.341465E-1,5E-1,-1.2188197E-2,6.0565114E-1,1.0172413E-1,6.4742017E-1,5.0082594E-1,3.2248374E-2,2.0376706E-1,4.7767628E-2,5E-1,5E-1,8.571358E-1,1.8427517E-2,1.7758621E-1,2.5344828E-1,1.6034484E-1,9.859468E-1,4.2424244E-1,3.327586E-1,5.0082594E-1,-2.4250243E-3,1.9526597E-3,7.140688E-4,-3.1180994E-3,-0E0,-1.929716E-3,-4.009062E-3,-3.4309472E-3,5.7180393E-3,1.2685628E-2,5.390216E-3,2.9035E-3,3.7764462E-3,-2.7920664E-4,8.419259E-3,3.3514716E-3,6.108606E-3,1.4024117E-2,3.2600153E-2,2.3336977E-2,6.02901E-2,3.7674792E-2,6.1185565E-2,2.8661756E-2,3.2159697E-2,3.8247135E-2,-3.4479338E-3,-5.93847E-4,5.194299E-2,1.1210903E-2,1.6843097E-2,-4.9376218E-3,2.7665569E-2,-5.111356E-3,2.4527374E-3,6.4199483E-3,2.1571745E-1,4.303166E-2,3.9987496E-1,2.3493578E-1,4.0359043E-2,1.5361638E-1,6.2024478E-2,5.076508E-2,1.1874991E-1,7.253005E-2,8.996593E-2,6.1154053E-2,6.027876E-2,4.4905905E-2,4.1618213E-2,5.613865E-2,3.9771304E-2,3.1761188E-2,4.558293E-2,9.8430574E-2,4.7555532E-2,3.450217E-2],"split_indices":[1,9,2,3,1,1,3,2,9,1,3,1,1,1,7,0,0,3,1,0,8,2,8,1,0,1,0,0,1,1,2,7,0,11,8,8,1,0,1,7,3,0,3,2,3,0,7,0,0,0,0,7,1,1,8,8,11,0,0,1,2,3,1,11,3,8,8,1,1,3,0,11,1,0,0,11,3,11,8,0,0,0,0,0,1,11,3,3,3,1,2,3,8,0,0,0,0,0,0,0,0,0,0,0,0,0,0,0,0,0,0,0,0,0,0,0,0,0,0,0,0,0,0,0,0,0,0,0,0,0,0,0,0,0,0,0,0,0,0,0,0,0,0,0,0,0,0,0,0,0,0],"split_type":[0,0,0,0,0,0,0,0,0,0,0,0,0,0,0,0,0,0,0,0,0,0,0,0,0,0,0,0,0,0,0,0,0,0,0,0,0,0,0,0,0,0,0,0,0,0,0,0,0,0,0,0,0,0,0,0,0,0,0,0,0,0,0,0,0,0,0,0,0,0,0,0,0,0,0,0,0,0,0,0,0,0,0,0,0,0,0,0,0,0,0,0,0,0,0,0,0,0,0,0,0,0,0,0,0,0,0,0,0,0,0,0,0,0,0,0,0,0,0,0,0,0,0,0,0,0,0,0,0,0,0,0,0,0,0,0,0,0,0,0,0,0,0,0,0,0,0,0,0,0,0],"sum_hessian":[7.877E3,3.74E3,4.137E3,7.81E2,2.959E3,1.5E1,4.122E3,1.4E1,7.67E2,7.63E2,2.196E3,7E0,8E0,7.9E1,4.043E3,2E0,1.2E1,2.96E2,4.71E2,4.25E2,3.38E2,6.7E1,2.129E3,5E0,2E0,4E0,4E0,7E0,7.2E1,3.216E3,8.27E2,7E0,5E0,2.2E1,2.74E2,1.59E2,3.12E2,1E0,4.24E2,1.9E1,3.19E2,1.3E1,5.4E1,5.3E1,2.076E3,2E0,3E0,1E0,3E0,4E0,3E0,2.5E1,4.7E1,2.186E3,1.03E3,7.15E2,1.12E2,2E0,5E0,1.3E1,9E0,1.9E1,2.55E2,1.7E1,1.42E2,2.64E2,4.8E1,1.07E2,3.17E2,1.7E1,2E0,6E0,3.13E2,4.8E1,6E0,3E1,2.3E1,3E1,2.046E3,2E0,1E0,2.3E1,2E0,1.2E1,3.5E1,1.667E3,5.19E2,1.1E2,9.2E2,4.4E1,6.71E2,3.6E1,7.6E1,2E0,1.1E1,3E0,6E0,2E0,1.7E1,1.38E2,1.17E2,1.3E1,4E0,4.4E1,9.8E1,2.7E1,2.37E2,5E0,4.3E1,6.2E1,4.5E1,2.6E1,2.91E2,1.4E1,3E0,5E0,1E0,1.31E2,1.82E2,3.1E1,1.7E1,9E0,2.1E1,2E0,2.1E1,1.7E1,1.3E1,1.51E2,1.895E3,1E0,1E0,2E0,1E1,8E0,2.7E1,5E1,1.617E3,4.5E1,4.74E2,1.8E1,9.2E1,9E1,8.3E2,3.8E1,6E0,5.5E1,6.16E2,3E1,6E0,8E0,6.8E1],"tree_param":{"num_deleted":"0","num_feature":"12","num_nodes":"151","size_leaf_vector":"0"}},{"base_weights":[1.612367E0,4.7521093E-1,2.6470006E0,1.439808E-1,7.3421955E-1,1.1697381E1,2.5323021E0,-2.1798631E-2,8.636268E-1,9.673283E-3,8.8526666E-1,2.2187683E1,9.589643E0,3.4845502E0,2.3520162E0,-2.2127713E-1,1.21655874E-1,6.917761E0,8.1636894E-1,-1.4038226E-1,1.1006799E-1,1.4848473E0,6.199861E-1,1.5125971E1,2.7538704E1,5.1893334E0,1.4961811E1,2.7307007E0,4.2140794E0,2.5453253E0,1.6268475E0,2.9028818E-2,-3.0430526E-1,-1.6889201E0,1.2707812E-1,2.8522036E0,9.242642E0,1.3617373E-1,1.1777785E0,7.2016066E-1,-1.5416482E-1,3.4930012E-1,7.9693966E-2,1.049698E0,1.7973708E0,4.8736277E-1,7.2971094E-1,7.0350547E0,1.362381E0,2.3507963E1,1.1432711E1,3.4963655E0,2.4730363E0,6.741725E0,3.3039696E0,2.687524E0,2.181763E0,1.5773617E0,1.9570345E0,1.6766084E0,8.5997744E-4,-1.5031682E-1,-3.0829582E-1,2.8722847E-1,5.666538E-2,3.4355664E-1,7.739017E-2,8.624588E-1,1.2988669E0,-2.0748114E-2,-1.7689423E-1,6.128784E-1,2.0681551E-1,1.7451105E-1,3.543986E-2,3.8639183E0,1.0054677E0,2.738658E0,1.711346E0,5.086992E-1,-6.343966E-1,5.7305956E-1,9.9258447E-1,2.9896336E0,1.8004051E1,6.969694E-2,1.7646662E0,-8.861506E-1,2.920868E1,7.34458E0,1.2297486E1,3.0646555E0,5.23069E0,1.743325E0,2.5055819E0,5.463979E0,9.921866E0,2.4047923E0,3.6520145E0,2.4719489E0,3.2736905E0,2.7511275E0,2.1333482E0,1.5326794E0,1.7691149E0,1.6760962E0,2.8119166E0,-1.6857335E-1,1.1838533E-1,1.3070536E-1,-1.8311052E-1,2.7405813E-1,2.5290256E0,-9.8424576E-2,2.3661749E-1,2.4196143E-1,6.012617E-1,-3.020707E-3,2.340201E-1,2.0581286E0,7.820665E-1,1.243496E0,1.6766218E0,-5.72086E-2,1.2339535E-1,-1.8771172E-1,-1.4570588E-1,9.845529E-1,3.39584E-1,2.8829134E-1,9.176993E-2,1.5701443E-1,3.159326E-1,-6.4968383E-3,1.4669687E-1,3.1498456E-1,1.1396706E0,2.5150254E0,3.2748673E0,1.6095905E0,2.104615E0,4.9978462E-1,1.8797994E0,5.980614E-1,-6.642286E-1,1.4952222E0,9.0085423E-1,2.0714025E0,1.0035544E1,2.0186092E1,8.036175E0,2.075032E0,1.2734889E0,1.2818516E1,5.1738467E0,3.3200521E0,2.307447E0,3.1054862E0,6.889851E0,-2.2477622E-1,2.174614E0,1.1870023E0,2.5213168E0,5.788764E0,3.9896243E0,5.428909E0,1.0989452E1,3.964462E0,2.4371133E0,-2.2253218E-1,2.4950361E0,3.3817942E0,2.6774848E0,2.6372876E0,5.100121E0,2.1850724E0,1.9974778E0,1.5561509E0,1.061352E0,1.7132097E0,1.2086049E0,7.2749076E0,1.9931701E0],"categories":[],"categories_nodes":[],"categories_segments":[],"categories_sizes":[],"default_left":[true,true,true,true,true,true,true,true,true,true,true,true,true,true,true,true,true,true,true,true,true,true,true,false,false,true,true,true,true,true,true,true,true,false,true,false,false,true,true,false,true,true,true,true,true,true,true,true,true,true,true,true,true,true,true,true,true,true,true,false,true,true,false,true,true,true,true,true,true,true,true,true,true,true,true,false,true,true,true,true,false,true,true,true,true,false,true,false,false,false,true,true,true,true,true,true,true,false,true,true,true,true,true,true,false,true,true,false,false,false,false,false,false,false,false,false,false,false,false,false,false,false,false,false,false,false,false,false,false,false,false,false,false,false,false,false,false,false,false,false,false,false,false,false,false,false,false,false,false,false,false,false,false,false,false,false,false,false,false,false,false,false,false,false,false,false,false,false,false,false,false,false,false,false,false,false,false,false,false,false,false,false,false],"id":14,"left_children":[1,3,5,7,9,11,13,15,17,19,21,23,25,27,29,31,33,35,37,39,41,43,45,-1,-1,47,49,51,53,55,57,59,61,-1,63,-1,-1,65,67,-1,69,71,73,75,77,79,81,83,85,87,89,91,93,95,97,99,101,103,105,-1,107,109,-1,111,113,115,117,119,121,123,125,127,129,131,133,-1,135,137,139,141,-1,143,145,147,149,-1,151,-1,-1,-1,153,155,157,159,161,163,165,-1,167,169,171,173,175,177,-1,179,181,-1,-1,-1,-1,-1,-1,-1,-1,-1,-1,-1,-1,-1,-1,-1,-1,-1,-1,-1,-1,-1,-1,-1,-1,-1,-1,-1,-1,-1,-1,-1,-1,-1,-1,-1,-1,-1,-1,-1,-1,-1,-1,-1,-1,-1,-1,-1,-1,-1,-1,-1,-1,-1,-1,-1,-1,-1,-1,-1,-1,-1,-1,-1,-1,-1,-1,-1,-1,-1,-1,-1,-1,-1,-1,-1,-1],"loss_changes":[9.233412E3,3.2075507E2,4.255672E3,1.9583347E2,2.2962744E2,1.0636182E3,6.9390625E2,3.8193806E1,8.593622E1,5.4631953E0,2.758391E2,1.7538379E2,9.9818994E2,3.5096875E2,4.7704688E2,1.1610401E1,7.6708527E0,1.3092369E1,7.498761E1,1.752676E0,1.5638387E0,7.172461E1,1.7389618E1,0E0,0E0,1.6856323E2,4.9297998E2,5.983374E1,7.45438E2,1.3726758E2,1.0673706E1,6.442115E0,2.3568344E-1,0E0,8.721536E0,0E0,0E0,1.2814093E0,7.2064514E0,0E0,4.3061304E-1,8.599036E-1,8.061788E-1,2.6434189E1,2.342163E1,1.3181915E1,2.6897827E1,7.0653613E2,4.2664566E0,7.507285E2,2.0274048E1,5.3934998E1,4.166626E0,3.325105E2,7.251123E1,2.4177344E2,1.8904297E1,4.423706E0,2.0539948E1,0E0,2.740621E0,1.1317521E-1,0E0,6.706682E0,1.5033959E1,5.5036545E-1,1.053095E0,4.837658E0,2.2611694E0,1.1352891E-1,2.739644E-2,7.1610546E-1,1.3885695E-1,1.2847507E-1,6.197527E-1,0E0,2.0276718E1,2.0866394E-1,1.0195557E1,6.2082367E0,0E0,1.2917786E1,1.0828247E1,7.268999E1,3.975647E1,0E0,3.653145E-2,0E0,0E0,0E0,1.9692871E1,9.8063965E0,4.6789032E1,9.810894E0,3.6865234E0,2.2007202E1,9.658887E1,0E0,6.248291E1,8.8325195E1,3.03667E1,1.1003174E1,3.4138184E0,5.0687256E0,0E0,4.8814392E-1,7.664021E1,0E0,0E0,0E0,0E0,0E0,0E0,0E0,0E0,0E0,0E0,0E0,0E0,0E0,0E0,0E0,0E0,0E0,0E0,0E0,0E0,0E0,0E0,0E0,0E0,0E0,0E0,0E0,0E0,0E0,0E0,0E0,0E0,0E0,0E0,0E0,0E0,0E0,0E0,0E0,0E0,0E0,0E0,0E0,0E0,0E0,0E0,0E0,0E0,0E0,0E0,0E0,0E0,0E0,0E0,0E0,0E0,0E0,0E0,0E0,0E0,0E0,0E0,0E0,0E0,0E0,0E0,0E0,0E0,0E0,0E0,0E0,0E0,0E0,0E0,0E0,0E0],"parents":[2147483647,0,0,1,1,2,2,3,3,4,4,5,5,6,6,7,7,8,8,9,9,10,10,11,11,12,12,13,13,14,14,15,15,16,16,17,17,18,18,19,19,20,20,21,21,22,22,25,25,26,26,27,27,28,28,29,29,30,30,31,31,32,32,34,34,37,37,38,38,40,40,41,41,42,42,43,43,44,44,45,45,46,46,47,47,48,48,49,49,50,50,51,51,52,52,53,53,54,54,55,55,56,56,57,57,58,58,60,60,61,61,63,63,64,64,65,65,66,66,67,67,68,68,69,69,70,70,71,71,72,72,73,73,74,74,76,76,77,77,78,78,79,79,81,81,82,82,83,83,84,84,86,86,90,90,91,91,92,92,93,93,94,94,95,95,96,96,98,98,99,99,100,100,101,101,102,102,103,103,105,105,106,106],"right_children":[2,4,6,8,10,12,14,16,18,20,22,24,26,28,30,32,34,36,38,40,42,44,46,-1,-1,48,50,52,54,56,58,60,62,-1,64,-1,-1,66,68,-1,70,72,74,76,78,80,82,84,86,88,90,92,94,96,98,100,102,104,106,-1,108,110,-1,112,114,116,118,120,122,124,126,128,130,132,134,-1,136,138,140,142,-1,144,146,148,150,-1,152,-1,-1,-1,154,156,158,160,162,164,166,-1,168,170,172,174,176,178,-1,180,182,-1,-1,-1,-1,-1,-1,-1,-1,-1,-1,-1,-1,-1,-1,-1,-1,-1,-1,-1,-1,-1,-1,-1,-1,-1,-1,-1,-1,-1,-1,-1,-1,-1,-1,-1,-1,-1,-1,-1,-1,-1,-1,-1,-1,-1,-1,-1,-1,-1,-1,-1,-1,-1,-1,-1,-1,-1,-1,-1,-1,-1,-1,-1,-1,-1,-1,-1,-1,-1,-1,-1,-1,-1,-1,-1,-1],"split_conditions":[6.621175E-1,1.6666667E-1,1.7734967E-2,7.090609E-2,4.2840246E-2,7.876776E-1,1.8428159E-1,5.5555556E-2,2.7272727E-2,8.981001E-3,6.572582E-1,7.563675E-1,8.5870504E-1,8.2552147E-1,7.090609E-2,3.464066E-1,2.7272727E-2,2.4097994E-1,3.443045E-1,5E-1,1.6492617E-1,6.028142E-1,2.777778E-1,3.025194E-1,5.5077404E-1,8.349742E-1,2.7272727E-2,7.664299E-1,8.3047175E-1,8.4422266E-1,9.212121E-1,5E-1,5.2628934E-1,-3.3778403E-2,3.0662584E-1,5.704407E-2,1.8485284E-1,2.5630176E-1,3.989272E-1,1.4403213E-2,1.8518186E-1,9.19791E-2,8.23977E-2,3.9791144E-2,2.0678791E-1,9.756932E-1,7.021966E-1,8.2218254E-1,2.7272727E-2,2.2222222E-1,1.6666667E-1,9.212121E-1,5.5555556E-2,9.212121E-1,8.873043E-1,8.2218254E-1,2.4882968E-1,9.5665354E-1,9.345995E-1,3.353217E-2,2.3846036E-2,2.607362E-2,-6.165916E-3,3.0311486E-1,7.5757575E-1,2.3503008E-1,3.704274E-2,1.7021276E-2,5.4282683E-1,1.3530788E-1,9.9787235E-1,6.595745E-1,4.436055E-2,9.212121E-1,3.1517088E-1,7.727836E-2,3.443045E-1,9.090909E-1,6.450739E-1,9.721822E-1,-1.2687932E-2,6.9193375E-1,7.6026285E-1,1.166234E-1,5E-1,1.3939388E-3,2.777778E-1,-1.772301E-2,5.8417356E-1,1.468916E-1,9.28372E-1,7.090609E-2,1.2963629E-1,1.166234E-1,7.674358E-1,1.5799424E-1,1.2666547E-1,4.8095845E-2,8.9729273E-1,5.5555556E-2,8.349742E-1,2.4594887E-1,3.888889E-1,9.15082E-1,3.5382297E-2,8.9569235E-1,9.532107E-1,-3.3714669E-3,2.3677065E-3,2.614107E-3,-3.6622104E-3,5.4811626E-3,5.058051E-2,-1.9684916E-3,4.73235E-3,4.8392285E-3,1.2025233E-2,-6.041414E-5,4.6804016E-3,4.1162573E-2,1.564133E-2,2.4869919E-2,3.3532437E-2,-1.144172E-3,2.467907E-3,-3.7542342E-3,-2.9141174E-3,1.9691058E-2,6.7916797E-3,5.7658264E-3,1.8353986E-3,3.1402884E-3,6.318652E-3,-1.2993676E-4,2.9339374E-3,6.2996913E-3,2.2793412E-2,5.0300505E-2,6.5497346E-2,3.219181E-2,4.2092297E-2,9.995692E-3,3.7595987E-2,1.1961227E-2,-1.3284572E-2,2.9904444E-2,1.8017083E-2,4.1428052E-2,2.0071088E-1,4.0372184E-1,1.6072349E-1,4.150064E-2,2.5469776E-2,2.563703E-1,1.03476934E-1,6.640104E-2,4.6148937E-2,6.210972E-2,1.3779701E-1,-4.4955243E-3,4.3492276E-2,2.3740046E-2,5.0426334E-2,1.1577528E-1,7.9792485E-2,1.08578175E-1,2.1978904E-1,7.928924E-2,4.8742265E-2,-4.4506434E-3,4.990072E-2,6.763589E-2,5.3549692E-2,5.2745752E-2,1.0200242E-1,4.3701448E-2,3.9949555E-2,3.1123018E-2,2.122704E-2,3.4264196E-2,2.4172097E-2,1.4549814E-1,3.98634E-2],"split_indices":[1,4,5,7,9,1,5,4,2,9,1,1,1,1,7,1,2,1,1,0,5,1,4,0,0,1,2,1,1,1,2,0,1,0,5,0,0,5,1,0,5,1,1,5,5,5,5,1,2,4,4,2,4,2,1,1,5,1,1,0,9,7,0,5,2,1,9,10,7,5,10,10,7,2,1,0,1,2,1,5,0,5,5,7,0,0,4,0,0,0,1,7,5,7,1,5,5,0,1,4,1,5,4,1,0,1,1,0,0,0,0,0,0,0,0,0,0,0,0,0,0,0,0,0,0,0,0,0,0,0,0,0,0,0,0,0,0,0,0,0,0,0,0,0,0,0,0,0,0,0,0,0,0,0,0,0,0,0,0,0,0,0,0,0,0,0,0,0,0,0,0,0,0,0,0,0,0,0,0,0,0,0,0],"split_type":[0,0,0,0,0,0,0,0,0,0,0,0,0,0,0,0,0,0,0,0,0,0,0,0,0,0,0,0,0,0,0,0,0,0,0,0,0,0,0,0,0,0,0,0,0,0,0,0,0,0,0,0,0,0,0,0,0,0,0,0,0,0,0,0,0,0,0,0,0,0,0,0,0,0,0,0,0,0,0,0,0,0,0,0,0,0,0,0,0,0,0,0,0,0,0,0,0,0,0,0,0,0,0,0,0,0,0,0,0,0,0,0,0,0,0,0,0,0,0,0,0,0,0,0,0,0,0,0,0,0,0,0,0,0,0,0,0,0,0,0,0,0,0,0,0,0,0,0,0,0,0,0,0,0,0,0,0,0,0,0,0,0,0,0,0,0,0,0,0,0,0,0,0,0,0,0,0,0,0,0,0,0,0],"sum_hessian":[7.848E3,3.739E3,4.109E3,1.641E3,2.098E3,5.1E1,4.058E3,1.334E3,3.07E2,3.62E2,1.736E3,8E0,4.3E1,6.45E2,3.413E3,5.58E2,7.76E2,2E0,3.05E2,1.45E2,2.17E2,5.32E2,1.204E3,4E0,4E0,2.4E1,1.9E1,3.18E2,3.27E2,2.694E3,7.19E2,1.39E2,4.19E2,2E0,7.74E2,1E0,1E0,1.06E2,1.99E2,2E0,1.43E2,2.4E1,1.93E2,2.23E2,3.09E2,5.46E2,6.58E2,1.6E1,8E0,5E0,1.4E1,7.9E1,2.39E2,8.6E1,2.41E2,1.935E3,7.59E2,6.27E2,9.2E1,2E0,1.37E2,1.1E1,4.08E2,2.36E2,5.38E2,2.3E1,8.3E1,5.6E1,1.43E2,2.1E1,1.22E2,8E0,1.6E1,6.1E1,1.32E2,3E0,2.2E2,2.5E1,2.84E2,5.36E2,1E1,4.13E2,2.45E2,1.2E1,4E0,2E0,6E0,1E0,4E0,3E0,1.1E1,6.4E1,1.5E1,1.1E1,2.28E2,6.2E1,2.4E1,6.8E1,1.73E2,1.416E3,5.19E2,5.8E1,7.01E2,5.11E2,1.16E2,7E1,2.2E1,5.6E1,8.1E1,1E0,1E1,2.35E2,1E0,2.89E2,2.49E2,1.7E1,6E0,5.5E1,2.8E1,3E0,5.3E1,1.26E2,1.7E1,1.7E1,4E0,8.9E1,3.3E1,3E0,5E0,9E0,7E0,5.5E1,6E0,9.6E1,3.6E1,3.6E1,1.84E2,1.9E1,6E0,2.27E2,5.7E1,5.33E2,3E0,4.05E2,8E0,3.7E1,2.08E2,1.1E1,1E0,3E0,1E0,3E0,3E0,1E1,1E0,4.7E1,1.7E1,7E0,8E0,2E0,9E0,3E0,2.25E2,5E1,1.2E1,5E0,1.9E1,1.37E2,3.6E1,1.2E1,1.404E3,4.38E2,8.1E1,5.6E1,2E0,5.04E2,1.97E2,4.86E2,2.5E1,6.4E1,6E0,3E0,1.9E1],"tree_param":{"num_deleted":"0","num_feature":"12","num_nodes":"183","size_leaf_vector":"0"}},{"base_weights":[1.5616779E0,4.7309083E-1,2.5623736E0,1.5346085E-1,7.193997E-1,8.121582E0,2.4352953E0,-1.298133E-3,8.2106316E-1,6.0041644E-2,8.6896294E-1,1.8231585E1,6.9424257E0,2.6316526E0,1.6534773E0,-2.1188073E-1,1.4042617E-1,6.01987E0,7.4608964E-1,9.303641E-1,4.800012E-2,1.5328561E0,5.999294E-1,1.2735268E1,2.6846262E1,3.081636E0,8.807471E0,3.2658546E0,2.5170562E0,2.1574256E0,1.5792441E0,4.635335E-2,-2.947758E-1,-1.8196632E0,1.536124E-1,2.9953008E0,8.178039E0,2.1292113E-1,1.1997911E0,-1.1410433E-2,1.9785675E-1,3.462138E0,1.4910408E0,5.715924E-1,1.1994957E0,1.4846731E1,6.9880033E0,2.2298026E0,8.987239E0,1.38890295E1,6.9739046E0,2.7005227E0,3.8454142E0,2.6591954E0,2.150663E0,2.377161E0,1.977849E0,1.54125E0,1.8214959E0,1.9732963E0,-4.1015917E-3,-2.312696E-1,-3.0265123E-1,-1.3106836E-1,1.9493453E-1,1.07845716E-1,6.454785E-1,1.7334329E0,1.1500356E0,1.7708237E-1,-7.2698E-2,4.94022E-2,3.6179823E-1,4.9090295E0,2.9167387E0,1.126958E0,1.692497E0,4.112385E-1,6.9933456E-1,-6.353275E-1,1.3468735E0,1.4457058E0,2.3167984E0,1.1640121E1,2.0866969E0,2.137063E1,1.127857E1,1.7695532E0,8.841264E0,3.5236003E0,2.4261615E0,5.4842763E0,3.133487E0,2.4343061E0,3.2540343E0,2.4658914E0,2.0817764E0,2.1436224E0,2.732871E0,2.0431008E0,1.5028769E0,1.4946908E0,1.7281322E0,1.6049877E0,2.7390924E0,1.375594E-1,-7.452997E-2,-3.0922022E-1,2.750684E-1,-3.6725685E-1,-3.0002552E-1,2.8628743E-1,-2.941422E-1,-3.553323E-2,2.645152E-1,5.434134E-2,2.531795E-1,9.549821E-1,2.95549E-1,1.9454896E0,1.1400194E0,1.0374138E0,1.3825834E0,2.961371E-1,6.911668E-2,-1.3189971E-1,4.8126217E-2,1.06486246E-1,-6.68482E-2,2.8625584E-1,5.544165E-1,1.3480214E0,3.0674076E0,-1.8203795E-1,1.1501802E0,2.341537E0,1.6361065E0,4.625457E-1,7.165577E-3,2.3778222E0,6.7734414E-1,2.1052988E0,6.5473586E-1,2.3604963E0,1.0603956E0,2.2425776E0,1.0945244E0,1.6253529E1,7.50899E0,3.2345815E0,4.8442664E0,-1.7972569E-1,2.4405446E0,5.015643E0,7.4314437E0,2.4205186E0,3.4451163E0,-2.1606785E-1,2.4513047E0,3.3850682E0,2.6143956E0,2.0353765E0,2.6410952E0,2.1335437E0,1.9510199E0,1.7702559E0,2.4207397E0,1.9711788E0,3.00965E0,6.6750807E-1,1.5844903E0,1.535864E0,1.0686094E0,1.4925781E0,1.7209344E0,1.4611096E0,4.8795156E0],"categories":[],"categories_nodes":[],"categories_segments":[],"categories_sizes":[],"default_left":[true,true,true,true,true,true,true,true,true,true,true,true,true,true,true,true,true,true,true,false,true,true,true,true,false,true,true,true,true,true,true,true,true,false,true,false,false,true,true,true,true,true,true,true,true,false,false,true,true,true,true,true,true,true,true,true,true,true,true,false,true,true,true,true,true,true,true,true,true,true,true,true,true,false,true,true,true,true,true,false,true,false,true,false,false,false,false,true,true,true,true,true,true,true,true,true,true,true,true,false,true,true,false,true,true,false,false,false,false,false,false,false,false,false,false,false,false,false,false,false,false,false,false,false,false,false,false,false,false,false,false,false,false,false,false,false,false,false,false,false,false,false,false,false,false,false,false,false,false,false,false,false,false,false,false,false,false,false,false,false,false,false,false,false,false,false,false,false,false,false,false,false,false,false,false,false,false],"id":15,"left_children":[1,3,5,7,9,11,13,15,17,19,21,23,25,27,29,31,33,35,37,-1,39,41,43,45,-1,47,49,51,53,55,57,59,61,-1,63,-1,-1,65,67,69,71,73,75,77,79,-1,-1,81,83,85,87,89,91,93,95,97,99,101,103,-1,105,107,109,111,113,115,117,119,121,123,125,127,129,-1,131,133,135,137,139,-1,141,-1,143,-1,-1,-1,-1,145,147,149,151,153,155,157,159,161,163,165,167,-1,169,171,-1,173,175,-1,-1,-1,-1,-1,-1,-1,-1,-1,-1,-1,-1,-1,-1,-1,-1,-1,-1,-1,-1,-1,-1,-1,-1,-1,-1,-1,-1,-1,-1,-1,-1,-1,-1,-1,-1,-1,-1,-1,-1,-1,-1,-1,-1,-1,-1,-1,-1,-1,-1,-1,-1,-1,-1,-1,-1,-1,-1,-1,-1,-1,-1,-1,-1,-1,-1,-1,-1,-1,-1,-1,-1],"loss_changes":[8.557807E3,2.962293E2,2.8850137E3,1.6928049E2,2.0956067E2,1.0462437E3,6.129082E2,3.971431E1,1.1858574E2,4.0932903E0,3.0907422E2,3.27354E2,5.8362573E2,2.2962305E2,2.8900635E1,1.1467627E1,2.0625786E1,1.9958862E1,7.351271E1,0E0,3.4607706E0,3.8490845E1,2.0700287E1,4.194873E1,0E0,1.306608E2,4.8296484E2,1.5644336E2,1.3917578E2,2.40802E0,5.4802246E0,1.2702302E1,1.7176819E-1,0E0,9.306608E0,0E0,0E0,6.3443575E0,3.6574097E0,3.2181861E0,2.6734548E0,3.268097E0,3.521472E1,2.4025177E1,1.5258362E1,0E0,0E0,4.8926544E-1,5.2727997E1,1.9909619E2,3.9632666E2,5.314319E1,2.7455542E2,2.5831348E2,1.4712402E1,1.6597595E0,7.3339844E-1,4.3945312E0,1.7014313E1,0E0,1.2729199E0,1.857604E0,1.4690399E-2,6.8568697E0,1.1076658E1,8.7230587E-1,2.8483772E0,8.942299E-1,3.4506073E0,8.663111E-1,1.5078274E0,3.900426E-1,6.965809E-1,0E0,5.278168E-1,5.413376E0,1.0170288E1,1.0841866E1,2.3608063E1,0E0,2.6447685E1,0E0,2.8775024E-1,0E0,0E0,0E0,0E0,2.7527084E0,2.5850977E2,1.8070374E1,7.2000732E0,5.339746E1,3.4536255E1,6.40625E1,4.1748047E1,8.273193E0,2.786377E0,1.442749E0,1.394043E0,0E0,1.8333244E-1,8.017456E0,0E0,9.248352E-2,4.4946457E1,0E0,0E0,0E0,0E0,0E0,0E0,0E0,0E0,0E0,0E0,0E0,0E0,0E0,0E0,0E0,0E0,0E0,0E0,0E0,0E0,0E0,0E0,0E0,0E0,0E0,0E0,0E0,0E0,0E0,0E0,0E0,0E0,0E0,0E0,0E0,0E0,0E0,0E0,0E0,0E0,0E0,0E0,0E0,0E0,0E0,0E0,0E0,0E0,0E0,0E0,0E0,0E0,0E0,0E0,0E0,0E0,0E0,0E0,0E0,0E0,0E0,0E0,0E0,0E0,0E0,0E0,0E0,0E0,0E0,0E0,0E0,0E0],"parents":[2147483647,0,0,1,1,2,2,3,3,4,4,5,5,6,6,7,7,8,8,9,9,10,10,11,11,12,12,13,13,14,14,15,15,16,16,17,17,18,18,20,20,21,21,22,22,23,23,25,25,26,26,27,27,28,28,29,29,30,30,31,31,32,32,34,34,37,37,38,38,39,39,40,40,41,41,42,42,43,43,44,44,47,47,48,48,49,49,50,50,51,51,52,52,53,53,54,54,55,55,56,56,57,57,58,58,60,60,61,61,62,62,63,63,64,64,65,65,66,66,67,67,68,68,69,69,70,70,71,71,72,72,74,74,75,75,76,76,77,77,78,78,80,80,82,82,87,87,88,88,89,89,90,90,91,91,92,92,93,93,94,94,95,95,96,96,97,97,98,98,100,100,101,101,103,103,104,104],"right_children":[2,4,6,8,10,12,14,16,18,20,22,24,26,28,30,32,34,36,38,-1,40,42,44,46,-1,48,50,52,54,56,58,60,62,-1,64,-1,-1,66,68,70,72,74,76,78,80,-1,-1,82,84,86,88,90,92,94,96,98,100,102,104,-1,106,108,110,112,114,116,118,120,122,124,126,128,130,-1,132,134,136,138,140,-1,142,-1,144,-1,-1,-1,-1,146,148,150,152,154,156,158,160,162,164,166,168,-1,170,172,-1,174,176,-1,-1,-1,-1,-1,-1,-1,-1,-1,-1,-1,-1,-1,-1,-1,-1,-1,-1,-1,-1,-1,-1,-1,-1,-1,-1,-1,-1,-1,-1,-1,-1,-1,-1,-1,-1,-1,-1,-1,-1,-1,-1,-1,-1,-1,-1,-1,-1,-1,-1,-1,-1,-1,-1,-1,-1,-1,-1,-1,-1,-1,-1,-1,-1,-1,-1,-1,-1,-1,-1,-1,-1],"split_conditions":[6.621175E-1,1.6666667E-1,7.4137926E-2,7.090609E-2,3.8253418E-1,7.876776E-1,7.090609E-2,5.5555556E-2,5E-1,7.241379E-2,6.572582E-1,7.635859E-1,8.2218254E-1,1.8428159E-1,1.9283399E-1,3.7859324E-1,2.7272727E-2,3.7589142E-1,3.7966675E-1,1.8607281E-2,6.736668E-2,1.15517244E-1,7.827586E-1,5E-1,5.3692526E-1,1.166234E-1,8.349742E-1,8.2218254E-1,8.4422266E-1,2.5344828E-1,9.212121E-1,5E-1,5.0082594E-1,-3.6393262E-2,2.086207E-1,5.9906013E-2,1.6356076E-1,3.443045E-1,1.6034484E-1,1.0025515E-1,2.8854463E-1,2.2866402E-2,6.028142E-1,2.777778E-1,6.824811E-1,2.969346E-1,1.3976006E-1,2.7272727E-2,5E-1,5E-1,8.571358E-1,7.6706135E-1,8.349742E-1,8.2218254E-1,3.4308606E-1,6.848485E-1,1.6699676E-1,9.5665354E-1,9.345995E-1,3.9465927E-2,1.0479122E-1,1.1190133E-1,5E-1,3.3636364E-1,5.0793403E-1,2.8854463E-1,3.7000573E-1,2.2866403E-1,4.4565028E-1,3.2586205E-1,3.0917868E-1,1.4037362E-1,3.443045E-1,9.8180585E-2,4.0539116E-1,6.736668E-2,2.0678791E-1,8.524487E-1,4.1296717E-4,-1.270655E-2,8.9422035E-1,2.8914114E-2,6.724138E-2,2.3280242E-1,4.1733935E-2,4.274126E-1,2.255714E-1,2.777778E-1,2.7272727E-2,9.212121E-1,5.5555556E-2,9.212121E-1,8.76709E-1,5.5555556E-2,8.349742E-1,8.76709E-1,3.888889E-1,8.21559E-1,9.3103446E-2,4.0862016E-2,3.4655172E-1,9.02244E-1,3.4562644E-2,7.7778685E-1,3.3103448E-1,2.751188E-3,-1.4905994E-3,-6.1844043E-3,5.501368E-3,-7.3451367E-3,-6.0005104E-3,5.7257484E-3,-5.8828434E-3,-7.106646E-4,5.290304E-3,1.0868268E-3,5.0635897E-3,1.9099642E-2,5.91098E-3,3.8909793E-2,2.2800388E-2,2.0748276E-2,2.7651668E-2,5.9227417E-3,1.3823336E-3,-2.6379942E-3,9.625243E-4,2.129725E-3,-1.3369641E-3,5.7251165E-3,1.1088329E-2,2.6960427E-2,6.134815E-2,-3.6407588E-3,2.3003604E-2,4.683074E-2,3.272213E-2,9.250914E-3,1.4331154E-4,4.755644E-2,1.3546882E-2,4.2105973E-2,1.3094717E-2,4.7209926E-2,2.1207912E-2,4.485155E-2,2.1890488E-2,3.2507056E-1,1.5017979E-1,6.4691626E-2,9.688532E-2,-3.5945137E-3,4.881089E-2,1.0031286E-1,1.4862888E-1,4.841037E-2,6.890232E-2,-4.321357E-3,4.902609E-2,6.770136E-2,5.228791E-2,4.070753E-2,5.28219E-2,4.2670872E-2,3.9020397E-2,3.5405118E-2,4.8414793E-2,3.9423574E-2,6.0193E-2,1.3350161E-2,3.1689804E-2,3.071728E-2,2.1372186E-2,2.9851561E-2,3.4418687E-2,2.9222192E-2,9.759031E-2],"split_indices":[1,4,3,7,1,1,7,4,0,3,1,1,1,5,5,1,2,1,1,0,7,3,3,0,0,7,1,1,1,3,2,0,8,0,3,0,0,1,3,1,1,5,1,4,5,0,0,2,0,0,1,1,1,1,5,2,5,1,1,0,1,5,0,2,1,1,1,5,1,3,1,1,1,0,1,7,5,5,8,0,5,0,3,0,0,0,0,4,2,2,4,2,1,4,1,1,4,1,3,0,3,1,0,1,3,0,0,0,0,0,0,0,0,0,0,0,0,0,0,0,0,0,0,0,0,0,0,0,0,0,0,0,0,0,0,0,0,0,0,0,0,0,0,0,0,0,0,0,0,0,0,0,0,0,0,0,0,0,0,0,0,0,0,0,0,0,0,0,0,0,0,0,0,0,0,0,0],"split_type":[0,0,0,0,0,0,0,0,0,0,0,0,0,0,0,0,0,0,0,0,0,0,0,0,0,0,0,0,0,0,0,0,0,0,0,0,0,0,0,0,0,0,0,0,0,0,0,0,0,0,0,0,0,0,0,0,0,0,0,0,0,0,0,0,0,0,0,0,0,0,0,0,0,0,0,0,0,0,0,0,0,0,0,0,0,0,0,0,0,0,0,0,0,0,0,0,0,0,0,0,0,0,0,0,0,0,0,0,0,0,0,0,0,0,0,0,0,0,0,0,0,0,0,0,0,0,0,0,0,0,0,0,0,0,0,0,0,0,0,0,0,0,0,0,0,0,0,0,0,0,0,0,0,0,0,0,0,0,0,0,0,0,0,0,0,0,0,0,0,0,0,0,0,0,0,0,0],"sum_hessian":[7.856E3,3.763E3,4.093E3,1.638E3,2.125E3,9.1E1,4.002E3,1.33E3,3.08E2,3.93E2,1.732E3,9E0,8.2E1,3.198E3,8.04E2,5.35E2,7.95E2,4E0,3.04E2,5E0,3.88E2,4.99E2,1.233E3,6E0,3E0,2.7E1,5.5E1,4.88E2,2.71E3,1.02E2,7.02E2,1.3E2,4.05E2,5E0,7.9E2,2E0,2E0,1.4E2,1.64E2,2.78E2,1.1E2,1E1,4.89E2,1.178E3,5.5E1,4E0,2E0,2.4E1,3E0,1.4E1,4.1E1,2.48E2,2.4E2,1.951E3,7.59E2,4.4E1,5.8E1,6.09E2,9.3E1,3E0,1.27E2,4.6E1,3.59E2,1E2,6.9E2,1.13E2,2.7E1,1.3E1,1.51E2,6.8E1,2.1E2,5.8E1,5.2E1,2E0,8E0,1.75E2,3.14E2,5.23E2,6.55E2,4E0,5.1E1,3E0,2.1E1,2E0,1E0,3E0,1.1E1,1.1E1,3E1,6.1E1,1.87E2,7.2E1,1.68E2,1.417E3,5.34E2,1.34E2,6.25E2,2.8E1,1.6E1,5E1,8E0,4.9E2,1.19E2,7.6E1,1.7E1,4.2E1,8.5E1,4E1,6E0,1.2E1,3.47E2,2.8E1,7.2E1,1.6E2,5.3E2,8.3E1,3E1,1.4E1,1.3E1,9E0,4E0,1.03E2,4.8E1,3.2E1,3.6E1,1.41E2,6.9E1,3.9E1,1.9E1,3.8E1,1.4E1,1E0,7E0,3E0,1.72E2,2.4E1,2.9E2,4.64E2,5.9E1,8E0,6.47E2,2.4E1,2.7E1,2E1,1E0,6E0,5E0,4E0,2.6E1,5.1E1,1E1,1E0,1.86E2,5.9E1,1.3E1,5.2E1,1.16E2,9E0,1.408E3,4.42E2,9.2E1,4E1,9.4E1,4.44E2,1.81E2,1.3E1,1.5E1,5E0,1.1E1,1E0,7E0,4.46E2,4.4E1,4.1E1,3.5E1,1.1E1,6E0],"tree_param":{"num_deleted":"0","num_feature":"12","num_nodes":"177","size_leaf_vector":"0"}},{"base_weights":[1.5544788E0,4.9108624E0,1.4741801E0,1.0248231E1,4.0183735E0,-1.5047088E-2,1.6313161E0,5.183051E0,1.3768264E1,1.6395797E0,5.4883246E0,-1.6382895E-1,7.977133E-2,1.9016112E-1,1.7641679E0,8.591613E0,3.6104758E0,1.4585715E1,1.5276468E0,1.2310867E0,6.914634E0,6.839365E0,4.0432186E0,-3.3677913E-2,-1.7940868E-1,2.4498567E-1,4.8242703E-2,1.2985102E0,-2.7184227E-1,1.4116131E0,1.8732148E0,2.7645001E0,1.0687617E1,5.7486224E0,-1.6740862E-1,2.1566368E1,1.3521725E1,4.324238E0,1.0929682E0,9.426038E0,3.4089613E0,6.032334E-1,6.9614058E0,2.3060334E0,4.960732E0,1.3507895E-1,-7.598756E-2,-1.9523734E-1,-1.7114095E-1,5.6688464E-1,2.2812511E-1,8.321431E-2,2.210189E-2,9.765444E-1,1.7074099E0,-1.1059111E-1,-2.9309723E-1,1.7248821E0,1.3470168E0,2.371784E0,1.7756705E0,-3.6298597E-1,9.456026E0,-1.6870773E-1,7.7464843E0,9.4712156E-1,3.269055E0,4.6814075E0,1.2733123E0,6.550491E0,8.015869E0,2.5035324E0,-6.7908865E-1,5.542018E0,2.8044236E0,9.5019124E-2,1.8405709E-1,-1.3404051E-2,-9.886106E-2,-3.9912254E-2,-1.9675218E-1,-1.7406929E-1,-9.888285E-4,7.822618E-1,3.566814E-1,2.0915136E-1,4.400528E-1,1.207349E-1,4.2283468E-2,3.5716895E-2,-9.746136E-3,1.2838037E0,8.8219416E-1,3.437555E0,1.6452457E0,-1.6401194E-1,9.827189E-1,2.178529E0,1.5422008E0,9.8843735E-1,1.384797E0,2.8413262E0,2.168117E0,1.0078431E0,1.8203464E0,-3.304595E-2,1.3416146E0,4.263477E0,7.006791E-1,2.723252E0,-6.383867E-1,1.9406767E0,5.6680136E0,5.6060773E-1,3.126933E0,2.012308E-2,1.5022337E-1,-2.9591734E-2,5.613626E-2,-6.424587E-2,-1.1280708E-1,-2.072281E-1,-1.7426783E-1,-1.7507343E-1,-7.10727E-2,1.8670517E-1,-1.1421881E-1,1.462119E-1,2.4264929E-1,1.5873656E-1,5.886769E-1,1.082348E-1,3.3987805E-1,-0E0,6.431068E-2,1.5147643E-2,8.9194E-2,2.5960729E-2,-5.7183854E-2,1.6090518E0,1.0229512E0,7.1979874E-1,9.8185354E-1,2.0994945E0,1.5463362E0,-3.0538765E-1,-5.5795367E-4,1.9292444E0,3.817427E0,1.136534E0,1.8205914E0,1.0931638E0,8.3318514E-1,1.4142853E0,1.1445001E0,1.8696773E0,3.0312014E0,1.1423441E0,2.2233596E0,1.0260582E0,6.9012785E-1,1.5589631E0,1.8622197E0],"categories":[],"categories_nodes":[],"categories_segments":[],"categories_sizes":[],"default_left":[true,true,true,true,true,true,true,true,true,true,true,true,true,true,true,true,true,true,false,true,true,true,true,true,true,true,true,true,true,true,true,false,false,true,false,false,false,true,true,false,true,false,true,true,true,true,true,true,true,true,true,true,true,true,true,true,false,true,true,true,true,false,false,false,false,true,true,false,false,false,false,true,false,true,true,true,false,true,true,false,true,true,true,false,false,true,true,true,true,true,true,true,true,false,true,true,false,true,true,true,true,true,true,true,true,false,false,false,false,false,false,false,false,false,false,false,false,false,false,false,false,false,false,false,false,false,false,false,false,false,false,false,false,false,false,false,false,false,false,false,false,false,false,false,false,false,false,false,false,false,false,false,false,false,false,false,false,false,false,false,false,false,false],"id":16,"left_children":[1,3,5,7,9,11,13,15,17,19,21,23,25,27,29,31,33,35,-1,37,39,41,43,45,47,49,51,53,55,57,59,-1,-1,61,-1,-1,-1,63,65,-1,67,-1,69,71,73,75,77,79,81,83,85,87,89,91,93,95,-1,97,99,101,103,-1,-1,-1,-1,105,107,-1,-1,-1,-1,109,-1,111,113,115,-1,117,119,-1,121,123,125,-1,-1,127,129,131,133,135,137,139,141,-1,143,145,-1,147,149,151,153,155,157,159,161,-1,-1,-1,-1,-1,-1,-1,-1,-1,-1,-1,-1,-1,-1,-1,-1,-1,-1,-1,-1,-1,-1,-1,-1,-1,-1,-1,-1,-1,-1,-1,-1,-1,-1,-1,-1,-1,-1,-1,-1,-1,-1,-1,-1,-1,-1,-1,-1,-1,-1,-1,-1,-1,-1,-1,-1,-1,-1],"loss_changes":[2.1369824E3,8.689077E2,1.8143984E3,4.4544775E2,5.540405E2,1.0449635E1,1.3426348E3,5.023163E1,1.4576831E2,1.2920787E2,1.8260913E2,5.796051E-1,2.3480728E0,3.0344324E2,2.4593945E2,3.0669281E1,6.7715576E1,8.713867E0,0E0,2.2840744E1,2.7254059E1,3.679883E1,7.311987E1,2.2630234E-1,1.7308235E-2,3.381176E-1,3.4558016E-1,2.2356995E1,1.417223E0,2.990625E1,2.3699805E2,0E0,0E0,1.22121185E2,0E0,0E0,0E0,3.6423286E1,1.6468826E1,0E0,4.2684784E0,0E0,3.6584473E0,1.08120575E1,3.3972412E1,2.6137903E-3,3.422171E-2,1.4083862E-2,8.331251E-2,4.16255E-2,2.3884225E-1,2.4527574E-1,9.515832E-2,2.4421158E0,6.251404E0,2.923417E0,0E0,2.0235352E1,1.658374E1,7.450586E1,1.4007129E2,0E0,0E0,0E0,0E0,2.02692E1,7.4468536E0,0E0,0E0,0E0,0E0,1.1885155E1,0E0,7.2647095E0,4.669716E0,1.4479183E-2,0E0,8.430583E-3,3.908083E-3,0E0,2.3798943E-3,9.852409E-3,7.692231E-2,0E0,0E0,1.1825895E-1,1.8117213E-1,2.1235645E-1,7.2256476E-2,1.6672552E-1,1.1160566E-1,1.3083801E0,9.754448E-1,0E0,2.2051392E0,1.089381E0,0E0,2.7422638E1,2.0198242E1,1.6415558E0,7.4970703E0,4.256433E1,3.0857178E1,1.0492249E0,4.140918E1,0E0,0E0,0E0,0E0,0E0,0E0,0E0,0E0,0E0,0E0,0E0,0E0,0E0,0E0,0E0,0E0,0E0,0E0,0E0,0E0,0E0,0E0,0E0,0E0,0E0,0E0,0E0,0E0,0E0,0E0,0E0,0E0,0E0,0E0,0E0,0E0,0E0,0E0,0E0,0E0,0E0,0E0,0E0,0E0,0E0,0E0,0E0,0E0,0E0,0E0,0E0,0E0,0E0,0E0,0E0,0E0,0E0,0E0],"parents":[2147483647,0,0,1,1,2,2,3,3,4,4,5,5,6,6,7,7,8,8,9,9,10,10,11,11,12,12,13,13,14,14,15,15,16,16,17,17,19,19,20,20,21,21,22,22,23,23,24,24,25,25,26,26,27,27,28,28,29,29,30,30,33,33,37,37,38,38,40,40,42,42,43,43,44,44,45,45,46,46,47,47,48,48,49,49,50,50,51,51,52,52,53,53,54,54,55,55,57,57,58,58,59,59,60,60,65,65,66,66,71,71,73,73,74,74,75,75,77,77,78,78,80,80,81,81,82,82,85,85,86,86,87,87,88,88,89,89,90,90,91,91,92,92,94,94,95,95,97,97,98,98,99,99,100,100,101,101,102,102,103,103,104,104],"right_children":[2,4,6,8,10,12,14,16,18,20,22,24,26,28,30,32,34,36,-1,38,40,42,44,46,48,50,52,54,56,58,60,-1,-1,62,-1,-1,-1,64,66,-1,68,-1,70,72,74,76,78,80,82,84,86,88,90,92,94,96,-1,98,100,102,104,-1,-1,-1,-1,106,108,-1,-1,-1,-1,110,-1,112,114,116,-1,118,120,-1,122,124,126,-1,-1,128,130,132,134,136,138,140,142,-1,144,146,-1,148,150,152,154,156,158,160,162,-1,-1,-1,-1,-1,-1,-1,-1,-1,-1,-1,-1,-1,-1,-1,-1,-1,-1,-1,-1,-1,-1,-1,-1,-1,-1,-1,-1,-1,-1,-1,-1,-1,-1,-1,-1,-1,-1,-1,-1,-1,-1,-1,-1,-1,-1,-1,-1,-1,-1,-1,-1,-1,-1,-1,-1,-1,-1],"split_conditions":[7.4137926E-2,2.2506302E-3,3.9510223E-1,2.777778E-1,1.6666667E-1,7.6129995E-2,5.5555556E-2,9.8790765E-1,4.4444448E-1,1.3137093E-1,6.9859564E-2,1.8518186E-1,1.7338854E-1,9.8790765E-1,1.6666667E-1,3.8609636E-1,1.6666667E-1,9.689189E-1,3.0552935E-2,5.0082594E-1,6.724138E-2,3.2317758E-1,2.777778E-1,2.0884521E-2,3.6677136E-3,3.267915E-2,5.57256E-1,7.920965E-1,1.4232984E-1,1.8320128E-1,2.1606049E-1,5.5290002E-2,2.1375234E-1,5.5555556E-2,-3.3481722E-3,4.3132734E-1,2.704345E-1,6.724138E-2,7.090609E-2,1.8852074E-1,6.57184E-2,1.2064667E-2,3.888889E-1,1.3989916E-1,1.389089E-1,1.3211198E-2,5.167447E-2,1.3390663E-1,8.362069E-1,1.2068965E-1,1.6231546E-1,3.2068965E-1,7.2727275E-1,2.8934103E-1,2.0884521E-2,1.4160964E-1,-5.8619445E-3,1.724138E-1,7.920965E-1,1.4619164E-1,7.920965E-1,-7.259719E-3,1.8912052E-1,-3.3741544E-3,1.5492968E-1,5.5555556E-2,3.275862E-2,9.3628146E-2,2.5466247E-2,1.3100982E-1,1.6031738E-1,6.724138E-2,-1.3581772E-2,8.231776E-1,5.629188E-1,1.717681E-1,3.6811417E-3,4.5208848E-1,3.5257983E-1,-7.982451E-4,6.621622E-1,9.826251E-1,8.827586E-1,1.5645236E-2,7.133628E-3,1.3484347E-1,1.2068965E-1,9.533169E-1,1.3484347E-1,6.4742017E-1,8.420057E-1,2.4201475E-1,3.327586E-1,6.87511E-2,1.23334534E-1,1.2389015E-3,1.9654376E-2,1.5E-1,4.95086E-1,7.057977E-1,7.1034485E-1,9.8790765E-1,7.920965E-1,9.71642E-1,9.8790765E-1,-6.60919E-4,2.6832292E-2,8.526953E-2,1.4013582E-2,5.446504E-2,-1.2767734E-2,3.881353E-2,1.1336027E-1,1.1212154E-2,6.253866E-2,4.024616E-4,3.0044673E-3,-5.9183466E-4,1.1227252E-3,-1.2849175E-3,-2.2561415E-3,-4.144562E-3,-3.4853565E-3,-3.5014686E-3,-1.4214539E-3,3.7341034E-3,-2.2843762E-3,2.924238E-3,4.8529855E-3,3.174731E-3,1.1773539E-2,2.1646959E-3,6.797561E-3,-0E0,1.2862135E-3,3.0295286E-4,1.7838799E-3,5.1921455E-4,-1.143677E-3,3.2181036E-2,2.0459024E-2,1.4395975E-2,1.963707E-2,4.198989E-2,3.0926723E-2,-6.1077527E-3,-1.1159073E-5,3.8584888E-2,7.6348536E-2,2.2730678E-2,3.641183E-2,2.1863276E-2,1.6663702E-2,2.8285705E-2,2.2890002E-2,3.7393544E-2,6.0624026E-2,2.2846881E-2,4.4467192E-2,2.0521164E-2,1.3802556E-2,3.117926E-2,3.7244394E-2],"split_indices":[3,5,6,4,4,6,4,6,4,7,5,5,5,6,4,6,4,6,0,8,3,6,4,11,6,5,5,6,5,5,5,0,0,4,0,0,0,3,7,0,5,0,4,5,5,6,5,11,3,3,5,3,11,5,11,5,0,3,6,11,6,0,0,0,0,4,3,0,0,0,0,3,0,6,6,5,0,11,11,0,11,5,3,0,0,6,3,11,6,11,5,11,3,0,5,8,0,3,11,5,3,6,6,5,6,0,0,0,0,0,0,0,0,0,0,0,0,0,0,0,0,0,0,0,0,0,0,0,0,0,0,0,0,0,0,0,0,0,0,0,0,0,0,0,0,0,0,0,0,0,0,0,0,0,0,0,0,0,0,0,0,0,0],"split_type":[0,0,0,0,0,0,0,0,0,0,0,0,0,0,0,0,0,0,0,0,0,0,0,0,0,0,0,0,0,0,0,0,0,0,0,0,0,0,0,0,0,0,0,0,0,0,0,0,0,0,0,0,0,0,0,0,0,0,0,0,0,0,0,0,0,0,0,0,0,0,0,0,0,0,0,0,0,0,0,0,0,0,0,0,0,0,0,0,0,0,0,0,0,0,0,0,0,0,0,0,0,0,0,0,0,0,0,0,0,0,0,0,0,0,0,0,0,0,0,0,0,0,0,0,0,0,0,0,0,0,0,0,0,0,0,0,0,0,0,0,0,0,0,0,0,0,0,0,0,0,0,0,0,0,0,0,0,0,0,0,0,0,0],"sum_hessian":[7.938E3,1.85E2,7.753E3,2.6E1,1.59E2,7.4E2,7.013E3,1.1E1,1.5E1,6.1E1,9.8E1,2.88E2,4.52E2,5.92E2,6.421E3,3E0,8E0,1.4E1,1E0,5.7E1,4E0,5E1,4.8E1,3.1E1,2.57E2,7.2E1,3.8E2,1.74E2,4.18E2,1.518E3,4.903E3,1E0,2E0,5E0,3E0,1E0,1.3E1,2E0,5.5E1,2E0,2E0,1E0,4.9E1,1.7E1,3.1E1,6E0,2.5E1,8.5E1,1.72E2,3E0,6.9E1,1.62E2,2.18E2,9.8E1,7.6E1,4.9E1,3.69E2,2.58E2,1.26E3,8.01E2,4.102E3,2E0,3E0,1E0,1E0,5.2E1,3E0,1E0,1E0,3.7E1,1.2E1,1.6E1,1E0,2.4E1,7E0,4E0,2E0,7E0,1.8E1,1E0,8.4E1,1.69E2,3E0,1E0,2E0,6.4E1,5E0,8.4E1,7.8E1,1.53E2,6.5E1,2.2E1,7.6E1,2E0,7.4E1,4.7E1,2E0,7.3E1,1.85E2,1.21E2,1.139E3,2.41E2,5.6E2,2.26E2,3.876E3,1.5E1,3.7E1,2E0,1E0,1.5E1,1E0,1E0,2.3E1,1E0,6E0,2E0,2E0,6E0,1E0,6E0,1.2E1,5.5E1,2.9E1,1.67E2,2E0,1E0,2E0,2.3E1,4.1E1,2E0,3E0,8E1,4E0,2.7E1,5.1E1,1.11E2,4.2E1,3.7E1,2.8E1,9E0,1.3E1,3E1,4.6E1,1.2E1,6.2E1,2.5E1,2.2E1,6.4E1,9E0,7.6E1,1.09E2,7.1E1,5E1,1.013E3,1.26E2,4E1,2.01E2,2.9E1,5.31E2,2.13E2,1.3E1,5.37E2,3.339E3],"tree_param":{"num_deleted":"0","num_feature":"12","num_nodes":"163","size_leaf_vector":"0"}},{"base_weights":[1.4954386E0,4.4147092E-1,2.4502192E0,1.3847615E-1,6.7794466E-1,8.307341E0,2.3255684E0,4.3507484E-1,-5.9221957E-2,-4.708043E-3,8.1221426E-1,5.9543056E0,1.1988655E1,1.5627562E0,2.5289872E0,7.145365E-2,1.3442466E0,-2.832975E-1,1.0622051E-1,-1.429794E-1,1.0056614E-1,1.3683804E0,5.67837E-1,1.601693E1,5.0298634E0,1.8064716E1,7.2764554E0,2.0536761E0,1.525553E0,2.9893866E0,2.441968E0,1.859473E0,4.703576E-2,7.909707E0,1.2595445E0,-2.1694891E-1,-2.9043415E-1,2.738693E-1,2.263278E-2,5.877366E-1,-1.4928056E-1,5.3149736E-1,7.895615E-2,9.8562217E-1,1.6484853E0,5.216958E-1,1.0622342E0,1.0273794E1,2.6357698E1,2.4705598E0,6.4733467E0,2.5675062E1,9.630977E0,1.9159788E0,8.221034E0,2.6516674E0,1.9288996E0,2.059664E0,1.4979007E0,2.558461E0,3.3997967E0,2.5727115E0,2.1134398E0,2.4514139E0,1.0772363E0,-6.225995E-3,4.5022961E-1,1.1337204E0,2.1659336E0,-3.016588E-1,2.7818036E-1,-1.76737E-1,3.625555E-1,5.405593E-1,-6.574965E-3,-3.493962E-2,-1.5999338E-1,7.81919E-1,-0E0,1.6399083E-1,3.866244E-2,4.5329493E-1,1.1495622E0,1.5544726E0,2.0292118E0,4.0653446E-1,6.3489455E-1,5.0705474E-2,1.157401E0,1.203539E1,4.6111937E0,6.7700996E0,2.0914412E0,1.42261305E1,5.1647162E0,1.0687254E1,2.7476547E1,1.4238306E0,1.2616878E1,2.2027757E0,9.242656E-1,1.1053141E1,4.240772E0,1.6534331E0,2.029834E0,1.9556588E0,3.378629E0,1.387341E0,1.5747843E0,3.3095102E0,2.3197756E0,4.9629097E0,2.6931899E0,2.3376162E0,3.2061262E0,2.8577478E0,2.0184894E0,5.461326E-1,1.7265366E0,-1.5609707E-1,7.7262625E-2,2.6675522E-1,6.413956E-1,-1.8133885E-1,1.1586372E0,2.416195E0,1.6471035E0,-2.6712805E-1,7.999394E-1,-9.458458E-2,-5.686314E-1,4.6654525E-1,-6.344302E-2,1.6511366E0,1.4157873E-1,-1.0001856E-1,1.5650359E-1,-1.321218E-1,4.8634425E-2,-4.3597408E-2,-1.7099565E-1,1.3625813E-1,8.917834E-1,-3.05752E-2,2.1095028E-2,4.1369924E-1,1.4826971E-1,6.3069724E-3,1.1420021E-1,3.0236933E-1,6.4887655E-1,4.678258E0,1.1201218E0,2.4361277E0,1.5294389E0,2.2133296E0,1.5998431E0,6.0546E-1,2.4401541E-1,4.1426417E-1,8.66724E-1,4.5427373E-1,-7.1685255E-1,2.2185788E0,1.0515593E0,2.456925E0,1.8244021E0,1.8826372E1,7.5867496E0,2.0149934E0,6.2152925E0,2.218926E1,8.697126E0,4.691838E0,1.0271624E0,1.7580619E0,8.1318235E-1,1.4843267E0,2.1029642E0,1.6539277E0,2.081205E0,1.4313651E0,9.881753E-1,1.2351602E0,1.6296321E0,2.38857E0,3.6909478E0,-3.1422728E-1,2.3625927E0,5.943982E0,4.0351057E0,2.1836731E0,2.9694896E0,-2.2448665E-1,2.3523169E0,4.422626E0,3.1019385E0,1.9584992E0,2.9939396E0,1.7240984E0,2.0339272E0],"categories":[],"categories_nodes":[],"categories_segments":[],"categories_sizes":[],"default_left":[true,true,true,true,true,true,true,true,true,true,true,true,true,true,true,true,true,true,true,true,true,true,true,true,true,true,true,true,true,true,true,true,true,false,true,true,false,true,true,false,true,true,true,true,true,true,true,true,false,true,true,true,true,true,true,false,true,true,true,true,true,true,true,false,true,true,true,true,true,false,true,true,true,true,true,true,true,true,true,true,true,true,true,true,true,true,true,true,true,false,false,false,true,true,true,false,false,false,true,false,false,false,true,true,true,true,false,true,true,true,true,true,true,true,true,true,true,false,false,false,false,false,false,false,false,false,false,false,false,false,false,false,false,false,false,false,false,false,false,false,false,false,false,false,false,false,false,false,false,false,false,false,false,false,false,false,false,false,false,false,false,false,false,false,false,false,false,false,false,false,false,false,false,false,false,false,false,false,false,false,false,false,false,false,false,false,false,false,false,false,false,false,false,false,false,false,false,false,false,false,false],"id":17,"left_children":[1,3,5,7,9,11,13,15,17,19,21,23,25,27,29,31,33,35,37,39,41,43,45,47,49,51,53,55,57,59,61,63,65,-1,67,69,-1,71,73,-1,75,77,79,81,83,85,87,89,-1,91,93,95,97,99,101,-1,103,105,107,109,111,113,115,-1,117,119,121,123,125,-1,127,129,131,133,135,137,139,141,143,145,147,149,151,153,155,157,159,161,163,-1,-1,-1,165,167,169,-1,-1,-1,171,-1,-1,-1,173,175,177,179,-1,181,183,185,187,189,191,193,195,197,199,-1,-1,-1,-1,-1,-1,-1,-1,-1,-1,-1,-1,-1,-1,-1,-1,-1,-1,-1,-1,-1,-1,-1,-1,-1,-1,-1,-1,-1,-1,-1,-1,-1,-1,-1,-1,-1,-1,-1,-1,-1,-1,-1,-1,-1,-1,-1,-1,-1,-1,-1,-1,-1,-1,-1,-1,-1,-1,-1,-1,-1,-1,-1,-1,-1,-1,-1,-1,-1,-1,-1,-1,-1,-1,-1,-1,-1,-1,-1,-1,-1,-1,-1,-1],"loss_changes":[7.9578145E3,2.6931445E2,3.0228086E3,9.6667274E1,1.9353656E2,7.237832E2,6.291328E2,2.1791956E2,3.6688747E1,5.061326E0,2.3951147E2,4.689591E2,9.101953E2,1.4544189E1,1.2598633E2,2.0521896E1,1.0128085E2,1.70784E-1,7.971991E0,7.1519256E-1,1.8149502E0,5.7136658E1,2.7767822E1,1.6653369E2,1.7679248E2,8.370117E2,9.2495605E1,2.656189E0,1.0696655E1,8.6916504E1,1.1406445E2,2.001688E0,1.0000217E1,0E0,2.0384552E1,1.8038839E0,0E0,7.590271E0,5.7622833E0,0E0,1.782763E-1,1.2356608E0,6.4029384E-1,1.972998E1,1.0004761E1,1.4529938E1,1.0006752E1,1.45078125E1,0E0,2.5036087E1,2.9311658E2,9.9538086E1,1.7352124E2,2.2457123E-1,1.6827039E2,0E0,2.2775269E-1,2.9790802E0,5.6835938E0,4.2056152E1,2.8186914E2,2.8472363E2,5.2448242E1,0E0,8.026798E-1,5.151968E0,1.8356857E0,5.4687347E0,1.5147705E0,0E0,1.8808551E0,9.813879E-1,7.029709E0,8.906211E0,5.495408E0,1.1162689E-1,1.6904426E-1,3.940804E-1,2.2849818E-3,2.0837998E-1,3.1169564E-1,1.5248346E0,1.6280746E1,4.226074E0,3.5344086E0,1.7956757E1,2.8778015E1,2.9960036E0,9.882927E0,0E0,0E0,0E0,1.3588715E-1,8.4349365E1,8.615332E1,0E0,0E0,0E0,1.3532422E2,0E0,0E0,0E0,8.941559E0,8.346176E-1,3.174591E-1,1.7521667E-1,0E0,5.017578E0,7.583374E0,1.7816101E1,2.1742554E1,6.498242E1,2.301062E1,5.3250977E1,6.1393555E1,8.547302E0,1.887207E0,0E0,0E0,0E0,0E0,0E0,0E0,0E0,0E0,0E0,0E0,0E0,0E0,0E0,0E0,0E0,0E0,0E0,0E0,0E0,0E0,0E0,0E0,0E0,0E0,0E0,0E0,0E0,0E0,0E0,0E0,0E0,0E0,0E0,0E0,0E0,0E0,0E0,0E0,0E0,0E0,0E0,0E0,0E0,0E0,0E0,0E0,0E0,0E0,0E0,0E0,0E0,0E0,0E0,0E0,0E0,0E0,0E0,0E0,0E0,0E0,0E0,0E0,0E0,0E0,0E0,0E0,0E0,0E0,0E0,0E0,0E0,0E0,0E0,0E0,0E0,0E0,0E0,0E0,0E0,0E0,0E0,0E0,0E0,0E0],"parents":[2147483647,0,0,1,1,2,2,3,3,4,4,5,5,6,6,7,7,8,8,9,9,10,10,11,11,12,12,13,13,14,14,15,15,16,16,17,17,18,18,19,19,20,20,21,21,22,22,23,23,24,24,25,25,26,26,27,27,28,28,29,29,30,30,31,31,32,32,34,34,35,35,37,37,38,38,40,40,41,41,42,42,43,43,44,44,45,45,46,46,47,47,49,49,50,50,51,51,52,52,53,53,54,54,56,56,57,57,58,58,59,59,60,60,61,61,62,62,64,64,65,65,66,66,67,67,68,68,70,70,71,71,72,72,73,73,74,74,75,75,76,76,77,77,78,78,79,79,80,80,81,81,82,82,83,83,84,84,85,85,86,86,87,87,88,88,92,92,93,93,94,94,98,98,102,102,103,103,104,104,105,105,107,107,108,108,109,109,110,110,111,111,112,112,113,113,114,114,115,115,116,116],"right_children":[2,4,6,8,10,12,14,16,18,20,22,24,26,28,30,32,34,36,38,40,42,44,46,48,50,52,54,56,58,60,62,64,66,-1,68,70,-1,72,74,-1,76,78,80,82,84,86,88,90,-1,92,94,96,98,100,102,-1,104,106,108,110,112,114,116,-1,118,120,122,124,126,-1,128,130,132,134,136,138,140,142,144,146,148,150,152,154,156,158,160,162,164,-1,-1,-1,166,168,170,-1,-1,-1,172,-1,-1,-1,174,176,178,180,-1,182,184,186,188,190,192,194,196,198,200,-1,-1,-1,-1,-1,-1,-1,-1,-1,-1,-1,-1,-1,-1,-1,-1,-1,-1,-1,-1,-1,-1,-1,-1,-1,-1,-1,-1,-1,-1,-1,-1,-1,-1,-1,-1,-1,-1,-1,-1,-1,-1,-1,-1,-1,-1,-1,-1,-1,-1,-1,-1,-1,-1,-1,-1,-1,-1,-1,-1,-1,-1,-1,-1,-1,-1,-1,-1,-1,-1,-1,-1,-1,-1,-1,-1,-1,-1,-1,-1,-1,-1,-1,-1],"split_conditions":[6.621175E-1,1.6666667E-1,7.4137926E-2,6.572582E-1,3.9510223E-1,2.777778E-1,9.8790765E-1,3.8307017E-1,5.5555556E-2,7.6129995E-2,6.572582E-1,7.6935333E-1,5E-1,5.0082594E-1,2.5344828E-1,5E-1,5E-1,5.0082594E-1,3.5106385E-1,5E-1,1.6034484E-1,6.028142E-1,5E-1,7.563675E-1,8.2218254E-1,3.888889E-1,8.2218254E-1,2.3620689E-1,1.6034484E-1,8.2218254E-1,8.4422266E-1,1.24946564E-1,3.9510223E-1,1.5819414E-1,9.689189E-1,9.9787235E-1,-5.808683E-3,2.137931E-1,1.2389015E-3,1.1754732E-2,2.1896552E-1,1.12629965E-1,8.100967E-2,3.7966675E-1,6.450739E-1,2.777778E-1,1.3234043E-1,5E-1,5.2715397E-1,7.8173023E-1,8.349742E-1,7.563675E-1,8.0838656E-1,8.0460525E-1,8.4523857E-1,5.3033344E-2,9.5682657E-1,1.5E-1,9.5682657E-1,7.6706135E-1,8.349742E-1,8.2218254E-1,5.0082594E-1,4.9028277E-2,2.4243233E-1,7.6129995E-2,3.443045E-1,3.268453E-1,7.008511E-1,-6.033176E-3,1.2389015E-3,1.7758621E-1,6.2241375E-1,2.8103447E-1,9.9787235E-1,1.2931034E-1,1.2389015E-3,9.013972E-3,1.15517244E-1,5.0082594E-1,3.1517088E-1,3.443045E-1,5E-1,1.5172413E-1,6.4979887E-1,3.9234042E-1,7.008511E-1,7.4893616E-2,2.6206896E-1,2.407078E-1,9.222387E-2,1.35402E-1,1.6666667E-1,5E-1,8.571358E-1,2.1374507E-1,5.495309E-1,2.8476613E-2,8.3943033E-1,4.4055514E-2,1.8485311E-2,2.2106281E-1,6.724138E-2,9.345995E-1,7.684338E-1,3.5106385E-1,6.757258E-2,9.15082E-1,7.684338E-1,3.5106385E-1,5.5555556E-2,1.6034484E-1,8.76709E-1,5.5555556E-2,5.0082594E-1,8.5870504E-1,8.486788E-1,1.0922653E-2,3.4530733E-2,-3.1219414E-3,1.5452525E-3,5.335104E-3,1.2827912E-2,-3.6267769E-3,2.3172744E-2,4.8323896E-2,3.294207E-2,-5.342561E-3,1.5998788E-2,-1.8916915E-3,-1.1372628E-2,9.330905E-3,-1.2688604E-3,3.302273E-2,2.8315745E-3,-2.0003712E-3,3.1300718E-3,-2.642436E-3,9.726885E-4,-8.7194814E-4,-3.419913E-3,2.7251625E-3,1.7835667E-2,-6.11504E-4,4.2190056E-4,8.273984E-3,2.9653942E-3,1.2613945E-4,2.2840041E-3,6.047386E-3,1.297753E-2,9.356516E-2,2.2402436E-2,4.8722554E-2,3.0588776E-2,4.426659E-2,3.199686E-2,1.21092E-2,4.880308E-3,8.285283E-3,1.733448E-2,9.085475E-3,-1.4337051E-2,4.4371575E-2,2.1031186E-2,4.9138498E-2,3.648804E-2,3.7652743E-1,1.51735E-1,4.0299866E-2,1.24305844E-1,4.437852E-1,1.7394252E-1,9.3836755E-2,2.0543247E-2,3.516124E-2,1.6263647E-2,2.9686533E-2,4.2059284E-2,3.307855E-2,4.1624095E-2,2.8627302E-2,1.9763505E-2,2.4703205E-2,3.2592643E-2,4.77714E-2,7.381895E-2,-6.2845456E-3,4.7251854E-2,1.1887964E-1,8.070211E-2,4.3673463E-2,5.938979E-2,-4.489733E-3,4.7046337E-2,8.845252E-2,6.2038768E-2,3.9169982E-2,5.9878793E-2,3.448197E-2,4.0678542E-2],"split_indices":[1,4,3,1,6,4,6,1,4,6,1,1,0,8,3,0,0,8,10,0,3,1,4,1,1,4,1,3,3,1,1,1,6,0,6,10,0,3,8,0,3,1,1,1,1,4,10,0,0,1,1,1,1,1,1,0,6,3,6,1,1,1,8,0,1,6,1,6,10,0,8,3,3,3,10,3,8,1,3,8,1,1,0,3,1,10,10,10,3,0,0,0,4,0,1,0,0,0,1,0,0,0,3,1,1,10,0,1,1,10,4,3,1,4,8,1,1,0,0,0,0,0,0,0,0,0,0,0,0,0,0,0,0,0,0,0,0,0,0,0,0,0,0,0,0,0,0,0,0,0,0,0,0,0,0,0,0,0,0,0,0,0,0,0,0,0,0,0,0,0,0,0,0,0,0,0,0,0,0,0,0,0,0,0,0,0,0,0,0,0,0,0,0,0,0,0,0,0,0,0,0],"split_type":[0,0,0,0,0,0,0,0,0,0,0,0,0,0,0,0,0,0,0,0,0,0,0,0,0,0,0,0,0,0,0,0,0,0,0,0,0,0,0,0,0,0,0,0,0,0,0,0,0,0,0,0,0,0,0,0,0,0,0,0,0,0,0,0,0,0,0,0,0,0,0,0,0,0,0,0,0,0,0,0,0,0,0,0,0,0,0,0,0,0,0,0,0,0,0,0,0,0,0,0,0,0,0,0,0,0,0,0,0,0,0,0,0,0,0,0,0,0,0,0,0,0,0,0,0,0,0,0,0,0,0,0,0,0,0,0,0,0,0,0,0,0,0,0,0,0,0,0,0,0,0,0,0,0,0,0,0,0,0,0,0,0,0,0,0,0,0,0,0,0,0,0,0,0,0,0,0,0,0,0,0,0,0,0,0,0,0,0,0,0,0,0,0,0,0,0,0,0,0,0,0],"sum_hessian":[7.908E3,3.759E3,4.149E3,1.648E3,2.111E3,8.6E1,4.063E3,6.59E2,9.89E2,3.47E2,1.764E3,5.3E1,3.3E1,8.56E2,3.207E3,4.71E2,1.88E2,4.2E2,5.69E2,1.5E2,1.97E2,5.38E2,1.226E3,4E0,4.9E1,1.4E1,1.9E1,5.9E1,7.97E2,5.08E2,2.699E3,6E0,4.65E2,2E0,1.86E2,4.2E1,3.78E2,1.89E2,3.8E2,1E0,1.49E2,9E0,1.88E2,2.28E2,3.1E2,1.122E3,1.04E2,3E0,1E0,1.8E1,3.1E1,7E0,7E0,3E0,1.6E1,9E0,5E1,3.8E1,7.59E2,2.49E2,2.59E2,1.929E3,7.7E2,3E0,3E0,4.11E2,5.4E1,1.64E2,2.2E1,3.6E1,6E0,3.1E1,1.58E2,2E1,3.6E2,1.3E1,1.36E2,6E0,3E0,6E1,1.28E2,5.4E1,1.74E2,2.5E2,6E1,5.57E2,5.65E2,9E0,9.5E1,2E0,1E0,1E0,1.7E1,4E0,2.7E1,1E0,6E0,2E0,5E0,2E0,1E0,9E0,7E0,1.5E1,3.5E1,3.6E1,2E0,3.14E2,4.45E2,5.9E1,1.9E2,8E1,1.79E2,1.408E3,5.21E2,8.6E1,6.84E2,2E0,1E0,1.47E2,2.64E2,2.8E1,2.6E1,3E0,1.61E2,1.4E1,8E0,3E0,3E0,2.6E1,5E0,1.27E2,3.1E1,5E0,1.5E1,2.29E2,1.31E2,6E0,7E0,1.2E1,1.24E2,1E0,5E0,1E0,2E0,3E0,5.7E1,9E1,3.8E1,3.1E1,2.3E1,1E0,1.73E2,6E0,2.44E2,4.1E1,1.9E1,2.5E2,3.07E2,2.9E2,2.75E2,6E0,3E0,8E0,8.7E1,6E0,1.1E1,2E0,2E0,7E0,2E1,1E0,4E0,6E0,1E0,1.3E1,2E0,5E0,3E1,1.2E1,2.4E1,2.82E2,3.2E1,6.3E1,3.82E2,1.8E1,4.1E1,3E0,1.87E2,3.8E1,4.2E1,6.4E1,1.15E2,8E0,1.4E3,4E1,4.81E2,1.2E1,7.4E1,3.6E1,6.48E2],"tree_param":{"num_deleted":"0","num_feature":"12","num_nodes":"201","size_leaf_vector":"0"}},{"base_weights":[1.4870918E0,4.2756614E-1,2.444699E0,1.4071047E-1,6.4623916E-1,1.1930523E1,2.3214142E0,-2.339933E-3,7.7071995E-1,5.3797115E-2,7.9473567E-1,1.7699055E1,9.2998295E0,2.5097742E0,1.5752004E0,-1.9264805E-1,1.396434E-1,6.5208344E0,7.0556086E-1,-1.401977E-1,1.6181965E-1,1.4228176E0,5.386138E-1,2.6422009E1,8.266144E0,1.7120571E1,8.189641E0,4.0579157E0,2.4505763E0,2.863322E0,1.5502832E0,4.3034714E-2,-2.743845E-1,2.5601657E-2,3.152016E-1,2.6862695E0,7.7741203E0,2.390789E-1,1.1230179E0,6.7145216E-1,-1.5249817E-1,1.2731951E-1,5.0004065E-1,1.1077166E0,1.6116557E0,5.051883E-1,9.116334E-1,1.2183677E1,6.128544E1,5.793976E-1,1.5313497E1,3.599744E0,1.0395934E1,2.8096943E0,4.790907E0,3.0046008E0,2.3921337E0,2.0480285E0,3.911786E0,1.9548734E0,1.5166378E0,1.8861632E0,-0E0,-2.1488602E-1,-2.816254E-1,-1.8808844E0,3.9480075E-2,1.9804353E-1,7.176815E-1,1.2916929E-1,6.2310016E-1,1.0313473E0,1.3000984E0,1.3136065E-1,-1.566887E-1,5.3338253E-1,1.1138017E-1,1.046153E0,3.1177643E-1,4.6080914E0,1.0804614E0,1.531234E0,1.9144721E0,-9.445052E-2,5.2524954E-1,7.046566E-1,1.1733584E0,2.674626E1,3.4012153E0,1.7229278E0,-6.408203E-1,-1.3516823E0,2.0452341E1,1.9693605E0,9.600444E0,2.1330008E1,7.621582E0,2.4039612E0,3.2278955E0,3.6390085E0,5.446371E0,2.5054405E0,3.5241053E0,2.5116496E0,2.0832944E0,4.397309E0,2.4449875E0,1.8338344E0,2.2260208E0,1.4454302E0,1.7321937E0,-1.4582291E-1,9.695523E-2,-2.950527E-1,8.0299824E-2,-1.8122536E-1,-2.83614E-1,2.6302233E-1,-1.917117E-2,-1.8240957E-1,2.4223213E-1,8.81262E-2,8.5342234E-1,7.003327E-2,2.6464438E-1,9.2510206E-1,2.8692126E-1,1.1411448E0,7.712446E-1,1.2205032E0,1.5013175E0,-5.2445203E-2,-1.6314787E-1,8.295245E-1,1.24565564E-1,8.412997E-2,2.5458327E-1,4.2539594E-1,1.9771048E-1,-1.731094E-1,1.1014817E0,1.7914227E0,1.4580886E0,2.1239965E0,1.4974722E0,4.773202E-1,-2.1326518E-1,-8.4550214E-1,5.3319556E-1,1.8352957E0,6.293155E-1,1.8066722E0,8.816075E-1,6.0790867E-1,9.522782E0,2.3187811E0,1.5596472E0,1.4713705E0,9.890018E0,2.95051E0,2.1706464E0,4.0298533E0,2.7414947E0,7.382365E0,2.2946622E0,9.406502E0,3.8551314E0,3.1785371E0,2.2990224E0,4.9178357E0,2.9842615E0,2.2838676E0,3.076583E0,2.9138095E0,1.9753581E0,3.3318028E0,5.9505415E0,1.5795281E0,2.06012E0,2.6763074E0,1.7429178E0,1.8786422E0,1.4183881E0,2.3789144E0,1.5867934E0],"categories":[],"categories_nodes":[],"categories_segments":[],"categories_sizes":[],"default_left":[true,true,true,true,true,true,true,true,true,true,true,true,true,true,true,true,true,true,true,true,true,true,true,true,true,false,true,true,true,true,true,true,true,true,true,false,false,true,true,false,true,true,true,true,true,true,true,true,false,true,true,true,true,true,true,true,true,false,true,true,true,false,true,true,true,false,true,true,true,true,true,true,true,false,true,true,true,false,true,false,true,true,true,true,true,true,true,false,true,false,false,false,false,true,false,false,true,true,true,true,true,true,true,true,true,true,false,true,true,true,true,false,false,false,false,false,false,false,false,false,false,false,false,false,false,false,false,false,false,false,false,false,false,false,false,false,false,false,false,false,false,false,false,false,false,false,false,false,false,false,false,false,false,false,false,false,false,false,false,false,false,false,false,false,false,false,false,false,false,false,false,false,false,false,false,false,false,false,false,false,false,false,false,false,false],"id":18,"left_children":[1,3,5,7,9,11,13,15,17,19,21,23,25,27,29,31,33,35,37,39,41,43,45,47,49,-1,51,53,55,57,59,61,63,65,67,-1,-1,69,71,-1,73,75,77,79,81,83,85,87,-1,89,91,93,95,97,99,101,103,-1,105,107,109,-1,111,113,115,-1,117,119,121,123,125,127,129,-1,131,133,135,-1,137,-1,139,141,143,145,147,149,151,-1,153,-1,-1,-1,-1,155,-1,-1,157,159,161,163,165,167,169,171,173,175,-1,177,179,181,183,-1,-1,-1,-1,-1,-1,-1,-1,-1,-1,-1,-1,-1,-1,-1,-1,-1,-1,-1,-1,-1,-1,-1,-1,-1,-1,-1,-1,-1,-1,-1,-1,-1,-1,-1,-1,-1,-1,-1,-1,-1,-1,-1,-1,-1,-1,-1,-1,-1,-1,-1,-1,-1,-1,-1,-1,-1,-1,-1,-1,-1,-1,-1,-1,-1,-1,-1,-1,-1,-1,-1,-1,-1,-1],"loss_changes":[8.041742E3,2.3602338E2,4.8594023E3,1.4676204E2,1.8783081E2,7.540737E2,5.763594E2,3.5875053E1,1.1126387E2,8.983949E0,2.7436743E2,1.2706372E3,2.7703052E2,2.973125E2,2.5075195E1,1.09362755E1,1.52150545E1,8.906784E0,5.7987366E1,1.557576E0,3.1825962E0,2.8780151E1,1.4954498E1,3.8866655E3,4.4824884E2,0E0,3.248777E2,1.05500244E2,9.988672E1,1.0350533E1,1.0046997E1,1.158819E1,1.5425682E-1,1.2204925E1,1.4054247E1,0E0,0E0,5.92778E0,2.0736237E0,0E0,1.8723917E-1,1.5912457E0,2.4764833E0,1.6035416E1,6.4821167E0,1.3427582E1,5.078491E0,7.7925543E2,0E0,6.430353E0,3.8060876E2,1.0441046E2,6.228601E2,5.024109E0,5.0140015E1,7.485083E1,1.0380371E2,0E0,8.275986E-1,5.9373474E-1,1.0682983E1,0E0,2.0307195E0,1.1310666E0,5.096817E-2,0E0,6.0143847E0,3.921507E0,5.715561E0,8.729776E-1,3.0753813E0,2.687416E0,1.8831635E-1,0E0,9.46219E-2,1.0819166E0,9.2978525E-1,0E0,2.1362925E-1,0E0,4.960449E0,3.751709E0,4.4212494E0,2.4984846E0,1.1891022E1,4.378378E0,7.4372215E0,0E0,7.202486E1,0E0,0E0,0E0,0E0,7.488632E-2,0E0,0E0,2.5076233E2,8.941803E-1,4.5408936E0,1.367974E2,2.8599072E2,1.8927979E1,1.05093994E2,2.6283594E2,6.975513E1,4.2797852E-1,0E0,1.4141693E0,2.1520996E0,5.72229E0,1.6112122E1,0E0,0E0,0E0,0E0,0E0,0E0,0E0,0E0,0E0,0E0,0E0,0E0,0E0,0E0,0E0,0E0,0E0,0E0,0E0,0E0,0E0,0E0,0E0,0E0,0E0,0E0,0E0,0E0,0E0,0E0,0E0,0E0,0E0,0E0,0E0,0E0,0E0,0E0,0E0,0E0,0E0,0E0,0E0,0E0,0E0,0E0,0E0,0E0,0E0,0E0,0E0,0E0,0E0,0E0,0E0,0E0,0E0,0E0,0E0,0E0,0E0,0E0,0E0,0E0,0E0,0E0,0E0,0E0,0E0,0E0,0E0,0E0,0E0,0E0],"parents":[2147483647,0,0,1,1,2,2,3,3,4,4,5,5,6,6,7,7,8,8,9,9,10,10,11,11,12,12,13,13,14,14,15,15,16,16,17,17,18,18,19,19,20,20,21,21,22,22,23,23,24,24,26,26,27,27,28,28,29,29,30,30,31,31,32,32,33,33,34,34,37,37,38,38,40,40,41,41,42,42,43,43,44,44,45,45,46,46,47,47,49,49,50,50,51,51,52,52,53,53,54,54,55,55,56,56,58,58,59,59,60,60,62,62,63,63,64,64,66,66,67,67,68,68,69,69,70,70,71,71,72,72,74,74,75,75,76,76,78,78,80,80,81,81,82,82,83,83,84,84,85,85,86,86,88,88,93,93,96,96,97,97,98,98,99,99,100,100,101,101,102,102,103,103,104,104,105,105,107,107,108,108,109,109,110,110],"right_children":[2,4,6,8,10,12,14,16,18,20,22,24,26,28,30,32,34,36,38,40,42,44,46,48,50,-1,52,54,56,58,60,62,64,66,68,-1,-1,70,72,-1,74,76,78,80,82,84,86,88,-1,90,92,94,96,98,100,102,104,-1,106,108,110,-1,112,114,116,-1,118,120,122,124,126,128,130,-1,132,134,136,-1,138,-1,140,142,144,146,148,150,152,-1,154,-1,-1,-1,-1,156,-1,-1,158,160,162,164,166,168,170,172,174,176,-1,178,180,182,184,-1,-1,-1,-1,-1,-1,-1,-1,-1,-1,-1,-1,-1,-1,-1,-1,-1,-1,-1,-1,-1,-1,-1,-1,-1,-1,-1,-1,-1,-1,-1,-1,-1,-1,-1,-1,-1,-1,-1,-1,-1,-1,-1,-1,-1,-1,-1,-1,-1,-1,-1,-1,-1,-1,-1,-1,-1,-1,-1,-1,-1,-1,-1,-1,-1,-1,-1,-1,-1,-1,-1,-1,-1,-1],"split_conditions":[6.621175E-1,1.6666667E-1,5E-1,7.090609E-2,3.8253418E-1,2.7272727E-2,7.090609E-2,5.5555556E-2,5E-1,8.981001E-3,6.572582E-1,8.349742E-1,7.703592E-1,1.8427517E-2,1.8427517E-2,3.464066E-1,7.5757575E-1,2.4097994E-1,3.7966675E-1,5E-1,3.532499E-1,6.028142E-1,5E-1,8.2200134E-1,8.7090075E-1,3.4241143E-1,8.2218254E-1,6.818182E-1,5.0082594E-1,6.818182E-1,4.2424244E-1,5E-1,5.0082594E-1,2.7272727E-2,6.965602E-1,5.3725388E-2,1.554824E-1,3.443045E-1,4.4565028E-1,1.3429043E-2,7.125307E-2,1.8427517E-2,3.698545E-1,5E-1,6.450739E-1,1.8427517E-2,7.5757575E-1,7.876776E-1,1.2257087E0,2.777778E-1,2.2222222E-1,1.166234E-1,8.349742E-1,8.2218254E-1,8.2218254E-1,8.2218254E-1,8.4422266E-1,4.096057E-2,1.6666667E-1,5.8854413E-1,9.345995E-1,3.7723266E-2,2.3846036E-2,6.965602E-1,5.2628934E-1,-3.7617687E-2,3.1941032E-1,2.3846036E-2,5.003473E-1,2.8854463E-1,3.7000573E-1,4.3256068E-1,5.4282683E-1,2.627213E-3,1.2389015E-3,7.992136E-2,5.1907774E-2,2.092306E-2,6.4496315E-1,9.216183E-2,6.736668E-2,6.2553835E-1,6.4979887E-1,6.818182E-1,2.7272727E-2,6.7567565E-2,8.30303E-1,5.3492516E-1,8.0442405E-1,3.4458555E-2,-1.2816406E-2,-2.7033646E-2,4.090468E-1,1.6666667E-1,1.9200887E-1,4.2660013E-1,8.571358E-1,7.6706135E-1,8.349742E-1,7.759628E-1,8.349742E-1,7.6706135E-1,8.349742E-1,8.2218254E-1,4.2424244E-1,5.5555556E-2,4.889975E-2,8.224432E-1,7.671232E-1,5.0082594E-1,1.4619164E-1,-2.9164583E-3,1.9391046E-3,-5.901054E-3,1.6059964E-3,-3.624507E-3,-5.67228E-3,5.2604466E-3,-3.834234E-4,-3.6481912E-3,4.8446422E-3,1.7625239E-3,1.7068446E-2,1.4006653E-3,5.292888E-3,1.850204E-2,5.738425E-3,2.2822894E-2,1.5424891E-2,2.4410063E-2,3.002635E-2,-1.048904E-3,-3.2629573E-3,1.659049E-2,2.4913112E-3,1.6825993E-3,5.0916653E-3,8.507919E-3,3.9542094E-3,-3.462188E-3,2.2029633E-2,3.5828453E-2,2.9161772E-2,4.247993E-2,2.9949443E-2,9.546404E-3,-4.2653037E-3,-1.6910043E-2,1.0663911E-2,3.670591E-2,1.258631E-2,3.6133442E-2,1.763215E-2,1.2158173E-2,1.9045565E-1,4.637562E-2,3.1192943E-2,2.942741E-2,1.9780037E-1,5.90102E-2,4.3412928E-2,8.0597065E-2,5.482989E-2,1.476473E-1,4.5893244E-2,1.8813004E-1,7.7102624E-2,6.357074E-2,4.5980446E-2,9.835671E-2,5.968523E-2,4.5677353E-2,6.1531655E-2,5.8276188E-2,3.950716E-2,6.6636056E-2,1.1901083E-1,3.1590562E-2,4.12024E-2,5.352615E-2,3.4858353E-2,3.7572842E-2,2.8367762E-2,4.7578286E-2,3.1735867E-2],"split_indices":[1,4,0,7,1,2,7,4,0,9,1,1,1,11,11,1,2,1,1,0,1,1,4,1,1,0,1,2,8,2,2,0,8,2,11,0,0,1,1,0,11,11,1,0,1,11,2,1,0,4,4,7,1,1,1,1,1,0,4,7,1,0,9,11,1,0,11,9,1,1,1,1,7,0,8,1,9,0,11,0,7,1,1,2,2,11,2,0,1,0,0,0,0,4,0,0,1,1,1,1,1,1,1,1,2,4,0,1,1,8,11,0,0,0,0,0,0,0,0,0,0,0,0,0,0,0,0,0,0,0,0,0,0,0,0,0,0,0,0,0,0,0,0,0,0,0,0,0,0,0,0,0,0,0,0,0,0,0,0,0,0,0,0,0,0,0,0,0,0,0,0,0,0,0,0,0,0,0,0,0,0,0,0,0,0],"split_type":[0,0,0,0,0,0,0,0,0,0,0,0,0,0,0,0,0,0,0,0,0,0,0,0,0,0,0,0,0,0,0,0,0,0,0,0,0,0,0,0,0,0,0,0,0,0,0,0,0,0,0,0,0,0,0,0,0,0,0,0,0,0,0,0,0,0,0,0,0,0,0,0,0,0,0,0,0,0,0,0,0,0,0,0,0,0,0,0,0,0,0,0,0,0,0,0,0,0,0,0,0,0,0,0,0,0,0,0,0,0,0,0,0,0,0,0,0,0,0,0,0,0,0,0,0,0,0,0,0,0,0,0,0,0,0,0,0,0,0,0,0,0,0,0,0,0,0,0,0,0,0,0,0,0,0,0,0,0,0,0,0,0,0,0,0,0,0,0,0,0,0,0,0,0,0,0,0,0,0,0,0,0,0,0,0],"sum_hessian":[7.926E3,3.763E3,4.163E3,1.628E3,2.135E3,5.3E1,4.11E3,1.327E3,3.01E2,4.28E2,1.707E3,1.6E1,3.7E1,3.281E3,8.29E2,5.67E2,7.6E2,3E0,2.98E2,1.53E2,2.75E2,4.94E2,1.213E3,8E0,8E0,4E0,3.3E1,1.2E2,3.161E3,1.5E1,8.14E2,1.46E2,4.21E2,4.61E2,2.99E2,1E0,2E0,1.41E2,1.57E2,2E0,1.51E2,2.5E2,2.5E1,1.86E2,3.08E2,1.114E3,9.9E1,6E0,2E0,4E0,4E0,1.1E1,2.2E1,4.5E1,7.5E1,3E2,2.861E3,9E0,6E0,6.1E1,7.53E2,3E0,1.43E2,4.7E1,3.74E2,3E0,4.58E2,2.32E2,6.7E1,1.1E2,3.1E1,1.05E2,5.2E1,2E0,1.49E2,9E0,2.41E2,6E0,1.9E1,1E0,1.85E2,2.45E2,6.3E1,3.6E1,1.078E3,5.6E1,4.3E1,2E0,4E0,2E0,2E0,1E0,3E0,9E0,2E0,4E0,1.8E1,2.4E1,2.1E1,2.8E1,4.7E1,1.54E2,1.46E2,2.061E3,8E2,4E0,2E0,4.4E1,1.7E1,5.68E2,1.85E2,5.7E1,8.6E1,3.7E1,1E1,8E0,3.66E2,9.5E1,3.63E2,2.4E1,2.08E2,1.2E1,5.5E1,7.7E1,3.3E1,1.6E1,1.5E1,7.3E1,3.2E1,3.9E1,1.3E1,9E0,1.4E2,5E0,4E0,2.03E2,3.8E1,9E0,1E1,3E0,1.82E2,5.2E1,1.93E2,4.1E1,2.2E1,6E0,3E1,6E0,1.072E3,3E0,5.3E1,1.3E1,3E1,3E0,1E0,4E0,5E0,5E0,1.3E1,6E0,1.8E1,7E0,1.4E1,7E0,2.1E1,1.3E1,3.4E1,3.5E1,1.19E2,4E1,1.06E2,1.47E3,5.91E2,9.1E1,7.09E2,3E0,1E0,2.2E1,2.2E1,8E0,9E0,3.2E1,5.36E2,3.3E1,1.52E2],"tree_param":{"num_deleted":"0","num_feature":"12","num_nodes":"185","size_leaf_vector":"0"}},{"base_weights":[1.4502131E0,4.7882957E0,1.3819114E0,9.063121E0,3.8138223E0,-1.5695222E-2,1.5309348E0,2.6053474E0,9.503331E0,3.5665064E0,7.797784E0,-1.5036967E-1,7.4900225E-2,1.9556693E0,1.4574931E0,9.417621E-1,3.8464637E0,9.420231E0,4.904274E0,-2.6342709E-2,-1.6919316E-1,2.1838896E-1,4.774219E-2,2.3179228E0,1.7578362E0,9.416345E-1,1.5005202E0,7.1401745E-1,1.1933513E0,4.0041285E0,1.735818E0,5.364378E-2,-8.02576E-2,-1.2136802E-2,-1.7155412E-1,1.6561691E-1,3.9183468E-1,1.982426E-1,3.9560713E-2,2.0648978E0,2.8963385E0,1.0880991E0,1.8087229E0,1.8111516E0,9.346248E-1,2.294333E0,1.496349E0,1.4877948E0,5.9607303E-1,-1.572276E-1,4.045445E0,1.9936243E0,7.819091E-1,1.7236015E-2,1.2498074E-1,-1.1118937E-1,-5.0888505E-2,-7.521834E-2,1.3789544E-1,-1.8809058E-1,-1.621011E-1,1.9473845E-1,3.1134216E-2,-3.137844E-2,4.2104796E-1,1.1309442E-1,1.3086444E0,6.5977104E-2,9.033568E-3,2.5537517E0,1.6516951E0,3.1026254E0,2.1984806E0,-3.5642234E-3,1.1114888E0,6.7398205E-2,1.819892E0,1.0366316E0,9.067586E-1,4.4558454E-1,2.7837164E0,1.538169E0,1.4507118E0,2.6289073E-1,7.6949376E-1,3.9057648E0,4.9579597E0,-6.6936463E-1,2.0483418E0,1.40331E-1,-3.0981261E-2,-1.2043545E-1,-1.0358776E-3,-2.5687547E-2,-9.795895E-2,-3.488504E-2,-1.894999E-1,-1.6483735E-1,-8.161339E-2,1.2970257E-1,2.792249E-1,-8.0891624E-2,4.755522E-2,3.4017584E-1,6.7386615E-1,2.1634746E-2,1.4578056E-1,6.033635E-3,9.505049E-2,2.3193058E-2,-2.1956379E-2,2.3862922E0,4.193151E0,1.7719569E0,1.1126573E0,2.4752233E0,3.6497607E0,2.3329048E0,1.033335E0,1.9758371E0,1.0585071E0,7.033283E-1,-5.7205087E-1,2.0566063E0,1.74291E0,1.0007521E0,1.1615305E0,4.6096286E-1,9.175771E-1,-5.7738304E-1,9.6543103E-1,2.9272904E0,-1.9869047E-1,1.4899007E0,1.5782012E0,7.8020763E-1,1.4559766E0],"categories":[],"categories_nodes":[],"categories_segments":[],"categories_sizes":[],"default_left":[true,true,true,true,true,true,true,false,false,true,true,true,true,true,true,true,true,false,false,true,true,true,true,true,true,true,true,false,true,true,true,true,true,true,true,true,true,true,true,true,true,true,true,false,true,true,true,false,true,false,true,false,true,true,false,true,true,false,false,true,true,true,true,false,true,true,false,true,true,true,true,true,true,false,true,true,true,true,true,true,true,true,true,false,false,false,false,false,false,false,false,false,false,false,false,false,false,false,false,false,false,false,false,false,false,false,false,false,false,false,false,false,false,false,false,false,false,false,false,false,false,false,false,false,false,false,false,false,false,false,false,false,false,false,false,false,false],"id":19,"left_children":[1,3,5,7,9,11,13,-1,-1,15,17,19,21,23,25,27,29,-1,-1,31,33,35,37,39,41,43,45,-1,47,49,51,53,55,57,59,61,63,65,67,69,71,73,75,-1,77,79,81,-1,83,-1,85,-1,87,89,-1,91,93,-1,-1,95,97,99,101,-1,103,105,-1,107,109,111,113,115,117,-1,119,121,123,125,127,129,131,133,135,-1,-1,-1,-1,-1,-1,-1,-1,-1,-1,-1,-1,-1,-1,-1,-1,-1,-1,-1,-1,-1,-1,-1,-1,-1,-1,-1,-1,-1,-1,-1,-1,-1,-1,-1,-1,-1,-1,-1,-1,-1,-1,-1,-1,-1,-1,-1,-1,-1,-1,-1,-1,-1,-1],"loss_changes":[1.8110391E3,6.5202563E2,1.6234043E3,7.4958984E1,1.1898096E2,9.171771E0,2.1870508E2,0E0,0E0,8.9351074E1,1.8816956E1,7.015586E-1,1.7437217E0,7.292432E1,1.3281055E2,3.953352E-1,3.4649292E1,0E0,0E0,1.7575192E-1,9.395981E-2,6.2332964E-1,4.5984077E-1,5.140271E1,2.2216064E1,2.2203674E0,1.715625E1,0E0,6.125107E-1,1.8033936E1,1.4899807E0,3.9674662E-2,1.790671E-2,4.3577947E-2,2.521944E-2,2.1146119E-1,2.119019E-1,1.758321E0,2.885039E-1,5.010974E1,1.3533264E1,1.2512512E0,1.2075073E1,0E0,9.673462E-1,2.5174927E1,9.739258E0,0E0,5.264479E-2,0E0,6.4593506E0,0E0,4.7656703E0,7.02772E-2,0E0,9.76871E-3,1.3213608E-2,0E0,0E0,1.4315128E-2,2.8851032E-2,2.311815E-1,1.9816507E-2,0E0,2.2260022E-1,5.1367477E-2,0E0,3.3355796E-1,7.361369E-2,2.8506775E1,8.333771E0,2.5849548E1,3.2725372E0,0E0,1.4269066E0,1.8982254E0,1.00546875E1,1.322937E-2,1.596405E0,3.5594723E0,9.795959E0,4.722168E0,8.92041E0,0E0,0E0,0E0,0E0,0E0,0E0,0E0,0E0,0E0,0E0,0E0,0E0,0E0,0E0,0E0,0E0,0E0,0E0,0E0,0E0,0E0,0E0,0E0,0E0,0E0,0E0,0E0,0E0,0E0,0E0,0E0,0E0,0E0,0E0,0E0,0E0,0E0,0E0,0E0,0E0,0E0,0E0,0E0,0E0,0E0,0E0,0E0,0E0,0E0,0E0,0E0,0E0,0E0,0E0],"parents":[2147483647,0,0,1,1,2,2,3,3,4,4,5,5,6,6,9,9,10,10,11,11,12,12,13,13,14,14,15,15,16,16,19,19,20,20,21,21,22,22,23,23,24,24,25,25,26,26,28,28,29,29,30,30,31,31,32,32,33,33,34,34,35,35,36,36,37,37,38,38,39,39,40,40,41,41,42,42,44,44,45,45,46,46,48,48,50,50,52,52,53,53,55,55,56,56,59,59,60,60,61,61,62,62,64,64,65,65,67,67,68,68,69,69,70,70,71,71,72,72,74,74,75,75,76,76,77,77,78,78,79,79,80,80,81,81,82,82],"right_children":[2,4,6,8,10,12,14,-1,-1,16,18,20,22,24,26,28,30,-1,-1,32,34,36,38,40,42,44,46,-1,48,50,52,54,56,58,60,62,64,66,68,70,72,74,76,-1,78,80,82,-1,84,-1,86,-1,88,90,-1,92,94,-1,-1,96,98,100,102,-1,104,106,-1,108,110,112,114,116,118,-1,120,122,124,126,128,130,132,134,136,-1,-1,-1,-1,-1,-1,-1,-1,-1,-1,-1,-1,-1,-1,-1,-1,-1,-1,-1,-1,-1,-1,-1,-1,-1,-1,-1,-1,-1,-1,-1,-1,-1,-1,-1,-1,-1,-1,-1,-1,-1,-1,-1,-1,-1,-1,-1,-1,-1,-1,-1,-1,-1,-1],"split_conditions":[6.724138E-2,2.7272727E-2,3.9510223E-1,3.9510223E-1,1.3137093E-1,7.6129995E-2,1.8428159E-1,5.2106947E-2,1.9006662E-1,3.9510223E-1,5.272727E-1,1.8563198E-1,2.082283E-1,2.086207E-1,7.920965E-1,1.3484347E-1,1.3854879E-1,1.8840462E-1,9.808548E-2,1.6379312E-1,3.3636364E-1,8.30303E-1,1.3390663E-1,9.212121E-1,7.920965E-1,1.8427517E-2,1.8427517E-2,1.4280349E-2,5.272727E-1,5.0041294E-1,1.396291E-1,6.818182E-1,4.0821142E-2,1.6878912E-2,3.6677136E-3,5.7586205E-1,1.2068965E-1,5.6940943E-1,6.39179E-1,1.3098669E-1,1.7383868E-1,3.438963E-2,1.9805547E-2,3.622303E-2,3.5487938E-1,1.8986318E-1,6.232445E-1,2.9755894E-2,1.2603529E-1,-3.144552E-3,1.3332734E-1,3.9872486E-2,1.403493E-1,1.1034483E-1,2.4996148E-3,8.30303E-1,7.911548E-1,-1.5043669E-3,2.7579085E-3,1.3390663E-1,8.4482753E-1,6.0565114E-1,7.138999E-2,-6.275688E-4,1.6339576E-1,1.3484347E-1,2.6172888E-2,1.3484347E-1,7.2727275E-1,1.8965518E-1,1.5862069E-1,1.6204537E-1,1.8275116E-1,-7.128447E-5,4.168167E-2,1.8905293E-2,5.4015122E-2,4.2241377E-1,3.7018365E-1,1.4310345E-1,2.095787E-1,3.4520882E-1,6.272056E-1,5.257814E-3,1.5389875E-2,7.811529E-2,9.915919E-2,-1.3387293E-2,4.0966835E-2,2.80662E-3,-6.196252E-4,-2.408709E-3,-2.0717553E-5,-5.1375094E-4,-1.959179E-3,-6.9770083E-4,-3.789998E-3,-3.2967469E-3,-1.6322678E-3,2.5940514E-3,5.584498E-3,-1.6178325E-3,9.511044E-4,6.8035168E-3,1.3477323E-2,4.326949E-4,2.9156113E-3,1.206727E-4,1.9010098E-3,4.6386113E-4,-4.3912756E-4,4.7725845E-2,8.386302E-2,3.5439137E-2,2.2253146E-2,4.9504466E-2,7.2995216E-2,4.6658095E-2,2.06667E-2,3.951674E-2,2.1170141E-2,1.4066566E-2,-1.14410175E-2,4.1132126E-2,3.48582E-2,2.0015042E-2,2.3230609E-2,9.219257E-3,1.8351542E-2,-1.154766E-2,1.9308621E-2,5.854581E-2,-3.9738095E-3,2.9798014E-2,3.1564023E-2,1.5604152E-2,2.911953E-2],"split_indices":[3,2,6,6,7,6,5,0,0,6,2,5,5,3,6,6,5,0,0,3,2,2,11,2,6,11,11,0,2,8,5,2,7,6,6,3,3,5,5,5,5,5,5,0,5,5,5,0,5,0,5,0,5,3,0,2,11,0,0,11,3,11,5,0,5,6,0,6,11,3,3,5,5,0,5,5,5,3,5,3,5,11,5,0,0,0,0,0,0,0,0,0,0,0,0,0,0,0,0,0,0,0,0,0,0,0,0,0,0,0,0,0,0,0,0,0,0,0,0,0,0,0,0,0,0,0,0,0,0,0,0,0,0,0,0,0,0],"split_type":[0,0,0,0,0,0,0,0,0,0,0,0,0,0,0,0,0,0,0,0,0,0,0,0,0,0,0,0,0,0,0,0,0,0,0,0,0,0,0,0,0,0,0,0,0,0,0,0,0,0,0,0,0,0,0,0,0,0,0,0,0,0,0,0,0,0,0,0,0,0,0,0,0,0,0,0,0,0,0,0,0,0,0,0,0,0,0,0,0,0,0,0,0,0,0,0,0,0,0,0,0,0,0,0,0,0,0,0,0,0,0,0,0,0,0,0,0,0,0,0,0,0,0,0,0,0,0,0,0,0,0,0,0,0,0,0,0],"sum_hessian":[7.953E3,1.59E2,7.794E3,2.9E1,1.3E2,7.51E2,7.043E3,2E0,2.7E1,1.23E2,7E0,3.02E2,4.49E2,1.037E3,6.006E3,1.2E1,1.11E2,4E0,3E0,4E1,2.62E2,7.1E1,3.78E2,3.65E2,6.72E2,4.63E2,5.543E3,7E0,5E0,1.03E2,8E0,1.6E1,2.4E1,4E0,2.58E2,5.5E1,1.6E1,1.9E1,3.59E2,2.55E2,1.1E2,4.8E1,6.24E2,3E0,4.6E2,2.8E1,5.515E3,3E0,2E0,1E0,1.02E2,6E0,2E0,1.1E1,5E0,1.1E1,1.3E1,3E0,1E0,9.1E1,1.67E2,4.5E1,1E1,1E0,1.5E1,1.8E1,1E0,1.92E2,1.67E2,1.16E2,1.39E2,8.4E1,2.6E1,1E0,4.7E1,4E0,6.2E2,9.6E1,3.64E2,6E0,2.2E1,2.872E3,2.643E3,1E0,1E0,9E1,1.2E1,1E0,1E0,3E0,8E0,1E1,1E0,9E0,4E0,1E0,9E1,1.61E2,6E0,2.6E1,1.9E1,1E0,9E0,1.2E1,3E0,5E0,1.3E1,6.3E1,1.29E2,1.15E2,5.2E1,1.06E2,1E1,1.13E2,2.6E1,4E1,4.4E1,2.3E1,3E0,2E0,4.5E1,2E0,2E0,1.5E2,4.7E2,7.7E1,1.9E1,9E0,3.55E2,2E0,4E0,2.1E1,1E0,1.308E3,1.564E3,2.1E1,2.622E3],"tree_param":{"num_deleted":"0","num_feature":"12","num_nodes":"137","size_leaf_vector":"0"}},{"base_weights":[1.4349138E0,4.024207E-1,2.3594773E0,1.0618257E-1,6.3410234E-1,2.0066395E1,2.3116457E0,-4.9545713E-2,7.9736984E-1,6.1093224E-3,7.636657E-1,4.452584E0,2.5507387E1,7.6666093E0,2.2570987E0,-2.2009525E-1,7.208325E-2,6.320792E0,7.5395584E-1,-1.3049074E-1,9.199786E-2,1.2720287E0,5.2530956E-1,1.0758476E0,9.23742E0,6.0071987E1,1.1427312E1,1.5758871E1,6.915438E0,1.5251492E0,2.4423854E0,5.1474437E-2,-3.0308357E-1,-2.0709455E0,8.386604E-2,2.6069033E0,8.443295E0,9.6744075E-2,1.0721487E0,6.477027E-1,-1.434062E-1,3.1659356E-1,6.686074E-2,8.926466E-1,1.5627553E0,3.602326E-1,6.586969E-1,5.402266E-1,1.3317262E0,4.77468E-1,2.122972E1,3.2074654E0,8.921785E0,2.0539422E0,1.4530705E0,3.301342E0,2.2950716E0,1.8233718E0,5.562123E-3,-4.0097225E-1,-2.9822585E-1,-1.4258188E-1,1.0849996E-1,3.0606705E-1,5.5158187E-2,7.5099576E-1,1.1744787E0,-2.5100205E-2,-1.5761122E-1,7.890353E-1,1.9838616E-1,1.3901708E-1,2.7940232E-2,3.3791876E-1,1.0646354E0,2.3060958E0,1.4965065E0,3.7658653E-1,-6.89294E-1,5.1381016E-1,8.1563056E-1,1.5304892E0,-1.4739444E0,-7.2388965E-1,3.0747414E1,9.274394E0,1.9717333E0,2.0046017E1,7.12754E0,3.6447172E0,1.992278E0,1.4085649E0,1.7271171E0,2.3562315E0,4.125532E0,2.431516E0,1.9508862E0,-1.3263956E-1,1.0228489E-1,-2.394341E-1,-3.049751E-1,4.226356E-1,-1.6748121E-1,4.1339457E-1,5.298063E-2,1.447337E-1,6.270847E-1,5.040376E-4,1.7971705E-1,8.119304E-1,3.839986E-2,1.1279079E0,1.520042E0,6.924911E-2,-4.2054176E-2,-1.4871958E-1,-1.9116235E-1,3.2263288E-1,1.5521172E-1,1.7219988E-1,7.7244475E-2,-2.0105382E-2,1.0567505E-1,2.4474809E-1,5.2090585E-1,2.6969576E0,1.0329412E0,2.8935533E0,2.028386E0,1.4078228E0,1.8439605E0,3.625175E-1,2.0466132E0,4.2869163E-1,1.1360376E0,3.2311494E0,7.734661E-1,2.4091406E0,1.4282576E0,1.3947564E0,1.0293757E1,1.8422567E0,2.4972599E0,1.3573102E0,1.5967519E0,1.4970669E0,2.4060752E0,3.2060225E0,2.0721557E0,6.1263924E0,3.2692797E0,2.2142353E0,2.9795063E0,2.308308E0,1.8662431E0],"categories":[],"categories_nodes":[],"categories_segments":[],"categories_sizes":[],"default_left":[true,true,true,true,true,true,true,true,true,true,true,true,true,true,true,true,true,true,true,true,true,true,true,true,false,false,true,false,true,true,true,true,true,false,true,false,false,true,true,false,true,true,true,true,true,true,true,false,false,true,true,true,true,true,true,true,true,false,true,false,true,true,true,true,true,true,true,true,true,false,true,true,true,true,true,true,true,true,false,true,true,false,false,false,false,false,true,false,true,false,true,true,true,true,true,true,true,false,false,false,false,false,false,false,false,false,false,false,false,false,false,false,false,false,false,false,false,false,false,false,false,false,false,false,false,false,false,false,false,false,false,false,false,false,false,false,false,false,false,false,false,false,false,false,false,false,false,false,false,false,false,false,false,false,false],"id":20,"left_children":[1,3,5,7,9,11,13,15,17,19,21,23,25,27,29,31,33,35,37,39,41,43,45,47,-1,-1,49,-1,51,53,55,57,59,-1,61,-1,-1,63,65,-1,67,69,71,73,75,77,79,-1,-1,81,83,85,87,89,91,93,95,-1,97,-1,99,101,103,105,107,109,111,113,115,-1,117,119,121,123,125,127,129,131,-1,133,135,-1,-1,-1,-1,-1,137,-1,139,-1,141,143,145,147,149,151,153,-1,-1,-1,-1,-1,-1,-1,-1,-1,-1,-1,-1,-1,-1,-1,-1,-1,-1,-1,-1,-1,-1,-1,-1,-1,-1,-1,-1,-1,-1,-1,-1,-1,-1,-1,-1,-1,-1,-1,-1,-1,-1,-1,-1,-1,-1,-1,-1,-1,-1,-1,-1,-1,-1,-1,-1,-1,-1],"loss_changes":[7.641578E3,2.5955963E2,3.5611523E3,1.7873782E2,1.7267084E2,9.245303E2,1.2245E3,2.812212E1,7.152695E1,4.2662206E0,2.1293262E2,5.039817E1,3.8257334E3,2.206665E2,5.6428516E2,1.2727236E1,2.0011414E1,1.089653E1,6.338185E1,1.4342351E0,1.2483431E0,6.141284E1,2.6292664E1,5.3199053E-2,0E0,0E0,6.7611224E2,0E0,2.8290503E2,3.1098145E1,4.1842188E2,1.0736112E1,1.557312E-1,0E0,4.396655E0,0E0,0E0,8.5390395E-1,6.393524E0,0E0,2.2854972E-1,1.1809533E0,5.6174034E-1,2.3171143E1,1.4422241E1,9.287674E0,1.4901154E1,0E0,0E0,7.60295E0,7.043721E2,1.0120096E2,4.5761255E2,7.3402405E0,8.210205E0,3.754956E2,1.3179004E2,0E0,1.7329241E0,0E0,1.3189697E-1,1.1083201E0,1.2010246E1,8.0464923E-1,5.64705E-1,2.163042E0,1.8742218E0,2.5110584E-2,2.2464752E-2,0E0,7.483089E-2,1.3617492E-1,4.924356E-1,9.4109297E-1,8.657761E0,2.1055298E0,8.095764E0,1.213176E1,0E0,1.810521E1,3.1429535E1,0E0,0E0,0E0,0E0,0E0,1.729744E0,0E0,4.0042566E2,0E0,5.7777405E0,5.4210205E0,1.4727051E1,5.2588745E1,4.374878E2,2.3983008E2,2.2958496E1,0E0,0E0,0E0,0E0,0E0,0E0,0E0,0E0,0E0,0E0,0E0,0E0,0E0,0E0,0E0,0E0,0E0,0E0,0E0,0E0,0E0,0E0,0E0,0E0,0E0,0E0,0E0,0E0,0E0,0E0,0E0,0E0,0E0,0E0,0E0,0E0,0E0,0E0,0E0,0E0,0E0,0E0,0E0,0E0,0E0,0E0,0E0,0E0,0E0,0E0,0E0,0E0,0E0,0E0,0E0,0E0,0E0,0E0],"parents":[2147483647,0,0,1,1,2,2,3,3,4,4,5,5,6,6,7,7,8,8,9,9,10,10,11,11,12,12,13,13,14,14,15,15,16,16,17,17,18,18,19,19,20,20,21,21,22,22,23,23,26,26,28,28,29,29,30,30,31,31,32,32,34,34,37,37,38,38,40,40,41,41,42,42,43,43,44,44,45,45,46,46,49,49,50,50,51,51,52,52,53,53,54,54,55,55,56,56,58,58,60,60,61,61,62,62,63,63,64,64,65,65,66,66,67,67,68,68,70,70,71,71,72,72,73,73,74,74,75,75,76,76,77,77,79,79,80,80,86,86,88,88,90,90,91,91,92,92,93,93,94,94,95,95,96,96],"right_children":[2,4,6,8,10,12,14,16,18,20,22,24,26,28,30,32,34,36,38,40,42,44,46,48,-1,-1,50,-1,52,54,56,58,60,-1,62,-1,-1,64,66,-1,68,70,72,74,76,78,80,-1,-1,82,84,86,88,90,92,94,96,-1,98,-1,100,102,104,106,108,110,112,114,116,-1,118,120,122,124,126,128,130,132,-1,134,136,-1,-1,-1,-1,-1,138,-1,140,-1,142,144,146,148,150,152,154,-1,-1,-1,-1,-1,-1,-1,-1,-1,-1,-1,-1,-1,-1,-1,-1,-1,-1,-1,-1,-1,-1,-1,-1,-1,-1,-1,-1,-1,-1,-1,-1,-1,-1,-1,-1,-1,-1,-1,-1,-1,-1,-1,-1,-1,-1,-1,-1,-1,-1,-1,-1,-1,-1,-1,-1,-1,-1],"split_conditions":[6.621175E-1,1.6666667E-1,2.7272727E-2,7.090609E-2,3.9510223E-1,8.2200134E-1,1.7554916E-2,5.5555556E-2,1.5454546E-1,7.6129995E-2,6.572582E-1,8.0442405E-1,8.349742E-1,7.703592E-1,9.8790765E-1,3.464066E-1,2.7272727E-2,2.4097994E-1,3.443045E-1,1.8181819E-1,1.6591646E-1,6.028142E-1,2.777778E-1,3.3333334E-1,1.847484E-1,1.2014397E0,2.777778E-1,3.151774E-1,8.2218254E-1,1.7725962E-1,1.7131796E-1,1.8181819E-1,3.0518545E-2,-4.141891E-2,8.513586E-2,5.2138064E-2,1.6886589E-1,2.5630176E-1,3.989272E-1,1.29540535E-2,1.8518186E-1,5.998201E-2,8.23977E-2,3.7966675E-1,2.0678791E-1,9.756932E-1,7.008511E-1,1.0804531E-2,2.6634524E-2,8.7090075E-1,8.7090075E-1,9.8790765E-1,8.349742E-1,2.4936981E-2,9.212121E-1,8.2218254E-1,8.4422266E-1,3.6467433E-2,8.513586E-2,-8.0194445E-3,1.1379186E-1,3.3636364E-1,6.572582E-1,8.30303E-1,2.832477E-1,3.92902E-1,7.920965E-1,7.234043E-2,3.096812E-1,1.5780706E-2,4.636298E-2,6.313468E-1,3.0192327E-1,3.443045E-1,3.9791144E-2,5.4735325E-2,6.450739E-1,9.7182214E-1,-1.3785879E-2,7.515304E-1,4.942384E-2,3.0609783E-2,-2.9478887E-2,-1.4477792E-2,6.149483E-1,1.8548788E-1,1.6666667E-1,4.0092033E-1,8.571358E-1,7.289434E-2,9.212121E-1,9.5665354E-1,9.345995E-1,7.7943826E-1,8.349742E-1,8.2218254E-1,3.4308606E-1,-2.652791E-3,2.0456978E-3,-4.788682E-3,-6.0995016E-3,8.452713E-3,-3.349624E-3,8.267892E-3,1.0596126E-3,2.894674E-3,1.2541693E-2,1.0080752E-5,3.594341E-3,1.6238607E-2,7.679972E-4,2.2558156E-2,3.0400839E-2,1.3849821E-3,-8.410835E-4,-2.9743914E-3,-3.8232468E-3,6.4526573E-3,3.1042343E-3,3.4439974E-3,1.5448895E-3,-4.0210763E-4,2.1135008E-3,4.8949616E-3,1.0418117E-2,5.393915E-2,2.0658825E-2,5.7871062E-2,4.0567722E-2,2.8156456E-2,3.6879208E-2,7.25035E-3,4.0932264E-2,8.573832E-3,2.272075E-2,6.462299E-2,1.5469322E-2,4.818281E-2,2.8565152E-2,2.7895128E-2,2.0587514E-1,3.6845133E-2,4.9945194E-2,2.7146203E-2,3.1935036E-2,2.9941337E-2,4.8121504E-2,6.412045E-2,4.1443113E-2,1.22527845E-1,6.5385595E-2,4.4284705E-2,5.9590124E-2,4.6166155E-2,3.732486E-2],"split_indices":[1,4,2,7,6,1,5,4,2,6,1,1,1,1,6,1,2,1,1,2,5,1,4,4,0,0,4,0,1,5,5,2,5,0,6,0,0,5,1,0,5,1,1,1,5,5,10,0,0,1,1,6,1,5,2,1,1,0,6,0,5,2,1,2,1,1,6,10,1,0,5,5,1,1,5,5,1,5,0,5,5,0,0,0,0,0,4,0,1,0,2,1,1,1,1,1,5,0,0,0,0,0,0,0,0,0,0,0,0,0,0,0,0,0,0,0,0,0,0,0,0,0,0,0,0,0,0,0,0,0,0,0,0,0,0,0,0,0,0,0,0,0,0,0,0,0,0,0,0,0,0,0,0,0,0],"split_type":[0,0,0,0,0,0,0,0,0,0,0,0,0,0,0,0,0,0,0,0,0,0,0,0,0,0,0,0,0,0,0,0,0,0,0,0,0,0,0,0,0,0,0,0,0,0,0,0,0,0,0,0,0,0,0,0,0,0,0,0,0,0,0,0,0,0,0,0,0,0,0,0,0,0,0,0,0,0,0,0,0,0,0,0,0,0,0,0,0,0,0,0,0,0,0,0,0,0,0,0,0,0,0,0,0,0,0,0,0,0,0,0,0,0,0,0,0,0,0,0,0,0,0,0,0,0,0,0,0,0,0,0,0,0,0,0,0,0,0,0,0,0,0,0,0,0,0,0,0,0,0,0,0,0,0],"sum_hessian":[8.005E3,3.782E3,4.223E3,1.66E3,2.122E3,1.1E1,4.212E3,1.355E3,3.05E2,3.63E2,1.759E3,3E0,8E0,4.2E1,4.17E3,5.64E2,7.91E2,2E0,3.03E2,1.4E2,2.23E2,5.61E2,1.198E3,2E0,1E0,2E0,6E0,3E0,3.9E1,8.43E2,3.327E3,1.32E2,4.32E2,4E0,7.87E2,1E0,1E0,9.9E1,2.04E2,2E0,1.38E2,2.2E1,2.01E2,2.44E2,3.17E2,5.36E2,6.62E2,1E0,1E0,3E0,3E0,1.4E1,2.5E1,1E2,7.43E2,4.86E2,2.841E3,3E0,1.29E2,1.9E1,4.13E2,7.7E1,7.1E2,1.6E1,8.3E1,5E1,1.54E2,1.5E1,1.23E2,4E0,1.8E1,7E1,1.31E2,5.8E1,1.86E2,2.5E1,2.92E2,5.28E2,8E0,3.45E2,3.17E2,2E0,1E0,1E0,2E0,2E0,1.2E1,3E0,2.2E1,3E0,9.7E1,6.41E2,1.02E2,2.27E2,2.59E2,2.033E3,8.08E2,5.3E1,7.6E1,4.4E1,3.69E2,3E0,7.4E1,1.09E2,6.01E2,1.1E1,5E0,5.8E1,2.5E1,4.6E1,4E0,1.37E2,1.7E1,2E0,1.3E1,9.9E1,2.4E1,4E0,1.4E1,4.5E1,2.5E1,8.1E1,5E1,3.9E1,1.9E1,3E0,1.83E2,7E0,1.8E1,2.34E2,5.8E1,5.24E2,4E0,3.04E2,4.1E1,5E0,3.12E2,6E0,6E0,8E0,1.4E1,7.6E1,2.1E1,5.06E2,1.35E2,7.7E1,2.5E1,5.6E1,1.71E2,7.7E1,1.82E2,1.457E3,5.76E2,1.53E2,6.55E2],"tree_param":{"num_deleted":"0","num_feature":"12","num_nodes":"155","size_leaf_vector":"0"}},{"base_weights":[1.3839221E0,6.220564E-3,1.5274278E0,1.1192563E0,-1.5370596E-2,3.7827725E0,1.480044E0,2.5227153E0,8.223053E-1,-1.426363E-1,6.8911634E-2,3.6131399E0,7.3935423E0,9.302586E-1,1.5242673E0,1.0212419E0,6.382858E-1,8.644229E-2,-1.5001293E-1,1.9385006E-1,5.5673067E-2,-1.4885548E-1,3.64021E0,3.5315707E0,8.900879E0,1.221507E0,9.0677965E-1,2.0517647E0,1.480327E0,5.826144E-1,1.495785E0,7.5142384E-1,4.2307627E-1,1.301791E-1,2.266913E-2,-6.1159547E-2,-1.573045E-1,3.0271223E-1,1.1625047E-1,1.9225736E-1,4.3257028E-2,3.3963125E0,4.2225246E0,1.7121267E0,1.0026534E0,1.0715758E0,8.802092E-1,2.1295204E0,1.0345584E0,1.8061299E0,1.4473277E0,6.827678E-1,2.509579E-1,8.0257595E-2,1.7677784E-1,6.7264825E-2,-8.3785266E-2,-3.651146E-2,-9.9394955E-2,3.5811726E-3,-1.5984564E-1,6.1686672E-2,3.1533605E-1,6.6664964E-2,2.592415E-1,1.5538406E-1,6.5379804E-1,-5.6202733E-3,6.626892E-2,3.483683E0,2.2801583E0,2.153181E0,4.311387E0,2.2594478E0,1.4229689E0,1.4125128E0,9.115939E-1,6.164338E-1,1.0972561E0,9.278791E-1,8.2850623E-1,2.4605184E0,1.9935472E0,1.5441674E0,5.59085E-1,2.4019396E0,1.6667234E0,1.4958214E0,1.3894259E0,3.346019E-3,-5.3428307E-2,-4.6848767E-2,1.3944955E-1,-1.1942241E-1,-1.6570495E-1,1.7444918E-1,2.4012426E-2,2.8401327E-1,8.463462E-2,-8.668768E-2,1.6478765E-1,7.174144E-3,-4.167663E-2,9.162058E-2,2.3600858E-2,5.43897E-1,1.6696748E0,7.078685E-1,1.909185E0,6.556236E-1,1.0861026E0,-9.297966E-2,8.428295E-1,8.233128E-1,9.677565E-1,8.644146E-1,7.498858E-1,2.2961733E0,4.5779686E0,1.5269133E0,2.1028929E0,5.889092E-1,2.1708841E0,-1.3824522E-1,8.0654883E-1,4.140424E0,2.182101E0,1.8322555E0,1.5307721E0,1.4863391E0,1.8501258E0,1.6258777E0,1.3736024E0],"categories":[],"categories_nodes":[],"categories_segments":[],"categories_sizes":[],"default_left":[true,true,true,true,true,true,true,false,true,true,true,true,true,true,true,true,true,true,true,true,true,false,true,false,false,true,true,true,true,true,false,false,false,true,true,true,true,true,true,true,true,true,true,true,true,true,true,true,true,true,true,false,false,false,false,false,false,true,false,true,true,false,false,true,true,true,false,true,true,false,false,false,false,false,true,true,true,true,false,true,true,true,true,true,true,true,true,true,true,false,false,false,false,false,false,false,false,false,false,false,false,false,false,false,false,false,false,false,false,false,false,false,false,false,false,false,false,false,false,false,false,false,false,false,false,false,false,false,false,false,false,false,false],"id":21,"left_children":[1,3,5,7,9,11,13,-1,15,17,19,21,23,25,27,29,31,33,35,37,39,-1,41,-1,-1,43,45,47,49,51,-1,-1,-1,53,55,57,59,61,63,65,67,69,71,73,75,77,79,81,83,85,87,-1,-1,-1,-1,-1,-1,89,-1,91,93,-1,-1,95,97,99,-1,101,103,-1,-1,-1,-1,-1,105,107,109,111,-1,113,115,117,119,121,123,125,127,129,131,-1,-1,-1,-1,-1,-1,-1,-1,-1,-1,-1,-1,-1,-1,-1,-1,-1,-1,-1,-1,-1,-1,-1,-1,-1,-1,-1,-1,-1,-1,-1,-1,-1,-1,-1,-1,-1,-1,-1,-1,-1,-1,-1,-1],"loss_changes":[1.5759717E3,1.8101358E1,7.6956445E2,5.2341156E0,7.9238696E0,8.178955E1,1.7141992E2,0E0,2.1046352E-1,5.0260353E-1,7.2777224E-1,1.4725342E1,2.620929E1,3.2062683E0,1.5062402E2,7.898941E-1,5.5791378E-2,2.2868916E-2,1.7853785E-1,3.3990765E-1,6.761588E-1,0E0,1.5181885E1,0E0,0E0,3.5048294E0,1.8002625E0,3.895166E1,6.404492E1,4.026866E-2,0E0,0E0,0E0,4.0095598E-3,2.221649E-2,1.789897E-2,1.1007881E-1,4.0875196E-2,1.6920957E-1,5.218669E-1,4.164006E-1,7.150879E0,4.228943E0,6.6898346E-1,5.5758667E-1,5.2531433E-1,7.619629E-1,1.9289062E1,8.485905E0,4.4649902E1,1.4675781E1,0E0,0E0,0E0,0E0,0E0,0E0,1.043852E-2,0E0,3.3191673E-2,5.0757885E-2,0E0,0E0,8.465344E-2,1.4120102E-2,7.720351E-2,0E0,5.5181455E-2,2.695043E-1,0E0,0E0,0E0,0E0,0E0,1.472887E0,1.028616E0,7.799835E-1,7.328198E-1,0E0,6.150055E-1,3.4332275E-1,4.3143616E1,1.5834595E1,9.911446E0,3.3829765E0,3.677173E1,9.151123E0,9.0546875E0,8.589844E0,0E0,0E0,0E0,0E0,0E0,0E0,0E0,0E0,0E0,0E0,0E0,0E0,0E0,0E0,0E0,0E0,0E0,0E0,0E0,0E0,0E0,0E0,0E0,0E0,0E0,0E0,0E0,0E0,0E0,0E0,0E0,0E0,0E0,0E0,0E0,0E0,0E0,0E0,0E0,0E0,0E0,0E0,0E0,0E0],"parents":[2147483647,0,0,1,1,2,2,3,3,4,4,5,5,6,6,8,8,9,9,10,10,11,11,12,12,13,13,14,14,15,15,16,16,17,17,18,18,19,19,20,20,22,22,25,25,26,26,27,27,28,28,29,29,33,33,34,34,35,35,36,36,37,37,38,38,39,39,40,40,41,41,42,42,43,43,44,44,45,45,46,46,47,47,48,48,49,49,50,50,57,57,59,59,60,60,63,63,64,64,65,65,67,67,68,68,74,74,75,75,76,76,77,77,79,79,80,80,81,81,82,82,83,83,84,84,85,85,86,86,87,87,88,88],"right_children":[2,4,6,8,10,12,14,-1,16,18,20,22,24,26,28,30,32,34,36,38,40,-1,42,-1,-1,44,46,48,50,52,-1,-1,-1,54,56,58,60,62,64,66,68,70,72,74,76,78,80,82,84,86,88,-1,-1,-1,-1,-1,-1,90,-1,92,94,-1,-1,96,98,100,-1,102,104,-1,-1,-1,-1,-1,106,108,110,112,-1,114,116,118,120,122,124,126,128,130,132,-1,-1,-1,-1,-1,-1,-1,-1,-1,-1,-1,-1,-1,-1,-1,-1,-1,-1,-1,-1,-1,-1,-1,-1,-1,-1,-1,-1,-1,-1,-1,-1,-1,-1,-1,-1,-1,-1,-1,-1,-1,-1,-1,-1],"split_conditions":[3.9510223E-1,7.4137926E-2,6.724138E-2,2.7272727E-2,7.6129995E-2,1.3137093E-1,7.920965E-1,5.0454304E-2,5E-1,1.8427517E-2,5.0082594E-1,5.0041294E-1,9.5682657E-1,5.0082594E-1,1.6034484E-1,8.513586E-2,1.3484347E-1,3.9234042E-1,5.0082594E-1,4.4310343E-1,1.6034484E-1,-2.9771095E-3,3.5106385E-1,7.0631415E-2,1.7801757E-1,3.1941032E-1,2.3620689E-1,8.2186735E-1,5.0082594E-1,4.0821142E-2,2.99157E-2,1.5028477E-2,8.461526E-3,1.3211198E-2,1.6878912E-2,7.0638824E-1,9.6551724E-2,1.9655173E-1,8.30303E-1,1.5E-1,1.3484347E-1,5E-1,8.231776E-1,1.9655173E-1,5.181818E-1,1.15517244E-1,7.008511E-1,3.5106385E-1,1.15517244E-1,5.181818E-1,4.2413792E-1,1.3655356E-2,5.019158E-3,1.6051518E-3,3.5355566E-3,1.3452965E-3,-1.6757053E-3,6.242424E-1,-1.987899E-3,6.068796E-1,2.5344828E-1,1.2337334E-3,6.306721E-3,6.4742017E-1,9.212121E-1,9.3103446E-2,1.3075961E-2,7.2727275E-1,4.6034485E-1,6.967366E-2,4.5603164E-2,4.3063622E-2,8.622774E-2,4.5188956E-2,2.3620689E-1,3.8448274E-1,4.5172414E-1,5.181818E-1,2.194512E-2,3.2068965E-1,6.1551726E-1,1.5E-1,3.3636364E-1,9.533169E-1,3.5106385E-1,2.086207E-1,3.948276E-1,4.1551724E-1,5.181818E-1,6.692038E-5,-1.0685661E-3,-9.369753E-4,2.788991E-3,-2.3884482E-3,-3.314099E-3,3.4889835E-3,4.802485E-4,5.6802654E-3,1.6926923E-3,-1.7337535E-3,3.295753E-3,1.4348287E-4,-8.3353254E-4,1.8324115E-3,4.7201716E-4,1.0877939E-2,3.3393495E-2,1.415737E-2,3.81837E-2,1.3112472E-2,2.1722052E-2,-1.8595932E-3,1.685659E-2,1.6466256E-2,1.935513E-2,1.7288292E-2,1.4997716E-2,4.5923464E-2,9.155937E-2,3.0538265E-2,4.2057857E-2,1.1778184E-2,4.341768E-2,-2.7649044E-3,1.6130976E-2,8.280847E-2,4.3642018E-2,3.664511E-2,3.0615442E-2,2.9726781E-2,3.7002515E-2,3.2517552E-2,2.7472047E-2],"split_indices":[6,3,3,2,6,7,6,0,0,11,8,8,6,8,3,6,6,10,8,3,3,0,10,0,0,11,3,11,8,7,0,0,0,6,6,11,3,3,2,3,6,0,6,3,2,3,10,10,3,2,3,0,0,0,0,0,0,2,0,11,3,0,0,11,2,3,0,11,3,0,0,0,0,0,3,3,3,2,0,3,3,3,2,11,10,3,3,3,2,0,0,0,0,0,0,0,0,0,0,0,0,0,0,0,0,0,0,0,0,0,0,0,0,0,0,0,0,0,0,0,0,0,0,0,0,0,0,0,0,0,0,0,0],"split_type":[0,0,0,0,0,0,0,0,0,0,0,0,0,0,0,0,0,0,0,0,0,0,0,0,0,0,0,0,0,0,0,0,0,0,0,0,0,0,0,0,0,0,0,0,0,0,0,0,0,0,0,0,0,0,0,0,0,0,0,0,0,0,0,0,0,0,0,0,0,0,0,0,0,0,0,0,0,0,0,0,0,0,0,0,0,0,0,0,0,0,0,0,0,0,0,0,0,0,0,0,0,0,0,0,0,0,0,0,0,0,0,0,0,0,0,0,0,0,0,0,0,0,0,0,0,0,0,0,0,0,0,0,0],"sum_hessian":[7.971E3,7.52E2,7.219E3,1.4E1,7.38E2,1.48E2,7.071E3,2E0,1.2E1,2.94E2,4.44E2,1.42E2,6E0,5.27E2,6.544E3,5E0,7E0,9E0,2.85E2,4.2E1,4.02E2,1E0,1.41E2,2E0,4E0,3.8E1,4.89E2,5.02E2,6.042E3,3E0,2E0,4E0,3E0,5E0,4E0,2.2E1,2.63E2,1.7E1,2.5E1,3.3E1,3.69E2,1.01E2,4E1,1.1E1,2.7E1,6.6E1,4.23E2,4.66E2,3.6E1,5.54E2,5.488E3,2E0,1E0,3E0,2E0,3E0,1E0,1.4E1,8E0,4E0,2.59E2,1E0,1.6E1,1.9E1,6E0,3.1E1,2E0,1.18E2,2.51E2,9.3E1,8E0,2E0,3.8E1,3E0,8E0,4E0,2.3E1,4E0,6.2E1,2.17E2,2.06E2,1.34E2,3.32E2,1.7E1,1.9E1,1.04E2,4.5E2,2.982E3,2.506E3,4E0,1E1,3E0,1E0,3.4E1,2.25E2,5E0,1.4E1,5E0,1E0,1E0,3E1,8.7E1,3.1E1,1.57E2,9.4E1,2E0,6E0,2E0,2E0,1E1,1.3E1,1E0,3E0,6.2E1,1.55E2,1.39E2,6.7E1,1.25E2,9E0,6.4E1,2.68E2,7E0,1E1,5E0,1.4E1,1.1E1,9.3E1,2.01E2,2.49E2,2.906E3,7.6E1,1.55E2,2.351E3],"tree_param":{"num_deleted":"0","num_feature":"12","num_nodes":"133","size_leaf_vector":"0"}},{"base_weights":[1.372332E0,3.6127657E-1,2.286027E0,9.865686E-2,5.6433636E-1,8.753262E0,2.1386232E0,-4.052126E-2,6.953526E-1,4.3694433E-3,6.819396E-1,1.0685487E1,6.386604E0,1.4512475E0,2.3193378E0,-2.4339727E-1,1.01516984E-1,8.096833E-2,1.0792602E0,-1.3129331E-1,9.412003E-2,1.2481841E0,4.2899927E-1,5.85505E0,1.8329058E1,1.1992369E0,7.978128E0,1.9265174E0,1.412792E0,2.8223226E0,2.2268882E0,3.534422E-2,-3.3766428E-1,-1.8987685E-1,1.4743689E-1,3.6695966E-1,5.6401376E-2,5.8332276E0,1.0183713E0,6.2489605E-1,-1.4331429E-1,1.885343E-1,4.9016647E-2,8.5314226E-1,1.5132055E0,2.639933E-1,5.704206E-1,1.4764561E1,2.5887592E0,3.8822624E1,1.0275995E1,1.6765457E0,4.060628E-1,5.3001137E0,1.1660632E1,2.494667E0,1.8509839E0,1.2888639E0,1.4883814E0,2.3541641E0,3.2847714E0,2.3407695E0,1.9400281E0,1.7649368E0,-7.239998E-3,-4.8565462E-1,-3.3273888E-1,2.7230266E-1,-3.2587716E-1,-1.5965593E-1,1.81426E-1,6.6190237E-1,2.5447884E-1,-1.0504097E-3,1.7876406E-1,1.9325898E0,8.264408E0,6.9962513E-1,1.1256319E0,-5.9688207E-2,-1.5495887E-1,4.7642386E-1,1.6422403E-1,5.462339E-1,4.0988438E-2,3.3792078E-1,1.0185363E0,2.7873173E0,1.4693906E0,2.3065607E-1,1.6197999E0,1.1064752E-1,6.4227986E-1,9.200828E0,1.9188831E1,8.155701E0,1.6329567E0,6.472719E1,2.7860626E1,-1.9442955E-1,9.546384E-1,3.3666425E0,5.895253E0,1.628342E1,3.7058449E0,1.948537E0,1.4491191E0,1.3071784E0,9.6493316E-1,1.773879E0,1.4668447E0,3.026055E0,2.1103663E0,4.3959074E0,2.7510848E0,2.1336243E0,2.924844E0,2.519877E0,1.8633678E0,-1.446577E-1,9.318686E-2,-1.3810408E-1,-3.3407003E-1,1.4055301E0,2.5621796E-2,-7.8058237E-1,-1.7557797E-1,-1.6639253E-1,-4.5623034E-2,5.280527E-1,1.0437651E-1,1.9168383E-1,4.7839424E-1,9.446376E-2,-9.443588E-2,3.005369E-1,1.3279821E-1,7.8002626E-1,-0E0,1.480812E0,1.094482E0,-1.3183124E-1,-0E0,-6.6764414E-2,-1.6141246E-1,5.9842676E-1,2.279395E-1,3.2562664E-1,1.4311166E-1,6.948955E-1,2.502744E-1,1.1031692E-2,1.7294472E-1,2.1013062E-1,5.256515E-1,1.7840294E0,9.5964766E-1,1.3756264E0,1.8305628E0,-4.0596396E-1,2.6281607E-1,2.2552986E0,1.23117164E-1,-5.798082E-1,2.3255266E-1,1.4632127E0,5.967001E-1,4.388535E0,1.02011595E1,1.0594164E1,1.838322E0,2.2195842E0,1.2683988E0,1.7667723E1,3.4065914E1,1.2107854E0,4.4906056E-1,8.529646E0,-5.8003503E-1,2.3945417E1,7.3650813E0,4.2929854E0,8.603277E-1,1.8673445E0,3.1369457E0,1.0326343E0,1.6841792E0,1.3563446E0,1.1683822E0,1.291706E0,1.8895442E0,1.421686E0,1.5991793E0,3.6031263E0,2.6136923E0,-3.7268066E-1,2.166523E0,5.2268057E0,3.569403E0,5.2923665E0,2.474305E0,-3.359822E-1,2.1510518E0,3.0574155E0,2.2843027E0,1.8691968E0,2.675129E0,2.1433501E0,1.8420495E0],"categories":[],"categories_nodes":[],"categories_segments":[],"categories_sizes":[],"default_left":[true,true,true,true,true,true,true,true,true,true,true,true,true,true,true,true,true,true,true,true,true,true,true,true,true,true,true,true,true,true,true,true,true,true,true,true,true,true,true,false,true,true,true,true,true,true,true,true,true,true,false,false,true,true,true,false,true,true,true,true,true,true,true,false,true,false,true,true,true,true,true,false,true,true,true,false,false,true,true,true,true,true,true,true,true,true,true,false,true,true,true,true,true,true,false,true,true,false,true,false,true,true,false,true,true,true,true,true,false,true,true,true,true,true,true,true,true,true,true,false,false,false,false,false,false,false,false,false,false,false,false,false,false,false,false,false,false,false,false,false,false,false,false,false,false,false,false,false,false,false,false,false,false,false,false,false,false,false,false,false,false,false,false,false,false,false,false,false,false,false,false,false,false,false,false,false,false,false,false,false,false,false,false,false,false,false,false,false,false,false,false,false,false,false,false,false,false,false,false,false,false,false,false,false,false,false,false,false,false],"id":22,"left_children":[1,3,5,7,9,11,13,15,17,19,21,23,25,27,29,31,33,35,37,39,41,43,45,47,49,51,53,55,57,59,61,63,65,67,69,71,73,75,77,-1,79,81,83,85,87,89,91,93,95,97,-1,-1,99,101,103,-1,105,107,109,111,113,115,117,-1,119,-1,121,123,125,127,129,-1,131,133,135,-1,-1,137,139,141,143,145,147,149,151,153,155,-1,157,159,161,163,165,167,-1,169,171,-1,173,-1,175,177,-1,179,181,183,185,187,-1,189,191,193,195,197,199,201,203,205,207,-1,-1,-1,-1,-1,-1,-1,-1,-1,-1,-1,-1,-1,-1,-1,-1,-1,-1,-1,-1,-1,-1,-1,-1,-1,-1,-1,-1,-1,-1,-1,-1,-1,-1,-1,-1,-1,-1,-1,-1,-1,-1,-1,-1,-1,-1,-1,-1,-1,-1,-1,-1,-1,-1,-1,-1,-1,-1,-1,-1,-1,-1,-1,-1,-1,-1,-1,-1,-1,-1,-1,-1,-1,-1,-1,-1,-1,-1,-1,-1,-1,-1,-1,-1,-1,-1,-1,-1,-1,-1],"loss_changes":[7.295214E3,1.9991455E2,3.9481875E3,1.3582828E2,1.3922638E2,3.9923193E2,5.026953E2,3.8230087E1,7.29158E1,4.476174E0,2.5006128E2,1.8222695E3,3.461759E2,1.4494629E1,1.4716211E2,1.4363823E1,1.04502E1,8.2548857E-1,5.301596E1,1.3531849E0,9.360572E-1,5.6000977E1,2.813478E1,8.988436E2,3.0569814E3,3.6554098E0,2.980149E2,1.0731812E0,6.6586914E0,1.0501318E2,8.70957E1,1.0218057E1,2.3207474E-1,6.7141113E0,7.0485353E0,2.4040031E-1,7.7823675E-1,1.6657104E1,6.1502533E0,0E0,1.3440466E-1,4.6401072E-1,5.842533E-1,1.8385864E1,1.656781E1,2.508503E1,2.1451904E1,1.458518E2,1.1957422E2,9.1184033E2,0E0,0E0,1.5002517E0,1.5496155E1,4.699076E2,0E0,1.2183838E0,1.3227844E0,2.064209E0,3.8475586E1,1.4371973E2,2.3272559E2,3.274707E1,0E0,1.8728893E0,0E0,8.0566406E-2,6.7698894E0,5.567478E0,4.616964E-2,1.6192902E1,0E0,6.297675E-2,6.749215E-1,1.7828512E-1,0E0,0E0,2.707819E0,9.754181E-1,7.9515025E-2,6.50568E-2,1.04413986E-1,2.0381093E-1,3.1190157E-2,5.830989E-1,1.2321486E0,6.797928E0,0E0,9.691711E0,1.1198534E1,1.2555481E1,7.4750476E0,2.072084E1,5.723816E0,0E0,4.467926E1,3.3599281E0,0E0,7.264795E1,0E0,9.719992E-2,1.1044185E2,0E0,5.101875E2,7.605591E0,2.252945E0,5.8872795E-1,1.3622131E0,0E0,9.439697E-1,1.9019165E0,1.231781E1,2.5858643E1,4.882141E1,1.1462744E2,6.1998535E1,4.067627E1,7.2921143E0,2.7114258E0,0E0,0E0,0E0,0E0,0E0,0E0,0E0,0E0,0E0,0E0,0E0,0E0,0E0,0E0,0E0,0E0,0E0,0E0,0E0,0E0,0E0,0E0,0E0,0E0,0E0,0E0,0E0,0E0,0E0,0E0,0E0,0E0,0E0,0E0,0E0,0E0,0E0,0E0,0E0,0E0,0E0,0E0,0E0,0E0,0E0,0E0,0E0,0E0,0E0,0E0,0E0,0E0,0E0,0E0,0E0,0E0,0E0,0E0,0E0,0E0,0E0,0E0,0E0,0E0,0E0,0E0,0E0,0E0,0E0,0E0,0E0,0E0,0E0,0E0,0E0,0E0,0E0,0E0,0E0,0E0,0E0,0E0,0E0,0E0,0E0,0E0,0E0,0E0,0E0,0E0],"parents":[2147483647,0,0,1,1,2,2,3,3,4,4,5,5,6,6,7,7,8,8,9,9,10,10,11,11,12,12,13,13,14,14,15,15,16,16,17,17,18,18,19,19,20,20,21,21,22,22,23,23,24,24,25,25,26,26,27,27,28,28,29,29,30,30,31,31,32,32,33,33,34,34,35,35,36,36,37,37,38,38,40,40,41,41,42,42,43,43,44,44,45,45,46,46,47,47,48,48,49,49,52,52,53,53,54,54,56,56,57,57,58,58,59,59,60,60,61,61,62,62,64,64,66,66,67,67,68,68,69,69,70,70,72,72,73,73,74,74,77,77,78,78,79,79,80,80,81,81,82,82,83,83,84,84,85,85,86,86,88,88,89,89,90,90,91,91,92,92,93,93,95,95,96,96,98,98,100,100,101,101,103,103,104,104,105,105,106,106,107,107,109,109,110,110,111,111,112,112,113,113,114,114,115,115,116,116,117,117,118,118],"right_children":[2,4,6,8,10,12,14,16,18,20,22,24,26,28,30,32,34,36,38,40,42,44,46,48,50,52,54,56,58,60,62,64,66,68,70,72,74,76,78,-1,80,82,84,86,88,90,92,94,96,98,-1,-1,100,102,104,-1,106,108,110,112,114,116,118,-1,120,-1,122,124,126,128,130,-1,132,134,136,-1,-1,138,140,142,144,146,148,150,152,154,156,-1,158,160,162,164,166,168,-1,170,172,-1,174,-1,176,178,-1,180,182,184,186,188,-1,190,192,194,196,198,200,202,204,206,208,-1,-1,-1,-1,-1,-1,-1,-1,-1,-1,-1,-1,-1,-1,-1,-1,-1,-1,-1,-1,-1,-1,-1,-1,-1,-1,-1,-1,-1,-1,-1,-1,-1,-1,-1,-1,-1,-1,-1,-1,-1,-1,-1,-1,-1,-1,-1,-1,-1,-1,-1,-1,-1,-1,-1,-1,-1,-1,-1,-1,-1,-1,-1,-1,-1,-1,-1,-1,-1,-1,-1,-1,-1,-1,-1,-1,-1,-1,-1,-1,-1,-1,-1,-1,-1,-1,-1,-1,-1,-1],"split_conditions":[6.621175E-1,1.6666667E-1,7.4137926E-2,7.090609E-2,3.9510223E-1,8.349742E-1,9.8790765E-1,5.5555556E-2,3.443045E-1,7.6129995E-2,6.572582E-1,8.2218254E-1,8.571358E-1,1.7758621E-1,2.5344828E-1,3.7859324E-1,2.086207E-1,1.5517241E-1,5.3448275E-2,3.965517E-2,7.8146935E-2,7.920965E-1,2.777778E-1,7.876776E-1,3.275862E-2,2.777778E-1,2.777778E-1,5.0082594E-1,7.7778685E-1,8.2218254E-1,8.4422266E-1,3.275862E-2,6.724138E-2,3.603642E-1,8.513586E-2,8.62069E-2,3.8609636E-1,3.7589142E-1,3.989272E-1,1.2497921E-2,2.5344828E-1,5.0082594E-1,7.241379E-2,3.7966675E-1,1.4137931E-1,8.7931037E-1,2.1896552E-1,7.5787616E-1,9.8790765E-1,1.6666667E-1,2.055199E-1,3.3530913E-2,3.888889E-1,1.6666667E-1,1.9148937E-1,4.989334E-2,1.6034484E-1,7.738564E-1,5.0082594E-1,7.6706135E-1,8.349742E-1,8.2218254E-1,5.0082594E-1,3.5298735E-2,8.513586E-2,-9.713092E-3,5.2172124E-1,5.3448275E-2,8.275862E-2,8.206897E-1,6.572582E-1,1.3238047E-2,1.8317097E-1,1.4037362E-1,3.1986278E-1,3.8651794E-2,1.6528817E-1,3.92902E-1,1.6034484E-1,1.6851792E-1,1.2389015E-3,5.998201E-2,1.6551724E-1,1.4930731E-1,3.279013E-1,3.443045E-1,5.0082594E-1,5.5746343E-2,6.450739E-1,1.2389015E-3,9.189655E-1,6.2127657E-2,2.6206896E-1,7.3783135E-1,3.837766E-1,3.448276E-2,1.6666667E-1,1.2945437E0,2.777778E-1,-3.888591E-3,8.4844077E-1,9.8790765E-1,1.1790506E-1,3.888889E-1,6.724138E-2,1.5E-1,1.724138E-1,9.5682657E-1,1.9298663E-2,9.5682657E-1,9.9787235E-1,1.6034484E-1,5.5555556E-2,1.6034484E-1,1.2389015E-3,5.5555556E-2,8.349742E-1,8.5870504E-1,1.3234043E-1,-2.893154E-3,1.8637372E-3,-2.7620816E-3,-6.6814004E-3,2.8110601E-2,5.124359E-4,-1.5611647E-2,-3.5115592E-3,-3.3278507E-3,-9.124607E-4,1.0561054E-2,2.0875302E-3,3.8336765E-3,9.567885E-3,1.8892752E-3,-1.8887175E-3,6.0107377E-3,2.655964E-3,1.5600525E-2,-0E0,2.9616239E-2,2.1889638E-2,-2.6366247E-3,-0E0,-1.3352883E-3,-3.2282493E-3,1.1968535E-2,4.55879E-3,6.5125325E-3,2.8622332E-3,1.389791E-2,5.0054877E-3,2.2063384E-4,3.4588943E-3,4.202612E-3,1.051303E-2,3.568059E-2,1.9192953E-2,2.7512528E-2,3.6611255E-2,-8.119279E-3,5.2563213E-3,4.510597E-2,2.4623433E-3,-1.1596163E-2,4.6510533E-3,2.9264254E-2,1.1934001E-2,8.77707E-2,2.0402318E-1,2.1188328E-1,3.676644E-2,4.4391684E-2,2.5367975E-2,3.5335445E-1,6.813183E-1,2.4215708E-2,8.981211E-3,1.7059292E-1,-1.16007E-2,4.7890833E-1,1.4730163E-1,8.585971E-2,1.7206553E-2,3.734689E-2,6.273891E-2,2.0652685E-2,3.3683583E-2,2.7126892E-2,2.3367643E-2,2.5834119E-2,3.7790883E-2,2.843372E-2,3.1983584E-2,7.206252E-2,5.2273843E-2,-7.453613E-3,4.3330457E-2,1.0453611E-1,7.138806E-2,1.0584733E-1,4.9486097E-2,-6.7196437E-3,4.3021034E-2,6.114831E-2,4.5686055E-2,3.7383936E-2,5.350258E-2,4.2867E-2,3.684099E-2],"split_indices":[1,4,3,7,6,1,6,4,1,6,1,1,1,3,3,1,3,3,3,3,1,6,4,1,3,4,4,8,1,1,1,3,3,1,6,3,6,1,1,0,3,8,3,1,3,3,3,1,6,4,0,0,4,4,10,0,3,1,8,1,1,1,8,0,6,0,1,3,3,3,1,0,1,1,1,0,0,1,3,1,8,1,3,1,1,1,8,0,1,8,3,10,3,1,0,3,4,0,4,0,1,6,0,4,3,3,3,6,0,6,10,3,4,3,8,4,1,1,10,0,0,0,0,0,0,0,0,0,0,0,0,0,0,0,0,0,0,0,0,0,0,0,0,0,0,0,0,0,0,0,0,0,0,0,0,0,0,0,0,0,0,0,0,0,0,0,0,0,0,0,0,0,0,0,0,0,0,0,0,0,0,0,0,0,0,0,0,0,0,0,0,0,0,0,0,0,0,0,0,0,0,0,0,0,0,0,0,0,0],"split_type":[0,0,0,0,0,0,0,0,0,0,0,0,0,0,0,0,0,0,0,0,0,0,0,0,0,0,0,0,0,0,0,0,0,0,0,0,0,0,0,0,0,0,0,0,0,0,0,0,0,0,0,0,0,0,0,0,0,0,0,0,0,0,0,0,0,0,0,0,0,0,0,0,0,0,0,0,0,0,0,0,0,0,0,0,0,0,0,0,0,0,0,0,0,0,0,0,0,0,0,0,0,0,0,0,0,0,0,0,0,0,0,0,0,0,0,0,0,0,0,0,0,0,0,0,0,0,0,0,0,0,0,0,0,0,0,0,0,0,0,0,0,0,0,0,0,0,0,0,0,0,0,0,0,0,0,0,0,0,0,0,0,0,0,0,0,0,0,0,0,0,0,0,0,0,0,0,0,0,0,0,0,0,0,0,0,0,0,0,0,0,0,0,0,0,0,0,0,0,0,0,0,0,0,0,0,0,0,0,0],"sum_hessian":[7.897E3,3.749E3,4.148E3,1.635E3,2.114E3,9.2E1,4.056E3,1.326E3,3.09E2,3.67E2,1.747E3,5E1,4.2E1,8.45E2,3.211E3,5.46E2,7.8E2,1.19E2,1.9E2,1.46E2,2.21E2,5.39E2,1.208E3,3.1E1,1.9E1,1E1,3.2E1,6.2E1,7.83E2,4.97E2,2.714E3,1.38E2,4.08E2,1.06E2,6.74E2,9E0,1.1E2,2E0,1.88E2,2E0,1.44E2,7.1E1,1.5E2,2.17E2,3.22E2,5.58E2,6.5E2,8E0,2.3E1,5E0,1.4E1,6E0,4E0,1.9E1,1.3E1,6E0,5.6E1,2.99E2,4.84E2,2.48E2,2.49E2,1.941E3,7.73E2,3E0,1.35E2,1.2E1,3.96E2,2.4E1,8.2E1,6.7E1,6.07E2,2E0,7E0,7.5E1,3.5E1,1E0,1E0,4.8E1,1.4E2,1.8E1,1.26E2,5E0,6.6E1,2E0,1.48E2,5.3E1,1.64E2,1E1,3.12E2,5.45E2,1.3E1,8.8E1,5.62E2,4E0,4E0,3E0,2E1,1E0,4E0,2E0,2E0,5E0,1.4E1,8E0,5E0,4.4E1,1.2E1,2.82E2,1.7E1,3.2E1,4.52E2,6.5E1,1.83E2,8E1,1.69E2,1.434E3,5.07E2,8.9E1,6.84E2,5.7E1,7.8E1,3E0,3.93E2,4E0,2E1,2E1,6.2E1,6.3E1,4E0,1.1E2,4.97E2,6E0,1E0,3.7E1,3.8E1,9E0,2.6E1,4.3E1,5E0,1E1,1.3E2,8E0,1E1,9E0,1.17E2,3E0,2E0,7E0,5.9E1,1E0,1E0,1.21E2,2.7E1,3.2E1,2.1E1,1.1E1,1.53E2,2.49E2,6.3E1,2.6E1,5.19E2,9E0,4E0,1.3E1,7.5E1,2.9E1,5.33E2,1E0,3E0,2E0,1E0,7E0,1.3E1,2E0,2E0,1E0,1E0,2E0,3E0,4E0,4E0,4E0,1E0,4.2E1,2E0,5E0,7E0,2.06E2,7.6E1,7E0,2.5E1,3.4E2,1.12E2,2.6E1,3.9E1,4E0,1.79E2,3.9E1,4.1E1,1.6E1,1.53E2,1E1,1.424E3,4.19E2,8.8E1,1.8E1,7.1E1,4.6E1,6.38E2],"tree_param":{"num_deleted":"0","num_feature":"12","num_nodes":"209","size_leaf_vector":"0"}},{"base_weights":[1.3409607E0,3.5890436E-1,2.2304049E0,9.4223924E-2,5.6091285E-1,8.224288E0,2.1110644E0,-4.438601E-2,6.985432E-1,-2.311584E-3,6.749987E-1,1.6429266E1,6.724973E0,1.4029568E0,2.2924917E0,-2.3856992E-1,8.820613E-2,5.7917256E0,6.41569E-1,2.029364E-1,-5.8182713E-2,1.2186022E0,4.1509026E-1,2.848349E1,-1.1697291E0,1.4818941E1,5.879926E0,2.0066009E0,1.378842E0,2.8615594E0,2.2126877E0,3.3417445E-2,-3.2306412E-1,-2.0294611E0,9.7141474E-2,1.903604E0,7.179812E0,1.6244286E-1,1.0435016E0,6.13722E-1,1.5238062E-1,-1.2807316E-1,1.5786724E-2,8.437572E-1,1.5008333E0,2.52585E-1,5.54336E-1,1.3726595E1,5.813578E1,6.818318E-1,-3.6537182E0,1.0775132E1,2.020481E1,2.6584141E0,7.6946473E0,1.6468058E0,2.4500628E0,1.343381E0,1.6346629E0,2.2457793E0,3.4755697E0,2.328477E0,1.9227198E0,1.4573276E0,6.915665E-3,-5.031997E-1,-3.176732E-1,-1.1810854E-1,1.3029498E-1,8.275089E-2,5.162568E-1,1.612619E0,1.0069733E0,6.702338E-1,1.3875857E-1,2.4608094E-1,1.2246451E-1,5.288142E-1,-1.3390455E-1,-8.997491E-3,1.5252103E-1,3.4196424E-1,9.9944806E-1,2.839761E0,1.4643941E0,3.644517E-1,8.467787E-2,6.0431357E-2,6.2766194E-1,2.5719772E1,3.9537718E0,1.4157981E0,-7.6236606E-1,-1.4953877E0,-4.887638E0,8.753589E0,1.9494958E0,1.3938659E1,5.4824862E0,1.2891313E0,1.9441139E0,3.0828881E0,2.0671804E0,1.3020121E0,1.5152227E0,1.423356E0,2.150194E0,3.2144895E0,1.9819562E0,5.064561E0,2.8884199E0,2.1141381E0,2.893323E0,2.5194843E0,1.8751636E0,-1.3897653E-1,9.708701E-2,-1.5655948E-1,-3.2036462E-1,-3.0033985E-2,-5.6385195E-1,-1.6024071E-1,1.7002606E-1,6.505561E-1,7.04741E-2,7.867811E-1,2.0868334E-1,6.9611675E-1,1.69303E0,8.967077E-1,1.2119813E0,8.4049046E-1,3.7757477E-1,1.5178366E-1,2.9455486E-1,2.893015E-1,1.0291443E-1,-7.0902914E-2,-1.4605395E-1,4.1819643E-2,-3.9872393E-2,1.123742E-1,2.3943464E-1,2.4142018E-1,5.301489E-1,4.373303E0,9.7371453E-1,1.3658118E0,1.8419763E0,2.9409328E-1,6.579916E-1,-2.621939E-2,5.8840847E-1,-3.1478655E-1,3.7073654E-1,1.2724292E0,5.669904E-1,8.806478E0,6.095355E-1,2.2399268E0,1.7181484E0,1.9822687E1,1.173158E1,1.2381358E0,6.511479E0,4.3227143E0,2.274244E0,9.606287E-1,2.1598122E0,1.3220508E0,7.3464656E-1,1.4669782E0,1.7633183E0,1.4640013E0,1.0112087E0,1.3673996E0,3.8785064E0,2.50612E0,5.3258653E0,-4.8465347E-1,2.0470252E0,4.1654363E0,6.573183E0,1.8784916E0,3.438337E0,-1.5525681E-2,2.125723E0,3.0070336E0,2.2302406E0,1.7726873E0,2.7367575E0,1.9344637E0,1.7337512E0],"categories":[],"categories_nodes":[],"categories_segments":[],"categories_sizes":[],"default_left":[true,true,true,true,true,true,true,true,true,true,true,true,true,true,true,true,true,true,true,true,true,true,true,true,true,true,true,true,true,true,true,true,true,false,true,false,false,true,true,true,true,true,true,true,true,true,true,true,false,true,true,false,false,true,true,true,true,true,true,true,true,true,true,false,true,false,true,true,true,true,true,true,true,true,false,true,true,false,true,true,true,true,true,false,true,true,true,true,true,false,true,false,false,false,false,false,true,true,true,false,false,true,true,true,true,true,true,true,true,true,true,true,true,true,true,false,false,false,false,false,false,false,false,false,false,false,false,false,false,false,false,false,false,false,false,false,false,false,false,false,false,false,false,false,false,false,false,false,false,false,false,false,false,false,false,false,false,false,false,false,false,false,false,false,false,false,false,false,false,false,false,false,false,false,false,false,false,false,false,false,false,false,false,false,false,false,false,false,false,false,false,false,false],"id":23,"left_children":[1,3,5,7,9,11,13,15,17,19,21,23,25,27,29,31,33,35,37,39,41,43,45,47,49,51,53,55,57,59,61,63,65,-1,67,-1,-1,69,71,73,75,77,79,81,83,85,87,89,-1,91,93,-1,-1,95,97,99,101,103,105,107,109,111,113,-1,115,-1,117,119,121,123,125,127,129,131,-1,133,135,-1,137,139,141,143,145,-1,147,149,151,153,155,-1,157,-1,-1,-1,-1,-1,159,161,163,-1,-1,165,167,169,171,173,175,177,179,181,183,185,187,189,191,-1,-1,-1,-1,-1,-1,-1,-1,-1,-1,-1,-1,-1,-1,-1,-1,-1,-1,-1,-1,-1,-1,-1,-1,-1,-1,-1,-1,-1,-1,-1,-1,-1,-1,-1,-1,-1,-1,-1,-1,-1,-1,-1,-1,-1,-1,-1,-1,-1,-1,-1,-1,-1,-1,-1,-1,-1,-1,-1,-1,-1,-1,-1,-1,-1,-1,-1,-1,-1,-1,-1,-1,-1,-1,-1,-1,-1,-1],"loss_changes":[6.9450596E3,2.020452E2,2.978584E3,1.3708658E2,1.3773206E2,9.6337695E2,5.244883E2,3.428735E1,8.727069E1,4.1454415E0,2.5162878E2,2.6279507E3,4.4487402E2,1.1188965E1,1.4569922E2,1.2425329E1,1.5011866E1,1.3303612E1,5.8148567E1,1.563916E0,1.4722106E0,6.0516235E1,2.7238922E1,2.9418115E3,2.5403149E1,6.489758E1,3.6328784E2,3.5954971E0,6.5218506E0,1.4830176E2,9.4381836E1,4.8185644E0,3.3539963E-1,0E0,5.6310835E0,0E0,0E0,3.8776786E0,2.8374329E0,1.8112612E-1,1.7904556E-1,5.7852054E-1,4.7129655E-1,1.9267853E1,1.4570984E1,1.0451817E1,2.349379E1,5.907872E2,0E0,3.9027097E0,3.6861553E0,0E0,0E0,9.498009E1,5.313562E2,1.0677032E0,1.0320282E0,4.3374023E0,9.422546E0,4.900006E1,1.8098145E2,2.449082E2,2.1557617E1,0E0,1.665856E0,0E0,1.5049744E-1,4.1211314E0,7.897146E0,7.644536E-1,2.038948E0,2.6075554E-1,3.1188812E0,2.4220514E-1,0E0,5.3384006E-2,1.5843332E-1,0E0,1.0469484E-1,1.8462145E-1,6.044832E-2,1.0689535E0,1.4941864E1,0E0,1.10390625E1,6.8268814E0,1.2489095E1,9.858835E0,2.184848E1,0E0,5.2173225E1,0E0,0E0,0E0,0E0,0E0,9.3574524E-2,5.619629E1,1.296795E2,0E0,0E0,9.7221756E-1,2.2031021E-1,6.1651E0,7.111511E-1,6.324768E-1,3.5136444E1,5.8752777E1,2.5765625E1,6.3059937E1,7.904065E1,3.6563965E1,3.993799E1,7.9452515E0,5.1884766E0,0E0,0E0,0E0,0E0,0E0,0E0,0E0,0E0,0E0,0E0,0E0,0E0,0E0,0E0,0E0,0E0,0E0,0E0,0E0,0E0,0E0,0E0,0E0,0E0,0E0,0E0,0E0,0E0,0E0,0E0,0E0,0E0,0E0,0E0,0E0,0E0,0E0,0E0,0E0,0E0,0E0,0E0,0E0,0E0,0E0,0E0,0E0,0E0,0E0,0E0,0E0,0E0,0E0,0E0,0E0,0E0,0E0,0E0,0E0,0E0,0E0,0E0,0E0,0E0,0E0,0E0,0E0,0E0,0E0,0E0,0E0,0E0,0E0,0E0,0E0,0E0,0E0,0E0],"parents":[2147483647,0,0,1,1,2,2,3,3,4,4,5,5,6,6,7,7,8,8,9,9,10,10,11,11,12,12,13,13,14,14,15,15,16,16,17,17,18,18,19,19,20,20,21,21,22,22,23,23,24,24,25,25,26,26,27,27,28,28,29,29,30,30,31,31,32,32,34,34,37,37,38,38,39,39,40,40,41,41,42,42,43,43,44,44,45,45,46,46,47,47,49,49,50,50,53,53,54,54,55,55,56,56,57,57,58,58,59,59,60,60,61,61,62,62,64,64,66,66,67,67,68,68,69,69,70,70,71,71,72,72,73,73,75,75,76,76,78,78,79,79,80,80,81,81,82,82,84,84,85,85,86,86,87,87,88,88,90,90,96,96,97,97,98,98,101,101,102,102,103,103,104,104,105,105,106,106,107,107,108,108,109,109,110,110,111,111,112,112,113,113,114,114],"right_children":[2,4,6,8,10,12,14,16,18,20,22,24,26,28,30,32,34,36,38,40,42,44,46,48,50,52,54,56,58,60,62,64,66,-1,68,-1,-1,70,72,74,76,78,80,82,84,86,88,90,-1,92,94,-1,-1,96,98,100,102,104,106,108,110,112,114,-1,116,-1,118,120,122,124,126,128,130,132,-1,134,136,-1,138,140,142,144,146,-1,148,150,152,154,156,-1,158,-1,-1,-1,-1,-1,160,162,164,-1,-1,166,168,170,172,174,176,178,180,182,184,186,188,190,192,-1,-1,-1,-1,-1,-1,-1,-1,-1,-1,-1,-1,-1,-1,-1,-1,-1,-1,-1,-1,-1,-1,-1,-1,-1,-1,-1,-1,-1,-1,-1,-1,-1,-1,-1,-1,-1,-1,-1,-1,-1,-1,-1,-1,-1,-1,-1,-1,-1,-1,-1,-1,-1,-1,-1,-1,-1,-1,-1,-1,-1,-1,-1,-1,-1,-1,-1,-1,-1,-1,-1,-1,-1,-1,-1,-1,-1,-1],"split_conditions":[6.621175E-1,1.6666667E-1,6.724138E-2,7.090609E-2,3.9510223E-1,2.7272727E-2,9.8790765E-1,5.5555556E-2,1.8181819E-1,8.23977E-2,6.572582E-1,8.349742E-1,7.703592E-1,1.3793103E-1,2.1896552E-1,3.464066E-1,2.7272727E-2,3.7589142E-1,3.7966675E-1,1.7758621E-1,7.6129995E-2,6.028142E-1,2.777778E-1,8.2218254E-1,8.7090075E-1,7.5787616E-1,8.2218254E-1,7.008511E-1,9.212121E-1,8.2218254E-1,8.4422266E-1,1.8181819E-1,1.8181819E-1,-4.058922E-2,2.086207E-1,3.807208E-2,1.4359623E-1,3.443045E-1,1.6034484E-1,7.9058945E-2,2.862069E-1,1.8181819E-1,3.279013E-1,3.7966675E-1,1.5172413E-1,4.0862072E-1,1.9137931E-1,7.876776E-1,1.1627156E0,2.777778E-1,2.2222222E-1,2.1550263E-1,4.040962E-1,9.8790765E-1,8.349742E-1,8.675038E-1,9.5682657E-1,9.5665354E-1,9.345995E-1,7.6706135E-1,8.349742E-1,8.2218254E-1,4.2424244E-1,2.9146552E-2,8.513586E-2,-1.0063994E-2,5.2628934E-1,1.7758621E-1,8.513586E-2,8.62069E-2,3.7000573E-1,3.5106385E-1,4.4565028E-1,3.5106385E-1,2.7751713E-3,3.593186E-2,9.013972E-3,1.0576284E-2,2.689655E-1,1.4037362E-1,3.5897E-1,3.443045E-1,1.8181819E-1,5.679522E-2,6.450739E-1,3.5344827E-1,7.5E-1,3.9234042E-1,2.6206896E-1,5.143954E-1,9.8790765E-1,2.8315961E-2,-1.5247321E-2,-2.9907754E-2,-9.775276E-2,1.7507178E-1,1.6666667E-1,5.272727E-1,8.5870504E-1,2.5782624E-2,3.8882278E-2,7.4137926E-2,7.59928E-1,9.345995E-1,9.998778E-1,8.835277E-1,3.327586E-1,9.212121E-1,5.5555556E-2,9.212121E-1,8.76709E-1,5.5555556E-2,8.349742E-1,8.76709E-1,3.888889E-1,-2.7795306E-3,1.9417402E-3,-3.1311896E-3,-6.4072926E-3,-6.0067966E-4,-1.1277039E-2,-3.2048142E-3,3.4005211E-3,1.3011121E-2,1.409482E-3,1.573562E-2,4.1736667E-3,1.3922335E-2,3.3860598E-2,1.7934155E-2,2.4239626E-2,1.6809808E-2,7.5514955E-3,3.0356732E-3,5.8910972E-3,5.78603E-3,2.0582885E-3,-1.4180583E-3,-2.921079E-3,8.3639286E-4,-7.9744786E-4,2.247484E-3,4.7886926E-3,4.8284037E-3,1.0602978E-2,8.746605E-2,1.947429E-2,2.7316235E-2,3.6839526E-2,5.8818655E-3,1.3159831E-2,-5.243878E-4,1.1768169E-2,-6.295731E-3,7.4147307E-3,2.5448583E-2,1.1339807E-2,1.7612955E-1,1.219071E-2,4.4798534E-2,3.4362968E-2,3.9645374E-1,2.3463158E-1,2.4762716E-2,1.3022958E-1,8.645429E-2,4.548488E-2,1.9212574E-2,4.3196242E-2,2.6441015E-2,1.46929305E-2,2.9339563E-2,3.5266366E-2,2.9280026E-2,2.0224173E-2,2.7347991E-2,7.7570125E-2,5.01224E-2,1.065173E-1,-9.693069E-3,4.0940505E-2,8.330873E-2,1.3146366E-1,3.7569832E-2,6.876674E-2,-3.105136E-4,4.251446E-2,6.014067E-2,4.460481E-2,3.5453744E-2,5.473515E-2,3.8689274E-2,3.4675024E-2],"split_indices":[1,4,3,7,6,2,6,4,2,1,1,1,1,3,3,1,2,1,1,3,6,1,4,1,1,1,1,10,2,1,1,2,2,0,3,0,0,1,3,1,3,2,1,1,3,3,3,1,0,4,4,0,0,6,1,1,6,1,1,1,1,1,2,0,6,0,1,3,6,3,1,10,1,10,0,1,1,0,3,1,1,1,2,0,1,3,3,10,3,0,6,0,0,0,0,0,4,2,1,0,0,3,1,1,1,1,3,2,4,2,1,4,1,1,4,0,0,0,0,0,0,0,0,0,0,0,0,0,0,0,0,0,0,0,0,0,0,0,0,0,0,0,0,0,0,0,0,0,0,0,0,0,0,0,0,0,0,0,0,0,0,0,0,0,0,0,0,0,0,0,0,0,0,0,0,0,0,0,0,0,0,0,0,0,0,0,0,0,0,0,0,0,0],"split_type":[0,0,0,0,0,0,0,0,0,0,0,0,0,0,0,0,0,0,0,0,0,0,0,0,0,0,0,0,0,0,0,0,0,0,0,0,0,0,0,0,0,0,0,0,0,0,0,0,0,0,0,0,0,0,0,0,0,0,0,0,0,0,0,0,0,0,0,0,0,0,0,0,0,0,0,0,0,0,0,0,0,0,0,0,0,0,0,0,0,0,0,0,0,0,0,0,0,0,0,0,0,0,0,0,0,0,0,0,0,0,0,0,0,0,0,0,0,0,0,0,0,0,0,0,0,0,0,0,0,0,0,0,0,0,0,0,0,0,0,0,0,0,0,0,0,0,0,0,0,0,0,0,0,0,0,0,0,0,0,0,0,0,0,0,0,0,0,0,0,0,0,0,0,0,0,0,0,0,0,0,0,0,0,0,0,0,0,0,0,0,0,0,0],"sum_hessian":[7.951E3,3.779E3,4.172E3,1.636E3,2.143E3,8.1E1,4.091E3,1.331E3,3.05E2,3.61E2,1.782E3,1.2E1,6.9E1,8.35E2,3.256E3,5.4E2,7.91E2,3E0,3.02E2,7.7E1,2.84E2,5.76E2,1.206E3,7E0,5E0,6E0,6.3E1,3.1E1,8.04E2,3.99E2,2.857E3,1.28E2,4.12E2,3E0,7.88E2,1E0,2E0,1.38E2,1.64E2,8E0,6.9E1,1.46E2,1.38E2,2.48E2,3.28E2,5.57E2,6.49E2,5E0,2E0,3E0,2E0,4E0,2E0,2.3E1,4E1,1.8E1,1.3E1,7.08E2,9.6E1,2E2,1.99E2,2.04E3,8.17E2,2E0,1.26E2,1.1E1,4.01E2,1.05E2,6.83E2,1.13E2,2.5E1,9E0,1.55E2,7E0,1E0,1.6E1,5.3E1,1E0,1.45E2,1.17E2,2.1E1,5.9E1,1.89E2,8E0,3.2E2,3.34E2,2.23E2,8.4E1,5.65E2,2E0,3E0,2E0,1E0,1E0,1E0,2E0,2.1E1,1E1,3E1,9E0,9E0,4E0,9E0,5.73E2,1.35E2,6.9E1,2.7E1,4.2E1,1.58E2,5.3E1,1.46E2,1.48E3,5.6E2,5.9E1,7.58E2,4.8E1,7.8E1,7E0,3.94E2,8.8E1,1.7E1,8.2E1,6.01E2,2E0,1.11E2,1.3E1,1.2E1,1E0,8E0,1.02E2,5.3E1,4E0,3E0,6E0,1E1,5E0,4.8E1,2.4E1,1.21E2,4.4E1,7.3E1,1.5E1,6E0,3.9E1,2E1,1E0,1.88E2,2.55E2,6.5E1,2.7E2,6.4E1,1.83E2,4E1,3.8E1,4.6E1,4.8E1,5.17E2,1E0,2E0,8E0,1.3E1,2E0,8E0,6E0,2.4E1,1E0,3E0,1E0,8E0,5.53E2,2E1,1.15E2,2E1,6.2E1,7E0,1.9E1,8E0,3.2E1,1E1,4E0,1.54E2,3.4E1,1.9E1,5.2E1,9.4E1,8E0,1.472E3,4.77E2,8.3E1,1.4E1,4.5E1,5.31E2,2.27E2],"tree_param":{"num_deleted":"0","num_feature":"12","num_nodes":"193","size_leaf_vector":"0"}},{"base_weights":[1.31294E0,3.2762364E-1,2.1988635E0,4.9752492E-2,5.434907E-1,1.0983938E1,2.092957E0,-8.714589E-2,6.516748E-1,-1.7688042E-3,6.6131073E-1,1.7839075E1,8.098997E0,2.2779813E0,1.3624876E0,1.3434023E-1,-1.6332278E-1,1.2383243E-1,9.447351E-1,-1.312458E-1,8.6299494E-2,1.2063576E0,4.1619322E-1,3.6191647E1,1.3883312E1,1.472005E1,6.845324E0,3.826017E0,2.2093682E0,1.7954226E0,1.330945E0,1.3975641E-2,1.9332682E0,-3.2502094E-1,-4.5295805E-2,2.4914885E0,9.389991E-2,6.6853034E-1,1.043977E0,5.2088284E-1,-1.36834E-1,4.8209575E-1,6.683487E-2,5.0362384E-1,1.347968E0,2.1275158E-1,5.796596E-1,4.3744192E-1,6.288443E1,3.60982E0,1.8668344E1,3.9863393E0,1.090891E1,2.4951205E0,4.694251E0,2.7741792E0,2.143871E0,1.7055573E0,2.3041186E0,2.0340571E0,1.3151969E0,1.5553275E0,-1.2146786E-2,2.65395E0,1.7150772E0,-4.6141982E-1,-3.2194442E-1,-8.8908024E-2,3.3203676E-1,3.8017705E-1,6.3038856E-2,1.368526E0,6.008627E-1,1.8032348E0,1.0175725E0,-2.362797E-2,-1.413866E-1,7.6005507E-1,1.7131929E-1,1.5726237E-1,2.5593985E-2,3.0586454E-1,7.6885474E-1,1.2057896E0,1.5729126E0,-3.0641267E-1,2.657346E-1,-9.994525E-2,5.9986764E-1,8.674396E0,1.218468E0,1.3569816E1,2.4954052E1,5.521563E0,7.8458315E-1,8.692603E0,1.6018827E1,2.1285613E0,2.9006197E0,3.0926967E0,5.6722517E0,2.221656E0,3.2692869E0,2.2617075E0,1.8294407E0,1.6960573E0,2.8362193E0,1.8302006E0,1.2953295E0,6.0479575E-1,1.7248418E0,-1.3859324E-1,8.446251E-2,1.2198558E0,1.8817014E0,-4.1014454E-1,-5.544731E-2,-1.3783426E-2,6.2139654E-1,2.3890986E-1,6.4864695E-1,9.530027E-3,1.7519177E-1,5.654357E-1,1.5485994E0,6.545634E-1,1.949183E-3,8.915935E-1,1.1800569E0,1.3842146E-1,-6.53406E-2,-5.8234915E-2,-1.473258E-1,4.094692E-2,3.2696655E-1,3.6258906E-1,1.4540201E-1,-1.8565154E-2,9.449995E-2,2.185047E-1,4.6312365E-1,1.3886468E0,4.6829262E-1,4.3077106E0,1.1891334E0,2.3084426E0,1.5075697E0,-8.2027215E-1,-2.2862159E-1,-1.1220576E0,2.7232176E-1,-4.6638376E-1,1.7012634E0,4.6655354E-1,6.781128E-1,6.002165E-1,1.3915286E0,2.229221E1,-8.2364684E-1,2.7443116E0,1.7025068E1,1.0872504E0,5.579367E-1,9.08936E0,4.028562E0,2.7617087E0,1.8598887E0,3.922815E0,2.514989E0,7.0064936E0,1.9184672E0,9.130128E0,3.5457075E0,2.9139454E0,2.0027122E0,4.5352907E0,2.8430629E0,2.0478685E0,2.7962704E0,2.6231177E0,1.7421781E0,1.5926096E0,2.4037986E0,1.253556E0,1.456599E0],"categories":[],"categories_nodes":[],"categories_segments":[],"categories_sizes":[],"default_left":[true,true,true,true,true,true,true,true,true,true,true,true,true,true,true,true,true,true,true,true,true,true,true,true,true,false,true,true,true,true,true,true,true,true,true,false,true,true,true,false,true,true,true,true,true,true,true,false,false,true,true,true,true,true,true,true,true,false,false,true,true,true,true,false,true,false,false,true,true,true,true,true,true,false,true,true,true,false,true,true,true,true,true,true,true,true,true,true,true,false,true,true,false,true,true,true,false,true,true,true,true,true,true,true,true,false,false,true,true,false,false,false,false,false,false,false,false,false,false,false,false,false,false,false,false,false,false,false,false,false,false,false,false,false,false,false,false,false,false,false,false,false,false,false,false,false,false,false,false,false,false,false,false,false,false,false,false,false,false,false,false,false,false,false,false,false,false,false,false,false,false,false,false,false,false,false,false,false,false,false,false,false,false,false,false],"id":24,"left_children":[1,3,5,7,9,11,13,15,17,19,21,23,25,27,29,31,33,35,37,39,41,43,45,47,49,-1,51,53,55,57,59,61,63,65,67,-1,69,71,73,-1,75,77,79,81,83,85,87,-1,-1,89,91,93,95,97,99,101,103,-1,-1,105,107,109,111,-1,113,-1,-1,115,117,119,121,123,125,-1,127,129,131,-1,133,135,137,139,141,143,145,147,149,151,153,-1,155,157,-1,159,161,163,-1,165,167,169,171,173,175,177,179,-1,-1,181,183,-1,-1,-1,-1,-1,-1,-1,-1,-1,-1,-1,-1,-1,-1,-1,-1,-1,-1,-1,-1,-1,-1,-1,-1,-1,-1,-1,-1,-1,-1,-1,-1,-1,-1,-1,-1,-1,-1,-1,-1,-1,-1,-1,-1,-1,-1,-1,-1,-1,-1,-1,-1,-1,-1,-1,-1,-1,-1,-1,-1,-1,-1,-1,-1,-1,-1,-1,-1,-1,-1,-1,-1,-1,-1,-1,-1],"loss_changes":[6.876841E3,2.2373999E2,3.8517402E3,1.3445245E2,1.3487622E2,9.2710205E2,5.529551E2,2.2436405E1,4.6713608E1,4.261472E0,2.3044843E2,8.723174E2,2.5938086E2,3.4445508E2,1.0483765E1,7.365467E1,1.8870987E1,7.5626884E0,5.0697174E0,5.697825E-1,1.6942883E0,5.302063E1,3.956639E1,2.2169407E3,5.8351074E2,0E0,3.3769202E2,1.5583997E2,1.13822266E2,1.16185E0,7.6341553E0,1.2885907E1,1.7744217E0,1.14414215E-1,9.424874E0,0E0,9.339575E-1,2.1765785E0,2.2013397E0,0E0,7.401109E-2,8.3593106E-1,7.879069E-1,4.644409E0,1.3570679E1,1.4641909E1,9.09581E0,0E0,0E0,4.881773E1,1.5359961E2,8.8582E1,9.289148E1,6.094116E0,1.24552124E2,8.622388E1,1.02615234E2,0E0,0E0,2.7597275E0,6.92395E0,4.782753E-1,3.844543E0,0E0,6.20594E-1,0E0,0E0,5.503495E0,5.948813E0,3.2756948E-1,5.8092314E-1,3.0453205E-1,1.5447159E0,0E0,2.451233E0,4.4784818E-2,6.548667E-2,0E0,9.8514795E-2,1.3671136E-1,4.469358E-1,6.754956E-1,6.89765E0,1.23871155E1,7.0195923E0,1.8945427E0,4.4990616E0,1.300769E1,6.568039E0,0E0,4.9732685E-2,6.7602216E2,0E0,3.7816882E2,2.0870972E-1,4.8737183E0,0E0,3.3812256E0,6.6044006E0,1.4398502E2,3.6649548E2,2.1376526E1,8.750696E1,2.3136621E2,5.1558105E1,0E0,0E0,2.3914108E0,4.279175E0,0E0,0E0,0E0,0E0,0E0,0E0,0E0,0E0,0E0,0E0,0E0,0E0,0E0,0E0,0E0,0E0,0E0,0E0,0E0,0E0,0E0,0E0,0E0,0E0,0E0,0E0,0E0,0E0,0E0,0E0,0E0,0E0,0E0,0E0,0E0,0E0,0E0,0E0,0E0,0E0,0E0,0E0,0E0,0E0,0E0,0E0,0E0,0E0,0E0,0E0,0E0,0E0,0E0,0E0,0E0,0E0,0E0,0E0,0E0,0E0,0E0,0E0,0E0,0E0,0E0,0E0,0E0,0E0,0E0,0E0,0E0,0E0,0E0,0E0,0E0,0E0],"parents":[2147483647,0,0,1,1,2,2,3,3,4,4,5,5,6,6,7,7,8,8,9,9,10,10,11,11,12,12,13,13,14,14,15,15,16,16,17,17,18,18,19,19,20,20,21,21,22,22,23,23,24,24,26,26,27,27,28,28,29,29,30,30,31,31,32,32,33,33,34,34,36,36,37,37,38,38,40,40,41,41,42,42,43,43,44,44,45,45,46,46,49,49,50,50,51,51,52,52,53,53,54,54,55,55,56,56,59,59,60,60,61,61,62,62,64,64,67,67,68,68,69,69,70,70,71,71,72,72,74,74,75,75,76,76,78,78,79,79,80,80,81,81,82,82,83,83,84,84,85,85,86,86,87,87,88,88,90,90,91,91,93,93,94,94,95,95,97,97,98,98,99,99,100,100,101,101,102,102,103,103,104,104,107,107,108,108],"right_children":[2,4,6,8,10,12,14,16,18,20,22,24,26,28,30,32,34,36,38,40,42,44,46,48,50,-1,52,54,56,58,60,62,64,66,68,-1,70,72,74,-1,76,78,80,82,84,86,88,-1,-1,90,92,94,96,98,100,102,104,-1,-1,106,108,110,112,-1,114,-1,-1,116,118,120,122,124,126,-1,128,130,132,-1,134,136,138,140,142,144,146,148,150,152,154,-1,156,158,-1,160,162,164,-1,166,168,170,172,174,176,178,180,-1,-1,182,184,-1,-1,-1,-1,-1,-1,-1,-1,-1,-1,-1,-1,-1,-1,-1,-1,-1,-1,-1,-1,-1,-1,-1,-1,-1,-1,-1,-1,-1,-1,-1,-1,-1,-1,-1,-1,-1,-1,-1,-1,-1,-1,-1,-1,-1,-1,-1,-1,-1,-1,-1,-1,-1,-1,-1,-1,-1,-1,-1,-1,-1,-1,-1,-1,-1,-1,-1,-1,-1,-1,-1,-1,-1,-1,-1,-1],"split_conditions":[6.621175E-1,1.6666667E-1,5E-1,7.090609E-2,4.2840246E-2,2.7272727E-2,7.090609E-2,6.572582E-1,3.443045E-1,8.981001E-3,6.572582E-1,1.6666667E-1,7.7843237E-1,1.8427517E-2,5.0082594E-1,5.0793403E-1,5.5555556E-2,5E-1,3.989272E-1,5E-1,1.8427517E-2,3.989272E-1,2.777778E-1,8.0838656E-1,2.777778E-1,2.94401E-1,8.571358E-1,6.818182E-1,5.0082594E-1,9.859468E-1,1.8427517E-2,5E-1,5.0082594E-1,5E-1,9.533169E-1,4.982977E-2,1.3390663E-1,1.3759214E-1,1.2285012E-2,1.0417657E-2,4.2424244E-1,7.992136E-2,8.23977E-2,3.7966675E-1,6.341465E-1,5.0082594E-1,6.142506E-3,8.748838E-3,1.2576885E0,8.1822E-1,8.7090075E-1,8.349742E-1,2.777778E-1,8.2218254E-1,8.2218254E-1,8.2218254E-1,8.4422266E-1,3.4111146E-2,4.608237E-2,6.818182E-1,3.3636364E-1,1.5337423E-3,2.3846036E-2,5.3078998E-2,6.341465E-1,-9.228396E-3,-6.438888E-3,3.3636364E-1,7.5757575E-1,9.212121E-1,3.704274E-2,6.5110564E-2,3.92902E-1,3.6064696E-2,4.4565028E-1,1.6281264E-2,1.2389015E-3,1.5201101E-2,6.818182E-1,5.0082594E-1,2.9885685E-1,3.443045E-1,3.8608843E-1,5E-1,5.0082594E-1,5.181818E-1,2.7272727E-2,5E-1,6.242424E-1,1.734879E-1,8.31193E-1,8.3943033E-1,4.9908102E-1,8.2218254E-1,2.777778E-1,9.28372E-1,3.2037655E-1,7.6706135E-1,8.349742E-1,7.759628E-1,8.349742E-1,7.6706135E-1,8.349742E-1,8.2218254E-1,4.2424244E-1,3.3921145E-2,5.6724384E-2,5.8854413E-1,9.5665354E-1,1.2095915E-2,3.4496836E-2,-2.7718649E-3,1.6892501E-3,2.4397114E-2,3.7634026E-2,-8.202891E-3,-1.1089462E-3,-2.756685E-4,1.2427931E-2,4.778197E-3,1.2972939E-2,1.9060055E-4,3.5038355E-3,1.1308714E-2,3.0971987E-2,1.3091268E-2,3.8983657E-5,1.783187E-2,2.3601139E-2,2.7684292E-3,-1.306812E-3,-1.1646983E-3,-2.9465158E-3,8.1893837E-4,6.539331E-3,7.251781E-3,2.9080403E-3,-3.7130306E-4,1.889999E-3,4.370094E-3,9.262472E-3,2.7772937E-2,9.365852E-3,8.615421E-2,2.3782667E-2,4.6168853E-2,3.0151393E-2,-1.6405443E-2,-4.5724316E-3,-2.244115E-2,5.446435E-3,-9.327675E-3,3.4025267E-2,9.331071E-3,1.3562256E-2,1.200433E-2,2.7830571E-2,4.4584417E-1,-1.6472936E-2,5.488623E-2,3.4050137E-1,2.1745006E-2,1.1158735E-2,1.8178721E-1,8.057124E-2,5.5234175E-2,3.7197772E-2,7.84563E-2,5.029978E-2,1.4012986E-1,3.8369343E-2,1.8260255E-1,7.091415E-2,5.8278907E-2,4.0054243E-2,9.070581E-2,5.6861255E-2,4.095737E-2,5.5925407E-2,5.2462354E-2,3.484356E-2,3.1852193E-2,4.807597E-2,2.507112E-2,2.9131979E-2],"split_indices":[1,4,0,7,9,2,7,1,1,9,1,4,1,11,8,1,4,0,1,0,11,1,4,1,4,0,1,2,8,1,11,0,8,0,11,0,11,11,11,0,2,1,1,1,1,8,11,0,0,1,1,1,4,1,1,1,1,0,0,2,2,7,9,0,1,0,0,2,2,2,9,11,1,0,1,7,8,0,2,8,1,1,1,0,8,2,2,4,2,0,1,1,0,1,4,1,0,1,1,1,1,1,1,1,2,0,0,7,1,0,0,0,0,0,0,0,0,0,0,0,0,0,0,0,0,0,0,0,0,0,0,0,0,0,0,0,0,0,0,0,0,0,0,0,0,0,0,0,0,0,0,0,0,0,0,0,0,0,0,0,0,0,0,0,0,0,0,0,0,0,0,0,0,0,0,0,0,0,0,0,0,0,0,0,0],"split_type":[0,0,0,0,0,0,0,0,0,0,0,0,0,0,0,0,0,0,0,0,0,0,0,0,0,0,0,0,0,0,0,0,0,0,0,0,0,0,0,0,0,0,0,0,0,0,0,0,0,0,0,0,0,0,0,0,0,0,0,0,0,0,0,0,0,0,0,0,0,0,0,0,0,0,0,0,0,0,0,0,0,0,0,0,0,0,0,0,0,0,0,0,0,0,0,0,0,0,0,0,0,0,0,0,0,0,0,0,0,0,0,0,0,0,0,0,0,0,0,0,0,0,0,0,0,0,0,0,0,0,0,0,0,0,0,0,0,0,0,0,0,0,0,0,0,0,0,0,0,0,0,0,0,0,0,0,0,0,0,0,0,0,0,0,0,0,0,0,0,0,0,0,0,0,0,0,0,0,0,0,0,0,0,0,0],"sum_hessian":[7.878E3,3.73E3,4.148E3,1.631E3,2.099E3,4.9E1,4.099E3,1.329E3,3.02E2,3.73E2,1.726E3,1.4E1,3.5E1,3.27E3,8.29E2,3.4E2,9.89E2,1.08E2,1.94E2,1.51E2,2.22E2,5.35E2,1.191E3,2E0,1.2E1,5E0,3E1,1.38E2,3.132E3,5.5E1,7.74E2,3.19E2,2.1E1,4.17E2,5.72E2,1E0,1.07E2,5.2E1,1.42E2,1E0,1.5E2,1E1,2.12E2,9E1,4.45E2,5.31E2,6.6E2,1E0,1E0,4E0,8E0,1.8E1,1.2E1,5.5E1,8.3E1,3.24E2,2.808E3,4.8E1,7E0,1.6E1,7.58E2,5E0,3.14E2,4E0,1.7E1,8E0,4.09E2,5.13E2,5.9E1,1E1,9.7E1,4E0,4.8E1,4E0,1.38E2,6E0,1.44E2,5E0,5E0,6.6E1,1.46E2,5.2E1,3.8E1,2.74E2,1.71E2,4.9E1,4.82E2,1.9E1,6.41E2,1E0,3E0,5E0,3E0,1.2E1,6E0,9E0,3E0,3E1,2.5E1,3.2E1,5.1E1,1.54E2,1.7E2,2.041E3,7.67E2,1.2E1,4E0,2.7E1,7.31E2,1E0,4E0,1.36E2,1.78E2,5E0,1.2E1,4.8E1,4.65E2,2.7E1,3.2E1,7E0,3E0,6.6E1,3.1E1,1E0,3E0,4.4E1,4E0,7.9E1,5.9E1,1E0,5E0,1E1,1.34E2,3E0,2E0,3E0,6.3E1,8.9E1,5.7E1,3.4E1,1.8E1,1.2E1,2.6E1,1E0,2.73E2,1.3E1,1.58E2,6E0,4.3E1,2E0,4.8E2,1.6E1,3E0,2.38E2,4.03E2,1E0,2E0,3E0,2E0,1E1,2E0,2E0,4E0,8E0,1E0,8E0,2.2E1,6E0,1.9E1,7E0,2.5E1,1.9E1,3.2E1,3.6E1,1.18E2,4.2E1,1.28E2,1.459E3,5.82E2,7.5E1,6.92E2,2E1,7E0,5.83E2,1.48E2],"tree_param":{"num_deleted":"0","num_feature":"12","num_nodes":"185","size_leaf_vector":"0"}},{"base_weights":[1.2929024E0,5.432813E-3,1.4290289E0,9.967196E-1,-9.523561E-3,3.951043E0,1.3637788E0,1.2921523E0,5.809011E-1,-1.283958E-1,6.7553714E-2,1.93037E0,4.9953747E0,1.5604079E-1,1.4744455E0,1.5641853E0,5.9619045E-1,-1.1969906E-2,-1.3862662E-1,2.1825403E-1,4.999463E-2,2.750165E-1,2.709921E0,4.7516294E0,9.091775E0,-2.971307E-1,1.1367635E0,1.1874675E0,1.5621054E0,-4.2049445E-2,1.2679853E-1,-2.7068155E-2,-1.432509E-1,2.986427E-1,8.4884636E-2,2.8705135E-1,4.192113E-2,-4.1224134E-1,5.641431E0,6.798777E0,2.5558007E0,5.1232586E0,4.1343718E0,1.5864279E1,4.7420154E0,-2.3960815E-1,-3.1311798E-1,9.054971E-1,1.4188136E0,1.5928288E0,1.1422021E0,1.6482836E0,1.1785878E0,1.6865617E-2,-1.2927228E-1,-8.7716535E-2,2.31774E-2,-1.5817995E-1,-1.3588554E-1,7.119246E-1,2.751739E-1,3.8094927E-2,2.2982346E-1,1.3999857E-1,5.78394E-1,8.307003E-2,2.0421524E-2,8.009542E0,1.8518263E0,3.288488E0,2.3999426E0,5.395088E0,3.5721483E0,2.944064E0,4.910172E0,8.544292E0,1.9206264E1,-2.761708E-1,4.9551952E-1,1.2503268E0,8.720372E-1,3.0094593E0,1.3671851E0,1.2133371E0,1.8012058E0,1.5608202E0,1.108429E0,2.2702672E0,1.5971696E0,8.941557E-1,1.3103149E0,1.3908793E-1,-2.5860686E-2,-1.637065E-1,-9.699346E-2,-0E0,-1.0616665E-1,6.613483E-2,-0E0,-1.2179912E-1,-1.6600983E-1,-6.9317825E-2,-1.3840175E-1,3.5821202E-1,2.4687797E-1,8.83022E-2,-0E0,2.6153436E-1,8.238041E-2,1.5557542E-1,6.492504E-2,1.19966924E-1,5.939517E-2,3.5457835E-2,-1.3853197E-2,2.3054574E0,4.221827E0,5.002197E0,5.874919E0,2.216112E0,6.600528E0,5.3822126E0,2.7123678E0,-3.3754715E-1,-8.6097926E-2,1.1986209E0,-2.7228272E-1,1.4622831E0,7.8184336E-1,7.642619E-1,9.518639E-1,1.7161957E0,1.3100356E0,1.3297703E0,2.5864705E-1,2.1190038E0,1.5314652E0,1.8164703E0,1.1128052E0,1.0781555E0,1.287985E0,2.106984E0,3.5762494E0,1.938999E0,1.5625308E0,1.304296E0,8.6991584E-1,1.6924125E0,1.25235E0],"categories":[],"categories_nodes":[],"categories_segments":[],"categories_sizes":[],"default_left":[true,true,true,true,true,true,true,true,false,true,true,true,true,true,true,false,false,true,true,true,true,true,true,true,true,true,true,true,true,true,false,true,true,true,true,true,true,false,true,false,true,true,true,true,false,true,false,true,true,true,true,true,true,true,true,true,true,true,true,false,true,true,true,true,false,true,true,false,false,false,true,true,true,false,true,false,false,true,true,true,true,false,true,true,true,true,true,true,true,true,true,false,false,false,false,false,false,false,false,false,false,false,false,false,false,false,false,false,false,false,false,false,false,false,false,false,false,false,false,false,false,false,false,false,false,false,false,false,false,false,false,false,false,false,false,false,false,false,false,false,false,false,false,false,false,false,false,false,false],"id":25,"left_children":[1,3,5,7,9,11,13,15,-1,17,19,21,23,25,27,-1,-1,29,31,33,35,37,39,41,43,45,47,49,51,53,-1,55,57,59,61,63,65,-1,67,-1,69,71,73,75,-1,77,-1,79,81,83,85,87,89,91,93,95,97,99,101,-1,103,105,107,109,-1,111,113,-1,-1,-1,115,117,119,-1,121,-1,-1,123,125,127,129,-1,131,133,135,137,139,141,143,145,147,-1,-1,-1,-1,-1,-1,-1,-1,-1,-1,-1,-1,-1,-1,-1,-1,-1,-1,-1,-1,-1,-1,-1,-1,-1,-1,-1,-1,-1,-1,-1,-1,-1,-1,-1,-1,-1,-1,-1,-1,-1,-1,-1,-1,-1,-1,-1,-1,-1,-1,-1,-1,-1,-1,-1,-1,-1,-1],"loss_changes":[1.3947441E3,1.130482E1,1.1825332E3,1.1152506E0,6.8785768E0,3.7934497E2,9.3767676E2,8.5728645E-1,0E0,3.490801E-1,1.1974199E0,8.014601E1,1.04548096E2,2.6204535E2,1.6103125E2,0E0,0E0,1.0213925E-1,1.3625193E-1,4.9355626E-1,7.727947E-1,7.584222E1,2.0749542E1,1.8802246E1,1.6119568E2,3.380165E-1,1.16927185E1,2.6975342E1,1.6199902E2,1.06818825E-1,0E0,3.6135167E-2,1.7263412E-2,2.0510411E-1,1.1758989E-1,5.3399277E-1,3.4770375E-1,0E0,1.585424E1,0E0,2.0071106E0,2.2679077E1,3.6006714E1,1.9645386E0,0E0,2.4436293E0,0E0,7.983856E-1,5.409073E0,1.111618E1,1.8546753E1,1.26487305E2,3.3460938E1,6.7221254E-2,2.489686E-4,7.8073703E-3,6.803888E-3,1.28901005E-2,2.3540974E-2,0E0,2.845192E-2,2.858277E-2,8.171022E-3,4.4011027E-3,0E0,1.1328316E-1,1.3463885E-1,0E0,0E0,0E0,2.7434845E0,1.0419922E0,4.153833E1,0E0,2.233606E1,0E0,0E0,9.7976446E-1,2.4614398E0,4.1423702E-1,5.5311584E-1,0E0,8.2936096E-1,5.9022293E0,7.123749E0,1.0775833E1,6.326782E0,6.2303955E1,4.2918945E1,2.4472198E0,1.2924072E1,0E0,0E0,0E0,0E0,0E0,0E0,0E0,0E0,0E0,0E0,0E0,0E0,0E0,0E0,0E0,0E0,0E0,0E0,0E0,0E0,0E0,0E0,0E0,0E0,0E0,0E0,0E0,0E0,0E0,0E0,0E0,0E0,0E0,0E0,0E0,0E0,0E0,0E0,0E0,0E0,0E0,0E0,0E0,0E0,0E0,0E0,0E0,0E0,0E0,0E0,0E0,0E0,0E0,0E0,0E0,0E0,0E0,0E0],"parents":[2147483647,0,0,1,1,2,2,3,3,4,4,5,5,6,6,7,7,9,9,10,10,11,11,12,12,13,13,14,14,17,17,18,18,19,19,20,20,21,21,22,22,23,23,24,24,25,25,26,26,27,27,28,28,29,29,31,31,32,32,33,33,34,34,35,35,36,36,38,38,40,40,41,41,42,42,43,43,45,45,47,47,48,48,49,49,50,50,51,51,52,52,53,53,54,54,55,55,56,56,57,57,58,58,60,60,61,61,62,62,63,63,65,65,66,66,70,70,71,71,72,72,74,74,77,77,78,78,79,79,80,80,82,82,83,83,84,84,85,85,86,86,87,87,88,88,89,89,90,90],"right_children":[2,4,6,8,10,12,14,16,-1,18,20,22,24,26,28,-1,-1,30,32,34,36,38,40,42,44,46,48,50,52,54,-1,56,58,60,62,64,66,-1,68,-1,70,72,74,76,-1,78,-1,80,82,84,86,88,90,92,94,96,98,100,102,-1,104,106,108,110,-1,112,114,-1,-1,-1,116,118,120,-1,122,-1,-1,124,126,128,130,-1,132,134,136,138,140,142,144,146,148,-1,-1,-1,-1,-1,-1,-1,-1,-1,-1,-1,-1,-1,-1,-1,-1,-1,-1,-1,-1,-1,-1,-1,-1,-1,-1,-1,-1,-1,-1,-1,-1,-1,-1,-1,-1,-1,-1,-1,-1,-1,-1,-1,-1,-1,-1,-1,-1,-1,-1,-1,-1,-1,-1,-1,-1,-1,-1],"split_conditions":[4.2840246E-2,7.4137926E-2,7.4137926E-2,5E-1,8.981001E-3,1.6666667E-1,5.5555556E-2,1.6666667E-1,1.1618022E-2,1.6034484E-1,5.0082594E-1,5.5555556E-2,1.3137093E-1,7.090609E-2,1.6666667E-1,3.1283703E-2,1.1923809E-2,1.5E-1,1.2389015E-3,5.8793104E-1,1.8427517E-2,7.090609E-2,5.0082594E-1,6.545454E-1,2.7272727E-2,2.689655E-1,1.3137093E-1,5.0082594E-1,7.090609E-2,4.5757577E-1,2.5359704E-3,1.6666667E-1,1.6281264E-2,1.8275861E-1,8.30303E-1,6.818182E-1,3.2068965E-1,-8.244826E-3,2.7272727E-2,1.3597554E-1,2.7272727E-2,3.888889E-1,2.777778E-1,2.777778E-1,9.48403E-2,2.6206896E-1,-6.2623597E-3,1.3390663E-1,2.0884521E-2,4.1296717E-4,1.6034484E-1,1.6034484E-1,1.3137093E-1,1.1034483E-1,3.3333334E-1,5.5555556E-2,3.7931034E-1,5.5555556E-2,4.2424244E-1,1.4238492E-2,3.0344826E-1,6.621622E-1,7.0638824E-1,1.6666667E-1,1.15678795E-2,6.666666E-1,4.436055E-2,1.6019085E-1,3.7036527E-2,6.5769754E-2,5.8854413E-1,2.777778E-1,5E-1,5.8881275E-2,5E-1,1.7088585E-1,3.841253E-1,2.3620689E-1,5.0082594E-1,1.6034484E-1,3.327586E-1,6.0189184E-2,5.0082594E-1,9.212121E-1,7.5757575E-1,2.923833E-1,1.3137093E-1,1.5E-1,5.0082594E-1,1.2389015E-3,2.5344828E-1,2.7817586E-3,-5.172137E-4,-3.27413E-3,-1.9398691E-3,-0E0,-2.123333E-3,1.3226967E-3,-0E0,-2.4359822E-3,-3.3201964E-3,-1.3863564E-3,-2.7680348E-3,7.1642403E-3,4.9375594E-3,1.7660441E-3,-0E0,5.230687E-3,1.6476081E-3,3.1115084E-3,1.2985007E-3,2.3993384E-3,1.1879035E-3,7.091567E-4,-2.7706393E-4,4.6109147E-2,8.4436536E-2,1.0004393E-1,1.17498375E-1,4.4322237E-2,1.3201055E-1,1.0764425E-1,5.4247353E-2,-6.750943E-3,-1.7219585E-3,2.3972418E-2,-5.445654E-3,2.9245662E-2,1.5636867E-2,1.5285238E-2,1.9037277E-2,3.4323912E-2,2.6200712E-2,2.6595406E-2,5.172941E-3,4.2380076E-2,3.0629303E-2,3.6329404E-2,2.2256104E-2,2.1563109E-2,2.5759699E-2,4.2139675E-2,7.1524985E-2,3.877998E-2,3.1250615E-2,2.608592E-2,1.7398316E-2,3.384825E-2,2.5046999E-2],"split_indices":[9,3,3,0,9,4,4,4,0,3,8,4,7,7,4,0,0,3,8,3,11,7,8,2,2,3,7,8,7,2,0,4,7,3,2,2,3,0,2,0,2,4,4,4,0,3,0,11,11,8,3,3,7,3,4,4,3,4,2,0,3,11,11,4,0,2,7,0,0,0,7,4,0,0,4,0,0,3,8,3,3,0,8,2,2,11,7,3,8,8,3,0,0,0,0,0,0,0,0,0,0,0,0,0,0,0,0,0,0,0,0,0,0,0,0,0,0,0,0,0,0,0,0,0,0,0,0,0,0,0,0,0,0,0,0,0,0,0,0,0,0,0,0,0,0,0,0,0,0],"split_type":[0,0,0,0,0,0,0,0,0,0,0,0,0,0,0,0,0,0,0,0,0,0,0,0,0,0,0,0,0,0,0,0,0,0,0,0,0,0,0,0,0,0,0,0,0,0,0,0,0,0,0,0,0,0,0,0,0,0,0,0,0,0,0,0,0,0,0,0,0,0,0,0,0,0,0,0,0,0,0,0,0,0,0,0,0,0,0,0,0,0,0,0,0,0,0,0,0,0,0,0,0,0,0,0,0,0,0,0,0,0,0,0,0,0,0,0,0,0,0,0,0,0,0,0,0,0,0,0,0,0,0,0,0,0,0,0,0,0,0,0,0,0,0,0,0,0,0,0,0],"sum_hessian":[7.958E3,7.61E2,7.197E3,1.1E1,7.5E2,1.81E2,7.016E3,6E0,5E0,2.95E2,4.55E2,6.2E1,1.19E2,5.89E2,6.427E3,4E0,2E0,2.4E1,2.71E2,4.7E1,4.08E2,2E1,4.2E1,1.13E2,6E0,4.03E2,1.86E2,1.505E3,4.922E3,2E1,4E0,1.1E1,2.6E2,2.9E1,1.8E1,1.3E1,3.95E2,1.8E1,2E0,1E0,4.1E1,6.9E1,4.4E1,2E0,4E0,8.9E1,3.14E2,1.03E2,8.3E1,1.5E2,1.355E3,4.018E3,9.04E2,1.2E1,8E0,5E0,6E0,8.3E1,1.77E2,1E0,2.8E1,1.4E1,4E0,9E0,4E0,1.35E2,2.6E2,1E0,1E0,6E0,3.5E1,5.8E1,1.1E1,1.8E1,2.6E1,1E0,1E0,8.5E1,4E0,8E0,9.5E1,2E0,8.1E1,5.4E1,9.6E1,1E2,1.255E3,3.04E2,3.714E3,2.87E2,6.17E2,3E0,9E0,3E0,5E0,1E0,4E0,2E0,4E0,1.6E1,6.7E1,7E0,1.7E2,6E0,2.2E1,6E0,8E0,3E0,1E0,7E0,2E0,5.2E1,8.3E1,1.81E2,7.9E1,3.4E1,1E0,3.4E1,2.4E1,8E0,3E0,2.1E1,5E0,6.4E1,2.1E1,2E0,2E0,5E0,3E0,4.2E1,5.3E1,1E1,7.1E1,4.8E1,6E0,4.3E1,5.3E1,6.3E1,3.7E1,1.076E3,1.79E2,2.71E2,3.3E1,3.4E2,3.374E3,1.5E1,2.72E2,8E1,5.37E2],"tree_param":{"num_deleted":"0","num_feature":"12","num_nodes":"149","size_leaf_vector":"0"}},{"base_weights":[1.2568146E0,3.1405124E-1,2.1112459E0,2.1087268E-1,7.4469185E-1,1.0746073E1,2.0025442E0,3.951028E-1,1.3984205E-1,1.8151684E-1,1.0617721E0,1.9875584E1,8.091533E0,1.3082079E0,2.1800282E0,5.327912E-3,1.5003784E0,-2.2576183E-1,1.639817E-1,2.4374847E0,1.6092932E-1,6.888932E0,1.0314993E0,1.0784876E1,2.64822E1,5.5039887E0,9.897461E0,1.8633119E0,1.2392104E0,2.8718681E0,2.0363865E0,1.3918723E0,-1.346032E-2,2.2230494E0,1.3950005E0,-9.243123E-1,-1.4889283E-1,1.6062218E-1,1.4381409E0,8.8186234E-2,5.1271975E-1,9.199421E-1,1.2870041E0,2.4891272E1,-1.6438851E-1,6.189194E1,1.5970622E1,1.3365483E1,2.8102226E0,1.9268175E1,7.625623E0,3.3484826E0,1.8000697E0,1.1976014E0,1.406999E0,2.2117214E0,3.444671E0,2.1489327E0,1.7480958E0,5.105776E-1,1.4868842E0,-1.2875289E-1,8.70544E-2,1.7980806E0,2.3981853E0,1.1218368E0,1.5250592E0,-2.1908103E-1,4.2929915E-1,1.6431168E-1,-7.4520326E-1,1.8415209E0,-2.217001E-1,2.7853796E-1,5.679579E-2,8.570874E-1,2.1734756E-1,1.8646258E0,8.876596E-1,1.8982986E0,1.2295637E0,-5.359276E-1,5.161889E-1,3.5126597E-2,2.5523731E1,8.393447E0,1.5767359E0,1.0691581E0,1.0548192E1,1.1160088E0,1.8195903E0,1.2324082E0,8.030516E-1,1.2648436E0,1.4664102E0,2.9922647E0,1.9573991E0,5.2879066E0,2.6774516E0,1.9573383E0,2.6582665E0,2.021749E0,1.6898539E0,-2.3902232E-2,-1.442231E-1,2.026804E-1,4.032315E-2,1.1139711E0,2.2388246E0,1.6467891E0,9.170688E-1,1.2945881E0,1.6160656E0,-1.8293926E-1,-6.480798E-1,8.984613E-1,-6.109306E-1,1.6086318E-1,1.4641312E0,2.0949966E-1,5.268683E-1,4.599215E-3,1.6467577E-1,3.7814486E-1,1.1381326E-1,2.155726E0,1.0334089E0,6.581857E-1,9.412977E-1,1.6072415E0,2.4317434E0,1.3960769E0,1.1692706E0,1.7781283E0,1.1112969E0,1.2635236E0,7.6355785E-1,1.152473E1,4.2916985E0,5.424421E-1,1.2781764E0,1.7544918E0,2.0776894E0,1.1546943E0,1.3190744E0,8.9713085E-1,6.648813E-1,5.8096117E-1,1.2755778E0,1.5046694E0,1.1515893E0,2.59017E0,4.9696264E0,1.703559E0,2.0182333E0,4.3326197E0,7.8455753E0,1.8199358E0,2.9605706E0,1.7781805E0,2.0178251E0,2.7733054E0,2.10488E0,1.717129E0,2.139485E0,1.3790349E0,1.7074192E0],"categories":[],"categories_nodes":[],"categories_segments":[],"categories_sizes":[],"default_left":[true,true,true,true,true,true,true,true,true,true,true,true,true,true,true,true,true,true,true,false,true,false,true,true,true,true,true,true,true,true,true,true,true,true,true,false,true,true,true,true,true,true,true,false,true,false,true,false,true,false,true,false,true,true,true,true,true,true,true,false,false,true,true,true,false,true,true,true,true,true,false,false,false,true,true,false,true,true,true,true,true,false,false,false,false,false,true,true,true,true,true,true,true,true,true,true,true,true,true,true,true,true,true,false,false,false,false,false,false,false,false,false,false,false,false,false,false,false,false,false,false,false,false,false,false,false,false,false,false,false,false,false,false,false,false,false,false,false,false,false,false,false,false,false,false,false,false,false,false,false,false,false,false,false,false,false,false,false,false,false,false,false,false,false,false,false,false],"id":26,"left_children":[1,3,5,7,9,11,13,15,17,19,21,23,25,27,29,31,33,35,37,-1,39,-1,41,43,45,47,49,51,53,55,57,59,61,63,65,-1,67,69,71,73,75,77,79,-1,81,-1,83,-1,85,-1,87,-1,89,91,93,95,97,99,101,-1,-1,103,105,107,-1,109,111,113,115,117,-1,-1,-1,119,121,-1,123,125,127,129,131,-1,-1,-1,-1,-1,133,135,137,139,141,143,145,147,149,151,153,155,157,159,161,163,165,-1,-1,-1,-1,-1,-1,-1,-1,-1,-1,-1,-1,-1,-1,-1,-1,-1,-1,-1,-1,-1,-1,-1,-1,-1,-1,-1,-1,-1,-1,-1,-1,-1,-1,-1,-1,-1,-1,-1,-1,-1,-1,-1,-1,-1,-1,-1,-1,-1,-1,-1,-1,-1,-1,-1,-1,-1,-1,-1,-1,-1,-1,-1,-1],"loss_changes":[6.3499785E3,1.6648325E2,3.8741504E3,3.955031E1,1.2926343E2,1.1900195E3,5.023252E2,3.6242963E2,1.928059E1,1.19697E1,7.9251465E1,5.8490186E2,1.7008936E2,3.1064697E1,3.211875E2,1.6238144E1,1.561731E1,7.2057824E0,8.668209E0,0E0,6.6127777E0,0E0,1.2723267E1,8.254967E2,2.0266641E3,3.543155E2,4.473589E2,6.4950867E0,4.57666E0,2.0850342E2,8.6112305E1,4.161358E-1,7.123597E0,5.3652954E-1,6.2247925E0,0E0,4.9929323E0,6.8614616E0,3.730258E0,1.2766073E0,4.432005E0,9.238922E0,4.069458E0,0E0,9.3543845E-1,0E0,8.112698E2,0E0,8.726995E1,0E0,3.66536E2,0E0,4.6051025E-1,7.8303833E0,5.699463E-1,4.965503E1,4.170581E2,1.8715723E2,1.0894043E1,0E0,0E0,4.609027E-1,1.7679079E0,1.9347038E0,0E0,6.267746E0,1.9735107E0,1.6438007E0,6.6943626E0,9.021519E0,0E0,0E0,0E0,4.7273445E-1,1.0409393E0,0E0,3.837353E-1,1.7119865E0,3.6149445E0,3.9871597E-1,7.0747375E-1,0E0,0E0,0E0,0E0,0E0,3.6218834E-1,2.5557518E-2,6.474426E1,5.2881718E-2,1.6351318E-1,3.1431885E0,4.2008972E-1,5.9181213E-2,5.9277344E-1,4.595526E1,1.8476562E0,2.0187354E2,4.944226E1,1.4010742E1,3.161792E1,3.4301147E0,2.5957031E0,0E0,0E0,0E0,0E0,0E0,0E0,0E0,0E0,0E0,0E0,0E0,0E0,0E0,0E0,0E0,0E0,0E0,0E0,0E0,0E0,0E0,0E0,0E0,0E0,0E0,0E0,0E0,0E0,0E0,0E0,0E0,0E0,0E0,0E0,0E0,0E0,0E0,0E0,0E0,0E0,0E0,0E0,0E0,0E0,0E0,0E0,0E0,0E0,0E0,0E0,0E0,0E0,0E0,0E0,0E0,0E0,0E0,0E0,0E0,0E0,0E0,0E0,0E0,0E0],"parents":[2147483647,0,0,1,1,2,2,3,3,4,4,5,5,6,6,7,7,8,8,9,9,10,10,11,11,12,12,13,13,14,14,15,15,16,16,17,17,18,18,20,20,22,22,23,23,24,24,25,25,26,26,27,27,28,28,29,29,30,30,31,31,32,32,33,33,34,34,36,36,37,37,38,38,39,39,40,40,41,41,42,42,44,44,46,46,48,48,50,50,52,52,53,53,54,54,55,55,56,56,57,57,58,58,61,61,62,62,63,63,65,65,66,66,67,67,68,68,69,69,73,73,74,74,76,76,77,77,78,78,79,79,80,80,86,86,87,87,88,88,89,89,90,90,91,91,92,92,93,93,94,94,95,95,96,96,97,97,98,98,99,99,100,100,101,101,102,102],"right_children":[2,4,6,8,10,12,14,16,18,20,22,24,26,28,30,32,34,36,38,-1,40,-1,42,44,46,48,50,52,54,56,58,60,62,64,66,-1,68,70,72,74,76,78,80,-1,82,-1,84,-1,86,-1,88,-1,90,92,94,96,98,100,102,-1,-1,104,106,108,-1,110,112,114,116,118,-1,-1,-1,120,122,-1,124,126,128,130,132,-1,-1,-1,-1,-1,134,136,138,140,142,144,146,148,150,152,154,156,158,160,162,164,166,-1,-1,-1,-1,-1,-1,-1,-1,-1,-1,-1,-1,-1,-1,-1,-1,-1,-1,-1,-1,-1,-1,-1,-1,-1,-1,-1,-1,-1,-1,-1,-1,-1,-1,-1,-1,-1,-1,-1,-1,-1,-1,-1,-1,-1,-1,-1,-1,-1,-1,-1,-1,-1,-1,-1,-1,-1,-1,-1,-1,-1,-1,-1,-1],"split_conditions":[6.621175E-1,7.090609E-2,1.7554916E-2,6.572582E-1,3.7966675E-1,2.7272727E-2,9.8790765E-1,5.0793403E-1,7.4893616E-2,5E-1,5E-1,8.2218254E-1,8.2218254E-1,1.7725962E-1,1.903133E-1,5E-1,2.6233345E-1,2.7272727E-2,9.9783945E-1,4.8749693E-2,3.443045E-1,1.3777864E-1,6.028142E-1,7.876776E-1,8.3943033E-1,7.6935333E-1,8.349742E-1,2.4936981E-2,9.5665354E-1,8.2218254E-1,8.4422266E-1,3.6677136E-3,8.513586E-2,1.6680852E-1,6.341465E-1,-1.8486245E-2,2.1624056E-1,9.9261796E-1,8.484849E-1,1.3989916E-1,3.7000573E-1,5.563558E-2,2.0633778E-1,4.978254E-1,8.0460525E-1,1.2378387E0,8.7090075E-1,2.6730967E-1,9.8790765E-1,3.853635E-1,8.571358E-1,6.696965E-2,2.7457688E-2,9.02244E-1,3.5106385E-1,7.7943826E-1,8.349742E-1,8.2218254E-1,3.4308606E-1,1.02115525E-2,2.9737685E-2,1.8518186E-1,8.23977E-2,6.4103043E-1,4.7963705E-2,6.2911546E-1,3.5106385E-1,2.0624775E-1,2.2452286E-1,9.9144757E-1,-1.4904065E-2,3.6830418E-2,-4.434002E-3,9.212121E-1,3.8609636E-1,1.7141746E-2,5.556356E-1,7.008511E-1,3.989272E-1,9.212121E-1,6.232265E-1,-1.0718551E-2,1.0323778E-2,7.025319E-4,5.104746E-1,1.6786894E-1,7.958708E-1,8.4844077E-1,9.28372E-1,9.5682657E-1,9.212121E-1,7.7778685E-1,9.345995E-1,1.8851279E-1,9.3923295E-1,9.212121E-1,4.1296717E-4,9.212121E-1,8.5870504E-1,7.554066E-1,8.349742E-1,8.76709E-1,8.486788E-1,-4.7804462E-4,-2.8844618E-3,4.0536076E-3,8.0646295E-4,2.227942E-2,4.477649E-2,3.293578E-2,1.8341376E-2,2.589176E-2,3.232131E-2,-3.6587853E-3,-1.2961596E-2,1.7969225E-2,-1.2218612E-2,3.2172634E-3,2.9282624E-2,4.1899933E-3,1.0537365E-2,9.19843E-5,3.2935154E-3,7.562897E-3,2.276265E-3,4.3114517E-2,2.0668177E-2,1.3163714E-2,1.8825954E-2,3.214483E-2,4.8634868E-2,2.7921537E-2,2.3385413E-2,3.5562564E-2,2.2225937E-2,2.5270471E-2,1.5271157E-2,2.3049459E-1,8.583397E-2,1.0848842E-2,2.5563529E-2,3.5089836E-2,4.1553788E-2,2.3093887E-2,2.6381487E-2,1.7942617E-2,1.3297626E-2,1.1619223E-2,2.5511555E-2,3.0093389E-2,2.3031784E-2,5.1803395E-2,9.9392526E-2,3.407118E-2,4.0364664E-2,8.665239E-2,1.569115E-1,3.6398716E-2,5.921141E-2,3.556361E-2,4.0356502E-2,5.5466108E-2,4.2097602E-2,3.434258E-2,4.2789698E-2,2.7580697E-2,3.4148384E-2],"split_indices":[1,7,5,1,1,2,6,1,10,0,0,1,1,5,5,0,5,2,5,0,1,0,1,1,1,1,1,5,1,1,1,6,6,10,1,0,5,5,2,5,1,5,5,0,1,0,1,0,6,0,1,0,5,1,10,1,1,1,5,0,0,5,1,1,0,1,10,5,5,5,0,0,0,2,6,0,5,10,1,2,1,0,0,0,0,0,1,1,1,6,2,1,1,5,5,2,8,2,1,1,1,1,1,0,0,0,0,0,0,0,0,0,0,0,0,0,0,0,0,0,0,0,0,0,0,0,0,0,0,0,0,0,0,0,0,0,0,0,0,0,0,0,0,0,0,0,0,0,0,0,0,0,0,0,0,0,0,0,0,0,0,0,0,0,0,0,0],"split_type":[0,0,0,0,0,0,0,0,0,0,0,0,0,0,0,0,0,0,0,0,0,0,0,0,0,0,0,0,0,0,0,0,0,0,0,0,0,0,0,0,0,0,0,0,0,0,0,0,0,0,0,0,0,0,0,0,0,0,0,0,0,0,0,0,0,0,0,0,0,0,0,0,0,0,0,0,0,0,0,0,0,0,0,0,0,0,0,0,0,0,0,0,0,0,0,0,0,0,0,0,0,0,0,0,0,0,0,0,0,0,0,0,0,0,0,0,0,0,0,0,0,0,0,0,0,0,0,0,0,0,0,0,0,0,0,0,0,0,0,0,0,0,0,0,0,0,0,0,0,0,0,0,0,0,0,0,0,0,0,0,0,0,0,0,0,0,0],"sum_hessian":[7.883E3,3.748E3,4.135E3,3.024E3,7.24E2,5.1E1,4.084E3,8.41E2,2.183E3,2.61E2,4.63E2,1.1E1,4E1,8.32E2,3.252E3,6.22E2,2.19E2,1.35E2,2.048E3,2E0,2.59E2,2E0,4.61E2,5E0,6E0,1.7E1,2.3E1,9.1E1,7.41E2,5.58E2,2.694E3,8E0,6.14E2,2.7E1,1.92E2,1.3E1,1.22E2,2.043E3,5E0,2.15E2,4.4E1,3.22E2,1.39E2,2E0,3E0,1E0,5E0,4E0,1.3E1,4E0,1.9E1,3E0,8.8E1,5.96E2,1.45E2,2.6E2,2.98E2,1.936E3,7.58E2,1E0,7E0,2.86E2,3.28E2,9E0,1.8E1,6.3E1,1.29E2,1.09E2,1.3E1,2.035E3,8E0,4E0,1E0,3E1,1.85E2,2E1,2.4E1,1E1,3.12E2,1.1E1,1.28E2,2E0,1E0,2E0,3E0,2E0,1.1E1,6E0,1.3E1,3E0,8.5E1,5.47E2,4.9E1,4.5E1,1E2,6.3E1,1.97E2,8.7E1,2.11E2,1.408E3,5.28E2,1.31E2,6.27E2,3.7E1,2.49E2,9.4E1,2.34E2,4E0,5E0,1.7E1,4.6E1,3.8E1,9.1E1,1.01E2,8E0,9E0,4E0,2.03E3,5E0,2.4E1,6E0,1.25E2,6E1,9E0,1.5E1,7E0,3E0,6E1,2.52E2,8E0,3E0,3.2E1,9.6E1,7E0,4E0,3E0,3E0,1.1E1,2E0,1E0,2E0,7E1,1.5E1,2.91E2,2.56E2,2.8E1,2.1E1,1E0,4.4E1,8.8E1,1.2E1,5.3E1,1E1,4E1,1.57E2,6.4E1,2.3E1,5.3E1,1.58E2,3.58E2,1.05E3,4.36E2,9.2E1,3.8E1,9.3E1,3.5E1,5.92E2],"tree_param":{"num_deleted":"0","num_feature":"12","num_nodes":"167","size_leaf_vector":"0"}},{"base_weights":[1.2218758E0,3.1304982E-1,2.0314367E0,6.305437E-2,5.033916E-1,6.0906267E0,1.9397717E0,3.6890024E-1,-1.3972916E-1,-8.52763E-4,6.0388714E-1,1.3436567E1,5.618589E0,1.2847831E0,2.107585E0,5.0709568E-2,1.0826662E0,-3.081934E-1,-1.9346736E-2,-1.2100299E-1,8.134895E-2,1.1294364E0,3.6277208E-1,1.5269745E1,4.108284E0,2.1212013E0,7.256876E0,1.6733125E0,1.2383294E0,3.564198E0,2.0634882E0,1.4059126E0,3.422408E-2,7.786088E0,1.0354662E0,-4.5555612E-1,-3.0403498E-1,-2.081223E0,-3.4206032E-3,-1.6970163E-3,-1.3801901E-1,1.8190041E-1,3.137531E-2,7.8631854E-1,1.3693675E0,4.5927814E-3,4.1923952E-1,6.459274E0,1.5218966E0,1.2159753E1,5.191888E0,1.9298111E0,1.5783263E0,1.1870068E0,1.4113942E0,1.9952621E0,4.4630876E0,2.1691337E0,1.7956485E0,8.292333E-1,1.6646726E0,-1.2931904E-1,1.0985419E-1,9.313711E-1,1.8790181E0,-3.125053E-1,-2.724442E-1,-2.5259417E-1,4.171353E-2,1.07164934E-1,-4.6269827E-2,-9.1219395E-2,-1.4213078E-1,5.9763813E-1,1.3178732E-1,-8.46532E-4,1.1448398E-1,3.6114683E0,7.561035E-1,2.0990636E0,1.2957954E0,-1.5225889E-1,5.4411006E-1,4.3425533E-1,-5.989152E-1,8.249568E0,1.7003806E0,1.4108063E-1,1.7779241E0,1.8912466E1,9.659887E0,1.1103657E0,6.131718E0,2.3602953E0,1.6336352E0,1.5884075E0,6.7899626E-1,1.205007E0,8.353211E-1,1.2808816E0,1.7925041E0,3.3927643E0,1.6095638E0,6.19266E0,3.791981E0,1.9600843E0,2.7283792E0,2.307392E0,1.6570787E0,1.2854644E0,1.5493241E-1,-4.9895313E-2,-1.439476E-1,7.905698E-2,4.170896E-1,-1.535722E-1,9.505267E-1,2.240051E0,1.4932945E0,-3.3905563E-1,-3.0623847E-1,8.399099E-2,-3.093857E-1,-1.0889633E-1,-6.6211784E-1,2.1920136E-1,-3.1595655E-2,1.6672309E-1,6.5584027E-4,-1.0332838E-1,-1.6596476E-2,-1.1083759E-1,7.292287E-2,-1.5537888E-1,-1.2573934E-1,7.4293417E-1,3.4469E-1,1.9909908E-1,1.1062138E-1,1.3593735E-1,-1.8162573E-2,1.7056364E-1,3.115973E-2,3.2382292E-1,8.83611E-1,2.9965158E0,1.8730056E0,1.2313023E0,1.6742404E0,2.272865E-1,-4.7653568E-1,1.7332894E0,2.501601E-1,3.9788145E-1,8.02574E-1,-8.333921E-1,8.203641E-1,-1.6105469E-1,8.717878E-1,2.0791333E0,1.5007532E0,1.02943735E1,6.722408E0,1.4533296E0,6.786648E-1,8.037365E0,4.3216496E0,1.336899E0,2.474805E0,1.379143E0,1.6579692E0,1.1238872E0,1.2985735E0,7.038249E-1,9.5556235E-1,6.895501E-1,1.3697797E0,3.067866E0,1.4651208E0,-3.6028773E-1,1.6865487E0,7.108784E0,4.7431464E0,1.6893324E0,4.2390504E0,-4.5479563E-1,1.9763696E0,4.0548987E0,2.5802085E0,1.6748078E0,2.505032E0,1.7157435E0,1.5056838E0],"categories":[],"categories_nodes":[],"categories_segments":[],"categories_sizes":[],"default_left":[true,true,true,true,true,true,true,true,true,true,true,true,true,true,true,true,true,true,true,true,true,true,true,false,false,true,true,true,true,true,true,true,true,false,true,false,true,false,true,true,true,true,true,true,true,true,true,true,true,true,true,true,true,true,true,true,true,true,true,true,false,true,true,true,true,true,true,true,true,true,true,true,true,true,true,true,true,false,true,true,true,true,true,true,true,false,false,true,true,false,true,true,true,false,true,true,false,true,true,true,true,false,true,true,true,true,true,true,true,false,false,false,false,false,false,false,false,false,false,false,false,false,false,false,false,false,false,false,false,false,false,false,false,false,false,false,false,false,false,false,false,false,false,false,false,false,false,false,false,false,false,false,false,false,false,false,false,false,false,false,false,false,false,false,false,false,false,false,false,false,false,false,false,false,false,false,false,false,false,false,false,false,false,false,false,false,false,false,false,false,false,false,false],"id":27,"left_children":[1,3,5,7,9,11,13,15,17,19,21,23,25,27,29,31,33,35,37,39,41,43,45,-1,-1,47,49,51,53,55,57,59,61,-1,63,-1,65,-1,67,69,71,73,75,77,79,81,83,85,87,89,91,93,95,97,99,101,103,105,107,109,-1,111,113,115,117,119,121,123,125,127,129,131,133,135,137,139,141,-1,143,145,147,149,151,153,155,-1,-1,157,159,-1,161,163,165,-1,167,169,-1,171,173,175,177,-1,179,181,183,185,187,189,191,-1,-1,-1,-1,-1,-1,-1,-1,-1,-1,-1,-1,-1,-1,-1,-1,-1,-1,-1,-1,-1,-1,-1,-1,-1,-1,-1,-1,-1,-1,-1,-1,-1,-1,-1,-1,-1,-1,-1,-1,-1,-1,-1,-1,-1,-1,-1,-1,-1,-1,-1,-1,-1,-1,-1,-1,-1,-1,-1,-1,-1,-1,-1,-1,-1,-1,-1,-1,-1,-1,-1,-1,-1,-1,-1,-1,-1,-1,-1,-1,-1,-1,-1,-1],"loss_changes":[5.8264043E3,1.7753531E2,1.5543652E3,1.00080215E2,1.0735382E2,2.9472485E2,4.4930078E2,1.4607532E2,1.9671827E1,3.4836886E0,2.2366803E2,7.0008606E1,4.9512964E2,1.4362183E1,2.0688477E2,9.912689E0,5.993857E1,1.9075394E-1,1.856499E1,2.8891206E-1,1.0469391E0,4.532782E1,2.4493103E1,0E0,0E0,7.027013E1,5.7941455E2,1.0863953E0,6.0511475E0,1.3138708E2,8.821094E1,2.9997063E-1,5.45085E0,0E0,1.6704086E1,0E0,6.878281E-2,0E0,6.3306546E0,8.9744106E-2,1.6465664E-2,1.4078178E0,3.7745428E-1,1.860347E1,1.6563843E1,1.40244255E1,1.6081161E1,2.3580902E1,8.845043E0,2.3127368E2,1.600149E2,1.5047073E0,2.0939636E-1,3.3026123E0,7.613098E0,1.7152847E1,6.2057617E1,2.6334082E2,6.230005E1,6.3090205E-1,0E0,1.5672517E-1,2.8331435E0,3.7247314E0,1.8021469E0,7.472992E-3,1.1486545E0,5.045482E0,6.2027926E0,3.140883E-2,2.0292664E-2,3.973189E-2,1.4303207E-2,1.6861248E-1,7.7044964E-2,2.3915732E-1,1.7914754E-1,0E0,1.2417755E1,4.0099945E0,6.5281677E0,1.583467E1,1.2877375E1,1.3693344E1,5.3309736E0,0E0,0E0,1.0136702E0,6.894684E-1,0E0,1.5307617E0,8.745136E-1,1.0666882E2,0E0,2.4200325E0,1.452179E-1,0E0,3.6558838E0,2.1585464E-1,6.34935E0,1.6112045E1,0E0,4.5182877E0,1.0276733E1,3.920215E1,6.5302734E1,1.17558105E2,2.2337646E1,5.374878E0,0E0,0E0,0E0,0E0,0E0,0E0,0E0,0E0,0E0,0E0,0E0,0E0,0E0,0E0,0E0,0E0,0E0,0E0,0E0,0E0,0E0,0E0,0E0,0E0,0E0,0E0,0E0,0E0,0E0,0E0,0E0,0E0,0E0,0E0,0E0,0E0,0E0,0E0,0E0,0E0,0E0,0E0,0E0,0E0,0E0,0E0,0E0,0E0,0E0,0E0,0E0,0E0,0E0,0E0,0E0,0E0,0E0,0E0,0E0,0E0,0E0,0E0,0E0,0E0,0E0,0E0,0E0,0E0,0E0,0E0,0E0,0E0,0E0,0E0,0E0,0E0,0E0,0E0,0E0,0E0,0E0,0E0,0E0,0E0],"parents":[2147483647,0,0,1,1,2,2,3,3,4,4,5,5,6,6,7,7,8,8,9,9,10,10,11,11,12,12,13,13,14,14,15,15,16,16,17,17,18,18,19,19,20,20,21,21,22,22,25,25,26,26,27,27,28,28,29,29,30,30,31,31,32,32,34,34,36,36,38,38,39,39,40,40,41,41,42,42,43,43,44,44,45,45,46,46,47,47,48,48,49,49,50,50,51,51,52,52,53,53,54,54,55,55,56,56,57,57,58,58,59,59,61,61,62,62,63,63,64,64,65,65,66,66,67,67,68,68,69,69,70,70,71,71,72,72,73,73,74,74,75,75,76,76,78,78,79,79,80,80,81,81,82,82,83,83,84,84,87,87,88,88,90,90,91,91,92,92,94,94,95,95,97,97,98,98,99,99,100,100,102,102,103,103,104,104,105,105,106,106,107,107,108,108],"right_children":[2,4,6,8,10,12,14,16,18,20,22,24,26,28,30,32,34,36,38,40,42,44,46,-1,-1,48,50,52,54,56,58,60,62,-1,64,-1,66,-1,68,70,72,74,76,78,80,82,84,86,88,90,92,94,96,98,100,102,104,106,108,110,-1,112,114,116,118,120,122,124,126,128,130,132,134,136,138,140,142,-1,144,146,148,150,152,154,156,-1,-1,158,160,-1,162,164,166,-1,168,170,-1,172,174,176,178,-1,180,182,184,186,188,190,192,-1,-1,-1,-1,-1,-1,-1,-1,-1,-1,-1,-1,-1,-1,-1,-1,-1,-1,-1,-1,-1,-1,-1,-1,-1,-1,-1,-1,-1,-1,-1,-1,-1,-1,-1,-1,-1,-1,-1,-1,-1,-1,-1,-1,-1,-1,-1,-1,-1,-1,-1,-1,-1,-1,-1,-1,-1,-1,-1,-1,-1,-1,-1,-1,-1,-1,-1,-1,-1,-1,-1,-1,-1,-1,-1,-1,-1,-1,-1,-1,-1,-1,-1,-1],"split_conditions":[6.621175E-1,1.6666667E-1,7.4137926E-2,6.572582E-1,3.9510223E-1,7.703592E-1,9.8790765E-1,3.8307017E-1,5.5555556E-2,7.6129995E-2,6.572582E-1,5E-1,8.2218254E-1,1.742888E-1,4.861361E-2,5E-1,5E-1,5E-1,2.2506302E-3,1.8518186E-1,7.8146935E-2,6.028142E-1,1.5700397E-1,3.053949E-1,8.216568E-2,9.8790765E-1,8.349742E-1,1.724138E-1,9.345995E-1,8.2218254E-1,8.4422266E-1,2.4243233E-1,7.6129995E-2,1.5572175E-1,9.689189E-1,-9.111122E-3,9.9787235E-1,-4.162446E-2,2.086207E-1,1.8275863E-1,2.5344828E-1,2.0219663E-1,3.1517088E-1,3.9791144E-2,2.0678791E-1,4.9482757E-1,9.8451567E-1,5E-1,2.2506302E-3,5E-1,8.571358E-1,1.407094E-1,1.6627656E-1,9.02244E-1,9.9787235E-1,7.7943826E-1,8.349742E-1,8.2218254E-1,2.5018007E-1,1.3013217E-1,3.3293452E-2,2.2929421E-1,3.532499E-1,3.268453E-1,6.2234426E-1,1.6546634E-1,1.1883327E-1,2.353259E-1,3.4632695E-1,2.2745039E-1,2.0297873E-1,5.4438245E-1,2.3039077E-1,1.8793103E-1,2.8793103E-1,1.3530788E-1,3.948276E-1,7.222936E-2,3.7966675E-1,1.2068965E-1,6.474741E-1,3.9431043E-2,2.7021277E-1,5E-1,9.981995E-1,1.6499135E-1,3.400761E-2,4.4444448E-1,1.6666667E-1,3.7824932E-1,6.724138E-2,2.777778E-1,2.2170213E-1,4.7205906E-2,9.9787235E-1,5.9416637E-2,1.3579925E-2,7.7778685E-1,9.0605086E-1,9.5665354E-1,9.532107E-1,6.785528E-2,5.5555556E-2,3.0518545E-2,8.5870504E-1,5.5555556E-2,1.8194094E-1,8.76709E-1,3.888889E-1,2.5709288E-2,3.098648E-3,-9.979062E-4,-2.878952E-3,1.5811395E-3,8.341792E-3,-3.0714439E-3,1.9010535E-2,4.480102E-2,2.9865889E-2,-6.7811124E-3,-6.1247693E-3,1.6798198E-3,-6.1877137E-3,-2.1779265E-3,-1.32423565E-2,4.384027E-3,-6.319131E-4,3.3344617E-3,1.3116805E-5,-2.0665675E-3,-3.319295E-4,-2.216752E-3,1.4584573E-3,-3.1075776E-3,-2.5147866E-3,1.4858683E-2,6.8937996E-3,3.9819814E-3,2.2124276E-3,2.718747E-3,-3.6325146E-4,3.4112728E-3,6.231946E-4,6.476458E-3,1.767222E-2,5.9930313E-2,3.746011E-2,2.4626045E-2,3.3484805E-2,4.54573E-3,-9.530714E-3,3.4665786E-2,5.003202E-3,7.957629E-3,1.6051479E-2,-1.6667841E-2,1.6407281E-2,-3.2210937E-3,1.7435756E-2,4.1582666E-2,3.0015063E-2,2.0588747E-1,1.3444816E-1,2.906659E-2,1.3573295E-2,1.6074729E-1,8.6432986E-2,2.673798E-2,4.9496103E-2,2.758286E-2,3.3159383E-2,2.2477742E-2,2.5971469E-2,1.4076497E-2,1.9111246E-2,1.3791001E-2,2.7395593E-2,6.135732E-2,2.9302415E-2,-7.2057545E-3,3.3730973E-2,1.4217567E-1,9.486292E-2,3.3786647E-2,8.4781006E-2,-9.095913E-3,3.952739E-2,8.1097975E-2,5.160417E-2,3.3496156E-2,5.010064E-2,3.431487E-2,3.0113675E-2],"split_indices":[1,4,3,1,6,1,6,1,4,6,1,0,1,5,5,0,0,0,5,5,1,1,5,0,0,6,1,3,1,1,1,1,6,0,6,0,10,0,3,3,3,5,1,5,5,3,5,0,5,0,1,5,5,1,10,1,1,1,5,1,0,5,1,6,5,5,5,5,5,1,10,5,1,3,3,5,3,0,1,3,1,5,10,4,5,0,0,4,4,0,3,4,10,0,10,5,0,1,1,1,1,0,4,5,1,4,5,1,4,0,0,0,0,0,0,0,0,0,0,0,0,0,0,0,0,0,0,0,0,0,0,0,0,0,0,0,0,0,0,0,0,0,0,0,0,0,0,0,0,0,0,0,0,0,0,0,0,0,0,0,0,0,0,0,0,0,0,0,0,0,0,0,0,0,0,0,0,0,0,0,0,0,0,0,0,0,0,0,0,0,0,0,0],"split_type":[0,0,0,0,0,0,0,0,0,0,0,0,0,0,0,0,0,0,0,0,0,0,0,0,0,0,0,0,0,0,0,0,0,0,0,0,0,0,0,0,0,0,0,0,0,0,0,0,0,0,0,0,0,0,0,0,0,0,0,0,0,0,0,0,0,0,0,0,0,0,0,0,0,0,0,0,0,0,0,0,0,0,0,0,0,0,0,0,0,0,0,0,0,0,0,0,0,0,0,0,0,0,0,0,0,0,0,0,0,0,0,0,0,0,0,0,0,0,0,0,0,0,0,0,0,0,0,0,0,0,0,0,0,0,0,0,0,0,0,0,0,0,0,0,0,0,0,0,0,0,0,0,0,0,0,0,0,0,0,0,0,0,0,0,0,0,0,0,0,0,0,0,0,0,0,0,0,0,0,0,0,0,0,0,0,0,0,0,0,0,0,0,0],"sum_hessian":[7.919E3,3.731E3,4.188E3,1.613E3,2.118E3,9.2E1,4.096E3,6.43E2,9.7E2,3.52E2,1.766E3,5E0,8.7E1,8.36E2,3.26E3,4.45E2,1.98E2,4.04E2,5.66E2,1.43E2,2.09E2,5.55E2,1.211E3,4E0,1E0,2.8E1,5.9E1,8.8E1,7.48E2,9.5E1,3.165E3,5E0,4.4E2,1E0,1.97E2,1E1,3.94E2,4E0,5.62E2,1.8E1,1.25E2,6.9E1,1.4E2,2.29E2,3.26E2,1.65E2,1.046E3,3E0,2.5E1,1.7E1,4.2E1,2.2E1,6.6E1,5.79E2,1.69E2,3.5E1,6E1,2.268E3,8.97E2,2E0,3E0,1.39E2,3.01E2,1.76E2,2.1E1,3.08E2,8.6E1,8.6E1,4.76E2,5E0,1.3E1,1.1E1,1.14E2,7E0,6.2E1,1.01E2,3.9E1,2E0,2.27E2,2.9E1,2.97E2,1.28E2,3.7E1,1.031E3,1.5E1,2E0,1E0,4E0,2.1E1,4E0,1.3E1,8E0,3.4E1,8E0,1.4E1,6.5E1,1E0,5.5E2,2.9E1,1.27E2,4.2E1,7E0,2.8E1,1.6E1,4.4E1,1.652E3,6.16E2,1.9E2,7.07E2,1E0,1E0,2.2E1,1.17E2,2.74E2,2.7E1,3E0,1.73E2,1E1,1.1E1,5.5E1,2.53E2,8E0,7.8E1,6.4E1,2.2E1,1.39E2,3.37E2,3E0,2E0,4E0,9E0,1E1,1E0,6.1E1,5.3E1,4E0,3E0,1.4E1,4.8E1,1.1E1,9E1,2.3E1,1.6E1,5.2E1,1.75E2,5E0,2.4E1,2.55E2,4.2E1,5.9E1,6.9E1,7E0,3E1,9.39E2,9.2E1,1.3E1,2E0,3E0,1E0,9E0,1.2E1,1E1,3E0,4E0,4E0,1.6E1,1.8E1,1.1E1,3E0,1.8E1,4.7E1,2.97E2,2.53E2,1.5E1,1.4E1,1.7E1,1.1E2,8E0,3.4E1,1E0,2.7E1,9E0,7E0,8E0,3.6E1,1.1E1,1.641E3,6.1E1,5.55E2,4.6E1,1.44E2,5.07E2,2E2],"tree_param":{"num_deleted":"0","num_feature":"12","num_nodes":"193","size_leaf_vector":"0"}},{"base_weights":[1.2203826E0,4.2337904E0,1.1587578E0,3.245785E0,6.0352297E0,-1.3711413E-2,1.28528E0,1.488256E0,3.6932952E0,7.765923E0,2.9281244E0,-1.268094E-1,6.044619E-2,1.3019687E-1,1.3940088E0,5.2260857E-2,4.8842187E0,5.8489594E0,3.291863E0,9.186535E0,3.4788127E0,1.2049752E-1,4.39803E0,-5.554815E-2,-1.4248879E-1,1.5829404E-1,2.927738E-2,1.0320351E0,-3.0996084E-1,1.8685905E0,1.3211765E0,1.3328276E0,-4.3765634E-1,6.8077483E0,6.07941E-1,9.716584E0,1.6263548E-1,2.0754173E0,4.1489816E0,8.578967E0,1.842114E1,4.855891E0,1.5129622E0,8.587123E-1,-3.9021134E-2,6.006316E0,2.3019903E0,-1.0147989E-2,-8.148072E-2,-1.5814735E-1,-1.3350381E-1,5.5673724E-1,1.4900702E-1,6.047149E-2,5.3063133E-3,8.452355E-1,1.402054E0,-3.4174484E-1,-2.9916465E-1,2.3370914E0,1.7304109E0,1.0477624E0,1.4035219E0,1.593288E0,3.377095E-1,-1.2084961E-1,-4.6303433E-1,2.3748212E0,1.0748493E1,1.8049424E0,4.9409604E0,4.57372E0,-1.0186816E0,2.872889E0,9.026387E0,2.7470865E0,7.1683574E0,2.5277562E0,2.7584115E-1,2.9645184E-1,-3.7486959E-1,4.287981E0,9.069345E0,4.5237106E-1,2.6178262E0,-7.758252E-2,1.8889965E-2,-5.243485E-2,-1.1154634E-1,-1.2918866E-1,-1.6391976E-1,-1.432745E-1,-1.2336625E-1,6.869619E-1,2.7658805E-1,2.479438E-1,1.367034E-1,9.847245E-2,1.4737242E-2,-3.2601874E-2,1.9967936E-2,9.998027E-1,7.8322065E-1,1.8771849E0,1.2600007E0,-2.7942663E-1,-3.0563655E-1,2.8035307E0,1.939047E0,2.121297E0,1.5721179E0,7.9791725E-1,1.0744044E0,8.045089E-1,1.4388254E0,4.1464037E-1,1.9086814E0,5.311912E-1,4.7971244E0,3.9974973E0,1.0191379E0,-1.005347E0,1.4987446E0,5.604313E0,1.788641E0,-0E0,-9.381498E-2,-9.562657E-3,1.7268845E-1,-5.461011E-3,-6.44215E-2,-1.5279181E-1,-4.877881E-2,-1.483448E-1,-1.14157364E-1,-1.0635047E-1,-1.4163269E-1,1.0208709E-1,3.2091329E-1,-2.3994312E-2,1.4390616E-1,2.619895E-2,1.4990115E-1,-3.571844E-2,3.615695E-2,-5.649442E-2,-9.508707E-3,3.917222E-2,-1.0760298E-2,7.673086E-1,1.0559134E0,1.0393717E-1,7.9725254E-1,1.0717945E0,1.9776516E0,-3.0326772E-1,5.445096E-1,2.3616624E0,3.1952205E0,1.7513788E0,2.9135187E0,1.9344355E0,3.8078415E0,1.4245155E0,1.830511E0,1.0519778E0,7.4862415E-1,1.0979052E0,8.9194715E-1,8.209361E-1,4.173631E-1,1.2429421E0,1.4704901E0],"categories":[],"categories_nodes":[],"categories_segments":[],"categories_sizes":[],"default_left":[true,true,true,true,true,true,true,true,true,true,true,true,true,true,true,true,true,true,true,true,true,true,true,true,true,true,true,true,true,true,true,true,true,false,false,true,false,true,true,true,false,true,true,false,true,true,true,true,true,true,true,true,true,true,true,true,true,false,true,true,true,true,true,false,false,false,false,false,false,true,false,true,false,true,false,false,false,false,true,false,false,true,false,false,false,true,true,true,false,true,false,true,true,false,false,true,true,true,true,true,true,true,true,true,false,true,false,true,true,true,true,true,true,true,true,false,false,false,false,false,false,false,false,false,false,false,false,false,false,false,false,false,false,false,false,false,false,false,false,false,false,false,false,false,false,false,false,false,false,false,false,false,false,false,false,false,false,false,false,false,false,false,false,false,false,false,false,false,false,false,false,false,false],"id":28,"left_children":[1,3,5,7,9,11,13,15,17,19,21,23,25,27,29,31,33,35,37,39,41,43,45,47,49,51,53,55,57,59,61,63,65,-1,-1,67,-1,69,71,73,-1,75,77,-1,79,81,83,85,87,89,91,93,95,97,99,101,103,-1,105,107,109,111,113,-1,-1,-1,-1,-1,-1,115,-1,117,-1,119,-1,-1,-1,-1,121,-1,-1,123,-1,-1,-1,125,127,129,-1,131,-1,133,135,-1,-1,137,139,141,143,145,147,149,151,153,-1,155,-1,157,159,161,163,165,167,169,171,-1,-1,-1,-1,-1,-1,-1,-1,-1,-1,-1,-1,-1,-1,-1,-1,-1,-1,-1,-1,-1,-1,-1,-1,-1,-1,-1,-1,-1,-1,-1,-1,-1,-1,-1,-1,-1,-1,-1,-1,-1,-1,-1,-1,-1,-1,-1,-1,-1,-1,-1,-1,-1,-1,-1,-1,-1,-1],"loss_changes":[1.4573975E3,2.7336206E2,1.1423164E3,7.857959E1,2.8981726E2,6.2966065E0,8.728164E2,1.0387898E2,6.3831177E1,2.0435425E2,8.367395E1,3.26756E-1,1.3783556E0,2.3762607E2,2.1869824E2,9.827075E0,5.0610336E1,2.7057684E2,6.932947E1,9.46626E1,2.2726135E1,8.8644856E-1,4.0218292E1,6.2386364E-2,2.3034096E-2,3.6684084E-1,2.564322E-1,1.3143188E1,9.482193E-2,5.3253174E1,1.2349219E2,9.162135E-1,6.413126E-2,0E0,0E0,4.6859314E1,0E0,1.9664955E1,9.013251E1,5.5859375E1,0E0,1.9300682E1,5.1678333E0,0E0,7.517576E-1,2.5439392E1,3.2611618E0,4.1142117E-2,2.5693312E-2,3.1888485E-3,5.8865547E-3,8.024931E-3,1.13865614E-1,2.5743467E-1,1.0860234E-1,9.723282E-1,3.5761108E0,0E0,1.9226074E-3,3.364319E1,3.926001E1,8.183105E0,8.9083984E1,0E0,0E0,0E0,0E0,0E0,0E0,3.6452103E0,0E0,3.2790833E1,0E0,3.4345703E0,0E0,0E0,0E0,0E0,4.1655107E0,0E0,0E0,1.40987015E1,0E0,0E0,0E0,8.819748E-3,6.5600365E-2,9.208694E-3,0E0,2.5639147E-2,0E0,2.0253658E-3,1.6408801E-2,0E0,0E0,1.0366452E-1,1.1436474E-1,2.9848945E-1,7.428805E-2,2.8858133E-2,8.394866E-2,1.7779922E-1,8.6819077E-1,4.0945816E-1,0E0,1.6100168E0,0E0,1.2519592E1,1.7312134E1,5.6499817E1,1.6869629E1,1.2687759E0,4.5861816E0,1.3710938E0,2.4138672E1,0E0,0E0,0E0,0E0,0E0,0E0,0E0,0E0,0E0,0E0,0E0,0E0,0E0,0E0,0E0,0E0,0E0,0E0,0E0,0E0,0E0,0E0,0E0,0E0,0E0,0E0,0E0,0E0,0E0,0E0,0E0,0E0,0E0,0E0,0E0,0E0,0E0,0E0,0E0,0E0,0E0,0E0,0E0,0E0,0E0,0E0,0E0,0E0,0E0,0E0,0E0,0E0,0E0,0E0,0E0,0E0,0E0,0E0],"parents":[2147483647,0,0,1,1,2,2,3,3,4,4,5,5,6,6,7,7,8,8,9,9,10,10,11,11,12,12,13,13,14,14,15,15,16,16,17,17,18,18,19,19,20,20,21,21,22,22,23,23,24,24,25,25,26,26,27,27,28,28,29,29,30,30,31,31,32,32,35,35,37,37,38,38,39,39,41,41,42,42,44,44,45,45,46,46,47,47,48,48,49,49,50,50,51,51,52,52,53,53,54,54,55,55,56,56,58,58,59,59,60,60,61,61,62,62,69,69,71,71,73,73,78,78,81,81,85,85,86,86,87,87,89,89,91,91,92,92,95,95,96,96,97,97,98,98,99,99,100,100,101,101,102,102,103,103,105,105,107,107,108,108,109,109,110,110,111,111,112,112,113,113,114,114],"right_children":[2,4,6,8,10,12,14,16,18,20,22,24,26,28,30,32,34,36,38,40,42,44,46,48,50,52,54,56,58,60,62,64,66,-1,-1,68,-1,70,72,74,-1,76,78,-1,80,82,84,86,88,90,92,94,96,98,100,102,104,-1,106,108,110,112,114,-1,-1,-1,-1,-1,-1,116,-1,118,-1,120,-1,-1,-1,-1,122,-1,-1,124,-1,-1,-1,126,128,130,-1,132,-1,134,136,-1,-1,138,140,142,144,146,148,150,152,154,-1,156,-1,158,160,162,164,166,168,170,172,-1,-1,-1,-1,-1,-1,-1,-1,-1,-1,-1,-1,-1,-1,-1,-1,-1,-1,-1,-1,-1,-1,-1,-1,-1,-1,-1,-1,-1,-1,-1,-1,-1,-1,-1,-1,-1,-1,-1,-1,-1,-1,-1,-1,-1,-1,-1,-1,-1,-1,-1,-1,-1,-1,-1,-1,-1,-1],"split_conditions":[6.724138E-2,2.777778E-1,3.9510223E-1,5.5555556E-2,3.888889E-1,7.6129995E-2,5.5555556E-2,7.090609E-2,2.2506302E-3,1.3467771E-1,5E-1,2.2902411E-1,2.8177887E-1,9.8790765E-1,1.7455888E-1,5.719247E-1,5E-1,1.6666667E-1,1.6666667E-1,5.4282683E-1,1.3854879E-1,2.2506302E-3,5E-1,1.8965518E-1,3.6677136E-3,2.4576882E-2,5.568959E-1,9.5682657E-1,2.2722362E-1,5.068419E-2,1.6666667E-1,5E-1,5.0041294E-1,1.3615496E-1,1.21588195E-2,5.629188E-1,3.2527095E-3,1.166234E-1,1.3422757E-1,8.231776E-1,3.684228E-1,1.3791862E-1,9.689189E-1,1.7174246E-2,5E-1,1.3665827E-1,5.629188E-1,1.2068965E-1,1.15052216E-1,5.5555556E-2,1.6666667E-1,1.2068965E-1,4.717321E-2,3.2068965E-1,1.3484347E-1,2.9078144E-1,1.9490457E-1,-6.8348967E-3,4.1069502E-1,2.3620689E-1,1.6034484E-1,7.920965E-1,7.920965E-1,3.1865757E-2,6.7541897E-3,-2.416992E-3,-9.260686E-3,4.7496423E-2,2.1496986E-1,1.6878912E-2,9.88192E-2,5.4084355E-1,-2.0373633E-2,5E-1,1.8052775E-1,5.494173E-2,1.4336714E-1,5.0555125E-2,1.396291E-1,5.9290365E-3,-7.4973917E-3,1.3521786E-1,1.813869E-1,9.047421E-3,5.2356523E-2,1.6789702E-1,1.717681E-1,4.951386E-2,-2.2309266E-3,4.9482757E-1,-3.2783952E-3,7.1034485E-1,2.777778E-1,1.3739238E-2,5.531761E-3,3.1551725E-1,5.46453E-2,1.6666667E-1,3.5208857E-1,7.830393E-1,8.2724166E-1,1.2389015E-3,2.9672307E-1,4.1296717E-4,2.5200013E-2,4.0961468E-1,-6.112731E-3,2.7367663E-2,4.636298E-2,1.5E-1,2.777778E-1,2.5344828E-1,9.068239E-1,9.818149E-1,9.8790765E-1,8.292807E-3,3.8173627E-2,1.0623823E-2,9.594248E-2,7.9949945E-2,2.0382756E-2,-2.010694E-2,2.997489E-2,1.1208626E-1,3.577282E-2,-0E0,-1.8762995E-3,-1.9125314E-4,3.453769E-3,-1.0922022E-4,-1.28843E-3,-3.0558363E-3,-9.755762E-4,-2.966896E-3,-2.2831473E-3,-2.1270092E-3,-2.8326537E-3,2.0417417E-3,6.4182654E-3,-4.7988622E-4,2.8781232E-3,5.2397896E-4,2.998023E-3,-7.143688E-4,7.23139E-4,-1.1298883E-3,-1.9017413E-4,7.834444E-4,-2.1520596E-4,1.5346171E-2,2.1118268E-2,2.0787434E-3,1.594505E-2,2.143589E-2,3.955303E-2,-6.065354E-3,1.0890191E-2,4.7233246E-2,6.3904405E-2,3.5027575E-2,5.8270372E-2,3.8688708E-2,7.615683E-2,2.8490309E-2,3.661022E-2,2.1039555E-2,1.4972483E-2,2.1958103E-2,1.7838942E-2,1.6418722E-2,8.347262E-3,2.4858842E-2,2.9409802E-2],"split_indices":[3,4,6,4,4,6,4,7,5,5,0,5,5,6,5,6,0,4,4,7,5,5,4,3,6,5,5,6,5,5,4,0,8,0,0,6,0,7,5,6,0,5,6,0,4,5,6,3,5,4,4,3,5,3,6,5,5,0,5,3,3,6,6,0,0,0,0,0,0,6,0,6,0,0,0,0,0,0,5,0,0,5,0,0,0,5,5,5,0,3,0,3,4,0,0,3,5,4,5,5,5,8,5,8,0,5,0,5,5,3,4,3,5,5,6,0,0,0,0,0,0,0,0,0,0,0,0,0,0,0,0,0,0,0,0,0,0,0,0,0,0,0,0,0,0,0,0,0,0,0,0,0,0,0,0,0,0,0,0,0,0,0,0,0,0,0,0,0,0,0,0,0,0],"split_type":[0,0,0,0,0,0,0,0,0,0,0,0,0,0,0,0,0,0,0,0,0,0,0,0,0,0,0,0,0,0,0,0,0,0,0,0,0,0,0,0,0,0,0,0,0,0,0,0,0,0,0,0,0,0,0,0,0,0,0,0,0,0,0,0,0,0,0,0,0,0,0,0,0,0,0,0,0,0,0,0,0,0,0,0,0,0,0,0,0,0,0,0,0,0,0,0,0,0,0,0,0,0,0,0,0,0,0,0,0,0,0,0,0,0,0,0,0,0,0,0,0,0,0,0,0,0,0,0,0,0,0,0,0,0,0,0,0,0,0,0,0,0,0,0,0,0,0,0,0,0,0,0,0,0,0,0,0,0,0,0,0,0,0,0,0,0,0,0,0,0,0,0,0],"sum_hessian":[7.857E3,1.57E2,7.7E3,1.02E2,5.5E1,7.5E2,6.95E3,2.1E1,8.1E1,3.5E1,2E1,2.97E2,4.53E2,5.98E2,6.352E3,1.5E1,6E0,1.2E1,6.9E1,2.6E1,9E0,7E0,1.3E1,5.4E1,2.43E2,1.09E2,3.44E2,1.96E2,4.02E2,8.44E2,5.508E3,4E0,1.1E1,4E0,2E0,7E0,5E0,2.9E1,4E1,2.5E1,1E0,5E0,4E0,1E0,6E0,7E0,6E0,2E1,3.4E1,8.6E1,1.57E2,2E0,1.07E2,1.49E2,1.95E2,1.31E2,6.5E1,9.9E1,3.03E2,1.91E2,6.53E2,1.276E3,4.232E3,3E0,1E0,1E0,1E1,1E0,6E0,2.7E1,2E0,3.7E1,3E0,2E0,2.3E1,3E0,2E0,2E0,2E0,3E0,3E0,5E0,2E0,1E0,5E0,6E0,1.4E1,1.8E1,1.6E1,1.6E1,7E1,7.7E1,8E1,1E0,1E0,1.1E1,9.6E1,8.1E1,6.8E1,5.4E1,1.41E2,3.6E1,9.5E1,1.4E1,5.1E1,7.9E1,2.24E2,8.7E1,1.04E2,1.87E2,4.66E2,1.24E2,1.152E3,2.36E2,3.996E3,2E0,2.5E1,2E0,3.5E1,1E0,1E0,1E0,1E0,3E0,2E0,1E0,5E0,1.2E1,2E0,4E0,1.4E1,1.2E1,4E0,6.4E1,1.3E1,4.3E1,3.7E1,4E0,7E0,4E0,9.2E1,3.4E1,4.7E1,2E1,4.8E1,2.6E1,2.8E1,8.7E1,5.4E1,8E0,2.8E1,2E0,9.3E1,2E0,1.2E1,7.7E1,2E0,4.2E1,4.5E1,8.8E1,1.6E1,1.69E2,1.8E1,2.98E2,1.68E2,1.9E1,1.05E2,1.019E3,1.33E2,2.26E2,1E1,5.58E2,3.438E3],"tree_param":{"num_deleted":"0","num_feature":"12","num_nodes":"173","size_leaf_vector":"0"}},{"base_weights":[1.18801E0,2.861411E-1,1.9918482E0,5.396161E-1,1.1088141E-1,6.515911E0,1.8808389E0,4.0844724E-2,1.1535416E0,-6.212248E-1,1.287967E-1,1.3444135E1,5.8598175E0,2.0378718E0,1.2424997E0,1.5057938E0,2.0669825E-2,6.1876082E0,1.1281025E0,-1.2661738E0,-3.9696705E-1,6.1770484E-2,2.2209416E-1,1.7588593E1,5.4639106E0,1.8159364E0,7.6378484E0,2.5912886E0,1.9313006E0,1.6764462E0,1.1826242E0,1.1688467E0,2.1932256E0,1.6974124E-1,-1.1477735E-2,8.726313E-1,1.3492631E0,-8.670967E-1,-3.351578E-1,4.14699E-2,6.670695E-1,1.3027616E-1,4.0687802E-1,1.24907255E1,2.2351469E1,1.4201391E0,6.016927E0,1.2272399E1,5.984482E0,2.075992E0,3.0954642E0,2.0526092E0,1.6306629E0,1.6026433E0,1.9605128E0,1.1435839E0,1.4375273E0,1.4633734E0,7.8108275E-1,3.2820085E-1,1.2607692E-1,-7.5141266E-2,8.88937E-2,-1.5638937E-1,8.9287084E-1,2.1474144E0,1.2928457E0,2.3408728E0,3.698389E-2,-7.145829E-1,8.697334E-1,1.8024753E-1,-2.1139483E-1,1.4962109E0,3.630841E-1,-3.1748254E-2,1.6078742E0,8.873241E0,1.6452159E0,1.8495535E1,9.75287E0,1.0702857E0,7.2908373E0,2.7959292E0,1.7396477E0,4.6331143E0,2.4551177E0,1.8675046E0,2.535773E0,1.9292475E0,1.5716101E0,1.7111174E0,1.2854003E0,2.271279E0,1.4950004E0,1.1091223E0,1.2875092E0,1.200166E0,2.1629322E0,5.292748E-1,2.7304825E-1,2.0907134E-1,1.13781825E-1,3.484679E-2,-1.0564783E-1,5.036612E-3,2.294407E-1,1.1832728E0,8.239541E-1,2.91261E0,1.9860489E0,1.211312E0,1.567216E0,-2.3705636E-1,8.005176E-2,1.6152965E0,3.545428E-1,1.488752E-1,1.4697955E0,-8.0711424E-1,-8.4640905E-2,7.696614E-2,2.264885E0,1.4142442E0,3.1916445E-1,-3.4200707E-1,5.0842315E-1,1.6489458E0,5.0720054E-1,1.4843262E0,3.795029E-1,1.721266E1,5.9275985E0,2.483075E0,4.22139E0,1.6691252E0,2.0649145E0,4.1044908E0,6.147441E0,3.7671115E0,2.1766567E0,1.6698407E0,1.9354745E0,2.6476185E0,1.9870188E0,1.6403693E0,2.0357997E0,1.3087269E0,1.586987E0,1.997633E0,1.5513558E0,1.1373819E0,1.5738244E0,2.3774524E0,9.4943845E-1,1.1713991E0,1.8589191E0,1.1470107E0,7.130292E-1,1.3661056E0,1.1712438E0,1.2302992E0,8.2863784E-1,5.3466973E0,1.3702674E0],"categories":[],"categories_nodes":[],"categories_segments":[],"categories_sizes":[],"default_left":[true,true,true,true,true,true,true,true,true,true,true,true,true,true,true,true,true,false,true,false,true,true,true,true,false,true,true,true,true,true,true,true,false,true,true,true,true,false,false,true,true,true,true,false,false,true,true,true,true,true,true,true,true,true,true,true,true,false,false,true,true,true,true,false,true,true,true,false,true,false,true,true,true,true,true,true,true,false,false,false,false,true,true,true,true,true,true,true,true,true,true,true,true,true,true,true,true,true,true,false,false,false,false,false,false,false,false,false,false,false,false,false,false,false,false,false,false,false,false,false,false,false,false,false,false,false,false,false,false,false,false,false,false,false,false,false,false,false,false,false,false,false,false,false,false,false,false,false,false,false,false,false,false,false,false,false,false,false,false,false,false,false,false,false,false],"id":29,"left_children":[1,3,5,7,9,11,13,15,17,19,21,23,25,27,29,31,33,-1,35,-1,37,39,41,43,-1,45,47,49,51,53,55,57,-1,59,61,63,65,-1,-1,67,69,71,73,-1,-1,75,77,79,81,83,85,87,89,91,93,95,97,-1,-1,99,101,103,105,-1,107,109,111,-1,113,-1,115,117,119,121,123,125,127,-1,-1,-1,-1,129,131,133,135,137,139,141,143,145,147,149,151,153,155,157,159,161,163,-1,-1,-1,-1,-1,-1,-1,-1,-1,-1,-1,-1,-1,-1,-1,-1,-1,-1,-1,-1,-1,-1,-1,-1,-1,-1,-1,-1,-1,-1,-1,-1,-1,-1,-1,-1,-1,-1,-1,-1,-1,-1,-1,-1,-1,-1,-1,-1,-1,-1,-1,-1,-1,-1,-1,-1,-1,-1,-1,-1,-1,-1,-1,-1,-1,-1],"loss_changes":[5.6945537E3,1.6444302E2,2.0816562E3,4.633627E2,2.8734722E1,4.2498047E2,4.055166E2,2.4656294E1,8.443671E1,7.377907E0,1.3356926E1,2.4324255E2,6.519407E2,1.9014258E2,2.0118896E1,1.7223244E0,3.9533463E0,0E0,3.7732117E1,0E0,1.0289059E0,1.5270943E1,1.5131397E1,3.590161E1,0E0,4.415567E1,4.605476E2,1.3400513E2,9.836914E1,9.210205E-1,6.434143E0,5.3856087E-1,0E0,9.9220705E-1,4.3365817E0,6.6036835E0,1.5295776E1,0E0,0E0,1.2360094E1,1.1503281E1,1.0210998E1,1.3929253E1,0E0,0E0,7.217228E0,2.4119827E1,1.9554248E2,3.0114478E2,6.1352295E1,2.5637598E2,1.721626E2,1.2803955E1,1.9194641E0,1.4661789E0,2.5316772E0,1.4984634E1,0E0,0E0,2.8784323E-1,1.0515118E-1,1.3958304E0,3.0998821E0,0E0,5.817108E0,8.822632E-1,6.895996E0,0E0,1.4194424E1,0E0,1.3352762E1,2.0995071E1,5.728422E0,1.2272566E1,1.2997627E1,6.14278E-1,7.451744E-1,0E0,0E0,0E0,0E0,2.741065E0,4.7061157E2,3.3126465E1,2.8881226E0,5.334558E1,6.562109E1,1.7765137E1,3.1158691E1,2.7841492E0,1.9272461E0,1.540329E0,2.7516937E-1,6.5005875E-1,2.1201706E-1,7.1643677E0,4.9328613E-1,4.1807556E-1,5.3823097E1,0E0,0E0,0E0,0E0,0E0,0E0,0E0,0E0,0E0,0E0,0E0,0E0,0E0,0E0,0E0,0E0,0E0,0E0,0E0,0E0,0E0,0E0,0E0,0E0,0E0,0E0,0E0,0E0,0E0,0E0,0E0,0E0,0E0,0E0,0E0,0E0,0E0,0E0,0E0,0E0,0E0,0E0,0E0,0E0,0E0,0E0,0E0,0E0,0E0,0E0,0E0,0E0,0E0,0E0,0E0,0E0,0E0,0E0,0E0,0E0,0E0,0E0,0E0,0E0,0E0,0E0],"parents":[2147483647,0,0,1,1,2,2,3,3,4,4,5,5,6,6,7,7,8,8,9,9,10,10,11,11,12,12,13,13,14,14,15,15,16,16,18,18,20,20,21,21,22,22,23,23,25,25,26,26,27,27,28,28,29,29,30,30,31,31,33,33,34,34,35,35,36,36,39,39,40,40,41,41,42,42,45,45,46,46,47,47,48,48,49,49,50,50,51,51,52,52,53,53,54,54,55,55,56,56,59,59,60,60,61,61,62,62,64,64,65,65,66,66,68,68,70,70,71,71,72,72,73,73,74,74,75,75,76,76,81,81,82,82,83,83,84,84,85,85,86,86,87,87,88,88,89,89,90,90,91,91,92,92,93,93,94,94,95,95,96,96,97,97,98,98],"right_children":[2,4,6,8,10,12,14,16,18,20,22,24,26,28,30,32,34,-1,36,-1,38,40,42,44,-1,46,48,50,52,54,56,58,-1,60,62,64,66,-1,-1,68,70,72,74,-1,-1,76,78,80,82,84,86,88,90,92,94,96,98,-1,-1,100,102,104,106,-1,108,110,112,-1,114,-1,116,118,120,122,124,126,128,-1,-1,-1,-1,130,132,134,136,138,140,142,144,146,148,150,152,154,156,158,160,162,164,-1,-1,-1,-1,-1,-1,-1,-1,-1,-1,-1,-1,-1,-1,-1,-1,-1,-1,-1,-1,-1,-1,-1,-1,-1,-1,-1,-1,-1,-1,-1,-1,-1,-1,-1,-1,-1,-1,-1,-1,-1,-1,-1,-1,-1,-1,-1,-1,-1,-1,-1,-1,-1,-1,-1,-1,-1,-1,-1,-1,-1,-1,-1,-1,-1,-1],"split_conditions":[6.621175E-1,6.572582E-1,7.4137926E-2,3.8253418E-1,2.160605E-2,7.7843237E-1,7.090609E-2,5E-1,5E-1,2.7272727E-2,7.5757575E-1,5E-1,8.2218254E-1,1.9049335E-1,1.7725962E-1,4.0821142E-2,8.23977E-2,1.2375216E-1,6.028142E-1,-2.5323477E-2,4.1296717E-4,8.5862064E-1,6.82121E-1,7.563675E-1,1.0927821E-1,1.166234E-1,8.349742E-1,8.2218254E-1,8.4422266E-1,9.9787235E-1,9.212121E-1,1.24566406E-1,4.386451E-2,2.0219663E-1,2.8854463E-1,6.736668E-2,1.1082103E-1,-1.7341934E-2,-6.703156E-3,2.2326251E-2,6.85542E-1,6.135218E-1,2.6206896E-1,2.4981451E-1,4.4702938E-1,2.7272727E-2,5E-1,5E-1,8.571358E-1,7.7943826E-1,8.349742E-1,8.2218254E-1,3.3957508E-1,1.4259993E-1,2.413793E-1,9.5665354E-1,9.345995E-1,2.9267468E-2,1.5621655E-2,1.2068965E-1,2.3393584E-2,1.0025515E-1,6.736668E-2,-3.1277873E-3,2.2173208E-1,2.1896552E-1,6.450739E-1,4.6817455E-2,2.5344828E-1,-1.4291658E-2,8.8575804E-1,5.982175E-1,6.3197696E-1,2.413793E-1,6.924739E-1,8.0460525E-1,6.724138E-2,1.7746483E-1,3.2904316E-2,3.699107E-1,1.9505739E-1,8.4844077E-1,2.7272727E-2,9.212121E-1,9.212121E-1,9.212121E-1,4.6092905E-2,7.554066E-1,8.349742E-1,8.76709E-1,8.486788E-1,2.6206896E-1,2.086207E-1,9.699887E-1,9.3676007E-1,9.02244E-1,9.699887E-1,8.835277E-1,9.532107E-1,1.0585496E-2,5.460965E-3,4.1814265E-3,2.2756364E-3,6.969358E-4,-2.1129565E-3,1.00732235E-4,4.588814E-3,2.3665456E-2,1.6479082E-2,5.82522E-2,3.972098E-2,2.422624E-2,3.134432E-2,-4.741127E-3,1.6010351E-3,3.230593E-2,7.090856E-3,2.9775042E-3,2.9395908E-2,-1.6142284E-2,-1.692818E-3,1.5393227E-3,4.5297697E-2,2.8284883E-2,6.383289E-3,-6.8401415E-3,1.0168463E-2,3.2978915E-2,1.014401E-2,2.9686524E-2,7.590058E-3,3.4425318E-1,1.1855197E-1,4.96615E-2,8.44278E-2,3.33825E-2,4.129829E-2,8.208981E-2,1.2294882E-1,7.534223E-2,4.3533135E-2,3.3396814E-2,3.8709488E-2,5.2952368E-2,3.9740376E-2,3.2807384E-2,4.0715992E-2,2.6174538E-2,3.1739738E-2,3.9952658E-2,3.1027116E-2,2.2747638E-2,3.1476486E-2,4.7549047E-2,1.898877E-2,2.3427982E-2,3.7178382E-2,2.2940213E-2,1.4260584E-2,2.732211E-2,2.3424875E-2,2.4605984E-2,1.6572757E-2,1.06933944E-1,2.7405348E-2],"split_indices":[1,1,3,1,5,1,7,0,0,2,2,0,1,5,5,7,1,0,1,0,8,3,5,1,0,7,1,1,1,10,2,1,0,5,1,7,5,0,0,5,5,5,3,0,0,2,0,0,1,1,1,1,5,5,3,1,1,0,0,3,1,1,7,0,5,3,1,0,3,0,5,5,5,3,5,1,3,0,0,0,0,1,2,2,2,2,5,1,1,1,1,3,3,1,1,1,1,1,1,0,0,0,0,0,0,0,0,0,0,0,0,0,0,0,0,0,0,0,0,0,0,0,0,0,0,0,0,0,0,0,0,0,0,0,0,0,0,0,0,0,0,0,0,0,0,0,0,0,0,0,0,0,0,0,0,0,0,0,0,0,0,0,0,0,0],"split_type":[0,0,0,0,0,0,0,0,0,0,0,0,0,0,0,0,0,0,0,0,0,0,0,0,0,0,0,0,0,0,0,0,0,0,0,0,0,0,0,0,0,0,0,0,0,0,0,0,0,0,0,0,0,0,0,0,0,0,0,0,0,0,0,0,0,0,0,0,0,0,0,0,0,0,0,0,0,0,0,0,0,0,0,0,0,0,0,0,0,0,0,0,0,0,0,0,0,0,0,0,0,0,0,0,0,0,0,0,0,0,0,0,0,0,0,0,0,0,0,0,0,0,0,0,0,0,0,0,0,0,0,0,0,0,0,0,0,0,0,0,0,0,0,0,0,0,0,0,0,0,0,0,0,0,0,0,0,0,0,0,0,0,0,0,0],"sum_hessian":[7.855E3,3.702E3,4.153E3,1.513E3,2.189E3,9.9E1,4.054E3,8.35E2,6.78E2,5.2E1,2.137E3,8E0,9.1E1,3.253E3,8.01E2,1.1E1,8.24E2,3E0,6.75E2,1.3E1,3.9E1,1.244E3,8.93E2,5E0,3E0,2.8E1,6.3E1,5.24E2,2.729E3,9.6E1,7.05E2,8E0,3E0,1.46E2,6.78E2,3.14E2,3.61E2,4E0,3.5E1,1.204E3,4E1,5.97E2,2.96E2,3E0,2E0,2.6E1,2E0,1.6E1,4.7E1,2.6E2,2.64E2,1.943E3,7.86E2,7.8E1,1.8E1,6.13E2,9.2E1,4E0,4E0,3.1E1,1.15E2,4.15E2,2.63E2,6E0,3.08E2,2.3E1,3.38E2,2E0,1.202E3,5E0,3.5E1,5.21E2,7.6E1,1.1E1,2.85E2,3E0,2.3E1,1E0,1E0,4E0,1.2E1,1E1,3.7E1,8.2E1,1.78E2,7.7E1,1.87E2,1.406E3,5.37E2,1.28E2,6.58E2,5.7E1,2.1E1,1E1,8E0,4.97E2,1.16E2,7E1,2.2E1,6E0,2.5E1,1.4E1,1.01E2,9E1,3.25E2,1.65E2,9.8E1,5.8E1,2.5E2,3E0,2E1,2.62E2,7.6E1,1.63E2,1.039E3,1.4E1,2.1E1,5.09E2,1.2E1,1.3E1,6.3E1,4E0,7E0,1.1E1,2.74E2,2E0,1E0,2.2E1,1E0,6E0,4E0,4E0,3.3E1,6.8E1,1.4E1,1.48E2,3E1,5.8E1,1.9E1,3.2E1,1.55E2,3.62E2,1.044E3,4.45E2,9.2E1,3.6E1,9.2E1,3.8E1,6.2E2,1.9E1,3.8E1,1.5E1,6E0,9E0,1E0,5E0,3E0,4.53E2,4.4E1,6.7E1,4.9E1,6.4E1,6E0,4E0,1.8E1],"tree_param":{"num_deleted":"0","num_feature":"12","num_nodes":"165","size_leaf_vector":"0"}},{"base_weights":[1.1668411E0,1.0443189E1,1.1358858E0,2.2458928E0,1.1085571E1,3.0143291E-3,1.2558702E0,1.8011766E1,1.0530708E1,8.761299E-1,-1.0226632E-2,3.700797E0,1.2125262E0,1.0186664E0,5.6420547E-1,-1.2096979E-1,5.9811644E-2,3.5320382E0,6.23066E0,1.545363E0,1.1603128E0,5.6219274E-1,1.1520144E0,7.172304E-1,3.244383E-1,-1.2086993E-2,-1.3030398E-1,2.0220566E-1,3.3866882E-2,3.7126946E0,1.5402035E0,7.2097425E0,3.0963082E0,2.0287702E0,1.4400542E0,7.514218E-1,1.1933855E0,-9.350222E-2,5.0242502E-2,-7.997087E-2,-1.346685E-1,1.6245595E-1,3.294319E-1,5.644689E-2,1.1731738E-2,3.4735126E0,8.067076E0,-9.925013E-1,1.8485496E0,1.8870332E0,5.072056E0,1.3734742E0,1.9644897E0,7.628768E-1,5.278279E-1,1.1747376E0,1.296305E0,-0E0,-1.1601936E-1,-5.08851E-3,1.6884027E-1,-8.386329E-2,-0E0,-1.3816586E-1,-8.826478E-2,9.749348E-2,2.3497409E-1,-8.593765E-2,3.593202E-1,1.2415801E-2,7.546236E-2,-1.4857311E-3,4.7447726E-2,3.6137815E0,6.938189E-1,1.2180953E0,2.8571863E0,1.9719384E0,2.3739152E-1,8.6877185E-1,6.591253E0,1.6633823E0,1.2829211E0,1.3078141E0,2.7921402E0,7.514488E-1,9.706286E-1,5.5382025E-1,-2.880182E-2,1.1883667E0,1.0015084E0,1.2416842E0,1.4349759E0],"categories":[],"categories_nodes":[],"categories_segments":[],"categories_sizes":[],"default_left":[true,true,true,false,true,true,true,false,false,true,true,true,true,true,true,true,true,true,true,true,true,false,false,false,false,true,true,true,true,true,true,false,false,true,true,true,true,true,true,true,true,true,true,true,true,true,false,false,true,true,true,true,true,true,true,true,true,false,false,false,false,false,false,false,false,false,false,false,false,false,false,false,false,false,false,false,false,false,false,false,false,false,false,false,false,false,false,false,false,false,false,false,false],"id":30,"left_children":[1,3,5,-1,7,9,11,-1,-1,13,15,17,19,21,23,25,27,29,31,33,35,-1,-1,-1,-1,37,39,41,43,45,47,-1,-1,49,51,53,55,57,59,61,63,65,67,69,71,73,-1,-1,75,77,79,81,83,85,87,89,91,-1,-1,-1,-1,-1,-1,-1,-1,-1,-1,-1,-1,-1,-1,-1,-1,-1,-1,-1,-1,-1,-1,-1,-1,-1,-1,-1,-1,-1,-1,-1,-1,-1,-1,-1,-1],"loss_changes":[2.2730986E3,1.3017407E2,1.0743916E3,0E0,2.985669E1,8.770787E0,7.558574E2,0E0,0E0,2.896557E-1,5.7920413E0,4.5604492E1,1.2141797E2,2.059617E-1,6.654036E-2,2.9150295E-1,1.683912E0,4.0239136E1,1.4913605E1,4.740576E1,8.178955E1,0E0,0E0,0E0,0E0,1.2059098E-1,5.1855087E-2,3.3082795E-1,1.9240054E-1,1.0227783E2,8.693949E0,0E0,0E0,6.975037E1,2.6369263E1,1.0135498E0,1.0238281E1,2.1830536E-2,9.0118304E-2,7.2092563E-3,3.2356262E-2,2.4358106E-1,2.1697187E-1,1.5863222E-1,9.336323E-2,3.9002686E1,0E0,0E0,4.7164307E0,2.2549255E1,4.481276E1,1.7500366E1,4.618936E1,7.5865173E-1,3.5039902E-1,1.0808594E1,5.8688965E0,0E0,0E0,0E0,0E0,0E0,0E0,0E0,0E0,0E0,0E0,0E0,0E0,0E0,0E0,0E0,0E0,0E0,0E0,0E0,0E0,0E0,0E0,0E0,0E0,0E0,0E0,0E0,0E0,0E0,0E0,0E0,0E0,0E0,0E0,0E0,0E0],"parents":[2147483647,0,0,1,1,2,2,4,4,5,5,6,6,9,9,10,10,11,11,12,12,13,13,14,14,15,15,16,16,17,17,18,18,19,19,20,20,25,25,26,26,27,27,28,28,29,29,30,30,33,33,34,34,35,35,36,36,37,37,38,38,39,39,40,40,41,41,42,42,43,43,44,44,45,45,48,48,49,49,50,50,51,51,52,52,53,53,54,54,55,55,56,56],"right_children":[2,4,6,-1,8,10,12,-1,-1,14,16,18,20,22,24,26,28,30,32,34,36,-1,-1,-1,-1,38,40,42,44,46,48,-1,-1,50,52,54,56,58,60,62,64,66,68,70,72,74,-1,-1,76,78,80,82,84,86,88,90,92,-1,-1,-1,-1,-1,-1,-1,-1,-1,-1,-1,-1,-1,-1,-1,-1,-1,-1,-1,-1,-1,-1,-1,-1,-1,-1,-1,-1,-1,-1,-1,-1,-1,-1,-1,-1],"split_conditions":[2.7272727E-2,5.4084355E-1,3.9510223E-1,4.4917855E-2,9.689189E-1,7.241379E-2,6.724138E-2,3.6023533E-1,2.1061416E-1,5E-1,7.6129995E-2,1.3137093E-1,1.7383868E-1,3.6677136E-3,1.3484347E-1,1.7758621E-1,2.0102629E-1,1.3854879E-1,5E-1,4.1591644E-2,7.920965E-1,1.1243855E-2,2.3040287E-2,1.43446075E-2,6.488766E-3,1.2931034E-1,1.7338854E-1,8.30303E-1,3.948276E-1,1.3692835E-1,1.389089E-1,1.4419484E-1,6.1926164E-2,4.078142E-2,1.6123515E-1,9.669608E-1,9.212121E-1,3.969697E-1,6.818182E-1,1.5520346E-1,7.724138E-1,3.9234042E-1,1.0689655E-1,1.3484347E-1,7.5757575E-1,1.343176E-1,1.6134152E-1,-1.9850027E-2,1.3989916E-1,3.9881166E-2,8.231776E-1,1.6680852E-1,7.7575755E-1,9.2536914E-1,9.9963987E-1,9.3896294E-1,7.543212E-1,-0E0,-2.3203872E-3,-1.01770194E-4,3.3768055E-3,-1.6772657E-3,-0E0,-2.7633172E-3,-1.7652955E-3,1.9498694E-3,4.6994817E-3,-1.7187529E-3,7.1864035E-3,2.48316E-4,1.5092472E-3,-2.9714622E-5,9.489545E-4,7.227563E-2,1.3876379E-2,2.4361905E-2,5.7143725E-2,3.9438765E-2,4.7478303E-3,1.7375438E-2,1.3182506E-1,3.3267643E-2,2.5658421E-2,2.6156282E-2,5.5842802E-2,1.5028976E-2,1.9412572E-2,1.1076405E-2,-5.760364E-4,2.3767332E-2,2.0030167E-2,2.4833683E-2,2.8699517E-2],"split_indices":[2,6,6,0,6,3,3,0,0,0,6,7,5,6,6,3,5,5,0,5,6,0,0,0,0,3,5,2,3,5,5,0,0,5,5,5,2,2,2,5,3,10,3,6,2,5,0,0,5,5,6,10,2,5,5,5,5,0,0,0,0,0,0,0,0,0,0,0,0,0,0,0,0,0,0,0,0,0,0,0,0,0,0,0,0,0,0,0,0,0,0,0,0],"split_type":[0,0,0,0,0,0,0,0,0,0,0,0,0,0,0,0,0,0,0,0,0,0,0,0,0,0,0,0,0,0,0,0,0,0,0,0,0,0,0,0,0,0,0,0,0,0,0,0,0,0,0,0,0,0,0,0,0,0,0,0,0,0,0,0,0,0,0,0,0,0,0,0,0,0,0,0,0,0,0,0,0,0,0,0,0,0,0,0,0,0,0,0,0],"sum_hessian":[7.93E3,2.6E1,7.904E3,2E0,2.4E1,7.57E2,7.147E3,1E0,2.3E1,1.1E1,7.46E2,1.24E2,7.023E3,7E0,4E0,2.89E2,4.57E2,1.17E2,7E0,9.51E2,6.072E3,2E0,5E0,2E0,2E0,2.3E1,2.66E2,7E1,3.87E2,1.07E2,1E1,5E0,2E0,1.69E2,7.82E2,4.55E2,5.617E3,1E1,1.3E1,2.2E1,2.44E2,5.4E1,1.6E1,1.91E2,1.96E2,1.02E2,5E0,1E0,9E0,1.62E2,7E0,6.95E2,8.7E1,4.32E2,2.3E1,4.759E3,8.58E2,2E0,8E0,9E0,4E0,2.1E1,1E0,2.26E2,1.8E1,2.9E1,2.5E1,1E0,1.5E1,5.8E1,1.33E2,1.43E2,5.3E1,9.7E1,5E0,6E0,3E0,1.54E2,8E0,2E0,5E0,1.64E2,5.31E2,4.9E1,3.8E1,4.11E2,2.1E1,2.2E1,1E0,4.41E3,3.49E2,6.18E2,2.4E2],"tree_param":{"num_deleted":"0","num_feature":"12","num_nodes":"93","size_leaf_vector":"0"}},{"base_weights":[1.1404904E0,2.5816008E-1,1.9350892E0,-2.4200897E-3,4.5306015E-1,1.7085876E1,1.8902955E0,-1.3011214E-1,5.580477E-1,3.946892E-2,5.5180424E-1,3.342407E1,1.0638671E1,6.7337356E0,1.8442047E0,1.0014663E-1,-2.086047E-1,1.4203458E-1,8.8833505E-1,1.9165115E-2,2.8059086E-1,1.1184473E0,3.248063E-1,1.3406785E1,6.0083443E1,5.079115E0,2.0133076E1,6.2184873E0,1.4008829E1,2.0063934E0,1.2154768E0,3.131745E-3,1.685035E0,-2.1052458E0,-1.9817929E-1,6.599557E-2,4.2254463E-1,3.7949145E0,8.631667E-1,1.310833E-1,-2.7965527E-2,8.8493466E-1,1.0139035E-1,2.930745E0,1.086921E0,1.3681205E-1,4.7347778E-1,2.3372147E1,7.798736E-2,-4.9511114E-1,1.4711233E1,1.2691824E1,5.5291705E0,2.7082212E0,1.8764101E0,1.6311872E0,1.1549673E0,1.1810433E0,-2.0865181E-2,1.1035471E0,1.8612082E0,-5.7034516E-1,-2.4122612E0,-3.3033332E-1,-1.0141511E-1,2.8488398E-1,2.2632977E-2,7.205229E-1,1.5331303E-1,1.7145855E0,8.439405E-1,4.1932145E-1,8.261652E-2,-8.375128E-2,4.9926855E-2,-1.389162E-1,1.7910159E-1,3.064927E0,1.4491942E0,8.1414926E-1,1.2594414E0,-8.5472874E-2,2.1112996E-1,2.4525864E-1,7.132955E-1,6.080321E-1,-1.5336119E0,2.305822E0,7.2260404E0,2.0278656E0,3.3745456E0,1.9871534E0,1.5939425E0,1.5052859E0,2.1775494E0,1.092714E0,1.2880051E0,1.5106866E0,7.289725E-1,1.703618E-1,-5.699219E-2,-3.6951968E-1,-3.212403E-1,-1.500437E-1,4.3151382E-1,4.6521056E-1,1.1217106E-1,-1.0577576E-2,9.739974E-2,4.6123737E-1,7.795334E-1,2.9813284E-1,4.8035815E-2,7.990192E-1,1.2061177E0,5.6811136E-1,2.8590465E-1,7.1959145E-2,8.2916766E-1,6.689782E-2,-1.1362618E-1,7.539869E-2,-9.177445E-2,2.3398635E-1,-1.0346267E-1,-1.4735049E-1,8.4029E-1,1.1760811E0,1.5843027E0,-5.5329604E-3,-9.0084106E-1,5.8584553E-1,8.447039E-2,1.9915839E-1,9.6755135E-1,2.4247353E0,6.204807E-1,1.4923909E0,8.632021E0,1.612916E1,4.9894013E0,2.883649E0,1.7120162E0,5.3838315E0,2.592634E0,1.8083688E0,2.4908352E0,1.8550317E0,1.534832E0,3.3234959E0,1.4501628E0,3.2278695E0,1.7350698E0,1.0452161E0,1.1533679E0,1.6827468E0,1.2090747E0],"categories":[],"categories_nodes":[],"categories_segments":[],"categories_sizes":[],"default_left":[true,true,true,true,true,true,true,true,true,true,true,true,true,true,true,true,true,true,true,true,true,true,true,true,false,true,false,true,false,true,true,true,true,true,true,true,true,false,true,true,true,false,true,true,true,true,true,false,false,true,false,false,true,true,true,true,true,true,true,false,false,false,false,true,true,true,true,true,true,false,true,true,true,true,true,false,true,false,false,true,true,true,true,true,true,false,false,true,true,true,true,true,true,true,true,true,true,false,false,false,false,false,false,false,false,false,false,false,false,false,false,false,false,false,false,false,false,false,false,false,false,false,false,false,false,false,false,false,false,false,false,false,false,false,false,false,false,false,false,false,false,false,false,false,false,false,false,false,false,false,false,false,false,false,false,false,false],"id":31,"left_children":[1,3,5,7,9,11,13,15,17,19,21,23,25,27,29,31,33,35,37,39,41,43,45,47,-1,49,-1,51,-1,53,55,57,59,61,63,65,67,-1,69,71,73,-1,75,77,79,81,83,-1,-1,85,-1,-1,87,89,91,93,95,97,99,-1,-1,-1,-1,101,103,105,107,109,111,-1,113,115,117,119,121,-1,123,-1,-1,125,127,129,131,133,135,-1,-1,137,139,141,143,145,147,149,151,153,155,-1,-1,-1,-1,-1,-1,-1,-1,-1,-1,-1,-1,-1,-1,-1,-1,-1,-1,-1,-1,-1,-1,-1,-1,-1,-1,-1,-1,-1,-1,-1,-1,-1,-1,-1,-1,-1,-1,-1,-1,-1,-1,-1,-1,-1,-1,-1,-1,-1,-1,-1,-1,-1,-1,-1,-1,-1,-1,-1,-1],"loss_changes":[5.5941016E3,1.9204974E2,2.8381992E3,1.15837845E2,8.833417E1,1.1799478E3,9.3028516E2,2.383554E1,4.1210213E1,2.0370674E0,2.2448364E2,1.5092324E3,4.5820447E2,1.1810217E2,4.220547E2,5.1534283E1,1.927169E1,2.827696E0,1.1082306E1,2.0352411E0,3.4576843E0,2.7409973E1,3.483191E1,3.090041E2,0E0,3.426859E2,0E0,1.4292737E2,0E0,2.9895117E2,2.0746704E1,8.96633E0,1.2533569E0,2.0119934E0,1.2493378E1,9.932433E-1,2.2237558E0,0E0,2.2037811E0,1.5785236E0,1.1808982E0,0E0,4.8196033E-1,1.1110687E-1,2.275E1,9.115703E0,3.8039E1,0E0,0E0,5.28865E0,0E0,0E0,1.8209827E2,2.3080762E2,8.5927734E1,6.2376404E0,5.661316E0,5.446453E-1,2.1455472E0,0E0,0E0,0E0,0E0,9.7839355E-2,1.466852E1,5.142089E-1,2.2091804E-1,6.6411495E-2,2.2406411E-1,0E0,2.307373E0,2.5789094E-1,7.4961734E-1,7.1580124E-1,4.1113886E-1,0E0,3.0976737E-1,0E0,0E0,4.8602066E0,7.472473E0,9.002049E0,1.9591288E1,1.1817549E1,5.335695E1,0E0,0E0,5.9026833E1,4.1759058E2,6.730444E1,4.0266602E2,1.7829785E2,1.1122314E1,7.1779633E0,7.046715E0,1.0339966E0,6.61261E0,0E0,0E0,0E0,0E0,0E0,0E0,0E0,0E0,0E0,0E0,0E0,0E0,0E0,0E0,0E0,0E0,0E0,0E0,0E0,0E0,0E0,0E0,0E0,0E0,0E0,0E0,0E0,0E0,0E0,0E0,0E0,0E0,0E0,0E0,0E0,0E0,0E0,0E0,0E0,0E0,0E0,0E0,0E0,0E0,0E0,0E0,0E0,0E0,0E0,0E0,0E0,0E0,0E0,0E0,0E0,0E0,0E0,0E0,0E0,0E0],"parents":[2147483647,0,0,1,1,2,2,3,3,4,4,5,5,6,6,7,7,8,8,9,9,10,10,11,11,12,12,13,13,14,14,15,15,16,16,17,17,18,18,19,19,20,20,21,21,22,22,23,23,25,25,27,27,29,29,30,30,31,31,32,32,33,33,34,34,35,35,36,36,38,38,39,39,40,40,42,42,43,43,44,44,45,45,46,46,49,49,52,52,53,53,54,54,55,55,56,56,57,57,58,58,63,63,64,64,65,65,66,66,67,67,68,68,70,70,71,71,72,72,73,73,74,74,76,76,79,79,80,80,81,81,82,82,83,83,84,84,87,87,88,88,89,89,90,90,91,91,92,92,93,93,94,94,95,95,96,96],"right_children":[2,4,6,8,10,12,14,16,18,20,22,24,26,28,30,32,34,36,38,40,42,44,46,48,-1,50,-1,52,-1,54,56,58,60,62,64,66,68,-1,70,72,74,-1,76,78,80,82,84,-1,-1,86,-1,-1,88,90,92,94,96,98,100,-1,-1,-1,-1,102,104,106,108,110,112,-1,114,116,118,120,122,-1,124,-1,-1,126,128,130,132,134,136,-1,-1,138,140,142,144,146,148,150,152,154,156,-1,-1,-1,-1,-1,-1,-1,-1,-1,-1,-1,-1,-1,-1,-1,-1,-1,-1,-1,-1,-1,-1,-1,-1,-1,-1,-1,-1,-1,-1,-1,-1,-1,-1,-1,-1,-1,-1,-1,-1,-1,-1,-1,-1,-1,-1,-1,-1,-1,-1,-1,-1,-1,-1,-1,-1,-1,-1,-1,-1],"split_conditions":[6.621175E-1,1.6666667E-1,2.2506302E-3,7.090609E-2,3.8253418E-1,1.6666667E-1,1.7734967E-2,6.572582E-1,3.7966675E-1,3.6276892E-1,6.572582E-1,8.0838656E-1,8.7090075E-1,5E-1,7.090609E-2,5.0793403E-1,2.2506302E-3,3.443045E-1,5E-1,1.05228126E-1,3.6839437E-1,3.9791144E-2,2.777778E-1,7.7843237E-1,1.2016689E0,1.166234E-1,4.026615E-1,7.7843237E-1,2.8017658E-1,1.7347857E-1,1.9283399E-1,5E-1,6.341465E-1,5.5555556E-2,5.5555556E-2,1.3917896E-1,3.7000573E-1,7.589829E-2,1.8427517E-2,2.0075622E-1,2.8854463E-1,1.7698692E-2,3.7411445E-1,6.47778E-1,6.028142E-1,2.385668E-1,7.008511E-1,4.6744293E-1,1.5597472E-3,2.777778E-1,2.9422465E-1,2.5383648E-1,8.2218254E-1,8.2218254E-1,8.4422266E-1,9.9787235E-1,8.5533917E-1,5.5555556E-2,8.23977E-2,2.207094E-2,3.7224162E-2,-1.1406903E-2,-4.8245225E-2,1.6546634E-1,9.533169E-1,3.0221128E-1,2.8854463E-1,2.7021277E-1,4.85686E-1,3.429171E-2,5.4282683E-1,6.3883506E-2,9.780176E-2,1.882427E-1,3.3198547E-1,-2.7783238E-3,3.7874448E-1,6.129854E-2,2.8983884E-2,6.736668E-2,6.450739E-1,2.2407275E-1,4.1195536E-1,6.1111116E-1,1.2389015E-3,1.2160642E-2,-3.0672237E-2,1.166234E-1,8.349742E-1,7.7943826E-1,8.349742E-1,8.2218254E-1,3.389449E-1,2.4936981E-2,1.8427517E-2,7.7778685E-1,1.4619164E-1,3.0213732E-2,1.457945E-2,3.407236E-3,-1.1398438E-3,-7.3903934E-3,-6.424806E-3,-3.0008738E-3,8.630276E-3,9.304211E-3,2.2434213E-3,-2.1155152E-4,1.9479948E-3,9.224747E-3,1.5590668E-2,5.962657E-3,9.607163E-4,1.5980383E-2,2.4122354E-2,1.1362227E-2,5.718093E-3,1.4391829E-3,1.6583353E-2,1.3379563E-3,-2.2725237E-3,1.5079738E-3,-1.835489E-3,4.679727E-3,-2.0692535E-3,-2.9470096E-3,1.68058E-2,2.352162E-2,3.1686053E-2,-1.106592E-4,-1.801682E-2,1.1716911E-2,1.6894077E-3,3.9831675E-3,1.9351026E-2,4.8494704E-2,1.2409614E-2,2.9847817E-2,1.7264041E-1,3.225832E-1,9.9788025E-2,5.767298E-2,3.4240324E-2,1.07676625E-1,5.1852677E-2,3.6167376E-2,4.98167E-2,3.7100635E-2,3.069664E-2,6.6469915E-2,2.9003255E-2,6.455739E-2,3.4701396E-2,2.0904321E-2,2.3067357E-2,3.3654936E-2,2.4181494E-2],"split_indices":[1,4,5,7,1,4,5,1,1,1,1,1,1,4,7,1,5,1,0,1,1,5,4,1,0,7,0,1,0,5,5,0,1,4,4,5,1,0,11,5,1,0,1,1,1,5,10,0,0,4,0,0,1,1,1,10,1,4,1,0,0,0,0,5,11,11,1,10,5,0,7,1,1,5,1,0,1,0,0,7,1,5,5,4,8,0,0,7,1,1,1,1,5,5,11,1,11,0,0,0,0,0,0,0,0,0,0,0,0,0,0,0,0,0,0,0,0,0,0,0,0,0,0,0,0,0,0,0,0,0,0,0,0,0,0,0,0,0,0,0,0,0,0,0,0,0,0,0,0,0,0,0,0,0,0,0,0],"split_type":[0,0,0,0,0,0,0,0,0,0,0,0,0,0,0,0,0,0,0,0,0,0,0,0,0,0,0,0,0,0,0,0,0,0,0,0,0,0,0,0,0,0,0,0,0,0,0,0,0,0,0,0,0,0,0,0,0,0,0,0,0,0,0,0,0,0,0,0,0,0,0,0,0,0,0,0,0,0,0,0,0,0,0,0,0,0,0,0,0,0,0,0,0,0,0,0,0,0,0,0,0,0,0,0,0,0,0,0,0,0,0,0,0,0,0,0,0,0,0,0,0,0,0,0,0,0,0,0,0,0,0,0,0,0,0,0,0,0,0,0,0,0,0,0,0,0,0,0,0,0,0,0,0,0,0,0,0],"sum_hessian":[7.979E3,3.781E3,4.198E3,1.618E3,2.163E3,1.2E1,4.186E3,1.318E3,3E2,4.17E2,1.746E3,3E0,9E0,3.9E1,4.147E3,3.35E2,9.83E2,1.33E2,1.67E2,3.85E2,3.2E1,4.99E2,1.247E3,2E0,1E0,6E0,3E0,3.7E1,2E0,3.296E3,8.51E2,3.16E2,1.9E1,5E0,9.78E2,1.05E2,2.8E1,1E0,1.66E2,1.14E2,2.71E2,7E0,2.5E1,8E0,4.91E2,5.51E2,6.96E2,1E0,1E0,4E0,2E0,3E0,3.4E1,5.14E2,2.782E3,1.07E2,7.44E2,6E0,3.1E2,5E0,1.4E1,1E0,4E0,4.13E2,5.65E2,1.7E1,8.8E1,1.3E1,1.5E1,3E0,1.63E2,1.6E1,9.8E1,1.58E2,1.13E2,6E0,1.9E1,7E0,1E0,1.91E2,3E2,1.38E2,4.13E2,3.57E2,3.39E2,2E0,2E0,1.2E1,2.2E1,2.55E2,2.59E2,1.997E3,7.85E2,8.8E1,1.9E1,5.09E2,2.35E2,3E0,3E0,4.9E1,2.61E2,7.5E1,3.38E2,5.18E2,4.7E1,8E0,9E0,6.1E1,2.7E1,3E0,1E1,6E0,9E0,1.46E2,1.7E1,7E0,9E0,9.7E1,1E0,2.6E1,1.32E2,9.6E1,1.7E1,1.6E1,3E0,5E0,1.86E2,2.4E2,6E1,1.26E2,1.2E1,1.04E2,3.09E2,3.36E2,2.1E1,1.7E1,3.22E2,1.1E1,1E0,4E0,1.8E1,6.8E1,1.87E2,7.2E1,1.87E2,1.475E3,5.22E2,1.43E2,6.42E2,2E0,8.6E1,5E0,1.4E1,2.89E2,2.2E2,3.8E1,1.97E2],"tree_param":{"num_deleted":"0","num_feature":"12","num_nodes":"157","size_leaf_vector":"0"}},{"base_weights":[1.1268102E0,2.5988257E-1,1.914156E0,3.0062197E-2,4.302749E-1,1.9094395E1,1.8503723E0,3.232745E-1,-1.6003044E-1,2.2670502E-2,5.329089E-1,8.709404E0,2.7467417E1,6.106831E0,1.8167194E0,4.3138966E-2,1.0091951E0,-1.7114232E0,-1.4821145E-1,-1.1535491E-1,9.664208E-2,1.0999815E0,3.0619964E-1,2.3174328E1,1.8335654E0,5.3776627E1,1.6325714E1,1.3600776E1,4.888289E0,1.1870201E0,1.9798896E0,1.4331971E0,2.3215942E-2,6.226577E0,9.401212E-1,-6.827491E-1,-2.3677287E0,-3.1445768E-1,-3.4930415E-2,-2.197791E-2,-1.2849917E-1,7.433908E-2,3.049148E-1,2.9906733E0,1.0707482E0,1.433469E-1,4.4933328E-1,7.7705545E0,-1.3113748E-1,3.8149904E-2,2.3836584E1,1.9832171E0,6.2056956E0,1.1339557E0,1.5526175E0,2.6877441E0,1.8529449E0,1.813499E0,9.052429E-1,-1.2058016E-1,8.635196E-2,8.013153E-1,1.5479726E0,-3.2603326E-1,-2.8523618E-1,7.379125E-2,-1.1893041E-1,-7.019949E-2,5.8175717E-2,-1.4310509E-1,-1.0743458E-1,1.880048E-1,4.306114E-2,8.454218E-1,1.7064443E-1,3.145458E0,1.4969083E0,7.8249985E-1,1.234265E0,-1.5488373E-1,2.2977692E-1,9.6714383E-1,4.1169828E-1,-4.61182E-1,7.1602017E-1,1.1196289E0,-1.0421727E0,4.5249166E0,1.4954379E0,1.2162593E1,3.8437672E0,3.2856407E0,1.126624E0,1.2670228E0,2.2222793E0,2.0345676E0,3.324237E0,1.964808E0,1.556787E0,8.528293E-2,1.2383331E0,-4.375289E-2,-1.3688253E-1,5.4590777E-2,4.1168287E-1,-1.4227034E-1,8.2121754E-1,2.2219498E0,1.3053275E0,-3.628048E-1,-3.1486955E-1,-2.365938E-2,-3.1286705E-1,-8.0294006E-2,3.0609572E-1,-3.3533615E-1,8.015531E-3,-8.926729E-2,-2.4837565E-2,8.073331E-2,-0E0,-1.1914209E-1,-1.5882905E-1,-7.435034E-2,-1.4637727E-1,4.5465827E-1,1.3262884E-1,1.1298384E-1,2.604732E-2,2.5500727E-1,9.419151E-2,-1.3929783E-1,8.041224E-1,1.874078E0,1.1735111E0,-9.196018E-3,-5.783133E-1,1.0126824E0,1.460602E-1,1.9577177E0,5.788777E-1,-3.69035E-1,4.4229725E-1,2.4072407E-1,-1.5848286E0,1.915036E0,1.1370093E0,5.550009E0,1.5570492E1,2.557826E-1,5.223011E0,1.4246116E0,1.0931934E0,1.5309986E0,1.1869935E0,5.0687766E0,1.7433593E0,2.7784991E0,1.7381289E0,5.3905993E0,2.4130213E0,1.7774795E0,2.4510865E0,2.035152E0,1.5199637E0],"categories":[],"categories_nodes":[],"categories_segments":[],"categories_sizes":[],"default_left":[true,true,true,true,true,true,true,true,true,true,true,true,true,true,true,true,true,true,true,true,true,true,true,false,true,false,true,false,true,true,true,true,true,false,true,false,false,true,true,true,true,true,true,true,true,true,true,false,true,true,false,true,true,true,true,true,true,false,true,true,true,true,true,true,true,true,true,true,true,true,true,true,true,false,true,false,false,true,true,true,true,true,true,true,false,false,false,false,true,true,true,false,true,true,true,true,true,true,true,false,false,false,false,false,false,false,false,false,false,false,false,false,false,false,false,false,false,false,false,false,false,false,false,false,false,false,false,false,false,false,false,false,false,false,false,false,false,false,false,false,false,false,false,false,false,false,false,false,false,false,false,false,false,false,false,false,false,false,false,false,false,false,false,false,false],"id":32,"left_children":[1,3,5,7,9,11,13,15,17,19,21,23,25,27,29,31,33,35,37,39,41,43,45,-1,47,-1,49,-1,51,53,55,57,59,-1,61,-1,-1,63,65,67,69,71,73,75,77,79,81,-1,83,85,-1,87,89,91,93,95,97,-1,99,101,103,105,107,109,111,113,115,117,119,121,123,125,127,-1,129,-1,-1,131,133,135,137,139,141,143,-1,-1,-1,-1,145,147,149,-1,151,153,155,157,159,161,163,-1,-1,-1,-1,-1,-1,-1,-1,-1,-1,-1,-1,-1,-1,-1,-1,-1,-1,-1,-1,-1,-1,-1,-1,-1,-1,-1,-1,-1,-1,-1,-1,-1,-1,-1,-1,-1,-1,-1,-1,-1,-1,-1,-1,-1,-1,-1,-1,-1,-1,-1,-1,-1,-1,-1,-1,-1,-1,-1,-1,-1,-1,-1,-1,-1,-1],"loss_changes":[5.4121416E3,1.4779063E2,4.5414053E3,8.960834E1,9.06564E1,1.2530122E3,5.892578E2,1.21473816E2,1.7772501E1,4.458397E0,2.2244897E2,7.148495E2,2.1490166E3,2.728246E2,4.2129492E2,1.2412044E1,6.401636E1,4.368416E0,1.8227541E1,1.8388152E-1,1.3077905E0,2.6196655E1,2.8811958E1,0E0,6.266063E1,0E0,7.741537E2,0E0,1.0421582E2,1.5793579E1,2.9142285E2,6.8542004E-1,4.027881E0,0E0,1.485257E1,0E0,0E0,9.297943E-2,5.2670045E0,7.625984E-2,3.232193E-2,9.0888405E-1,1.9210994E0,5.923462E-2,2.2618835E1,1.494588E1,1.2677017E1,0E0,1.31812E0,3.1165175E0,0E0,9.229141E0,2.5619922E2,1.0381958E1,1.9347748E1,2.0359912E2,9.06084E1,0E0,8.563423E-1,1.6492689E-1,3.1718316E0,2.8342743E0,4.433754E0,6.6495895E-2,8.190861E-1,9.00782E0,8.943071E0,8.300893E-3,9.943351E-3,1.886332E-2,6.580162E-2,7.88579E-1,2.3774195E-1,0E0,1.310553E-1,0E0,0E0,3.5813675E0,1.1286194E1,8.029921E0,2.9384487E1,1.6636833E1,1.4731674E1,2.7754843E0,0E0,0E0,0E0,0E0,4.8368073E-1,9.107129E1,7.040848E1,0E0,6.7999268E0,9.466934E-1,3.9671234E1,5.2428528E1,4.6690454E2,1.8134229E2,1.2311035E1,0E0,0E0,0E0,0E0,0E0,0E0,0E0,0E0,0E0,0E0,0E0,0E0,0E0,0E0,0E0,0E0,0E0,0E0,0E0,0E0,0E0,0E0,0E0,0E0,0E0,0E0,0E0,0E0,0E0,0E0,0E0,0E0,0E0,0E0,0E0,0E0,0E0,0E0,0E0,0E0,0E0,0E0,0E0,0E0,0E0,0E0,0E0,0E0,0E0,0E0,0E0,0E0,0E0,0E0,0E0,0E0,0E0,0E0,0E0,0E0,0E0,0E0,0E0,0E0,0E0,0E0],"parents":[2147483647,0,0,1,1,2,2,3,3,4,4,5,5,6,6,7,7,8,8,9,9,10,10,11,11,12,12,13,13,14,14,15,15,16,16,17,17,18,18,19,19,20,20,21,21,22,22,24,24,26,26,28,28,29,29,30,30,31,31,32,32,34,34,37,37,38,38,39,39,40,40,41,41,42,42,43,43,44,44,45,45,46,46,48,48,49,49,51,51,52,52,53,53,54,54,55,55,56,56,58,58,59,59,60,60,61,61,62,62,63,63,64,64,65,65,66,66,67,67,68,68,69,69,70,70,71,71,72,72,74,74,77,77,78,78,79,79,80,80,81,81,82,82,83,83,88,88,89,89,90,90,92,92,93,93,94,94,95,95,96,96,97,97,98,98],"right_children":[2,4,6,8,10,12,14,16,18,20,22,24,26,28,30,32,34,36,38,40,42,44,46,-1,48,-1,50,-1,52,54,56,58,60,-1,62,-1,-1,64,66,68,70,72,74,76,78,80,82,-1,84,86,-1,88,90,92,94,96,98,-1,100,102,104,106,108,110,112,114,116,118,120,122,124,126,128,-1,130,-1,-1,132,134,136,138,140,142,144,-1,-1,-1,-1,146,148,150,-1,152,154,156,158,160,162,164,-1,-1,-1,-1,-1,-1,-1,-1,-1,-1,-1,-1,-1,-1,-1,-1,-1,-1,-1,-1,-1,-1,-1,-1,-1,-1,-1,-1,-1,-1,-1,-1,-1,-1,-1,-1,-1,-1,-1,-1,-1,-1,-1,-1,-1,-1,-1,-1,-1,-1,-1,-1,-1,-1,-1,-1,-1,-1,-1,-1,-1,-1,-1,-1,-1,-1],"split_conditions":[6.621175E-1,1.6666667E-1,2.7272727E-2,6.572582E-1,3.8253418E-1,8.2218254E-1,1.7554916E-2,3.8253418E-1,2.7272727E-2,7.6129995E-2,6.572582E-1,7.876776E-1,8.349742E-1,7.6935333E-1,9.8790765E-1,1.8181819E-1,1.8181819E-1,5.5555556E-2,5.5555556E-2,1.8518186E-1,3.532499E-1,3.9791144E-2,2.777778E-1,4.6348655E-1,9.8790765E-1,1.0755326E0,8.7090075E-1,2.720155E-1,7.938249E-1,9.212121E-1,1.7365862E-1,5.5555556E-2,7.6129995E-2,1.2453153E-1,7.920965E-1,-1.3654982E-2,-4.735457E-2,6.965602E-1,4.127764E-1,5.0082594E-1,2.3113744E-1,2.918617E-1,3.698545E-1,6.47778E-1,7.920965E-1,2.4081743E-1,1.2389015E-3,1.554111E-1,4.4444448E-1,8.4844077E-1,4.7673166E-1,7.8173023E-1,8.349742E-1,2.4576882E-2,9.345995E-1,8.2218254E-1,8.4422266E-1,3.6269978E-2,1.6878912E-2,2.2506303E-1,3.532499E-1,3.268453E-1,2.610731E-1,1.6555636E-1,1.1379186E-1,4.4121355E-1,6.621622E-1,2.578158E-1,2.4770701E-1,5.6247747E-1,3.096812E-1,4.8880555E-2,5.4538816E-2,1.6908435E-2,6.4496315E-1,6.2909156E-2,2.9938165E-2,3.268453E-1,2.10659E-1,6.4496315E-1,3.0491537E-1,6.0565114E-1,9.470652E-2,2.777778E-1,1.4320403E-2,2.2392578E-2,-2.0843454E-2,9.049833E-2,1.6666667E-1,8.2218254E-1,1.6666667E-1,6.571281E-2,1.7041773E-1,3.9557076E-1,9.532107E-1,7.7943826E-1,8.349742E-1,8.2218254E-1,4.2424244E-1,1.7056585E-3,2.4766661E-2,-8.7505777E-4,-2.7376504E-3,1.0918155E-3,8.233657E-3,-2.8454068E-3,1.642435E-2,4.4438995E-2,2.610655E-2,-7.2560958E-3,-6.297391E-3,-4.731876E-4,-6.257341E-3,-1.6058801E-3,6.1219144E-3,-6.706723E-3,1.6031062E-4,-1.7853457E-3,-4.967513E-4,1.6146661E-3,-0E0,-2.382842E-3,-3.1765809E-3,-1.4870068E-3,-2.9275452E-3,9.093165E-3,2.652577E-3,2.2596768E-3,5.209464E-4,5.100145E-3,1.8838301E-3,-2.7859565E-3,1.6082447E-2,3.748156E-2,2.3470223E-2,-1.8392035E-4,-1.15662655E-2,2.0253649E-2,2.9212038E-3,3.915435E-2,1.1577553E-2,-7.3806997E-3,8.845945E-3,4.8144814E-3,-3.1696573E-2,3.830072E-2,2.2740185E-2,1.1100017E-1,3.1140983E-1,5.115652E-3,1.0446022E-1,2.849223E-2,2.1863868E-2,3.0619971E-2,2.3739869E-2,1.0137553E-1,3.4867186E-2,5.556998E-2,3.4762576E-2,1.0781198E-1,4.8260424E-2,3.554959E-2,4.902173E-2,4.070304E-2,3.0399274E-2],"split_indices":[1,4,2,1,1,1,5,1,2,6,1,1,1,1,6,2,2,4,4,5,1,5,4,0,6,0,1,0,1,2,5,4,6,0,6,0,0,11,11,8,1,5,1,1,6,5,8,0,4,1,0,1,1,5,1,1,1,0,6,5,1,6,5,5,5,5,11,1,1,5,1,1,1,0,11,0,0,6,5,11,5,11,5,4,0,0,0,0,4,1,4,0,5,5,1,1,1,1,2,0,0,0,0,0,0,0,0,0,0,0,0,0,0,0,0,0,0,0,0,0,0,0,0,0,0,0,0,0,0,0,0,0,0,0,0,0,0,0,0,0,0,0,0,0,0,0,0,0,0,0,0,0,0,0,0,0,0,0,0,0,0,0,0,0,0],"split_type":[0,0,0,0,0,0,0,0,0,0,0,0,0,0,0,0,0,0,0,0,0,0,0,0,0,0,0,0,0,0,0,0,0,0,0,0,0,0,0,0,0,0,0,0,0,0,0,0,0,0,0,0,0,0,0,0,0,0,0,0,0,0,0,0,0,0,0,0,0,0,0,0,0,0,0,0,0,0,0,0,0,0,0,0,0,0,0,0,0,0,0,0,0,0,0,0,0,0,0,0,0,0,0,0,0,0,0,0,0,0,0,0,0,0,0,0,0,0,0,0,0,0,0,0,0,0,0,0,0,0,0,0,0,0,0,0,0,0,0,0,0,0,0,0,0,0,0,0,0,0,0,0,0,0,0,0,0,0,0,0,0,0,0,0,0],"sum_hessian":[7.929E3,3.774E3,4.155E3,1.607E3,2.167E3,1.5E1,4.14E3,6.32E2,9.75E2,4.36E2,1.731E3,7E0,8E0,3.2E1,4.108E3,4.49E2,1.83E2,7E0,9.68E2,1.52E2,2.84E2,4.94E2,1.237E3,2E0,5E0,2E0,6E0,4E0,2.8E1,8.46E2,3.262E3,6E0,4.43E2,2E0,1.81E2,3E0,4E0,3.92E2,5.76E2,1.9E1,1.33E2,2.57E2,2.7E1,7E0,4.87E2,5.79E2,6.58E2,1E0,4E0,2E0,4E0,9E0,1.9E1,7.4E2,1.06E2,4.95E2,2.767E3,3E0,3E0,1.35E2,3.08E2,1.48E2,3.3E1,2.78E2,1.14E2,2.51E2,3.25E2,1.2E1,7E0,7.7E1,5.6E1,5.5E1,2.02E2,5E0,2.2E1,6E0,1E0,1.77E2,3.1E2,1.3E2,4.49E2,4.4E1,6.14E2,3E0,1E0,1E0,1E0,1E0,8E0,5E0,1.4E1,2E0,7.38E2,7.5E1,3.1E1,2.45E2,2.5E2,2.007E3,7.6E2,1E0,2E0,2.4E1,1.11E2,2.81E2,2.7E1,3E0,1.45E2,8E0,2.5E1,6.2E1,2.16E2,1.1E1,1.03E2,1.51E2,1E2,1.2E2,2.05E2,8E0,4E0,5E0,2E0,3.2E1,4.5E1,3.1E1,2.5E1,9E0,4.6E1,3.9E1,1.63E2,1E1,1.2E1,4E0,1.73E2,2.6E1,2.84E2,9.7E1,3.3E1,4.3E1,4.06E2,1.2E1,3.2E1,2.3E1,5.91E2,2E0,1E0,3E0,5E0,2E0,3E0,4E0,1E1,7.3E1,6.65E2,1.6E1,5.9E1,4E0,2.7E1,6.9E1,1.76E2,7.6E1,1.74E2,1.45E3,5.57E2,5.3E1,7.07E2],"tree_param":{"num_deleted":"0","num_feature":"12","num_nodes":"165","size_leaf_vector":"0"}},{"base_weights":[1.0761452E0,5.0247964E-3,1.1889975E0,8.357279E-1,-1.2186617E-2,9.8875925E-2,1.2933068E0,9.9529797E-1,5.543184E-1,-1.138252E-1,5.649612E-2,9.913246E-1,-3.062606E-1,3.6220226E0,1.2402426E0,4.189075E-1,1.2440104E0,3.59779E-3,-1.236903E-1,2.2680162E-1,3.4996897E-2,5.5932384E0,9.3399733E-1,-3.9135483E-1,-2.8961042E-1,1.7536107E0,4.2317514E0,9.960368E-1,1.314616E0,5.443115E-1,8.400382E-2,1.4923067E0,5.990099E-1,6.0011473E-2,-6.7929566E-2,-7.040971E-2,-1.272705E-1,3.0546135E-1,1.0890443E-1,1.8629985E-1,2.2710182E-2,1.5392069E0,8.237828E0,7.3591393E-1,1.2545923E0,-5.049137E-1,-3.6681E-1,-1.7821361E-1,-3.0979988E-1,4.7297974E0,1.4380097E0,3.9888763E0,7.969306E0,1.0467494E0,6.9685656E-1,7.2920656E-1,1.3492769E0,1.072095E-1,-8.802264E-2,-2.2327127E-2,-1.2605967E-1,-1.0515431E-2,-8.588443E-2,-1.4652173E-1,-1.1653904E-1,6.5191805E-1,2.8505734E-1,9.1877185E-2,3.1784418E-1,1.1952114E-1,2.2341473E-1,8.727488E-2,7.9659745E-3,1.115515E0,6.9418955E-1,2.0275097E0,1.1626205E0,-3.769087E-1,-2.7749532E-1,2.1076988E-1,-2.6399145E-1,1.1492465E0,2.2565854E0,3.6901963E0,4.8593535E0,1.0033484E1,2.9909465E0,8.0244005E-1,1.0700281E0,6.5674603E-1,1.020348E0,1.0407989E0,7.135759E-1,1.8586414E0,1.3176422E0,1.9429088E-1,8.9409485E-2,-6.268497E-2,1.3397825E-1,-3.8922623E-2,-1.4402694E-1,-5.419983E-2,2.8558893E-2,-9.456548E-2,-2.1614695E-2,-1.168493E-1,-1.5367891E-1,-1.1892024E-1,-3.410211E-2,3.126486E-2,2.934391E-1,1.8902446E-1,6.1493494E-2,1.4880905E-1,-8.592997E-3,5.4549996E-2,2.6827505E-1,4.4210184E-2,1.3033047E-1,3.835399E-2,-3.98549E-4,5.800711E-1,7.59621E-1,2.2177706E0,6.061122E-1,1.5153064E0,1.0981948E0,-6.2289212E-2,1.1619314E0,-1.7886204E-1,-3.064581E-1,2.4073427E0,3.748237E0,3.64977E0,5.8556166E0,6.1693406E0,1.7173393E1,1.2093604E0,7.585956E-1,1.1026725E0,9.547614E-1,7.291845E-1,4.9546796E-1,1.1686856E-1,1.1176239E0,7.186029E-1,4.4646926E-2,3.543802E0,1.6964438E0,1.6806115E0,1.2870281E0],"categories":[],"categories_nodes":[],"categories_segments":[],"categories_sizes":[],"default_left":[true,true,true,true,true,true,true,true,false,true,true,true,true,true,true,true,true,true,true,true,true,true,true,true,true,true,true,true,true,false,false,false,false,true,true,true,true,true,true,true,true,false,false,true,true,false,true,true,false,false,true,true,true,true,true,true,true,true,false,true,true,true,true,true,true,false,true,true,false,true,true,true,true,false,true,true,true,false,false,true,true,false,false,true,true,true,false,true,true,true,false,true,true,true,true,false,false,false,false,false,false,false,false,false,false,false,false,false,false,false,false,false,false,false,false,false,false,false,false,false,false,false,false,false,false,false,false,false,false,false,false,false,false,false,false,false,false,false,false,false,false,false,false,false,false,false,false,false,false,false,false],"id":33,"left_children":[1,3,5,7,9,11,13,15,-1,17,19,21,23,25,27,29,31,33,35,37,39,41,43,45,47,49,51,53,55,-1,-1,-1,-1,57,59,61,63,65,67,69,71,-1,-1,73,75,-1,77,79,-1,-1,81,83,85,87,89,91,93,95,-1,97,99,101,103,105,107,-1,109,111,-1,113,115,117,119,-1,121,123,125,-1,-1,127,129,-1,-1,131,133,135,-1,137,139,141,-1,143,145,147,149,-1,-1,-1,-1,-1,-1,-1,-1,-1,-1,-1,-1,-1,-1,-1,-1,-1,-1,-1,-1,-1,-1,-1,-1,-1,-1,-1,-1,-1,-1,-1,-1,-1,-1,-1,-1,-1,-1,-1,-1,-1,-1,-1,-1,-1,-1,-1,-1,-1,-1,-1,-1,-1,-1,-1,-1],"loss_changes":[9.561699E2,1.0800282E1,8.136826E2,4.8245907E-1,5.164113E0,2.2620879E2,8.0551953E2,1.1405048E0,0E0,3.4744787E-1,1.6095332E0,4.969673E1,5.6220245E-1,1.6300732E2,1.15521484E2,1.1578995E-1,6.863899E-1,9.539987E-2,4.6712875E-2,4.4050288E-1,7.249621E-1,2.0649948E1,1.1941269E1,1.1905575E-1,7.8728294E-1,3.1771484E1,8.847742E1,2.2373901E1,9.895215E1,0E0,0E0,0E0,0E0,9.6580476E-2,2.433756E-2,1.5316106E-2,4.3717384E-2,1.320262E-1,5.675721E-2,5.8906317E-2,3.4428686E-1,0E0,0E0,1.6218643E0,4.381447E0,0E0,8.402348E-3,1.8989456E0,0E0,0E0,6.96579E0,2.0764404E1,5.4891052E1,6.9399414E0,2.572609E0,1.0634155E0,7.358887E1,6.1777905E-3,0E0,4.1736174E-2,2.30553E-3,8.27889E-3,5.658239E-3,9.337068E-3,2.9312372E-2,0E0,5.2580833E-2,4.961689E-2,0E0,4.4951856E-2,1.2939698E-1,1.20437026E-1,7.5868905E-2,0E0,6.5034103E-1,1.4946995E0,9.150238E-1,0E0,0E0,2.723664E0,1.4230156E-1,0E0,0E0,2.7357178E0,2.3265991E1,8.389508E1,0E0,1.6701584E0,3.9969482E0,2.1324005E0,0E0,8.142767E-1,8.6058044E-1,7.153711E1,4.758838E1,0E0,0E0,0E0,0E0,0E0,0E0,0E0,0E0,0E0,0E0,0E0,0E0,0E0,0E0,0E0,0E0,0E0,0E0,0E0,0E0,0E0,0E0,0E0,0E0,0E0,0E0,0E0,0E0,0E0,0E0,0E0,0E0,0E0,0E0,0E0,0E0,0E0,0E0,0E0,0E0,0E0,0E0,0E0,0E0,0E0,0E0,0E0,0E0,0E0,0E0,0E0,0E0,0E0,0E0,0E0,0E0],"parents":[2147483647,0,0,1,1,2,2,3,3,4,4,5,5,6,6,7,7,9,9,10,10,11,11,12,12,13,13,14,14,15,15,16,16,17,17,18,18,19,19,20,20,21,21,22,22,23,23,24,24,25,25,26,26,27,27,28,28,33,33,34,34,35,35,36,36,37,37,38,38,39,39,40,40,43,43,44,44,46,46,47,47,50,50,51,51,52,52,53,53,54,54,55,55,56,56,57,57,59,59,60,60,61,61,62,62,63,63,64,64,66,66,67,67,69,69,70,70,71,71,72,72,74,74,75,75,76,76,79,79,80,80,83,83,84,84,85,85,87,87,88,88,89,89,91,91,92,92,93,93,94,94],"right_children":[2,4,6,8,10,12,14,16,-1,18,20,22,24,26,28,30,32,34,36,38,40,42,44,46,48,50,52,54,56,-1,-1,-1,-1,58,60,62,64,66,68,70,72,-1,-1,74,76,-1,78,80,-1,-1,82,84,86,88,90,92,94,96,-1,98,100,102,104,106,108,-1,110,112,-1,114,116,118,120,-1,122,124,126,-1,-1,128,130,-1,-1,132,134,136,-1,138,140,142,-1,144,146,148,150,-1,-1,-1,-1,-1,-1,-1,-1,-1,-1,-1,-1,-1,-1,-1,-1,-1,-1,-1,-1,-1,-1,-1,-1,-1,-1,-1,-1,-1,-1,-1,-1,-1,-1,-1,-1,-1,-1,-1,-1,-1,-1,-1,-1,-1,-1,-1,-1,-1,-1,-1,-1,-1,-1,-1,-1],"split_conditions":[3.9510223E-1,7.4137926E-2,5.5555556E-2,5E-1,7.6129995E-2,9.8790765E-1,7.4137926E-2,1.6878912E-2,1.1086368E-2,1.6034484E-1,5.0082594E-1,5E-1,2.086207E-1,1.6666667E-1,1.6666667E-1,3.6677136E-3,1.6666667E-1,3.4520882E-1,5.0082594E-1,5.8793104E-1,1.3390663E-1,8.110852E-1,9.5682657E-1,5E-1,2.862069E-1,9.8790765E-1,1.3137093E-1,6.3620687E-1,7.920965E-1,1.08862305E-2,1.6800764E-3,2.9846134E-2,1.1980197E-2,3.888889E-1,6.4742017E-1,2.5921375E-1,3.6677136E-3,1.3793103E-1,9.533169E-1,1.4655173E-1,2.9137933E-1,3.0784136E-2,1.6475657E-1,1.3390663E-1,2.1896552E-1,-1.0098274E-2,6.965602E-1,5.0082594E-1,-6.1959974E-3,9.459595E-2,5E-1,3.888889E-1,5E-1,7.920965E-1,1.3137093E-1,1.2389015E-3,1.2389015E-3,1.1034483E-1,-1.7604528E-3,6.068796E-1,3.6677136E-3,4.1296717E-4,2.777778E-1,5.5555556E-2,8.4482753E-1,1.30383605E-2,1.9655173E-1,6.4742017E-1,6.3568833E-3,1.6666667E-1,5.5555556E-2,1.6666667E-1,5.5555556E-2,2.23103E-2,3.327586E-1,7.911548E-1,5.0082594E-1,-7.538174E-3,-5.5499063E-3,6.965602E-1,3.4520882E-1,2.298493E-2,4.5131706E-2,8.231776E-1,6.7567565E-2,2.777778E-1,5.981893E-2,5.0082594E-1,7.2727275E-1,7.2727275E-1,2.0406958E-2,1.3636363E-1,7.222222E-1,2.086207E-1,1.6034484E-1,3.8858175E-3,1.7881896E-3,-1.2536993E-3,2.679565E-3,-7.7845244E-4,-2.8805386E-3,-1.0839966E-3,5.7117786E-4,-1.8913096E-3,-4.322939E-4,-2.336986E-3,-3.073578E-3,-2.3784046E-3,-6.8204215E-4,6.252972E-4,5.868782E-3,3.780489E-3,1.2298699E-3,2.9761808E-3,-1.7185994E-4,1.0909999E-3,5.365501E-3,8.8420365E-4,2.6066094E-3,7.670798E-4,-7.97098E-6,1.1601422E-2,1.519242E-2,4.435541E-2,1.2122244E-2,3.0306127E-2,2.1963896E-2,-1.2457842E-3,2.3238627E-2,-3.5772405E-3,-6.1291615E-3,4.814685E-2,7.496474E-2,7.29954E-2,1.1711233E-1,1.2338681E-1,3.4346786E-1,2.4187207E-2,1.5171912E-2,2.2053448E-2,1.9095227E-2,1.458369E-2,9.909359E-3,2.3373712E-3,2.2352478E-2,1.4372057E-2,8.929385E-4,7.087604E-2,3.3928875E-2,3.361223E-2,2.574056E-2],"split_indices":[6,3,4,0,6,6,3,6,0,3,8,0,3,4,4,6,4,11,8,3,11,6,6,0,3,6,7,3,6,0,0,0,0,4,11,11,6,3,11,3,3,0,0,11,3,0,11,8,0,0,0,4,0,6,7,8,8,3,0,11,6,8,4,4,3,0,3,11,0,4,4,4,4,0,3,11,8,0,0,11,11,0,0,6,11,4,0,8,11,11,0,11,4,3,3,0,0,0,0,0,0,0,0,0,0,0,0,0,0,0,0,0,0,0,0,0,0,0,0,0,0,0,0,0,0,0,0,0,0,0,0,0,0,0,0,0,0,0,0,0,0,0,0,0,0,0,0,0,0,0,0],"split_type":[0,0,0,0,0,0,0,0,0,0,0,0,0,0,0,0,0,0,0,0,0,0,0,0,0,0,0,0,0,0,0,0,0,0,0,0,0,0,0,0,0,0,0,0,0,0,0,0,0,0,0,0,0,0,0,0,0,0,0,0,0,0,0,0,0,0,0,0,0,0,0,0,0,0,0,0,0,0,0,0,0,0,0,0,0,0,0,0,0,0,0,0,0,0,0,0,0,0,0,0,0,0,0,0,0,0,0,0,0,0,0,0,0,0,0,0,0,0,0,0,0,0,0,0,0,0,0,0,0,0,0,0,0,0,0,0,0,0,0,0,0,0,0,0,0,0,0,0,0,0,0],"sum_hessian":[7.91E3,7.54E2,7.156E3,1.5E1,7.39E2,6.25E2,6.531E3,9E0,6E0,2.98E2,4.41E2,1.95E2,4.3E2,1.45E2,6.386E3,3E0,6E0,2.3E1,2.75E2,4.9E1,3.92E2,2E0,1.93E2,6.9E1,3.61E2,3.6E1,1.09E2,1.492E3,4.894E3,2E0,1E0,4E0,2E0,1.3E1,1E1,1.8E1,2.57E2,2.9E1,2E1,2.9E1,3.63E2,1E0,1E0,1.2E2,7.3E1,1.1E1,5.8E1,5.6E1,3.05E2,3E0,3.3E1,1.03E2,6E0,1.275E3,2.17E2,2.74E2,4.62E3,1E1,3E0,6E0,4E0,4E0,1.4E1,9E1,1.67E2,1E0,2.8E1,1.9E1,1E0,1.1E1,1.8E1,6.7E1,2.96E2,1.1E1,1.09E2,7E0,6.6E1,5.1E1,7E0,1E1,4.6E1,2.5E1,8E0,7.8E1,2.5E1,4E0,2E0,1.12E2,1.163E3,1.94E2,2.3E1,1.2E1,2.62E2,2.69E2,4.351E3,1E0,9E0,5E0,1E0,1E0,3E0,2E0,2E0,1.2E1,2E0,1.9E1,7.1E1,1.62E2,5E0,1E0,2.7E1,4E0,1.5E1,9E0,2E0,4E0,1.4E1,3.4E1,3.3E1,6.4E1,2.32E2,4.1E1,6.8E1,6E0,1E0,9E0,5.7E1,8E0,2E0,1.6E1,3E1,4E0,7.4E1,1.2E1,1.3E1,3E0,1E0,1E1,1.02E2,9.04E2,2.59E2,1.33E2,6.1E1,1E0,1.1E1,2.6E2,2E0,2.3E1,2.46E2,3.37E2,4.014E3],"tree_param":{"num_deleted":"0","num_feature":"12","num_nodes":"151","size_leaf_vector":"0"}},{"base_weights":[1.0628332E0,2.2559786E-1,1.8158011E0,4.672155E-1,5.478561E-2,7.326202E0,1.7509954E0,3.4235597E-2,1.0383741E0,-1.3207358E0,6.4452864E-2,1.6321598E1,5.6707683E0,1.1208246E0,1.9110901E0,1.3233668E0,2.3418382E-2,6.093457E0,1.0201577E0,-1.2572724E-1,1.1474942E-1,2.2620035E1,1.25427685E1,1.6831584E0,7.0978436E0,1.6120591E0,1.058539E0,2.517735E0,1.7667828E0,4.1187203E-1,1.9193952E0,-1.1727308E-1,9.238014E-2,7.88877E-1,1.224907E0,1.9379386E-1,-1.6971198E-1,2.3417253E0,1.1299677E-1,1.4090843E1,4.36452E0,8.348374E0,7.6735526E-1,2.1274126E1,4.019308E0,2.9276915E0,1.557401E0,9.7263753E-1,1.1170129E0,1.951381E0,3.043291E0,1.8794266E0,1.470833E0,5.34981E-1,8.274385E-2,-2.2283563E-2,-1.2781164E-1,6.843575E-2,3.5323638E-1,1.3573816E0,7.64768E-1,1.925857E0,1.1649005E0,-2.1159701E-1,7.965987E-1,-1.535036E-1,-6.364621E-1,1.24650404E-1,-1.8333937E-1,-5.064341E-1,1.3134149E0,2.4461071E1,5.5864224E0,7.8878057E-1,5.782402E0,1.4460515E0,1.9676168E0,1.0209401E0,4.2858157E-1,7.8961957E-1,1.1720988E0,2.6992395E0,1.6573887E0,4.793259E0,2.2960842E0,1.7257506E0,2.2856112E0,1.9075909E0,1.4519267E0,-3.6913753E-2,1.4616108E-1,-1.22624785E-1,-1.56276E-1,2.049017E-1,3.9816055E-2,7.016459E-1,1.4516445E-1,1.9783462E0,1.1719729E0,-1.433596E-1,7.7715206E-1,2.0774555E0,1.5577399E0,1.0985773E0,1.5210176E0,1.5648599E-1,-7.6869935E-1,-2.9019186E-1,1.2026224E0,-1.6625185E-1,9.8565376E-1,-7.741449E-1,-4.4127706E-1,1.22681744E-1,2.531048E0,-7.281285E-1,-2.975299E-2,-8.8610166E-1,2.7390563E-1,1.5488986E0,5.8137447E-1,3.404915E1,1.81743E1,1.109999E0,3.2944697E-1,1.0127006E1,4.939582E0,1.4768796E0,8.453616E-1,1.4156959E0,2.936547E0,1.0463724E0,8.47037E-1,5.0094306E-1,3.059958E-1,8.179097E-1,6.709098E-1,1.2918884E0,1.138662E0,2.1634717E0,3.075291E0,1.3588268E0,1.7361025E0,5.343689E0,3.317914E0,1.4010859E0,2.5623603E0,1.4791651E0,1.8050215E0,2.387821E0,1.8089491E0,1.6259282E0,2.8425875E0,1.1580539E0,1.4676203E0],"categories":[],"categories_nodes":[],"categories_segments":[],"categories_sizes":[],"default_left":[true,true,true,true,true,true,true,true,true,false,true,true,true,true,true,true,true,false,true,true,true,false,true,true,true,true,true,true,true,true,false,true,true,true,true,true,true,false,true,false,false,false,true,true,true,false,true,true,true,true,true,true,true,false,false,true,true,true,true,true,true,true,true,true,true,true,true,true,true,true,true,true,false,true,true,true,true,true,true,true,true,true,true,true,true,true,true,true,true,false,false,false,false,false,false,false,false,false,false,false,false,false,false,false,false,false,false,false,false,false,false,false,false,false,false,false,false,false,false,false,false,false,false,false,false,false,false,false,false,false,false,false,false,false,false,false,false,false,false,false,false,false,false,false,false,false,false,false,false,false,false,false,false,false,false],"id":34,"left_children":[1,3,5,7,9,11,13,15,17,-1,19,21,23,25,27,29,31,-1,33,35,37,-1,39,41,43,45,47,49,51,53,-1,55,57,59,61,63,65,-1,67,-1,-1,-1,69,71,73,-1,75,77,79,81,83,85,87,-1,-1,89,91,93,95,97,99,101,103,105,107,109,111,113,115,117,119,121,-1,123,125,127,129,131,133,135,137,139,141,143,145,147,149,151,153,-1,-1,-1,-1,-1,-1,-1,-1,-1,-1,-1,-1,-1,-1,-1,-1,-1,-1,-1,-1,-1,-1,-1,-1,-1,-1,-1,-1,-1,-1,-1,-1,-1,-1,-1,-1,-1,-1,-1,-1,-1,-1,-1,-1,-1,-1,-1,-1,-1,-1,-1,-1,-1,-1,-1,-1,-1,-1,-1,-1,-1,-1,-1,-1,-1,-1],"loss_changes":[4.989751E3,1.5468245E2,1.4837715E3,3.8386523E2,2.9216259E1,6.8856885E2,4.1483008E2,1.2288372E1,5.9461487E1,0E0,2.0869991E1,7.942847E1,2.31104E2,2.4951416E1,2.8597656E2,3.6872282E0,8.505734E0,0E0,3.1250366E1,6.423959E0,6.61088E0,0E0,4.675299E1,6.69135E1,1.2949443E3,5.1271515E0,3.33667E0,1.8556763E2,8.751758E1,1.114949E-1,0E0,2.855463E-1,3.6606808E0,3.931839E0,1.406958E1,1.3586482E1,2.9923449E0,0E0,5.9615803E0,0E0,0E0,0E0,7.420924E0,2.2065381E2,1.4267773E2,0E0,3.128662E0,7.8048096E0,7.58667E0,6.5358154E1,4.2293848E2,1.1855908E2,5.0839844E0,0E0,0E0,7.252964E-2,2.7919292E-2,2.1002169E0,3.5303483E0,6.018677E-1,3.4463348E0,3.943634E-1,7.113037E0,6.8842044E0,9.984324E0,5.6824408E0,2.2706366E-1,7.719488E0,5.4485607E0,1.0772753E0,9.334955E-1,5.410962E1,0E0,1.234642E0,4.2912354E1,8.900299E-1,8.355843E0,9.0841675E-1,1.6209364E-1,1.18255615E-2,9.781494E-1,1.4899292E1,4.3237305E0,7.30061E1,5.340027E1,2.6337402E1,2.4142334E1,6.1200867E0,2.644165E0,0E0,0E0,0E0,0E0,0E0,0E0,0E0,0E0,0E0,0E0,0E0,0E0,0E0,0E0,0E0,0E0,0E0,0E0,0E0,0E0,0E0,0E0,0E0,0E0,0E0,0E0,0E0,0E0,0E0,0E0,0E0,0E0,0E0,0E0,0E0,0E0,0E0,0E0,0E0,0E0,0E0,0E0,0E0,0E0,0E0,0E0,0E0,0E0,0E0,0E0,0E0,0E0,0E0,0E0,0E0,0E0,0E0,0E0,0E0,0E0,0E0,0E0,0E0,0E0,0E0,0E0],"parents":[2147483647,0,0,1,1,2,2,3,3,4,4,5,5,6,6,7,7,8,8,10,10,11,11,12,12,13,13,14,14,15,15,16,16,18,18,19,19,20,20,22,22,23,23,24,24,25,25,26,26,27,27,28,28,29,29,31,31,32,32,33,33,34,34,35,35,36,36,38,38,42,42,43,43,44,44,46,46,47,47,48,48,49,49,50,50,51,51,52,52,55,55,56,56,57,57,58,58,59,59,60,60,61,61,62,62,63,63,64,64,65,65,66,66,67,67,68,68,69,69,70,70,71,71,73,73,74,74,75,75,76,76,77,77,78,78,79,79,80,80,81,81,82,82,83,83,84,84,85,85,86,86,87,87,88,88],"right_children":[2,4,6,8,10,12,14,16,18,-1,20,22,24,26,28,30,32,-1,34,36,38,-1,40,42,44,46,48,50,52,54,-1,56,58,60,62,64,66,-1,68,-1,-1,-1,70,72,74,-1,76,78,80,82,84,86,88,-1,-1,90,92,94,96,98,100,102,104,106,108,110,112,114,116,118,120,122,-1,124,126,128,130,132,134,136,138,140,142,144,146,148,150,152,154,-1,-1,-1,-1,-1,-1,-1,-1,-1,-1,-1,-1,-1,-1,-1,-1,-1,-1,-1,-1,-1,-1,-1,-1,-1,-1,-1,-1,-1,-1,-1,-1,-1,-1,-1,-1,-1,-1,-1,-1,-1,-1,-1,-1,-1,-1,-1,-1,-1,-1,-1,-1,-1,-1,-1,-1,-1,-1,-1,-1,-1,-1,-1,-1,-1,-1],"split_conditions":[6.621175E-1,6.572582E-1,1.8095067E-2,3.8253418E-1,2.2506302E-3,7.876776E-1,9.8790765E-1,5E-1,5E-1,-2.6414715E-2,2.1552035E-1,2.2506302E-3,8.2218254E-1,1.7725962E-1,2.1407995E-1,6.658651E-2,7.6129995E-2,1.2186914E-1,7.920965E-1,4.1296717E-4,2.1624056E-1,4.5240068E-1,7.703592E-1,9.8790765E-1,8.349742E-1,2.4936981E-2,9.5682657E-1,8.2218254E-1,8.4422266E-1,1.8202345E-1,3.8387902E-2,1.7662945E-1,3.532499E-1,6.796903E-2,1.7924018E-1,7.008511E-1,2.089485E-1,4.6834506E-2,9.7344255E-1,2.8181687E-1,8.72904E-2,1.6696748E-1,2.2506302E-3,5E-1,8.571358E-1,5.8553826E-2,9.9787235E-1,9.345995E-1,7.684338E-1,7.7943826E-1,8.349742E-1,8.2218254E-1,2.5E-1,1.06996205E-2,1.654877E-3,1.521426E-1,3.096812E-1,2.0075622E-1,3.698545E-1,2.8267914E-2,3.268453E-1,1.0046813E-1,6.474741E-1,5.563558E-2,4.618293E-2,2.0786819E-1,2.1299964E-1,9.731725E-1,9.799244E-1,8.0460525E-1,7.958708E-1,2.2506302E-3,1.11728445E-1,8.4844077E-1,8.76709E-1,1.6978754E-1,1.274757E-1,8.20241E-1,9.9787235E-1,7.8583E-1,4.1699678E-1,2.7021277E-1,4.1296717E-4,1.7293842E-1,8.5870504E-1,7.554066E-1,8.349742E-1,2.4594887E-1,8.486788E-1,-7.3827506E-4,2.9232216E-3,-2.4524957E-3,-3.12552E-3,4.098034E-3,7.963211E-4,1.4032918E-2,2.903289E-3,3.9566923E-2,2.3439458E-2,-2.867192E-3,1.5543041E-2,4.154911E-2,3.1154796E-2,2.1971544E-2,3.042035E-2,3.1297198E-3,-1.5373986E-2,-5.803837E-3,2.4052449E-2,-3.325037E-3,1.9713074E-2,-1.5482898E-2,-8.825541E-3,2.4536347E-3,5.062096E-2,-1.456257E-2,-5.9505977E-4,-1.7722033E-2,5.4781125E-3,3.097797E-2,1.1627489E-2,6.8098295E-1,3.6348596E-1,2.2199979E-2,6.588939E-3,2.025401E-1,9.879164E-2,2.9537592E-2,1.6907232E-2,2.8313918E-2,5.873094E-2,2.0927448E-2,1.694074E-2,1.0018861E-2,6.1199157E-3,1.6358195E-2,1.3418196E-2,2.5837766E-2,2.277324E-2,4.3269433E-2,6.1505817E-2,2.7176535E-2,3.472205E-2,1.0687378E-1,6.6358276E-2,2.8021716E-2,5.1247206E-2,2.9583301E-2,3.610043E-2,4.775642E-2,3.617898E-2,3.2518562E-2,5.685175E-2,2.3161078E-2,2.9352404E-2],"split_indices":[1,1,5,1,5,1,6,0,0,0,5,5,1,5,5,6,6,0,6,8,5,0,1,6,1,5,6,1,1,1,0,5,1,5,5,10,5,0,5,0,0,0,5,0,1,0,10,1,1,1,1,1,5,0,0,5,1,5,1,5,6,5,1,5,5,5,5,5,5,1,1,5,0,1,1,5,5,1,10,5,5,10,8,5,1,1,1,5,1,0,0,0,0,0,0,0,0,0,0,0,0,0,0,0,0,0,0,0,0,0,0,0,0,0,0,0,0,0,0,0,0,0,0,0,0,0,0,0,0,0,0,0,0,0,0,0,0,0,0,0,0,0,0,0,0,0,0,0,0,0,0,0,0,0,0],"split_type":[0,0,0,0,0,0,0,0,0,0,0,0,0,0,0,0,0,0,0,0,0,0,0,0,0,0,0,0,0,0,0,0,0,0,0,0,0,0,0,0,0,0,0,0,0,0,0,0,0,0,0,0,0,0,0,0,0,0,0,0,0,0,0,0,0,0,0,0,0,0,0,0,0,0,0,0,0,0,0,0,0,0,0,0,0,0,0,0,0,0,0,0,0,0,0,0,0,0,0,0,0,0,0,0,0,0,0,0,0,0,0,0,0,0,0,0,0,0,0,0,0,0,0,0,0,0,0,0,0,0,0,0,0,0,0,0,0,0,0,0,0,0,0,0,0,0,0,0,0,0,0,0,0,0,0],"sum_hessian":[7.915E3,3.748E3,4.167E3,1.552E3,2.196E3,4.8E1,4.119E3,8.83E2,6.69E2,1.5E1,2.181E3,7E0,4.1E1,8.35E2,3.284E3,7E0,8.76E2,2E0,6.67E2,4.56E2,1.725E3,2E0,5E0,1.1E1,3E1,9.3E1,7.42E2,6.3E2,2.654E3,3E0,4E0,2.88E2,5.88E2,3.14E2,3.53E2,5.5E1,4.01E2,1E0,1.724E3,4E0,1E0,1E0,1E1,5E0,2.5E1,3E0,9E1,3.03E2,4.39E2,3.04E2,3.26E2,1.921E3,7.33E2,2E0,1E0,2.9E1,2.59E2,5.39E2,4.9E1,1.2E1,3.02E2,2.7E1,3.26E2,3.3E1,2.2E1,3.88E2,1.3E1,1.659E3,6.5E1,3E0,7E0,4E0,1E0,9E0,1.6E1,7.2E1,1.8E1,2.78E2,2.5E1,6.4E1,3.75E2,8.5E1,2.19E2,9.7E1,2.29E2,1.395E3,5.26E2,2.9E1,7.04E2,2.7E1,2E0,2.21E2,3.8E1,9.3E1,4.46E2,1.8E1,3.1E1,2E0,1E1,4E0,2.98E2,1.8E1,9E0,2.76E2,5E1,2E1,1.3E1,6E0,1.6E1,3.84E2,4E0,7E0,6E0,1.658E3,1E0,1.4E1,5.1E1,2E0,1E0,5E0,2E0,1E0,3E0,5E0,4E0,2E0,1.4E1,6.8E1,4E0,1.2E1,6E0,2.41E2,3.7E1,1.5E1,1E1,5E1,1.4E1,7.9E1,2.96E2,3.6E1,4.9E1,4.7E1,1.72E2,7E1,2.7E1,5.3E1,1.76E2,3.41E2,1.054E3,4.32E2,9.4E1,2.3E1,6E0,3.7E1,6.67E2],"tree_param":{"num_deleted":"0","num_feature":"12","num_nodes":"155","size_leaf_vector":"0"}},{"base_weights":[1.0518855E0,2.3221157E-1,1.7842427E0,4.783371E-1,5.99379E-2,8.555014E0,1.7036338E0,3.853995E-2,1.0159216E0,-1.644474E-1,2.4808307E-1,1.5745734E1,6.819941E0,1.0804185E0,1.8625592E0,1.3197998E0,2.4293853E-2,8.0183524E-1,1.2176366E0,-1.6632004E0,-1.5339091E-1,1.037703E0,2.3030902E-1,2.2232286E1,1.2963805E1,4.2015214E0,1.0996759E1,1.0403873E0,1.2378584E0,3.3178322E0,1.7974005E0,1.6466674E0,5.6245553E-1,-1.1342129E-1,9.308064E-2,4.0634475E0,7.783689E-1,1.9363856E0,1.170797E0,-6.3759977E-1,-2.3208525E0,-3.0565566E-1,-3.5066877E-2,3.017892E-1,2.9286845E0,-3.8493803E-1,2.4435113E-1,1.4103286E1,4.299059E0,-7.312853E-2,5.5301266E0,-1.04078636E-1,1.3700904E1,1.0640458E0,4.660051E-1,1.5123202E0,1.2058369E0,2.0462172E0,4.1690416E0,2.230826E0,1.7485756E0,9.298079E-1,1.9026723E0,7.832758E-2,-1.1847968E-1,6.1973367E-2,3.7691158E-1,-1.4593591E-1,8.0108166E-1,7.064546E-1,1.9845861E0,1.076053E0,1.4325708E0,-4.3736333E-1,-3.0282855E-1,-4.4351757E-1,-1.0976459E-2,1.0478417E0,-2.5440234E-1,6.6403737E0,1.1189781E0,-8.449794E-1,-1.6804668E-1,1.934604E-1,3.5601592E-1,1.1076901E1,1.7701975E1,-4.8961253E0,1.1346123E0,1.0274408E0,6.6814547E0,-1.6039858E0,7.618101E-1,2.9620073E1,9.662565E0,1.364765E0,1.0502226E0,5.046877E-1,1.3273513E-1,1.0411409E0,1.6882981E0,1.8156136E0,1.1895461E0,2.7908847E0,1.8282557E0,2.64108E0,5.0403857E0,1.8389595E0,2.6353889E0,1.8527626E0,1.5199782E0,1.7017397E-1,3.0571625E-2,-3.689137E-2,-1.2212442E-1,1.7448348E-1,3.1645253E-2,7.4433786E-1,1.6150664E-1,1.1555505E0,7.7307165E-1,2.0339692E0,7.6160437E-1,2.0238287E0,1.0577164E0,2.9129736E0,1.3868589E0,-3.123343E-1,-2.7560353E-1,-5.3080744E-1,-1.3176465E-1,-3.645896E-2,2.562686E-1,2.0717869E0,6.1316115E-1,-9.07738E-1,3.0691996E-1,2.1163683E0,9.4930725E0,-1.0414616E0,2.5236523E0,-1.3795804E0,-6.0127157E-1,8.055072E-2,-5.4654366E-1,3.1972378E-1,9.7863615E-2,2.0731308E-1,4.9210206E-1,1.6358266E0,-7.672615E-1,1.1207397E1,4.1284575E0,-7.5359166E-1,1.6282978E1,1.6729131E0,1.1539813E0,9.87793E-1,1.1041783E0,3.9795682E-1,5.688967E-1,4.0917784E-1,-3.8095243E-2,1.055332E0,1.243408E0,1.5222946E0,3.5846484E0,2.6847951E0,1.7233595E0,6.523881E0,1.4341251E0,8.099019E0,3.1237621E0,3.2666094E0,1.7679757E0,3.8455954E0,2.235802E0,1.6525009E0,2.501479E0,2.0194764E0,1.4547256E0],"categories":[],"categories_nodes":[],"categories_segments":[],"categories_sizes":[],"default_left":[true,true,true,true,true,true,true,true,true,true,true,true,true,true,true,true,true,true,true,true,true,true,true,false,true,true,true,true,true,true,true,true,false,true,true,false,true,true,true,false,false,true,true,true,true,true,true,true,false,true,true,true,true,true,true,true,true,true,true,true,true,false,false,true,true,true,true,false,true,false,true,true,true,false,true,true,true,true,true,true,true,true,true,true,true,false,false,false,true,false,true,false,false,false,true,true,true,true,true,false,false,false,true,true,true,true,true,true,true,true,true,false,false,false,false,false,false,false,false,false,false,false,false,false,false,false,false,false,false,false,false,false,false,false,false,false,false,false,false,false,false,false,false,false,false,false,false,false,false,false,false,false,false,false,false,false,false,false,false,false,false,false,false,false,false,false,false,false,false,false,false,false,false,false,false,false,false,false,false,false,false],"id":35,"left_children":[1,3,5,7,9,11,13,15,17,19,21,23,25,27,29,31,33,35,37,39,41,43,45,-1,47,49,51,53,55,57,59,61,-1,63,65,-1,67,69,71,-1,-1,73,75,77,79,81,83,85,-1,87,89,91,93,95,97,99,101,103,105,107,109,-1,-1,111,113,115,117,-1,119,-1,121,123,125,-1,127,129,131,133,135,137,139,141,143,145,147,-1,-1,-1,149,-1,151,-1,-1,-1,153,155,157,159,161,-1,-1,-1,163,165,167,169,171,173,175,177,179,-1,-1,-1,-1,-1,-1,-1,-1,-1,-1,-1,-1,-1,-1,-1,-1,-1,-1,-1,-1,-1,-1,-1,-1,-1,-1,-1,-1,-1,-1,-1,-1,-1,-1,-1,-1,-1,-1,-1,-1,-1,-1,-1,-1,-1,-1,-1,-1,-1,-1,-1,-1,-1,-1,-1,-1,-1,-1,-1,-1,-1,-1,-1,-1,-1,-1,-1,-1,-1,-1],"loss_changes":[4.774173E3,1.5912766E2,2.2874736E3,3.6533215E2,9.324403E1,5.7937354E2,4.104541E2,1.5491233E1,2.9673157E1,1.6581469E1,1.6762611E1,7.181006E1,4.2548938E2,4.859436E0,3.1155273E2,1.9701462E0,7.9731674E0,2.4771667E1,1.1229614E1,4.410679E0,1.8014154E1,3.6304825E1,1.0183495E1,0E0,5.192456E1,1.4408969E2,4.6095386E2,8.989929E0,8.413086E-1,1.5004749E2,6.564844E1,5.3196144E-1,0E0,2.7557397E-1,4.9420805E0,0E0,7.1091614E0,7.587967E-1,7.791748E0,0E0,0E0,1.0811615E-1,5.5349526E0,8.1226E0,4.66709E1,2.565726E0,6.500511E0,3.1791992E0,0E0,3.8798183E1,9.782684E1,4.7488484E0,6.968799E2,2.1826782E0,3.2094526E-1,7.29229E-1,7.6008606E-1,7.53833E0,1.0773108E2,4.8945435E1,6.682715E1,0E0,0E0,2.7567826E-2,7.751036E-2,1.7229395E0,4.3263817E0,0E0,2.9345093E0,0E0,6.7157745E-1,3.5579834E0,4.5691833E0,0E0,7.401657E-2,8.1989956E-1,3.62521E0,3.2472162E0,4.257821E0,2.3249588E1,1.708316E1,7.8086805E-1,1.746386E0,9.523228E0,7.2276154E0,0E0,0E0,0E0,5.5150433E0,0E0,1.6152576E2,0E0,0E0,0E0,7.1690186E2,1.0912857E0,1.6994019E0,7.747078E-2,1.6791378E-1,0E0,0E0,0E0,6.164093E-1,1.0526756E1,2.4673004E0,1.4360658E2,3.0405737E2,1.4554504E1,7.264624E1,2.5245557E2,2.8087646E1,0E0,0E0,0E0,0E0,0E0,0E0,0E0,0E0,0E0,0E0,0E0,0E0,0E0,0E0,0E0,0E0,0E0,0E0,0E0,0E0,0E0,0E0,0E0,0E0,0E0,0E0,0E0,0E0,0E0,0E0,0E0,0E0,0E0,0E0,0E0,0E0,0E0,0E0,0E0,0E0,0E0,0E0,0E0,0E0,0E0,0E0,0E0,0E0,0E0,0E0,0E0,0E0,0E0,0E0,0E0,0E0,0E0,0E0,0E0,0E0,0E0,0E0,0E0,0E0,0E0,0E0,0E0,0E0,0E0,0E0],"parents":[2147483647,0,0,1,1,2,2,3,3,4,4,5,5,6,6,7,7,8,8,9,9,10,10,11,11,12,12,13,13,14,14,15,15,16,16,17,17,18,18,19,19,20,20,21,21,22,22,24,24,25,25,26,26,27,27,28,28,29,29,30,30,31,31,33,33,34,34,36,36,37,37,38,38,41,41,42,42,43,43,44,44,45,45,46,46,47,47,49,49,50,50,51,51,52,52,53,53,54,54,55,55,56,56,57,57,58,58,59,59,60,60,63,63,64,64,65,65,66,66,68,68,70,70,71,71,72,72,74,74,75,75,76,76,77,77,78,78,79,79,80,80,81,81,82,82,83,83,84,84,88,88,90,90,94,94,95,95,96,96,97,97,98,98,102,102,103,103,104,104,105,105,106,106,107,107,108,108,109,109,110,110],"right_children":[2,4,6,8,10,12,14,16,18,20,22,24,26,28,30,32,34,36,38,40,42,44,46,-1,48,50,52,54,56,58,60,62,-1,64,66,-1,68,70,72,-1,-1,74,76,78,80,82,84,86,-1,88,90,92,94,96,98,100,102,104,106,108,110,-1,-1,112,114,116,118,-1,120,-1,122,124,126,-1,128,130,132,134,136,138,140,142,144,146,148,-1,-1,-1,150,-1,152,-1,-1,-1,154,156,158,160,162,-1,-1,-1,164,166,168,170,172,174,176,178,180,-1,-1,-1,-1,-1,-1,-1,-1,-1,-1,-1,-1,-1,-1,-1,-1,-1,-1,-1,-1,-1,-1,-1,-1,-1,-1,-1,-1,-1,-1,-1,-1,-1,-1,-1,-1,-1,-1,-1,-1,-1,-1,-1,-1,-1,-1,-1,-1,-1,-1,-1,-1,-1,-1,-1,-1,-1,-1,-1,-1,-1,-1,-1,-1,-1,-1,-1,-1,-1,-1],"split_conditions":[6.621175E-1,6.572582E-1,5E-1,3.8253418E-1,1.6666667E-1,7.876776E-1,5.3197986E-1,5E-1,6.028142E-1,2.7272727E-2,4.1296717E-4,2.7272727E-2,2.777778E-1,9.5665354E-1,1.8427517E-2,1.6666667E-1,8.981001E-3,5E-1,5.0082594E-1,5.5555556E-2,5.5555556E-2,2.777778E-1,5E-1,4.4464573E-1,7.703592E-1,1.6666667E-1,8.0838656E-1,9.345995E-1,5.0082594E-1,6.818182E-1,5.0082594E-1,6.7664776E-3,1.124911E-2,1.8427517E-2,3.532499E-1,8.126895E-2,2.6830466E-2,6.228082E-1,8.30303E-1,-1.2751995E-2,-4.641705E-2,5E-1,7.4893616E-2,4.95086E-1,5.818182E-1,2.7272727E-2,8.30303E-1,7.563675E-1,8.5981175E-2,2.7272727E-2,8.0948555E-1,2.7272727E-2,8.3943033E-1,3.3636364E-1,9.212121E-1,6.666666E-1,1.48936175E-2,6E-2,8.2218254E-1,8.2218254E-1,8.349742E-1,1.8596157E-2,3.8053446E-2,2.8483497E-3,4.2424244E-1,5.4538816E-2,3.698545E-1,-2.9187181E-3,3.8608843E-1,1.4129091E-2,5E-1,3.3636364E-1,6.5110564E-2,-8.747267E-3,6.965602E-1,6.965602E-1,9.533169E-1,7.3939395E-1,7.1515155E-1,5.181818E-1,7.0297873E-1,2.777778E-1,2.777778E-1,3.9234042E-1,2.777778E-1,2.2153802E-1,3.540395E-1,-9.7922504E-2,8.664447E-1,2.0548815E-2,8.349742E-1,-3.2079715E-2,1.5236202E-2,5.9240144E-1,8.5870504E-1,2.923833E-1,7.7778685E-1,3.783784E-1,1.1111111E-1,2.0822817E-2,3.376596E-2,3.631227E-2,3.5106385E-1,8.2218254E-1,7.6706135E-1,7.759628E-1,8.349742E-1,7.4893616E-2,8.349742E-1,8.2218254E-1,4.2424244E-1,3.4034795E-3,6.114325E-4,-7.378274E-4,-2.4424882E-3,3.4896694E-3,6.3290505E-4,1.4886756E-2,3.2301326E-3,2.311101E-2,1.5461433E-2,4.0679384E-2,1.5232087E-2,4.0476575E-2,2.1154327E-2,5.8259472E-2,2.7737178E-2,-6.246686E-3,-5.5120704E-3,-1.0616149E-2,-2.635293E-3,-7.2917924E-4,5.1253717E-3,4.1435737E-2,1.2263223E-2,-1.8154759E-2,6.1383992E-3,4.2327367E-2,1.8986145E-1,-2.082923E-2,5.0473046E-2,-2.7591607E-2,-1.2025431E-2,1.6110144E-3,-1.09308725E-2,6.3944757E-3,1.9572722E-3,4.1462616E-3,9.842041E-3,3.271653E-2,-1.534523E-2,2.2414795E-1,8.256915E-2,-1.5071833E-2,3.2565954E-1,3.345826E-2,2.3079626E-2,1.975586E-2,2.2083566E-2,7.959136E-3,1.1377934E-2,8.183557E-3,-7.6190487E-4,2.1106638E-2,2.4868159E-2,3.0445892E-2,7.1692966E-2,5.3695902E-2,3.4467187E-2,1.3047762E-1,2.86825E-2,1.6198038E-1,6.247524E-2,6.533219E-2,3.5359513E-2,7.6911904E-2,4.4716038E-2,3.3050016E-2,5.0029576E-2,4.0389527E-2,2.9094512E-2],"split_indices":[1,1,0,1,4,1,9,0,1,2,8,2,4,1,11,4,9,0,8,4,4,4,0,0,1,4,1,1,8,2,8,9,0,11,1,0,9,1,2,0,0,0,10,11,2,2,2,1,0,2,1,2,1,2,2,2,10,10,1,1,1,0,0,9,2,1,1,0,1,0,4,2,11,0,11,11,11,2,2,2,10,4,4,10,4,0,0,0,1,0,1,0,0,0,1,11,1,11,4,0,0,0,10,1,1,1,1,10,1,1,2,0,0,0,0,0,0,0,0,0,0,0,0,0,0,0,0,0,0,0,0,0,0,0,0,0,0,0,0,0,0,0,0,0,0,0,0,0,0,0,0,0,0,0,0,0,0,0,0,0,0,0,0,0,0,0,0,0,0,0,0,0,0,0,0,0,0,0,0,0,0],"split_type":[0,0,0,0,0,0,0,0,0,0,0,0,0,0,0,0,0,0,0,0,0,0,0,0,0,0,0,0,0,0,0,0,0,0,0,0,0,0,0,0,0,0,0,0,0,0,0,0,0,0,0,0,0,0,0,0,0,0,0,0,0,0,0,0,0,0,0,0,0,0,0,0,0,0,0,0,0,0,0,0,0,0,0,0,0,0,0,0,0,0,0,0,0,0,0,0,0,0,0,0,0,0,0,0,0,0,0,0,0,0,0,0,0,0,0,0,0,0,0,0,0,0,0,0,0,0,0,0,0,0,0,0,0,0,0,0,0,0,0,0,0,0,0,0,0,0,0,0,0,0,0,0,0,0,0,0,0,0,0,0,0,0,0,0,0,0,0,0,0,0,0,0,0,0,0,0,0,0,0,0,0],"sum_hessian":[7.953E3,3.753E3,4.2E3,1.545E3,2.208E3,4.9E1,4.151E3,8.5E2,6.95E2,1.007E3,1.201E3,9E0,4E1,8.44E2,3.307E3,9E0,8.41E2,3.38E2,3.57E2,7E0,1E3,2.6E1,1.175E3,2E0,7E0,2.5E1,1.5E1,6.75E2,1.69E2,1.41E2,3.166E3,6E0,3E0,2.8E2,5.61E2,2E0,3.36E2,2.1E1,3.36E2,3E0,4E0,4.37E2,5.63E2,1.9E1,7E0,2.6E1,1.149E3,6E0,1E0,6E0,1.9E1,3E0,1.2E1,6.48E2,2.7E1,1.6E1,1.53E2,5.7E1,8.4E1,3.19E2,2.847E3,2E0,4E0,7E0,2.73E2,5.06E2,5.5E1,8E0,3.28E2,1E0,2E1,2.48E2,8.8E1,8E0,4.29E2,3.1E1,5.32E2,8E0,1.1E1,2E0,5E0,8E0,1.8E1,7.9E2,3.59E2,4E0,2E0,1E0,5E0,4E0,1.5E1,1E0,2E0,2E0,1E1,2.7E1,6.21E2,2.4E1,3E0,5E0,1.1E1,3E0,1.5E2,1.2E1,4.5E1,3.1E1,5.3E1,1.63E2,1.56E2,1.954E3,8.93E2,2E0,5E0,1.2E1,2.61E2,1.07E2,3.99E2,2E1,3.5E1,2.3E1,3.05E2,1.9E1,1E0,4E0,2.44E2,2E0,8.6E1,3.15E2,1.14E2,2.4E1,7E0,4.86E2,4.6E1,2E0,6E0,5E0,6E0,1E0,1E0,2E0,3E0,2E0,6E0,1.1E1,7E0,3.4E2,4.5E2,1.72E2,1.87E2,4E0,1E0,5E0,1E1,4E0,6E0,1E1,1.7E1,2.91E2,3.3E2,1E1,1.4E1,1E0,2E0,4.5E1,1.05E2,5E0,7E0,4E0,4.1E1,7E0,2.4E1,2E1,3.3E1,7E0,1.56E2,3.8E1,1.18E2,1.494E3,4.6E2,1.02E2,7.91E2],"tree_param":{"num_deleted":"0","num_feature":"12","num_nodes":"181","size_leaf_vector":"0"}},{"base_weights":[1.0411426E0,2.1224155E-1,1.7848239E0,-3.156545E-2,3.9988384E-1,1.871142E1,1.7298344E0,-1.5400629E-1,5.3037524E-1,5.9722383E-3,4.8528168E-1,2.4878359E1,1.0583324E1,5.809355E0,1.6515659E0,8.642676E-2,-2.3587182E-1,4.731452E0,4.8062542E-1,-9.452972E-2,7.59688E-2,9.3493056E-1,2.8150642E-1,1.1446523E1,5.2017246E1,-1.2958231E0,2.1408024E1,1.3347143E1,5.22658E0,1.0803891E0,1.7976484E0,-6.224403E-3,1.6943824E0,-1.6501722E0,-2.2809845E-1,1.4587959E0,5.919349E0,1.0808345E-1,8.1483483E-1,4.67954E-1,-1.0308883E-1,2.7822793E-1,4.475336E-2,5.92342E-1,1.116214E0,-8.113959E-1,3.0435717E-1,2.1851183E1,3.0137727E0,8.986901E-1,-4.822691E0,-1.0763977E0,3.1203571E1,9.17163E0,1.7398531E1,1.974929E0,6.372362E0,1.3707588E0,1.0441101E0,2.2949407E0,1.70967E0,7.5590295E-1,-2.421549E-2,1.9664673E0,1.1948977E0,-5.9425986E-1,-2.2199662E0,-1.1661541E-1,-2.8755817E-1,5.1946584E-2,3.761851E-1,7.380739E-1,9.382985E-1,5.858228E-3,-1.1885364E-1,5.649375E-1,1.7929026E-1,1.3357198E-1,1.205584E-2,2.2735792E-1,7.405967E-1,1.7036631E0,1.0593799E0,-4.558666E-1,-1.2769825E0,2.8554928E-1,1.2578096E0,7.268171E0,1.4577521E-1,5.5722365E0,1.1995659E0,8.999312E0,5.2657695E0,1.5704569E0,1.2861097E0,9.96677E-1,1.1887083E0,1.8758891E0,2.7248333E0,1.8202804E0,1.4244313E0,3.7327036E-1,9.887783E-1,-1.1704025E-1,5.8969054E-2,-1.4311862E-1,9.4963104E-1,-2.2855775E-1,-4.0860283E-1,3.2381546E-1,3.2718796E-2,6.980523E-1,1.16259046E-1,8.4612095E-1,4.4781122E-1,9.554009E-1,5.6652725E-1,1.02941945E-1,-3.9333787E-2,-1.3202116E-1,-1.02660485E-1,6.108489E-1,1.9490059E-1,1.3770422E-1,3.00558E-1,1.9291103E-1,1.0691117E-1,-1.6308356E-2,8.538998E-2,3.256008E-1,8.109247E-2,8.267365E-1,4.1418082E-1,2.4443655E0,1.5596563E0,9.8418665E-1,1.3476217E0,-1.3559319E0,-2.7209356E-1,-7.4777067E-1,-1.9488798E0,1.5315397E-1,3.9599863E-1,2.9023848E0,9.518194E-1,7.1111174E0,1.4751252E0,8.661003E-1,1.4833182E0,1.2706285E1,8.124417E0,6.3106847E-1,6.2940054E0,1.8619484E0,1.4245155E0,9.0353817E-1,1.3194782E0,9.4155926E-1,1.0489953E0,1.7665818E0,1.0685774E0,2.5215666E0,1.6575811E0,3.995254E0,2.2479866E0,1.6534923E0,2.2749755E0,2.3901174E0,1.4105723E0],"categories":[],"categories_nodes":[],"categories_segments":[],"categories_sizes":[],"default_left":[true,true,true,true,true,true,true,true,true,true,true,true,true,true,true,true,true,true,true,true,true,true,true,true,false,true,true,true,true,true,true,true,true,true,true,false,false,true,true,false,true,true,true,true,true,true,true,false,true,false,false,false,false,false,false,true,true,true,true,true,true,true,true,false,false,false,false,true,true,true,true,true,true,true,true,true,true,true,true,true,true,true,true,true,true,true,true,false,false,true,true,true,true,true,true,true,true,true,true,true,true,false,false,false,false,false,false,false,false,false,false,false,false,false,false,false,false,false,false,false,false,false,false,false,false,false,false,false,false,false,false,false,false,false,false,false,false,false,false,false,false,false,false,false,false,false,false,false,false,false,false,false,false,false,false,false,false,false,false,false,false,false,false,false,false,false,false,false,false],"id":36,"left_children":[1,3,5,7,9,11,13,15,17,19,21,23,25,27,29,31,33,35,37,39,41,43,45,47,-1,49,51,53,55,57,59,61,63,65,67,-1,-1,69,71,-1,73,75,77,79,81,83,85,-1,87,-1,-1,-1,-1,-1,-1,89,91,93,95,97,99,101,103,-1,-1,-1,-1,105,107,109,111,113,115,117,119,121,123,125,127,129,131,133,135,137,139,141,143,-1,-1,145,147,149,151,153,155,157,159,161,163,165,167,-1,-1,-1,-1,-1,-1,-1,-1,-1,-1,-1,-1,-1,-1,-1,-1,-1,-1,-1,-1,-1,-1,-1,-1,-1,-1,-1,-1,-1,-1,-1,-1,-1,-1,-1,-1,-1,-1,-1,-1,-1,-1,-1,-1,-1,-1,-1,-1,-1,-1,-1,-1,-1,-1,-1,-1,-1,-1,-1,-1,-1,-1,-1,-1,-1,-1,-1,-1],"loss_changes":[4.827995E3,1.6947717E2,3.831499E3,1.1088884E2,7.0410095E1,5.8003906E2,1.3107129E3,2.6056343E1,5.942987E1,2.6284533E0,1.5752441E2,2.4737744E3,8.239474E2,3.161848E2,3.3626562E2,5.013421E1,1.0702332E1,9.974319E0,3.548349E1,7.4908555E-1,1.3823398E0,3.3064484E1,2.9652245E1,4.4564294E2,0E0,2.730154E1,7.45818E2,3.6632263E1,2.651759E2,8.16156E0,1.393086E2,4.3604965E0,1.662899E0,2.7288256E0,6.4946976E0,0E0,0E0,2.0241976E0,1.1698914E0,0E0,2.617637E-1,7.8769183E-1,5.5304664E-1,1.0012665E1,1.1055359E1,3.8090687E0,2.0665825E1,0E0,4.0214622E1,0E0,0E0,0E0,0E0,0E0,0E0,5.1599686E1,1.3903223E2,8.1274414E-1,4.6035156E0,8.512085E1,8.532666E1,5.109472E-1,2.4071178E0,0E0,0E0,0E0,0E0,9.707805E0,4.5328293E0,5.7859737E-1,1.9134388E0,2.8136787E0,1.5597534E-1,8.70814E-2,2.0349503E-2,7.339311E-2,9.257555E-2,7.005662E-2,2.9335237E-1,7.6614094E-1,3.5889893E0,1.9071274E0,6.4673157E0,2.2246132E0,3.1498966E0,1.6617767E1,1.0262527E1,0E0,0E0,1.7396912E1,1.0835743E0,1.5007935E1,1.8125732E2,1.4633179E-1,4.0475464E-1,1.2407227E0,1.1779495E1,3.312793E1,1.4069153E2,1.4796338E2,9.064209E0,0E0,0E0,0E0,0E0,0E0,0E0,0E0,0E0,0E0,0E0,0E0,0E0,0E0,0E0,0E0,0E0,0E0,0E0,0E0,0E0,0E0,0E0,0E0,0E0,0E0,0E0,0E0,0E0,0E0,0E0,0E0,0E0,0E0,0E0,0E0,0E0,0E0,0E0,0E0,0E0,0E0,0E0,0E0,0E0,0E0,0E0,0E0,0E0,0E0,0E0,0E0,0E0,0E0,0E0,0E0,0E0,0E0,0E0,0E0,0E0,0E0,0E0,0E0,0E0,0E0,0E0,0E0,0E0],"parents":[2147483647,0,0,1,1,2,2,3,3,4,4,5,5,6,6,7,7,8,8,9,9,10,10,11,11,12,12,13,13,14,14,15,15,16,16,17,17,18,18,19,19,20,20,21,21,22,22,23,23,25,25,26,26,27,27,28,28,29,29,30,30,31,31,32,32,33,33,34,34,37,37,38,38,40,40,41,41,42,42,43,43,44,44,45,45,46,46,48,48,55,55,56,56,57,57,58,58,59,59,60,60,61,61,62,62,67,67,68,68,69,69,70,70,71,71,72,72,73,73,74,74,75,75,76,76,77,77,78,78,79,79,80,80,81,81,82,82,83,83,84,84,85,85,86,86,89,89,90,90,91,91,92,92,93,93,94,94,95,95,96,96,97,97,98,98,99,99,100,100],"right_children":[2,4,6,8,10,12,14,16,18,20,22,24,26,28,30,32,34,36,38,40,42,44,46,48,-1,50,52,54,56,58,60,62,64,66,68,-1,-1,70,72,-1,74,76,78,80,82,84,86,-1,88,-1,-1,-1,-1,-1,-1,90,92,94,96,98,100,102,104,-1,-1,-1,-1,106,108,110,112,114,116,118,120,122,124,126,128,130,132,134,136,138,140,142,144,-1,-1,146,148,150,152,154,156,158,160,162,164,166,168,-1,-1,-1,-1,-1,-1,-1,-1,-1,-1,-1,-1,-1,-1,-1,-1,-1,-1,-1,-1,-1,-1,-1,-1,-1,-1,-1,-1,-1,-1,-1,-1,-1,-1,-1,-1,-1,-1,-1,-1,-1,-1,-1,-1,-1,-1,-1,-1,-1,-1,-1,-1,-1,-1,-1,-1,-1,-1,-1,-1,-1,-1,-1,-1,-1,-1,-1,-1],"split_conditions":[6.621175E-1,1.6666667E-1,2.2506302E-3,7.090609E-2,3.9510223E-1,8.349742E-1,7.4137926E-2,6.549501E-1,3.275862E-2,7.6129995E-2,6.572582E-1,8.2218254E-1,2.777778E-1,7.703592E-1,9.8790765E-1,5.0793403E-1,2.2506302E-3,3.7589142E-1,3.8020277E-1,3.965517E-2,2.0075622E-1,4.4565028E-1,3.275862E-2,7.876776E-1,1.040345E0,8.7090075E-1,8.7090075E-1,7.563675E-1,8.2218254E-1,1.9346416E-1,1.7527908E-1,7.7586204E-2,5.958768E-1,5.5555556E-2,3.4520882E-1,2.9175917E-2,1.18386984E-1,3.443045E-1,4.4565028E-1,9.35908E-3,1.8518186E-1,5.998201E-2,6.392436E-2,3.7966675E-1,2.0678791E-1,2.777778E-1,8.810345E-1,4.3702364E-1,9.8790765E-1,1.7973801E-2,-9.6453816E-2,-2.1527953E-2,6.240714E-1,1.834326E-1,3.479706E-1,9.8790765E-1,8.349742E-1,1.4482759E-1,9.345995E-1,8.2218254E-1,8.4422266E-1,2.4243233E-1,8.513586E-2,3.9329343E-2,2.3897953E-2,-1.1885197E-2,-4.439932E-2,7.7799785E-1,7.689953E-1,8.516385E-2,3.7000573E-1,4.3256068E-1,7.482759E-1,1.8275863E-1,4.0821142E-2,3.137931E-1,3.888889E-1,2.862069E-1,3.1517088E-1,5.838135E-1,4.3256068E-1,1.2068965E-1,6.430696E-1,2.2506302E-3,2.2506302E-3,2.777778E-1,9.137931E-1,1.4536342E-1,2.9155042E-3,7.998252E-1,1.3053656E-1,3.275862E-2,8.571358E-1,1.2315449E-1,1.5E-1,7.7778685E-1,1.6216215E-1,7.7943826E-1,8.349742E-1,8.2218254E-1,1.8427517E-2,7.4654073E-3,1.9775566E-2,-2.3408048E-3,1.179381E-3,-2.8623724E-3,1.899262E-2,-4.5711547E-3,-8.172057E-3,6.476309E-3,6.5437594E-4,1.3961045E-2,2.325181E-3,1.6922418E-2,8.956224E-3,1.9108018E-2,1.1330545E-2,2.058839E-3,-7.866757E-4,-2.6404231E-3,-2.0532096E-3,1.2216978E-2,3.8980118E-3,2.7540843E-3,6.01116E-3,3.8582205E-3,2.1382233E-3,-3.2616712E-4,1.7077995E-3,6.512016E-3,1.6218494E-3,1.6534729E-2,8.283616E-3,4.888731E-2,3.1193124E-2,1.9683732E-2,2.6952432E-2,-2.7118636E-2,-5.441871E-3,-1.4955413E-2,-3.8977597E-2,3.0630794E-3,7.919973E-3,5.8047693E-2,1.9036388E-2,1.4222234E-1,2.9502504E-2,1.7322006E-2,2.9666364E-2,2.541257E-1,1.6248834E-1,1.2621369E-2,1.258801E-1,3.7238967E-2,2.8490309E-2,1.8070763E-2,2.6389562E-2,1.8831184E-2,2.0979906E-2,3.5331633E-2,2.1371547E-2,5.043133E-2,3.3151623E-2,7.990508E-2,4.495973E-2,3.3069845E-2,4.549951E-2,4.7802348E-2,2.8211445E-2],"split_indices":[1,4,5,7,6,1,3,1,3,6,1,1,4,1,6,1,5,1,1,3,5,1,3,1,0,1,1,1,1,5,5,3,5,4,11,0,0,1,1,0,5,1,1,1,5,4,3,0,6,0,0,0,0,0,0,6,1,3,1,1,1,1,6,0,0,0,0,5,5,5,1,1,3,3,7,3,4,3,1,5,1,3,1,5,5,4,3,0,0,1,5,3,1,5,3,1,11,1,1,1,11,0,0,0,0,0,0,0,0,0,0,0,0,0,0,0,0,0,0,0,0,0,0,0,0,0,0,0,0,0,0,0,0,0,0,0,0,0,0,0,0,0,0,0,0,0,0,0,0,0,0,0,0,0,0,0,0,0,0,0,0,0,0,0,0,0,0,0,0],"split_type":[0,0,0,0,0,0,0,0,0,0,0,0,0,0,0,0,0,0,0,0,0,0,0,0,0,0,0,0,0,0,0,0,0,0,0,0,0,0,0,0,0,0,0,0,0,0,0,0,0,0,0,0,0,0,0,0,0,0,0,0,0,0,0,0,0,0,0,0,0,0,0,0,0,0,0,0,0,0,0,0,0,0,0,0,0,0,0,0,0,0,0,0,0,0,0,0,0,0,0,0,0,0,0,0,0,0,0,0,0,0,0,0,0,0,0,0,0,0,0,0,0,0,0,0,0,0,0,0,0,0,0,0,0,0,0,0,0,0,0,0,0,0,0,0,0,0,0,0,0,0,0,0,0,0,0,0,0,0,0,0,0,0,0,0,0,0,0,0,0],"sum_hessian":[7.832E3,3.704E3,4.128E3,1.611E3,2.093E3,1.3E1,4.115E3,1.323E3,2.88E2,3.73E2,1.72E3,7E0,6E0,7.7E1,4.038E3,3.36E2,9.87E2,3E0,2.85E2,1.53E2,2.2E2,5.36E2,1.184E3,5E0,2E0,3E0,3E0,5E0,7.2E1,8.23E2,3.215E3,3.18E2,1.8E1,5E0,9.82E2,1E0,2E0,1.35E2,1.5E2,2E0,1.51E2,2.9E1,1.91E2,1.86E2,3.5E2,2.4E1,1.16E3,2E0,3E0,2E0,1E0,1E0,2E0,3E0,2E0,1.9E1,5.3E1,9E1,7.33E2,4.82E2,2.733E3,7E0,3.11E2,1.1E1,7E0,2E0,3E0,3.42E2,6.4E2,1.12E2,2.3E1,9.4E1,5.6E1,1.9E1,1.32E2,7E0,2.2E1,5.1E1,1.4E2,5.4E1,1.32E2,3E1,3.2E2,1.4E1,1E1,1.138E3,2.2E1,1E0,2E0,3E0,1.6E1,1.5E1,3.8E1,2.5E1,6.5E1,5.54E2,1.79E2,2.45E2,2.37E2,1.968E3,7.65E2,3E0,4E0,1.47E2,1.64E2,3.34E2,8E0,4.31E2,2.09E2,7E0,1.05E2,1E1,1.3E1,6.8E1,2.6E1,5.3E1,3E0,6E0,1.3E1,7.1E1,6.1E1,6E0,1E0,1.7E1,5E0,1.5E1,3.6E1,1.01E2,3.9E1,3.2E1,2.2E1,1.04E2,2.8E1,4E0,2.6E1,2.55E2,6.5E1,2E0,1.2E1,6E0,4E0,5.18E2,6.2E2,3E0,1.9E1,2E0,1E0,8E0,8E0,2E0,1.3E1,7E0,3.1E1,7E0,1.8E1,6E0,5.9E1,2.73E2,2.81E2,3E1,1.49E2,6.1E1,1.84E2,6.4E1,1.73E2,1.441E3,5.27E2,1E1,7.55E2],"tree_param":{"num_deleted":"0","num_feature":"12","num_nodes":"169","size_leaf_vector":"0"}},{"base_weights":[9.9387807E-1,2.1223263E-1,1.7218797E0,4.3873808E-1,5.673167E-2,7.7804213E0,1.6461834E0,4.8159048E-2,9.562732E-1,-1.5402688E0,6.693341E-2,1.6578415E1,6.6877923E0,1.7962695E0,1.0685762E0,1.3776844E0,3.2393094E-2,3.2368274E0,9.373774E-1,-1.7891441E-1,1.024625E-1,8.404145E0,2.0637766E1,1.7733754E0,9.615052E0,2.4191754E0,1.6749741E0,1.4291183E0,1.0101727E0,1.0447778E0,1.9679633E0,-1.0702813E-1,1.0179098E-1,3.582134E0,1.2945057E0,7.325155E-1,1.1229585E0,-9.286667E-1,-1.2074105E-1,7.444384E-2,1.9015743E-1,1.0212442E0,6.4561615E0,3.0668303E1,5.7333922E0,1.800105E0,2.9658256E0,1.776824E0,1.4114295E0,1.3086954E0,1.9386027E0,9.133711E-1,1.0723689E0,1.2918853E0,6.147452E-1,-4.5938384E-2,-1.2054571E-1,7.104938E-2,3.6280927E-1,1.1885788E0,6.985814E-1,1.587869E0,1.0689468E0,-5.4148066E-1,-1.3641118E0,9.9482423E-1,-1.6614231E-1,1.3984813E-1,-1.0608177E-2,1.3802029E-1,3.839013E-1,-5.283111E-1,1.4135998E0,5.7141052E1,1.7006289E1,3.0421385E-1,8.912509E0,2.6887813E0,1.5385215E0,4.5498366E0,2.3351486E0,1.6129735E0,2.203681E0,1.7768043E0,1.3692881E0,2.7810848E0,1.250022E0,2.7364807E0,1.4842851E0,1.0251561E0,8.5234016E-1,1.2576468E0,1.005288E0,4.88878E-2,-6.587823E-2,-1.3555391E-1,-1.11303374E-1,2.5601918E-1,4.314568E-2,7.235082E-1,1.6867247E-1,2.3030417E-1,7.805246E-1,1.7671142E0,1.3424096E0,9.3848896E-1,1.1866738E0,-8.652427E-1,3.1779358E-1,-1.0629033E0,-1.6265643E0,1.623921E0,-4.843979E-1,-1.4444704E-1,-7.266212E-1,7.890293E-2,4.9721617E-1,-1.9919427E-2,9.2909425E-1,4.16117E-1,6.548734E-2,1.9167198E0,2.2570299E-1,-8.176991E-1,9.951736E-2,-6.445751E-1,7.898209E-1,9.269121E0,2.839774E0,2.3401852E0,4.5594745E0,1.5538924E0,7.559104E-1,6.4525366E0,4.0266953E0,1.402873E0,2.745731E0,1.370387E0,1.7017324E0,2.314618E0,1.6767269E0,2.9563863E0,1.7149106E0,1.0789031E0,1.3836691E0,1.3621514E0,1.067391E0,2.1115692E0,3.7676244E0,9.430927E-1,1.5985324E0,1.2228569E0,9.786444E-1,1.0033418E0,8.1232285E-1,1.0876144E0,1.9046139E0,1.0665411E0,7.642416E-1],"categories":[],"categories_nodes":[],"categories_segments":[],"categories_sizes":[],"default_left":[true,true,true,true,true,true,true,true,true,false,true,true,true,true,true,true,true,true,true,true,true,false,false,true,true,true,true,true,true,true,false,true,true,false,false,true,true,true,true,true,true,true,false,true,true,true,true,true,true,true,true,true,true,false,false,true,true,true,true,false,true,true,true,true,true,true,true,true,true,true,true,true,false,false,false,true,true,true,true,true,true,true,true,true,true,false,true,true,true,true,true,true,true,false,false,false,false,false,false,false,false,false,false,false,false,false,false,false,false,false,false,false,false,false,false,false,false,false,false,false,false,false,false,false,false,false,false,false,false,false,false,false,false,false,false,false,false,false,false,false,false,false,false,false,false,false,false,false,false,false,false,false,false,false,false,false,false,false,false],"id":37,"left_children":[1,3,5,7,9,11,13,15,17,-1,19,21,23,25,27,29,31,33,35,37,39,-1,-1,41,43,45,47,49,51,53,-1,55,57,-1,-1,59,61,63,65,67,69,71,-1,73,75,77,79,81,83,85,87,89,91,-1,-1,93,95,97,99,-1,101,103,105,107,109,111,113,115,117,119,121,123,-1,-1,-1,125,127,129,131,133,135,137,139,141,143,-1,145,147,149,151,153,155,157,-1,-1,-1,-1,-1,-1,-1,-1,-1,-1,-1,-1,-1,-1,-1,-1,-1,-1,-1,-1,-1,-1,-1,-1,-1,-1,-1,-1,-1,-1,-1,-1,-1,-1,-1,-1,-1,-1,-1,-1,-1,-1,-1,-1,-1,-1,-1,-1,-1,-1,-1,-1,-1,-1,-1,-1,-1,-1,-1,-1,-1,-1,-1,-1,-1,-1],"loss_changes":[4.490898E3,1.3405061E2,1.869627E3,3.131501E2,3.679026E1,4.465481E2,3.4923145E2,1.8480764E1,2.7642883E1,0E0,1.959998E1,1.18724E2,6.463085E2,2.4062012E2,1.703125E1,1.3019867E0,8.453529E0,1.9612427E0,2.4842102E1,1.2305403E1,4.8082294E0,0E0,0E0,5.8744358E1,2.2563013E3,1.7457886E2,7.111719E1,6.1837616E0,3.9699097E0,4.872532E-1,0E0,2.3553157E-1,4.6659527E0,0E0,0E0,4.5763245E0,8.092712E0,3.1546898E0,1.3380633E1,8.270465E0,4.766247E0,9.584064E0,0E0,1.2421802E3,4.189599E2,5.5591125E1,2.7241577E2,1.33979E2,1.0681641E1,6.9326935E0,6.3184967E0,1.6148224E0,4.9566956E0,0E0,0E0,1.021603E-1,2.4368286E-2,2.6879907E0,4.2414494E0,0E0,1.1219833E1,7.191696E-1,4.379883E0,3.2524793E0,1.2294388E-1,9.8946295E0,3.0330443E0,1.828105E1,5.648494E0,7.534789E0,2.415497E1,6.430257E-1,0E0,0E0,0E0,4.4721327E0,2.425586E1,3.2427338E1,1.8649292E0,6.915784E1,7.457361E1,2.928711E1,2.9944092E1,3.815689E0,2.2789307E0,0E0,1.3508453E0,1.9886703E0,3.472519E-1,4.73732E-1,8.222351E-1,1.1843811E1,4.4465027E0,0E0,0E0,0E0,0E0,0E0,0E0,0E0,0E0,0E0,0E0,0E0,0E0,0E0,0E0,0E0,0E0,0E0,0E0,0E0,0E0,0E0,0E0,0E0,0E0,0E0,0E0,0E0,0E0,0E0,0E0,0E0,0E0,0E0,0E0,0E0,0E0,0E0,0E0,0E0,0E0,0E0,0E0,0E0,0E0,0E0,0E0,0E0,0E0,0E0,0E0,0E0,0E0,0E0,0E0,0E0,0E0,0E0,0E0,0E0,0E0,0E0,0E0,0E0,0E0,0E0,0E0],"parents":[2147483647,0,0,1,1,2,2,3,3,4,4,5,5,6,6,7,7,8,8,10,10,11,11,12,12,13,13,14,14,15,15,16,16,17,17,18,18,19,19,20,20,23,23,24,24,25,25,26,26,27,27,28,28,29,29,31,31,32,32,35,35,36,36,37,37,38,38,39,39,40,40,41,41,43,43,44,44,45,45,46,46,47,47,48,48,49,49,50,50,51,51,52,52,55,55,56,56,57,57,58,58,60,60,61,61,62,62,63,63,64,64,65,65,66,66,67,67,68,68,69,69,70,70,71,71,75,75,76,76,77,77,78,78,79,79,80,80,81,81,82,82,83,83,84,84,86,86,87,87,88,88,89,89,90,90,91,91,92,92],"right_children":[2,4,6,8,10,12,14,16,18,-1,20,22,24,26,28,30,32,34,36,38,40,-1,-1,42,44,46,48,50,52,54,-1,56,58,-1,-1,60,62,64,66,68,70,72,-1,74,76,78,80,82,84,86,88,90,92,-1,-1,94,96,98,100,-1,102,104,106,108,110,112,114,116,118,120,122,124,-1,-1,-1,126,128,130,132,134,136,138,140,142,144,-1,146,148,150,152,154,156,158,-1,-1,-1,-1,-1,-1,-1,-1,-1,-1,-1,-1,-1,-1,-1,-1,-1,-1,-1,-1,-1,-1,-1,-1,-1,-1,-1,-1,-1,-1,-1,-1,-1,-1,-1,-1,-1,-1,-1,-1,-1,-1,-1,-1,-1,-1,-1,-1,-1,-1,-1,-1,-1,-1,-1,-1,-1,-1,-1,-1,-1,-1,-1,-1,-1,-1],"split_conditions":[6.621175E-1,6.572582E-1,5E-1,3.8399246E-1,2.2506302E-3,7.703592E-1,7.090609E-2,5E-1,2.9258192E-2,-3.0805375E-2,1.389089E-1,7.563675E-1,8.2218254E-1,1.8437162E-1,1.9301404E-1,4.0821142E-2,8.981001E-3,6.4393395E-1,5.988887E-1,6.142506E-3,9.9787235E-1,1.6808291E-1,4.127553E-1,1.166234E-1,8.349742E-1,8.2218254E-1,8.4422266E-1,9.9787235E-1,7.7778685E-1,1.24566406E-1,3.9359264E-2,2.2902411E-1,3.532499E-1,7.164268E-2,2.5890114E-2,3.8608843E-1,2.3172489E-1,1.0199856E-1,7.985258E-2,3.9234042E-1,8.496579E-1,2.2506302E-3,1.2912323E-1,2.2506302E-3,8.571358E-1,7.7943826E-1,8.349742E-1,8.2218254E-1,2.692654E-1,2.4936981E-2,7.739557E-2,7.2128004E-1,2.923833E-1,2.5837705E-2,1.2294903E-2,7.985258E-2,1.6281264E-2,1.3800865E-1,3.698545E-1,2.3771577E-2,3.989272E-1,7.090609E-2,6.341465E-1,6.60785E-2,1.3341735E-1,7.008511E-1,9.533169E-1,6.995859E-1,9.975693E-1,3.457868E-1,8.7630534E-1,8.0460525E-1,2.8271995E-2,1.1428211E0,3.4012577E-1,2.2506302E-3,9.28372E-1,1.5844437E-1,1.7951027E-1,6.142506E-3,8.76709E-1,7.554066E-1,8.349742E-1,1.8427517E-2,8.486788E-1,5.5621695E-2,1.4259993E-1,8.964592E-1,7.7093303E-1,6.6854E-1,1.3137093E-1,6.385488E-1,5.8854413E-1,9.77756E-4,-1.3175645E-3,-2.7110782E-3,-2.2260675E-3,5.1203836E-3,8.6291356E-4,1.4470163E-2,3.3734494E-3,4.606083E-3,1.5610492E-2,3.5342284E-2,2.6848191E-2,1.8769778E-2,2.3733474E-2,-1.7304854E-2,6.3558714E-3,-2.1258065E-2,-3.2531284E-2,3.247842E-2,-9.687957E-3,-2.8889407E-3,-1.4532424E-2,1.5780586E-3,9.944323E-3,-3.9838854E-4,1.8581884E-2,8.32234E-3,1.3097468E-3,3.8334396E-2,4.5140595E-3,-1.6353982E-2,1.9903472E-3,-1.2891502E-2,1.5796417E-2,1.8538243E-1,5.6795478E-2,4.68037E-2,9.118949E-2,3.1077847E-2,1.5118208E-2,1.2905073E-1,8.053391E-2,2.805746E-2,5.491462E-2,2.740774E-2,3.4034647E-2,4.629236E-2,3.3534538E-2,5.9127726E-2,3.429821E-2,2.157806E-2,2.7673382E-2,2.7243027E-2,2.134782E-2,4.223138E-2,7.535248E-2,1.8861854E-2,3.1970646E-2,2.4457136E-2,1.9572888E-2,2.0066835E-2,1.6246457E-2,2.1752289E-2,3.8092278E-2,2.133082E-2,1.5284832E-2],"split_indices":[1,1,0,1,5,1,7,0,5,0,5,1,1,5,5,7,9,1,1,11,10,0,0,7,1,1,1,10,1,1,0,5,1,0,0,1,5,5,11,10,5,5,0,5,1,1,1,1,5,5,11,1,11,0,0,11,7,5,1,0,1,7,1,5,5,10,11,5,5,5,5,1,0,0,0,5,1,5,5,11,1,1,1,11,1,0,5,1,1,1,7,5,7,0,0,0,0,0,0,0,0,0,0,0,0,0,0,0,0,0,0,0,0,0,0,0,0,0,0,0,0,0,0,0,0,0,0,0,0,0,0,0,0,0,0,0,0,0,0,0,0,0,0,0,0,0,0,0,0,0,0,0,0,0,0,0,0,0,0],"split_type":[0,0,0,0,0,0,0,0,0,0,0,0,0,0,0,0,0,0,0,0,0,0,0,0,0,0,0,0,0,0,0,0,0,0,0,0,0,0,0,0,0,0,0,0,0,0,0,0,0,0,0,0,0,0,0,0,0,0,0,0,0,0,0,0,0,0,0,0,0,0,0,0,0,0,0,0,0,0,0,0,0,0,0,0,0,0,0,0,0,0,0,0,0,0,0,0,0,0,0,0,0,0,0,0,0,0,0,0,0,0,0,0,0,0,0,0,0,0,0,0,0,0,0,0,0,0,0,0,0,0,0,0,0,0,0,0,0,0,0,0,0,0,0,0,0,0,0,0,0,0,0,0,0,0,0,0,0,0,0],"sum_hessian":[7.892E3,3.806E3,4.086E3,1.549E3,2.257E3,5E1,4.036E3,8.83E2,6.66E2,1.4E1,2.243E3,5E0,4.5E1,3.203E3,8.33E2,1E1,8.73E2,5E0,6.61E2,2.83E2,1.96E3,2E0,3E0,1.7E1,2.8E1,5.21E2,2.682E3,1.15E2,7.18E2,7E0,3E0,2.9E2,5.83E2,4E0,1E0,3.15E2,3.46E2,2E1,2.63E2,1.486E3,4.74E2,1.5E1,2E0,4E0,2.4E1,2.45E2,2.76E2,1.933E3,7.49E2,9.4E1,2.1E1,2.83E2,4.35E2,4E0,3E0,5.3E1,2.37E2,5.22E2,6.1E1,2.1E1,2.94E2,3.5E1,3.11E2,1.1E1,9E0,1E1,2.53E2,8.4E2,6.46E2,3.74E2,1E2,3E0,1.2E1,1E0,3E0,9E0,1.5E1,5.5E1,1.9E2,7.8E1,1.98E2,1.398E3,5.35E2,7.6E1,6.73E2,3E0,9.1E1,7E0,1.4E1,9.8E1,1.85E2,1.14E2,3.21E2,9E0,4.4E1,8.8E1,1.49E2,6.8E1,4.54E2,2.1E1,4E1,4.4E1,2.5E2,1.9E1,1.6E1,1.49E2,1.62E2,8E0,3E0,5E0,4E0,7E0,3E0,2.44E2,9E0,7.18E2,1.22E2,6.4E2,6E0,7.7E1,2.97E2,9E0,9.1E1,2E0,1E0,3E0,6E0,1.4E1,1E0,4.7E1,8E0,1.86E2,4E0,1.6E1,6.2E1,6.1E1,1.37E2,3.76E2,1.022E3,4.41E2,9.4E1,3E0,7.3E1,3.3E1,6.4E2,5.5E1,3.6E1,5E0,2E0,3E0,1.1E1,1.7E1,8.1E1,3.7E1,1.48E2,9.1E1,2.3E1,2.55E2,6.6E1],"tree_param":{"num_deleted":"0","num_feature":"12","num_nodes":"159","size_leaf_vector":"0"}},{"base_weights":[9.864881E-1,7.08103E0,9.636162E-1,1.7534372E-1,7.8649874E0,1.1131263E-3,1.0667589E0,1.4249083E0,-5.576701E-1,1.2840525E1,5.841296E0,1.050881E0,-7.7058114E-3,6.91746E-2,1.1607348E0,1.5818537E1,5.008582E0,-1.04921594E-1,5.1290628E-2,8.4586763E-1,-2.915208E-1,3.5694096E0,1.1391191E0,1.4624611E0,6.3007174E0,-1.4782064E-2,-1.2090283E-1,1.8532217E-1,2.3898803E-2,3.3266764E0,8.2712716E-1,-2.1460696E-1,-3.0226284E-1,3.8201618E0,-8.7048733E-1,1.520555E0,1.071307E0,7.0623274E0,-3.6994687E-1,-3.5148237E-2,8.484866E-2,-1.3116613E-1,-1.0798126E-1,1.392161E-1,3.4673744E-1,5.234312E-2,7.2577163E-3,1.0635531E0,6.4427114E-1,-2.7310458E-1,1.5482265E-1,-3.7252593E-1,-2.9600164E-1,3.5743978E0,7.218341E0,1.0727706E0,1.6892207E0,8.82631E-1,1.12803E0,-6.0398698E-2,-2.123137E-3,-4.7675394E-2,1.1053544E-1,-7.460206E-2,-1.3449083E-1,-1.2857668E-1,-9.665633E-2,7.74886E-2,1.6743127E-1,4.9295613E-1,1.6738608E-1,4.4976402E-2,8.1487256E-1,1.8910216E-2,-4.0312566E-2,1.2772536E0,9.6969366E-1,1.1385965E0,6.1175597E-1,5.346591E-2,-3.1438407E-1,1.1559819E0,-2.9020488E-1,-4.2500803E-1,-3.1038177E-1,-3.2874665E-1,-2.8708655E-1,6.1734266E0,3.4270134E0,1.496803E0,1.0082296E0,1.5593297E0,2.10054E0,3.475343E0,8.775738E-1,8.864155E-1,1.1835921E0],"categories":[],"categories_nodes":[],"categories_segments":[],"categories_sizes":[],"default_left":[true,true,true,true,true,true,true,false,false,false,true,false,true,true,true,false,true,true,true,true,true,true,true,true,false,true,true,true,true,false,true,true,true,true,false,true,true,false,false,true,true,true,true,true,true,true,true,true,true,true,true,true,true,true,false,true,true,true,true,false,false,false,false,false,false,false,false,false,false,false,false,false,false,false,false,false,false,false,false,false,false,false,false,false,false,false,false,false,false,false,false,false,false,false,false,false,false],"id":38,"left_children":[1,3,5,7,9,11,13,-1,-1,-1,15,-1,17,19,21,-1,23,25,27,29,31,33,35,37,-1,39,41,43,45,-1,47,49,51,53,-1,55,57,-1,-1,59,61,63,65,67,69,71,73,75,77,79,81,83,85,87,-1,89,91,93,95,-1,-1,-1,-1,-1,-1,-1,-1,-1,-1,-1,-1,-1,-1,-1,-1,-1,-1,-1,-1,-1,-1,-1,-1,-1,-1,-1,-1,-1,-1,-1,-1,-1,-1,-1,-1,-1,-1],"loss_changes":[1.0932905E3,1.5822998E2,7.774414E2,3.3306434E0,2.3987183E2,7.0381083E0,6.6307324E2,0E0,0E0,0E0,1.3390857E2,0E0,4.3174815E0,1.7079466E2,3.3514355E2,0E0,8.0821686E1,4.0706253E-1,1.7149634E0,8.011551E0,3.1497574E-1,6.49812E1,1.6515234E2,5.569474E1,0E0,8.821338E-2,2.3870707E-2,5.6738853E-1,1.8331198E-1,0E0,8.062088E0,1.1467531E0,1.13975525E-1,3.661859E1,0E0,7.2339355E1,5.7874023E1,0E0,0E0,2.9363867E-2,2.7617969E-2,1.8558025E-2,1.8144011E-2,1.00743175E-1,4.1762686E-1,7.8066593E-1,1.364947E-1,1.2264175E0,1.5000839E0,6.2045264E-1,3.3916E0,3.7929058E-2,5.7926178E-2,1.2471619E1,0E0,6.7225647E0,3.632556E1,1.5433228E1,5.57666E1,0E0,0E0,0E0,0E0,0E0,0E0,0E0,0E0,0E0,0E0,0E0,0E0,0E0,0E0,0E0,0E0,0E0,0E0,0E0,0E0,0E0,0E0,0E0,0E0,0E0,0E0,0E0,0E0,0E0,0E0,0E0,0E0,0E0,0E0,0E0,0E0,0E0,0E0],"parents":[2147483647,0,0,1,1,2,2,3,3,4,4,5,5,6,6,10,10,12,12,13,13,14,14,16,16,17,17,18,18,19,19,20,20,21,21,22,22,23,23,25,25,26,26,27,27,28,28,30,30,31,31,32,32,33,33,35,35,36,36,39,39,40,40,41,41,42,42,43,43,44,44,45,45,46,46,47,47,48,48,49,49,50,50,51,51,52,52,53,53,55,55,56,56,57,57,58,58],"right_children":[2,4,6,8,10,12,14,-1,-1,-1,16,-1,18,20,22,-1,24,26,28,30,32,34,36,38,-1,40,42,44,46,-1,48,50,52,54,-1,56,58,-1,-1,60,62,64,66,68,70,72,74,76,78,80,82,84,86,88,-1,90,92,94,96,-1,-1,-1,-1,-1,-1,-1,-1,-1,-1,-1,-1,-1,-1,-1,-1,-1,-1,-1,-1,-1,-1,-1,-1,-1,-1,-1,-1,-1,-1,-1,-1,-1,-1,-1,-1,-1,-1],"split_conditions":[2.7272727E-2,5.5555556E-2,4.2840246E-2,5.199279E-1,1.6666667E-1,2.6017286E-2,5.5555556E-2,2.8498165E-2,-1.1153402E-2,2.568105E-1,5.4792248E-2,2.101762E-2,8.981001E-3,5.3197986E-1,1.7734967E-2,3.1637073E-1,2.777778E-1,1.8563198E-1,2.0075622E-1,5E-1,5.0082594E-1,5E-1,1.903133E-1,5.318799E-1,1.2601434E-1,9.212121E-1,6.7664776E-3,9.212121E-1,4.864062E-1,6.653353E-2,6.3859776E-2,1.1190133E-1,3.3636364E-1,3.888889E-1,-1.7409746E-2,1.6666667E-1,1.6666667E-1,1.4124654E-1,-7.3989374E-3,6.7664776E-3,4.564278E-2,2.2902411E-1,3.5106385E-1,1.6680852E-1,7.125307E-2,4.8487574E-1,8.2186735E-1,2.7664745E-1,1.3390663E-1,4.2424244E-1,1.1307166E-1,4.5208848E-1,2.7518427E-1,6.3859776E-2,1.4436682E-1,3.3636364E-1,9.212121E-1,1.8427517E-2,5.3197986E-1,-1.2079739E-3,-4.246274E-5,-9.5350784E-4,2.2107088E-3,-1.4920412E-3,-2.6898165E-3,-2.5715337E-3,-1.9331266E-3,1.549772E-3,3.3486253E-3,9.859122E-3,3.3477216E-3,8.9952804E-4,1.629745E-2,3.782043E-4,-8.062513E-4,2.5545072E-2,1.9393872E-2,2.277193E-2,1.2235119E-2,1.0693182E-3,-6.2876814E-3,2.3119638E-2,-5.8040977E-3,-8.500161E-3,-6.207635E-3,-6.574933E-3,-5.741731E-3,1.2346853E-1,6.854027E-2,2.993606E-2,2.0164592E-2,3.1186594E-2,4.20108E-2,6.950686E-2,1.7551476E-2,1.772831E-2,2.3671841E-2],"split_indices":[2,4,9,9,4,5,4,0,0,0,9,0,9,9,5,0,4,5,5,0,8,4,5,9,0,2,9,2,5,0,9,5,2,4,0,4,4,0,0,9,5,5,10,10,11,5,11,5,11,2,5,11,11,9,0,2,2,11,9,0,0,0,0,0,0,0,0,0,0,0,0,0,0,0,0,0,0,0,0,0,0,0,0,0,0,0,0,0,0,0,0,0,0,0,0,0,0],"split_type":[0,0,0,0,0,0,0,0,0,0,0,0,0,0,0,0,0,0,0,0,0,0,0,0,0,0,0,0,0,0,0,0,0,0,0,0,0,0,0,0,0,0,0,0,0,0,0,0,0,0,0,0,0,0,0,0,0,0,0,0,0,0,0,0,0,0,0,0,0,0,0,0,0,0,0,0,0,0,0,0,0,0,0,0,0,0,0,0,0,0,0,0,0,0,0,0,0],"sum_hessian":[7.86E3,2.9E1,7.831E3,3E0,2.6E1,7.58E2,7.073E3,1E0,2E0,7E0,1.9E1,6E0,7.52E2,6.09E2,6.464E3,1E0,1.8E1,2.84E2,4.68E2,1.93E2,4.16E2,5.7E1,6.407E3,5E0,1.3E1,4.3E1,2.41E2,7.9E1,3.89E2,1E0,1.92E2,5.2E1,3.64E2,5.4E1,3E0,9.66E2,5.441E3,1E0,4E0,3.6E1,7E0,1.32E2,1.09E2,6.2E1,1.7E1,1.43E2,2.46E2,8.3E1,1.09E2,4.5E1,7E0,2.8E1,3.36E2,5.1E1,3E0,2.65E2,7.01E2,1.259E3,4.182E3,2E1,1.6E1,1E0,6E0,8E0,1.24E2,3.7E1,7.2E1,2E1,4.2E1,9E0,8E0,1.42E2,1E0,1.98E2,4.8E1,2.4E1,5.9E1,6E0,1.03E2,5E0,4E1,2E0,5E0,1.4E1,1.4E1,6.9E1,2.67E2,2E0,4.9E1,3.4E1,2.31E2,5.34E2,1.67E2,2E0,1.257E3,7.83E2,3.399E3],"tree_param":{"num_deleted":"0","num_feature":"12","num_nodes":"97","size_leaf_vector":"0"}},{"base_weights":[9.5181984E-1,1.9795224E-1,1.6426218E0,4.3318188E-1,2.8059332E-2,7.542179E0,1.5753443E0,3.5839498E-2,9.3355745E-1,-1.9562897E-1,2.1178524E-1,1.7431149E1,6.72309E0,1.036484E0,1.7157326E0,1.1210388E0,2.2954412E-2,5.362028E0,9.119211E-1,-7.1962655E-1,-1.8176651E-1,9.1296685E-1,1.9785199E-1,1.4582305E0,9.492689E0,1.3146583E0,9.8508203E-1,2.8106215E0,1.6709719E0,5.766071E-1,1.5927039E0,-9.628356E-2,8.396174E-2,6.96527E-1,1.0960517E0,-4.8060164E-1,-8.641286E-1,-2.8450963E-1,-1.0893076E-1,1.2840709E-1,2.318301E0,1.1798208E-1,2.6535356E-1,7.902546E0,8.237816E-1,3.345356E1,5.0948963E0,1.0896298E0,1.8074238E0,1.2469008E0,9.64241E-1,1.8947207E0,3.4637563E0,1.7640369E0,1.4694176E0,7.057315E-1,2.08934E-3,6.723517E-2,-1.0096396E-1,5.8040418E-2,3.2309827E-1,1.2215607E0,6.547762E-1,1.7235852E0,1.0590732E0,-2.3422296E-1,-2.912794E-1,-3.2105866E-1,-8.670631E-2,6.591654E-1,-9.052784E-1,3.596975E0,3.6258645E-2,2.2012016E-1,-1.7093547E-2,1.3795705E-1,4.1447532E-1,1.7085183E0,2.872514E-1,5.6091434E1,2.1046963E1,1.5421054E-1,8.537271E0,1.6169066E0,1.038697E0,3.5709658E0,1.464134E0,1.9583605E-1,1.266202E0,9.3281263E-1,1.0960519E0,4.025005E0,1.3091412E0,5.623349E0,2.4393857E0,1.558372E0,2.4023032E0,1.9874618E0,1.4105911E0,1.0541961E0,4.9145848E-1,-0E0,1.6661087E-1,-4.6141297E-2,-1.0473531E-1,1.669076E-1,2.6016671E-2,6.830311E-1,1.3343577E-1,1.6099086E0,1.1371597E0,1.6995558E-1,7.425294E-1,1.24464E0,1.9428307E0,9.2800254E-1,1.161196E0,-3.0431908E-1,8.497937E-3,8.59623E-2,-4.5331115E-1,-1.152615E-1,6.9091946E-2,-2.8976032E-1,1.2759825E0,6.440792E0,1.242157E0,-1.0246011E0,6.4342237E-1,-2.210669E-1,2.4456818E-1,3.7494577E-2,-2.6401633E-1,-4.7996035E-1,1.6265287E-1,4.1969827E-1,-8.274094E-1,2.3000132E-2,7.563041E-1,1.2138211E1,3.1362509E1,9.49558E-1,-6.481044E-1,2.1109924E0,1.0174952E1,9.177724E-1,1.1538222E0,9.144361E0,2.917385E-1,2.9788857E0,1.2869468E0,1.2271807E0,1.6893355E0,9.4973993E-1,4.0687898E-1,1.0525229E0,1.1888721E0,1.8106812E0,4.7479806E0,-5.1674384E-1,1.3578297E0,3.4150867E0,6.321217E0,1.0110682E0,2.7010016E0,-4.0363002E-1,1.5707637E0,3.687627E0,2.303381E0,3.3071141E0,1.827235E0,1.488925E0,1.3313386E0],"categories":[],"categories_nodes":[],"categories_segments":[],"categories_sizes":[],"default_left":[true,true,true,true,true,true,true,true,true,true,true,false,true,true,true,true,true,false,true,true,true,true,true,true,true,true,true,true,true,true,false,true,true,true,true,false,false,true,true,true,true,true,true,false,true,true,true,true,true,true,true,true,true,true,true,true,false,true,true,true,true,true,true,true,true,true,false,true,true,true,false,true,true,true,true,true,true,false,true,false,true,true,true,false,true,true,true,false,true,true,true,true,true,true,true,true,true,true,true,false,false,false,false,false,false,false,false,false,false,false,false,false,false,false,false,false,false,false,false,false,false,false,false,false,false,false,false,false,false,false,false,false,false,false,false,false,false,false,false,false,false,false,false,false,false,false,false,false,false,false,false,false,false,false,false,false,false,false,false,false,false,false,false,false,false,false,false,false,false,false,false,false,false],"id":39,"left_children":[1,3,5,7,9,11,13,15,17,19,21,-1,23,25,27,29,31,-1,33,35,37,39,41,43,45,47,49,51,53,55,-1,57,59,61,63,-1,-1,65,67,69,71,73,75,-1,77,79,81,83,85,87,89,91,93,95,97,99,-1,101,103,105,107,109,111,113,115,117,-1,119,121,123,-1,125,127,129,131,133,135,-1,137,-1,139,141,143,-1,145,147,149,-1,151,153,155,157,159,161,163,165,167,169,171,-1,-1,-1,-1,-1,-1,-1,-1,-1,-1,-1,-1,-1,-1,-1,-1,-1,-1,-1,-1,-1,-1,-1,-1,-1,-1,-1,-1,-1,-1,-1,-1,-1,-1,-1,-1,-1,-1,-1,-1,-1,-1,-1,-1,-1,-1,-1,-1,-1,-1,-1,-1,-1,-1,-1,-1,-1,-1,-1,-1,-1,-1,-1,-1,-1,-1,-1,-1,-1,-1,-1,-1,-1,-1],"loss_changes":[4.1089395E3,1.5078627E2,1.6301074E3,3.1457523E2,9.007202E1,3.3587427E2,3.073623E2,1.231267E1,6.538306E1,7.122673E0,1.1680183E1,0E0,6.270968E2,1.1579651E1,1.5663379E2,2.3163347E0,6.348214E0,0E0,2.7376587E1,7.1733475E-1,7.193037E0,2.5592583E1,6.3476753E0,6.03969E1,2.9282502E3,1.3754135E1,3.4544067E0,7.330859E1,5.730078E1,3.8507164E-1,0E0,2.2877312E-1,3.567047E0,6.772232E0,8.061279E0,0E0,0E0,1.0569763E-1,2.645409E0,8.607994E0,2.422165E1,7.4725842E0,1.2118851E1,0E0,6.6117983E0,8.22313E2,4.1329303E2,1.8280258E0,2.2602783E1,9.378433E-1,2.369812E0,6.469765E1,1.5754059E2,2.7716064E2,2.895288E1,1.2874866E-1,0E0,5.4862414E-2,5.5644035E-2,1.8133429E0,3.8036075E0,1.1512375E-1,1.2679901E1,1.2833023E0,4.367096E0,8.4443164E-1,0E0,2.8891501E0,2.27816E0,6.185684E0,0E0,3.2938988E1,2.3615453E0,3.3440952E0,3.1516461E0,5.2912855E0,2.0191193E0,0E0,1.1399462E0,0E0,1.7877332E2,6.803509E0,1.4351025E2,0E0,7.7744293E-1,1.1472901E2,7.875656E0,0E0,9.81369E-2,4.6265564E0,5.7159424E-2,1.518335E1,4.0094147E0,2.8620972E1,1.7844513E1,3.9257812E1,6.2732178E1,1.891507E1,4.782715E0,0E0,0E0,0E0,0E0,0E0,0E0,0E0,0E0,0E0,0E0,0E0,0E0,0E0,0E0,0E0,0E0,0E0,0E0,0E0,0E0,0E0,0E0,0E0,0E0,0E0,0E0,0E0,0E0,0E0,0E0,0E0,0E0,0E0,0E0,0E0,0E0,0E0,0E0,0E0,0E0,0E0,0E0,0E0,0E0,0E0,0E0,0E0,0E0,0E0,0E0,0E0,0E0,0E0,0E0,0E0,0E0,0E0,0E0,0E0,0E0,0E0,0E0,0E0,0E0,0E0,0E0,0E0,0E0,0E0,0E0,0E0,0E0,0E0,0E0],"parents":[2147483647,0,0,1,1,2,2,3,3,4,4,5,5,6,6,7,7,8,8,9,9,10,10,12,12,13,13,14,14,15,15,16,16,18,18,19,19,20,20,21,21,22,22,23,23,24,24,25,25,26,26,27,27,28,28,29,29,31,31,32,32,33,33,34,34,37,37,38,38,39,39,40,40,41,41,42,42,44,44,45,45,46,46,47,47,48,48,49,49,50,50,51,51,52,52,53,53,54,54,55,55,57,57,58,58,59,59,60,60,61,61,62,62,63,63,64,64,65,65,67,67,68,68,69,69,71,71,72,72,73,73,74,74,75,75,76,76,78,78,80,80,81,81,82,82,84,84,85,85,86,86,88,88,89,89,90,90,91,91,92,92,93,93,94,94,95,95,96,96,97,97,98,98],"right_children":[2,4,6,8,10,12,14,16,18,20,22,-1,24,26,28,30,32,-1,34,36,38,40,42,44,46,48,50,52,54,56,-1,58,60,62,64,-1,-1,66,68,70,72,74,76,-1,78,80,82,84,86,88,90,92,94,96,98,100,-1,102,104,106,108,110,112,114,116,118,-1,120,122,124,-1,126,128,130,132,134,136,-1,138,-1,140,142,144,-1,146,148,150,-1,152,154,156,158,160,162,164,166,168,170,172,-1,-1,-1,-1,-1,-1,-1,-1,-1,-1,-1,-1,-1,-1,-1,-1,-1,-1,-1,-1,-1,-1,-1,-1,-1,-1,-1,-1,-1,-1,-1,-1,-1,-1,-1,-1,-1,-1,-1,-1,-1,-1,-1,-1,-1,-1,-1,-1,-1,-1,-1,-1,-1,-1,-1,-1,-1,-1,-1,-1,-1,-1,-1,-1,-1,-1,-1,-1,-1,-1,-1,-1,-1,-1],"split_conditions":[6.621175E-1,6.572582E-1,5E-1,3.8399246E-1,1.6666667E-1,7.876776E-1,9.8790765E-1,5E-1,5E-1,5E-1,4.1296717E-4,3.4862295E-1,8.2218254E-1,1.4619164E-1,1.8427517E-2,7.6129995E-2,7.6129995E-2,1.0724056E-1,6.028142E-1,5.5555556E-2,5.5555556E-2,2.777778E-1,2.777778E-1,9.8790765E-1,8.349742E-1,9.345995E-1,5.0082594E-1,8.2218254E-1,8.349742E-1,1.8202345E-1,3.185408E-2,1.8427517E-2,3.532499E-1,3.8608843E-1,5.0082594E-1,-9.612032E-3,-1.7282572E-2,5.0082594E-1,5.0082594E-1,6.081081E-1,3.888889E-1,6.4496315E-1,6.4496315E-1,1.5805091E-1,1.6666667E-1,1.6666667E-1,8.571358E-1,6.808764E-1,9.4889903E-1,2.2481573E-1,9.5665354E-1,7.7843237E-1,8.349742E-1,8.2218254E-1,5.0082594E-1,1.24566406E-1,4.17868E-5,6.142506E-3,5.0082594E-1,5.888164E-2,3.698545E-1,5.0082594E-1,3.989272E-1,6.341465E-1,6.341465E-1,6.965602E-1,-5.825588E-3,4.1296717E-4,8.2186735E-1,3.108108E-1,-1.8105567E-2,6.068796E-1,4.2874694E-1,1.8427517E-2,9.533169E-1,5E-1,8.333334E-1,3.4170363E-2,3.888889E-1,1.1218287E0,2.777778E-1,2.777778E-1,1.6666667E-1,3.233813E-2,7.7832115E-1,2.777778E-1,1.2285012E-2,3.916721E-3,9.8606896E-1,9.345995E-1,9.859468E-1,7.072881E-1,5.5555556E-2,2.777778E-1,8.5870504E-1,5.5555556E-2,5.0082594E-1,1.4127764E-1,2.777778E-1,2.1083921E-2,9.829169E-3,-0E0,3.3322172E-3,-9.228259E-4,-2.094706E-3,3.3381518E-3,5.203334E-4,1.3660621E-2,2.6687153E-3,3.2198172E-2,2.2743193E-2,3.3991116E-3,1.4850588E-2,2.48928E-2,3.8856614E-2,1.856005E-2,2.322392E-2,-6.0863816E-3,1.6995873E-4,1.719246E-3,-9.066223E-3,-2.30523E-3,1.3818389E-3,-5.7952064E-3,2.5519649E-2,1.2881584E-1,2.484314E-2,-2.0492021E-2,1.2868447E-2,-4.421338E-3,4.8913634E-3,7.498915E-4,-5.2803266E-3,-9.599207E-3,3.2530571E-3,8.393965E-3,-1.6548187E-2,4.6000263E-4,1.5126081E-2,2.4276422E-1,6.2725013E-1,1.899116E-2,-1.2962088E-2,4.2219847E-2,2.0349902E-1,1.8355448E-2,2.3076443E-2,1.8288721E-1,5.83477E-3,5.957771E-2,2.5738934E-2,2.4543613E-2,3.378671E-2,1.8994799E-2,8.137579E-3,2.1050457E-2,2.3777442E-2,3.6213625E-2,9.495961E-2,-1.0334876E-2,2.7156593E-2,6.830173E-2,1.2642434E-1,2.0221364E-2,5.4020032E-2,-8.0726E-3,3.1415273E-2,7.375254E-2,4.6067618E-2,6.614228E-2,3.65447E-2,2.97785E-2,2.6626773E-2],"split_indices":[1,1,0,1,4,1,6,0,0,0,8,0,1,11,11,6,6,0,1,4,4,4,4,6,1,1,8,1,1,1,0,11,1,1,8,0,0,8,8,11,4,11,11,0,4,4,1,1,1,11,1,1,1,1,8,1,0,11,8,1,1,8,1,1,1,11,0,8,11,11,0,11,11,11,11,0,4,0,4,0,4,4,4,0,1,4,11,0,1,1,1,1,4,4,1,4,8,11,4,0,0,0,0,0,0,0,0,0,0,0,0,0,0,0,0,0,0,0,0,0,0,0,0,0,0,0,0,0,0,0,0,0,0,0,0,0,0,0,0,0,0,0,0,0,0,0,0,0,0,0,0,0,0,0,0,0,0,0,0,0,0,0,0,0,0,0,0,0,0,0,0,0,0],"split_type":[0,0,0,0,0,0,0,0,0,0,0,0,0,0,0,0,0,0,0,0,0,0,0,0,0,0,0,0,0,0,0,0,0,0,0,0,0,0,0,0,0,0,0,0,0,0,0,0,0,0,0,0,0,0,0,0,0,0,0,0,0,0,0,0,0,0,0,0,0,0,0,0,0,0,0,0,0,0,0,0,0,0,0,0,0,0,0,0,0,0,0,0,0,0,0,0,0,0,0,0,0,0,0,0,0,0,0,0,0,0,0,0,0,0,0,0,0,0,0,0,0,0,0,0,0,0,0,0,0,0,0,0,0,0,0,0,0,0,0,0,0,0,0,0,0,0,0,0,0,0,0,0,0,0,0,0,0,0,0,0,0,0,0,0,0,0,0,0,0,0,0,0,0],"sum_hessian":[7.89E3,3.773E3,4.117E3,1.582E3,2.191E3,4.6E1,4.071E3,8.82E2,7E2,9.88E2,1.203E3,3E0,4.3E1,8.42E2,3.229E3,1E1,8.72E2,3E0,6.97E2,2.5E1,9.63E2,2.3E1,1.18E3,1.5E1,2.8E1,1.3E2,7.12E2,1.26E2,3.103E3,5E0,5E0,2.95E2,5.77E2,3.22E2,3.75E2,1E1,1.5E1,3.99E2,5.64E2,1.5E1,8E0,5.41E2,6.39E2,1E0,1.4E1,4E0,2.4E1,9E1,4E1,5.1E1,6.61E2,5.3E1,7.3E1,2.121E3,9.82E2,4E0,1E0,8E0,2.87E2,5.21E2,5.6E1,2.3E1,2.99E2,2E1,3.55E2,4.9E1,3.5E2,5.3E1,5.11E2,1E1,5E0,5E0,3E0,3.08E2,2.33E2,3.45E2,2.94E2,5E0,9E0,1E0,3E0,1E1,1.4E1,7E0,8.3E1,6E0,3.4E1,1E0,5E1,5.36E2,1.25E2,1.1E1,4.2E1,2.3E1,5E1,1.605E3,5.16E2,9.9E1,8.83E2,1E0,3E0,5E0,3E0,1.9E1,2.68E2,1.18E2,4.03E2,1.9E1,3.7E1,3E0,2E1,4.6E1,2.53E2,7E0,1.3E1,1.57E2,1.98E2,3.8E1,1.1E1,1.3E1,4E1,4.32E2,7.9E1,4E0,6E0,2E0,3E0,1E0,2E0,1.6E1,2.92E2,1.91E2,4.2E1,1.3E1,3.32E2,2.93E2,1E0,6E0,3E0,2E0,1E0,5E0,5E0,3E0,1.1E1,4.2E1,4.1E1,2E0,4E0,3E0,3.1E1,4.7E1,3E0,5.19E2,1.7E1,8.8E1,3.7E1,3E0,8E0,1E0,4.1E1,6E0,1.7E1,8E0,4.2E1,1E1,1.595E3,3.6E1,4.8E2,1E1,8.9E1,4.41E2,4.42E2],"tree_param":{"num_deleted":"0","num_feature":"12","num_nodes":"173","size_leaf_vector":"0"}},{"base_weights":[9.4196266E-1,1.099729E-2,1.0421408E0,9.352916E-1,-1.1632898E-2,2.809941E0,9.987524E-1,1.8799912E0,7.80359E-1,-1.0346218E-1,4.7502264E-2,2.58545E0,6.5884533E0,6.169396E-1,1.0307624E0,9.2885095E-1,5.539401E-1,6.665943E-2,-1.077486E-1,1.0107085E-1,1.9424323E-2,4.002414E0,2.303258E0,1.266823E1,4.3523617E0,9.118291E-1,6.0612667E-1,1.3558913E0,9.991342E-1,4.6883392E-1,1.0310436E0,1.1725396E-1,-1.5022178E-3,3.0827288E-2,-1.093025E-1,7.640395E-2,1.9089907E-1,-1.0427296E-2,3.2140013E-2,6.6342196E0,3.8106368E0,2.444481E0,1.9242665E0,1.5319843E1,6.8378778E0,5.043725E0,2.1440558E0,7.4226147E-1,1.5963191E0,6.451101E-1,5.64769E-1,1.1873871E0,1.6532328E0,1.2254294E0,9.8229337E-1,4.8842113E-2,1.6279647E-1,-5.4487344E-2,8.089636E-2,-6.232826E-2,1.9682997E-1,-9.0851046E-2,-1.1672468E-1,1.07972704E-1,2.6378024E-2,4.1536838E-1,1.3603617E-1,1.1095019E-2,-3.17128E-2,9.127537E-3,5.5801533E-2,2.3275433E0,2.715036E0,9.2485905E-1,2.219901E0,2.4046469E0,5.4643884E0,3.452467E0,2.887671E-1,9.9719876E-1,6.780114E-1,5.985937E-1,7.2994876E-1,6.775656E-1,5.5037904E-1,1.7233495E0,1.1211236E0,1.7327302E0,5.5813384E-1,1.3341479E0,1.0470488E0,1.0424367E0,9.506913E-1,-4.9204533E-3,-7.973122E-2,-0E0,-1.1915184E-1,-1.02727234E-1,-3.501884E-2,-1.2855618E-1,-9.452757E-2,2.2733335E-1,9.44274E-2,5.9180148E-2,-5.181259E-2,1.6057661E-1,-3.277907E-3,-2.3295967E-2,4.5959026E-2,-4.6884783E-2,-7.7379476E-3,4.06315E-2,-1.7323479E-2,1.53074255E-2,9.6444115E-2,3.1451423E0,2.2753272E0,4.4120252E-1,7.31143E-1,7.058827E-1,5.6964356E-1,6.9051224E-1,9.120394E-1,5.992023E-1,9.0359455E-1,4.5666665E-1,5.7439923E-1,1.2166291E0,2.2808626E0,1.6491885E0,1.0205302E0,2.0966787E0,1.6084113E0,1.1026605E0,-1.8547976E-1,1.2817951E0,1.7607143E0,5.134388E-1,1.134358E0,6.0708266E-1,1.0564978E0,9.141864E-1,1.0007286E0],"categories":[],"categories_nodes":[],"categories_segments":[],"categories_sizes":[],"default_left":[true,true,true,true,true,true,true,false,true,true,true,true,true,true,true,true,false,true,true,true,true,true,true,true,true,true,true,true,true,false,false,true,true,true,true,true,true,true,true,false,false,true,true,false,false,true,true,true,false,true,true,true,true,true,true,false,false,true,false,true,false,true,true,true,true,false,true,true,true,true,true,true,false,false,false,false,false,false,false,false,true,true,true,true,true,true,true,true,true,true,true,true,true,false,false,false,false,false,false,false,false,false,false,false,false,false,false,false,false,false,false,false,false,false,false,false,false,false,false,false,false,false,false,false,false,false,false,false,false,false,false,false,false,false,false,false,false,false,false,false,false,false,false],"id":40,"left_children":[1,3,5,7,9,11,13,-1,15,17,19,21,23,25,27,29,-1,31,33,35,37,39,41,43,45,47,49,51,53,-1,-1,55,57,59,61,63,65,67,69,-1,-1,71,73,-1,-1,75,77,79,-1,81,83,85,87,89,91,-1,-1,93,-1,95,-1,97,99,101,103,-1,105,107,109,111,113,115,-1,-1,-1,-1,-1,-1,-1,-1,117,119,121,123,125,127,129,131,133,135,137,139,141,-1,-1,-1,-1,-1,-1,-1,-1,-1,-1,-1,-1,-1,-1,-1,-1,-1,-1,-1,-1,-1,-1,-1,-1,-1,-1,-1,-1,-1,-1,-1,-1,-1,-1,-1,-1,-1,-1,-1,-1,-1,-1,-1,-1,-1,-1,-1,-1,-1,-1],"loss_changes":[7.3529297E2,1.6046165E1,5.4500146E2,2.1562004E0,4.066142E0,1.3867285E2,8.468555E1,0E0,3.5642242E-1,2.1688342E-1,6.8249166E-1,6.134607E1,1.0825864E2,1.5105896E0,6.543408E1,2.561798E-1,0E0,2.7000085E-2,6.390023E-2,3.3772457E-1,1.1404365E-1,4.711731E0,5.6124268E0,8.2614136E-1,7.487625E0,1.6994333E0,7.001648E-1,2.7730103E1,2.1835938E1,0E0,0E0,7.831201E-3,1.5646784E-2,5.7558637E-2,3.230524E-2,1.9190896E-1,3.8379478E-1,4.1336283E-2,1.1343272E-1,0E0,0E0,9.002075E-1,1.0596481E1,0E0,0E0,1.4269867E0,5.278633E0,1.7986298E-3,0E0,8.824539E-1,2.7256775E-1,1.2218872E1,1.7433594E1,7.3221436E0,9.981445E0,0E0,0E0,1.581477E-3,0E0,9.866412E-3,0E0,5.2091777E-2,4.537797E-2,1.1004931E-1,1.2509418E-1,0E0,9.586769E-2,5.383647E-2,1.5589748E-2,9.000945E-2,1.6797835E-1,5.389404E-1,0E0,0E0,0E0,0E0,0E0,0E0,0E0,0E0,4.3468E-2,3.8609314E-1,4.3017578E-1,2.8215122E-1,4.1179657E-1,1.0136574E1,1.6629211E1,7.434326E0,5.885158E0,4.7720947E0,6.972534E0,1.121167E1,6.189209E0,0E0,0E0,0E0,0E0,0E0,0E0,0E0,0E0,0E0,0E0,0E0,0E0,0E0,0E0,0E0,0E0,0E0,0E0,0E0,0E0,0E0,0E0,0E0,0E0,0E0,0E0,0E0,0E0,0E0,0E0,0E0,0E0,0E0,0E0,0E0,0E0,0E0,0E0,0E0,0E0,0E0,0E0,0E0,0E0,0E0,0E0,0E0,0E0,0E0,0E0],"parents":[2147483647,0,0,1,1,2,2,3,3,4,4,5,5,6,6,8,8,9,9,10,10,11,11,12,12,13,13,14,14,15,15,17,17,18,18,19,19,20,20,21,21,22,22,23,23,24,24,25,25,26,26,27,27,28,28,31,31,32,32,33,33,34,34,35,35,36,36,37,37,38,38,41,41,42,42,45,45,46,46,47,47,49,49,50,50,51,51,52,52,53,53,54,54,57,57,59,59,61,61,62,62,63,63,64,64,66,66,67,67,68,68,69,69,70,70,71,71,80,80,81,81,82,82,83,83,84,84,85,85,86,86,87,87,88,88,89,89,90,90,91,91,92,92],"right_children":[2,4,6,8,10,12,14,-1,16,18,20,22,24,26,28,30,-1,32,34,36,38,40,42,44,46,48,50,52,54,-1,-1,56,58,60,62,64,66,68,70,-1,-1,72,74,-1,-1,76,78,80,-1,82,84,86,88,90,92,-1,-1,94,-1,96,-1,98,100,102,104,-1,106,108,110,112,114,116,-1,-1,-1,-1,-1,-1,-1,-1,118,120,122,124,126,128,130,132,134,136,138,140,142,-1,-1,-1,-1,-1,-1,-1,-1,-1,-1,-1,-1,-1,-1,-1,-1,-1,-1,-1,-1,-1,-1,-1,-1,-1,-1,-1,-1,-1,-1,-1,-1,-1,-1,-1,-1,-1,-1,-1,-1,-1,-1,-1,-1,-1,-1,-1,-1,-1,-1],"split_conditions":[3.9510223E-1,7.4137926E-2,7.4137926E-2,2.7272727E-2,7.6129995E-2,1.3137093E-1,7.920965E-1,3.7599824E-2,5E-1,1.8427517E-2,3.2068965E-1,2.7272727E-2,2.7272727E-2,7.985258E-2,1.7758621E-1,3.6677136E-3,1.1078802E-2,3.6468086E-1,9.6551724E-2,9.212121E-1,1.3484347E-1,8.231776E-1,6.8723404E-1,9.5682657E-1,6.724138E-2,9.090909E-1,7.008511E-1,9.212121E-1,4.2424244E-1,9.376679E-3,2.0620873E-2,1.3211198E-2,6.818182E-1,3.6677136E-3,6.242424E-1,9.9787235E-1,7.125307E-2,6.666666E-1,6.666666E-1,1.326844E-1,7.6212734E-2,5E-1,6.545454E-1,3.0639687E-1,1.3675755E-1,9.5682657E-1,9.5682657E-1,3.3636364E-1,3.1926382E-2,3.5106385E-1,2.5344828E-1,1.48936175E-2,8.2186735E-1,7.008511E-1,3.3965516E-1,9.768422E-4,3.2559293E-3,1.3211198E-2,1.6179272E-3,6.545454E-1,3.9365995E-3,6.0172415E-1,8.30303E-1,1.2931034E-1,2.8103447E-1,8.307368E-3,5.4914004E-1,3.1148937E-1,6.068965E-1,6.4742017E-1,6.4496315E-1,8.231776E-1,5.4300718E-2,1.849718E-2,4.439802E-2,4.8092935E-2,1.0928777E-1,6.9049336E-2,5.7753418E-3,1.9943975E-2,2.6297873E-1,5.181818E-1,9.212121E-1,6.805897E-1,3.1034482E-1,1.3793103E-1,1.15517244E-1,6.142506E-3,9.3103446E-2,4.1896552E-1,2.3103449E-1,1.9137931E-1,5.862069E-1,-9.8409066E-5,-1.5946244E-3,-0E0,-2.3830368E-3,-2.0545446E-3,-7.0037675E-4,-2.5711234E-3,-1.8905514E-3,4.546667E-3,1.8885479E-3,1.183603E-3,-1.0362518E-3,3.2115323E-3,-6.555814E-5,-4.6591932E-4,9.191805E-4,-9.376956E-4,-1.5475895E-4,8.1262994E-4,-3.4646958E-4,3.061485E-4,1.9288822E-3,6.2902845E-2,4.5506544E-2,8.82405E-3,1.462286E-2,1.4117654E-2,1.1392871E-2,1.3810244E-2,1.8240787E-2,1.1984046E-2,1.807189E-2,9.133332E-3,1.1487984E-2,2.4332583E-2,4.561725E-2,3.298377E-2,2.0410605E-2,4.1933574E-2,3.2168224E-2,2.205321E-2,-3.7095952E-3,2.5635902E-2,3.5214286E-2,1.0268776E-2,2.2687161E-2,1.2141653E-2,2.1129956E-2,1.8283729E-2,2.0014571E-2],"split_indices":[6,3,3,2,6,7,6,0,0,11,3,2,2,11,3,6,0,10,3,2,6,6,10,6,3,2,10,2,2,0,0,6,2,6,2,10,11,2,2,0,0,0,2,0,0,6,6,2,0,10,3,10,11,10,3,0,0,6,0,2,0,3,2,3,3,0,11,10,3,11,11,6,0,0,0,0,0,0,0,0,10,2,2,11,3,3,3,11,3,3,3,3,3,0,0,0,0,0,0,0,0,0,0,0,0,0,0,0,0,0,0,0,0,0,0,0,0,0,0,0,0,0,0,0,0,0,0,0,0,0,0,0,0,0,0,0,0,0,0,0,0,0,0],"split_type":[0,0,0,0,0,0,0,0,0,0,0,0,0,0,0,0,0,0,0,0,0,0,0,0,0,0,0,0,0,0,0,0,0,0,0,0,0,0,0,0,0,0,0,0,0,0,0,0,0,0,0,0,0,0,0,0,0,0,0,0,0,0,0,0,0,0,0,0,0,0,0,0,0,0,0,0,0,0,0,0,0,0,0,0,0,0,0,0,0,0,0,0,0,0,0,0,0,0,0,0,0,0,0,0,0,0,0,0,0,0,0,0,0,0,0,0,0,0,0,0,0,0,0,0,0,0,0,0,0,0,0,0,0,0,0,0,0,0,0,0,0,0,0],"sum_hessian":[7.884E3,7.66E2,7.118E3,1.8E1,7.48E2,1.7E2,6.948E3,2E0,1.6E1,2.93E2,4.55E2,1.61E2,9E0,5.38E2,6.41E3,9E0,7E0,7E0,2.86E2,1.56E2,2.99E2,2.6E1,1.35E2,2E0,7E0,1.8E1,5.2E2,5.67E2,5.843E3,2E0,7E0,4E0,3E0,3E0,2.83E2,1.23E2,3.3E1,8.9E1,2.1E2,1E0,2.5E1,9.7E1,3.8E1,1E0,1E0,5E0,2E0,1.5E1,3E0,2.65E2,2.55E2,3.63E2,2.04E2,4.03E2,5.44E3,2E0,2E0,2E0,1E0,2E0,1E0,8.3E1,2E2,7.5E1,4.8E1,6E0,2.7E1,4.4E1,4.5E1,1.07E2,1.03E2,7E1,2.7E1,9E0,2.9E1,1E0,4E0,1E0,1E0,2E0,1.3E1,1.73E2,9.2E1,2.7E1,2.28E2,3.9E1,3.24E2,1.9E2,1.4E1,2.49E2,1.54E2,1.87E3,3.57E3,1E0,1E0,1E0,1E0,6.8E1,1.5E1,1.29E2,7.1E1,7E0,6.8E1,3.4E1,1.4E1,2.3E1,4E0,2.2E1,2.2E1,2.7E1,1.8E1,4.9E1,5.8E1,5.2E1,5.1E1,3E0,6.7E1,3E0,1E1,3.5E1,1.38E2,7.7E1,1.5E1,2.1E1,6E0,4.8E1,1.8E2,2.1E1,1.8E1,5.1E1,2.73E2,4.7E1,1.43E2,8E0,6E0,2.23E2,2.6E1,2.2E1,1.32E2,5.9E1,1.811E3,2.068E3,1.502E3],"tree_param":{"num_deleted":"0","num_feature":"12","num_nodes":"143","size_leaf_vector":"0"}},{"base_weights":[9.263834E-1,1.6958447E-1,1.6214231E0,4.1127917E-1,4.3157808E-4,1.658734E1,1.5799112E0,3.12509E-2,8.844033E-1,-1.1233689E-1,2.7411252E-1,1.6627213E0,2.4650335E1,6.2918983E0,1.5341318E0,1.2296543E0,1.6692806E-2,5.1879716E0,8.631436E-1,-2.1650171E0,-1.0532331E-1,1.2011184E0,2.2530943E-1,-5.284998E-1,6.7353206E0,4.9167133E1,1.2379958E1,1.4607481E1,5.2122483E0,1.0010303E0,1.6689312E0,1.3878146E0,4.8298016E-1,-9.710007E-2,7.424089E-2,6.116634E-1,1.0004406E0,-5.2417237E-1,-2.5000336E0,-3.049257E-1,-3.126503E-2,2.4219103E0,4.4023472E-1,-4.8530784E-1,2.8024814E-1,-1.0479023E0,5.018833E-1,-1.4097655E0,2.0798758E1,1.8315758E0,7.4015017E0,1.404873E0,9.474718E-1,2.2017257E0,1.574876E0,4.4858775E-1,1.493545E0,-2.297511E-2,-1.0733527E-1,1.743695E-1,4.1190665E-2,7.104066E-1,2.9955214E-1,1.4055599E0,9.5482206E-1,-4.198233E-1,-3.0033842E-1,1.2752517E-1,-1.5545204E-1,1.3580705E0,6.780762E0,-2.7710265E-1,9.1417825E-1,8.815852E-2,-7.800448E-1,1.7964852E-1,5.7260275E-1,-1.01200365E-1,-1.7218503E0,6.4881473E0,8.9988184E-1,1.3837999E1,6.095784E0,2.868113E0,1.3631177E0,9.0891904E-1,1.1900668E0,1.6263639E0,2.7307982E0,1.6773584E0,1.3133615E0,-5.0111447E-2,8.0968045E-2,7.481167E-2,-1.089536E-1,1.4226471E-1,4.3206677E-1,2.0684848E-2,1.4468206E-1,4.6812296E-1,8.7726474E-1,3.9085594E-1,2.7334976E-1,1.0877329E0,1.5552324E0,8.996783E-1,1.2939563E0,-2.4296753E-1,-3.064658E-1,8.173783E-2,4.8218438E-1,-6.056523E-1,-1.3838395E-1,1.8919086E0,4.3516297E-2,2.6418924E0,9.213217E0,1.159097E0,-1.1600901E0,1.2642847E0,-1.5326649E-1,9.0201825E-1,-1.1135949E0,-1.0051848E0,-4.8367012E-1,1.6167E-1,2.4405766E0,1.262406E0,4.59954E-1,1.384889E0,6.09953E-1,5.694667E-1,7.623753E0,1.2643498E0,1.7710259E0,8.3952147E-1,9.575592E-1,9.804302E-1,1.7806793E0,2.251873E0,1.4291592E0,4.1687403E0,2.2139368E0,1.5231375E0,2.078599E0,1.4905393E0,1.2451473E0],"categories":[],"categories_nodes":[],"categories_segments":[],"categories_sizes":[],"default_left":[true,true,true,true,true,true,true,true,true,true,true,true,true,true,true,true,true,false,true,true,true,true,true,true,false,false,true,false,true,true,true,true,false,true,true,true,true,false,false,true,true,true,true,true,true,true,false,false,false,true,true,true,true,true,true,false,false,true,true,true,true,true,true,true,true,false,true,true,true,true,true,true,true,true,true,true,true,false,false,false,true,false,true,false,true,true,true,true,true,true,true,false,false,false,false,false,false,false,false,false,false,false,false,false,false,false,false,false,false,false,false,false,false,false,false,false,false,false,false,false,false,false,false,false,false,false,false,false,false,false,false,false,false,false,false,false,false,false,false,false,false,false,false,false,false,false,false],"id":41,"left_children":[1,3,5,7,9,11,13,15,17,19,21,23,25,27,29,31,33,-1,35,37,39,41,43,45,-1,-1,47,-1,49,51,53,55,-1,57,59,61,63,-1,-1,65,67,69,71,73,75,77,-1,-1,-1,79,81,83,85,87,89,-1,-1,91,93,95,97,99,101,103,105,-1,107,109,111,113,115,117,119,121,123,125,127,-1,-1,-1,129,-1,131,-1,133,135,137,139,141,143,145,-1,-1,-1,-1,-1,-1,-1,-1,-1,-1,-1,-1,-1,-1,-1,-1,-1,-1,-1,-1,-1,-1,-1,-1,-1,-1,-1,-1,-1,-1,-1,-1,-1,-1,-1,-1,-1,-1,-1,-1,-1,-1,-1,-1,-1,-1,-1,-1,-1,-1,-1,-1,-1,-1,-1,-1],"loss_changes":[4.1476094E3,1.5434238E2,2.5445977E3,2.7944772E2,6.8568665E1,1.3497942E3,8.809463E2,1.5020054E1,6.1763733E1,2.2542295E1,2.9220509E1,4.944291E1,2.0022734E3,3.274602E2,2.911875E2,9.7011566E-1,5.5836368E0,0E0,2.3573914E1,2.451727E0,2.3175457E1,2.9637558E1,2.410433E1,1.9671888E0,0E0,0E0,6.292326E2,0E0,2.5685596E2,1.7265747E1,1.6116895E2,5.764313E-1,0E0,2.1455526E-1,1.8686821E0,7.444702E0,7.7489624E0,0E0,0E0,1.7133331E-1,2.2572897E1,5.4004845E1,7.006483E0,7.526121E0,1.6787727E1,1.4047079E0,0E0,0E0,0E0,6.013337E1,1.5087793E2,4.4606323E0,6.3931885E0,1.4619629E2,7.306738E1,0E0,0E0,1.0057578E-1,7.7291965E-2,1.1323333E0,9.0139794E-1,7.3363495E0,9.684563E-2,1.5071106E0,7.085907E0,0E0,1.1122513E-1,8.136156E0,4.8971643E0,7.1965485E0,1.5206581E1,1.10164795E1,4.689721E0,1.5328985E1,1.7739334E0,1.7160969E1,1.1152714E1,0E0,0E0,0E0,1.424159E0,0E0,1.5324402E2,0E0,2.97023E0,1.8238525E0,1.1553482E1,2.7656738E1,1.8436963E2,1.2131152E2,8.737061E0,0E0,0E0,0E0,0E0,0E0,0E0,0E0,0E0,0E0,0E0,0E0,0E0,0E0,0E0,0E0,0E0,0E0,0E0,0E0,0E0,0E0,0E0,0E0,0E0,0E0,0E0,0E0,0E0,0E0,0E0,0E0,0E0,0E0,0E0,0E0,0E0,0E0,0E0,0E0,0E0,0E0,0E0,0E0,0E0,0E0,0E0,0E0,0E0,0E0,0E0,0E0,0E0,0E0,0E0,0E0,0E0],"parents":[2147483647,0,0,1,1,2,2,3,3,4,4,5,5,6,6,7,7,8,8,9,9,10,10,11,11,12,12,13,13,14,14,15,15,16,16,18,18,19,19,20,20,21,21,22,22,23,23,26,26,28,28,29,29,30,30,31,31,33,33,34,34,35,35,36,36,39,39,40,40,41,41,42,42,43,43,44,44,45,45,49,49,50,50,51,51,52,52,53,53,54,54,57,57,58,58,59,59,60,60,61,61,62,62,63,63,64,64,66,66,67,67,68,68,69,69,70,70,71,71,72,72,73,73,74,74,75,75,76,76,80,80,82,82,84,84,85,85,86,86,87,87,88,88,89,89,90,90],"right_children":[2,4,6,8,10,12,14,16,18,20,22,24,26,28,30,32,34,-1,36,38,40,42,44,46,-1,-1,48,-1,50,52,54,56,-1,58,60,62,64,-1,-1,66,68,70,72,74,76,78,-1,-1,-1,80,82,84,86,88,90,-1,-1,92,94,96,98,100,102,104,106,-1,108,110,112,114,116,118,120,122,124,126,128,-1,-1,-1,130,-1,132,-1,134,136,138,140,142,144,146,-1,-1,-1,-1,-1,-1,-1,-1,-1,-1,-1,-1,-1,-1,-1,-1,-1,-1,-1,-1,-1,-1,-1,-1,-1,-1,-1,-1,-1,-1,-1,-1,-1,-1,-1,-1,-1,-1,-1,-1,-1,-1,-1,-1,-1,-1,-1,-1,-1,-1,-1,-1,-1,-1,-1,-1],"split_conditions":[6.621175E-1,6.572582E-1,2.7272727E-2,3.8253418E-1,2.777778E-1,8.2200134E-1,5E-1,5E-1,5E-1,2.7272727E-2,1.2389015E-3,8.0442405E-1,8.3943033E-1,7.703592E-1,9.8790765E-1,1.6666667E-1,7.6129995E-2,1.0375943E-1,4.4565028E-1,5.5555556E-2,5.5555556E-2,5.818182E-1,1.389089E-1,4.4444448E-1,1.3470641E-1,9.8334265E-1,8.7090075E-1,2.921496E-1,8.2218254E-1,1.7725962E-1,1.7347857E-1,3.6677136E-3,9.659603E-3,1.9364423E-1,3.0635577E-1,4.3256068E-1,2.0678791E-1,-1.0483447E-2,-5.000067E-2,3.438963E-2,3.9234042E-1,4.3932304E-2,7.5171046E-2,5.0082594E-1,9.9787235E-1,2.2222222E-1,1.0037666E-2,-2.8195309E-2,4.1597515E-1,9.8790765E-1,8.349742E-1,2.4576882E-2,9.212121E-1,8.2218254E-1,8.4422266E-1,8.971754E-3,2.9870901E-2,9.212121E-1,3.3636364E-1,3.3081108E-1,3.279013E-1,3.989272E-1,5.5555556E-2,7.920965E-1,6.474741E-1,-8.396465E-3,5.0082594E-1,7.207418E-1,6.598847E-2,5.181818E-1,4.3030304E-1,4.375225E-2,1.1514224E-1,7.008511E-1,6.2127657E-2,9.9783945E-1,3.4551674E-1,-2.0240073E-3,-3.4437004E-2,1.2976295E-1,1.6666667E-1,2.7675998E-1,8.571358E-1,5.736226E-2,9.212121E-1,9.5682657E-1,9.345995E-1,7.7943826E-1,8.349742E-1,8.2218254E-1,4.1708678E-1,-1.0022289E-3,1.6193609E-3,1.4962333E-3,-2.179072E-3,2.845294E-3,8.641335E-3,4.1369695E-4,2.8936411E-3,9.362459E-3,1.7545294E-2,7.817118E-3,5.4669953E-3,2.1754658E-2,3.1104647E-2,1.7993566E-2,2.5879124E-2,-4.8593506E-3,-6.129316E-3,1.6347566E-3,9.643687E-3,-1.2113045E-2,-2.767679E-3,3.7838172E-2,8.703259E-4,5.283785E-2,1.8426433E-1,2.318194E-2,-2.32018E-2,2.5285695E-2,-3.0653297E-3,1.8040365E-2,-2.2271898E-2,-2.0103695E-2,-9.673402E-3,3.2334E-3,4.881153E-2,2.524812E-2,9.19908E-3,2.769778E-2,1.2199059E-2,1.1389334E-2,1.5247506E-1,2.5286995E-2,3.542052E-2,1.679043E-2,1.9151185E-2,1.9608604E-2,3.5613585E-2,4.503746E-2,2.8583182E-2,8.3374806E-2,4.4278733E-2,3.0462747E-2,4.157198E-2,2.9810786E-2,2.4902947E-2],"split_indices":[1,1,2,1,4,1,0,0,0,2,8,1,1,1,6,4,6,0,1,4,4,2,5,4,0,0,1,0,1,5,5,6,0,5,5,1,5,0,0,5,10,5,5,8,10,4,0,0,0,6,1,5,2,1,1,0,0,2,2,1,1,1,4,6,1,0,8,5,5,2,2,5,5,10,10,5,5,0,0,0,4,0,1,0,2,6,1,1,1,1,5,0,0,0,0,0,0,0,0,0,0,0,0,0,0,0,0,0,0,0,0,0,0,0,0,0,0,0,0,0,0,0,0,0,0,0,0,0,0,0,0,0,0,0,0,0,0,0,0,0,0,0,0,0,0,0,0],"split_type":[0,0,0,0,0,0,0,0,0,0,0,0,0,0,0,0,0,0,0,0,0,0,0,0,0,0,0,0,0,0,0,0,0,0,0,0,0,0,0,0,0,0,0,0,0,0,0,0,0,0,0,0,0,0,0,0,0,0,0,0,0,0,0,0,0,0,0,0,0,0,0,0,0,0,0,0,0,0,0,0,0,0,0,0,0,0,0,0,0,0,0,0,0,0,0,0,0,0,0,0,0,0,0,0,0,0,0,0,0,0,0,0,0,0,0,0,0,0,0,0,0,0,0,0,0,0,0,0,0,0,0,0,0,0,0,0,0,0,0,0,0,0,0,0,0,0,0],"sum_hessian":[7.885E3,3.775E3,4.11E3,1.554E3,2.221E3,1.1E1,4.099E3,8.62E2,6.92E2,1.573E3,6.48E2,4E0,7E0,3.9E1,4.06E3,1E1,8.52E2,3E0,6.89E2,5E0,1.568E3,3.2E1,6.16E2,3E0,1E0,2E0,5E0,4E0,3.5E1,8.2E2,3.24E3,8E0,2E0,2.86E2,5.66E2,2.44E2,4.45E2,1E0,4E0,4.24E2,1.144E3,1.2E1,2E1,4.4E1,5.72E2,2E0,1E0,2E0,3E0,1.4E1,2.1E1,9.5E1,7.25E2,4.85E2,2.755E3,1E0,7E0,3.5E1,2.51E2,1.4E2,4.26E2,1.85E2,5.9E1,4.4E1,4.01E2,1.5E1,4.09E2,5.02E2,6.42E2,1E1,2E0,8E0,1.2E1,1.5E1,2.9E1,4.26E2,1.46E2,1E0,1E0,2E0,1.2E1,3E0,1.8E1,2E0,9.3E1,6.27E2,9.8E1,2.33E2,2.52E2,1.978E3,7.77E2,2.8E1,7E0,2E0,2.49E2,1.25E2,1.5E1,3.56E2,7E1,7.6E1,1.09E2,1.2E1,4.7E1,1.5E1,2.9E1,3.46E2,5.5E1,4.1E1,3.68E2,4.45E2,5.7E1,2.3E1,6.19E2,7E0,3E0,1E0,1E0,3E0,5E0,9E0,3E0,9E0,6E0,1.6E1,1.3E1,4.23E2,3E0,2E1,1.26E2,4E0,8E0,4E0,1.4E1,7.6E1,1.7E1,2.61E2,3.66E2,7.3E1,2.5E1,5.5E1,1.78E2,6.6E1,1.86E2,1.43E3,5.48E2,2.14E2,5.63E2],"tree_param":{"num_deleted":"0","num_feature":"12","num_nodes":"147","size_leaf_vector":"0"}},{"base_weights":[9.026386E-1,3.3549778E-3,1.0030135E0,8.406183E-1,-1.0843426E-2,6.2379297E-2,1.0898093E0,2.3112409E-1,8.826306E-1,-9.8595254E-2,4.491559E-2,8.658489E-1,-3.0672845E-1,3.672444E0,1.0548269E0,1.2464994E0,7.196106E-1,-1.3602463E-2,-1.1024469E-1,2.2995491E-1,2.368405E-2,7.939878E0,7.765921E-1,-4.92211E-1,-3.0169988E-1,2.654574E0,5.6543775E0,1.9404781E0,1.024222E0,3.0693E-1,8.9667386E-1,-2.9219193E-2,1.04278035E-1,-1.3814034E-2,-1.11632526E-1,1.9996318E-1,1.248842E0,1.5593958E-1,1.0738354E-2,6.174327E-1,1.059336E0,-3.4393582E-1,-2.9496136E-1,6.245905E0,2.3515854E0,6.9449453E0,-5.8458096E-1,1.1738523E0,2.4373379E0,8.117556E-1,1.0899434E0,4.5281282E-1,-1.4412992E-2,1.1229212E0,5.764466E-1,-1.1726094E-2,-8.876073E-2,6.83009E-2,1.5744072E-1,1.4420897E-1,-7.992429E-2,-1.19466E-1,-9.2341565E-2,8.193399E-2,3.6044887E-1,7.248506E-2,1.972475E-1,2.5701055E-2,-2.2757439E-2,9.591638E-1,5.837373E-1,1.4969988E0,9.129192E-1,-3.3148202E-1,-5.626398E-1,-2.3179197E-1,-2.987E-1,7.061305E-1,2.717106E0,9.180042E0,4.8703465E0,-3.242857E-1,-1.2735921E0,9.020413E-1,1.5495721E0,2.7795181E0,1.703805E0,9.844246E-1,7.563786E-1,2.0012863E0,1.069073E0,9.935373E-2,-4.6834446E-2,-1.0423122E-1,-0E0,-5.1397666E-2,1.330552E-1,-8.904684E-2,-1.2348037E-1,-9.8153204E-2,-4.9549907E-2,-1.7432071E-2,9.9093124E-2,4.5203543E-1,7.1930684E-2,1.4104082E-1,8.036495E-3,2.5996014E-1,1.10872336E-1,5.250486E-2,2.0598648E-3,-2.630584E-2,1.01203285E-1,1.078489E0,5.964232E-1,-2.706056E-1,5.9242773E-1,1.1634E0,1.9602143E0,3.1003687E-1,9.2255956E-1,-3.6224124E-1,-2.9953286E-1,-7.495757E-1,-2.2430323E-1,-3.439816E-1,4.9773708E-2,1.3179467E0,-7.0619494E-1,1.8428277E0,3.630207E0,1.5115895E1,8.116426E0,5.3307407E-2,9.9494463E-1,1.8843837E0,1.3498423E0,1.9443755E-1,2.8694727E0,1.087402E0,1.8589267E0,-6.82935E-1,9.944904E-1,-4.1257238E-1,7.617599E-1,1.7684565E0,1.9881783E1,7.441702E-1,1.1135516E0],"categories":[],"categories_nodes":[],"categories_segments":[],"categories_sizes":[],"default_left":[true,true,true,true,true,true,true,false,true,true,true,true,true,true,true,false,true,true,true,true,true,false,true,false,true,true,true,true,true,true,true,true,true,true,true,true,false,true,true,true,true,true,true,false,true,true,true,true,true,true,true,false,false,false,false,true,true,true,false,false,false,true,true,true,true,true,true,true,true,true,true,true,true,true,true,true,false,true,true,true,false,false,false,true,true,true,true,true,true,true,true,false,false,false,false,false,false,false,false,false,false,false,false,false,false,false,false,false,false,false,false,false,false,false,false,false,false,false,false,false,false,false,false,false,false,false,false,false,false,false,false,false,false,false,false,false,false,false,false,false,false,false,false,false,false,false,false,false,false],"id":42,"left_children":[1,3,5,7,9,11,13,-1,15,17,19,21,23,25,27,-1,29,31,33,35,37,-1,39,-1,41,43,45,47,49,51,53,55,57,59,61,63,-1,65,67,69,71,73,75,-1,77,79,81,83,85,87,89,-1,-1,-1,-1,91,93,95,-1,-1,-1,97,99,101,103,105,107,109,111,113,115,117,119,121,123,125,-1,127,129,131,-1,-1,-1,133,135,137,139,141,143,145,147,-1,-1,-1,-1,-1,-1,-1,-1,-1,-1,-1,-1,-1,-1,-1,-1,-1,-1,-1,-1,-1,-1,-1,-1,-1,-1,-1,-1,-1,-1,-1,-1,-1,-1,-1,-1,-1,-1,-1,-1,-1,-1,-1,-1,-1,-1,-1,-1,-1,-1,-1,-1,-1,-1,-1,-1,-1,-1],"loss_changes":[7.17354E2,9.505307E0,5.836553E2,2.5750637E-1,3.8448443E0,1.7932182E2,5.899907E2,0E0,4.0442944E-1,3.0004954E-1,1.8816378E0,1.1799704E2,3.256111E-1,1.7105835E2,1.7434961E2,0E0,5.730567E-1,6.86729E-2,3.3607244E-2,1.4036E0,7.3556733E-1,0E0,8.233223E0,0E0,7.213211E-2,5.845392E1,2.3763177E2,8.101611E1,8.685693E1,1.6469762E-1,2.1876669E-1,3.2938577E-2,1.4824457E-3,4.819809E-2,3.324485E-2,8.9937377E-1,0E0,1.2353295E-1,1.9737084E-1,1.1884117E0,3.8246994E0,7.031584E-2,5.2318573E-2,0E0,3.1990112E1,9.772278E1,7.9602003E-1,8.213577E0,3.1070557E1,1.3843445E1,8.991797E1,0E0,0E0,0E0,0E0,1.0349861E-1,1.1031255E-2,2.9283017E-2,0E0,0E0,0E0,1.6055822E-2,1.5752017E-2,5.0050452E-2,5.189829E-1,5.640711E-2,1.2232566E-1,1.7175622E-1,5.318947E-2,2.0888233E-1,8.84655E-1,1.7189369E0,1.8538284E-1,4.8246384E-3,7.7626884E-2,6.838037E-1,0E0,9.248079E0,3.3082672E1,3.0309387E1,0E0,0E0,0E0,3.9361649E0,1.4684525E0,2.031134E1,3.3317184E0,6.22818E0,7.15094E0,4.3064447E2,6.705908E1,0E0,0E0,0E0,0E0,0E0,0E0,0E0,0E0,0E0,0E0,0E0,0E0,0E0,0E0,0E0,0E0,0E0,0E0,0E0,0E0,0E0,0E0,0E0,0E0,0E0,0E0,0E0,0E0,0E0,0E0,0E0,0E0,0E0,0E0,0E0,0E0,0E0,0E0,0E0,0E0,0E0,0E0,0E0,0E0,0E0,0E0,0E0,0E0,0E0,0E0,0E0,0E0,0E0,0E0,0E0,0E0,0E0,0E0],"parents":[2147483647,0,0,1,1,2,2,3,3,4,4,5,5,6,6,8,8,9,9,10,10,11,11,12,12,13,13,14,14,16,16,17,17,18,18,19,19,20,20,22,22,24,24,25,25,26,26,27,27,28,28,29,29,30,30,31,31,32,32,33,33,34,34,35,35,37,37,38,38,39,39,40,40,41,41,42,42,44,44,45,45,46,46,47,47,48,48,49,49,50,50,55,55,56,56,57,57,61,61,62,62,63,63,64,64,65,65,66,66,67,67,68,68,69,69,70,70,71,71,72,72,73,73,74,74,75,75,77,77,78,78,79,79,83,83,84,84,85,85,86,86,87,87,88,88,89,89,90,90],"right_children":[2,4,6,8,10,12,14,-1,16,18,20,22,24,26,28,-1,30,32,34,36,38,-1,40,-1,42,44,46,48,50,52,54,56,58,60,62,64,-1,66,68,70,72,74,76,-1,78,80,82,84,86,88,90,-1,-1,-1,-1,92,94,96,-1,-1,-1,98,100,102,104,106,108,110,112,114,116,118,120,122,124,126,-1,128,130,132,-1,-1,-1,134,136,138,140,142,144,146,148,-1,-1,-1,-1,-1,-1,-1,-1,-1,-1,-1,-1,-1,-1,-1,-1,-1,-1,-1,-1,-1,-1,-1,-1,-1,-1,-1,-1,-1,-1,-1,-1,-1,-1,-1,-1,-1,-1,-1,-1,-1,-1,-1,-1,-1,-1,-1,-1,-1,-1,-1,-1,-1,-1,-1,-1,-1,-1],"split_conditions":[3.9510223E-1,2.4576882E-2,5.5555556E-2,8.2593434E-4,7.6129995E-2,9.8790765E-1,1.7734967E-2,4.6224818E-3,5.5555556E-2,1.8518186E-1,1.3390663E-1,1.8181819E-1,1.8181819E-1,2.777778E-1,1.8427517E-2,2.4929987E-2,1.6878912E-2,9.212121E-1,3.3636364E-1,5.6940943E-1,1.1244148E-1,1.5879756E-1,9.5682657E-1,-9.84422E-3,1.3882065E-1,9.8790765E-1,3.888889E-1,6.818182E-1,1.6666667E-1,3.6677136E-3,1.6666667E-1,1.4458048E-1,1.3211198E-2,1.6666667E-1,8.30303E-1,9.212121E-1,2.497684E-2,4.1296717E-4,6.965602E-1,1.3390663E-1,1.7752971E-1,6.802305E-1,3.3636364E-1,1.24918096E-1,2.7272727E-2,2.7272727E-2,5E-1,2.777778E-1,1.735686E-1,2.6917538E-1,4.1951746E-2,9.056256E-3,-2.8825982E-4,2.2458425E-2,1.1528932E-2,4.5757577E-1,1.6666667E-1,1.717681E-1,3.1488144E-3,2.8841794E-3,-1.5984859E-3,5.181818E-1,8.3399355E-1,1.08030245E-1,2.8330934E-1,6.4742017E-1,1.6666667E-1,5.657184E-1,9.797443E-1,2.2650342E-1,4.0241268E-2,5.0082594E-1,1.946345E-1,2.085884E-1,9.212121E-1,6.965602E-1,-5.974E-3,1.6666667E-1,1.6666667E-1,9.689189E-1,9.740693E-2,-6.4857136E-3,-2.5471842E-2,4.924379E-2,7.60713E-2,7.310047E-2,1.6666667E-1,2.7027026E-2,2.7160603E-1,4.0511344E-2,9.5682657E-1,1.9870745E-3,-9.366889E-4,-2.0846245E-3,-0E0,-1.0279533E-3,2.6611038E-3,-1.7809368E-3,-2.4696074E-3,-1.963064E-3,-9.909981E-4,-3.4864142E-4,1.9818624E-3,9.040709E-3,1.4386136E-3,2.8208164E-3,1.607299E-4,5.199203E-3,2.2174467E-3,1.0500972E-3,4.1197294E-5,-5.2611675E-4,2.0240657E-3,2.156978E-2,1.1928464E-2,-5.412112E-3,1.1848554E-2,2.3268001E-2,3.9204285E-2,6.2007373E-3,1.8451191E-2,-7.2448244E-3,-5.990657E-3,-1.4991513E-2,-4.4860644E-3,-6.879632E-3,9.954742E-4,2.6358932E-2,-1.4123898E-2,3.6856554E-2,7.260414E-2,3.023179E-1,1.6232853E-1,1.0661482E-3,1.9898891E-2,3.7687674E-2,2.6996845E-2,3.888751E-3,5.7389453E-2,2.174804E-2,3.717853E-2,-1.36587E-2,1.9889807E-2,-8.251447E-3,1.5235197E-2,3.5369128E-2,3.9763564E-1,1.4883404E-2,2.2271032E-2],"split_indices":[6,5,4,8,6,6,5,0,4,5,11,2,2,4,11,0,6,2,2,5,5,0,6,0,11,6,4,2,4,6,4,5,6,4,2,2,0,8,11,11,5,5,2,0,2,2,4,4,5,5,5,0,0,0,0,2,4,5,0,0,0,2,5,5,5,11,4,5,5,5,5,8,5,5,2,11,0,4,4,6,0,0,0,5,5,5,4,11,5,5,6,0,0,0,0,0,0,0,0,0,0,0,0,0,0,0,0,0,0,0,0,0,0,0,0,0,0,0,0,0,0,0,0,0,0,0,0,0,0,0,0,0,0,0,0,0,0,0,0,0,0,0,0,0,0,0,0,0,0],"split_type":[0,0,0,0,0,0,0,0,0,0,0,0,0,0,0,0,0,0,0,0,0,0,0,0,0,0,0,0,0,0,0,0,0,0,0,0,0,0,0,0,0,0,0,0,0,0,0,0,0,0,0,0,0,0,0,0,0,0,0,0,0,0,0,0,0,0,0,0,0,0,0,0,0,0,0,0,0,0,0,0,0,0,0,0,0,0,0,0,0,0,0,0,0,0,0,0,0,0,0,0,0,0,0,0,0,0,0,0,0,0,0,0,0,0,0,0,0,0,0,0,0,0,0,0,0,0,0,0,0,0,0,0,0,0,0,0,0,0,0,0,0,0,0,0,0,0,0,0,0],"sum_hessian":[7.947E3,7.98E2,7.149E3,1.3E1,7.85E2,6.04E2,6.545E3,1E0,1.2E1,3.05E2,4.8E2,1.9E2,4.14E2,8.7E1,6.458E3,3E0,9E0,3.7E1,2.68E2,4.9E1,4.31E2,2E0,1.88E2,1E1,4.04E2,5.8E1,2.9E1,2.15E2,6.243E3,3E0,6E0,3.3E1,4E0,4E0,2.64E2,4.8E1,1E0,3.8E1,3.93E2,1.21E2,6.7E1,5.3E1,3.51E2,4E0,5.4E1,2.4E1,5E0,8.5E1,1.3E2,1.476E3,4.767E3,2E0,1E0,3E0,3E0,2.6E1,7E0,3E0,1E0,1E0,3E0,1.86E2,7.8E1,2.8E1,2E1,1.3E1,2.5E1,2.72E2,1.21E2,1E1,1.11E2,1.6E1,5.1E1,5.1E1,2E0,2.1E1,3.3E2,1E1,4.4E1,1.1E1,1.3E1,4E0,1E0,5E1,3.5E1,8.8E1,4.2E1,3.57E2,1.119E3,1.06E2,4.661E3,6E0,2E1,6E0,1E0,1E0,2E0,2.3E1,1.63E2,6.8E1,1E1,4E0,2.4E1,1.5E1,5E0,6E0,7E0,1.4E1,1.1E1,1.27E2,1.45E2,1.18E2,3E0,7E0,3E0,1E0,1.1E2,1E1,6E0,1E0,5E1,2.4E1,2.7E1,1E0,1E0,1.5E1,6E0,7E0,3E0,2.3E1,2.1E1,1E0,1E1,5E0,4.5E1,1.2E1,2.3E1,3E0,8.5E1,9E0,3.3E1,2E0,3.55E2,5E0,1.114E3,1.05E2,1E0,5.62E2,4.099E3],"tree_param":{"num_deleted":"0","num_feature":"12","num_nodes":"149","size_leaf_vector":"0"}},{"base_weights":[8.9517343E-1,1.7115332E-1,1.5441712E0,4.0575218E-1,1.2845831E-3,7.033397E0,1.4819839E0,3.2394204E-2,8.641949E-1,-2.1134108E-1,1.7405456E-1,1.6753836E1,5.9826226E0,1.6281343E0,9.2473596E-1,8.9645785E-1,2.3916634E-2,4.9700966E0,8.4413373E-1,-1.9144425E0,-2.0002075E-1,3.8223747E-2,2.92855E-1,1.9070402E1,6.7623234E0,1.9568028E0,8.403356E0,1.4757388E0,1.7866994E0,8.8910174E-1,1.0765952E0,1.4763496E0,4.75295E-1,-9.164835E-2,7.8745954E-2,6.2703484E-1,1.0352263E0,-5.877709E-1,-2.478211E0,-2.909484E-1,-1.3764836E-1,2.185652E-1,-1.1959527E-1,1.792474E0,2.7029333E-1,6.435365E-1,7.009672E0,2.9023546E1,4.2762074E0,-5.715495E-1,1.4945621E0,2.4551663E0,1.4561845E0,9.192491E-1,5.5594397E-1,1.1636891E0,9.6778405E-1,5.9263515E-1,-1.4196828E-2,-1.1110286E-2,-9.7910956E-2,5.834924E-2,2.7092183E-1,4.003765E-1,6.881163E-1,9.55458E-1,1.2787933E0,-2.3803239E-1,-2.972298E-1,-6.0889953E-1,-1.08302325E-1,5.863746E-1,1.749182E-1,-5.6991583E-1,-6.9980785E-2,6.313556E0,2.7043632E-1,-8.9058673E-1,2.89665E-1,-7.926738E-1,1.087456E0,3.4500024E0,8.03601E0,5.4435802E1,1.59502945E1,-6.695303E-1,7.6323605E0,1.4551233E0,-7.4779284E-1,1.5431545E0,1.3202116E0,3.605553E0,2.323507E0,2.8567855E0,1.4243208E0,1.2706282E0,8.9985436E-1,4.4831595E-1,9.4408476E-1,1.1048356E0,1.4367288E0,6.0787565E-1,1.1608957E0,-5.061392E-2,2.049053E-2,-1.0759823E-1,-7.235612E-2,1.4692357E-1,1.881735E-2,6.1166024E-1,1.0079227E-1,1.0590377E0,1.3135776E-1,8.0314314E-1,6.016893E-1,8.759668E-1,1.2592971E0,1.3997799E0,9.493801E-1,-3.127535E-1,8.659454E-2,-3.7457815E-1,-2.9356366E-1,-2.0804705E-1,-8.02588E-1,-1.19310644E-4,-1.7766318E-1,-1.5551956E-1,1.4940295E0,2.6400322E-1,-1.9418362E-1,-9.733122E-1,-2.7109557E-1,-1.5086198E-1,9.432586E-2,1.9792039E0,9.0583315E0,-1.1362426E0,8.716445E-1,-1.1876354E0,1.4005883E0,7.0270705E-1,2.5428087E-1,-8.7492675E-2,-1.8177589E0,1.5400115E0,5.6423354E-1,1.0637621E0,-2.0386512E0,-8.2901806E-1,1.2743989E1,1.3659253E0,1.6265118E0,1.3989888E0,1.216672E0,4.0759964E0,3.0710442E0,2.1021426E0,3.3334756E0,1.1567174E0,3.5608907E0,2.1595652E0,1.3673161E0,1.2965859E0,3.3223048E-1,1.2995038E0,8.867774E-1,6.851845E-1,2.4238315E-1,1.7751412E0,1.0775436E0,1.9622601E0,1.0835613E0,8.437506E-1,5.3873515E-1,1.6575598E0,1.1019651E0],"categories":[],"categories_nodes":[],"categories_segments":[],"categories_sizes":[],"default_left":[true,true,true,true,true,true,true,true,true,true,true,true,true,true,true,true,true,false,true,true,true,true,true,false,false,true,true,true,true,true,true,false,true,true,true,true,true,false,false,true,true,true,true,true,true,true,true,true,true,true,true,true,true,true,true,true,true,false,false,true,true,true,true,true,true,true,true,true,true,true,true,true,true,true,true,true,true,true,true,true,true,false,false,false,false,true,true,false,false,true,true,true,true,true,true,true,true,true,false,true,true,true,true,false,false,false,false,false,false,false,false,false,false,false,false,false,false,false,false,false,false,false,false,false,false,false,false,false,false,false,false,false,false,false,false,false,false,false,false,false,false,false,false,false,false,false,false,false,false,false,false,false,false,false,false,false,false,false,false,false,false,false,false,false,false,false,false,false,false,false,false,false,false,false,false,false,false],"id":43,"left_children":[1,3,5,7,9,11,13,15,17,19,21,23,25,27,29,31,33,-1,35,37,39,41,43,-1,-1,45,47,49,51,53,55,-1,57,59,61,63,65,-1,-1,67,69,71,73,75,77,79,81,83,85,87,89,91,93,95,97,99,101,-1,-1,103,105,107,109,111,113,115,117,119,121,123,125,127,129,131,133,135,137,139,141,143,145,-1,-1,-1,-1,147,149,-1,-1,151,153,155,157,159,161,163,165,167,-1,169,171,173,175,-1,-1,-1,-1,-1,-1,-1,-1,-1,-1,-1,-1,-1,-1,-1,-1,-1,-1,-1,-1,-1,-1,-1,-1,-1,-1,-1,-1,-1,-1,-1,-1,-1,-1,-1,-1,-1,-1,-1,-1,-1,-1,-1,-1,-1,-1,-1,-1,-1,-1,-1,-1,-1,-1,-1,-1,-1,-1,-1,-1,-1,-1,-1,-1,-1,-1,-1,-1,-1,-1,-1,-1,-1,-1],"loss_changes":[3.6928892E3,1.4805385E2,1.4111123E3,2.6704962E2,7.918863E1,4.3950098E2,3.332373E2,6.2818017E0,5.620404E1,1.8472725E1,1.9183533E1,5.6929443E1,4.0692688E2,7.752051E1,4.2650757E0,1.7734389E0,5.402905E0,0E0,2.8689362E1,4.207554E0,5.4269447E0,1.5815647E1,2.1271E1,0E0,0E0,1.0677161E2,2.199184E3,6.4166504E1,3.4989648E2,6.762207E0,1.1134796E0,0E0,3.1739545E-1,1.3644981E-1,2.2569578E0,4.424408E0,6.7558594E0,0E0,0E0,9.851074E-2,7.8551216E0,4.1182175E0,6.5983796E0,6.3562737E1,1.4140087E1,8.792568E0,2.7694855E0,1.149123E3,3.7250888E2,5.829697E0,1.3193848E1,7.668823E1,4.6081543E1,3.9107056E0,2.2758675E0,8.378067E-1,4.8363113E0,0E0,0E0,2.615876E-2,5.7798862E-2,1.8291718E0,3.1769423E0,1.2399176E1,2.3770752E0,6.372452E0,3.1235352E0,1.063375E0,5.2293777E-2,2.517929E0,4.0294285E0,1.8502495E1,7.6575494E0,3.4302044E0,3.5582309E0,2.1624893E1,6.528463E0,7.5845175E0,8.919949E0,2.3294568E0,2.1270561E0,0E0,0E0,0E0,0E0,2.2886223E1,5.8038477E2,0E0,0E0,1.8160889E1,2.3341675E0,9.134827E0,1.0318579E2,2.6489944E1,4.260962E1,6.207161E-1,2.7324524E0,2.1914873E0,0E0,6.6300964E-1,1.9078178E0,2.5815678E-1,7.369194E-1,0E0,0E0,0E0,0E0,0E0,0E0,0E0,0E0,0E0,0E0,0E0,0E0,0E0,0E0,0E0,0E0,0E0,0E0,0E0,0E0,0E0,0E0,0E0,0E0,0E0,0E0,0E0,0E0,0E0,0E0,0E0,0E0,0E0,0E0,0E0,0E0,0E0,0E0,0E0,0E0,0E0,0E0,0E0,0E0,0E0,0E0,0E0,0E0,0E0,0E0,0E0,0E0,0E0,0E0,0E0,0E0,0E0,0E0,0E0,0E0,0E0,0E0,0E0,0E0,0E0,0E0,0E0,0E0,0E0,0E0,0E0,0E0,0E0,0E0],"parents":[2147483647,0,0,1,1,2,2,3,3,4,4,5,5,6,6,7,7,8,8,9,9,10,10,11,11,12,12,13,13,14,14,15,15,16,16,18,18,19,19,20,20,21,21,22,22,25,25,26,26,27,27,28,28,29,29,30,30,32,32,33,33,34,34,35,35,36,36,39,39,40,40,41,41,42,42,43,43,44,44,45,45,46,46,47,47,48,48,49,49,50,50,51,51,52,52,53,53,54,54,55,55,56,56,59,59,60,60,61,61,62,62,63,63,64,64,65,65,66,66,67,67,68,68,69,69,70,70,71,71,72,72,73,73,74,74,75,75,76,76,77,77,78,78,79,79,80,80,85,85,86,86,89,89,90,90,91,91,92,92,93,93,94,94,95,95,96,96,97,97,99,99,100,100,101,101,102,102],"right_children":[2,4,6,8,10,12,14,16,18,20,22,24,26,28,30,32,34,-1,36,38,40,42,44,-1,-1,46,48,50,52,54,56,-1,58,60,62,64,66,-1,-1,68,70,72,74,76,78,80,82,84,86,88,90,92,94,96,98,100,102,-1,-1,104,106,108,110,112,114,116,118,120,122,124,126,128,130,132,134,136,138,140,142,144,146,-1,-1,-1,-1,148,150,-1,-1,152,154,156,158,160,162,164,166,168,-1,170,172,174,176,-1,-1,-1,-1,-1,-1,-1,-1,-1,-1,-1,-1,-1,-1,-1,-1,-1,-1,-1,-1,-1,-1,-1,-1,-1,-1,-1,-1,-1,-1,-1,-1,-1,-1,-1,-1,-1,-1,-1,-1,-1,-1,-1,-1,-1,-1,-1,-1,-1,-1,-1,-1,-1,-1,-1,-1,-1,-1,-1,-1,-1,-1,-1,-1,-1,-1,-1,-1,-1,-1,-1,-1,-1,-1],"split_conditions":[6.621175E-1,6.572582E-1,5E-1,3.8399246E-1,1.6666667E-1,7.703592E-1,7.090609E-2,5E-1,5E-1,2.7272727E-2,2.777778E-1,2.777778E-1,8.2218254E-1,8.2218254E-1,9.644023E-1,5.5555556E-2,8.981001E-3,9.940193E-2,6.028142E-1,5.5555556E-2,5.5555556E-2,3.9234042E-1,4.1296717E-4,3.8140804E-1,1.3524647E-1,1.166234E-1,8.349742E-1,5.5555556E-2,8.349742E-1,9.0605086E-1,9.699887E-1,2.9526992E-2,4.0821142E-2,4.2424244E-1,3.532499E-1,3.989272E-1,8.30303E-1,-1.1755417E-2,-4.9564216E-2,5.0082594E-1,7.4893616E-2,5.0082594E-1,5.0082594E-1,5.818182E-1,5E-1,2.7272727E-2,7.847458E-1,2.7272727E-2,2.777778E-1,7.510687E-1,7.958708E-1,4.2424244E-1,1.48936175E-2,5.0082594E-1,9.5665354E-1,9.212121E-1,9.859468E-1,1.1852703E-2,-2.8393656E-4,2.3766927E-1,8.30303E-1,8.23977E-2,3.698545E-1,3.8608843E-1,4.3256068E-1,6.450739E-1,3.888889E-1,9.9787235E-1,1.7021276E-2,2.1276595E-3,3.9234042E-1,1.2389015E-3,9.212121E-1,6.242424E-1,8.30303E-1,5.181818E-1,7.0297873E-1,4.4444448E-1,4.2424244E-1,2.777778E-1,1.6666667E-1,6.900005E-2,1.607202E-1,1.088716E0,3.1900588E-1,8.7090075E-1,8.5870504E-1,2.9102465E-2,-1.4955857E-2,7.554066E-1,2.777778E-1,2.777778E-1,9.212121E-1,8.76709E-1,1.2389015E-3,8.9298576E-1,3.3636364E-1,9.345995E-1,1.8881695E-2,1.48936175E-2,1.6666667E-1,5.0082594E-1,5.0082594E-1,-1.0122784E-3,4.098106E-4,-2.1519645E-3,-1.4471223E-3,2.9384713E-3,3.76347E-4,1.2233204E-2,2.0158454E-3,2.1180753E-2,2.627155E-3,1.6062863E-2,1.2033786E-2,1.7519336E-2,2.5185943E-2,2.7995598E-2,1.8987602E-2,-6.2550697E-3,1.7318907E-3,-7.491563E-3,-5.871273E-3,-4.1609406E-3,-1.605176E-2,-2.3862128E-6,-3.5532634E-3,-3.110391E-3,2.9880589E-2,5.2800644E-3,-3.8836722E-3,-1.9466244E-2,-5.4219114E-3,-3.0172395E-3,1.8865172E-3,3.9584078E-2,1.8116662E-1,-2.2724852E-2,1.7432889E-2,-2.3752708E-2,2.8011765E-2,1.4054141E-2,5.0856173E-3,-1.7498535E-3,-3.635518E-2,3.0800229E-2,1.1284671E-2,2.127524E-2,-4.0773023E-2,-1.658036E-2,2.5487977E-1,2.7318506E-2,3.2530237E-2,2.7979776E-2,2.4333438E-2,8.1519924E-2,6.1420884E-2,4.204285E-2,6.666951E-2,2.3134347E-2,7.121781E-2,4.3191303E-2,2.7346322E-2,2.5931718E-2,6.6446094E-3,2.5990076E-2,1.7735548E-2,1.3703689E-2,4.847663E-3,3.5502825E-2,2.1550871E-2,3.9245203E-2,2.1671226E-2,1.6875012E-2,1.0774703E-2,3.3151194E-2,2.2039302E-2],"split_indices":[1,1,0,1,4,1,7,0,0,2,4,4,1,1,1,4,9,0,1,4,4,10,8,0,0,7,1,4,1,1,1,0,7,2,1,1,2,0,0,8,10,8,8,2,0,2,1,2,4,1,1,2,10,8,1,2,1,0,0,1,2,1,1,1,1,1,4,10,10,10,10,8,2,2,2,2,10,4,2,4,4,0,0,0,0,1,1,0,0,1,4,4,2,1,8,1,2,1,0,10,4,8,8,0,0,0,0,0,0,0,0,0,0,0,0,0,0,0,0,0,0,0,0,0,0,0,0,0,0,0,0,0,0,0,0,0,0,0,0,0,0,0,0,0,0,0,0,0,0,0,0,0,0,0,0,0,0,0,0,0,0,0,0,0,0,0,0,0,0,0,0,0,0,0,0,0,0],"split_type":[0,0,0,0,0,0,0,0,0,0,0,0,0,0,0,0,0,0,0,0,0,0,0,0,0,0,0,0,0,0,0,0,0,0,0,0,0,0,0,0,0,0,0,0,0,0,0,0,0,0,0,0,0,0,0,0,0,0,0,0,0,0,0,0,0,0,0,0,0,0,0,0,0,0,0,0,0,0,0,0,0,0,0,0,0,0,0,0,0,0,0,0,0,0,0,0,0,0,0,0,0,0,0,0,0,0,0,0,0,0,0,0,0,0,0,0,0,0,0,0,0,0,0,0,0,0,0,0,0,0,0,0,0,0,0,0,0,0,0,0,0,0,0,0,0,0,0,0,0,0,0,0,0,0,0,0,0,0,0,0,0,0,0,0,0,0,0,0,0,0,0,0,0,0,0,0,0],"sum_hessian":[7.859E3,3.715E3,4.144E3,1.56E3,2.155E3,4.6E1,4.098E3,8.6E2,7E2,9.66E2,1.189E3,4E0,4.2E1,3.246E3,8.52E2,8E0,8.52E2,3E0,6.97E2,6E0,9.6E2,5.55E2,6.34E2,3E0,1E0,1.6E1,2.6E1,1.657E3,1.589E3,6.92E2,1.6E2,3E0,5E0,2.74E2,5.78E2,3.27E2,3.7E2,2E0,4E0,3.9E2,5.7E2,2.59E2,2.96E2,9E0,6.25E2,1.3E1,3E0,4E0,2.2E1,1.5E1,1.642E3,5.25E2,1.064E3,6.34E2,5.8E1,8.7E1,7.3E1,4E0,1E0,2E1,2.54E2,5.23E2,5.5E1,7E1,2.57E2,2.8E2,9E1,4.3E1,3.47E2,3.3E1,5.37E2,2.7E1,2.32E2,2.9E1,2.67E2,2E0,7E0,1E1,6.15E2,3E0,1E1,1E0,2E0,1E0,3E0,9E0,1.3E1,1E0,1.4E1,1.282E3,3.6E2,5.3E1,4.72E2,2.3E1,1.041E3,3.2E1,6.02E2,4.6E1,1.2E1,7.3E1,1.4E1,2.6E1,4.7E1,9E0,1.1E1,1.83E2,7.1E1,1.61E2,3.62E2,1.8E1,3.7E1,2E1,5E1,1.09E2,1.48E2,2.23E2,5.7E1,6.5E1,2.5E1,3.5E1,8E0,1.4E1,3.33E2,1.1E1,2.2E1,2.1E2,3.27E2,1.5E1,1.2E1,1.87E2,4.5E1,1.2E1,1.7E1,1.79E2,8.8E1,1E0,1E0,2E0,5E0,9E0,1E0,4.8E1,5.67E2,2E0,1E0,5E0,5E0,4E0,5E0,5E0,8E0,4.12E2,8.7E2,2.02E2,1.58E2,2.7E1,2.6E1,3.88E2,8.4E1,7E0,1.6E1,7.4E1,9.67E2,3.1E1,1E0,1.8E1,5.84E2,2.1E1,2.5E1,2E0,7.1E1,5E0,9E0,5E0,2.1E1,4E0,4.3E1],"tree_param":{"num_deleted":"0","num_feature":"12","num_nodes":"177","size_leaf_vector":"0"}},{"base_weights":[8.7918586E-1,1.6663606E-1,1.521953E0,3.8132963E-1,1.1728072E-2,5.077918E0,1.4465283E0,2.6559327E-2,8.297196E-1,-9.33083E-1,4.5571234E-2,9.623629E0,4.3110347E0,9.2652804E-1,1.5772455E0,8.466125E-1,1.2151342E-2,5.2297854E0,8.146649E-1,-1.0523794E0,4.3858448E-1,-1.4782828E-1,2.0174411E-1,3.2977104E0,2.1044815E1,8.824827E0,4.016471E0,1.1997542E0,8.86781E-1,2.0560646E0,1.4839814E0,1.8322657E0,7.3422337E-1,-9.22471E-2,6.900785E-2,6.951938E-1,1.1020586E0,-4.181281E-1,-1.2363235E0,7.685367E-1,-9.80105E-1,-2.9071456E-1,-4.414867E-2,2.1538584E-1,-6.6528285E-1,1.2153812E1,-1.3656592E-1,1.02240715E1,3.1093457E0,1.5002832E0,5.056045E0,1.4866029E0,1.0475953E0,8.5337174E-1,1.1070886E0,1.6432748E0,2.422677E0,1.5799019E0,1.2382729E0,5.509875E-1,1.1113704E0,1.9182572E-2,-1.00047976E-1,4.3294013E-2,3.0129173E-1,4.2170772E-1,7.450433E-1,1.7879758E0,1.0447947E0,-4.7783098E-1,-3.2118455E-1,-1.6793126E0,-1.0527875E0,4.1409275E-1,9.354904E-1,-3.5449287E-1,-2.8788805E-1,-6.129142E-1,-1.5637169E-2,1.883454E-1,7.544746E-1,-1.0224608E0,5.640293E-1,1.4837435E1,6.420095E0,5.733348E-1,-8.37084E-1,4.9877787E0,1.0527414E0,9.648024E0,3.8374195E0,1.3820986E0,2.3472633E0,1.0880382E0,8.073528E-1,7.680751E-1,8.9003307E-1,9.2975605E-1,1.6327839E0,2.3507729E0,1.3524495E0,3.5807357E0,1.9202743E0,1.4386511E0,1.9649752E0,1.6291729E0,1.2065228E0,8.955496E-1,4.3074605E-1,-5.5183645E-2,7.0068166E-2,-4.2726155E-2,-1.0375925E-1,1.3017786E-1,1.3751131E-2,6.310478E-1,9.894598E-2,9.352951E-1,1.23601675E-1,1.0717628E0,7.0961154E-1,1.6341871E0,2.4050968E0,1.0949507E0,7.1802443E-1,-1.442938E-1,-3.3926448E-1,-2.4711516E0,-1.2150428E0,-8.4496915E-1,-1.5400943E0,-3.9353707E-1,-8.5013705E-1,1.0387577E0,-4.093865E-2,7.688672E-2,2.8290993E-1,1.425869E0,3.8990042E-1,2.9051456E-1,9.14173E-1,5.4001397E-1,-1.510519E0,7.390544E0,1.3269838E0,1.4879353E0,7.6435494E-1,1.4463251E1,7.0185695E0,3.9532652E-1,4.6845493E0,1.8608923E0,1.1702156E0,1.127483E0,8.391444E-1,3.6167338E-1,8.884038E-1,8.155042E-1,3.0232182E-1,7.381564E-1,9.443531E-1,9.6270543E-1,5.386578E-1,3.861995E0,9.5379704E-1,2.0301495E0,3.7417195E0,-5.563962E-1,1.3642079E0,3.211162E0,4.872162E0,3.1401656E0,1.6523707E0,-6.6760015E-1,1.45489E0,2.0576506E0,1.5108411E0,1.5095801E0,2.698112E0,1.2504357E0,1.0929642E0],"categories":[],"categories_nodes":[],"categories_segments":[],"categories_sizes":[],"default_left":[true,true,true,true,true,true,true,true,true,true,true,true,true,true,true,true,true,false,true,true,true,true,true,true,false,true,true,true,true,true,true,false,true,true,true,true,true,true,true,true,false,true,true,true,true,true,true,false,false,true,true,true,true,true,true,true,true,true,true,true,false,true,true,true,true,true,true,true,true,false,true,true,true,false,false,false,false,true,true,true,true,false,false,false,false,true,true,true,true,true,true,true,false,true,true,true,true,true,true,true,true,true,true,true,true,true,true,false,false,false,false,false,false,false,false,false,false,false,false,false,false,false,false,false,false,false,false,false,false,false,false,false,false,false,false,false,false,false,false,false,false,false,false,false,false,false,false,false,false,false,false,false,false,false,false,false,false,false,false,false,false,false,false,false,false,false,false,false,false,false,false,false,false,false,false,false,false,false,false,false,false],"id":44,"left_children":[1,3,5,7,9,11,13,15,17,19,21,23,25,27,29,31,33,-1,35,37,39,41,43,45,-1,47,49,51,53,55,57,-1,59,61,63,65,67,69,71,73,-1,75,77,79,81,83,85,-1,-1,87,89,91,93,95,97,99,101,103,105,107,-1,109,111,113,115,117,119,121,123,-1,125,127,129,-1,-1,-1,-1,131,133,135,137,-1,-1,-1,-1,139,141,143,145,147,149,151,-1,153,155,157,159,161,163,165,167,169,171,173,175,177,179,-1,-1,-1,-1,-1,-1,-1,-1,-1,-1,-1,-1,-1,-1,-1,-1,-1,-1,-1,-1,-1,-1,-1,-1,-1,-1,-1,-1,-1,-1,-1,-1,-1,-1,-1,-1,-1,-1,-1,-1,-1,-1,-1,-1,-1,-1,-1,-1,-1,-1,-1,-1,-1,-1,-1,-1,-1,-1,-1,-1,-1,-1,-1,-1,-1,-1,-1,-1,-1,-1,-1,-1,-1,-1],"loss_changes":[3.6686528E3,1.263502E2,1.1269688E3,2.5328159E2,7.058189E1,2.9041333E2,2.798203E2,1.0492073E1,4.508304E1,1.2653488E1,6.4384995E1,8.675969E2,8.816052E1,8.621948E0,1.4609082E2,1.2133656E0,5.1916E0,0E0,2.3799347E1,8.009598E0,3.212865E0,1.409919E1,1.3990231E1,2.5418167E2,0E0,2.386496E1,1.8396838E2,3.9983215E0,4.9957275E0,7.9779785E1,6.434131E1,0E0,7.626276E-1,2.698121E-1,3.373394E0,6.645157E0,7.4017944E0,3.1959295E-2,3.7890167E0,1.6718125E-1,0E0,2.8972626E-2,8.9446745E0,1.6868145E1,8.248772E0,3.8364563E0,3.3134296E0,0E0,0E0,3.1460121E1,2.6912268E2,2.0429688E0,3.5368347E-1,1.7225952E0,8.251236E0,5.101245E1,1.6247546E2,1.0688623E2,8.939209E0,2.8056574E-1,0E0,7.8447014E-2,5.7771206E-2,1.3072736E0,3.7276015E0,1.178637E1,4.5752716E0,8.6956024E-2,2.8314362E0,0E0,2.3150444E-4,4.583149E0,3.5153732E0,0E0,0E0,0E0,0E0,1.2411203E0,1.4041342E1,1.1648407E1,1.3332851E1,0E0,0E0,0E0,0E0,2.1558571E-1,3.377271E0,1.7130543E1,2.0150394E0,9.667883E1,1.16918335E2,2.5107574E0,0E0,2.291336E-1,2.8441668E-1,4.1505356E0,3.368042E0,7.2489166E-1,3.4020607E1,3.008908E1,4.312195E0,3.539502E1,6.301941E1,5.000952E1,2.1274658E1,5.9111023E0,3.0979004E0,0E0,0E0,0E0,0E0,0E0,0E0,0E0,0E0,0E0,0E0,0E0,0E0,0E0,0E0,0E0,0E0,0E0,0E0,0E0,0E0,0E0,0E0,0E0,0E0,0E0,0E0,0E0,0E0,0E0,0E0,0E0,0E0,0E0,0E0,0E0,0E0,0E0,0E0,0E0,0E0,0E0,0E0,0E0,0E0,0E0,0E0,0E0,0E0,0E0,0E0,0E0,0E0,0E0,0E0,0E0,0E0,0E0,0E0,0E0,0E0,0E0,0E0,0E0,0E0,0E0,0E0,0E0,0E0,0E0,0E0,0E0,0E0,0E0,0E0],"parents":[2147483647,0,0,1,1,2,2,3,3,4,4,5,5,6,6,7,7,8,8,9,9,10,10,11,11,12,12,13,13,14,14,15,15,16,16,18,18,19,19,20,20,21,21,22,22,23,23,25,25,26,26,27,27,28,28,29,29,30,30,32,32,33,33,34,34,35,35,36,36,37,37,38,38,39,39,41,41,42,42,43,43,44,44,45,45,46,46,49,49,50,50,51,51,52,52,53,53,54,54,55,55,56,56,57,57,58,58,59,59,61,61,62,62,63,63,64,64,65,65,66,66,67,67,68,68,70,70,71,71,72,72,77,77,78,78,79,79,80,80,85,85,86,86,87,87,88,88,89,89,90,90,91,91,93,93,94,94,95,95,96,96,97,97,98,98,99,99,100,100,101,101,102,102,103,103,104,104,105,105,106,106],"right_children":[2,4,6,8,10,12,14,16,18,20,22,24,26,28,30,32,34,-1,36,38,40,42,44,46,-1,48,50,52,54,56,58,-1,60,62,64,66,68,70,72,74,-1,76,78,80,82,84,86,-1,-1,88,90,92,94,96,98,100,102,104,106,108,-1,110,112,114,116,118,120,122,124,-1,126,128,130,-1,-1,-1,-1,132,134,136,138,-1,-1,-1,-1,140,142,144,146,148,150,152,-1,154,156,158,160,162,164,166,168,170,172,174,176,178,180,-1,-1,-1,-1,-1,-1,-1,-1,-1,-1,-1,-1,-1,-1,-1,-1,-1,-1,-1,-1,-1,-1,-1,-1,-1,-1,-1,-1,-1,-1,-1,-1,-1,-1,-1,-1,-1,-1,-1,-1,-1,-1,-1,-1,-1,-1,-1,-1,-1,-1,-1,-1,-1,-1,-1,-1,-1,-1,-1,-1,-1,-1,-1,-1,-1,-1,-1,-1,-1,-1,-1,-1,-1,-1],"split_conditions":[6.621175E-1,6.572582E-1,7.4137926E-2,3.8253418E-1,7.4137926E-2,2.7272727E-2,5.3197986E-1,7.241379E-2,5E-1,1.389089E-1,1.6666667E-1,8.7090075E-1,7.7843237E-1,1.9346416E-1,1.903133E-1,2.7272727E-2,8.981001E-3,1.04595706E-1,6.341465E-1,5.5555556E-2,1.3989916E-1,5.5555556E-2,9.8424554E-1,5.318799E-1,4.208963E-1,5E-1,8.2218254E-1,1.724138E-1,9.212121E-1,8.2218254E-1,8.4422266E-1,3.6645316E-2,2.4674535E-1,1.6034484E-1,3.532499E-1,3.989272E-1,1.1082103E-1,5E-1,2.7272727E-2,3.888889E-1,-1.96021E-2,4.564278E-2,6.598847E-2,7.827586E-1,9.9783945E-1,8.012924E-1,8.4844077E-1,2.0448142E-1,6.218691E-2,5.318799E-1,8.349742E-1,1.5E-1,1.6627656E-1,5.4792248E-2,9.345995E-1,7.7943826E-1,8.349742E-1,8.2218254E-1,2.4981996E-1,3.4743626E-2,2.2227408E-2,1.3810939E-1,1.15052216E-1,6.0824133E-2,3.698545E-1,3.8608843E-1,1.703277E-1,3.888889E-1,6.4979887E-1,-9.556619E-3,2.0705797E-2,1.6666667E-1,2.777778E-1,8.281855E-3,1.8709809E-2,-7.0898575E-3,-5.7577607E-3,4.186172E-2,7.7511705E-2,2.777778E-1,6.242424E-1,-2.0449216E-2,1.1280585E-2,2.967487E-1,1.2840189E-1,8.31193E-1,2.777778E-1,5E-1,1.6666667E-1,5E-1,8.5870504E-1,1.1766295E-1,4.6945266E-2,6.068965E-1,1.7743969E-1,9.345995E-1,7.684338E-1,8.9569235E-1,9.532107E-1,9.212121E-1,5.5555556E-2,9.212121E-1,4.6903133E-2,5.5555556E-2,8.349742E-1,2.4594887E-1,3.888889E-1,1.791099E-2,8.614921E-3,-1.1036729E-3,1.4013633E-3,-8.545231E-4,-2.075185E-3,2.603557E-3,2.750226E-4,1.2620956E-2,1.9789196E-3,1.87059E-2,2.4720335E-3,2.1435255E-2,1.419223E-2,3.268374E-2,4.8101936E-2,2.1899013E-2,1.4360488E-2,-2.885876E-3,-6.7852894E-3,-4.942303E-2,-2.4300857E-2,-1.6899383E-2,-3.0801885E-2,-7.870741E-3,-1.700274E-2,2.0775152E-2,-8.1877294E-4,1.5377344E-3,5.6581986E-3,2.8517378E-2,7.798008E-3,5.810291E-3,1.828346E-2,1.0800279E-2,-3.021038E-2,1.4781088E-1,2.6539676E-2,2.9758705E-2,1.52870985E-2,2.89265E-1,1.4037138E-1,7.90653E-3,9.3690984E-2,3.7217844E-2,2.3404311E-2,2.2549659E-2,1.6782887E-2,7.2334674E-3,1.7768076E-2,1.6310083E-2,6.0464363E-3,1.4763127E-2,1.8887062E-2,1.9254109E-2,1.0773156E-2,7.72399E-2,1.9075941E-2,4.060299E-2,7.483439E-2,-1.1127924E-2,2.7284157E-2,6.422324E-2,9.744324E-2,6.280331E-2,3.304741E-2,-1.3352003E-2,2.90978E-2,4.115301E-2,3.0216822E-2,3.0191602E-2,5.3962238E-2,2.5008714E-2,2.1859283E-2],"split_indices":[1,1,3,1,3,2,9,3,0,5,4,1,1,5,5,2,9,0,1,4,5,4,5,9,0,0,1,3,2,1,1,0,1,3,1,1,5,0,2,4,0,5,5,3,5,1,1,0,0,9,1,3,5,9,1,1,1,1,5,1,0,1,5,1,1,1,5,4,1,0,5,4,4,0,0,0,0,5,5,4,2,0,0,0,0,1,4,0,4,0,1,5,0,3,5,1,1,1,1,2,4,2,5,4,1,5,4,0,0,0,0,0,0,0,0,0,0,0,0,0,0,0,0,0,0,0,0,0,0,0,0,0,0,0,0,0,0,0,0,0,0,0,0,0,0,0,0,0,0,0,0,0,0,0,0,0,0,0,0,0,0,0,0,0,0,0,0,0,0,0,0,0,0,0,0,0,0,0,0,0,0],"split_type":[0,0,0,0,0,0,0,0,0,0,0,0,0,0,0,0,0,0,0,0,0,0,0,0,0,0,0,0,0,0,0,0,0,0,0,0,0,0,0,0,0,0,0,0,0,0,0,0,0,0,0,0,0,0,0,0,0,0,0,0,0,0,0,0,0,0,0,0,0,0,0,0,0,0,0,0,0,0,0,0,0,0,0,0,0,0,0,0,0,0,0,0,0,0,0,0,0,0,0,0,0,0,0,0,0,0,0,0,0,0,0,0,0,0,0,0,0,0,0,0,0,0,0,0,0,0,0,0,0,0,0,0,0,0,0,0,0,0,0,0,0,0,0,0,0,0,0,0,0,0,0,0,0,0,0,0,0,0,0,0,0,0,0,0,0,0,0,0,0,0,0,0,0,0,0,0,0,0,0,0,0],"sum_hessian":[8.01E3,3.799E3,4.211E3,1.592E3,2.207E3,8.7E1,4.124E3,8.89E2,7.03E2,7.6E1,2.131E3,1.2E1,7.5E1,8.29E2,3.295E3,1.5E1,8.74E2,2E0,7.01E2,7E1,6E0,9.52E2,1.179E3,8E0,4E0,4E0,7.1E1,1.04E2,7.25E2,5.36E2,2.759E3,1E0,1.4E1,3.08E2,5.66E2,4.96E2,2.05E2,1.6E1,5.4E1,5E0,1E0,4E2,5.52E2,1.161E3,1.8E1,2E0,6E0,3E0,1E0,2.1E1,5E1,3.5E1,6.9E1,6.31E2,9.4E1,2.53E2,2.83E2,1.983E3,7.76E2,1E1,4E0,2E1,2.88E2,5.1E2,5.6E1,7.7E1,4.19E2,1.5E1,1.9E2,9E0,7E0,1.5E1,3.9E1,2E0,3E0,1.5E1,3.85E2,2.6E1,5.26E2,1.106E3,5.5E1,1.4E1,4E0,1E0,1E0,3E0,3E0,2E0,1.9E1,1E1,4E1,3.2E1,3E0,5.8E1,1.1E1,1.92E2,4.39E2,7.1E1,2.3E1,7.3E1,1.8E2,8.5E1,1.98E2,1.452E3,5.31E2,5.7E1,7.19E2,2E0,8E0,8E0,1.2E1,1.8E1,2.7E2,1.29E2,3.81E2,2.1E1,3.5E1,2.8E1,4.9E1,4E1,3.79E2,1.3E1,2E0,1.64E2,2.6E1,1E0,6E0,5E0,1E1,2.8E1,1.1E1,1.4E1,1.2E1,1.2E1,5.14E2,5.08E2,5.98E2,1.9E1,3.6E1,2E0,1E0,1E0,2E0,1E0,1E0,7E0,1.2E1,3E0,7E0,8E0,3.2E1,9E0,2.3E1,4.9E1,9E0,2E0,9E0,1.74E2,1.8E1,1.17E2,3.22E2,6.5E1,6E0,5E0,1.8E1,6E1,1.3E1,1E0,1.79E2,6.7E1,1.8E1,3.5E1,1.63E2,1.1E1,1.441E3,4.4E2,9.1E1,5.2E1,5E0,5.16E2,2.03E2],"tree_param":{"num_deleted":"0","num_feature":"12","num_nodes":"181","size_leaf_vector":"0"}},{"base_weights":[8.642039E-1,1.6682668E-1,1.4975784E0,3.89154E-1,7.733216E-3,7.1714044E0,1.4204907E0,2.4698233E-2,8.34013E-1,-4.7729713E-1,2.7407384E-2,1.4320346E1,5.8619456E0,9.2442733E-1,1.548064E0,7.3849565E-1,1.5158091E-2,4.786506E0,8.1483704E-1,-1.1642618E0,-3.702239E-1,-1.9061027E-2,1.2470031E-1,2.0088081E1,1.143906E1,1.0321032E0,7.8797183E0,4.338488E0,9.185843E-1,3.8244276E0,1.5206834E0,4.2750818E-1,7.883323E-1,-9.022872E-2,6.7527756E-2,6.184837E0,3.2972825E0,6.2514085E-1,9.8624635E-1,-3.044423E-1,-1.0582136E0,3.132583E-2,-1.0935159E-1,1.2403286E0,9.7187124E-2,1.2769862E1,3.2449126E0,6.3238034E0,4.76001E-1,1.7397882E1,5.5775976E0,1.1937727E0,8.770982E-1,1.6891146E0,4.459889E0,1.9216276E0,1.4288876E0,9.0847254E-1,5.765125E-1,8.608308E-3,-9.947733E-2,4.290918E-2,2.9989606E-1,1.0490876E0,5.926519E-1,1.6967927E0,9.2834157E-1,-3.92275E-1,7.549071E-1,7.855743E-2,-9.128796E-2,-4.906027E-1,-5.719838E-2,2.396875E0,1.0221925E0,3.8801908E-1,2.4117555E-2,9.485959E0,1.5630042E1,-4.3624175E-1,8.8407093E-1,2.9154991E1,1.3367912E1,-1.0255521E-2,8.32167E0,1.150559E0,1.6645759E0,8.4204113E-1,1.1146193E0,4.719997E0,1.134828E0,7.012074E0,3.3925486E0,1.6228424E0,2.216228E0,1.5351577E0,1.201245E0,-1.4302623E-2,1.5865102E-1,-6.38456E-2,-1.0331177E-1,1.4741775E-1,1.1290443E-2,6.0268515E-1,1.4396697E-1,1.4775131E0,9.342259E-1,1.8078089E-1,6.637757E-1,1.496176E0,2.1739388E0,8.6352116E-1,1.1457165E0,-2.718884E-1,-7.6229066E-1,9.1865224E-1,4.0699452E-1,-8.407565E-2,1.752188E-1,9.6671924E-2,-3.0098128E-1,1.1100444E0,-5.510361E-1,-1.4253993E-1,2.1173733E-1,2.9519376E-1,1.3995751E0,1.9665705E-1,9.3748283E-1,8.178538E-2,-2.8606024E-1,-5.524276E-1,-2.600385E-2,9.9685466E-1,-3.1155303E-2,1.4946067E1,4.8855634E0,1.2595041E0,-6.802754E-1,2.4801727E1,5.796483E0,1.3551805E0,1.0801169E0,8.130279E-1,9.575915E-1,1.4443566E0,7.76552E-1,5.1093907E0,2.897237E0,2.3454309E0,1.4132437E0,3.4086258E0,1.7142634E0,1.4002988E0,1.9630167E0,1.3329705E0,1.1574684E0],"categories":[],"categories_nodes":[],"categories_segments":[],"categories_sizes":[],"default_left":[true,true,true,true,true,true,true,true,true,true,true,true,true,true,true,true,true,true,true,false,true,true,true,false,true,true,true,false,true,true,true,false,true,true,true,false,false,true,true,true,false,true,true,true,true,true,false,false,true,true,true,true,true,true,true,true,true,false,false,true,true,true,true,true,true,true,true,true,true,true,true,true,true,false,true,true,true,false,false,true,true,false,true,true,true,true,false,true,true,false,false,false,true,true,true,true,true,false,false,false,false,false,false,false,false,false,false,false,false,false,false,false,false,false,false,false,false,false,false,false,false,false,false,false,false,false,false,false,false,false,false,false,false,false,false,false,false,false,false,false,false,false,false,false,false,false,false,false,false,false,false,false,false,false,false,false,false],"id":45,"left_children":[1,3,5,7,9,11,13,15,17,19,21,23,25,27,29,31,33,35,37,-1,39,41,43,-1,45,47,49,-1,51,53,55,-1,57,59,61,-1,-1,63,65,67,-1,69,71,73,75,77,-1,-1,79,81,83,85,87,89,91,93,95,-1,-1,97,99,101,103,105,107,109,111,113,115,117,119,121,123,-1,125,127,129,-1,-1,131,133,-1,135,137,139,141,-1,143,145,-1,-1,-1,147,149,151,153,155,-1,-1,-1,-1,-1,-1,-1,-1,-1,-1,-1,-1,-1,-1,-1,-1,-1,-1,-1,-1,-1,-1,-1,-1,-1,-1,-1,-1,-1,-1,-1,-1,-1,-1,-1,-1,-1,-1,-1,-1,-1,-1,-1,-1,-1,-1,-1,-1,-1,-1,-1,-1,-1,-1,-1,-1,-1,-1,-1,-1],"loss_changes":[3.4846196E3,1.3282257E2,1.8047627E3,2.5393274E2,2.0889809E1,4.8970874E2,2.5764648E2,5.850965E0,5.2078705E1,6.111122E0,9.516091E0,6.1411987E1,4.5845032E2,1.5259827E1,2.0019775E2,4.5923233E-2,4.69476E0,5.92041E-3,2.2608276E1,0E0,3.2372456E0,6.4822E0,2.0823208E1,0E0,5.5018677E1,4.1078697E1,6.977146E2,0E0,9.146484E0,4.941516E1,1.1704541E2,0E0,4.168272E-2,2.5966406E-1,3.242015E0,0E0,0E0,4.3742065E0,1.45920105E1,6.4517035E0,0E0,5.2973394E0,1.0130029E1,3.2548828E0,1.4108729E1,2.9418945E-1,0E0,0E0,5.0985003E0,1.6951062E2,4.1926398E2,1.525238E0,5.7071533E0,1.3810307E1,7.1824524E1,5.1236572E1,6.249414E1,0E0,0E0,8.6464874E-2,3.0711412E-2,1.6967595E0,2.5256958E0,6.535301E-1,9.068092E0,1.479454E0,4.4509277E0,2.737318E0,1.6025305E-1,1.0386877E1,1.00369005E1,6.128948E0,1.0321905E1,0E0,3.7705383E0,1.3941893E1,9.508998E0,0E0,0E0,1.9350874E-1,9.8755693E-1,0E0,4.6763306E1,8.218042E0,7.14574E2,9.2333984E-1,0E0,1.8417053E0,9.887016E0,0E0,0E0,0E0,1.3090744E1,4.387329E1,1.7714185E2,1.01646484E2,4.249634E0,0E0,0E0,0E0,0E0,0E0,0E0,0E0,0E0,0E0,0E0,0E0,0E0,0E0,0E0,0E0,0E0,0E0,0E0,0E0,0E0,0E0,0E0,0E0,0E0,0E0,0E0,0E0,0E0,0E0,0E0,0E0,0E0,0E0,0E0,0E0,0E0,0E0,0E0,0E0,0E0,0E0,0E0,0E0,0E0,0E0,0E0,0E0,0E0,0E0,0E0,0E0,0E0,0E0,0E0,0E0,0E0,0E0,0E0,0E0,0E0],"parents":[2147483647,0,0,1,1,2,2,3,3,4,4,5,5,6,6,7,7,8,8,9,9,10,10,11,11,12,12,13,13,14,14,15,15,16,16,17,17,18,18,20,20,21,21,22,22,24,24,25,25,26,26,28,28,29,29,30,30,32,32,33,33,34,34,37,37,38,38,39,39,41,41,42,42,43,43,44,44,45,45,48,48,49,49,50,50,51,51,52,52,53,53,54,54,55,55,56,56,59,59,60,60,61,61,62,62,63,63,64,64,65,65,66,66,67,67,68,68,69,69,70,70,71,71,72,72,74,74,75,75,76,76,79,79,80,80,82,82,83,83,84,84,85,85,87,87,88,88,92,92,93,93,94,94,95,95,96,96],"right_children":[2,4,6,8,10,12,14,16,18,20,22,24,26,28,30,32,34,36,38,-1,40,42,44,-1,46,48,50,-1,52,54,56,-1,58,60,62,-1,-1,64,66,68,-1,70,72,74,76,78,-1,-1,80,82,84,86,88,90,92,94,96,-1,-1,98,100,102,104,106,108,110,112,114,116,118,120,122,124,-1,126,128,130,-1,-1,132,134,-1,136,138,140,142,-1,144,146,-1,-1,-1,148,150,152,154,156,-1,-1,-1,-1,-1,-1,-1,-1,-1,-1,-1,-1,-1,-1,-1,-1,-1,-1,-1,-1,-1,-1,-1,-1,-1,-1,-1,-1,-1,-1,-1,-1,-1,-1,-1,-1,-1,-1,-1,-1,-1,-1,-1,-1,-1,-1,-1,-1,-1,-1,-1,-1,-1,-1,-1,-1,-1,-1,-1,-1],"split_conditions":[6.621175E-1,6.572582E-1,1.7734967E-2,3.8399246E-1,8.275862E-2,7.876776E-1,9.8790765E-1,7.241379E-2,5E-1,2.7272727E-2,7.010263E-1,2.7272727E-2,8.2218254E-1,6.724138E-2,7.4137926E-2,1.3211198E-2,7.6129995E-2,3.9780295E-1,7.920965E-1,-2.3285236E-2,1.3989916E-1,3.948276E-1,2.6206896E-1,4.0176162E-1,7.703592E-1,9.8790765E-1,8.349742E-1,8.676976E-2,1.8842277E-1,8.2218254E-1,2.1416998E-1,8.550163E-3,5E-1,1.6034484E-1,3.532499E-1,1.2369674E-1,6.594565E-2,3.8608843E-1,2.10659E-1,1.389089E-1,-2.1164272E-2,9.9787235E-1,1.0199856E-1,7.202917E-1,7.6557434E-1,7.563675E-1,6.489825E-2,1.2647606E-1,2.7272727E-2,2.7272727E-2,8.571358E-1,9.859468E-1,9.212121E-1,7.7025306E-1,8.349742E-1,8.2218254E-1,8.349742E-1,1.816945E-2,1.153025E-2,1.5E-1,1.9148362E-1,6.0824133E-2,3.698545E-1,1.3512784E-1,3.989272E-1,8.30303E-1,6.430696E-1,6.9859564E-2,1.39269E-1,2.5344828E-1,2.9137933E-1,3.3636364E-1,5.982759E-1,4.7937497E-2,7.544112E-1,7.515304E-1,9.662405E-1,1.8971917E-1,3.1260082E-1,8.0460525E-1,8.0966675E-1,5.830998E-1,5E-1,8.4844077E-1,2.7272727E-2,1.3793103E-1,3.329152E-2,9.5665354E-1,6.4566076E-1,9.439994E-2,2.2696558E-2,1.4024147E-1,2.2170213E-1,7.6706135E-1,8.349742E-1,8.2218254E-1,4.1528627E-1,-2.8605247E-4,3.1730204E-3,-1.2769119E-3,-2.0662353E-3,2.948355E-3,2.2580886E-4,1.2053703E-2,2.8793395E-3,2.955026E-2,1.8684518E-2,3.6156178E-3,1.3275513E-2,2.992352E-2,4.3478776E-2,1.7270423E-2,2.291433E-2,-5.437768E-3,-1.5245813E-2,1.8373044E-2,8.139891E-3,-1.681513E-3,3.504376E-3,1.9334385E-3,-6.0196253E-3,2.2200886E-2,-1.1020722E-2,-2.8507987E-3,4.2347466E-3,5.903875E-3,2.7991502E-2,3.933141E-3,1.8749656E-2,1.6357076E-3,-5.721205E-3,-1.1048552E-2,-5.20077E-4,1.9937092E-2,-6.23106E-4,2.9892132E-1,9.7711265E-2,2.5190081E-2,-1.3605507E-2,4.9603453E-1,1.15929656E-1,2.710361E-2,2.1602336E-2,1.6260559E-2,1.915183E-2,2.888713E-2,1.553104E-2,1.0218781E-1,5.794474E-2,4.6908617E-2,2.8264873E-2,6.8172514E-2,3.428527E-2,2.8005976E-2,3.9260335E-2,2.6659409E-2,2.3149367E-2],"split_indices":[1,1,5,1,3,1,6,3,0,2,5,2,1,3,3,6,6,1,6,0,5,3,3,0,1,6,1,0,5,1,5,0,0,3,1,0,0,1,5,5,0,10,5,5,5,1,0,0,2,2,1,1,2,1,1,1,1,0,0,3,5,1,1,5,1,2,1,5,5,3,3,2,3,0,5,5,5,0,0,1,1,0,0,1,2,3,0,1,5,0,0,0,10,1,1,1,5,0,0,0,0,0,0,0,0,0,0,0,0,0,0,0,0,0,0,0,0,0,0,0,0,0,0,0,0,0,0,0,0,0,0,0,0,0,0,0,0,0,0,0,0,0,0,0,0,0,0,0,0,0,0,0,0,0,0,0,0],"split_type":[0,0,0,0,0,0,0,0,0,0,0,0,0,0,0,0,0,0,0,0,0,0,0,0,0,0,0,0,0,0,0,0,0,0,0,0,0,0,0,0,0,0,0,0,0,0,0,0,0,0,0,0,0,0,0,0,0,0,0,0,0,0,0,0,0,0,0,0,0,0,0,0,0,0,0,0,0,0,0,0,0,0,0,0,0,0,0,0,0,0,0,0,0,0,0,0,0,0,0,0,0,0,0,0,0,0,0,0,0,0,0,0,0,0,0,0,0,0,0,0,0,0,0,0,0,0,0,0,0,0,0,0,0,0,0,0,0,0,0,0,0,0,0,0,0,0,0,0,0,0,0,0,0,0,0,0,0],"sum_hessian":[7.889E3,3.755E3,4.134E3,1.566E3,2.189E3,5.5E1,4.079E3,8.61E2,7.05E2,8.5E1,2.104E3,8E0,4.7E1,8.35E2,3.244E3,1.1E1,8.5E2,3E0,7.02E2,1.1E1,7.4E1,1.424E3,6.8E2,2E0,6E0,1.4E1,3.3E1,1E0,8.34E2,3.8E1,3.206E3,2E0,9E0,2.82E2,5.68E2,1E0,2E0,3.34E2,3.68E2,6.8E1,6E0,9.14E2,5.1E2,1.6E1,6.64E2,5E0,1E0,1E0,1.3E1,6E0,2.7E1,1.08E2,7.26E2,9E0,2.9E1,5.96E2,2.61E3,5E0,4E0,2.4E1,2.58E2,5.14E2,5.4E1,2.3E1,3.11E2,2.7E1,3.41E2,6.3E1,5E0,6.6E2,2.54E2,6.1E1,4.49E2,2E0,1.4E1,1.33E2,5.31E2,3E0,2E0,4E0,9E0,1E0,5E0,9E0,1.8E1,1E2,8E0,6.34E2,9.2E1,1E0,8E0,8E0,2.1E1,2.97E2,2.99E2,1.778E3,8.32E2,2.1E1,3E0,2.6E1,2.32E2,1.19E2,3.95E2,1.8E1,3.6E1,4E0,1.9E1,4.6E1,2.65E2,2E1,7E0,2.64E2,7.7E1,4.8E1,1.5E1,3E0,2E0,2.46E2,4.14E2,1.34E2,1.2E2,2E0,5.9E1,3.41E2,1.08E2,5E0,9E0,9.9E1,3.4E1,4.48E2,8.3E1,3E0,1E0,8E0,1E0,4E0,1E0,3E0,6E0,2E0,1.6E1,2.4E1,7.6E1,5.09E2,1.25E2,4.6E1,4.6E1,4E0,1.7E1,6.6E1,2.31E2,8.8E1,2.11E2,1.353E3,4.25E2,2.05E2,6.27E2],"tree_param":{"num_deleted":"0","num_feature":"12","num_nodes":"157","size_leaf_vector":"0"}},{"base_weights":[8.575503E-1,1.5577225E-1,1.4898026E0,3.6046314E-1,1.0304904E-2,2.080445E1,1.4328451E0,5.7633612E-2,8.256372E-1,-2.1148108E-1,1.92682E-1,4.195278E1,1.5356039E1,4.1161737E0,1.3816248E0,9.944581E-1,4.127329E-2,2.870335E0,8.07444E-1,-8.826783E-1,-1.7803179E-1,-9.919282E-1,2.2500812E-1,2.0225698E1,5.317771E1,7.9547877E0,3.009797E1,9.821817E0,3.6822956E0,1.5027752E0,8.856447E-1,1.742341E0,8.4857213E-1,-8.266141E-3,2.5818864E-1,6.9868E-1,1.0250038E0,-1.924449E0,-6.85611E-1,-2.7605033E-1,-1.0530862E-1,-1.093376E0,4.624626E-1,2.3741157E-1,-6.1310077E-1,1.3404363E1,7.035315E-2,1.1083015E1,3.2563012E0,1.2081492E0,4.7345147E0,1.9406465E0,1.4137919E0,1.151436E0,8.484146E-1,7.222614E-1,1.3888022E0,8.7491244E-2,-5.3611465E-2,6.0557917E-2,3.8732195E-1,1.464505E0,6.880194E-1,1.5975219E0,9.832457E-1,-5.4954696E-1,-2.4029894E0,-3.646917E-1,-9.135989E-1,-1.9955544E-1,-2.830616E-1,-6.286333E-2,-5.745494E-1,-1.018872E0,-1.5906293E0,1.7695038E0,-9.4953334E-1,1.259374E-1,3.3211365E-1,-7.8066343E-1,5.694742E-1,5.933426E0,2.8717712E1,8.196855E-1,-1.247817E0,3.1962438E0,1.0643276E0,8.536193E0,3.3706243E0,1.5759044E0,2.2718189E0,1.5043998E0,1.1842071E0,9.874895E-1,1.2948495E0,8.053687E-1,9.832204E-1,7.5622755E-1,2.4225697E-1,1.8722041E-1,5.6900512E-2,-8.450146E-2,1.1266782E-2,2.2018746E-1,2.875826E-3,4.4485435E-1,-2.9843375E-1,1.6418484E0,5.112429E-1,5.894259E-1,7.631947E-1,1.0464437E0,7.887524E-1,-2.909902E-1,1.1289889E0,-8.933535E-2,7.7891606E-1,-6.605633E-1,5.7098305E-1,-1.1172652E0,1.8883172E-1,7.599685E-2,8.783489E-1,3.1816256E-1,1.6876309E0,-9.913185E-1,-1.6636467E-1,1.4313606E1,2.904923E-1,1.4480715E0,6.077203E-1,8.94624E0,5.3186274E0,2.8608556E0,8.432503E0,2.2005565E0,1.3361751E0,3.383566E0,1.81589E0,1.3583089E0,1.8746082E0,1.3832461E0,1.1417667E0,1.2366582E0,8.700395E-1,1.4036539E0,6.755487E-1,8.2437724E-1,4.873543E-1,1.5247989E0,9.275568E-1],"categories":[],"categories_nodes":[],"categories_segments":[],"categories_sizes":[],"default_left":[true,true,true,true,true,true,true,true,true,true,true,true,true,true,true,true,true,false,true,true,true,true,true,false,false,true,false,true,true,true,true,false,true,true,true,true,true,true,true,true,true,true,true,true,true,true,true,false,false,true,true,true,true,true,true,true,false,true,true,true,true,true,true,false,true,false,false,false,false,true,false,true,true,true,false,false,false,true,true,true,false,true,false,false,false,false,true,true,true,true,true,true,true,true,true,true,true,false,false,false,false,false,false,false,false,false,false,false,false,false,false,false,false,false,false,false,false,false,false,false,false,false,false,false,false,false,false,false,false,false,false,false,false,false,false,false,false,false,false,false,false,false,false,false,false,false,false,false,false,false,false],"id":46,"left_children":[1,3,5,7,9,11,13,15,17,19,21,23,25,27,29,31,33,-1,35,37,39,41,43,-1,-1,45,-1,47,49,51,53,-1,55,57,59,61,63,65,67,69,71,73,75,77,79,81,83,-1,-1,85,87,89,91,93,95,97,-1,99,101,103,105,107,109,-1,111,-1,-1,-1,-1,113,-1,115,117,119,-1,-1,-1,121,123,125,-1,127,-1,-1,-1,-1,129,131,133,135,137,139,141,143,145,147,149,-1,-1,-1,-1,-1,-1,-1,-1,-1,-1,-1,-1,-1,-1,-1,-1,-1,-1,-1,-1,-1,-1,-1,-1,-1,-1,-1,-1,-1,-1,-1,-1,-1,-1,-1,-1,-1,-1,-1,-1,-1,-1,-1,-1,-1,-1,-1,-1,-1,-1,-1,-1,-1,-1],"loss_changes":[3.5452163E3,1.127645E2,4.613885E3,2.216046E2,8.958019E1,1.2054717E3,5.740869E2,1.4583044E1,2.2250916E1,2.236858E1,4.6603283E1,2.0938428E2,1.0470886E3,1.816654E2,2.4668457E2,1.252079E0,1.0076733E1,0E0,1.4297028E1,9.240288E0,6.773308E0,4.94825E0,1.2344467E1,0E0,0E0,3.145892E2,0E0,3.192395E1,1.8892004E2,1.2782373E2,7.6445312E0,0E0,6.1346054E-1,3.3155894E0,4.434903E0,2.9914856E0,4.3244324E0,4.3425446E0,2.8216877E0,1.9166946E-1,1.0880138E1,5.4611206E-1,4.8785043E0,1.2292305E1,3.5859852E0,4.384552E2,3.6276023E0,0E0,0E0,5.1906433E0,2.5640332E2,6.6072754E1,5.6539062E1,1.8530731E0,3.832367E0,1.2574911E-1,0E0,7.4142563E-1,1.0401483E0,6.3501346E-1,4.2021E0,5.9102726E-1,2.8423462E0,0E0,2.0503693E0,0E0,0E0,0E0,0E0,4.389739E0,0E0,1.1207167E1,4.5938396E0,3.3316288E0,0E0,0E0,0E0,2.0117306E1,1.1712555E1,1.9127197E0,0E0,1.5604095E2,0E0,0E0,0E0,0E0,3.415268E0,1.5209961E0,9.070935E1,3.8851807E1,1.4554736E2,1.0561426E2,6.020508E0,9.963608E-1,3.113121E0,3.113617E0,4.6282806E0,0E0,0E0,0E0,0E0,0E0,0E0,0E0,0E0,0E0,0E0,0E0,0E0,0E0,0E0,0E0,0E0,0E0,0E0,0E0,0E0,0E0,0E0,0E0,0E0,0E0,0E0,0E0,0E0,0E0,0E0,0E0,0E0,0E0,0E0,0E0,0E0,0E0,0E0,0E0,0E0,0E0,0E0,0E0,0E0,0E0,0E0,0E0,0E0,0E0,0E0,0E0,0E0,0E0,0E0],"parents":[2147483647,0,0,1,1,2,2,3,3,4,4,5,5,6,6,7,7,8,8,9,9,10,10,11,11,12,12,13,13,14,14,15,15,16,16,18,18,19,19,20,20,21,21,22,22,25,25,27,27,28,28,29,29,30,30,32,32,33,33,34,34,35,35,36,36,37,37,38,38,39,39,40,40,41,41,42,42,43,43,44,44,45,45,46,46,49,49,50,50,51,51,52,52,53,53,54,54,55,55,57,57,58,58,59,59,60,60,61,61,62,62,64,64,69,69,71,71,72,72,73,73,77,77,78,78,79,79,81,81,86,86,87,87,88,88,89,89,90,90,91,91,92,92,93,93,94,94,95,95,96,96],"right_children":[2,4,6,8,10,12,14,16,18,20,22,24,26,28,30,32,34,-1,36,38,40,42,44,-1,-1,46,-1,48,50,52,54,-1,56,58,60,62,64,66,68,70,72,74,76,78,80,82,84,-1,-1,86,88,90,92,94,96,98,-1,100,102,104,106,108,110,-1,112,-1,-1,-1,-1,114,-1,116,118,120,-1,-1,-1,122,124,126,-1,128,-1,-1,-1,-1,130,132,134,136,138,140,142,144,146,148,150,-1,-1,-1,-1,-1,-1,-1,-1,-1,-1,-1,-1,-1,-1,-1,-1,-1,-1,-1,-1,-1,-1,-1,-1,-1,-1,-1,-1,-1,-1,-1,-1,-1,-1,-1,-1,-1,-1,-1,-1,-1,-1,-1,-1,-1,-1,-1,-1,-1,-1,-1,-1,-1,-1],"split_conditions":[6.621175E-1,6.572582E-1,2.2506302E-3,3.989272E-1,1.6666667E-1,1.6666667E-1,7.4137926E-2,7.241379E-2,7.241379E-2,3.6190134E-2,7.4137926E-2,7.9600966E-1,8.7090075E-1,7.6935333E-1,7.090609E-2,2.2506302E-3,5.1907774E-2,5.74067E-2,6.341465E-1,2.2506302E-3,5.5555556E-2,1.39269E-1,9.8424554E-1,4.0451396E-1,1.0635542E0,8.349742E-1,6.0195935E-1,5E-1,8.2218254E-1,1.903133E-1,1.9283399E-1,3.484682E-2,3.532499E-1,1.0025515E-1,3.443045E-1,3.9791144E-2,1.09200574E-1,5.5555556E-2,5.5555556E-2,1.1307166E-1,7.258621E-1,1.3665827E-1,1.3989916E-1,2.777778E-1,9.985596E-1,8.2218254E-1,2.777778E-1,2.216603E-1,6.5126024E-2,7.8173023E-1,8.349742E-1,8.2218254E-1,8.4422266E-1,8.224432E-1,9.345995E-1,3.340938E-1,2.7776042E-2,2.4522866E-1,2.4990782E-2,3.1986278E-1,3.92902E-1,4.9505365E-1,4.4565028E-1,3.1950437E-2,7.090609E-2,-1.0990939E-2,-4.8059788E-2,-7.293834E-3,-1.8271977E-2,1.11001074E-1,-5.661232E-3,7.1034485E-1,9.9234784E-1,1.3404754E-1,-3.1812586E-2,3.5390075E-2,-1.8990666E-2,7.862069E-1,9.8001444E-1,5E-1,1.1389484E-2,7.876776E-1,5.7435423E-1,1.639371E-2,-2.495634E-2,6.392487E-2,1.6666667E-1,6.724138E-2,5E-1,7.7943826E-1,8.349742E-1,8.2218254E-1,3.436262E-1,7.2427094E-1,5.8854413E-1,9.02244E-1,9.4889903E-1,1.5124551E-2,4.845139E-3,3.744408E-3,1.1380102E-3,-1.6900292E-3,2.2533564E-4,4.403749E-3,5.751652E-5,8.897087E-3,-5.968675E-3,3.283697E-2,1.0224858E-2,1.1788518E-2,1.5263894E-2,2.0928873E-2,1.5775047E-2,-5.819804E-3,2.2579776E-2,-1.786707E-3,1.5578321E-2,-1.3211265E-2,1.141966E-2,-2.2345304E-2,3.7766343E-3,1.5199371E-3,1.7566977E-2,6.3632512E-3,3.3752616E-2,-1.982637E-2,-3.3272933E-3,2.862721E-1,5.809846E-3,2.896143E-2,1.2154406E-2,1.789248E-1,1.0637254E-1,5.721711E-2,1.6865005E-1,4.401113E-2,2.67235E-2,6.7671314E-2,3.63178E-2,2.7166178E-2,3.7492163E-2,2.766492E-2,2.2835333E-2,2.4733163E-2,1.740079E-2,2.8073076E-2,1.3510973E-2,1.6487544E-2,9.747086E-3,3.0495977E-2,1.8551135E-2],"split_indices":[1,1,5,1,4,4,3,3,3,5,3,1,1,1,7,5,9,0,1,5,4,5,5,0,0,1,0,0,1,5,5,0,1,1,1,5,5,4,4,5,3,5,5,4,5,1,4,0,0,1,1,1,1,1,1,1,0,5,9,1,1,1,1,0,7,0,0,0,0,5,0,3,5,5,0,0,0,3,5,4,0,1,0,0,0,0,4,3,4,1,1,1,5,1,7,1,1,0,0,0,0,0,0,0,0,0,0,0,0,0,0,0,0,0,0,0,0,0,0,0,0,0,0,0,0,0,0,0,0,0,0,0,0,0,0,0,0,0,0,0,0,0,0,0,0,0,0,0,0,0,0],"split_type":[0,0,0,0,0,0,0,0,0,0,0,0,0,0,0,0,0,0,0,0,0,0,0,0,0,0,0,0,0,0,0,0,0,0,0,0,0,0,0,0,0,0,0,0,0,0,0,0,0,0,0,0,0,0,0,0,0,0,0,0,0,0,0,0,0,0,0,0,0,0,0,0,0,0,0,0,0,0,0,0,0,0,0,0,0,0,0,0,0,0,0,0,0,0,0,0,0,0,0,0,0,0,0,0,0,0,0,0,0,0,0,0,0,0,0,0,0,0,0,0,0,0,0,0,0,0,0,0,0,0,0,0,0,0,0,0,0,0,0,0,0,0,0,0,0,0,0,0,0,0,0],"sum_hessian":[7.99E3,3.787E3,4.203E3,1.573E3,2.214E3,1.2E1,4.191E3,9.53E2,6.2E2,9.99E2,1.215E3,2E0,1E1,7.8E1,4.113E3,1.6E1,9.37E2,5E0,6.15E2,4.7E1,9.52E2,3.2E1,1.183E3,1E0,1E0,7E0,3E0,5E0,7.3E1,3.305E3,8.08E2,2E0,1.4E1,7.63E2,1.74E2,4.11E2,2.04E2,7E0,4E1,4.05E2,5.47E2,3E1,2E0,1.166E3,1.7E1,4E0,3E0,4E0,1E0,2.2E1,5.1E1,5.57E2,2.748E3,9.8E1,7.1E2,1.2E1,2E0,2.45E2,5.18E2,6.9E1,1.05E2,5E0,4.06E2,1.3E1,1.91E2,2E0,5E0,1.7E1,2.3E1,3.5E1,3.7E2,5.02E2,4.5E1,2.7E1,3E0,1E0,1E0,5.36E2,6.3E2,1.5E1,2E0,3E0,1E0,2E0,1E0,1E0,2.1E1,1.3E1,3.8E1,2.66E2,2.91E2,1.969E3,7.79E2,4.7E1,5.1E1,5.4E2,1.7E2,1.1E1,1E0,5.7E1,1.88E2,3.51E2,1.67E2,1.8E1,5.1E1,9.7E1,8E0,4E0,1E0,1.77E2,2.29E2,1.43E2,4.8E1,3.3E1,2E0,4.87E2,1.5E1,4.2E1,3E0,2.5E1,2E0,5.03E2,3.3E1,6.24E2,6E0,1.1E1,4E0,1E0,2E0,1.1E1,1E1,1.1E1,2E0,3.5E1,3E0,7.3E1,1.93E2,8.4E1,2.07E2,1.413E3,5.56E2,1.35E2,6.44E2,1.4E1,3.3E1,4.3E1,8E0,5.09E2,3.1E1,1.5E1,1.55E2],"tree_param":{"num_deleted":"0","num_feature":"12","num_nodes":"151","size_leaf_vector":"0"}},{"base_weights":[8.263183E-1,1.6187239E-1,1.4307488E0,3.554799E-1,2.5639232E-2,4.9666433E0,1.3621585E0,2.5814394E-2,7.787463E-1,-1.7029598E-1,1.842377E-1,1.2056397E1,4.322775E0,8.7116057E-1,1.4872762E0,8.956956E-1,1.1244461E-2,5.019332E0,7.637105E-1,-1.7893131E0,-1.5975304E-1,-3.8351482E-1,2.3132618E-1,7.02683E0,1.9667698E1,8.3146507E-1,6.050354E0,1.1787132E0,8.2508165E-1,1.9526515E0,1.4021959E0,1.7124742E0,7.157882E-1,-8.442473E-2,6.4961426E-2,6.0659413E0,2.7068024E0,6.469973E-1,1.0284528E0,-5.4012674E-1,-2.3209865E0,-2.747601E-1,-7.320564E-2,-6.7489237E-1,2.9237598E-1,-6.3003814E-1,2.4633548E-1,-5.258415E-1,1.1077998E0,3.6449356E0,8.185666E0,2.4466448E0,1.1338687E0,7.910385E-1,1.0412959E0,1.4943726E0,2.4064236E0,1.4931303E0,1.1731267E0,5.305063E-1,9.231204E-1,1.8355334E-2,-9.278101E-2,3.9771866E-2,3.0879596E-1,5.2452266E-1,7.6542354E-1,1.5330911E0,9.622772E-1,-4.056379E-1,-2.7153295E-1,-3.63334E-2,-4.1542748E-1,-7.7881044E-1,3.319194E-1,1.7085184E0,3.558664E-2,-9.4182205E-1,2.445858E-1,1.5099328E0,2.2847696E-1,-9.0399706E-1,5.4029286E-1,3.1483052E0,9.472161E-1,-2.2147932E0,4.5465045E0,1.783517E1,5.5196533E0,3.2074618E0,1.6561153E0,1.0756801E0,1.4010535E0,7.776006E-1,9.935575E-1,8.617129E-1,1.5072123E0,2.3074386E0,1.3056507E0,3.683153E0,1.940024E0,1.3632476E0,1.8382237E0,1.4332274E0,1.1161251E0,1.0594219E0,2.3862348E-1,6.7733124E-2,-4.4569723E-2,-5.282638E-2,-9.842199E-2,1.7395173E-1,2.4978656E-2,6.0181075E-1,6.335159E-2,6.234438E-1,2.6826838E-1,8.313647E-1,5.195312E-1,1.8947319E0,1.3706338E0,7.0804894E-1,1.03375E0,-2.2060648E-1,-2.7786154E-1,-5.0805997E-2,1.1043531E0,-4.7639441E-1,5.607058E-1,-8.509425E-1,-3.0160654E-1,6.2971807E-1,-9.314913E-1,7.8664607E-1,2.3801172E0,5.9665465E-1,-6.242807E-1,-5.083472E-1,-1.1543465E0,1.8226167E0,-2.5652692E-1,3.2834272E0,2.5100556E-1,1.2418508E-1,3.1256723E-1,-2.618578E-1,-1.7909243E0,1.1704962E0,4.250329E-1,8.056346E-1,-6.9571333E0,1.2697084E1,3.9051833E0,-1.4515748E0,2.9556227E1,8.947699E0,2.5328834E0,1.1010174E0,3.303853E-1,1.587028E0,1.0733455E0,7.867926E-1,4.614899E-1,8.854912E-1,5.138823E-1,3.8485527E0,8.9763737E-1,1.9215713E0,3.9883592E0,-5.892881E-1,1.3161095E0,4.3879223E0,2.9411087E0,3.0789742E0,1.5728844E0,-6.74157E-1,1.3778841E0,1.9168527E0,1.4067293E0,1.067254E0,1.588944E0,1.171021E0,9.776755E-1],"categories":[],"categories_nodes":[],"categories_segments":[],"categories_sizes":[],"default_left":[true,true,true,true,true,true,true,true,true,true,true,true,true,true,true,true,true,true,true,true,true,true,true,false,false,true,true,true,true,true,true,false,true,true,true,false,false,true,true,false,false,true,true,true,true,true,true,true,true,true,true,true,true,true,true,true,true,true,true,false,true,true,true,true,true,true,true,true,true,false,true,true,true,true,true,true,true,true,true,true,true,true,false,false,true,true,true,true,true,false,false,true,true,true,false,true,true,true,true,true,true,true,true,true,true,false,false,false,false,false,false,false,false,false,false,false,false,false,false,false,false,false,false,false,false,false,false,false,false,false,false,false,false,false,false,false,false,false,false,false,false,false,false,false,false,false,false,false,false,false,false,false,false,false,false,false,false,false,false,false,false,false,false,false,false,false,false,false,false,false,false,false,false,false,false,false,false,false,false,false,false,false,false],"id":47,"left_children":[1,3,5,7,9,11,13,15,17,19,21,23,25,27,29,31,33,35,37,39,41,43,45,-1,-1,47,49,51,53,55,57,-1,59,61,63,-1,-1,65,67,-1,-1,69,71,73,75,77,79,81,83,85,87,89,91,93,95,97,99,101,103,-1,105,107,109,111,113,115,117,119,121,-1,123,125,127,129,131,133,135,137,139,141,143,145,-1,-1,147,149,151,153,155,-1,-1,157,159,161,-1,163,165,167,169,171,173,175,177,179,181,-1,-1,-1,-1,-1,-1,-1,-1,-1,-1,-1,-1,-1,-1,-1,-1,-1,-1,-1,-1,-1,-1,-1,-1,-1,-1,-1,-1,-1,-1,-1,-1,-1,-1,-1,-1,-1,-1,-1,-1,-1,-1,-1,-1,-1,-1,-1,-1,-1,-1,-1,-1,-1,-1,-1,-1,-1,-1,-1,-1,-1,-1,-1,-1,-1,-1,-1,-1,-1,-1,-1,-1,-1,-1,-1,-1,-1,-1],"loss_changes":[3.1623223E3,9.893581E1,9.9767676E2,2.1617012E2,6.8448235E1,3.3996875E2,2.4804883E2,1.1027081E1,4.189026E1,1.6695726E1,3.257233E1,1.9598798E2,4.3450464E2,1.1301025E1,1.2666455E2,1.6628284E0,4.4074383E0,4.7229767E-2,2.065216E1,3.7475739E0,9.736183E0,1.8452293E1,1.4582207E1,0E0,0E0,9.329334E0,2.3813794E2,5.069916E0,4.971863E0,1.02167725E2,5.616797E1,0E0,2.8974628E-1,2.6644444E-1,3.3649855E0,0E0,0E0,6.6695404E0,6.3629E0,0E0,0E0,1.3114548E-1,7.0464644E0,6.928152E0,1.0258321E1,5.358879E0,2.4803085E1,1.9151655E0,5.6098347E0,1.26660706E2,6.1855994E2,1.6415977E-1,1.068634E0,1.4052734E0,7.593384E0,3.704889E1,1.4600659E2,8.653613E1,1.0940186E1,0E0,3.9478445E-1,7.383654E-2,6.0418367E-2,9.848811E-1,3.669642E0,5.820915E0,3.7011414E0,4.5827103E-1,3.062317E0,0E0,1.05018616E-1,8.34608E0,3.3213587E0,1.9403343E0,2.5742207E0,2.013442E0,9.13281E0,1.1010561E0,4.39581E0,3.3909805E1,9.542976E0,1.7128465E0,0E0,0E0,2.0654888E0,4.9705124E1,8.951404E1,1.220398E3,2.0046857E2,0E0,0E0,1.4885788E0,4.504013E-1,1.5560913E0,0E0,4.100151E-1,3.636401E1,2.741246E1,4.279022E0,3.0282288E1,7.4980225E1,4.261548E1,1.711438E1,7.279999E0,4.439087E0,0E0,0E0,0E0,0E0,0E0,0E0,0E0,0E0,0E0,0E0,0E0,0E0,0E0,0E0,0E0,0E0,0E0,0E0,0E0,0E0,0E0,0E0,0E0,0E0,0E0,0E0,0E0,0E0,0E0,0E0,0E0,0E0,0E0,0E0,0E0,0E0,0E0,0E0,0E0,0E0,0E0,0E0,0E0,0E0,0E0,0E0,0E0,0E0,0E0,0E0,0E0,0E0,0E0,0E0,0E0,0E0,0E0,0E0,0E0,0E0,0E0,0E0,0E0,0E0,0E0,0E0,0E0,0E0,0E0,0E0,0E0,0E0,0E0,0E0,0E0,0E0,0E0,0E0],"parents":[2147483647,0,0,1,1,2,2,3,3,4,4,5,5,6,6,7,7,8,8,9,9,10,10,11,11,12,12,13,13,14,14,15,15,16,16,17,17,18,18,19,19,20,20,21,21,22,22,25,25,26,26,27,27,28,28,29,29,30,30,32,32,33,33,34,34,37,37,38,38,41,41,42,42,43,43,44,44,45,45,46,46,47,47,48,48,49,49,50,50,51,51,52,52,53,53,54,54,55,55,56,56,57,57,58,58,60,60,61,61,62,62,63,63,64,64,65,65,66,66,67,67,68,68,70,70,71,71,72,72,73,73,74,74,75,75,76,76,77,77,78,78,79,79,80,80,81,81,84,84,85,85,86,86,87,87,88,88,91,91,92,92,93,93,95,95,96,96,97,97,98,98,99,99,100,100,101,101,102,102,103,103,104,104],"right_children":[2,4,6,8,10,12,14,16,18,20,22,24,26,28,30,32,34,36,38,40,42,44,46,-1,-1,48,50,52,54,56,58,-1,60,62,64,-1,-1,66,68,-1,-1,70,72,74,76,78,80,82,84,86,88,90,92,94,96,98,100,102,104,-1,106,108,110,112,114,116,118,120,122,-1,124,126,128,130,132,134,136,138,140,142,144,146,-1,-1,148,150,152,154,156,-1,-1,158,160,162,-1,164,166,168,170,172,174,176,178,180,182,-1,-1,-1,-1,-1,-1,-1,-1,-1,-1,-1,-1,-1,-1,-1,-1,-1,-1,-1,-1,-1,-1,-1,-1,-1,-1,-1,-1,-1,-1,-1,-1,-1,-1,-1,-1,-1,-1,-1,-1,-1,-1,-1,-1,-1,-1,-1,-1,-1,-1,-1,-1,-1,-1,-1,-1,-1,-1,-1,-1,-1,-1,-1,-1,-1,-1,-1,-1,-1,-1,-1,-1,-1,-1,-1,-1,-1,-1],"split_conditions":[6.621175E-1,6.572582E-1,6.724138E-2,3.8253418E-1,1.6666667E-1,7.703592E-1,9.8790765E-1,6.724138E-2,5E-1,2.7272727E-2,1.3793103E-1,7.5787616E-1,8.2218254E-1,1.85722E-1,1.7347857E-1,2.7272727E-2,7.6129995E-2,3.9780295E-1,6.341465E-1,5.5555556E-2,5.5555556E-2,1.6897732E-1,3.6280155E-2,1.405366E-1,3.9335394E-1,2.7272727E-2,2.777778E-1,2.4936981E-2,9.212121E-1,8.2218254E-1,8.4422266E-1,3.4249485E-2,2.4674535E-1,1.6034484E-1,3.532499E-1,1.21318825E-1,5.4136045E-2,4.4565028E-1,2.3280519E-1,-1.0802534E-2,-4.641973E-2,5E-1,8.960209E-1,5E-1,6.636363E-1,3.888889E-1,5.3384945E-2,4.4444448E-1,7.8173023E-1,2.7272727E-2,2.7272727E-2,7.822553E-1,9.212121E-1,9.859468E-1,9.345995E-1,7.6706135E-1,8.349742E-1,8.2218254E-1,3.4308606E-1,1.0610126E-2,5E-1,1.8293121E-1,2.1552035E-1,1.1244148E-1,3.698545E-1,4.3256068E-1,6.324857E-1,4.051134E-2,9.689189E-1,-8.1127575E-3,1.1307166E-1,8.206897E-1,9.9234784E-1,1.6105509E-1,8.62069E-2,4.2424244E-1,2.777778E-1,3.3636364E-1,2.4827586E-1,4.1296717E-4,2.777778E-1,2.777778E-1,1.0805857E-2,6.29661E-2,7.958708E-1,8.7090075E-1,8.349742E-1,8.7090075E-1,8.349742E-1,6.414924E-2,3.3122305E-2,1.7293842E-1,2.4482758E-1,9.699887E-1,1.987115E-2,8.9569235E-1,9.532107E-1,9.212121E-1,5.5555556E-2,2.5344828E-1,4.6903133E-2,5.5555556E-2,8.349742E-1,8.76709E-1,3.888889E-1,2.1188438E-2,4.7724694E-3,1.3546625E-3,-8.9139445E-4,-1.0565276E-3,-1.9684397E-3,3.4790346E-3,4.995731E-4,1.2036215E-2,1.2670317E-3,1.2468875E-2,5.3653675E-3,1.6627293E-2,1.03906235E-2,3.7894636E-2,2.7412675E-2,1.4160979E-2,2.0675E-2,-4.4121295E-3,-5.5572307E-3,-1.01612E-3,2.2087062E-2,-9.527888E-3,1.1214116E-2,-1.7018849E-2,-6.0321307E-3,1.2594361E-2,-1.8629827E-2,1.5732922E-2,4.7602344E-2,1.1933093E-2,-1.2485613E-2,-1.0166944E-2,-2.308693E-2,3.6452334E-2,-5.1305383E-3,6.5668546E-2,5.020111E-3,2.4837016E-3,6.2513445E-3,-5.237156E-3,-3.5818484E-2,2.3409924E-2,8.500658E-3,1.6112693E-2,-1.3914266E-1,2.5394168E-1,7.810366E-2,-2.9031495E-2,5.9112453E-1,1.7895396E-1,5.0657667E-2,2.2020347E-2,6.6077057E-3,3.174056E-2,2.146691E-2,1.5735852E-2,9.229798E-3,1.7709823E-2,1.0277646E-2,7.6971054E-2,1.7952748E-2,3.8431425E-2,7.976718E-2,-1.1785762E-2,2.632219E-2,8.7758444E-2,5.8822174E-2,6.1579484E-2,3.145769E-2,-1.3483141E-2,2.7557682E-2,3.8337052E-2,2.8134586E-2,2.1345079E-2,3.177888E-2,2.342042E-2,1.9553509E-2],"split_indices":[1,1,3,1,4,1,6,3,0,2,3,1,1,5,5,2,6,1,1,4,4,5,5,0,0,2,4,5,2,1,1,0,1,3,1,0,0,1,5,0,0,0,5,4,2,4,5,4,1,2,2,1,2,1,1,1,1,1,5,0,0,5,5,5,1,1,1,5,6,0,5,3,5,5,3,2,4,2,3,8,4,4,0,0,1,1,1,1,1,0,0,5,3,1,0,1,1,2,4,3,5,4,1,1,4,0,0,0,0,0,0,0,0,0,0,0,0,0,0,0,0,0,0,0,0,0,0,0,0,0,0,0,0,0,0,0,0,0,0,0,0,0,0,0,0,0,0,0,0,0,0,0,0,0,0,0,0,0,0,0,0,0,0,0,0,0,0,0,0,0,0,0,0,0,0,0,0,0,0,0,0,0,0],"split_type":[0,0,0,0,0,0,0,0,0,0,0,0,0,0,0,0,0,0,0,0,0,0,0,0,0,0,0,0,0,0,0,0,0,0,0,0,0,0,0,0,0,0,0,0,0,0,0,0,0,0,0,0,0,0,0,0,0,0,0,0,0,0,0,0,0,0,0,0,0,0,0,0,0,0,0,0,0,0,0,0,0,0,0,0,0,0,0,0,0,0,0,0,0,0,0,0,0,0,0,0,0,0,0,0,0,0,0,0,0,0,0,0,0,0,0,0,0,0,0,0,0,0,0,0,0,0,0,0,0,0,0,0,0,0,0,0,0,0,0,0,0,0,0,0,0,0,0,0,0,0,0,0,0,0,0,0,0,0,0,0,0,0,0,0,0,0,0,0,0,0,0,0,0,0,0,0,0,0,0,0,0,0,0],"sum_hessian":[7.874E3,3.751E3,4.123E3,1.549E3,2.202E3,7.8E1,4.045E3,8.71E2,6.78E2,9.85E2,1.217E3,6E0,7.2E1,8.22E2,3.223E3,1.4E1,8.57E2,2E0,6.76E2,6E0,9.79E2,9.3E1,1.124E3,4E0,2E0,2.4E1,4.8E1,1.06E2,7.16E2,4.97E2,2.726E3,2E0,1.2E1,3.08E2,5.49E2,1E0,1E0,4.7E2,2.06E2,2E0,4E0,4.2E2,5.59E2,6.5E1,2.8E1,1.9E1,1.105E3,4E0,2E1,2.3E1,2.5E1,3E0,1.03E2,6.2E2,9.6E1,2.48E2,2.49E2,1.95E3,7.76E2,7E0,5E0,2.3E1,2.85E2,4.98E2,5.1E1,2.32E2,2.38E2,2.3E1,1.83E2,9E0,4.11E2,5.05E2,5.4E1,5.9E1,6E0,4E0,2.4E1,1.4E1,5E0,1.5E1,1.09E3,3E0,1E0,1E0,1.9E1,3E0,2E1,5E0,2E1,1E0,2E0,8.6E1,1.7E1,5.83E2,3.7E1,7E1,2.6E1,4.6E1,2.02E2,6.6E1,1.83E2,1.418E3,5.32E2,1.38E2,6.38E2,4E0,1E0,1.3E1,1E1,3.6E1,2.49E2,4.9E1,4.49E2,2.3E1,2.8E1,1.67E2,6.5E1,1.87E2,5.1E1,6E0,1.7E1,4.1E1,1.42E2,4.7E1,3.64E2,4.99E2,6E0,5.1E1,3E0,5.1E1,8E0,5E0,1E0,2E0,2E0,1.3E1,1.1E1,5E0,9E0,1E0,4E0,6E0,9E0,4.87E2,6.03E2,2E0,1E0,1.3E1,6E0,2E0,1E0,1E0,1.9E1,2E0,3E0,9E0,1.1E1,8.3E1,3E0,1E1,7E0,5.66E2,1.7E1,6.5E1,5E0,5E0,2.1E1,3.8E1,8E0,1E0,2.01E2,3.3E1,3.3E1,4.4E1,1.39E2,1E1,1.408E3,4.49E2,8.3E1,4.2E1,9.6E1,4.55E2,1.83E2],"tree_param":{"num_deleted":"0","num_feature":"12","num_nodes":"183","size_leaf_vector":"0"}},{"base_weights":[7.968243E-1,1.2720731E-1,1.4143324E0,3.6521384E-1,-4.2988617E-2,6.1671014E0,1.3211434E0,5.5314913E-2,8.08667E-1,-2.0210291E-1,8.290032E-2,1.1365725E1,4.895854E0,8.636277E-1,1.4389318E0,9.774906E-1,4.194826E-2,2.0500267E0,7.8435177E-1,-5.2408E-1,-1.7830253E-1,-2.1250377E0,9.062854E-2,4.0866327E0,1.5897534E1,3.0593386E0,5.8258243E0,1.1665748E0,8.2762814E-1,1.819062E0,1.3658634E0,6.720296E-1,1.5568835E0,-4.195728E-3,2.5488603E-1,2.8728616E0,1.5384005E0,5.95573E-1,9.150194E-1,-1.4265751E0,-4.593438E-1,-2.6488718E-1,-1.1370508E-1,-2.0648073E-2,1.8461715E-1,1.9627357E1,-5.1690243E-2,8.149314E0,2.9024237E1,8.924958E0,1.1948198E0,9.416608E0,4.126925E0,1.1178787E0,1.5817615E0,7.9774094E-1,1.0302763E0,1.4808463E0,2.1548836E0,1.4519988E0,1.138916E0,1.2267271E0,3.424418E-1,5.7921016E-1,1.7879516E0,1.3181491E-1,-3.838787E-2,7.079507E-2,3.6604974E-1,3.230341E0,1.2500831E0,1.6569339E0,4.911059E-1,7.2915894E-1,4.9027103E-1,1.2552872E0,8.654456E-1,-5.30868E-1,-2.1123006E0,-2.760088E-1,-5.543531E-1,-1.750909E-1,-2.724318E-1,1.185082E0,-1.2699787E-1,-5.7516586E-2,6.0901624E-1,8.0309E-1,1.5621105E-1,2.0417912E0,-6.852787E0,1.2681948E1,-1.4266922E0,1.1413748E1,4.0880466E0,3.1010852E0,1.0139242E0,1.4766788E1,7.385431E0,3.9942694E-1,5.2886353E0,1.2083083E0,9.200327E-1,9.2671865E-1,7.7112424E-1,8.254655E-1,1.6410738E0,2.01259E0,1.2882822E0,3.3363733E0,1.6589564E0,1.3133868E0,1.8205537E0,1.248096E0,1.0722952E0,4.2086217E-1,-4.615534E-2,5.7100433E-1,1.2162132E-1,-7.9220966E-2,3.0222094E-2,3.1085506E-1,4.7802817E-2,4.2663446E-1,-3.3269492E-1,8.0457604E-1,6.3297117E-1,2.5467807E-1,6.536904E-1,1.0302438E0,1.624139E0,7.9941934E-1,1.049564E0,-3.6347866E-1,-1.6132207E-1,-2.9794803E-1,-7.28815E-1,-2.7608725E-1,1.1134175E0,1.6498239E0,-6.108865E-1,-2.940954E-1,-7.205542E-2,9.679785E-3,-7.053505E-1,9.157174E-1,-9.4069326E-1,4.1387397E-1,8.861582E0,-3.4697282E-1,2.064647E-1,6.228527E0,1.5845828E-1,5.1578856E0,2.8308764E1,1.350866E0,6.346977E-1,8.336659E0,5.423569E0,1.0911677E0,-1.601317E-1,7.568249E0,2.8521514E0,1.443506E0,1.0523214E0,8.337473E-1,1.682225E0,8.417243E-1,2.0686705E0,8.0523896E-1,6.8923014E-1,1.1868397E0,7.7334404E-1,8.2011914E-1,4.3577724E0,1.7514716E0,2.8761213E0,-5.804497E-1,1.2991923E0,3.9266539E0,2.650094E0,9.279646E-1,1.9306501E0,-6.922164E-1,1.3277407E0,1.9040183E0,1.3799212E0,1.056644E0,1.335235E0,8.2235736E-1,1.0870324E0],"categories":[],"categories_nodes":[],"categories_segments":[],"categories_sizes":[],"default_left":[true,true,true,true,true,true,true,true,true,true,true,true,true,true,true,true,true,true,true,true,true,false,true,true,true,true,true,true,true,true,true,true,true,true,true,true,true,true,true,true,true,true,true,true,true,false,true,true,false,true,true,true,true,true,false,true,true,true,true,true,true,false,true,false,false,true,true,true,true,false,false,false,false,true,true,true,true,false,false,true,true,true,false,true,true,true,true,true,true,true,false,true,false,false,false,false,true,false,true,true,true,true,true,true,true,true,true,true,true,true,true,true,true,true,true,false,false,false,false,false,false,false,false,false,false,false,false,false,false,false,false,false,false,false,false,false,false,false,false,false,false,false,false,false,false,false,false,false,false,false,false,false,false,false,false,false,false,false,false,false,false,false,false,false,false,false,false,false,false,false,false,false,false,false,false,false,false,false,false,false,false,false,false,false,false,false,false,false,false,false,false],"id":48,"left_children":[1,3,5,7,9,11,13,15,17,19,21,23,25,27,29,31,33,35,37,39,41,-1,43,45,47,49,51,53,55,57,59,61,63,65,67,69,71,73,75,77,79,81,83,85,87,-1,89,91,-1,93,95,97,99,101,-1,103,105,107,109,111,113,-1,115,-1,-1,117,119,121,123,-1,-1,-1,-1,125,127,129,131,-1,-1,133,135,137,-1,139,141,143,145,147,149,151,-1,153,-1,-1,-1,-1,155,-1,157,159,161,163,165,167,169,171,173,175,177,179,181,183,185,187,189,-1,-1,-1,-1,-1,-1,-1,-1,-1,-1,-1,-1,-1,-1,-1,-1,-1,-1,-1,-1,-1,-1,-1,-1,-1,-1,-1,-1,-1,-1,-1,-1,-1,-1,-1,-1,-1,-1,-1,-1,-1,-1,-1,-1,-1,-1,-1,-1,-1,-1,-1,-1,-1,-1,-1,-1,-1,-1,-1,-1,-1,-1,-1,-1,-1,-1,-1,-1,-1,-1,-1,-1,-1,-1,-1,-1],"loss_changes":[3.2827847E3,1.5431734E2,1.8265234E3,2.1825055E2,4.450222E1,5.055061E2,2.178794E2,1.1501083E1,1.9143585E1,7.4789543E0,2.1199543E1,4.838623E2,1.03805176E2,8.7052E0,8.8600586E1,1.9790878E0,9.066594E0,3.6554527E0,1.5616699E1,3.6884747E0,5.0985546E0,0E0,1.2934093E1,4.0793915E2,8.698887E2,2.4055089E2,2.4509778E2,1.1375504E0,4.2019043E0,5.7756348E1,5.2256836E1,1.5438914E0,5.998621E-1,3.5269806E0,3.3480854E0,1.1033592E0,7.3251534E-1,3.567665E0,5.989319E0,2.2500162E0,1.040309E0,2.4215317E-1,9.087452E0,1.3151125E1,1.17211685E1,0E0,8.067235E1,2.810955E2,0E0,4.8423767E1,4.8699665E0,1.0821289E2,1.2623639E2,1.0182953E0,0E0,1.9665833E0,1.1314003E1,2.56427E1,1.5003503E2,9.920166E1,4.9418945E0,0E0,2.0482826E-1,0E0,0E0,6.4894724E-1,1.7001752E0,3.3397958E-1,4.380781E0,0E0,0E0,0E0,0E0,6.4632034E-1,5.642433E0,3.333191E0,3.7217255E0,0E0,0E0,1.9700158E-1,1.7619085E0,4.168136E0,0E0,4.8025565E0,4.75558E0,2.3316383E1,1.51796255E1,9.0648926E1,1.623917E1,3.3749275E1,0E0,4.6034845E2,0E0,0E0,0E0,0E0,1.7728081E0,0E0,4.010071E0,2.9101114E0,1.1669861E2,1.4145355E0,1.2282486E0,9.98967E0,1.3031921E0,1.0095596E0,5.0774673E1,1.3662231E1,4.1626587E0,2.735852E1,3.5772858E1,4.131958E1,1.8728271E1,4.1722107E0,1.3886719E0,0E0,0E0,0E0,0E0,0E0,0E0,0E0,0E0,0E0,0E0,0E0,0E0,0E0,0E0,0E0,0E0,0E0,0E0,0E0,0E0,0E0,0E0,0E0,0E0,0E0,0E0,0E0,0E0,0E0,0E0,0E0,0E0,0E0,0E0,0E0,0E0,0E0,0E0,0E0,0E0,0E0,0E0,0E0,0E0,0E0,0E0,0E0,0E0,0E0,0E0,0E0,0E0,0E0,0E0,0E0,0E0,0E0,0E0,0E0,0E0,0E0,0E0,0E0,0E0,0E0,0E0,0E0,0E0,0E0,0E0,0E0,0E0,0E0,0E0,0E0,0E0],"parents":[2147483647,0,0,1,1,2,2,3,3,4,4,5,5,6,6,7,7,8,8,9,9,10,10,11,11,12,12,13,13,14,14,15,15,16,16,17,17,18,18,19,19,20,20,22,22,23,23,24,24,25,25,26,26,27,27,28,28,29,29,30,30,31,31,32,32,33,33,34,34,35,35,36,36,37,37,38,38,39,39,40,40,41,41,42,42,43,43,44,44,46,46,47,47,49,49,50,50,51,51,52,52,53,53,55,55,56,56,57,57,58,58,59,59,60,60,62,62,65,65,66,66,67,67,68,68,73,73,74,74,75,75,76,76,79,79,80,80,81,81,83,83,84,84,85,85,86,86,87,87,88,88,89,89,91,91,96,96,98,98,99,99,100,100,101,101,102,102,103,103,104,104,105,105,106,106,107,107,108,108,109,109,110,110,111,111,112,112,113,113,114,114],"right_children":[2,4,6,8,10,12,14,16,18,20,22,24,26,28,30,32,34,36,38,40,42,-1,44,46,48,50,52,54,56,58,60,62,64,66,68,70,72,74,76,78,80,82,84,86,88,-1,90,92,-1,94,96,98,100,102,-1,104,106,108,110,112,114,-1,116,-1,-1,118,120,122,124,-1,-1,-1,-1,126,128,130,132,-1,-1,134,136,138,-1,140,142,144,146,148,150,152,-1,154,-1,-1,-1,-1,156,-1,158,160,162,164,166,168,170,172,174,176,178,180,182,184,186,188,190,-1,-1,-1,-1,-1,-1,-1,-1,-1,-1,-1,-1,-1,-1,-1,-1,-1,-1,-1,-1,-1,-1,-1,-1,-1,-1,-1,-1,-1,-1,-1,-1,-1,-1,-1,-1,-1,-1,-1,-1,-1,-1,-1,-1,-1,-1,-1,-1,-1,-1,-1,-1,-1,-1,-1,-1,-1,-1,-1,-1,-1,-1,-1,-1,-1,-1,-1,-1,-1,-1,-1,-1,-1,-1,-1,-1],"split_conditions":[6.621175E-1,6.572582E-1,6.724138E-2,3.989272E-1,1.6666667E-1,2.7272727E-2,9.8790765E-1,2.6017286E-2,3.9791144E-2,5.878646E-2,2.7272727E-2,2.777778E-1,8.2218254E-1,1.742888E-1,1.903133E-1,6.736668E-2,3.9510223E-1,1.2068965E-1,6.028142E-1,2.7272727E-2,5.5555556E-2,-4.2500753E-2,2.777778E-1,7.7843237E-1,8.7090075E-1,7.6935333E-1,8.349742E-1,9.859468E-1,9.212121E-1,8.2218254E-1,8.4422266E-1,1.24566406E-1,5.616971E-2,8.23977E-2,3.443045E-1,7.7575755E-1,4.3965518E-1,4.3256068E-1,2.8501981E-1,5.5555556E-2,1.8905293E-2,1.1379186E-1,6.8509184E-2,7.827586E-1,4.942384E-2,3.9254713E-1,8.664447E-1,8.3943033E-1,5.8048475E-1,5E-1,7.8173023E-1,5E-1,8.571358E-1,8.9569235E-1,3.163523E-2,3.7000358E-1,9.345995E-1,7.7943826E-1,8.349742E-1,8.2218254E-1,5.093626E-1,2.4534542E-2,4.0821142E-2,1.1584203E-2,3.575903E-2,8.62069E-2,1.3484347E-1,1.0280879E-1,3.92902E-1,6.4606816E-2,2.5001662E-2,3.3138677E-2,9.822118E-3,4.1206574E-1,4.4565028E-1,7.5757575E-1,8.30303E-1,-1.061736E-2,-4.224601E-2,5.5555556E-2,5.5555556E-2,1.1190133E-1,-5.4486357E-3,8.060606E-1,3.0185452E-1,8.524487E-1,9.7560316E-1,4.3932304E-2,1.592546E-1,9.8790765E-1,-1.3705574E-1,8.0838656E-1,-2.8533844E-2,2.2827496E-1,8.176093E-2,6.2021703E-2,1.6666667E-1,2.9533574E-1,3.888889E-1,1.6666667E-1,5E-1,7.78718E-2,1.561037E-1,3.603709E-1,5.8854413E-1,3.3561397E-1,3.327586E-1,8.30303E-1,5.5555556E-2,2.7068967E-1,8.5870504E-1,5.5555556E-2,8.349742E-1,8.76709E-1,8.486788E-1,8.417243E-3,-9.231068E-4,1.1420086E-2,2.4324262E-3,-1.5844193E-3,6.0444186E-4,6.217101E-3,9.5605635E-4,8.532689E-3,-6.6538984E-3,1.609152E-2,1.2659423E-2,5.0935615E-3,1.3073808E-2,2.0604875E-2,3.2482777E-2,1.5988387E-2,2.0991279E-2,-7.269573E-3,-3.2264413E-3,-5.9589604E-3,-1.45763E-2,-5.521745E-3,2.226835E-2,3.2996476E-2,-1.221773E-2,-5.881908E-3,-1.4411084E-3,1.935957E-4,-1.410701E-2,1.8314349E-2,-1.8813865E-2,8.27748E-3,1.7723162E-1,-6.9394563E-3,4.129294E-3,1.2457054E-1,3.1691655E-3,1.0315771E-1,5.661753E-1,2.7017318E-2,1.2693953E-2,1.6673319E-1,1.0847138E-1,2.1823354E-2,-3.2026337E-3,1.5136498E-1,5.7043027E-2,2.8870119E-2,2.1046428E-2,1.6674947E-2,3.3644497E-2,1.6834484E-2,4.137341E-2,1.6104778E-2,1.3784602E-2,2.3736794E-2,1.546688E-2,1.6402382E-2,8.715545E-2,3.5029434E-2,5.7522424E-2,-1.1608994E-2,2.5983846E-2,7.8533076E-2,5.300188E-2,1.8559292E-2,3.8613003E-2,-1.3844328E-2,2.6554814E-2,3.8080364E-2,2.7598424E-2,2.1132879E-2,2.6704699E-2,1.6447147E-2,2.1740649E-2],"split_indices":[1,1,3,1,4,2,6,5,5,5,2,4,1,5,5,7,6,3,1,2,4,0,4,1,1,1,1,1,2,1,1,1,1,1,1,2,3,1,5,4,5,5,5,3,5,0,1,1,0,0,1,0,1,1,0,5,1,1,1,1,5,0,7,0,0,3,6,5,1,0,0,0,0,1,1,2,2,0,0,4,4,5,0,2,5,5,5,5,5,6,0,1,0,0,0,0,4,0,4,4,0,5,5,5,7,5,3,2,4,3,1,4,1,1,1,0,0,0,0,0,0,0,0,0,0,0,0,0,0,0,0,0,0,0,0,0,0,0,0,0,0,0,0,0,0,0,0,0,0,0,0,0,0,0,0,0,0,0,0,0,0,0,0,0,0,0,0,0,0,0,0,0,0,0,0,0,0,0,0,0,0,0,0,0,0,0,0,0,0,0,0],"split_type":[0,0,0,0,0,0,0,0,0,0,0,0,0,0,0,0,0,0,0,0,0,0,0,0,0,0,0,0,0,0,0,0,0,0,0,0,0,0,0,0,0,0,0,0,0,0,0,0,0,0,0,0,0,0,0,0,0,0,0,0,0,0,0,0,0,0,0,0,0,0,0,0,0,0,0,0,0,0,0,0,0,0,0,0,0,0,0,0,0,0,0,0,0,0,0,0,0,0,0,0,0,0,0,0,0,0,0,0,0,0,0,0,0,0,0,0,0,0,0,0,0,0,0,0,0,0,0,0,0,0,0,0,0,0,0,0,0,0,0,0,0,0,0,0,0,0,0,0,0,0,0,0,0,0,0,0,0,0,0,0,0,0,0,0,0,0,0,0,0,0,0,0,0,0,0,0,0,0,0,0,0,0,0,0,0,0,0,0,0,0,0],"sum_hessian":[7.939E3,3.809E3,4.13E3,1.588E3,2.221E3,7.9E1,4.051E3,9.35E2,6.53E2,9.81E2,1.24E3,1.5E1,6.4E1,8.3E2,3.221E3,1.3E1,9.22E2,1.2E1,6.41E2,6.7E1,9.14E2,4E0,1.236E3,6E0,9E0,2.2E1,4.2E1,8.7E1,7.43E2,5.18E2,2.703E3,9E0,4E0,7.58E2,1.64E2,4E0,8E0,2.63E2,3.78E2,4E0,6.3E1,3.9E2,5.24E2,5.66E2,6.7E2,1E0,5E0,6E0,3E0,5E0,1.7E1,1.3E1,2.9E1,7.9E1,8E0,6.49E2,9.4E1,2.59E2,2.59E2,1.958E3,7.45E2,3E0,6E0,1E0,3E0,1.52E2,6.06E2,6.2E1,1.02E2,3E0,1E0,7E0,1E0,1.15E2,1.48E2,4.7E1,3.31E2,2E0,2E0,2.2E1,4.1E1,3.1E1,3.59E2,5E0,5.19E2,5.35E2,3.1E1,2.9E1,6.41E2,4E0,1E0,4E0,2E0,3E0,2E0,1E0,1.6E1,3E0,1E1,7E0,2.2E1,5.3E1,2.6E1,1.09E2,5.4E2,7.1E1,2.3E1,6.8E1,1.91E2,7.6E1,1.83E2,1.424E3,5.34E2,2.8E2,4.65E2,5E0,1E0,3E0,1.49E2,3.8E2,2.26E2,5E0,5.7E1,9.4E1,8E0,6.3E1,5.2E1,6.1E1,8.7E1,3E1,1.7E1,2.45E2,8.6E1,1.2E1,1E1,1.7E1,2.4E1,2.9E1,2E0,4E0,1E0,1.28E2,3.91E2,4.85E2,5E1,2.6E1,5E0,2.8E1,1E0,5.8E1,5.83E2,1E0,3E0,3E0,1E0,8E0,8E0,6E0,4E0,3E0,4E0,1.1E1,1.1E1,2E1,3.3E1,2.4E1,2E0,1.02E2,7E0,3.79E2,1.61E2,8E0,6.3E1,1.8E1,5E0,5.3E1,1.5E1,1E0,1.9E2,4E1,3.6E1,5E1,1.33E2,1E1,1.414E3,4.48E2,8.6E1,8.9E1,1.91E2,2.7E1,4.38E2],"tree_param":{"num_deleted":"0","num_feature":"12","num_nodes":"191","size_leaf_vector":"0"}},{"base_weights":[7.9777944E-1,1.4688848E-1,1.3872977E0,3.5125995E-1,2.4084111E-3,6.615039E0,1.3165647E0,3.3837594E-2,7.593368E-1,-1.3871034E0,1.0873094E-2,1.1991361E1,4.869252E0,8.560475E-1,1.4390267E0,7.9042447E-1,2.3012036E-2,4.5465727E0,7.4033123E-1,-1.3948941E-1,5.4926157E-2,1.6453861E1,6.1906457E0,1.1871518E1,3.8250306E0,1.2128919E0,8.123097E-1,1.9814947E0,1.3372654E0,2.179095E-1,8.3326966E-1,-8.1669286E-2,7.1410276E-2,5.9481454E0,3.0897841E0,5.6408435E-1,8.9809114E-1,-5.7951484E-2,-3.63516E-1,4.045362E-1,2.5777342E-2,8.024277E0,5.2365665E1,-2.2381592E-1,9.171587E0,8.742137E0,1.4639337E1,1.5284721E0,5.5228777E0,2.3807168E0,1.1651617E0,7.7889335E-1,1.0050133E0,1.5033747E0,2.438656E0,1.4257913E0,1.1131806E0,6.7839944E-1,1.0279404E0,2.194206E-2,-8.949443E-2,4.695994E-2,2.6124233E-1,1.5404992E0,5.46982E-1,1.3740692E0,8.15482E-1,4.244736E-1,-1.064701E-1,6.138884E-1,-4.1166955E-1,3.0435508E-1,1.8572727E0,-2.2541914E-2,1.3134381E-1,1.9082048E1,1.4491495E0,8.548174E-1,-1.2571748E0,5.82984E0,7.9165924E-1,1.2575901E1,3.6525042E0,3.1377044E0,1.6017971E0,1.0344454E0,1.5711058E0,7.455658E-1,9.126621E-1,1.4576657E0,7.936794E-1,2.1297352E0,1.2705169E0,3.6775665E0,1.9211276E0,1.290311E0,1.7977896E0,2.4335365E0,1.1035136E0,9.5039254E-1,2.526675E-1,6.5603733E-1,1.2468299E0,5.082935E-2,-5.438873E-2,-3.258093E-2,-9.3722835E-2,1.4240862E-1,1.8172242E-2,5.582007E-1,1.2232474E-1,1.7438422E0,4.837401E-1,-1.6613244E-1,5.6571037E-1,1.6188053E0,1.1472083E0,7.66523E-1,1.0976262E0,1.4779358E0,-1.1582172E-1,-3.364322E-1,-2.660588E-2,-7.566676E-1,9.2084557E-1,-5.1637655E-1,-1.4717253E-1,4.1907045E-1,-1.6280353E-1,2.6506643E0,3.9779016E-1,-2.860023E-2,1.1897182E0,-4.838171E-3,3.0029833E-1,6.1351085E0,-5.660409E-1,3.0545743E0,7.136496E0,9.8321515E-1,2.7066863E-1,1.4500997E1,4.607811E0,4.6533895E-1,4.9308457E0,1.1082686E0,5.7579917E-1,2.5570786E0,1.3624768E0,7.636659E-1,2.2837433E-1,9.889966E-1,7.974345E-1,9.2521316E-1,4.392111E0,8.635297E-1,6.0812855E-1,3.662441E0,1.7402745E0,1.2901149E0,-4.2788896E-1,2.9386382E0,5.536E0,1.0116682E0,2.221008E0,1.0850265E0,1.3588777E0,1.8737543E0,1.3543658E0,3.5693347E0,1.8934766E0,9.9264413E-1,1.1505338E0],"categories":[],"categories_nodes":[],"categories_segments":[],"categories_sizes":[],"default_left":[true,true,true,true,true,true,true,true,true,false,true,true,true,true,true,true,true,true,true,true,true,true,true,true,true,true,true,true,true,false,true,true,true,false,false,true,true,true,true,true,true,true,false,true,false,false,false,true,true,true,true,true,true,true,true,true,true,true,true,true,true,true,true,true,true,true,true,true,true,true,true,true,true,true,true,false,true,false,false,true,true,true,true,false,false,true,true,true,true,true,true,true,true,true,true,true,true,true,true,false,false,false,false,false,false,false,false,false,false,false,false,false,false,false,false,false,false,false,false,false,false,false,false,false,false,false,false,false,false,false,false,false,false,false,false,false,false,false,false,false,false,false,false,false,false,false,false,false,false,false,false,false,false,false,false,false,false,false,false,false,false,false,false,false,false,false,false,false,false,false,false,false,false],"id":49,"left_children":[1,3,5,7,9,11,13,15,17,-1,19,21,23,25,27,29,31,33,35,37,39,41,43,45,47,49,51,53,55,-1,57,59,61,-1,-1,63,65,67,69,71,73,75,-1,77,-1,-1,-1,79,81,83,85,87,89,91,93,95,97,99,101,103,105,107,109,111,113,115,117,119,121,123,125,127,129,131,133,-1,135,-1,-1,137,139,141,143,-1,-1,145,147,149,151,153,155,157,159,161,163,165,167,169,171,-1,-1,-1,-1,-1,-1,-1,-1,-1,-1,-1,-1,-1,-1,-1,-1,-1,-1,-1,-1,-1,-1,-1,-1,-1,-1,-1,-1,-1,-1,-1,-1,-1,-1,-1,-1,-1,-1,-1,-1,-1,-1,-1,-1,-1,-1,-1,-1,-1,-1,-1,-1,-1,-1,-1,-1,-1,-1,-1,-1,-1,-1,-1,-1,-1,-1,-1,-1,-1,-1,-1,-1,-1,-1],"loss_changes":[3.0355845E3,1.1102832E2,1.5320366E3,2.0170576E2,2.5900515E1,4.9964355E2,2.3057324E2,7.159919E0,4.7843597E1,0E0,1.4509962E1,3.108556E2,2.9417224E2,1.3085876E1,1.776665E2,2.2698832E-1,4.3808503E0,5.48645E-1,1.8671051E1,9.05332E0,1.7256863E1,2.0790151E3,1.219153E2,3.1853027E0,1.4265527E2,4.2268524E0,4.661133E0,1.102688E2,5.349756E1,0E0,8.480215E-2,2.2323E-1,2.736162E0,0E0,0E0,5.055176E0,1.3645508E1,8.538342E0,6.3097286E0,1.8748976E1,7.9820385E0,4.5096875E2,0E0,2.9650295E0,0E0,0E0,0E0,5.013223E1,2.6587762E2,2.2190094E-1,4.214279E0,2.675537E0,1.0327995E1,3.5561035E1,1.6448267E2,9.757666E1,8.924866E0,7.5194955E-1,5.2857876E-2,4.350123E-2,5.8386564E-2,1.4375827E0,2.745213E0,8.3300114E-1,4.261818E0,2.2468567E0,3.910553E0,1.9049282E1,6.0770216E0,2.8992E0,3.4639606E0,6.5822926E0,9.25457E0,7.8776197E0,1.1309574E1,0E0,4.2158894E1,0E0,0E0,1.0472107E0,1.3238325E0,4.391809E1,6.977936E1,0E0,0E0,2.1107254E0,3.170639E0,4.8641663E0,8.491211E-1,5.3775932E1,8.061943E-1,3.7990753E1,6.298706E0,9.927893E1,4.947766E1,1.9634766E1,1.6634888E1,9.3987274E-1,3.5939941E0,0E0,0E0,0E0,0E0,0E0,0E0,0E0,0E0,0E0,0E0,0E0,0E0,0E0,0E0,0E0,0E0,0E0,0E0,0E0,0E0,0E0,0E0,0E0,0E0,0E0,0E0,0E0,0E0,0E0,0E0,0E0,0E0,0E0,0E0,0E0,0E0,0E0,0E0,0E0,0E0,0E0,0E0,0E0,0E0,0E0,0E0,0E0,0E0,0E0,0E0,0E0,0E0,0E0,0E0,0E0,0E0,0E0,0E0,0E0,0E0,0E0,0E0,0E0,0E0,0E0,0E0,0E0,0E0,0E0,0E0,0E0,0E0,0E0,0E0],"parents":[2147483647,0,0,1,1,2,2,3,3,4,4,5,5,6,6,7,7,8,8,10,10,11,11,12,12,13,13,14,14,15,15,16,16,17,17,18,18,19,19,20,20,21,21,22,22,23,23,24,24,25,25,26,26,27,27,28,28,30,30,31,31,32,32,35,35,36,36,37,37,38,38,39,39,40,40,41,41,43,43,47,47,48,48,49,49,50,50,51,51,52,52,53,53,54,54,55,55,56,56,57,57,58,58,59,59,60,60,61,61,62,62,63,63,64,64,65,65,66,66,67,67,68,68,69,69,70,70,71,71,72,72,73,73,74,74,76,76,79,79,80,80,81,81,82,82,85,85,86,86,87,87,88,88,89,89,90,90,91,91,92,92,93,93,94,94,95,95,96,96,97,97,98,98],"right_children":[2,4,6,8,10,12,14,16,18,-1,20,22,24,26,28,30,32,34,36,38,40,42,44,46,48,50,52,54,56,-1,58,60,62,-1,-1,64,66,68,70,72,74,76,-1,78,-1,-1,-1,80,82,84,86,88,90,92,94,96,98,100,102,104,106,108,110,112,114,116,118,120,122,124,126,128,130,132,134,-1,136,-1,-1,138,140,142,144,-1,-1,146,148,150,152,154,156,158,160,162,164,166,168,170,172,-1,-1,-1,-1,-1,-1,-1,-1,-1,-1,-1,-1,-1,-1,-1,-1,-1,-1,-1,-1,-1,-1,-1,-1,-1,-1,-1,-1,-1,-1,-1,-1,-1,-1,-1,-1,-1,-1,-1,-1,-1,-1,-1,-1,-1,-1,-1,-1,-1,-1,-1,-1,-1,-1,-1,-1,-1,-1,-1,-1,-1,-1,-1,-1,-1,-1,-1,-1,-1,-1,-1,-1,-1,-1],"split_conditions":[6.621175E-1,6.572582E-1,1.7734967E-2,3.8399246E-1,2.7272727E-2,2.7272727E-2,9.8790765E-1,2.4576882E-2,1.8181819E-1,-2.7742067E-2,2.3865682E-1,8.349742E-1,7.703592E-1,1.6987756E-1,1.8185093E-1,8.2593434E-4,7.6129995E-2,3.9780295E-1,6.028142E-1,8.30303E-1,2.9258192E-1,8.2218254E-1,8.7090075E-1,7.563675E-1,8.2218254E-1,2.4936981E-2,9.212121E-1,8.2218254E-1,8.4422266E-1,4.35819E-3,2.4243233E-1,4.2424244E-1,3.532499E-1,1.1896291E-1,6.179568E-2,3.9791144E-2,2.768275E-1,4.1296717E-4,3.339935E-2,2.896111E-1,8.30303E-1,7.876776E-1,1.0473133E0,8.4844077E-1,1.8343173E-1,1.7484273E-1,2.9278672E-1,9.8790765E-1,8.349742E-1,7.822553E-1,9.5664775E-1,9.5665354E-1,1.4619164E-1,7.7943826E-1,8.349742E-1,8.2218254E-1,1.8427517E-2,1.24566406E-1,2.607362E-2,2.1308967E-1,1.1091106E-1,6.0824133E-2,3.698545E-1,4.9505365E-1,3.268453E-1,1.4377025E-1,9.212121E-1,6.0565114E-1,5.9596688E-2,7.739557E-2,1.728484E-1,2.8168887E-1,2.917717E-1,9.9783945E-1,6.832013E-1,3.8164097E-1,9.8790765E-1,1.7096348E-2,-2.5143497E-2,7.847458E-1,7.958708E-1,1.8181819E-1,8.7090075E-1,6.275409E-2,3.2035943E-2,8.9569235E-1,1.2285012E-2,9.345995E-1,9.699887E-1,6.2630534E-1,8.9569235E-1,2.0884521E-2,9.533169E-1,9.212121E-1,8.5870504E-1,7.554066E-1,8.349742E-1,1.9301406E-1,8.76709E-1,1.900785E-2,5.05335E-3,1.3120746E-2,2.4936596E-2,1.016587E-3,-1.0877746E-3,-6.516186E-4,-1.8744566E-3,2.8481723E-3,3.6344482E-4,1.1164014E-2,2.4464948E-3,3.4876846E-2,9.6748015E-3,-3.3226486E-3,1.1314207E-2,3.2376107E-2,2.2944165E-2,1.533046E-2,2.1952523E-2,2.9558714E-2,-2.3164344E-3,-6.7286436E-3,-5.321176E-4,-1.5133352E-2,1.8416911E-2,-1.0327531E-2,-2.9434504E-3,8.381409E-3,-3.2560704E-3,5.3013284E-2,7.955804E-3,-5.720046E-4,2.3794364E-2,-9.676342E-5,6.0059666E-3,1.2270217E-1,-1.1320817E-2,6.1091483E-2,1.4272992E-1,1.9664302E-2,5.4133725E-3,2.9001993E-1,9.215622E-2,9.306779E-3,9.861691E-2,2.2165371E-2,1.1515983E-2,5.114157E-2,2.7249536E-2,1.5273318E-2,4.5674867E-3,1.9779932E-2,1.594869E-2,1.8504262E-2,8.784221E-2,1.7270593E-2,1.2162571E-2,7.324882E-2,3.480549E-2,2.5802298E-2,-8.557779E-3,5.877276E-2,1.1071999E-1,2.0233363E-2,4.442016E-2,2.170053E-2,2.7177552E-2,3.7475083E-2,2.7087316E-2,7.1386695E-2,3.786953E-2,1.9852882E-2,2.3010675E-2],"split_indices":[1,1,5,1,2,2,6,5,2,0,5,1,1,5,5,8,6,1,1,2,5,1,1,1,1,5,2,1,1,0,1,2,1,0,0,5,5,8,5,5,2,1,0,1,0,0,0,6,1,1,1,1,11,1,1,1,11,1,7,5,5,1,1,1,6,5,2,11,5,11,5,5,5,5,5,0,6,0,0,1,1,2,1,0,0,1,11,1,1,5,1,11,11,2,1,1,1,5,1,0,0,0,0,0,0,0,0,0,0,0,0,0,0,0,0,0,0,0,0,0,0,0,0,0,0,0,0,0,0,0,0,0,0,0,0,0,0,0,0,0,0,0,0,0,0,0,0,0,0,0,0,0,0,0,0,0,0,0,0,0,0,0,0,0,0,0,0,0,0,0,0,0,0],"split_type":[0,0,0,0,0,0,0,0,0,0,0,0,0,0,0,0,0,0,0,0,0,0,0,0,0,0,0,0,0,0,0,0,0,0,0,0,0,0,0,0,0,0,0,0,0,0,0,0,0,0,0,0,0,0,0,0,0,0,0,0,0,0,0,0,0,0,0,0,0,0,0,0,0,0,0,0,0,0,0,0,0,0,0,0,0,0,0,0,0,0,0,0,0,0,0,0,0,0,0,0,0,0,0,0,0,0,0,0,0,0,0,0,0,0,0,0,0,0,0,0,0,0,0,0,0,0,0,0,0,0,0,0,0,0,0,0,0,0,0,0,0,0,0,0,0,0,0,0,0,0,0,0,0,0,0,0,0,0,0,0,0,0,0,0,0,0,0,0,0,0,0,0,0],"sum_hessian":[7.911E3,3.76E3,4.151E3,1.557E3,2.203E3,5.5E1,4.096E3,8.76E2,6.81E2,1.3E1,2.19E3,1.3E1,4.2E1,8.61E2,3.235E3,1.2E1,8.64E2,3E0,6.78E2,4.96E2,1.694E3,7E0,6E0,5E0,3.7E1,9.3E1,7.68E2,5.1E2,2.725E3,1E0,1.1E1,2.73E2,5.91E2,1E0,2E0,3.21E2,3.57E2,3.64E2,1.32E2,1.3E2,1.564E3,6E0,1E0,2E0,4E0,3E0,2E0,1.6E1,2.1E1,3E0,9E1,6.56E2,1.12E2,2.5E2,2.6E2,1.952E3,7.73E2,7E0,4E0,1.9E1,2.54E2,5.24E2,6.7E1,5E0,3.16E2,5.2E1,3.05E2,3.3E1,3.31E2,6E0,1.26E2,1.22E2,8E0,1.073E3,4.91E2,2E0,4E0,1E0,1E0,2E0,1.4E1,4E0,1.7E1,1E0,2E0,6.9E1,2.1E1,5.27E2,1.29E2,3.5E1,7.7E1,6.7E1,1.83E2,7.6E1,1.84E2,1.432E3,5.2E2,5E0,7.68E2,4E0,3E0,2E0,2E0,1.4E1,5E0,1.8E1,2.36E2,1.21E2,4.03E2,2.1E1,4.6E1,4E0,1E0,8E0,3.08E2,2.4E1,2.8E1,2.61E2,4.4E1,1.1E1,2.2E1,8.5E1,2.46E2,1E0,5E0,9E1,3.6E1,9.8E1,2.4E1,5E0,3E0,1.068E3,5E0,2.72E2,2.19E2,1E0,3E0,1E0,1E0,1E1,4E0,3E0,1E0,5E0,1.2E1,5.9E1,1E1,3E0,1.8E1,5.09E2,1.8E1,7.6E1,5.3E1,3E1,5E0,5.5E1,2.2E1,1.3E1,5.4E1,1.81E2,2E0,5.5E1,2.1E1,4.6E1,1.38E2,3.6E2,1.072E3,4.43E2,7.7E1,1E0,4E0,2.31E2,5.37E2],"tree_param":{"num_deleted":"0","num_feature":"12","num_nodes":"173","size_leaf_vector":"0"}},{"base_weights":[7.603726E-1,2.3877038E-2,8.436449E-1,3.946149E-1,-2.7093905E-1,2.450745E0,8.030782E-1,1.4299325E-2,7.7199644E-1,-4.3687722E-1,-2.6640993E-1,1.4384097E0,3.2569244E0,-2.91141E-3,8.769812E-1,1.090453E0,-6.106546E-3,4.5335374E0,7.209674E-1,-1.4645213E-1,-2.693501E-1,7.4750984E-1,1.6868747E0,2.3602493E0,5.0347276E0,-8.40815E-2,4.7952335E-2,1.198158E0,8.287822E-1,-9.004866E-2,4.7220983E-2,1.0102836E0,6.9123573E0,5.6150204E-1,1.0048227E0,-3.2957157E-1,6.0080945E-1,-1.21714726E-1,-2.7203587E-1,9.144788E-1,-7.3658717E-1,1.2941885E0,2.0465107E0,2.0215924E0,5.4063444E0,7.2039633E0,3.9552295E0,-3.3035085E-3,-9.408525E-2,2.635631E-1,2.80015E-2,8.496782E-1,1.327985E0,6.495577E-1,8.817158E-1,-4.2757273E-2,-9.961624E-2,1.9090411E-1,2.1197058E-2,6.7231774E-1,4.5103127E-1,1.4858224E0,8.173397E-1,1.2534755E0,-1.9140872E-1,-3.125179E-1,4.0744144E-1,-5.910936E-1,-2.707679E-1,6.0242534E-1,1.3957632E0,2.3749927E-1,-1.5371665E0,2.803934E0,1.0070007E0,1.4506792E0,2.827403E0,1.3313191E0,2.6664147E0,3.9972436E0,7.2444515E0,7.9080825E0,4.633188E-1,4.3564477E0,-1.00037724E-1,1.9673564E-2,-7.5521246E-2,-1.1244262E-1,-8.404653E-2,2.1666749E-1,1.218556E0,1.4647393E-1,1.7638674E-2,6.72755E-1,1.0302849E0,1.8468171E0,1.1858544E0,7.341849E-1,5.9404194E-1,4.9314165E-1,9.0549713E-1,-8.635579E-2,8.403398E-4,-5.5079885E-2,-1.0852409E-1,1.441514E-1,2.7564165E-1,3.3556804E-2,-4.4985544E-2,8.837926E-1,6.141884E-1,4.8343286E-1,9.614799E-2,2.244324E0,1.273858E0,6.1703026E-1,8.534035E-1,-1.1247271E-1,-3.4031868E-1,-2.965796E-1,-2.6711679E-1,1.7999943E-1,6.76995E-1,1.7720919E0,3.3003345E-1,1.3013593E0,3.1202242E0,1.6194882E0,5.410149E-1,3.0792025E-1,1.6817E0,4.5387006E0,2.5416045E0,2.4844823E0,1.1159747E0,-1.7637353E-1,3.230373E0,4.824041E0,2.5930958E0,2.8187722E-1,4.5616E0,-3.8125463E-2,7.26247E-2,-6.247509E-2,-1.17490865E-1,-1.0331393E-1,-7.538071E-2,4.0585855E-1,1.1107254E-1,5.3904388E-2,2.489377E-1,-1.5230947E-2,4.0786576E-2,5.617294E-1,1.1260566E0,1.3497932E0,8.3742905E-1,2.56959E0,1.5799074E0,1.8218127E0,1.1275867E0,9.8723173E-1,6.9485134E-1,5.835072E-1,1.2202911E0,5.047425E-1,2.572967E-1,7.726604E-1,9.2646754E-1],"categories":[],"categories_nodes":[],"categories_segments":[],"categories_sizes":[],"default_left":[true,true,true,true,true,true,true,true,true,false,true,true,true,true,true,false,true,true,true,true,true,true,true,true,true,true,true,true,true,true,true,false,false,true,true,false,true,true,true,true,true,true,true,true,true,true,true,true,true,true,true,true,true,true,true,true,true,true,true,true,true,true,true,false,false,true,false,false,true,true,true,false,false,true,true,true,true,true,true,true,false,false,false,true,false,true,false,true,true,true,false,true,true,true,true,true,true,true,true,true,true,false,false,false,false,false,false,false,false,false,false,false,false,false,false,false,false,false,false,false,false,false,false,false,false,false,false,false,false,false,false,false,false,false,false,false,false,false,false,false,false,false,false,false,false,false,false,false,false,false,false,false,false,false,false,false,false,false,false,false,false,false,false,false,false,false,false,false,false],"id":50,"left_children":[1,3,5,7,9,11,13,15,17,-1,19,21,23,25,27,-1,29,31,33,35,37,39,41,43,45,47,49,51,53,55,57,-1,-1,59,61,-1,63,65,67,69,71,73,75,77,79,81,83,85,87,89,91,93,95,97,99,101,103,105,107,109,111,113,115,-1,-1,117,-1,-1,119,121,123,-1,-1,125,127,129,131,133,135,137,-1,-1,-1,139,-1,141,-1,143,145,147,-1,149,151,153,155,157,159,161,163,165,167,-1,-1,-1,-1,-1,-1,-1,-1,-1,-1,-1,-1,-1,-1,-1,-1,-1,-1,-1,-1,-1,-1,-1,-1,-1,-1,-1,-1,-1,-1,-1,-1,-1,-1,-1,-1,-1,-1,-1,-1,-1,-1,-1,-1,-1,-1,-1,-1,-1,-1,-1,-1,-1,-1,-1,-1,-1,-1,-1,-1,-1,-1,-1,-1,-1,-1,-1,-1],"loss_changes":[4.865913E2,8.816925E1,4.6402734E2,5.127105E1,2.888527E-1,1.414646E2,4.1418945E2,3.9338646E0,3.3257744E1,0E0,1.355133E-1,1.2991867E1,1.5109229E2,2.414348E0,9.8239746E1,0E0,7.868961E-1,1.7115475E1,7.8165283E0,1.6130127E0,1.5278625E-1,5.5135555E0,7.165985E0,6.364618E1,6.6053894E1,1.8059516E-1,1.5390942E0,3.7158813E1,5.2338623E1,2.7467191E-2,3.969663E-1,0E0,0E0,1.2825127E0,5.2735405E0,0E0,1.3016884E0,8.824941E-1,1.0397911E-1,2.5947247E0,1.9599999E0,1.1288906E1,1.2219482E1,2.5168747E1,6.5872345E0,4.7703674E1,3.654364E1,4.3329228E-2,3.0964136E-2,1.249968E0,4.0112326E-1,6.976715E0,4.3791138E1,5.775635E0,3.9338623E1,2.4687355E-2,1.8021822E-2,4.5470297E-2,7.505116E-2,4.9012184E-1,6.469965E-1,1.7832336E0,1.3813591E-1,0E0,0E0,1.600033E-2,0E0,0E0,4.966736E-3,3.3564568E-1,2.7161808E0,0E0,0E0,6.423378E-1,6.622034E0,4.3749924E0,2.0843506E0,6.3083496E0,4.8864624E1,7.536621E-1,0E0,0E0,0E0,1.6499054E1,0E0,6.0585994E-2,0E0,1.2474418E-2,1.6782522E-2,5.636066E-1,0E0,2.4097896E-1,2.3136683E-1,5.569504E0,6.452118E0,2.3537415E1,1.688678E1,4.717224E0,4.7860413E0,6.225281E-1,1.0958496E1,0E0,0E0,0E0,0E0,0E0,0E0,0E0,0E0,0E0,0E0,0E0,0E0,0E0,0E0,0E0,0E0,0E0,0E0,0E0,0E0,0E0,0E0,0E0,0E0,0E0,0E0,0E0,0E0,0E0,0E0,0E0,0E0,0E0,0E0,0E0,0E0,0E0,0E0,0E0,0E0,0E0,0E0,0E0,0E0,0E0,0E0,0E0,0E0,0E0,0E0,0E0,0E0,0E0,0E0,0E0,0E0,0E0,0E0,0E0,0E0,0E0,0E0,0E0,0E0,0E0,0E0,0E0,0E0],"parents":[2147483647,0,0,1,1,2,2,3,3,4,4,5,5,6,6,7,7,8,8,10,10,11,11,12,12,13,13,14,14,16,16,17,17,18,18,19,19,20,20,21,21,22,22,23,23,24,24,25,25,26,26,27,27,28,28,29,29,30,30,33,33,34,34,36,36,37,37,38,38,39,39,40,40,41,41,42,42,43,43,44,44,45,45,46,46,47,47,48,48,49,49,50,50,51,51,52,52,53,53,54,54,55,55,56,56,57,57,58,58,59,59,60,60,61,61,62,62,65,65,68,68,69,69,70,70,73,73,74,74,75,75,76,76,77,77,78,78,79,79,83,83,85,85,87,87,88,88,89,89,91,91,92,92,93,93,94,94,95,95,96,96,97,97,98,98,99,99,100,100],"right_children":[2,4,6,8,10,12,14,16,18,-1,20,22,24,26,28,-1,30,32,34,36,38,40,42,44,46,48,50,52,54,56,58,-1,-1,60,62,-1,64,66,68,70,72,74,76,78,80,82,84,86,88,90,92,94,96,98,100,102,104,106,108,110,112,114,116,-1,-1,118,-1,-1,120,122,124,-1,-1,126,128,130,132,134,136,138,-1,-1,-1,140,-1,142,-1,144,146,148,-1,150,152,154,156,158,160,162,164,166,168,-1,-1,-1,-1,-1,-1,-1,-1,-1,-1,-1,-1,-1,-1,-1,-1,-1,-1,-1,-1,-1,-1,-1,-1,-1,-1,-1,-1,-1,-1,-1,-1,-1,-1,-1,-1,-1,-1,-1,-1,-1,-1,-1,-1,-1,-1,-1,-1,-1,-1,-1,-1,-1,-1,-1,-1,-1,-1,-1,-1,-1,-1,-1,-1,-1,-1,-1,-1],"split_conditions":[5.5555556E-2,9.8790765E-1,3.2769173E-2,3.9510223E-1,5E-1,5.0082594E-1,3.9510223E-1,5E-1,5E-1,-8.7375445E-3,1.48936175E-2,4.1296717E-4,2.777778E-1,7.6129995E-2,1.7942023E-1,2.180906E-2,7.6129995E-2,8.110852E-1,9.5682657E-1,6.965602E-1,3.006842E-2,2.8447965E-2,3.9234042E-1,5E-1,2.2506302E-3,1.8518186E-1,1.3390663E-1,1.6666667E-1,1.6666667E-1,2.7518427E-1,1.3989916E-1,2.0205671E-2,1.3824715E-1,4.95086E-1,2.3271516E-1,-6.5914313E-3,1.561037E-1,2.9438242E-2,3.0878644E-2,2.1876127E-2,5.719247E-1,1.4619164E-1,4.7542995E-1,1.6666667E-1,2.8447965E-2,4.4444448E-1,2.349658E-2,6.609337E-1,3.6677136E-3,5.675189E-1,1.1244148E-1,4.95086E-1,1.8427517E-2,4.127764E-1,7.920965E-1,3.5106385E-1,2.5468132E-1,5.0082594E-1,7.2727275E-1,1.3390663E-1,8.945805E-1,7.125307E-2,1.4127764E-1,2.506951E-2,-3.8281744E-3,1.7554916E-2,8.1488285E-3,-1.1821872E-2,1.3882065E-1,1.4742015E-2,5.9234047E-1,4.7499854E-3,-3.0743329E-2,2.2056177E-2,7.4893616E-2,2.1696076E-2,2.2222222E-1,9.8790765E-1,2.2506302E-3,2.628736E-2,1.4488903E-1,1.5816164E-1,9.266376E-3,3.2317758E-1,-2.0007545E-3,3.5106385E-1,-1.5104249E-3,2.7736765E-1,3.5106385E-1,1.8427517E-2,2.4371121E-2,1.2389015E-3,1.6666667E-1,9.9787235E-1,6.621622E-1,1.3404754E-1,4.1411594E-2,2.653943E-1,9.9000716E-1,9.82085E-1,9.8790765E-1,-1.7271158E-3,1.6806796E-5,-1.1015977E-3,-2.1704817E-3,2.883028E-3,5.5128327E-3,6.711361E-4,-8.9971087E-4,1.767585E-2,1.2283768E-2,9.668657E-3,1.9229598E-3,4.4886477E-2,2.5477158E-2,1.2340605E-2,1.706807E-2,-2.2494541E-3,-6.8063736E-3,-5.931592E-3,-5.3423354E-3,3.5999885E-3,1.3539899E-2,3.544184E-2,6.6006687E-3,2.6027186E-2,6.2404484E-2,3.2389764E-2,1.08202975E-2,6.158405E-3,3.3634E-2,9.077401E-2,5.083209E-2,4.9689643E-2,2.2319492E-2,-3.5274704E-3,6.460746E-2,9.648082E-2,5.1861916E-2,5.637544E-3,9.1232E-2,-7.6250924E-4,1.452494E-3,-1.2495017E-3,-2.3498172E-3,-2.0662786E-3,-1.5076143E-3,8.117171E-3,2.2214507E-3,1.0780877E-3,4.9787536E-3,-3.0461894E-4,8.157315E-4,1.1234587E-2,2.252113E-2,2.6995864E-2,1.6748581E-2,5.13918E-2,3.1598147E-2,3.6436256E-2,2.2551734E-2,1.9744635E-2,1.3897027E-2,1.1670143E-2,2.4405822E-2,1.0094849E-2,5.145934E-3,1.5453207E-2,1.852935E-2],"split_indices":[4,6,5,6,0,8,6,0,0,0,10,8,4,6,5,0,6,6,6,11,5,5,10,0,5,5,11,4,4,11,5,0,0,11,5,0,5,5,5,5,6,11,11,4,5,4,5,11,6,5,5,11,11,11,6,10,5,8,11,11,5,11,11,0,0,5,0,0,11,11,10,0,0,5,10,5,4,6,5,5,0,0,0,6,0,10,0,5,10,11,0,8,4,10,11,5,5,5,5,5,6,0,0,0,0,0,0,0,0,0,0,0,0,0,0,0,0,0,0,0,0,0,0,0,0,0,0,0,0,0,0,0,0,0,0,0,0,0,0,0,0,0,0,0,0,0,0,0,0,0,0,0,0,0,0,0,0,0,0,0,0,0,0,0,0,0,0,0,0],"split_type":[0,0,0,0,0,0,0,0,0,0,0,0,0,0,0,0,0,0,0,0,0,0,0,0,0,0,0,0,0,0,0,0,0,0,0,0,0,0,0,0,0,0,0,0,0,0,0,0,0,0,0,0,0,0,0,0,0,0,0,0,0,0,0,0,0,0,0,0,0,0,0,0,0,0,0,0,0,0,0,0,0,0,0,0,0,0,0,0,0,0,0,0,0,0,0,0,0,0,0,0,0,0,0,0,0,0,0,0,0,0,0,0,0,0,0,0,0,0,0,0,0,0,0,0,0,0,0,0,0,0,0,0,0,0,0,0,0,0,0,0,0,0,0,0,0,0,0,0,0,0,0,0,0,0,0,0,0,0,0,0,0,0,0,0,0,0,0,0,0],"sum_hessian":[7.934E3,8.06E2,7.128E3,3.57E2,4.49E2,1.75E2,6.953E3,1.78E2,1.79E2,1.1E1,4.38E2,7.8E1,9.7E1,5.84E2,6.369E3,3E0,1.75E2,2E0,1.77E2,1.1E1,4.27E2,2.1E1,5.7E1,6.5E1,3.2E1,2.25E2,3.59E2,8.3E2,5.539E3,6.8E1,1.07E2,1E0,1E0,1.14E2,6.3E1,9E0,2E0,8E0,4.19E2,1.9E1,2E0,2.8E1,2.9E1,5.9E1,6E0,1E1,2.2E1,2.5E1,2E2,3E1,3.29E2,2.26E2,6.04E2,1.264E3,4.275E3,1.2E1,5.6E1,1.6E1,9.1E1,5.6E1,5.8E1,1.7E1,4.6E1,1E0,1E0,6E0,2E0,1E0,4.18E2,1.2E1,7E0,1E0,1E0,4E0,2.4E1,1.7E1,1.2E1,2.9E1,3E1,4E0,2E0,9E0,1E0,2E1,2E0,1.9E1,6E0,6.9E1,1.31E2,2.9E1,1E0,2.6E1,3.03E2,1.15E2,1.11E2,1.29E2,4.75E2,4.99E2,7.65E2,2.47E2,4.028E3,6E0,6E0,1E1,4.6E1,1.1E1,5E0,7.7E1,1.4E1,1.1E1,4.5E1,5.3E1,5E0,3E0,1.4E1,8E0,3.8E1,1E0,5E0,4.8E1,3.7E2,2E0,1E1,5E0,2E0,1E0,3E0,1E1,1.4E1,3E0,1.4E1,1E0,1.1E1,4E0,2.5E1,5E0,2.5E1,2E0,2E0,1E0,1.9E1,9E0,1E1,7E0,6.2E1,3.9E1,9.2E1,1E1,1.9E1,1.4E1,1.2E1,1.25E2,1.78E2,9.3E1,2.2E1,4.1E1,7E1,3.4E1,9.5E1,3.9E1,4.36E2,6.6E1,4.33E2,7.53E2,1.2E1,2.35E2,1.2E1,5.51E2,3.477E3],"tree_param":{"num_deleted":"0","num_feature":"12","num_nodes":"169","size_leaf_vector":"0"}},{"base_weights":[7.514689E-1,3.9179507E-3,8.3159524E-1,6.845287E-1,-1.0010556E-2,4.903855E-2,9.0863454E-1,1.6610078E0,5.76764E-1,-8.140975E-2,3.519376E-2,7.079479E-1,-2.722359E-1,5.5674167E0,8.931987E-1,4.546273E-3,-9.402614E-2,1.3956381E-1,1.4614916E-2,4.1528454E0,6.510797E-1,6.426581E-2,-2.7628508E-1,-2.0063322E0,1.1149549E1,2.0966358E0,8.677858E-1,5.6287233E-2,-3.447042E-2,-1.2106326E-2,-9.5601834E-2,4.407797E-1,1.2914997E-1,3.8355414E-2,-5.1113735E-3,2.0355692E0,6.8086824E0,5.3204936E-1,8.835139E-1,5.0690883E-1,-2.4773976E-1,-3.5023016E-1,-2.6672727E-1,-3.1984E0,-3.814964E-1,1.76641E0,3.198058E0,6.7929494E-1,9.281743E-1,2.8257398E-2,1.0965605E-1,-4.946946E-2,1.4053583E-3,-6.295207E-2,1.4546105E-1,-1.0006293E-1,-6.82611E-2,2.1247917E-1,5.4815406E-1,3.1112026E-2,1.7068614E-1,6.455179E-2,3.454169E-3,-3.976652E-2,6.6309604E-3,7.675016E-1,5.031315E-1,1.3799949E0,7.4932414E-1,-4.2808715E-1,-3.128198E-1,1.4615433E-1,-2.702045E-1,3.4689534E0,1.6112555E0,3.4206395E0,1.9381863E0,-1.4638412E-1,6.8474585E-1,1.2158829E0,8.8410693E-1,1.1947122E-1,-7.648125E-3,-0E0,-5.389929E-2,7.24259E-2,-3.365406E-2,-2.9327461E-2,-1.205685E-1,-1.0791336E-1,-8.2026586E-2,-3.3072297E-2,-8.457497E-2,2.1292308E-1,1.8592784E-2,9.587015E-2,2.096996E-1,6.4564184E-3,8.945238E-2,-1.2748963E-2,8.772183E-2,-4.7856458E-2,5.210014E-2,1.7466834E-2,-1.8912274E-2,8.471812E-1,5.1514715E-1,4.3495682E-1,5.556724E-1,1.9385643E-1,1.4630362E0,8.4363675E-1,6.5565234E-1,-3.8357604E-1,-7.5540483E-1,4.0045708E-1,-3.2470873E-1,-5.822281E-1,-2.6881048E-1,4.1147113E0,1.2143945E0,1.1104678E0,1.8465896E0,1.2357152E0,3.589646E0,3.9318523E-1,-9.270045E-1,8.527364E-1,6.5378916E-1,1.9232063E0,1.1685249E0,6.753489E-1,9.3242985E-1],"categories":[],"categories_nodes":[],"categories_segments":[],"categories_sizes":[],"default_left":[true,true,true,true,true,true,true,false,false,true,true,true,true,true,true,true,true,true,true,true,true,true,true,true,false,true,true,true,true,true,true,true,true,true,true,false,false,true,true,false,false,true,true,false,false,true,true,true,true,true,false,true,true,true,false,true,true,false,false,true,true,true,true,true,true,true,true,true,true,true,false,true,true,true,true,true,false,true,true,true,true,false,false,false,false,false,false,false,false,false,false,false,false,false,false,false,false,false,false,false,false,false,false,false,false,false,false,false,false,false,false,false,false,false,false,false,false,false,false,false,false,false,false,false,false,false,false,false,false,false,false,false,false],"id":51,"left_children":[1,3,5,7,9,11,13,-1,-1,15,17,19,21,23,25,27,29,31,33,35,37,39,41,43,-1,45,47,49,51,53,55,57,59,61,63,-1,-1,65,67,-1,-1,69,71,-1,-1,73,75,77,79,81,-1,83,85,87,-1,89,91,-1,-1,93,95,97,99,101,103,105,107,109,111,113,-1,115,117,119,121,123,-1,125,127,129,131,-1,-1,-1,-1,-1,-1,-1,-1,-1,-1,-1,-1,-1,-1,-1,-1,-1,-1,-1,-1,-1,-1,-1,-1,-1,-1,-1,-1,-1,-1,-1,-1,-1,-1,-1,-1,-1,-1,-1,-1,-1,-1,-1,-1,-1,-1,-1,-1,-1,-1,-1,-1],"loss_changes":[4.720669E2,7.2482247E0,4.2911914E2,1.2621517E0,2.4168997E0,1.3519977E2,4.6426465E2,0E0,0E0,3.1627214E-1,9.8153615E-1,4.0039307E1,5.93935E-1,9.095195E2,1.96896E2,7.632557E-2,3.0778408E-2,2.0919418E-1,1.800592E-1,1.3996662E1,5.5316315E0,7.82165E-1,2.5994492E-1,1.7620178E1,0E0,4.65412E1,7.177734E1,2.1433052E-2,1.2188366E-2,4.4606514E-2,2.5610209E-2,7.5122416E-3,2.9397345E-1,1.5834633E-1,8.574513E-2,0E0,0E0,7.881737E-1,4.2439766E0,0E0,0E0,8.26416E-2,5.5667305E-1,0E0,0E0,2.5359894E1,6.218933E0,6.9556885E0,6.034619E1,3.901778E-2,0E0,4.1161515E-3,1.7135816E-2,5.078092E-3,0E0,2.440381E-2,1.8246904E-2,0E0,0E0,4.621152E-2,1.3877094E-1,1.4213601E-1,1.043027E-1,4.0408112E-2,4.336003E-2,1.2324333E-1,3.470478E-1,1.2936115E0,2.8300095E-1,9.59568E-2,0E0,4.4359827E-1,9.849548E-2,1.0390358E1,1.0509293E1,7.806793E0,0E0,4.481606E0,7.7301636E0,2.0488586E1,4.1685303E1,0E0,0E0,0E0,0E0,0E0,0E0,0E0,0E0,0E0,0E0,0E0,0E0,0E0,0E0,0E0,0E0,0E0,0E0,0E0,0E0,0E0,0E0,0E0,0E0,0E0,0E0,0E0,0E0,0E0,0E0,0E0,0E0,0E0,0E0,0E0,0E0,0E0,0E0,0E0,0E0,0E0,0E0,0E0,0E0,0E0,0E0,0E0,0E0,0E0,0E0,0E0,0E0],"parents":[2147483647,0,0,1,1,2,2,3,3,4,4,5,5,6,6,9,9,10,10,11,11,12,12,13,13,14,14,15,15,16,16,17,17,18,18,19,19,20,20,21,21,22,22,23,23,25,25,26,26,27,27,28,28,29,29,30,30,31,31,32,32,33,33,34,34,37,37,38,38,41,41,42,42,45,45,46,46,47,47,48,48,49,49,51,51,52,52,53,53,55,55,56,56,59,59,60,60,61,61,62,62,63,63,64,64,65,65,66,66,67,67,68,68,69,69,71,71,72,72,73,73,74,74,75,75,77,77,78,78,79,79,80,80],"right_children":[2,4,6,8,10,12,14,-1,-1,16,18,20,22,24,26,28,30,32,34,36,38,40,42,44,-1,46,48,50,52,54,56,58,60,62,64,-1,-1,66,68,-1,-1,70,72,-1,-1,74,76,78,80,82,-1,84,86,88,-1,90,92,-1,-1,94,96,98,100,102,104,106,108,110,112,114,-1,116,118,120,122,124,-1,126,128,130,132,-1,-1,-1,-1,-1,-1,-1,-1,-1,-1,-1,-1,-1,-1,-1,-1,-1,-1,-1,-1,-1,-1,-1,-1,-1,-1,-1,-1,-1,-1,-1,-1,-1,-1,-1,-1,-1,-1,-1,-1,-1,-1,-1,-1,-1,-1,-1,-1,-1,-1,-1,-1],"split_conditions":[3.9510223E-1,7.4137926E-2,5.5555556E-2,2.7272727E-2,7.6129995E-2,9.8790765E-1,2.7272727E-2,3.3220153E-2,1.1535279E-2,1.882427E-1,1.7338854E-1,1.8181819E-1,2.1276595E-3,2.777778E-1,7.4137926E-2,1.8965518E-1,3.3636364E-1,2.988837E-2,5.653583E-1,8.110852E-1,9.5682657E-1,3.3636364E-1,1.6034484E-1,1.6666667E-1,2.2299096E-1,9.9787235E-1,1.6666667E-1,6.818182E-1,2.777778E-1,1.6878912E-2,7.1034485E-1,4.2424244E-1,2.7021277E-1,3.2586205E-1,1.3484347E-1,4.0711384E-2,1.3617365E-1,1.7758621E-1,1.9490457E-1,1.0138176E-2,-4.9547954E-3,3.3636364E-1,3.006842E-2,-6.3967995E-2,-7.6299277E-3,9.8790765E-1,5E-1,2.5567159E-2,1.8968311E-1,1.3170688E-1,2.193121E-3,4.2424244E-1,6.666666E-1,4.5714802E-1,2.909221E-3,8.30303E-1,6.242424E-1,4.2495835E-3,1.096308E-2,5.0594166E-2,1.3484347E-1,1.3484347E-1,4.9630898E-1,8.431034E-1,8.842276E-1,2.2650342E-1,3.5106385E-1,1.5E-1,7.5757575E-1,2.2407274E-1,-6.256396E-3,4.2424244E-1,3.1418797E-2,6.57184E-2,1.6666667E-1,1.6666667E-1,3.8763724E-2,4.2424244E-1,1.8176089E-1,2.6197335E-2,9.8790765E-1,2.3894245E-3,-1.5296249E-4,-0E0,-1.0779857E-3,1.448518E-3,-6.730812E-4,-5.865492E-4,-2.41137E-3,-2.1582672E-3,-1.6405317E-3,-6.614459E-4,-1.6914993E-3,4.2584613E-3,3.7185568E-4,1.917403E-3,4.193992E-3,1.2912837E-4,1.7890475E-3,-2.5497927E-4,1.7544366E-3,-9.571291E-4,1.0420028E-3,3.4933668E-4,-3.782455E-4,1.6943624E-2,1.0302943E-2,8.699136E-3,1.1113448E-2,3.8771285E-3,2.9260723E-2,1.6872734E-2,1.3113047E-2,-7.6715206E-3,-1.5108096E-2,8.009141E-3,-6.4941742E-3,-1.1644562E-2,-5.3762095E-3,8.2294226E-2,2.4287889E-2,2.2209356E-2,3.693179E-2,2.4714302E-2,7.179292E-2,7.863704E-3,-1.854009E-2,1.7054727E-2,1.3075783E-2,3.8464125E-2,2.3370497E-2,1.3506977E-2,1.8648596E-2],"split_indices":[6,3,4,2,6,6,2,0,0,5,5,2,10,4,3,3,2,5,5,6,6,2,3,4,0,10,4,2,4,6,3,2,10,3,6,0,0,3,5,0,0,2,5,0,0,6,4,5,5,5,0,2,2,5,0,2,2,0,0,5,6,6,5,3,5,5,10,3,2,5,0,2,5,5,4,4,0,2,5,5,6,0,0,0,0,0,0,0,0,0,0,0,0,0,0,0,0,0,0,0,0,0,0,0,0,0,0,0,0,0,0,0,0,0,0,0,0,0,0,0,0,0,0,0,0,0,0,0,0,0,0,0,0],"split_type":[0,0,0,0,0,0,0,0,0,0,0,0,0,0,0,0,0,0,0,0,0,0,0,0,0,0,0,0,0,0,0,0,0,0,0,0,0,0,0,0,0,0,0,0,0,0,0,0,0,0,0,0,0,0,0,0,0,0,0,0,0,0,0,0,0,0,0,0,0,0,0,0,0,0,0,0,0,0,0,0,0,0,0,0,0,0,0,0,0,0,0,0,0,0,0,0,0,0,0,0,0,0,0,0,0,0,0,0,0,0,0,0,0,0,0,0,0,0,0,0,0,0,0,0,0,0,0,0,0,0,0,0,0],"sum_hessian":[7.881E3,7.63E2,7.118E3,1.5E1,7.48E2,6.38E2,6.48E3,1E0,1.4E1,2.9E2,4.58E2,2.09E2,4.29E2,2.1E1,6.459E3,3.7E1,2.53E2,7.5E1,3.83E2,3E0,2.06E2,5E0,4.24E2,9E0,1.2E1,1.33E2,6.326E3,1.6E1,2.1E1,5E0,2.48E2,2E0,7.3E1,1.74E2,2.09E2,2E0,1E0,1.37E2,6.9E1,2E0,3E0,4.7E1,3.77E2,5E0,4E0,1.03E2,3E1,1.536E3,4.79E3,1.1E1,5E0,1.5E1,6E0,4E0,1E0,2.12E2,3.6E1,1E0,1E0,2.2E1,5.1E1,9.9E1,7.5E1,5.3E1,1.56E2,1.4E1,1.23E2,1.4E1,5.5E1,1.4E1,3.3E1,3E0,3.74E2,8E0,9.5E1,2.5E1,5E0,1E1,1.526E3,6.35E2,4.155E3,3E0,8E0,1E0,1.4E1,2E0,4E0,3E0,1E0,1.46E2,6.6E1,1.2E1,2.4E1,1E0,2.1E1,1.8E1,3.3E1,3E1,6.9E1,6.3E1,1.2E1,4.9E1,4E0,1.1E2,4.6E1,1E1,4E0,5.5E1,6.8E1,1E0,1.3E1,2.6E1,2.9E1,1.3E1,1E0,2E0,1E0,1E0,3.73E2,6E0,2E0,3.1E1,6.4E1,2E0,2.3E1,6E0,4E0,2.36E2,1.29E3,3.9E1,5.96E2,7.82E2,3.373E3],"tree_param":{"num_deleted":"0","num_feature":"12","num_nodes":"133","size_leaf_vector":"0"}},{"base_weights":[7.5345033E-1,2.9587362E0,7.2323394E-1,2.816085E0,1.347639E1,-2.9766518E-3,8.015177E-1,2.2421913E0,4.3488255E0,-8.144363E-2,4.6948753E-2,2.032243E-2,8.752658E-1,4.7046094E0,1.4130095E0,2.6899895E-1,4.494283E0,-0E0,-9.3513094E-2,1.543354E-1,2.4983743E-2,6.4572144E-1,-2.5327197E-1,1.2034447E0,8.2356954E-1,5.9245996E0,1.1291122E0,6.550841E-1,2.1049578E0,3.3497624E0,5.0893106E0,-2.2309989E-2,1.3923767E-1,-1.0411808E-2,-9.4760135E-2,1.15072116E-1,3.259765E-1,-9.259841E-3,4.040712E-2,4.954147E-1,9.167468E-1,-2.0371416E-1,-2.6191795E-1,1.5821878E0,1.1277149E0,6.1531305E-1,8.8473964E-1,1.4148647E0,8.288414E0,6.051459E0,-4.6916112E-1,-5.38402E-2,9.355877E-1,3.19953E-1,2.2266884E0,2.0527957E-2,-4.1573692E-2,1.4327937E-1,-7.5129576E-2,-1.0120077E-1,-7.559063E-2,5.399326E-1,1.0529566E-1,1.4704883E-1,4.4720635E-1,6.345863E-2,-1.697056E-2,6.7440294E-2,1.41677465E-2,1.4775533E-2,5.16266E-1,1.347797E0,7.675474E-1,-2.2913025E-1,4.982195E-1,-2.566133E-1,-2.9376537E-1,1.4254985E0,5.573992E0,9.63033E-1,1.334744E0,5.9119886E-1,7.650388E-1,4.6905163E-1,9.074422E-1,-4.4167444E-2,5.8132496E0,1.6360954E0,9.019497E0,7.821787E-1,-3.6127606E-1,1.326508E-1,1.0199894E0,1.2796783E-1,-2.7297847E-2,-2.2972647E-2,-8.803999E-2,-3.3347286E-2,-1.1876016E-1,-8.682951E-2,-1.0960024E-1,-9.886069E-2,-5.038013E-2,4.270012E-2,1.4276476E-1,1.6300575E-1,3.5755485E-2,5.7212645E-1,2.8458095E-1,8.4354796E-2,-1.0364472E-1,-1.4565014E-2,-1.1805031E-1,5.517171E-2,2.4313001E-1,-2.9932484E-2,3.2273132E-2,-2.571322E-1,2.0791526E-1,7.241549E-1,4.7215098E-1,1.1666123E0,2.2620108E0,8.5047626E-1,6.234586E-1,-2.8074735E-1,1.1486572E-1,-3.1246457E-1,-2.525503E-1,-4.0199462E-1,-2.7492225E-1,1.3054384E0,3.2588615E0,2.0100449E-1,8.773263E0,2.6740757E-1,9.8943233E-1,1.0901083E0,1.9757508E0,6.1141264E-1,3.6338878E-1,1.7064646E-1,7.6807487E-1,-1.7540576E-1,4.7523168E-1,9.4802064E-1,8.1876713E-1],"categories":[],"categories_nodes":[],"categories_segments":[],"categories_sizes":[],"default_left":[true,true,true,true,false,true,true,true,true,true,true,true,true,true,true,false,true,true,true,true,true,true,true,true,true,true,true,true,true,false,false,true,false,true,true,true,true,true,true,true,true,true,true,true,true,true,true,true,true,false,false,true,true,false,false,true,true,false,true,true,true,false,true,true,true,true,true,true,true,true,true,true,true,true,false,true,true,true,true,true,true,true,true,true,true,false,false,false,false,false,false,false,false,false,false,false,false,false,false,false,false,false,false,false,false,false,false,false,false,false,false,false,false,false,false,false,false,false,false,false,false,false,false,false,false,false,false,false,false,false,false,false,false,false,false,false,false,false,false,false,false,false,false,false,false,false,false],"id":52,"left_children":[1,3,5,7,-1,9,11,13,15,17,19,21,23,25,27,-1,29,31,33,35,37,39,41,43,45,47,49,51,53,-1,-1,55,-1,57,59,61,63,65,67,69,71,73,75,77,79,81,83,85,87,-1,-1,89,91,-1,-1,93,95,-1,97,99,101,-1,103,105,107,109,111,113,115,117,119,121,123,125,-1,127,129,131,133,135,137,139,141,143,145,-1,-1,-1,-1,-1,-1,-1,-1,-1,-1,-1,-1,-1,-1,-1,-1,-1,-1,-1,-1,-1,-1,-1,-1,-1,-1,-1,-1,-1,-1,-1,-1,-1,-1,-1,-1,-1,-1,-1,-1,-1,-1,-1,-1,-1,-1,-1,-1,-1,-1,-1,-1,-1,-1,-1,-1,-1,-1,-1,-1,-1,-1],"loss_changes":[5.240127E2,1.4664984E2,4.4170312E2,8.930884E1,0E0,2.9647002E0,4.0403076E2,1.5559479E2,1.634314E1,2.8922606E-1,1.086685E0,1.03636116E2,1.08362305E2,8.2002625E1,3.0093506E1,0E0,1.2809326E1,1.1999196E-1,2.4734735E-2,5.091044E-1,2.0355548E-1,7.3375854E0,1.5609741E-1,2.4358154E1,7.03374E1,1.4874826E2,4.298617E1,5.6636515E0,6.3172455E0,0E0,0E0,2.8092152E-2,0E0,4.572066E-2,2.6081324E-2,2.3905504E-1,2.8050673E-1,6.6607684E-2,1.8672726E-1,1.1858368E0,3.8266068E0,1.1819654E0,2.7376175E-2,8.75271E1,2.4336182E1,4.373047E0,4.022339E1,3.439485E1,4.0319458E1,0E0,0E0,2.2301166E0,1.3164215E0,0E0,0E0,5.5698354E-2,1.7909683E-2,0E0,2.5865436E-3,1.6637802E-2,3.453824E-2,0E0,1.438638E-1,6.468877E-3,1.02781296E-1,4.2214807E-2,2.3876484E-2,2.72201E-1,1.0841277E-1,2.972195E-1,9.1747284E-1,1.7766018E0,3.9164734E-1,1.1199179E0,0E0,3.5821915E-2,5.2060127E-2,2.9185425E1,9.0964386E1,7.3557434E0,4.962738E1,4.909851E0,2.557068E-1,9.1757965E-1,1.431543E1,0E0,0E0,0E0,0E0,0E0,0E0,0E0,0E0,0E0,0E0,0E0,0E0,0E0,0E0,0E0,0E0,0E0,0E0,0E0,0E0,0E0,0E0,0E0,0E0,0E0,0E0,0E0,0E0,0E0,0E0,0E0,0E0,0E0,0E0,0E0,0E0,0E0,0E0,0E0,0E0,0E0,0E0,0E0,0E0,0E0,0E0,0E0,0E0,0E0,0E0,0E0,0E0,0E0,0E0,0E0,0E0,0E0,0E0,0E0,0E0,0E0,0E0],"parents":[2147483647,0,0,1,1,2,2,3,3,5,5,6,6,7,7,8,8,9,9,10,10,11,11,12,12,13,13,14,14,16,16,17,17,18,18,19,19,20,20,21,21,22,22,23,23,24,24,25,25,26,26,27,27,28,28,31,31,33,33,34,34,35,35,36,36,37,37,38,38,39,39,40,40,41,41,42,42,43,43,44,44,45,45,46,46,47,47,48,48,51,51,52,52,55,55,56,56,58,58,59,59,60,60,62,62,63,63,64,64,65,65,66,66,67,67,68,68,69,69,70,70,71,71,72,72,73,73,75,75,76,76,77,77,78,78,79,79,80,80,81,81,82,82,83,83,84,84],"right_children":[2,4,6,8,-1,10,12,14,16,18,20,22,24,26,28,-1,30,32,34,36,38,40,42,44,46,48,50,52,54,-1,-1,56,-1,58,60,62,64,66,68,70,72,74,76,78,80,82,84,86,88,-1,-1,90,92,-1,-1,94,96,-1,98,100,102,-1,104,106,108,110,112,114,116,118,120,122,124,126,-1,128,130,132,134,136,138,140,142,144,146,-1,-1,-1,-1,-1,-1,-1,-1,-1,-1,-1,-1,-1,-1,-1,-1,-1,-1,-1,-1,-1,-1,-1,-1,-1,-1,-1,-1,-1,-1,-1,-1,-1,-1,-1,-1,-1,-1,-1,-1,-1,-1,-1,-1,-1,-1,-1,-1,-1,-1,-1,-1,-1,-1,-1,-1,-1,-1,-1,-1,-1,-1],"split_conditions":[5E-1,5.8854413E-1,3.9510223E-1,2.777778E-1,2.695278E-1,7.6129995E-2,5.5555556E-2,2.7272727E-2,3.2317758E-1,1.8518186E-1,1.7023766E-1,9.8790765E-1,1.7149803E-1,1.6666667E-1,1.6666667E-1,5.379979E-3,2.7272727E-2,9.212121E-1,3.3636364E-1,9.212121E-1,1.3484347E-1,9.5682657E-1,1.4232984E-1,4.168167E-2,1.6666667E-1,5.5555556E-2,9.8790765E-1,5.5555556E-2,5.5983233E-1,6.699525E-2,1.0178621E-1,4.2424244E-1,2.7847535E-3,1.6666667E-1,9.9787235E-1,2.4576882E-2,1.1532229E-1,2.8231904E-1,6.064998E-1,1.2389015E-3,1.9490457E-1,1.4160964E-1,9.212121E-1,4.0691394E-2,5.0082594E-1,1.3137093E-1,7.920965E-1,7.090609E-2,5.629188E-1,1.21029176E-1,-9.383222E-3,8.231776E-1,1.6878912E-2,6.3990597E-3,4.4533767E-2,1.335974E-1,1.1091106E-1,2.8655874E-3,4.5714802E-1,6.242424E-1,8.30303E-1,1.0798652E-2,1.3484347E-1,3.888889E-1,1.4196974E-1,9.212121E-1,5E-1,5.792222E-1,6.666666E-1,1.0577962E-1,2.6980555E-1,9.212121E-1,8.30303E-1,9.9787235E-1,9.96439E-3,3.3636364E-1,2.085884E-1,5.0082594E-1,8.231776E-1,4.510263E-2,7.7575755E-1,9.232085E-1,1.760893E-1,1.8383148E-1,7.6377386E-1,-8.8334887E-4,1.1626499E-1,3.2721907E-2,1.8038994E-1,1.5643574E-2,-7.225521E-3,2.6530158E-3,2.0399787E-2,2.5593566E-3,-5.4595695E-4,-4.5945295E-4,-1.7607997E-3,-6.669457E-4,-2.3752032E-3,-1.7365902E-3,-2.1920048E-3,-1.9772137E-3,-1.0076026E-3,8.5400237E-4,2.855295E-3,3.260115E-3,7.151097E-4,1.1442529E-2,5.6916187E-3,1.6870958E-3,-2.0728945E-3,-2.9130027E-4,-2.361006E-3,1.1034341E-3,4.8626E-3,-5.9864967E-4,6.4546266E-4,-5.142644E-3,4.158305E-3,1.4483097E-2,9.4430195E-3,2.3332246E-2,4.5240216E-2,1.7009525E-2,1.24691725E-2,-5.614947E-3,2.2973143E-3,-6.2492914E-3,-5.051006E-3,-8.039892E-3,-5.498445E-3,2.6108768E-2,6.517723E-2,4.0200897E-3,1.7546526E-1,5.348151E-3,1.9788647E-2,2.1802165E-2,3.9515015E-2,1.2228252E-2,7.2677755E-3,3.4129291E-3,1.5361497E-2,-3.508115E-3,9.504633E-3,1.8960413E-2,1.6375342E-2],"split_indices":[0,7,6,4,0,6,4,2,6,5,5,6,5,4,4,0,2,2,2,2,6,6,5,5,4,4,6,4,6,0,0,2,0,4,10,5,5,5,5,8,5,5,2,5,8,7,6,7,6,0,0,6,6,0,0,5,5,0,5,2,2,0,6,4,5,2,4,5,2,5,5,2,2,10,0,2,5,8,6,5,2,5,5,5,5,0,0,0,0,0,0,0,0,0,0,0,0,0,0,0,0,0,0,0,0,0,0,0,0,0,0,0,0,0,0,0,0,0,0,0,0,0,0,0,0,0,0,0,0,0,0,0,0,0,0,0,0,0,0,0,0,0,0,0,0,0,0],"split_type":[0,0,0,0,0,0,0,0,0,0,0,0,0,0,0,0,0,0,0,0,0,0,0,0,0,0,0,0,0,0,0,0,0,0,0,0,0,0,0,0,0,0,0,0,0,0,0,0,0,0,0,0,0,0,0,0,0,0,0,0,0,0,0,0,0,0,0,0,0,0,0,0,0,0,0,0,0,0,0,0,0,0,0,0,0,0,0,0,0,0,0,0,0,0,0,0,0,0,0,0,0,0,0,0,0,0,0,0,0,0,0,0,0,0,0,0,0,0,0,0,0,0,0,0,0,0,0,0,0,0,0,0,0,0,0,0,0,0,0,0,0,0,0,0,0,0,0],"sum_hessian":[7.875E3,1.06E2,7.769E3,1.05E2,1E0,7.56E2,7.013E3,7.7E1,2.8E1,2.94E2,4.62E2,6.05E2,6.408E3,1.9E1,5.8E1,1E0,2.7E1,3.8E1,2.56E2,7.8E1,3.84E2,1.84E2,4.21E2,8.71E2,5.537E3,1.4E1,5E0,2.8E1,3E1,1E1,1.7E1,3.3E1,5E0,4E0,2.52E2,6.4E1,1.4E1,1.19E2,2.65E2,1.19E2,6.5E1,6.4E1,3.57E2,1.44E2,7.27E2,1.258E3,4.279E3,5E0,9E0,1E0,4E0,8E0,2E1,2E0,2.8E1,1E1,2.3E1,1E0,3E0,1.87E2,6.5E1,1E0,6.3E1,6E0,8E0,1.1E1,1.08E2,1.3E2,1.35E2,5E0,1.14E2,1.6E1,4.9E1,6.2E1,2E0,3.09E2,4.8E1,1.39E2,5E0,4.06E2,3.21E2,1.085E3,1.73E2,2.22E2,4.057E3,4E0,1E0,1E0,8E0,2E0,6E0,2E0,1.8E1,3E0,7E0,1.7E1,6E0,2E0,1E0,7.1E1,1.16E2,3.3E1,3.2E1,2.4E1,3.9E1,5E0,1E0,4E0,4E0,1E1,1E0,1.06E2,2E0,1.22E2,8E0,3.9E1,9.6E1,2E0,3E0,1.9E1,9.5E1,1.4E1,2E0,3E1,1.9E1,5.4E1,8E0,1.9E1,2.9E2,6E0,4.2E1,1.31E2,8E0,2E0,3E0,1.5E1,3.91E2,2.33E2,8.8E1,9.96E2,8.9E1,1E0,1.72E2,2E0,2.2E2,2.781E3,1.276E3],"tree_param":{"num_deleted":"0","num_feature":"12","num_nodes":"147","size_leaf_vector":"0"}},{"base_weights":[7.2514284E-1,9.750834E-2,1.2792344E0,3.1331727E-1,-5.566442E-2,4.6655483E0,1.2089444E0,2.639266E-2,6.9464326E-1,-2.3048307E-1,8.304818E-2,9.90652E0,4.0041537E0,7.6089823E-1,1.3206254E0,7.4293196E-1,1.2809682E-2,2.2806025E0,6.7894053E-1,-1.782433E0,-2.20088E-1,-7.773515E-1,1.0890252E-1,1.1377499E1,3.8617997E0,6.691232E-1,5.529054E0,1.0855018E0,7.3393416E-1,1.6315346E0,1.2588134E0,1.5682317E0,5.9029454E-1,-7.601942E-2,5.551555E-2,5.4100984E-1,2.570267E0,5.7243377E-1,9.2331904E-1,-4.831692E-1,-2.3416016E0,-1.8023232E-1,-3.525223E-1,-9.361135E-1,8.3606744E-1,2.2418631E-2,2.0249951E-1,1.0476819E0,3.7964523E-1,1.0423004E1,3.9864788E0,1.4505764E0,9.975707E-1,6.9389117E-1,8.9084995E-1,1.3706125E0,1.9091623E0,1.3390298E0,1.0571564E0,6.2155867E-1,3.345786E-1,6.6934023E-3,-8.243716E-2,3.7978448E-2,2.1593818E-1,4.7828194E-1,6.58219E-1,1.2172985E0,8.4639674E-1,-5.586863E-1,-1.6382788E-1,-4.1074896E-1,1.2152159E-1,-4.009444E-1,-1.5197978E0,-1.8928252E-2,4.7387516E-1,1.937691E-1,2.2713537E0,-5.115676E-1,1.2345477E0,5.1969945E-1,-1.3022487E-1,2.0305548E1,6.519502E0,3.4071758E0,8.533513E0,2.1444945E0,1.1132444E0,1.5078305E0,9.43526E-1,7.3645115E-1,2.729978E-1,9.4325614E-1,7.973651E-1,1.8672346E0,1.2038914E0,2.7456722E0,1.5584946E0,1.197135E0,1.7335901E0,1.4129825E0,1.0296575E0,6.420982E-1,2.8085417E-1,-7.180486E-2,6.070861E-2,-9.745696E-2,-6.537386E-2,1.2664257E-1,1.13710845E-2,5.278888E-1,7.973716E-2,9.943385E-1,4.304267E-1,7.2125715E-1,4.293045E-1,1.2696776E0,5.046198E-1,6.526816E-1,9.121104E-1,-4.347093E-1,-7.8322965E-1,-2.4398132E-1,-1.0880119E-1,-2.4212717E-1,-5.334012E-1,-2.2986816E-1,4.707822E-1,-1.1666886E0,-2.747623E-1,-1.695477E0,-9.4009423E-1,-1.0061531E0,6.957782E-3,1.4715776E0,2.2027878E-1,2.179513E-1,-8.893505E-1,3.458344E-1,7.7064496E-1,-4.5264107E-3,-1.7733277E-1,8.958445E0,2.3881958E1,7.1285887E0,3.6675074E0,-1.0460825E0,3.8188605E0,6.361328E-2,1.1063735E1,8.1293297E-1,1.1345344E0,6.9979614E-1,8.495073E-1,3.9615676E-1,7.894933E-2,9.617318E-1,5.6521815E-1,4.728527E-1,9.5372427E-1,3.6698723E0,1.5825319E0,-8.128197E-1,1.2439817E0,3.65912E0,2.1720643E0,9.9455273E-1,1.843757E0,-7.089003E-1,1.2105703E0,1.8132281E0,1.2840995E0,8.828022E-1,1.5375684E0,1.0802594E0,9.0872484E-1],"categories":[],"categories_nodes":[],"categories_segments":[],"categories_sizes":[],"default_left":[true,true,true,true,true,true,true,true,true,true,true,true,true,true,true,true,true,true,true,true,true,true,true,false,false,true,true,true,true,true,true,false,true,true,true,false,false,true,true,false,false,true,true,true,false,true,true,true,true,true,true,true,true,true,true,true,true,true,true,true,false,true,true,true,true,true,true,true,true,true,true,true,true,true,true,true,true,true,false,false,false,true,true,true,true,true,true,false,false,false,true,true,true,true,true,true,true,true,true,true,true,true,true,false,false,false,false,false,false,false,false,false,false,false,false,false,false,false,false,false,false,false,false,false,false,false,false,false,false,false,false,false,false,false,false,false,false,false,false,false,false,false,false,false,false,false,false,false,false,false,false,false,false,false,false,false,false,false,false,false,false,false,false,false,false,false,false,false,false,false,false,false,false,false,false,false,false],"id":53,"left_children":[1,3,5,7,9,11,13,15,17,19,21,23,25,27,29,31,33,35,37,39,41,43,45,-1,-1,47,49,51,53,55,57,-1,59,61,63,-1,-1,65,67,-1,-1,69,71,73,-1,75,77,79,81,83,85,87,89,91,93,95,97,99,101,103,-1,105,107,109,111,113,115,117,119,121,123,125,127,129,131,133,135,137,-1,-1,-1,139,141,143,145,147,149,-1,-1,-1,151,153,155,157,159,161,163,165,167,169,171,173,175,-1,-1,-1,-1,-1,-1,-1,-1,-1,-1,-1,-1,-1,-1,-1,-1,-1,-1,-1,-1,-1,-1,-1,-1,-1,-1,-1,-1,-1,-1,-1,-1,-1,-1,-1,-1,-1,-1,-1,-1,-1,-1,-1,-1,-1,-1,-1,-1,-1,-1,-1,-1,-1,-1,-1,-1,-1,-1,-1,-1,-1,-1,-1,-1,-1,-1,-1,-1,-1,-1,-1,-1,-1,-1],"loss_changes":[2.7515864E3,1.2265845E2,9.9828955E2,1.6851428E2,5.2638092E1,2.823695E2,2.0565918E2,8.544369E0,1.5911224E1,1.5333313E1,2.6942648E1,6.812067E1,3.8687866E2,6.9059753E0,6.2603516E1,1.7180643E0,3.276191E0,2.683342E0,1.6859406E1,4.183733E0,5.008438E0,9.313074E0,9.50917E0,0E0,0E0,2.5135717E0,3.810188E2,1.4835205E0,4.548706E0,3.8584106E1,4.3983887E1,0E0,3.1604767E-2,1.5007377E-1,1.6347631E0,0E0,0E0,3.5726166E0,4.112015E0,0E0,0E0,4.5181503E0,6.102415E0,9.869402E0,0E0,1.1420827E1,1.0011038E1,3.2317867E0,1.0516696E0,4.3125427E2,9.637677E1,1.8103676E0,9.062271E-1,1.0797852E1,4.7557068E-1,2.2583008E1,7.575708E1,1.09353516E2,7.154541E0,1.300621E-2,0E0,8.751133E-2,6.2272906E-2,1.2392342E0,2.4132805E0,5.25362E0,3.3195648E0,1.2666626E0,1.7947006E0,7.135172E-1,3.0926342E0,4.006405E0,3.025888E0,1.5473564E0,9.924698E-1,1.4336097E1,1.2855843E1,1.4783819E1,0E0,0E0,0E0,3.8968587E-1,1.6877066E-2,6.3465576E1,7.3409424E0,6.7983215E1,9.247601E1,0E0,0E0,0E0,8.453636E-1,2.0644226E0,1.3290963E0,4.697876E-1,2.7383957E0,3.408461E1,1.751062E1,3.7786133E1,2.932373E1,3.7356934E1,1.7769653E1,3.167778E0,4.107422E0,0E0,0E0,0E0,0E0,0E0,0E0,0E0,0E0,0E0,0E0,0E0,0E0,0E0,0E0,0E0,0E0,0E0,0E0,0E0,0E0,0E0,0E0,0E0,0E0,0E0,0E0,0E0,0E0,0E0,0E0,0E0,0E0,0E0,0E0,0E0,0E0,0E0,0E0,0E0,0E0,0E0,0E0,0E0,0E0,0E0,0E0,0E0,0E0,0E0,0E0,0E0,0E0,0E0,0E0,0E0,0E0,0E0,0E0,0E0,0E0,0E0,0E0,0E0,0E0,0E0,0E0,0E0,0E0,0E0,0E0,0E0,0E0,0E0,0E0],"parents":[2147483647,0,0,1,1,2,2,3,3,4,4,5,5,6,6,7,7,8,8,9,9,10,10,11,11,12,12,13,13,14,14,15,15,16,16,17,17,18,18,19,19,20,20,21,21,22,22,25,25,26,26,27,27,28,28,29,29,30,30,32,32,33,33,34,34,37,37,38,38,41,41,42,42,43,43,45,45,46,46,47,47,48,48,49,49,50,50,51,51,52,52,53,53,54,54,55,55,56,56,57,57,58,58,59,59,61,61,62,62,63,63,64,64,65,65,66,66,67,67,68,68,69,69,70,70,71,71,72,72,73,73,74,74,75,75,76,76,77,77,81,81,82,82,83,83,84,84,85,85,86,86,90,90,91,91,92,92,93,93,94,94,95,95,96,96,97,97,98,98,99,99,100,100,101,101,102,102],"right_children":[2,4,6,8,10,12,14,16,18,20,22,24,26,28,30,32,34,36,38,40,42,44,46,-1,-1,48,50,52,54,56,58,-1,60,62,64,-1,-1,66,68,-1,-1,70,72,74,-1,76,78,80,82,84,86,88,90,92,94,96,98,100,102,104,-1,106,108,110,112,114,116,118,120,122,124,126,128,130,132,134,136,138,-1,-1,-1,140,142,144,146,148,150,-1,-1,-1,152,154,156,158,160,162,164,166,168,170,172,174,176,-1,-1,-1,-1,-1,-1,-1,-1,-1,-1,-1,-1,-1,-1,-1,-1,-1,-1,-1,-1,-1,-1,-1,-1,-1,-1,-1,-1,-1,-1,-1,-1,-1,-1,-1,-1,-1,-1,-1,-1,-1,-1,-1,-1,-1,-1,-1,-1,-1,-1,-1,-1,-1,-1,-1,-1,-1,-1,-1,-1,-1,-1,-1,-1,-1,-1,-1,-1,-1,-1,-1,-1,-1,-1],"split_conditions":[6.621175E-1,6.572582E-1,7.4137926E-2,3.8399246E-1,1.6666667E-1,7.876776E-1,9.8790765E-1,7.4137926E-2,7.241379E-2,2.7272727E-2,6.724138E-2,5.272727E-1,8.2218254E-1,1.7758621E-1,2.6206896E-1,2.7272727E-2,7.6129995E-2,3.9780295E-1,6.341465E-1,5.5555556E-2,5.672414E-1,5E-1,7.008511E-1,2.2754997E-1,7.723599E-2,1.6666667E-1,8.349742E-1,1.8427517E-2,9.5665354E-1,8.2218254E-1,8.4422266E-1,3.1364635E-2,2.777778E-1,1.6034484E-1,3.532499E-1,1.0820197E-2,5.1405337E-2,4.4565028E-1,2.9655173E-1,-9.6633835E-3,-4.6832033E-2,8.275862E-2,9.533169E-1,2.777778E-1,1.672135E-2,5E-1,7.222222E-1,2.7272727E-2,8.0966675E-1,1.8181819E-1,5E-1,5.5555556E-2,6.808764E-1,9.02244E-1,9.699887E-1,7.6706135E-1,8.349742E-1,8.2218254E-1,4.2424244E-1,6.724138E-2,6.691572E-3,1.3810939E-1,2.2990829E-1,6.0824133E-2,3.698545E-1,3.8608843E-1,6.324857E-1,6.4979887E-1,9.689189E-1,1.6382979E-1,5.5555556E-2,5.5555556E-2,5.5555556E-2,2.7272727E-2,3.888889E-1,1.8427517E-2,1.4619164E-1,6.1111116E-1,4.5427073E-2,-1.02313515E-2,2.4690954E-2,6.6170216E-1,2.7272727E-2,2.777778E-1,3.888889E-1,2.7272727E-2,8.54249E-1,4.288989E-2,2.2264889E-2,3.0156609E-2,8.224432E-1,8.147807E-1,9.345995E-1,7.1034485E-1,9.859468E-1,1.8427517E-2,5.5555556E-2,1.6034484E-1,8.76709E-1,5.5555556E-2,8.349742E-1,8.5870504E-1,3.888889E-1,1.2841963E-2,5.617083E-3,-1.4360972E-3,1.2141721E-3,-1.9491392E-3,-1.3074771E-3,2.5328514E-3,2.2742168E-4,1.0557775E-2,1.5947431E-3,1.988677E-2,8.608534E-3,1.4425143E-2,8.58609E-3,2.5393553E-2,1.0092395E-2,1.3053631E-2,1.8242208E-2,-8.694186E-3,-1.5664592E-2,-4.8796264E-3,-2.1760238E-3,-4.842543E-3,-1.06680235E-2,-4.597363E-3,9.415643E-3,-2.3333771E-2,-5.495246E-3,-3.390954E-2,-1.8801885E-2,-2.012306E-2,1.3915564E-4,2.9431552E-2,4.405576E-3,4.359026E-3,-1.778701E-2,6.916688E-3,1.5412899E-2,-9.0528214E-5,-3.5466554E-3,1.791689E-1,4.7763914E-1,1.4257178E-1,7.335015E-2,-2.092165E-2,7.6377206E-2,1.2722656E-3,2.2127469E-1,1.6258659E-2,2.2690687E-2,1.3995922E-2,1.6990146E-2,7.923135E-3,1.5789866E-3,1.9234635E-2,1.1304363E-2,9.457054E-3,1.9074485E-2,7.339744E-2,3.1650636E-2,-1.6256394E-2,2.4879634E-2,7.31824E-2,4.3441284E-2,1.9891053E-2,3.687514E-2,-1.4178005E-2,2.4211407E-2,3.626456E-2,2.568199E-2,1.7656043E-2,3.0751368E-2,2.1605188E-2,1.8174497E-2],"split_indices":[1,1,3,1,4,1,6,3,3,2,3,2,1,3,3,2,6,1,1,4,3,4,10,0,0,4,1,11,1,1,1,0,4,3,1,0,0,1,3,0,0,3,11,4,0,4,4,2,1,2,4,4,1,1,1,1,1,1,2,3,0,1,1,1,1,1,1,1,6,10,4,4,4,2,4,11,11,4,0,0,0,10,2,4,4,2,1,0,0,0,1,1,1,3,1,11,4,3,1,4,1,1,4,0,0,0,0,0,0,0,0,0,0,0,0,0,0,0,0,0,0,0,0,0,0,0,0,0,0,0,0,0,0,0,0,0,0,0,0,0,0,0,0,0,0,0,0,0,0,0,0,0,0,0,0,0,0,0,0,0,0,0,0,0,0,0,0,0,0,0,0,0,0,0,0,0,0],"split_type":[0,0,0,0,0,0,0,0,0,0,0,0,0,0,0,0,0,0,0,0,0,0,0,0,0,0,0,0,0,0,0,0,0,0,0,0,0,0,0,0,0,0,0,0,0,0,0,0,0,0,0,0,0,0,0,0,0,0,0,0,0,0,0,0,0,0,0,0,0,0,0,0,0,0,0,0,0,0,0,0,0,0,0,0,0,0,0,0,0,0,0,0,0,0,0,0,0,0,0,0,0,0,0,0,0,0,0,0,0,0,0,0,0,0,0,0,0,0,0,0,0,0,0,0,0,0,0,0,0,0,0,0,0,0,0,0,0,0,0,0,0,0,0,0,0,0,0,0,0,0,0,0,0,0,0,0,0,0,0,0,0,0,0,0,0,0,0,0,0,0,0,0,0,0,0,0,0],"sum_hessian":[7.912E3,3.71E3,4.202E3,1.54E3,2.17E3,8.5E1,4.117E3,8.79E2,6.61E2,9.6E2,1.21E3,9E0,7.6E1,8.22E2,3.295E3,1.6E1,8.63E2,6E0,6.55E2,6E0,9.54E2,3.5E1,1.175E3,7E0,2E0,2.4E1,5.2E1,6.2E1,7.6E2,5.45E2,2.75E3,2E0,1.4E1,2.8E2,5.83E2,1E0,5E0,4.57E2,1.98E2,2E0,4E0,7.34E2,2.2E2,3.2E1,3E0,6.11E2,5.64E2,1E1,1.4E1,1.2E1,4E1,1.1E1,5.1E1,6.07E2,1.53E2,2.82E2,2.63E2,1.966E3,7.84E2,1.2E1,2E0,2E1,2.6E2,5.26E2,5.7E1,2.19E2,2.38E2,4E1,1.58E2,3E1,7.04E2,1.96E2,2.4E1,1.7E1,1.5E1,5.6E2,5.1E1,5.62E2,2E0,1E0,9E0,1.1E1,3E0,3E0,9E0,3.6E1,4E0,3E0,8E0,4E0,4.7E1,5.51E2,5.6E1,9.6E1,5.7E1,7E1,2.12E2,7.7E1,1.86E2,1.447E3,5.19E2,5.5E1,7.29E2,1.1E1,1E0,8E0,1.2E1,1.37E2,1.23E2,1.21E2,4.05E2,1.7E1,4E1,1.8E1,2.01E2,1.86E2,5.2E1,3.7E1,3E0,4.1E1,1.17E2,2E1,1E1,2.86E2,4.18E2,8.3E1,1.13E2,1.2E1,1.2E1,2E0,1.5E1,1.1E1,4E0,1.4E1,5.46E2,1E1,4.1E1,5.5E2,1.2E1,7E0,4E0,1E0,2E0,1E0,2E0,7E0,2E0,3E0,3.3E1,1E0,3E0,2.9E1,1.8E1,4.18E2,1.33E2,3.4E1,2.2E1,9.1E1,5E0,1.9E1,3.8E1,9E0,6.1E1,4E0,2.08E2,2.9E1,4.8E1,6.3E1,1.23E2,1E1,1.437E3,4.4E2,7.9E1,1.1E1,4.4E1,5.12E2,2.17E2],"tree_param":{"num_deleted":"0","num_feature":"12","num_nodes":"177","size_leaf_vector":"0"}},{"base_weights":[7.1703976E-1,1.0149986E-1,1.2725214E0,3.058366E-1,-4.8307963E-2,6.1741867E0,1.2088443E0,1.9248059E-2,6.6631466E-1,-1.4345177E0,-4.0368926E-2,1.35132E1,5.3214526E0,7.710627E-1,1.3176314E0,7.617203E-1,7.888806E-3,5.0153947E-1,8.0620676E-1,-1.6002655E-1,-1.19992215E-2,6.114458E0,1.7336308E1,3.3038812E0,9.205885E0,1.130816E0,7.227756E-1,1.8171817E0,1.2239559E0,1.5413493E0,5.775298E-1,-7.546181E-2,4.8122402E-2,2.2837632E0,4.880743E-1,1.3309877E0,7.679958E-1,-1.292178E-1,-5.4713655E-1,2.1082723E-1,-5.144048E-2,5.2074757E0,-3.752889E-1,2.6618542E1,6.155954E0,9.727357E-1,1.3825445E0,6.8924135E-1,9.4111836E-1,1.420352E0,2.21315E0,1.3070554E0,1.0129182E0,7.7274436E-1,4.339674E-1,1.2506441E-4,-8.612964E-2,2.4098301E-2,1.9790013E-1,9.372679E-1,4.5246762E-1,9.7896785E-1,1.5040958E0,7.1386147E-1,9.217088E-1,-8.4849715E-2,-3.6145592E-1,1.8709351E0,-6.5132606E-1,1.7585285E-1,1.6129864E0,-6.47408E-1,-4.4780582E-2,1.4057022E0,1.6521936E1,1.9578922E-1,-5.9041995E-1,6.7660565E0,2.0454307E0,1.0009989E0,1.2107138E-1,1.0603313E0,2.060843E0,6.602019E-1,8.111405E-1,7.428652E-1,1.4785786E0,2.1386364E0,1.1968932E0,3.6552238E0,1.608619E0,1.1726786E0,1.6694181E0,2.11465E0,1.0006541E0,2.1672487E-1,6.6868806E-1,1.7596666E-2,-5.5474468E-2,7.058657E-2,-8.754973E-2,1.1372166E-1,-1.0367799E-2,3.1038392E-1,9.6543096E-2,1.2987698E0,8.3933544E-1,5.3474735E-2,5.2854013E-1,1.345994E0,8.1572086E-1,1.5873369E0,1.0163969E0,6.6360366E-1,8.729497E-1,1.0605721E0,7.905562E-1,-9.880703E-2,1.8371907E0,-7.37472E-1,-1.4452758E-1,-7.587051E-1,-5.024274E-1,-2.7218556E-1,2.4484083E-1,2.4867022E0,1.0150963E0,-1.7108645E-1,-8.5125476E-1,-9.4083235E-2,1.4275249E-2,7.353543E0,4.0370187E-1,1.8999651E1,4.327475E0,8.730899E-1,-2.1312399E-1,-9.924039E-1,-2.9958606E-1,9.493781E-1,1.4519336E0,1.0867012E0,3.0326706E-1,1.746789E0,3.9684744E0,6.958538E-1,3.0701643E-1,1.2848651E-1,8.1642675E-1,1.5221082E0,7.124214E-1,4.495555E0,8.419588E-1,3.3541565E0,1.7882676E0,9.779155E-1,1.3262467E0,2.77158E0,4.654019E0,8.679738E-1,1.8403269E0,1.0109235E0,1.2294679E0,1.7502592E0,1.2573135E0,3.446047E0,1.7744538E0,1.131424E0,9.515591E-1],"categories":[],"categories_nodes":[],"categories_segments":[],"categories_sizes":[],"default_left":[true,true,true,true,true,true,true,true,true,false,true,true,true,true,true,true,true,true,true,true,true,false,false,true,true,true,true,true,true,false,true,true,true,false,true,true,true,true,true,true,true,true,true,false,true,true,true,true,true,true,true,true,true,false,true,true,true,true,true,true,true,true,true,true,true,true,true,false,true,true,true,true,true,true,true,true,true,false,false,true,false,true,true,true,true,true,true,true,true,true,true,true,true,true,true,false,false,false,false,false,false,false,false,false,false,false,false,false,false,false,false,false,false,false,false,false,false,false,false,false,false,false,false,false,false,false,false,false,false,false,false,false,false,false,false,false,false,false,false,false,false,false,false,false,false,false,false,false,false,false,false,false,false,false,false,false,false,false,false,false,false,false,false,false,false,false,false,false,false],"id":54,"left_children":[1,3,5,7,9,11,13,15,17,-1,19,21,23,25,27,29,31,33,35,37,39,-1,-1,41,43,45,47,49,51,-1,53,55,57,-1,59,61,63,65,67,69,71,73,75,-1,77,79,81,83,85,87,89,91,93,-1,95,97,99,101,103,105,107,109,111,113,115,117,119,-1,121,123,125,127,129,131,133,135,137,-1,-1,139,-1,141,143,145,147,149,151,153,155,157,159,161,163,165,167,-1,-1,-1,-1,-1,-1,-1,-1,-1,-1,-1,-1,-1,-1,-1,-1,-1,-1,-1,-1,-1,-1,-1,-1,-1,-1,-1,-1,-1,-1,-1,-1,-1,-1,-1,-1,-1,-1,-1,-1,-1,-1,-1,-1,-1,-1,-1,-1,-1,-1,-1,-1,-1,-1,-1,-1,-1,-1,-1,-1,-1,-1,-1,-1,-1,-1,-1,-1,-1,-1,-1,-1,-1,-1],"loss_changes":[2.709434E3,1.1508647E2,1.2975059E3,1.642815E2,2.3833542E1,3.095243E2,1.9548096E2,7.4622927E0,1.608194E1,0E0,7.3203006E0,1.1518036E2,3.6847424E2,1.39339905E1,1.5332812E2,1.5876184E0,2.9295406E0,7.3721085E0,7.255783E0,4.896343E0,1.5331516E1,0E0,0E0,2.2717291E2,8.1231726E2,3.3513641E0,5.0566406E0,8.0503784E1,4.81792E1,0E0,1.8858504E-1,2.3050213E-1,2.115827E0,0E0,4.994255E0,1.0173111E0,2.714035E0,3.93326E0,8.031111E0,1.2744638E1,5.863967E0,9.09659E2,1.4365697E0,0E0,3.1205383E1,1.395855E0,7.1677094E0,2.0246582E0,9.760117E0,4.0884155E1,2.2404553E2,9.6173584E1,9.861145E0,0E0,3.129865E-1,3.4108624E-2,5.7792068E-2,1.5720931E0,9.114876E-1,4.320526E-1,9.067757E0,1.6225243E-1,8.793259E-2,1.8983765E0,1.3573914E0,8.682826E0,4.9547577E0,0E0,3.238945E-1,7.944912E0,2.4168034E0,1.5227752E0,4.270976E0,9.6242615E1,1.333966E2,9.9469393E-1,8.5669756E-1,0E0,0E0,8.639412E-1,0E0,3.7602234E-1,4.396698E0,6.3278503E0,3.8217926E-1,1.2750435E0,4.73188E1,2.404718E1,5.180847E0,6.296295E1,3.0891174E1,1.2894653E1,1.7124512E1,1.6609383E0,4.6018066E0,0E0,0E0,0E0,0E0,0E0,0E0,0E0,0E0,0E0,0E0,0E0,0E0,0E0,0E0,0E0,0E0,0E0,0E0,0E0,0E0,0E0,0E0,0E0,0E0,0E0,0E0,0E0,0E0,0E0,0E0,0E0,0E0,0E0,0E0,0E0,0E0,0E0,0E0,0E0,0E0,0E0,0E0,0E0,0E0,0E0,0E0,0E0,0E0,0E0,0E0,0E0,0E0,0E0,0E0,0E0,0E0,0E0,0E0,0E0,0E0,0E0,0E0,0E0,0E0,0E0,0E0,0E0,0E0,0E0,0E0,0E0,0E0,0E0,0E0],"parents":[2147483647,0,0,1,1,2,2,3,3,4,4,5,5,6,6,7,7,8,8,10,10,11,11,12,12,13,13,14,14,15,15,16,16,17,17,18,18,19,19,20,20,23,23,24,24,25,25,26,26,27,27,28,28,30,30,31,31,32,32,34,34,35,35,36,36,37,37,38,38,39,39,40,40,41,41,42,42,44,44,45,45,46,46,47,47,48,48,49,49,50,50,51,51,52,52,54,54,55,55,56,56,57,57,58,58,59,59,60,60,61,61,62,62,63,63,64,64,65,65,66,66,68,68,69,69,70,70,71,71,72,72,73,73,74,74,75,75,76,76,79,79,81,81,82,82,83,83,84,84,85,85,86,86,87,87,88,88,89,89,90,90,91,91,92,92,93,93,94,94],"right_children":[2,4,6,8,10,12,14,16,18,-1,20,22,24,26,28,30,32,34,36,38,40,-1,-1,42,44,46,48,50,52,-1,54,56,58,-1,60,62,64,66,68,70,72,74,76,-1,78,80,82,84,86,88,90,92,94,-1,96,98,100,102,104,106,108,110,112,114,116,118,120,-1,122,124,126,128,130,132,134,136,138,-1,-1,140,-1,142,144,146,148,150,152,154,156,158,160,162,164,166,168,-1,-1,-1,-1,-1,-1,-1,-1,-1,-1,-1,-1,-1,-1,-1,-1,-1,-1,-1,-1,-1,-1,-1,-1,-1,-1,-1,-1,-1,-1,-1,-1,-1,-1,-1,-1,-1,-1,-1,-1,-1,-1,-1,-1,-1,-1,-1,-1,-1,-1,-1,-1,-1,-1,-1,-1,-1,-1,-1,-1,-1,-1,-1,-1,-1,-1,-1,-1,-1,-1,-1,-1,-1,-1],"split_conditions":[6.621175E-1,6.572582E-1,1.8095067E-2,3.8399246E-1,2.7272727E-2,7.7943826E-1,9.8790765E-1,2.6017286E-2,5.988887E-1,-2.8690355E-2,2.0264673E-1,7.563675E-1,8.5870504E-1,1.742888E-1,1.8086064E-1,2.7272727E-2,7.6129995E-2,2.6557438E-2,1.0415916E-1,8.2186735E-1,3.1553835E-1,1.2228916E-1,3.4672615E-1,8.349742E-1,2.7272727E-2,5.0082594E-1,9.212121E-1,8.2218254E-1,8.4422266E-1,3.0826986E-2,1.24566406E-1,1.7662945E-1,3.3081108E-1,4.5675263E-2,3.8608843E-1,6.341465E-1,8.30303E-1,1.7005762E-1,3.2949228E-2,3.1328773E-1,3.2436082E-1,8.2218254E-1,8.4844077E-1,5.323708E-1,9.28372E-1,1.23334534E-1,7.008511E-1,9.5665354E-1,9.345995E-1,7.6706135E-1,8.349742E-1,8.2218254E-1,1.8427517E-2,1.54548865E-2,2.4243233E-1,8.120393E-1,3.3636364E-1,8.23977E-2,3.698545E-1,1.3390663E-1,3.989272E-1,4.878788E-1,6.4978224E-1,6.430696E-1,6.146021E-1,1.6897732E-1,1.860821E-1,3.74187E-2,9.533169E-1,3.3636364E-1,4.2424244E-1,4.2424244E-1,6.9940585E-1,9.8790765E-1,5E-1,2.7272727E-2,2.7272727E-2,1.3532113E-1,4.0908612E-2,9.8606896E-1,2.4214275E-3,1.6807707E-1,9.1869473E-1,9.02244E-1,7.739557E-2,1.9922578E-1,9.532107E-1,2.0884521E-2,2.923833E-1,5.0082594E-1,8.5870504E-1,7.554066E-1,8.349742E-1,6.893617E-1,4.1573638E-1,4.3344973E-3,1.33737605E-2,3.519333E-4,-1.1094894E-3,1.4117314E-3,-1.7509946E-3,2.2744332E-3,-2.0735597E-4,6.207678E-3,1.9308619E-3,2.5975397E-2,1.6786708E-2,1.0694946E-3,1.0570803E-2,2.6919879E-2,1.6314417E-2,3.1746738E-2,2.0327937E-2,1.3272073E-2,1.7458994E-2,2.1211442E-2,1.5811123E-2,-1.9761405E-3,3.6743812E-2,-1.4749439E-2,-2.8905517E-3,-1.5174101E-2,-1.0048548E-2,-5.4437113E-3,4.8968163E-3,4.9734045E-2,2.0301925E-2,-3.4217287E-3,-1.7025094E-2,-1.8816646E-3,2.8550497E-4,1.4707085E-1,8.074037E-3,3.7999302E-1,8.65495E-2,1.7461797E-2,-4.26248E-3,-1.9848078E-2,-5.991721E-3,1.898756E-2,2.9038671E-2,2.1734023E-2,6.065341E-3,3.493578E-2,7.9369485E-2,1.3917076E-2,6.1403285E-3,2.5697302E-3,1.6328534E-2,3.0442163E-2,1.4248428E-2,8.9911096E-2,1.6839176E-2,6.708313E-2,3.576535E-2,1.955831E-2,2.6524935E-2,5.5431597E-2,9.308038E-2,1.7359477E-2,3.680654E-2,2.021847E-2,2.4589356E-2,3.5005182E-2,2.5146268E-2,6.892094E-2,3.5489075E-2,2.2628479E-2,1.9031182E-2],"split_indices":[1,1,5,1,2,1,6,5,1,0,5,1,1,5,5,2,6,5,5,11,5,0,0,1,2,8,2,1,1,0,1,5,1,0,1,1,2,5,5,5,5,1,1,0,1,5,10,1,1,1,1,1,11,0,1,11,2,1,1,11,1,2,1,1,5,5,5,0,11,2,2,2,5,6,0,2,2,0,0,1,0,5,1,1,11,5,1,11,11,8,1,1,1,10,5,0,0,0,0,0,0,0,0,0,0,0,0,0,0,0,0,0,0,0,0,0,0,0,0,0,0,0,0,0,0,0,0,0,0,0,0,0,0,0,0,0,0,0,0,0,0,0,0,0,0,0,0,0,0,0,0,0,0,0,0,0,0,0,0,0,0,0,0,0,0,0,0,0,0],"split_type":[0,0,0,0,0,0,0,0,0,0,0,0,0,0,0,0,0,0,0,0,0,0,0,0,0,0,0,0,0,0,0,0,0,0,0,0,0,0,0,0,0,0,0,0,0,0,0,0,0,0,0,0,0,0,0,0,0,0,0,0,0,0,0,0,0,0,0,0,0,0,0,0,0,0,0,0,0,0,0,0,0,0,0,0,0,0,0,0,0,0,0,0,0,0,0,0,0,0,0,0,0,0,0,0,0,0,0,0,0,0,0,0,0,0,0,0,0,0,0,0,0,0,0,0,0,0,0,0,0,0,0,0,0,0,0,0,0,0,0,0,0,0,0,0,0,0,0,0,0,0,0,0,0,0,0,0,0,0,0,0,0,0,0,0,0,0,0,0,0],"sum_hessian":[7.924E3,3.759E3,4.165E3,1.59E3,2.169E3,5.3E1,4.112E3,8.86E2,7.04E2,1.2E1,2.157E3,5E0,4.8E1,8.19E2,3.293E3,1.3E1,8.73E2,3.24E2,3.8E2,4.13E2,1.744E3,2E0,3E0,3.2E1,1.6E1,9.6E1,7.23E2,5.19E2,2.774E3,2E0,1.1E1,2.84E2,5.89E2,2E0,3.22E2,2.5E1,3.55E2,3.83E2,3E1,2.62E2,1.482E3,2.1E1,1.1E1,2E0,1.4E1,6E1,3.6E1,6.28E2,9.5E1,2.6E2,2.59E2,1.989E3,7.85E2,4E0,7E0,3.5E1,2.49E2,5.08E2,8.1E1,2.3E1,2.99E2,9E0,1.6E1,2.64E2,9.1E1,3.22E2,6.1E1,1E0,2.9E1,2.56E2,6E0,1.6E1,1.466E3,1.6E1,5E0,3E0,8E0,1.2E1,2E0,5.8E1,2E0,2.5E1,1.1E1,5.09E2,1.19E2,7E1,2.5E1,6.1E1,1.99E2,7.6E1,1.83E2,1.452E3,5.37E2,8E0,7.77E2,4E0,3E0,2.7E1,8E0,2E0,2.47E2,1.41E2,3.67E2,3.8E1,4.3E1,4E0,1.9E1,4.8E1,2.51E2,2E0,7E0,1.3E1,3E0,2.02E2,6.2E1,4.3E1,4.8E1,3.2E2,2E0,2.2E1,3.9E1,1.6E1,1.3E1,3.4E1,2.22E2,2E0,4E0,5E0,1.1E1,7.99E2,6.67E2,2E0,1.4E1,4E0,1E0,1E0,2E0,3E0,5E0,5.3E1,5E0,2.4E1,1E0,1E1,1E0,4.62E2,4.7E1,1E0,1.18E2,2E0,6.8E1,4E0,2.1E1,1.3E1,4.8E1,7.5E1,1.24E2,4.1E1,3.5E1,4.4E1,1.39E2,3.79E2,1.073E3,4.48E2,8.9E1,1E0,7E0,2.1E2,5.67E2],"tree_param":{"num_deleted":"0","num_feature":"12","num_nodes":"169","size_leaf_vector":"0"}},{"base_weights":[7.058304E-1,1.1587588E-1,1.2436073E0,3.2399386E-1,-3.362261E-2,4.860187E0,1.1676626E0,2.1459838E-2,6.809239E-1,-1.8786837E-1,9.2861496E-2,1.1916579E1,4.1787047E0,7.310873E-1,1.2808024E0,5.8707887E-1,1.18210595E-2,4.655757E0,6.677856E-1,-5.5651265E-1,-1.639557E-1,-6.9478947E-1,1.1858027E-1,7.1486783E0,1.691841E1,8.8912696E-1,5.9028788E0,8.998401E-1,6.9796246E-1,1.640637E0,1.2111082E0,4.1436195E-1,7.811735E-1,-6.663792E-2,4.903515E-2,5.6836925E0,2.4528232E0,5.601914E-1,9.38761E-1,-3.0910367E-1,-7.6713365E-1,-1.1140315E-1,-2.9537416E-1,-2.401331E-1,-1.0926298E0,1.3208656E-1,-5.483598E-1,8.204504E0,2.7108543E0,4.527685E0,5.417117E-1,1.012596E1,4.2283993E0,7.8099096E-1,2.0724697E0,7.381049E-1,6.040997E-1,1.3157215E0,1.9548651E0,1.2911016E0,1.0074427E0,4.9281833E-1,-1.1003715E-1,4.8020205E-1,9.9971944E-1,1.8034467E-2,-7.531351E-2,2.5372632E-2,1.9796968E-1,1.6653446E0,5.4397994E-1,1.5299903E0,8.860279E-1,-3.849092E-1,-2.5997627E-1,7.429343E-1,-8.753358E-1,-2.4907006E-1,-1.4060632E-2,-3.3046746E-1,-1.823846E-2,-6.707397E-2,-6.550856E-1,-1.2166994E0,-3.3390653E-1,1.265049E-1,2.8539107E0,1.0628021E-1,-9.628767E-1,6.786375E0,1.1260245E0,1.0037191E0,2.1764617E-1,1.8418137E1,6.320377E0,-2.0713734E-2,5.5788584E0,1.2102978E0,7.043887E-1,5.274922E-1,3.506075E0,5.9401214E-1,7.889599E-1,6.44394E-1,1.6521713E-1,1.9594166E0,1.0776092E0,2.8209221E0,1.5891674E0,1.1578362E0,1.6509931E0,1.2740769E0,9.703593E-1,7.994542E-1,4.0005794E-1,5.663488E-1,1.986671E-1,4.7746325E-1,1.1491841E0,4.716032E-2,-5.365435E-2,-8.943189E-2,-6.7465685E-2,1.1033343E-1,-1.1350388E-2,3.7438852E-1,7.312441E-2,1.202247E0,2.09649E0,4.4541076E-1,6.417858E-1,2.2252805E0,1.3802071E0,6.1146474E-1,9.6765125E-1,-7.3322624E-1,2.0440004E0,-2.7764022E-2,1.2085634E0,1.0917425E-1,-3.5837895E-1,4.656775E-1,-1.9917235E-1,-1.2500172E0,-1.68814E-1,-8.198916E-1,-1.8604554E0,-1.4256712E0,3.315918E-1,1.1150378E-2,2.1702723E-1,1.0932649E0,-1.1133499E0,-1.1910179E0,-6.097427E-1,-1.21482395E-1,8.637658E-1,1.1051175E1,2.3146887E1,7.0274574E-1,-9.128177E-1,8.664482E0,3.7374253E0,2.081231E0,9.937066E-1,6.451755E-1,9.051853E-1,3.6390814E-1,6.340284E-1,6.0729365E0,5.8419573E-1,7.25055E-1,4.3509597E-1,1.0748345E0,7.675162E-1,8.0984426E-1,6.0102355E-1,2.0660615E-1,-4.0340874E-1,3.5768182E0,1.5283818E0,-8.350568E-1,1.1099744E0,3.391803E0,2.282184E0,3.6452575E0,1.3767407E0,-7.1526194E-1,1.1686329E0,1.7341635E0,1.2100351E0,1.588906E0,9.886365E-1,6.7015016E-1,9.8644745E-1],"categories":[],"categories_nodes":[],"categories_segments":[],"categories_sizes":[],"default_left":[true,true,true,true,true,true,true,true,true,true,true,true,true,true,true,true,true,true,true,true,true,true,true,true,false,true,true,true,true,true,true,true,true,true,true,false,false,true,true,true,true,true,true,true,true,true,true,false,false,true,true,true,true,true,true,true,true,true,true,true,true,true,false,true,true,true,true,true,true,true,true,true,true,false,false,true,false,false,true,true,true,false,true,true,true,true,false,true,true,false,false,false,true,true,false,true,true,true,true,true,true,true,true,true,true,true,true,true,true,true,true,true,true,false,false,false,false,false,false,false,false,false,false,false,false,false,false,false,false,false,false,false,false,false,false,false,false,false,false,false,false,false,false,false,false,false,false,false,false,false,false,false,false,false,false,false,false,false,false,false,false,false,false,false,false,false,false,false,false,false,false,false,false,false,false,false,false,false,false,false,false,false,false,false,false,false,false,false,false,false,false,false,false,false,false],"id":55,"left_children":[1,3,5,7,9,11,13,15,17,19,21,23,25,27,29,31,33,35,37,39,41,43,45,47,-1,49,51,53,55,57,59,61,63,65,67,-1,-1,69,71,73,75,77,79,81,83,85,87,-1,-1,89,91,93,95,97,99,101,103,105,107,109,111,113,-1,115,117,119,121,123,125,127,129,131,133,-1,-1,135,-1,-1,137,139,141,-1,143,145,147,149,-1,151,153,-1,-1,-1,155,157,-1,159,161,163,165,167,169,171,173,175,177,179,181,183,185,187,189,191,193,-1,-1,-1,-1,-1,-1,-1,-1,-1,-1,-1,-1,-1,-1,-1,-1,-1,-1,-1,-1,-1,-1,-1,-1,-1,-1,-1,-1,-1,-1,-1,-1,-1,-1,-1,-1,-1,-1,-1,-1,-1,-1,-1,-1,-1,-1,-1,-1,-1,-1,-1,-1,-1,-1,-1,-1,-1,-1,-1,-1,-1,-1,-1,-1,-1,-1,-1,-1,-1,-1,-1,-1,-1,-1,-1,-1,-1,-1,-1,-1,-1,-1],"loss_changes":[2.5194316E3,1.178443E2,1.1390503E3,1.7095897E2,4.301292E1,3.9351697E2,2.0065967E2,4.663219E0,3.6818207E1,8.715797E0,2.455774E1,1.3421558E2,4.4244507E2,4.4539795E0,8.033301E1,3.5551262E-1,2.4631863E0,5.1906586E-1,2.0921478E1,3.0495243E0,6.4291744E0,6.827276E0,1.0587479E1,1.2732269E1,0E0,3.3661766E1,3.4851978E2,1.8419815E1,2.478485E0,5.2526733E1,4.3657227E1,3.664031E-1,2.3539233E-1,2.0058692E-1,2.0121372E0,0E0,0E0,8.970856E0,5.915222E0,6.294942E-2,5.5018024E0,8.93791E0,2.583273E0,1.2915972E0,1.756485E0,1.731331E1,6.3780994E0,0E0,0E0,1.5267628E1,3.702674E0,4.1314307E2,2.1434674E2,3.777214E0,2.664299E1,3.4170837E0,3.7079468E0,3.884778E1,8.2477295E1,9.2526855E1,7.123047E0,8.4827185E-2,0E0,3.2415032E-2,5.4030657E-2,5.3647406E-2,2.3043275E-2,1.5441582E0,1.7097862E0,5.766506E-1,4.8283844E0,6.2537766E-1,4.0232697E0,0E0,0E0,5.0001E0,0E0,0E0,6.5507846E0,2.9166603E0,2.68303E0,0E0,1.452357E0,3.8808918E0,2.5952442E0,1.1987022E1,0E0,1.1640836E1,8.869095E-1,0E0,0E0,0E0,3.4054134E0,6.5173096E1,0E0,6.2407446E0,1.5001434E2,2.7248383E0,1.0474205E0,1.9201398E-2,4.6223373E1,2.571598E0,1.9136658E0,1.2120361E0,4.5646232E-1,4.644043E1,1.2033493E1,2.1429688E1,8.00762E1,2.8988525E1,1.8488037E1,7.7369385E0,3.0079956E0,0E0,0E0,0E0,0E0,0E0,0E0,0E0,0E0,0E0,0E0,0E0,0E0,0E0,0E0,0E0,0E0,0E0,0E0,0E0,0E0,0E0,0E0,0E0,0E0,0E0,0E0,0E0,0E0,0E0,0E0,0E0,0E0,0E0,0E0,0E0,0E0,0E0,0E0,0E0,0E0,0E0,0E0,0E0,0E0,0E0,0E0,0E0,0E0,0E0,0E0,0E0,0E0,0E0,0E0,0E0,0E0,0E0,0E0,0E0,0E0,0E0,0E0,0E0,0E0,0E0,0E0,0E0,0E0,0E0,0E0,0E0,0E0,0E0,0E0,0E0,0E0,0E0,0E0,0E0,0E0,0E0,0E0],"parents":[2147483647,0,0,1,1,2,2,3,3,4,4,5,5,6,6,7,7,8,8,9,9,10,10,11,11,12,12,13,13,14,14,15,15,16,16,17,17,18,18,19,19,20,20,21,21,22,22,23,23,25,25,26,26,27,27,28,28,29,29,30,30,31,31,32,32,33,33,34,34,37,37,38,38,39,39,40,40,41,41,42,42,43,43,44,44,45,45,46,46,49,49,50,50,51,51,52,52,53,53,54,54,55,55,56,56,57,57,58,58,59,59,60,60,61,61,63,63,64,64,65,65,66,66,67,67,68,68,69,69,70,70,71,71,72,72,75,75,78,78,79,79,80,80,82,82,83,83,84,84,85,85,87,87,88,88,92,92,93,93,95,95,96,96,97,97,98,98,99,99,100,100,101,101,102,102,103,103,104,104,105,105,106,106,107,107,108,108,109,109,110,110,111,111,112,112],"right_children":[2,4,6,8,10,12,14,16,18,20,22,24,26,28,30,32,34,36,38,40,42,44,46,48,-1,50,52,54,56,58,60,62,64,66,68,-1,-1,70,72,74,76,78,80,82,84,86,88,-1,-1,90,92,94,96,98,100,102,104,106,108,110,112,114,-1,116,118,120,122,124,126,128,130,132,134,-1,-1,136,-1,-1,138,140,142,-1,144,146,148,150,-1,152,154,-1,-1,-1,156,158,-1,160,162,164,166,168,170,172,174,176,178,180,182,184,186,188,190,192,194,-1,-1,-1,-1,-1,-1,-1,-1,-1,-1,-1,-1,-1,-1,-1,-1,-1,-1,-1,-1,-1,-1,-1,-1,-1,-1,-1,-1,-1,-1,-1,-1,-1,-1,-1,-1,-1,-1,-1,-1,-1,-1,-1,-1,-1,-1,-1,-1,-1,-1,-1,-1,-1,-1,-1,-1,-1,-1,-1,-1,-1,-1,-1,-1,-1,-1,-1,-1,-1,-1,-1,-1,-1,-1,-1,-1,-1,-1,-1,-1,-1,-1],"split_conditions":[6.621175E-1,6.572582E-1,7.4137926E-2,3.8399246E-1,1.6666667E-1,7.876776E-1,9.8790765E-1,7.4137926E-2,3.275862E-2,1.2931034E-1,7.4137926E-2,7.563675E-1,8.2218254E-1,1.4619164E-1,2.5344828E-1,2.3554277E-1,7.6129995E-2,3.9780295E-1,6.341465E-1,5.5555556E-2,5.086207E-1,2.777778E-1,9.137931E-1,3.448276E-2,3.3836818E-1,9.8790765E-1,8.349742E-1,3.327586E-1,5.8854413E-1,8.2218254E-1,8.4422266E-1,1.8033661E-1,2.607362E-2,1.7758621E-1,3.3081108E-1,1.1367384E-1,4.9056463E-2,9.6551724E-2,5.0082594E-1,3.275862E-2,1.3267812E-1,5.5555556E-2,9.533169E-1,3.275862E-2,5E-1,9.017241E-1,6.965602E-1,1.6409008E-1,5.4217085E-2,7.998252E-1,1.6666667E-1,3.275862E-2,8.571358E-1,1.6034484E-1,8.752054E-1,7.684338E-1,9.345995E-1,7.6706135E-1,8.349742E-1,8.2218254E-1,5.0082594E-1,3.4743626E-2,-2.200743E-3,3.340938E-1,2.4674535E-1,3.4520882E-1,3.5106385E-1,8.23977E-2,3.698545E-1,5.1303965E-1,4.4565028E-1,2.1896552E-1,9.689189E-1,-7.698184E-3,-5.199525E-3,7.5862065E-2,-1.7506717E-2,-4.9814014E-3,4.9310344E-1,1.2389015E-3,3.5106385E-1,-1.3414794E-3,6.6170216E-1,3.5106385E-1,3.275862E-2,2.777778E-1,5.7078212E-2,2.777778E-1,8.2186735E-1,1.357275E-1,2.252049E-2,2.007438E-2,6.6170216E-1,2.777778E-1,1.2640753E-1,2.777778E-1,3.275862E-2,5.5555556E-2,9.532107E-1,1.6666667E-1,9.5664775E-1,8.110852E-1,5.0082594E-1,7.251228E-1,3.888889E-1,1.8427517E-2,5.5555556E-2,1.6034484E-1,1.2389015E-3,5.5555556E-2,8.349742E-1,4.3103448E-1,8.486788E-1,1.5989084E-2,8.001159E-3,1.1326975E-2,3.973342E-3,9.549265E-3,2.2983681E-2,9.4320637E-4,-1.073087E-3,-1.7886377E-3,-1.3493137E-3,2.2066685E-3,-2.2700775E-4,7.48777E-3,1.4624881E-3,2.404494E-2,4.1929796E-2,8.908215E-3,1.2835716E-2,4.450561E-2,2.760414E-2,1.22292945E-2,1.9353025E-2,-1.4664524E-2,4.0880006E-2,-5.552804E-4,2.4171269E-2,2.183485E-3,-7.1675787E-3,9.31355E-3,-3.983447E-3,-2.5000343E-2,-3.37628E-3,-1.6397832E-2,-3.720911E-2,-2.8513424E-2,6.6318363E-3,2.2300755E-4,4.3405443E-3,2.1865299E-2,-2.2266997E-2,-2.3820357E-2,-1.2194854E-2,-2.4296478E-3,1.7275315E-2,2.210235E-1,4.629377E-1,1.4054914E-2,-1.8256353E-2,1.7328964E-1,7.47485E-2,4.162462E-2,1.9874131E-2,1.290351E-2,1.8103706E-2,7.2781625E-3,1.2680567E-2,1.2145873E-1,1.1683915E-2,1.45010995E-2,8.70192E-3,2.1496689E-2,1.5350323E-2,1.6196884E-2,1.2020471E-2,4.1321227E-3,-8.068174E-3,7.153636E-2,3.0567637E-2,-1.6701136E-2,2.2199487E-2,6.783606E-2,4.5643676E-2,7.2905146E-2,2.7534813E-2,-1.4305239E-2,2.3372658E-2,3.468327E-2,2.4200702E-2,3.177812E-2,1.9772729E-2,1.3403003E-2,1.972895E-2],"split_indices":[1,1,3,1,4,1,6,3,3,3,3,1,1,11,3,1,6,1,1,4,3,4,3,3,0,6,1,3,7,1,1,1,7,3,1,0,0,3,8,3,11,4,11,3,4,3,11,0,0,1,4,3,1,3,1,1,1,1,1,1,8,1,0,1,1,11,10,1,1,1,1,3,6,0,0,3,0,0,3,8,10,0,10,10,3,4,0,4,11,0,0,0,10,4,0,4,3,4,1,4,1,6,8,1,4,11,4,3,8,4,1,3,1,0,0,0,0,0,0,0,0,0,0,0,0,0,0,0,0,0,0,0,0,0,0,0,0,0,0,0,0,0,0,0,0,0,0,0,0,0,0,0,0,0,0,0,0,0,0,0,0,0,0,0,0,0,0,0,0,0,0,0,0,0,0,0,0,0,0,0,0,0,0,0,0,0,0,0,0,0,0,0,0,0,0],"split_type":[0,0,0,0,0,0,0,0,0,0,0,0,0,0,0,0,0,0,0,0,0,0,0,0,0,0,0,0,0,0,0,0,0,0,0,0,0,0,0,0,0,0,0,0,0,0,0,0,0,0,0,0,0,0,0,0,0,0,0,0,0,0,0,0,0,0,0,0,0,0,0,0,0,0,0,0,0,0,0,0,0,0,0,0,0,0,0,0,0,0,0,0,0,0,0,0,0,0,0,0,0,0,0,0,0,0,0,0,0,0,0,0,0,0,0,0,0,0,0,0,0,0,0,0,0,0,0,0,0,0,0,0,0,0,0,0,0,0,0,0,0,0,0,0,0,0,0,0,0,0,0,0,0,0,0,0,0,0,0,0,0,0,0,0,0,0,0,0,0,0,0,0,0,0,0,0,0,0,0,0,0,0,0,0,0,0,0,0,0,0,0,0,0,0,0],"sum_hessian":[7.941E3,3.787E3,4.154E3,1.583E3,2.204E3,8.5E1,4.069E3,8.57E2,7.26E2,9.93E2,1.211E3,7E0,7.8E1,8.38E2,3.231E3,1.4E1,8.43E2,2E0,7.24E2,6E1,9.33E2,3.8E1,1.173E3,4E0,3E0,2.7E1,5.1E1,1.36E2,7.02E2,5.23E2,2.708E3,8E0,6E0,2.71E2,5.72E2,1E0,1E0,5.19E2,2.05E2,2.8E1,3.2E1,6.67E2,2.66E2,1.8E1,2E1,1.15E3,2.3E1,3E0,1E0,2E0,2.5E1,1.4E1,3.7E1,1.24E2,1.2E1,4.9E2,2.12E2,2.58E2,2.65E2,1.943E3,7.65E2,7E0,1E0,3E0,3E0,2.5E1,2.46E2,4.94E2,7.8E1,7E0,5.12E2,1.6E1,1.89E2,1E1,1.8E1,2E0,3E1,2.76E2,3.91E2,2.36E2,3E1,1.3E1,5E0,1.7E1,3E0,1.148E3,2E0,9E0,1.4E1,1E0,1E0,1E1,1.5E1,4E0,1E1,9E0,2.8E1,1.8E1,1.06E2,6E0,6E0,1.29E2,3.61E2,1.94E2,1.8E1,6.9E1,1.89E2,7.8E1,1.87E2,1.419E3,5.24E2,9.2E1,6.73E2,1E0,6E0,2E0,1E0,1E0,2E0,1.8E1,7E0,8.6E1,1.6E2,1.49E2,3.45E2,3.2E1,4.6E1,4E0,3E0,2.56E2,2.56E2,2E0,1.4E1,4.4E1,1.45E2,1E0,1E0,3.87E2,4E0,1.4E1,2.22E2,8E0,2.2E1,2E0,3E0,1.1E1,6E0,1E0,2E0,5.05E2,6.43E2,5E0,4E0,8E0,6E0,1E1,5E0,2E0,2E0,5E0,4E0,1E1,1.8E1,3E0,1.5E1,8.3E1,2.3E1,3E0,3E0,3E0,3E0,7E1,5.9E1,2.4E1,3.37E2,3.9E1,1.55E2,1.7E1,1E0,1.4E1,5.5E1,3E0,1.86E2,3.7E1,4.1E1,1.7E1,1.7E2,8E0,1.411E3,4.4E2,8.4E1,4.3E1,4.9E1,3.5E1,6.38E2],"tree_param":{"num_deleted":"0","num_feature":"12","num_nodes":"195","size_leaf_vector":"0"}},{"base_weights":[6.828572E-1,9.436236E-2,1.2152238E0,2.947721E-1,-4.5877635E-2,4.4836273E0,1.1437869E0,1.6059617E-2,6.5173155E-1,-7.344994E-1,-2.146668E-2,9.120798E0,3.7845163E0,7.264229E-1,1.2535075E0,6.742043E-1,9.639421E-3,4.176372E0,6.3391167E-1,-1.4408722E0,-5.5068195E-1,-1.882319E-1,8.648346E-3,3.8435013E0,1.734633E1,8.20355E0,3.3742723E0,1.0117198E0,6.862555E-1,1.5358497E0,1.1667136E0,1.1538578E0,3.2958758E-1,-4.9478684E-2,7.088843E-2,5.598446E0,2.760773E0,5.330842E-1,8.7391233E-1,-6.4900035E-1,3.1951272E-1,-1.7712224E-1,-9.942544E-1,2.5156045E0,5.387662E-3,-9.8964167E-1,7.2688637E0,4.7465644E0,1.3445027E1,1.1768254E0,4.283005E0,9.3691057E-1,1.2411666E0,6.510006E-1,7.977058E-1,1.2465916E0,1.8176395E0,1.253723E0,9.750845E-1,1.3469615E0,5.166902E-1,4.422876E-1,-1.0838678E-1,5.894537E-2,-7.428993E-2,4.446426E-2,2.3482315E-1,9.786945E-1,5.116906E-1,1.2579279E0,7.860789E-1,-5.1867545E-1,-1.8112248E0,6.356047E-1,-1.013963E0,-4.9352173E-2,-2.2368383E-1,1.5481195E-2,-4.4602218E-1,2.5772371E1,-8.558786E-1,6.083009E0,2.7256854E0,6.68459E0,7.956239E-1,7.669963E0,3.379499E0,9.823008E-1,5.0917304E-1,1.5319061E0,9.61926E-1,6.6981417E-1,3.4417322E-1,6.773514E-1,9.176072E-1,1.6418524E0,1.0677701E0,2.716408E0,1.3896272E0,1.1458037E0,1.6131437E0,1.0518799E0,9.163021E-1,4.9421874E-1,1.9116461E-1,1.6980377E-1,3.6817882E-2,-1.1416652E-2,-8.525205E-2,1.2923779E-1,1.5509019E-2,5.0909734E-1,6.3684374E-2,1.3762252E0,7.922801E-1,2.3822121E-2,5.7075906E-1,4.379245E-1,1.301026E0,8.385767E-1,5.037917E-1,-4.1001362E-1,-8.696851E-1,8.168291E-1,2.7977157E-1,-2.2281253E-1,1.3881071E0,-8.532785E-1,-1.7946573E-1,1.5423293E-1,-1.05656795E-2,-6.904012E-1,1.1523459E0,8.494548E-1,-1.7141991E0,1.0613548E0,1.5009688E-1,8.329892E0,4.210961E0,7.569652E-2,4.3271985E0,8.9481527E-1,1.2577503E0,5.9495527E-1,1.974666E-1,5.45839E-1,1.119216E0,6.2564236E-1,7.215724E-1,2.0926253E-1,4.9706393E-1,-3.6023874E-2,7.6760375E-1,1.5244748E1,6.9260645E-1,2.2629597E0,1.4243121E0,6.0428005E-1,1.0976046E0,3.1005845E0,2.0636268E0,2.6243482E0,1.2709252E0,9.1368693E-1,1.2230601E0,1.6850246E0,1.4195908E0,9.294752E-1,1.1201731E0,8.871163E-1,1.0806986E0],"categories":[],"categories_nodes":[],"categories_segments":[],"categories_sizes":[],"default_left":[true,true,true,true,true,true,true,true,true,true,true,true,true,true,true,true,true,true,true,false,true,true,true,true,false,true,true,true,true,true,true,true,true,true,true,false,false,true,true,true,true,true,false,false,true,false,true,true,false,true,true,true,true,true,true,true,true,true,true,false,false,true,false,true,true,true,true,true,true,true,true,true,false,true,false,true,true,true,true,false,true,false,false,false,true,true,true,true,true,false,true,true,true,true,true,true,true,true,true,true,true,true,true,false,false,false,false,false,false,false,false,false,false,false,false,false,false,false,false,false,false,false,false,false,false,false,false,false,false,false,false,false,false,false,false,false,false,false,false,false,false,false,false,false,false,false,false,false,false,false,false,false,false,false,false,false,false,false,false,false,false,false,false,false,false,false,false,false,false,false,false],"id":56,"left_children":[1,3,5,7,9,11,13,15,17,19,21,23,25,27,29,31,33,35,37,-1,39,41,43,45,-1,47,49,51,53,55,57,59,61,63,65,-1,-1,67,69,71,73,75,-1,-1,77,-1,79,81,-1,83,85,87,89,91,93,95,97,99,101,-1,-1,103,-1,105,107,109,111,113,115,117,119,121,-1,123,-1,125,127,129,131,-1,133,-1,-1,-1,135,137,139,141,143,-1,145,147,149,151,153,155,157,159,161,163,165,167,169,-1,-1,-1,-1,-1,-1,-1,-1,-1,-1,-1,-1,-1,-1,-1,-1,-1,-1,-1,-1,-1,-1,-1,-1,-1,-1,-1,-1,-1,-1,-1,-1,-1,-1,-1,-1,-1,-1,-1,-1,-1,-1,-1,-1,-1,-1,-1,-1,-1,-1,-1,-1,-1,-1,-1,-1,-1,-1,-1,-1,-1,-1,-1,-1,-1,-1,-1,-1],"loss_changes":[2.4675593E3,1.0515995E2,9.637456E2,1.5323329E2,3.6988186E1,2.746731E2,1.8500977E2,3.644474E0,4.14653E1,9.488567E0,1.0681847E1,4.6943488E2,1.3080054E2,9.408539E0,7.788818E1,1.2295163E0,3.1058152E0,1.4371796E0,1.6094116E1,0E0,5.2357483E0,2.8378115E0,1.4684329E1,1.23895996E2,0E0,9.321979E1,1.4068658E2,1.3548508E0,2.7150269E0,6.0523438E1,4.0449463E1,1.5148163E-1,2.840075E-1,1.1754757E0,1.8176832E0,0E0,0E0,4.333679E0,6.330765E0,7.8832073E0,2.8790834E0,1.9040947E0,0E0,0E0,8.194501E0,0E0,6.5918884E2,6.0490723E0,0E0,4.291083E1,1.4522601E2,1.3522034E0,1.4485741E0,3.166275E0,2.3145905E0,2.5693665E1,1.4499084E2,6.471582E1,3.114441E0,0E0,0E0,1.52314305E-2,0E0,1.9448036E-1,2.432009E-1,8.891191E-1,2.7191298E0,1.1863918E0,1.3050987E1,1.0692482E0,2.2456589E0,1.7444811E0,0E0,2.5208378E-1,0E0,2.1613094E1,6.4857645E0,6.364525E0,1.5622667E1,0E0,5.3771915E0,0E0,0E0,0E0,3.4175253E0,1.1712158E1,1.2611255E2,1.312973E0,1.7234707E-1,0E0,6.45154E-1,1.0450134E0,6.427939E-1,5.771282E0,2.777814E2,1.4455963E1,3.3129578E0,2.8471802E1,3.669455E1,2.2861206E1,4.560852E0,2.3849487E0,1.7505798E0,0E0,0E0,0E0,0E0,0E0,0E0,0E0,0E0,0E0,0E0,0E0,0E0,0E0,0E0,0E0,0E0,0E0,0E0,0E0,0E0,0E0,0E0,0E0,0E0,0E0,0E0,0E0,0E0,0E0,0E0,0E0,0E0,0E0,0E0,0E0,0E0,0E0,0E0,0E0,0E0,0E0,0E0,0E0,0E0,0E0,0E0,0E0,0E0,0E0,0E0,0E0,0E0,0E0,0E0,0E0,0E0,0E0,0E0,0E0,0E0,0E0,0E0,0E0,0E0,0E0,0E0,0E0,0E0],"parents":[2147483647,0,0,1,1,2,2,3,3,4,4,5,5,6,6,7,7,8,8,9,9,10,10,11,11,12,12,13,13,14,14,15,15,16,16,17,17,18,18,20,20,21,21,22,22,23,23,25,25,26,26,27,27,28,28,29,29,30,30,31,31,32,32,33,33,34,34,37,37,38,38,39,39,40,40,41,41,44,44,46,46,47,47,49,49,50,50,51,51,52,52,53,53,54,54,55,55,56,56,57,57,58,58,61,61,63,63,64,64,65,65,66,66,67,67,68,68,69,69,70,70,71,71,73,73,75,75,76,76,77,77,78,78,80,80,84,84,85,85,86,86,87,87,88,88,90,90,91,91,92,92,93,93,94,94,95,95,96,96,97,97,98,98,99,99,100,100,101,101,102,102],"right_children":[2,4,6,8,10,12,14,16,18,20,22,24,26,28,30,32,34,36,38,-1,40,42,44,46,-1,48,50,52,54,56,58,60,62,64,66,-1,-1,68,70,72,74,76,-1,-1,78,-1,80,82,-1,84,86,88,90,92,94,96,98,100,102,-1,-1,104,-1,106,108,110,112,114,116,118,120,122,-1,124,-1,126,128,130,132,-1,134,-1,-1,-1,136,138,140,142,144,-1,146,148,150,152,154,156,158,160,162,164,166,168,170,-1,-1,-1,-1,-1,-1,-1,-1,-1,-1,-1,-1,-1,-1,-1,-1,-1,-1,-1,-1,-1,-1,-1,-1,-1,-1,-1,-1,-1,-1,-1,-1,-1,-1,-1,-1,-1,-1,-1,-1,-1,-1,-1,-1,-1,-1,-1,-1,-1,-1,-1,-1,-1,-1,-1,-1,-1,-1,-1,-1,-1,-1,-1,-1,-1,-1,-1,-1],"split_conditions":[6.621175E-1,6.572582E-1,7.4137926E-2,3.8399246E-1,7.4137926E-2,2.2506302E-3,9.8790765E-1,2.4576882E-2,5E-1,2.2506302E-3,1.860821E-1,8.7090075E-1,7.7943826E-1,1.8887289E-1,2.5558156E-1,1.1356431E-1,1.3484347E-1,3.9780295E-1,6.341465E-1,-2.8817443E-2,1.389089E-1,1.8356138E-1,1.8671228E-1,8.0838656E-1,3.469266E-1,7.635859E-1,8.2218254E-1,9.6009064E-1,9.345995E-1,8.2218254E-1,8.349742E-1,5E-1,2.607362E-2,9.948173E-2,3.532499E-1,1.1196891E-1,5.521546E-2,3.8608843E-1,3.1445804E-1,1.3152683E-1,1.3989916E-1,5.3114872E-2,-1.9885087E-2,5.0312087E-2,9.813648E-1,-1.9792832E-2,8.349742E-1,5E-1,2.6890054E-1,9.8790765E-1,8.349742E-1,8.9298576E-1,2.3620689E-1,9.02244E-1,6.3890886E-1,7.7943826E-1,8.349742E-1,8.2218254E-1,5.9110546E-1,2.693923E-2,1.03338035E-2,5E-1,-2.1677355E-3,1.3917896E-1,1.7410874E-1,8.23977E-2,3.698545E-1,2.1444005E-1,3.989272E-1,7.920965E-1,6.4979887E-1,6.9859564E-2,-3.6224496E-2,1.39269E-1,-2.0279258E-2,4.8973713E-2,6.1667267E-2,3.0644578E-1,9.975693E-1,5.1544744E-1,8.4844077E-1,1.2166017E-1,5.4513708E-2,1.3369179E-1,7.958708E-1,6.724138E-2,8.5870504E-1,8.224432E-1,9.345995E-1,3.0638121E-2,6.364782E-2,7.7778685E-1,9.0605086E-1,9.4889903E-1,6.4268994E-1,1.6034484E-1,3.0518545E-2,1.8248108E-1,3.2589123E-2,7.554066E-1,7.71516E-1,8.76709E-1,7.724138E-1,9.884374E-3,3.8232922E-3,3.3960752E-3,7.3635764E-4,-2.2833304E-4,-1.7050409E-3,2.5847557E-3,3.1018036E-4,1.0181947E-2,1.2736875E-3,2.7524505E-2,1.58456E-2,4.7644242E-4,1.1415181E-2,8.75849E-3,2.602052E-2,1.6771533E-2,1.0075834E-2,-8.200272E-3,-1.7393703E-2,1.633658E-2,5.595431E-3,-4.4562505E-3,2.7762141E-2,-1.706557E-2,-3.5893144E-3,3.0846586E-3,-2.1131359E-4,-1.3808023E-2,2.3046918E-2,1.6989095E-2,-3.428398E-2,2.1227095E-2,3.0019374E-3,1.6659784E-1,8.421922E-2,1.5139304E-3,8.654397E-2,1.7896306E-2,2.5155004E-2,1.1899105E-2,3.949332E-3,1.091678E-2,2.238432E-2,1.2512847E-2,1.4431448E-2,4.1852505E-3,9.941278E-3,-7.204775E-4,1.5352075E-2,3.0489495E-1,1.3852129E-2,4.5259193E-2,2.8486243E-2,1.2085601E-2,2.1952093E-2,6.201169E-2,4.1272536E-2,5.2486964E-2,2.5418503E-2,1.827374E-2,2.4461202E-2,3.3700492E-2,2.8391816E-2,1.8589504E-2,2.2403462E-2,1.7742326E-2,2.1613972E-2],"split_indices":[1,1,3,1,3,5,6,5,0,5,5,1,1,5,5,1,6,1,1,0,5,5,5,1,0,1,1,1,1,1,1,0,7,1,1,0,0,1,5,5,5,5,0,0,5,0,1,0,0,6,1,1,3,1,5,1,1,1,5,0,0,0,0,5,5,1,1,5,1,6,1,5,0,5,0,5,5,5,5,0,1,0,0,0,1,3,1,1,1,0,5,1,1,1,5,3,5,5,5,1,5,1,3,0,0,0,0,0,0,0,0,0,0,0,0,0,0,0,0,0,0,0,0,0,0,0,0,0,0,0,0,0,0,0,0,0,0,0,0,0,0,0,0,0,0,0,0,0,0,0,0,0,0,0,0,0,0,0,0,0,0,0,0,0,0,0,0,0,0,0,0],"split_type":[0,0,0,0,0,0,0,0,0,0,0,0,0,0,0,0,0,0,0,0,0,0,0,0,0,0,0,0,0,0,0,0,0,0,0,0,0,0,0,0,0,0,0,0,0,0,0,0,0,0,0,0,0,0,0,0,0,0,0,0,0,0,0,0,0,0,0,0,0,0,0,0,0,0,0,0,0,0,0,0,0,0,0,0,0,0,0,0,0,0,0,0,0,0,0,0,0,0,0,0,0,0,0,0,0,0,0,0,0,0,0,0,0,0,0,0,0,0,0,0,0,0,0,0,0,0,0,0,0,0,0,0,0,0,0,0,0,0,0,0,0,0,0,0,0,0,0,0,0,0,0,0,0,0,0,0,0,0,0,0,0,0,0,0,0,0,0,0,0,0,0],"sum_hessian":[7.876E3,3.741E3,4.135E3,1.54E3,2.201E3,8.8E1,4.047E3,8.65E2,6.75E2,7.5E1,2.126E3,1.1E1,7.7E1,8.43E2,3.204E3,8E0,8.57E2,3E0,6.72E2,1.5E1,6E1,3.25E2,1.801E3,7E0,4E0,6E0,7.1E1,1.03E2,7.4E2,7.52E2,2.452E3,3E0,5E0,4.36E2,4.21E2,1E0,2E0,4.74E2,1.98E2,5.4E1,6E0,3.21E2,4E0,2E0,1.799E3,3E0,4E0,4E0,2E0,2.1E1,5E1,7.9E1,2.4E1,5.64E2,1.76E2,3.72E2,3.8E2,1.685E3,7.67E2,2E0,1E0,4E0,1E0,8.1E1,3.55E2,3.63E2,5.8E1,2.1E1,4.53E2,3.6E1,1.62E2,4.9E1,5E0,5E0,1E0,8.6E1,2.35E2,1.76E3,3.9E1,1E0,3E0,2E0,2E0,1E0,2E1,1E1,4E1,7.1E1,8E0,1.1E1,1.3E1,5.31E2,3.3E1,8.9E1,8.7E1,1.15E2,2.57E2,1.22E2,2.58E2,1.297E3,3.88E2,3.3E2,4.37E2,3E0,1E0,1.3E1,6.8E1,5.3E1,3.02E2,9.2E1,2.71E2,2.2E1,3.6E1,6E0,1.5E1,4.9E1,4.04E2,2E0,3.4E1,1.36E2,2.6E1,3.8E1,1.1E1,3E0,2E0,7.7E1,9E0,1.5E1,2.2E2,2.78E2,1.482E3,3.4E1,5E0,1E0,2E0,1.4E1,6E0,8E0,2E0,9E0,3.1E1,5.5E1,1.6E1,6E0,2E0,4E0,9E0,2.89E2,2.42E2,1.8E1,1.5E1,1E1,7.9E1,1E0,8.6E1,2.9E1,8.6E1,1.6E1,2.41E2,7.6E1,4.6E1,2.2E1,2.36E2,3.25E2,9.72E2,2.81E2,1.07E2,1.2E2,2.1E2,3.73E2,6.4E1],"tree_param":{"num_deleted":"0","num_feature":"12","num_nodes":"171","size_leaf_vector":"0"}},{"base_weights":[6.668346E-1,2.9388514E0,6.3722897E-1,7.1552736E-1,3.317824E0,-8.392932E-3,7.0673E-1,1.7292027E-1,6.3583703E0,2.2321472E-1,3.4653003E0,-7.193983E-2,3.4286264E-2,2.8159952E-2,7.6756847E-1,1.4468865E0,-3.6553344E-1,3.3716252E-1,-1.0676117E-1,3.0781357E0,4.107462E0,3.444548E-2,-7.414358E-2,1.8714198E-1,1.659117E-2,5.8021677E-1,-2.341593E-1,1.3982859E0,7.4492466E-1,8.0006504E-1,1.8808236E0,3.5940666E0,2.580101E0,4.474784E0,1.5559644E0,6.2087238E-2,-7.403006E-2,-2.9643344E-2,-7.722127E-2,-1.48610845E-2,2.2267677E-1,1.3479567E-1,2.951892E-3,4.6693718E-1,8.011106E-1,-1.565192E-1,-2.4341987E-1,1.0807637E0,1.9148291E0,5.504326E-1,8.0474794E-1,1.7827674E0,3.7232301E0,3.5306695E0,2.4204962E0,4.656352E0,3.191395E0,9.054034E-2,6.455097E-3,-4.2827353E-2,1.9038593E-2,-9.29834E-2,-6.919747E-2,6.615053E-2,-5.2050114E-2,1.849891E-1,3.3971417E-1,5.089407E-1,1.2129265E-1,-2.6134418E-2,1.510669E-2,7.919337E-1,4.3006977E-1,1.9623964E0,7.5234056E-1,-2.2220474E-1,2.3666161E-1,-2.6729012E-1,-2.3358926E-1,1.3753667E0,6.9359255E-1,1.3072256E0,2.4165475E0,8.163549E-1,5.2266204E-1,5.889933E-1,8.518886E-1,1.8104035E0,4.003049E0,1.4116967E-1,4.255627E-2,-5.1132113E-2,7.3124975E-2,-6.2204678E-2,-2.4543824E-2,-1.1050029E-2,3.3449266E-2,-5.841835E-2,-1.0136443E-1,-8.2692154E-2,-6.2404163E-2,-5.884308E-2,-6.261039E-3,2.6865178E-1,1.276893E-1,-3.093353E-2,4.4414967E-1,3.7802283E-2,1.6307275E-1,-2.1102317E-2,-8.396255E-2,5.298956E-2,5.2687866E-3,1.6776298E-1,4.390242E-1,9.7401965E-1,6.732561E-1,-2.7307826E-1,-1.5034789E-1,-2.5134528E-1,1.1152273E0,-1.6131668E-1,-2.3753254E-1,8.072068E-1,1.6797496E0,3.7679803E-1,1.2405326E0,1.202423E0,2.7910483E0,2.6985843E0,1.8919421E0,5.3218675E-1,1.0351951E0,6.1117405E-1,4.5596454E-1,4.260766E-1,6.616748E-1,1.2389085E0,8.261484E-1],"categories":[],"categories_nodes":[],"categories_segments":[],"categories_sizes":[],"default_left":[true,true,true,true,true,true,true,true,false,true,true,true,true,true,true,true,false,false,false,true,true,true,true,true,true,true,true,true,true,false,false,true,true,true,false,true,false,true,true,true,true,true,true,true,true,true,true,true,true,true,true,false,false,true,false,false,false,true,true,true,true,true,true,false,true,true,true,false,true,true,true,false,true,false,true,true,true,false,true,true,true,true,true,true,true,true,true,false,false,false,false,false,false,false,false,false,false,false,false,false,false,false,false,false,false,false,false,false,false,false,false,false,false,false,false,false,false,false,false,false,false,false,false,false,false,false,false,false,false,false,false,false,false,false,false,false,false,false,false],"id":57,"left_children":[1,3,5,7,9,11,13,15,-1,17,19,21,23,25,27,29,-1,-1,-1,31,33,35,37,39,41,43,45,47,49,-1,-1,51,53,55,-1,57,-1,59,61,63,65,67,69,71,73,75,77,79,81,83,85,-1,-1,87,-1,-1,-1,89,91,93,95,97,99,-1,101,103,105,-1,107,109,111,-1,113,-1,115,117,119,-1,121,123,125,127,129,131,133,135,137,-1,-1,-1,-1,-1,-1,-1,-1,-1,-1,-1,-1,-1,-1,-1,-1,-1,-1,-1,-1,-1,-1,-1,-1,-1,-1,-1,-1,-1,-1,-1,-1,-1,-1,-1,-1,-1,-1,-1,-1,-1,-1,-1,-1,-1,-1,-1,-1,-1,-1,-1,-1],"loss_changes":[5.3497485E2,8.5374756E1,3.52761E2,4.6488926E1,3.9546936E1,2.074332E0,2.9298193E2,1.0024152E1,0E0,1.7822869E-1,1.6399841E1,7.347107E-2,1.2330525E0,8.467058E1,9.264453E1,6.7627525E-1,0E0,0E0,0E0,1.0523743E1,2.6021332E1,2.035302E-2,3.8982272E-2,3.4383392E-1,6.5945196E-1,4.5697975E0,2.6655006E-1,3.6225006E1,7.299878E1,0E0,0E0,3.6348572E0,1.3639069E0,1.0689087E0,0E0,6.863944E-3,0E0,1.366172E-2,3.112185E-2,2.3040928E-2,1.494646E-1,1.8429708E-1,1.3019432E-1,1.3707104E0,3.0558968E0,1.136473E0,5.49469E-2,1.5659058E1,2.4907013E1,1.077063E1,4.8716797E1,0E0,0E0,2.0920181E-1,0E0,0E0,0E0,3.4742784E-3,1.0519542E-2,4.0402096E-3,2.321742E-3,2.2784054E-2,1.3474703E-2,0E0,6.074356E-4,1.3311529E-1,3.717631E-1,0E0,1.3925993E-1,2.9435232E-2,9.6099064E-2,0E0,2.3298264E-1,0E0,8.330841E-1,1.1674559E-1,2.8212483E0,0E0,5.373001E-2,1.3232162E1,1.0448162E1,4.94059E0,5.087372E0,8.458717E0,7.810425E0,1.011322E1,3.8932617E1,0E0,0E0,0E0,0E0,0E0,0E0,0E0,0E0,0E0,0E0,0E0,0E0,0E0,0E0,0E0,0E0,0E0,0E0,0E0,0E0,0E0,0E0,0E0,0E0,0E0,0E0,0E0,0E0,0E0,0E0,0E0,0E0,0E0,0E0,0E0,0E0,0E0,0E0,0E0,0E0,0E0,0E0,0E0,0E0,0E0,0E0,0E0,0E0,0E0,0E0,0E0,0E0],"parents":[2147483647,0,0,1,1,2,2,3,3,4,4,5,5,6,6,7,7,9,9,10,10,11,11,12,12,13,13,14,14,15,15,19,19,20,20,21,21,22,22,23,23,24,24,25,25,26,26,27,27,28,28,31,31,32,32,33,33,35,35,37,37,38,38,39,39,40,40,41,41,42,42,43,43,44,44,45,45,46,46,47,47,48,48,49,49,50,50,53,53,57,57,58,58,59,59,60,60,61,61,62,62,64,64,65,65,66,66,68,68,69,69,70,70,72,72,74,74,75,75,76,76,78,78,79,79,80,80,81,81,82,82,83,83,84,84,85,85,86,86],"right_children":[2,4,6,8,10,12,14,16,-1,18,20,22,24,26,28,30,-1,-1,-1,32,34,36,38,40,42,44,46,48,50,-1,-1,52,54,56,-1,58,-1,60,62,64,66,68,70,72,74,76,78,80,82,84,86,-1,-1,88,-1,-1,-1,90,92,94,96,98,100,-1,102,104,106,-1,108,110,112,-1,114,-1,116,118,120,-1,122,124,126,128,130,132,134,136,138,-1,-1,-1,-1,-1,-1,-1,-1,-1,-1,-1,-1,-1,-1,-1,-1,-1,-1,-1,-1,-1,-1,-1,-1,-1,-1,-1,-1,-1,-1,-1,-1,-1,-1,-1,-1,-1,-1,-1,-1,-1,-1,-1,-1,-1,-1,-1,-1,-1,-1,-1,-1],"split_conditions":[5E-1,5.5555556E-2,3.9510223E-1,1.3137093E-1,5.261916E-2,7.6129995E-2,5.5555556E-2,8.231776E-1,1.271674E-1,2.607362E-2,2.777778E-1,1.8427517E-2,1.3390663E-1,9.8790765E-1,1.8427517E-2,3.9510223E-1,-7.3106685E-3,6.7432504E-3,-2.1352235E-3,1.6666667E-1,5E-1,1.6878912E-2,5.0082594E-1,1.6680852E-1,5.0082594E-1,9.5682657E-1,5.0082594E-1,7.0297873E-1,1.6666667E-1,1.60013E-2,3.7616473E-2,9.8790765E-1,9.8790765E-1,3.888889E-1,3.1119287E-2,1.6666667E-1,-1.4806011E-3,2.777778E-1,3.5106385E-1,6E-2,9.9787235E-1,1.3234043E-1,1.3484347E-1,1.3390663E-1,7.125307E-2,9.9787235E-1,3.1941032E-1,3.9234042E-1,2.777778E-1,5.0082594E-1,9.8790765E-1,3.5655346E-2,7.4464604E-2,9.5682657E-1,4.8409924E-2,9.312704E-2,6.38279E-2,3.6468086E-1,6.6170216E-1,6.595745E-1,3.746929E-1,1.3234043E-1,3.6677136E-3,1.3230105E-3,5.5555556E-2,1.2285012E-2,5.0041294E-1,1.0178814E-2,1.3484347E-1,9.533169E-1,5.5555556E-2,1.5838673E-2,1.4127764E-1,3.9247926E-2,5.0082594E-1,1.2389015E-3,5.3562653E-1,-5.3458023E-3,3.4520882E-1,2.2170213E-1,2.777778E-1,1.3137093E-1,6.142506E-3,6.4496315E-1,3.9234042E-1,7.920965E-1,1.2389015E-3,3.6208067E-2,8.0060974E-2,2.8233933E-3,8.511254E-4,-1.0226422E-3,1.4624995E-3,-1.2440935E-3,-4.9087644E-4,-2.2100058E-4,6.689853E-4,-1.168367E-3,-2.0272885E-3,-1.6538431E-3,-1.2480832E-3,-1.1768616E-3,-1.2522077E-4,5.3730356E-3,2.553786E-3,-6.1867054E-4,8.882993E-3,7.560456E-4,3.2614549E-3,-4.2204632E-4,-1.679251E-3,1.0597912E-3,1.0537573E-4,3.3552595E-3,8.780484E-3,1.9480392E-2,1.3465121E-2,-5.461565E-3,-3.0069577E-3,-5.0269053E-3,2.2304546E-2,-3.2263335E-3,-4.750651E-3,1.6144136E-2,3.3594992E-2,7.5359605E-3,2.4810651E-2,2.4048459E-2,5.5820964E-2,5.3971685E-2,3.7838843E-2,1.0643735E-2,2.0703902E-2,1.222348E-2,9.119291E-3,8.521532E-3,1.3233496E-2,2.477817E-2,1.6522968E-2],"split_indices":[0,4,6,7,7,6,4,6,0,7,4,11,11,6,11,6,0,0,0,4,4,6,8,10,8,6,8,10,4,0,0,6,6,4,0,4,0,4,10,10,10,10,6,11,11,10,11,10,4,8,6,0,0,6,0,0,0,10,10,10,11,10,6,0,4,11,8,0,6,11,4,0,11,0,8,8,11,0,11,10,4,7,11,11,10,6,8,0,0,0,0,0,0,0,0,0,0,0,0,0,0,0,0,0,0,0,0,0,0,0,0,0,0,0,0,0,0,0,0,0,0,0,0,0,0,0,0,0,0,0,0,0,0,0,0,0,0,0,0],"split_type":[0,0,0,0,0,0,0,0,0,0,0,0,0,0,0,0,0,0,0,0,0,0,0,0,0,0,0,0,0,0,0,0,0,0,0,0,0,0,0,0,0,0,0,0,0,0,0,0,0,0,0,0,0,0,0,0,0,0,0,0,0,0,0,0,0,0,0,0,0,0,0,0,0,0,0,0,0,0,0,0,0,0,0,0,0,0,0,0,0,0,0,0,0,0,0,0,0,0,0,0,0,0,0,0,0,0,0,0,0,0,0,0,0,0,0,0,0,0,0,0,0,0,0,0,0,0,0,0,0,0,0,0,0,0,0,0,0,0,0],"sum_hessian":[7.963E3,1.02E2,7.861E3,1.5E1,8.7E1,7.64E2,7.097E3,1.4E1,1E0,4E0,8.3E1,3.07E2,4.57E2,5.84E2,6.513E3,4E0,1E1,3E0,1E0,5.3E1,3E1,6E0,3.01E2,4.7E1,4.1E2,1.88E2,3.96E2,2.25E2,6.288E3,2E0,2E0,2.5E1,2.8E1,2.6E1,4E0,5E0,1E0,2E1,2.81E2,7E0,4E1,4.2E1,3.68E2,1.25E2,6.3E1,4.3E1,3.53E2,1.4E2,8.5E1,1.48E3,4.808E3,2E0,2.3E1,3E0,2.5E1,2.2E1,4E0,3E0,2E0,1.6E1,4E0,9.3E1,1.88E2,2E0,5E0,3.1E1,9E0,1E0,4.1E1,1.08E2,2.6E2,1.2E1,1.13E2,2E0,6.1E1,3.7E1,6E0,1E2,2.53E2,7.9E1,6.1E1,3.9E1,4.6E1,1.39E2,1.341E3,8.63E2,3.945E3,1E0,2E0,1E0,2E0,1E0,1E0,7E0,9E0,1E0,3E0,1.9E1,7.4E1,6.1E1,1.27E2,4E0,1E0,1.2E1,1.9E1,2E0,7E0,1.4E1,2.7E1,1E2,8E0,5.3E1,2.07E2,4E0,1.09E2,1.5E1,4.6E1,2.1E1,1.6E1,4E0,2E0,1.4E1,2.39E2,2.8E1,5.1E1,3.9E1,2.2E1,3.7E1,2E0,2.9E1,1.7E1,6.1E1,7.8E1,5.75E2,7.66E2,2.67E2,5.96E2,2.45E2,3.7E3],"tree_param":{"num_deleted":"0","num_feature":"12","num_nodes":"139","size_leaf_vector":"0"}},{"base_weights":[6.5611017E-1,8.5692234E-2,1.1778404E0,2.8791556E-1,-6.0105383E-2,6.744697E0,1.105865E0,2.4000175E-2,6.211304E-1,-2.0844208E-1,6.3333526E-2,1.2046535E1,5.697043E0,3.4539309E0,1.0821718E0,7.8220236E-1,1.1400945E-2,4.0591493E0,6.042571E-1,-6.385692E-1,-1.947829E-1,-7.274199E-1,9.388261E-2,7.8157005E0,1.3934971E1,1.5399E0,7.8048525E0,1.1699948E0,4.406966E0,6.749517E-1,1.1847491E0,1.0388875E0,4.0102366E-1,-6.9566056E-2,4.965063E-2,5.4862685E0,2.6574187E0,4.6532384E-1,7.347869E-1,-3.248654E-1,-8.9994997E-1,-1.7441875E-1,-4.478432E-1,-4.2983586E-1,-9.655314E-1,-1.2794026E-2,1.8614234E-1,1.6499554E1,8.273815E0,6.8318973E0,5.741723E-1,2.4620298E1,4.8251495E0,2.6606567E0,7.9424095E-1,7.084708E0,3.0375025E0,1.0088359E0,6.557343E-1,1.4629624E0,1.1314285E0,1.2239355E0,3.8205484E-1,4.4778097E-1,1.0302493E-1,9.189116E-3,-7.5425446E-2,2.9092435E-2,2.5088117E-1,9.429481E-1,4.259149E-1,1.6689788E0,7.08937E-1,-7.450951E-2,-3.407086E-1,-1.8663917E-1,3.7860984E-1,-2.190521E-1,-5.8521223E-1,-2.5006682E-1,-8.1179255E-1,-1.1743371E0,8.523321E-2,-4.4482637E-2,4.073767E-1,4.7189376E-1,1.2902886E-1,1.7832502E0,1.2684586E1,1.0495058E0,2.4526832E-1,5.0448757E1,1.1821046E1,-2.9908386E-1,8.174446E0,1.0079613E0,-7.6403804E-2,3.752418E0,1.6950855E0,9.6828604E-1,2.0331786E0,6.935916E-1,5.6836736E-1,1.2236562E0,1.6894566E0,1.20438E0,9.459482E-1,1.3013958E0,5.973425E-1,-4.2473536E-2,6.758693E-2,-9.164406E-2,-6.618535E-2,1.0339454E-1,-2.2395637E-3,5.2051485E-1,7.537745E-2,1.3484406E0,8.204214E-1,3.4899995E-2,4.9709013E-1,1.8544035E0,8.416162E-1,1.2407454E0,6.7340285E-1,-1.4680704E-1,-2.2981942E-1,-1.6804945E-1,8.615295E-1,-3.5950166E-1,-7.6521385E-1,-9.267711E-1,-1.3087041E0,-1.01248175E-1,2.656469E-1,8.127297E-2,-2.3783427E-1,6.6885257E-1,-2.1089382E-1,2.9739618E-1,1.6281452E0,-4.5475817E-1,1.7078406E-1,4.5488432E-1,-3.5260612E-1,9.201465E-1,-1.1198072E0,3.5435946E0,1.45661545E1,1.5975932E-2,-1.603736E-1,5.738468E-1,4.009477E0,1.1746895E0,8.137534E-1,5.5269784E-1,7.4582314E-1,6.2538147E-1,6.9517255E-2,1.760467E0,1.0408931E0,2.5280674E0,1.3633138E0,1.084821E0,1.5267893E0,9.7326356E-1,7.515685E-1],"categories":[],"categories_nodes":[],"categories_segments":[],"categories_sizes":[],"default_left":[true,true,true,true,true,true,true,true,true,true,true,true,true,true,true,true,true,true,true,true,true,true,true,false,true,true,true,true,true,true,true,true,true,true,true,false,false,true,true,true,false,true,true,true,true,true,true,false,true,false,true,true,true,false,true,false,true,true,true,true,true,true,false,false,false,true,true,true,true,true,true,true,true,false,false,true,true,false,true,false,false,true,true,true,true,true,true,false,false,false,true,false,false,true,true,false,true,false,true,true,false,true,true,true,true,true,true,false,false,false,false,false,false,false,false,false,false,false,false,false,false,false,false,false,false,false,false,false,false,false,false,false,false,false,false,false,false,false,false,false,false,false,false,false,false,false,false,false,false,false,false,false,false,false,false,false,false,false,false,false,false,false,false,false,false,false,false],"id":58,"left_children":[1,3,5,7,9,11,13,15,17,19,21,23,25,27,29,31,33,35,37,39,41,43,45,-1,47,49,51,53,55,57,59,61,63,65,67,-1,-1,69,71,73,-1,75,77,79,81,83,85,-1,87,-1,89,91,93,-1,95,-1,97,99,101,103,105,107,-1,-1,-1,109,111,113,115,117,119,121,123,-1,-1,125,127,-1,129,-1,-1,131,133,135,137,139,141,-1,-1,-1,143,-1,-1,145,147,-1,149,-1,151,153,-1,155,157,159,161,163,165,-1,-1,-1,-1,-1,-1,-1,-1,-1,-1,-1,-1,-1,-1,-1,-1,-1,-1,-1,-1,-1,-1,-1,-1,-1,-1,-1,-1,-1,-1,-1,-1,-1,-1,-1,-1,-1,-1,-1,-1,-1,-1,-1,-1,-1,-1,-1,-1,-1,-1,-1,-1,-1,-1,-1,-1,-1,-1,-1,-1],"loss_changes":[2.339217E3,1.10730064E2,1.6423105E3,1.3834558E2,3.9966133E1,2.6754688E2,2.2418848E2,8.376219E0,3.945227E1,5.770897E0,2.8792536E1,2.9952515E1,3.8432935E2,8.5993774E1,1.673501E2,1.24296E0,2.6776762E0,1.6904526E0,1.2424301E1,2.372262E0,4.9191704E0,2.9830875E0,1.1295274E1,0E0,3.1557007E1,7.6949936E1,1.4297194E3,6.154272E0,9.65802E1,4.94223E0,4.696045E1,8.34054E-1,6.500745E-2,1.2915349E-1,2.4233341E0,0E0,0E0,6.1772385E0,8.176544E0,4.2464733E-2,0E0,6.037916E0,2.187707E0,1.3133352E0,5.3878136E0,7.088688E0,1.0013527E1,0E0,5.9054123E1,0E0,1.9802346E0,1.2328242E3,4.357152E2,0E0,1.9617639E0,0E0,1.6355804E1,1.1006203E0,2.3818665E0,2.7146729E1,3.6006104E1,2.1083832E-2,0E0,0E0,0E0,5.9644315E-2,3.444028E-2,1.2431383E0,2.549569E0,8.588047E-1,8.651211E0,8.729744E-1,6.2577515E0,0E0,0E0,1.4820366E0,5.1620646E0,0E0,1.6934128E0,0E0,0E0,2.4004173E-1,1.5710858E-1,1.2052738E1,6.0890045E0,2.0458185E1,1.2534943E1,0E0,0E0,0E0,1.0993305E0,0E0,0E0,1.068665E1,4.3638525E2,0E0,2.1015082E-2,0E0,1.8197617E1,1.0031433E0,0E0,3.7615051E0,6.6119385E0,2.400711E1,7.08186E1,7.381885E1,3.7738037E0,0E0,0E0,0E0,0E0,0E0,0E0,0E0,0E0,0E0,0E0,0E0,0E0,0E0,0E0,0E0,0E0,0E0,0E0,0E0,0E0,0E0,0E0,0E0,0E0,0E0,0E0,0E0,0E0,0E0,0E0,0E0,0E0,0E0,0E0,0E0,0E0,0E0,0E0,0E0,0E0,0E0,0E0,0E0,0E0,0E0,0E0,0E0,0E0,0E0,0E0,0E0,0E0,0E0,0E0,0E0,0E0,0E0,0E0,0E0,0E0],"parents":[2147483647,0,0,1,1,2,2,3,3,4,4,5,5,6,6,7,7,8,8,9,9,10,10,11,11,12,12,13,13,14,14,15,15,16,16,17,17,18,18,19,19,20,20,21,21,22,22,24,24,25,25,26,26,27,27,28,28,29,29,30,30,31,31,32,32,33,33,34,34,37,37,38,38,39,39,41,41,42,42,43,43,44,44,45,45,46,46,48,48,50,50,51,51,52,52,54,54,56,56,57,57,58,58,59,59,60,60,61,61,65,65,66,66,67,67,68,68,69,69,70,70,71,71,72,72,75,75,76,76,78,78,81,81,82,82,83,83,84,84,85,85,86,86,90,90,93,93,94,94,96,96,98,98,99,99,101,101,102,102,103,103,104,104,105,105,106,106],"right_children":[2,4,6,8,10,12,14,16,18,20,22,24,26,28,30,32,34,36,38,40,42,44,46,-1,48,50,52,54,56,58,60,62,64,66,68,-1,-1,70,72,74,-1,76,78,80,82,84,86,-1,88,-1,90,92,94,-1,96,-1,98,100,102,104,106,108,-1,-1,-1,110,112,114,116,118,120,122,124,-1,-1,126,128,-1,130,-1,-1,132,134,136,138,140,142,-1,-1,-1,144,-1,-1,146,148,-1,150,-1,152,154,-1,156,158,160,162,164,166,-1,-1,-1,-1,-1,-1,-1,-1,-1,-1,-1,-1,-1,-1,-1,-1,-1,-1,-1,-1,-1,-1,-1,-1,-1,-1,-1,-1,-1,-1,-1,-1,-1,-1,-1,-1,-1,-1,-1,-1,-1,-1,-1,-1,-1,-1,-1,-1,-1,-1,-1,-1,-1,-1,-1,-1,-1,-1,-1,-1],"split_conditions":[6.621175E-1,6.572582E-1,5E-1,3.8399246E-1,1.6666667E-1,7.876776E-1,7.4137926E-2,6.724138E-2,5E-1,8.275862E-2,7.4137926E-2,7.563675E-1,8.2218254E-1,8.2218254E-1,9.8790765E-1,1.6666667E-1,7.6129995E-2,3.9780295E-1,7.920965E-1,5.5555556E-2,7.224138E-1,2.777778E-1,2.777778E-1,1.56314E-1,7.703592E-1,9.8790765E-1,8.349742E-1,7.759628E-1,8.349742E-1,1.6034484E-1,2.5344828E-1,5E-1,1.7225096E-1,1.6034484E-1,3.532499E-1,1.0972537E-1,5.3148374E-2,3.8608843E-1,1.5172413E-1,5.0041294E-1,-1.7998999E-2,7.1034485E-1,5.5555556E-2,5E-1,5E-1,7.5E-1,2.689655E-1,3.2999107E-1,7.7859855E-1,1.3663794E-1,1.6666667E-1,1.6666667E-1,8.571358E-1,5.3213134E-2,2.777778E-1,1.4169416E-1,2.777778E-1,1.5E-1,5.8854413E-1,8.2218254E-1,8.4422266E-1,2.8379714E-1,7.6410966E-3,8.955619E-3,2.0604986E-3,1.3895726E-1,3.6677136E-3,8.23977E-2,3.698545E-1,2.1896552E-1,3.989272E-1,5.34398E-1,5.0082594E-1,-1.4901902E-3,-6.814172E-3,4.95086E-1,8.2186735E-1,-4.381042E-3,6.621622E-1,-5.0013363E-3,-1.623585E-2,6.7567565E-2,5E-1,3.948276E-1,9.137931E-1,2.5344828E-1,1.4127764E-1,3.5665E-2,2.536917E-1,2.0990117E-2,8.0966675E-1,1.0089751E0,2.3642091E-1,2.777778E-1,2.777778E-1,2.0159226E-2,8.0966675E-1,7.504836E-2,4.4444448E-1,1.15517244E-1,4.066357E-2,7.684338E-1,9.345995E-1,7.6706135E-1,8.349742E-1,8.2218254E-1,5E-1,2.6027914E-2,1.19468495E-2,-8.494707E-4,1.3517386E-3,-1.8328812E-3,-1.3237069E-3,2.0678907E-3,-4.4791275E-5,1.0410297E-2,1.507549E-3,2.6968813E-2,1.6408427E-2,6.979999E-4,9.941802E-3,3.708807E-2,1.6832324E-2,2.4814907E-2,1.3468057E-2,-2.9361409E-3,-4.5963884E-3,-3.360989E-3,1.723059E-2,-7.190033E-3,-1.5304277E-2,-1.8535422E-2,-2.6174081E-2,-2.0249635E-3,5.312938E-3,1.6254593E-3,-4.7566853E-3,1.3377051E-2,-4.2178766E-3,5.9479238E-3,3.2562904E-2,-9.095163E-3,3.415681E-3,9.097686E-3,-7.052122E-3,1.840293E-2,-2.2396144E-2,7.087189E-2,2.913231E-1,3.1951861E-4,-3.207472E-3,1.1476936E-2,8.018954E-2,2.3493791E-2,1.6275069E-2,1.1053956E-2,1.4916463E-2,1.2507629E-2,1.390345E-3,3.520934E-2,2.0817861E-2,5.0561346E-2,2.7266275E-2,2.1696419E-2,3.0535785E-2,1.9465271E-2,1.5031369E-2],"split_indices":[1,1,0,1,4,1,3,3,0,3,3,1,1,1,6,4,6,1,6,4,3,4,4,0,1,6,1,1,1,3,3,0,1,3,1,0,0,1,3,8,0,3,4,0,4,3,3,0,1,0,4,4,1,0,4,0,4,3,7,1,1,1,0,0,0,1,6,1,1,3,1,11,8,0,0,11,11,0,11,0,0,11,0,3,3,3,11,0,0,0,1,0,0,4,4,0,1,0,4,3,0,1,1,1,1,1,4,0,0,0,0,0,0,0,0,0,0,0,0,0,0,0,0,0,0,0,0,0,0,0,0,0,0,0,0,0,0,0,0,0,0,0,0,0,0,0,0,0,0,0,0,0,0,0,0,0,0,0,0,0,0,0,0,0,0,0,0],"split_type":[0,0,0,0,0,0,0,0,0,0,0,0,0,0,0,0,0,0,0,0,0,0,0,0,0,0,0,0,0,0,0,0,0,0,0,0,0,0,0,0,0,0,0,0,0,0,0,0,0,0,0,0,0,0,0,0,0,0,0,0,0,0,0,0,0,0,0,0,0,0,0,0,0,0,0,0,0,0,0,0,0,0,0,0,0,0,0,0,0,0,0,0,0,0,0,0,0,0,0,0,0,0,0,0,0,0,0,0,0,0,0,0,0,0,0,0,0,0,0,0,0,0,0,0,0,0,0,0,0,0,0,0,0,0,0,0,0,0,0,0,0,0,0,0,0,0,0,0,0,0,0,0,0,0,0,0,0,0,0,0,0,0,0,0,0,0,0],"sum_hessian":[7.86E3,3.755E3,4.105E3,1.573E3,2.182E3,5.2E1,4.053E3,8.78E2,6.95E2,9.91E2,1.191E3,8E0,4.4E1,4E1,4.013E3,1.4E1,8.64E2,3E0,6.92E2,3E1,9.61E2,4.4E1,1.147E3,3E0,5E0,1.5E1,2.9E1,1.2E1,2.8E1,8.08E2,3.205E3,8E0,6E0,2.77E2,5.87E2,1E0,2E0,3.36E2,3.56E2,1.4E1,1.6E1,8.9E2,7.1E1,2E1,2.4E1,5.32E2,6.15E2,3E0,2E0,2E0,1.3E1,4E0,2.5E1,2E0,1E1,9E0,1.9E1,4.3E1,7.65E2,5.14E2,2.691E3,6E0,2E0,5E0,1E0,1.9E1,2.58E2,5.33E2,5.4E1,2.5E1,3.11E2,9E0,3.47E2,1E0,1.3E1,8.71E2,1.9E1,2.7E1,4.4E1,1.4E1,6E0,2E1,4E0,4.95E2,3.7E1,1.02E2,5.13E2,1E0,1E0,5E0,8E0,1E0,3E0,1E1,1.5E1,8E0,2E0,1.2E1,7E0,4.2E1,1E0,5.32E2,2.33E2,2.51E2,2.63E2,1.93E3,7.61E2,5E0,1E0,1E1,9E0,9.2E1,1.66E2,1.58E2,3.75E2,2.1E1,3.3E1,5E0,2E1,4.8E1,2.63E2,7E0,2E0,2.1E1,3.26E2,4.54E2,4.17E2,9E0,1E1,2E1,2.4E1,8E0,1.2E1,2E0,2E0,3E2,1.95E2,2.6E1,1.1E1,8.9E1,1.3E1,3.4E1,4.79E2,6E0,2E0,4E0,6E0,9E0,6E0,1E0,1E0,5E0,2E0,1.7E1,2.5E1,1.45E2,3.87E2,2.09E2,2.4E1,6.3E1,1.88E2,7.3E1,1.9E2,1.409E3,5.21E2,6.66E2,9.5E1],"tree_param":{"num_deleted":"0","num_feature":"12","num_nodes":"167","size_leaf_vector":"0"}},{"base_weights":[6.495773E-1,7.656287E-2,1.1694497E0,2.847305E-1,-6.990835E-2,1.5106218E1,1.1275429E0,1.6138854E-2,6.235202E-1,-9.572555E-1,-5.077111E-2,5.1620417E0,2.1649534E1,4.0490317E0,1.0743939E0,5.0657034E-1,6.6507547E-3,3.3044364E0,6.021136E-1,-1.5538859E0,-6.54643E-1,-2.6121604E-1,-2.3407925E-2,1.7969852E1,8.203697E-1,4.2768467E1,1.1053397E1,2.3381836E0,5.028862E0,1.1783724E0,6.6538584E-1,3.4588245E-1,7.398189E-1,1.1868763E-1,-1.42738465E-2,5.403983E0,2.4007993E0,4.6144354E-1,7.1658564E-1,-1.8987411E-1,-5.53342E-1,-3.905207E-2,2.7327037E-1,-1.0431948E0,5.2845316E0,-8.1683405E-2,2.5386868E1,7.6033535E0,7.378445E-1,7.983283E0,3.7963488E0,2.214879E0,1.1513804E0,8.9828163E-1,6.3294184E-1,4.0228185E-1,-1.2467879E-1,4.482958E-1,9.530534E-1,2.433646E-1,9.9648155E-2,-2.8630288E-2,1.2116765E-1,2.7410755E0,9.3907833E-1,-1.7392683E-1,4.7878173E-1,1.171599E0,6.727418E-1,-3.0472282E-1,1.2616129E-1,-4.9520248E-1,-8.5392547E-1,-4.278638E-3,-2.1290554E-1,4.9670753E-1,-4.6384245E-1,7.8661E-1,-5.723127E-1,4.1784263E0,1.2871067E1,8.41851E-1,2.6175815E-1,1.23283E1,5.6791596E0,1.3864158E-1,4.7663484E0,1.918367E0,1.1973072E1,1.9714211E0,1.1283318E0,8.2249355E-1,1.1618545E0,6.649176E-1,5.568564E-1,5.281821E-1,1.8569519E-1,1.0920912E0,4.6071368E-1,1.6097692E-1,1.1809605E0,2.441389E-1,8.8094905E-2,5.618611E-2,-4.3512642E-2,5.3363454E-1,1.5575939E-3,8.243386E-1,4.4875637E-1,2.1425862E0,1.0835533E0,6.0859907E-1,8.784346E-1,6.2341366E-2,-4.4313288E-1,1.3007376E0,-6.0345974E-2,-5.6239295E-1,3.2271856E-1,-9.485883E-1,-1.8006921E-1,1.8478933E-1,-2.7259517E-2,4.7083324E-1,-2.3213683E-1,-7.7398944E-1,6.139828E-1,-6.958129E-1,3.163749E-1,4.634428E0,1.9828638E0,9.049183E-1,5.797277E-1,4.077526E-1,-1.5796825E-1,5.0359163E0,8.268152E0,7.1345216E-1,-6.181953E-1,6.3955307E0,2.742948E0,1.1334251E0,2.4984195E0,1.9429988E0,1.899825E1,9.7480893E-1,2.727322E0,1.2056429E0,9.3974364E-1,7.4790365E-1,1.0364819E0,1.3961172E0,8.0925447E-1,5.826456E-1,7.3126674E-1,6.069114E-1,6.616874E-2],"categories":[],"categories_nodes":[],"categories_segments":[],"categories_sizes":[],"default_left":[true,true,true,true,true,true,true,true,true,true,true,true,true,true,true,true,true,true,true,false,false,true,true,false,true,false,true,true,true,true,true,true,true,true,true,false,true,true,true,true,true,true,true,false,false,true,false,true,true,true,true,true,true,true,true,false,false,true,true,true,true,true,true,false,false,false,true,true,true,true,true,true,true,true,true,true,true,false,false,true,false,true,true,false,true,true,true,true,true,true,true,true,true,true,true,false,false,false,false,false,false,false,false,false,false,false,false,false,false,false,false,false,false,false,false,false,false,false,false,false,false,false,false,false,false,false,false,false,false,false,false,false,false,false,false,false,false,false,false,false,false,false,false,false,false,false,false,false,false,false,false,false,false,false,false,false,false],"id":59,"left_children":[1,3,5,7,9,11,13,15,17,19,21,23,25,27,29,31,33,35,37,-1,-1,39,41,-1,43,-1,45,47,49,51,53,55,57,59,61,-1,63,65,67,69,71,73,75,-1,-1,77,-1,79,81,83,85,87,89,91,93,-1,-1,95,97,99,101,103,105,-1,-1,-1,107,109,111,113,115,117,119,121,123,125,127,-1,-1,129,-1,131,133,-1,135,137,139,141,143,145,147,149,151,153,155,-1,-1,-1,-1,-1,-1,-1,-1,-1,-1,-1,-1,-1,-1,-1,-1,-1,-1,-1,-1,-1,-1,-1,-1,-1,-1,-1,-1,-1,-1,-1,-1,-1,-1,-1,-1,-1,-1,-1,-1,-1,-1,-1,-1,-1,-1,-1,-1,-1,-1,-1,-1,-1,-1,-1,-1,-1,-1,-1,-1,-1,-1],"loss_changes":[2.342693E3,1.14085075E2,2.4023042E3,1.406068E2,3.726618E1,7.648633E2,6.3685986E2,4.0042195E0,3.8496735E1,7.9946823E0,1.2376476E1,2.91396E2,1.4826655E3,1.1890576E2,1.7145459E2,5.113635E-1,1.9861364E0,5.6810684E0,1.0796005E1,0E0,0E0,5.1089973E0,8.834117E0,0E0,3.7950108E1,0E0,8.522977E2,2.2832362E2,1.5844238E2,8.916992E1,5.9794617E0,2.9492915E-1,2.3124194E-1,3.035252E-1,1.3868839E0,0E0,1.2445412E0,3.3957214E0,7.1586914E0,7.250427E0,6.844082E-1,1.0928844E1,1.5778568E1,0E0,0E0,1.5671607E0,0E0,9.608801E1,9.6712303E-1,1.0988281E2,1.1797595E2,2.2747446E2,5.853125E1,1.6372833E0,1.6116028E0,0E0,0E0,2.7040243E-2,3.825617E-2,1.2564105E0,1.8228877E-1,8.152181E-1,3.3633332E0,0E0,0E0,0E0,2.9434586E0,1.9440231E0,4.303955E0,7.44917E0,1.1727473E1,2.3354855E0,3.9473534E-1,6.5487185E0,3.9953327E0,1.1084438E1,4.120897E0,0E0,0E0,1.179779E0,0E0,9.042835E-2,2.905878E-1,0E0,1.46875E0,3.3387752E0,8.082764E1,3.5125E1,1.5181516E2,6.3345764E1,4.410913E1,9.6635056E-1,1.3539467E0,2.597641E0,5.2658997E0,0E0,0E0,0E0,0E0,0E0,0E0,0E0,0E0,0E0,0E0,0E0,0E0,0E0,0E0,0E0,0E0,0E0,0E0,0E0,0E0,0E0,0E0,0E0,0E0,0E0,0E0,0E0,0E0,0E0,0E0,0E0,0E0,0E0,0E0,0E0,0E0,0E0,0E0,0E0,0E0,0E0,0E0,0E0,0E0,0E0,0E0,0E0,0E0,0E0,0E0,0E0,0E0,0E0,0E0,0E0,0E0,0E0,0E0,0E0,0E0,0E0,0E0],"parents":[2147483647,0,0,1,1,2,2,3,3,4,4,5,5,6,6,7,7,8,8,9,9,10,10,11,11,12,12,13,13,14,14,15,15,16,16,17,17,18,18,21,21,22,22,24,24,26,26,27,27,28,28,29,29,30,30,31,31,32,32,33,33,34,34,36,36,37,37,38,38,39,39,40,40,41,41,42,42,45,45,47,47,48,48,49,49,50,50,51,51,52,52,53,53,54,54,57,57,58,58,59,59,60,60,61,61,62,62,66,66,67,67,68,68,69,69,70,70,71,71,72,72,73,73,74,74,75,75,76,76,79,79,81,81,82,82,84,84,85,85,86,86,87,87,88,88,89,89,90,90,91,91,92,92,93,93,94,94],"right_children":[2,4,6,8,10,12,14,16,18,20,22,24,26,28,30,32,34,36,38,-1,-1,40,42,-1,44,-1,46,48,50,52,54,56,58,60,62,-1,64,66,68,70,72,74,76,-1,-1,78,-1,80,82,84,86,88,90,92,94,-1,-1,96,98,100,102,104,106,-1,-1,-1,108,110,112,114,116,118,120,122,124,126,128,-1,-1,130,-1,132,134,-1,136,138,140,142,144,146,148,150,152,154,156,-1,-1,-1,-1,-1,-1,-1,-1,-1,-1,-1,-1,-1,-1,-1,-1,-1,-1,-1,-1,-1,-1,-1,-1,-1,-1,-1,-1,-1,-1,-1,-1,-1,-1,-1,-1,-1,-1,-1,-1,-1,-1,-1,-1,-1,-1,-1,-1,-1,-1,-1,-1,-1,-1,-1,-1,-1,-1,-1,-1,-1,-1],"split_conditions":[6.621175E-1,6.572582E-1,2.7272727E-2,3.8253418E-1,5E-1,8.2200134E-1,7.4137926E-2,7.4137926E-2,2.2866402E-2,2.7272727E-2,2.086207E-1,7.7843237E-1,8.349742E-1,8.2218254E-1,7.090609E-2,2.3554277E-1,6.0824133E-2,3.9780295E-1,5.988887E-1,-3.1077718E-2,-1.309286E-2,6.621622E-1,7.827586E-1,3.5939705E-1,8.0442405E-1,8.553693E-1,8.7090075E-1,7.7943826E-1,8.349742E-1,4.168167E-2,1.9346416E-1,1.8202345E-1,2.607362E-2,1.3390663E-1,3.6276892E-1,1.0807966E-1,1.2068965E-1,6.736668E-2,2.0678791E-1,2.3109472E-1,3.9656103E-1,6.2586206E-1,9.7560316E-1,-2.0863894E-2,1.0569063E-1,8.4844077E-1,5.0773734E-1,7.635859E-1,8.106056E-1,5E-1,8.571358E-1,4.0691394E-2,1.8427517E-2,9.212121E-1,5.8854413E-1,8.045637E-3,-2.4935757E-3,5E-1,5E-1,5.4939292E-2,1.0055816E-1,1.7410874E-1,3.6839437E-1,5.482151E-2,1.8781567E-2,-3.4785366E-3,3.8608843E-1,7.241379E-2,6.430696E-1,1.15517244E-1,4.2424244E-1,3.843176E-1,9.212121E-1,2.6206896E-1,1.13881886E-1,6.6591644E-1,9.9729925E-1,1.5732199E-2,-1.1446254E-2,7.554066E-1,2.5742134E-1,7.958708E-1,6.724138E-2,2.46566E-1,1.3764855E-1,8.4844077E-1,8.1472814E-2,8.2218254E-1,4.2424244E-1,6.818182E-1,8.4422266E-1,9.6009064E-1,2.413793E-1,8.147807E-1,9.345995E-1,1.0563642E-2,3.7139037E-3,2.1841824E-2,9.214274E-3,3.2195384E-3,2.361921E-2,4.882778E-3,1.761898E-3,1.1237222E-3,-8.7025284E-4,1.067269E-2,3.1151878E-5,1.6486771E-2,8.975127E-3,4.2851724E-2,2.1671066E-2,1.2171981E-2,1.756869E-2,1.2468273E-3,-8.8626575E-3,2.6014753E-2,-1.2069194E-3,-1.1247858E-2,6.454371E-3,-1.8971765E-2,-3.601384E-3,3.6957865E-3,-5.4519036E-4,9.416665E-3,-4.6427366E-3,-1.5479788E-2,1.2279656E-2,-1.3916258E-2,6.327498E-3,9.268856E-2,3.9657276E-2,1.8098366E-2,1.15945535E-2,8.155052E-3,-3.159365E-3,1.0071833E-1,1.6536304E-1,1.4269043E-2,-1.2363906E-2,1.2791061E-1,5.485896E-2,2.2668501E-2,4.9968388E-2,3.8859975E-2,3.7996498E-1,1.9496178E-2,5.4546442E-2,2.4112858E-2,1.8794872E-2,1.4958072E-2,2.0729637E-2,2.7922343E-2,1.6185088E-2,1.1652912E-2,1.4625334E-2,1.2138228E-2,1.3233748E-3],"split_indices":[1,1,2,1,0,1,3,3,5,2,3,1,1,1,7,1,1,1,1,0,0,11,3,0,1,0,1,1,1,5,5,1,7,11,1,0,3,7,5,5,5,3,5,0,0,1,0,1,1,0,1,5,11,2,7,0,0,0,0,1,5,5,1,0,0,0,1,3,1,3,2,5,2,3,5,5,5,0,0,1,0,1,3,0,5,1,5,1,2,2,1,1,3,1,1,0,0,0,0,0,0,0,0,0,0,0,0,0,0,0,0,0,0,0,0,0,0,0,0,0,0,0,0,0,0,0,0,0,0,0,0,0,0,0,0,0,0,0,0,0,0,0,0,0,0,0,0,0,0,0,0,0,0,0,0,0,0],"split_type":[0,0,0,0,0,0,0,0,0,0,0,0,0,0,0,0,0,0,0,0,0,0,0,0,0,0,0,0,0,0,0,0,0,0,0,0,0,0,0,0,0,0,0,0,0,0,0,0,0,0,0,0,0,0,0,0,0,0,0,0,0,0,0,0,0,0,0,0,0,0,0,0,0,0,0,0,0,0,0,0,0,0,0,0,0,0,0,0,0,0,0,0,0,0,0,0,0,0,0,0,0,0,0,0,0,0,0,0,0,0,0,0,0,0,0,0,0,0,0,0,0,0,0,0,0,0,0,0,0,0,0,0,0,0,0,0,0,0,0,0,0,0,0,0,0,0,0,0,0,0,0,0,0,0,0,0,0],"sum_hessian":[7.864E3,3.741E3,4.123E3,1.545E3,2.196E3,1.2E1,4.111E3,8.62E2,6.83E2,4.6E1,2.15E3,5E0,7E0,7.3E1,4.038E3,1.6E1,8.46E2,5E0,6.78E2,1.5E1,3.1E1,2.47E2,1.903E3,1E0,4E0,2E0,5E0,2.7E1,4.6E1,3.219E3,8.19E2,1E1,6E0,1.33E2,7.13E2,1E0,4E0,3.05E2,3.73E2,1.99E2,4.8E1,1.808E3,9.5E1,3E0,1E0,3E0,2E0,6E0,2.1E1,1.3E1,3.3E1,8.1E1,3.138E3,9.9E1,7.2E2,9E0,1E0,3E0,3E0,1.7E1,1.16E2,6.45E2,6.8E1,3E0,1E0,8E0,2.97E2,3.2E1,3.41E2,1.46E2,5.3E1,4.1E1,7E0,1.507E3,3.01E2,7.3E1,2.2E1,1E0,2E0,4E0,2E0,1.7E1,4E0,4E0,9E0,7E0,2.6E1,7.9E1,2E0,8.5E1,3.053E3,7.8E1,2.1E1,5.05E2,2.15E2,2E0,1E0,2E0,1E0,1.6E1,1E0,8E0,1.08E2,9.6E1,5.49E2,1.5E1,5.3E1,2.3E1,2.74E2,2E0,3E1,2.61E2,8E1,4E1,1.06E2,7E0,4.6E1,3.8E1,3E0,6E0,1E0,1.63E2,1.344E3,8E0,2.93E2,6E0,6.7E1,1.7E1,5E0,3E0,1E0,1.3E1,4E0,3E0,1E0,8E0,1E0,4E0,3E0,1.4E1,1.2E1,3.4E1,4.5E1,1E0,1E0,3.7E1,4.8E1,2.164E3,8.89E2,5.9E1,1.9E1,1.2E1,9E0,2.27E2,2.78E2,1.95E2,2E1],"tree_param":{"num_deleted":"0","num_feature":"12","num_nodes":"157","size_leaf_vector":"0"}},{"base_weights":[6.374111E-1,8.4105656E-2,1.1387098E0,2.7155054E-1,-5.2617744E-2,5.032996E0,1.0574881E0,1.3890674E-2,5.999375E-1,-1.5441003E-1,1.9312243E-1,8.686638E0,4.1349106E0,6.8790084E-1,1.1525836E0,5.5536336E-1,5.5926936E-3,4.3358784E0,5.8703613E-1,-6.362458E-1,-1.3799359E-1,-1.69701E0,2.1513799E-1,3.0819702E0,1.1840079E1,8.876644E0,3.6307712E0,6.528878E-1,9.00499E-1,1.4711694E0,1.0900358E0,1.4864237E0,4.3852642E-1,-6.633695E-2,4.1106872E-2,5.322932E0,2.2538211E0,4.9176463E-1,8.26814E-1,-1.3520024E0,-4.8999813E-1,-1.983881E-1,-3.049159E-2,1.8838969E-1,7.7790487E-1,1.0129565E1,-9.468661E-1,4.9050644E1,6.0992546E0,1.11483135E1,3.383289E0,7.5118953E-1,4.887243E0,8.6921966E-1,6.29992E-1,1.3476381E0,6.9434994E-1,1.2018988E0,1.7375112E0,1.1581326E0,9.158386E-1,3.342352E-1,8.315847E-1,2.5051113E-2,-7.2867855E-2,2.0048898E-2,1.4890112E-1,3.9914346E-1,5.882367E-1,1.7863793E0,8.036863E-1,-4.014159E-1,-1.8589207E0,-2.6907972E-1,-6.0742855E-1,-1.7057416E-1,-3.621206E-1,-7.082804E-2,6.386897E-1,4.1035604E-1,1.4039063E-1,5.069143E-1,2.236428E0,1.2509983E1,5.2052717E0,-1.327124E0,2.2981273E-1,-2.7621646E0,1.0444364E1,4.5252004E0,1.2678197E1,1.1073405E0,5.1795536E-1,8.784555E0,3.3007154E0,1.393561E0,8.285406E-1,5.651754E-1,6.717096E-1,8.4300727E-1,4.225346E0,1.0092955E0,6.642086E-1,1.9041622E0,9.778133E-1,2.5991023E0,1.4103942E0,1.0331109E0,1.5053561E0,7.9461306E-1,9.735008E-1,4.1756403E-1,-5.0071473E-3,5.6947142E-2,-2.778587E-2,-8.275475E-2,-6.082451E-2,1.2105636E-1,-1.3569099E-2,1.8981619E-1,1.1691691E-2,4.8479006E-1,1.3251178E-1,6.739578E-1,3.2569173E-1,6.453311E-1,2.0598435E0,5.818577E-1,8.739912E-1,-2.1951609E0,-1.1068188E0,-5.569285E-1,-1.0627661E0,-3.8482666E-1,-1.4919761E-1,-2.3321977E-1,-5.112775E-1,-2.40974E-1,-2.8408512E-2,1.4921281E0,1.2664145E-1,6.2710285E-2,7.3014E-1,-3.984113E-1,1.7559461E-1,8.5463715E-1,-1.1603839E0,-6.1848825E-1,-2.2246003E0,7.653802E-1,-8.255034E0,-1.7356268E0,1.620257E1,1.2144034E0,6.982727E-1,2.85303E-1,7.2108406E-1,1.2100708E1,6.7068963E0,3.5251972E-1,3.7273338E0,1.9424179E0,-3.1629747E-1,7.428107E-1,1.0246779E0,6.248914E-1,3.7266138E-1,4.7543818E-1,7.2158825E-1,1.4351354E0,7.118631E-1,1.5004143E1,5.801123E-1,6.018262E-1,1.1477485E0,7.176641E-1,4.7379392E-1,1.2094127E0,2.516907E0,-6.443212E-1,1.0036353E0,3.867455E0,2.2445233E0,7.478304E-1,1.7789338E0,-7.663018E-1,1.0460335E0,1.5753732E0,1.1172854E0,9.298171E-1,7.5312924E-1,1.2646793E0,9.241259E-1],"categories":[],"categories_nodes":[],"categories_segments":[],"categories_sizes":[],"default_left":[true,true,true,true,true,true,true,true,true,true,true,true,true,true,true,true,true,true,true,true,true,false,true,true,true,true,true,true,true,true,true,false,true,true,true,false,false,true,true,true,true,true,true,true,true,true,true,false,true,true,false,true,true,true,true,true,true,true,true,true,true,true,false,true,true,true,true,true,true,true,true,false,true,false,true,true,true,true,true,true,true,true,false,false,false,true,false,true,true,false,false,true,true,true,true,true,true,true,true,true,true,true,true,true,true,true,true,true,true,true,true,false,false,false,false,false,false,false,false,false,false,false,false,false,false,false,false,false,false,false,false,false,false,false,false,false,false,false,false,false,false,false,false,false,false,false,false,false,false,false,false,false,false,false,false,false,false,false,false,false,false,false,false,false,false,false,false,false,false,false,false,false,false,false,false,false,false,false,false,false,false,false,false,false,false,false,false,false,false,false,false,false,false],"id":60,"left_children":[1,3,5,7,9,11,13,15,17,19,21,23,25,27,29,31,33,35,37,39,41,-1,43,45,47,49,51,53,55,57,59,-1,61,63,65,-1,-1,67,69,71,73,75,77,79,81,83,85,-1,87,89,-1,91,93,95,97,99,101,103,105,107,109,111,-1,113,115,117,119,121,123,125,127,-1,129,-1,131,133,135,137,139,141,143,145,-1,-1,-1,147,-1,149,151,-1,-1,153,155,157,159,161,163,165,167,169,171,173,175,177,179,181,183,185,187,189,191,-1,-1,-1,-1,-1,-1,-1,-1,-1,-1,-1,-1,-1,-1,-1,-1,-1,-1,-1,-1,-1,-1,-1,-1,-1,-1,-1,-1,-1,-1,-1,-1,-1,-1,-1,-1,-1,-1,-1,-1,-1,-1,-1,-1,-1,-1,-1,-1,-1,-1,-1,-1,-1,-1,-1,-1,-1,-1,-1,-1,-1,-1,-1,-1,-1,-1,-1,-1,-1,-1,-1,-1,-1,-1,-1,-1,-1,-1,-1,-1,-1,-1],"loss_changes":[2.1846196E3,9.596804E1,1.3051982E3,1.3361926E2,5.417403E1,2.6456128E2,1.4199219E2,3.9688807E0,3.2546967E1,1.2072567E1,2.6496695E1,2.7629602E2,1.5242493E2,5.955078E0,6.357959E1,1.2056184E0,2.2289448E0,6.8680954E-1,1.566127E1,5.0216007E0,9.61232E0,0E0,9.380629E0,1.8315952E2,2.1068772E3,6.6250824E1,2.2422485E2,3.3292236E0,1.03821335E1,3.7080933E1,3.1553955E1,0E0,3.962643E-1,1.7338169E-1,1.3229898E0,0E0,0E0,4.3425446E0,3.8414307E0,3.7345695E0,1.0312309E0,4.290558E0,1.4402935E1,6.3583355E0,1.0781513E1,5.38501E0,2.0563328E0,0E0,3.6910434E2,2.4532166E1,0E0,1.3915176E0,2.5809778E2,1.0194702E0,1.6034546E0,5.1502625E1,5.1517105E-1,4.0777985E1,7.32204E1,8.341553E1,5.0177E0,2.9869556E-1,0E0,3.3526126E-2,2.834332E-2,1.6636953E0,5.315814E-1,5.7777557E0,5.3664093E0,8.703337E-1,2.809204E0,0E0,4.9144554E-1,0E0,4.08041E-1,3.6891289E0,2.5900517E0,3.6266897E0,1.3169673E1,1.1794678E1,9.377687E0,1.4433862E1,0E0,0E0,0E0,1.6206598E0,0E0,6.680429E1,4.537815E2,0E0,0E0,1.1116028E-2,4.9990058E-1,5.764331E1,3.8913452E1,4.294896E0,7.8590775E-1,2.8434677E0,3.699585E0,2.0618687E0,2.0643379E2,1.0200548E-1,6.2623596E-1,2.5893097E1,8.612076E0,2.9548706E1,4.6484467E1,3.3368042E1,1.3268311E1,1.124115E0,6.944824E0,0E0,0E0,0E0,0E0,0E0,0E0,0E0,0E0,0E0,0E0,0E0,0E0,0E0,0E0,0E0,0E0,0E0,0E0,0E0,0E0,0E0,0E0,0E0,0E0,0E0,0E0,0E0,0E0,0E0,0E0,0E0,0E0,0E0,0E0,0E0,0E0,0E0,0E0,0E0,0E0,0E0,0E0,0E0,0E0,0E0,0E0,0E0,0E0,0E0,0E0,0E0,0E0,0E0,0E0,0E0,0E0,0E0,0E0,0E0,0E0,0E0,0E0,0E0,0E0,0E0,0E0,0E0,0E0,0E0,0E0,0E0,0E0,0E0,0E0,0E0,0E0,0E0,0E0,0E0,0E0,0E0,0E0],"parents":[2147483647,0,0,1,1,2,2,3,3,4,4,5,5,6,6,7,7,8,8,9,9,10,10,11,11,12,12,13,13,14,14,15,15,16,16,17,17,18,18,19,19,20,20,22,22,23,23,24,24,25,25,26,26,27,27,28,28,29,29,30,30,32,32,33,33,34,34,37,37,38,38,39,39,40,40,41,41,42,42,43,43,44,44,45,45,46,46,48,48,49,49,51,51,52,52,53,53,54,54,55,55,56,56,57,57,58,58,59,59,60,60,61,61,63,63,64,64,65,65,66,66,67,67,68,68,69,69,70,70,72,72,74,74,75,75,76,76,77,77,78,78,79,79,80,80,81,81,85,85,87,87,88,88,91,91,92,92,93,93,94,94,95,95,96,96,97,97,98,98,99,99,100,100,101,101,102,102,103,103,104,104,105,105,106,106,107,107,108,108,109,109,110,110],"right_children":[2,4,6,8,10,12,14,16,18,20,22,24,26,28,30,32,34,36,38,40,42,-1,44,46,48,50,52,54,56,58,60,-1,62,64,66,-1,-1,68,70,72,74,76,78,80,82,84,86,-1,88,90,-1,92,94,96,98,100,102,104,106,108,110,112,-1,114,116,118,120,122,124,126,128,-1,130,-1,132,134,136,138,140,142,144,146,-1,-1,-1,148,-1,150,152,-1,-1,154,156,158,160,162,164,166,168,170,172,174,176,178,180,182,184,186,188,190,192,-1,-1,-1,-1,-1,-1,-1,-1,-1,-1,-1,-1,-1,-1,-1,-1,-1,-1,-1,-1,-1,-1,-1,-1,-1,-1,-1,-1,-1,-1,-1,-1,-1,-1,-1,-1,-1,-1,-1,-1,-1,-1,-1,-1,-1,-1,-1,-1,-1,-1,-1,-1,-1,-1,-1,-1,-1,-1,-1,-1,-1,-1,-1,-1,-1,-1,-1,-1,-1,-1,-1,-1,-1,-1,-1,-1,-1,-1,-1,-1,-1,-1],"split_conditions":[6.621175E-1,6.572582E-1,6.724138E-2,3.8399246E-1,2.777778E-1,2.7272727E-2,9.8790765E-1,7.4137926E-2,1.8181819E-1,7.4137926E-2,1.8181819E-1,8.2218254E-1,7.7943826E-1,9.212121E-1,2.5344828E-1,2.7272727E-2,7.6129995E-2,3.9780295E-1,6.341465E-1,2.7272727E-2,1.6666667E-1,-3.39402E-2,6.1111116E-1,9.8790765E-1,8.349742E-1,5.272727E-1,8.2218254E-1,4.2424244E-1,1.4619164E-1,8.2218254E-1,8.4422266E-1,2.9728474E-2,2.7259457E-1,1.6034484E-1,3.279013E-1,1.06458634E-1,4.5076422E-2,4.4565028E-1,3.3636364E-1,5.5555556E-2,5.5555556E-2,9.212121E-1,7.862069E-1,2.6206896E-1,9.533169E-1,8.012924E-1,4.4444448E-1,9.810129E-1,2.777778E-1,1.6666667E-1,6.766578E-2,1.6666667E-1,8.349742E-1,1.1034483E-1,7.7778685E-1,3.3103448E-1,1.2758622E-1,7.6706135E-1,8.349742E-1,8.2218254E-1,8.76709E-1,1.7225096E-1,1.6631693E-2,3.181818E-1,2.3029846E-1,6.0824133E-2,3.757258E-1,4.3256068E-1,6.324857E-1,9.689189E-1,9.689189E-1,-8.028318E-3,1.6666667E-1,-5.3815944E-3,6.724138E-2,2.086207E-1,3.0172414E-1,2.5344828E-1,6.242424E-1,6.545454E-1,1.4127764E-1,8.2186735E-1,4.472856E-2,2.5019965E-1,1.04105435E-1,2.777778E-1,4.5962543E-3,8.7090075E-1,8.7090075E-1,9.0504006E-2,2.5356394E-1,8.0966675E-1,5.272727E-1,5.272727E-1,8.5870504E-1,8.8532466E-1,2.777778E-1,9.5682657E-1,9.5682657E-1,7.125307E-2,9.5682657E-1,5.4914004E-1,8.835277E-1,8.30303E-1,5.5555556E-2,1.8427517E-2,8.76709E-1,5.5555556E-2,8.349742E-1,1.6666667E-1,5.181818E-1,8.35128E-3,-1.0014294E-4,1.1389428E-3,-5.557174E-4,-1.655095E-3,-1.2164902E-3,2.4211272E-3,-2.7138198E-4,3.7963237E-3,2.3383382E-4,9.695801E-3,2.6502355E-3,1.3479156E-2,6.5138345E-3,1.2906621E-2,4.119687E-2,1.1637153E-2,1.7479824E-2,-4.3903217E-2,-2.2136375E-2,-1.11385705E-2,-2.1255322E-2,-7.696533E-3,-2.9839522E-3,-4.6643955E-3,-1.0225549E-2,-4.81948E-3,-5.681702E-4,2.9842561E-2,2.532829E-3,1.2542057E-3,1.4602799E-2,-7.9682255E-3,3.5118922E-3,1.7092742E-2,-2.3207678E-2,-1.2369765E-2,-4.4492006E-2,1.5307603E-2,-1.6510068E-1,-3.4712534E-2,3.2405138E-1,2.4288068E-2,1.3965454E-2,5.7060597E-3,1.4421681E-2,2.4201415E-1,1.3413793E-1,7.050394E-3,7.454667E-2,3.8848355E-2,-6.3259494E-3,1.4856215E-2,2.0493558E-2,1.2497827E-2,7.4532274E-3,9.508763E-3,1.4431764E-2,2.8702706E-2,1.4237261E-2,3.0008286E-1,1.1602245E-2,1.2036524E-2,2.2954969E-2,1.4353282E-2,9.475878E-3,2.4188254E-2,5.0338138E-2,-1.2886424E-2,2.0072706E-2,7.73491E-2,4.4890463E-2,1.49566075E-2,3.5578676E-2,-1.5326036E-2,2.092067E-2,3.1507462E-2,2.2345707E-2,1.8596342E-2,1.5062585E-2,2.5293585E-2,1.8482517E-2],"split_indices":[1,1,3,1,4,2,6,3,2,3,2,1,1,2,3,2,6,1,1,2,4,0,4,6,1,2,1,2,11,1,1,0,1,3,1,0,0,1,2,4,4,2,3,3,11,1,4,0,4,4,0,4,1,3,1,3,3,1,1,1,1,1,0,11,1,1,1,1,1,6,6,0,4,0,3,3,3,3,2,2,11,11,0,0,0,4,0,1,1,0,0,1,2,2,1,1,4,6,6,11,6,11,1,2,4,11,1,4,1,4,2,0,0,0,0,0,0,0,0,0,0,0,0,0,0,0,0,0,0,0,0,0,0,0,0,0,0,0,0,0,0,0,0,0,0,0,0,0,0,0,0,0,0,0,0,0,0,0,0,0,0,0,0,0,0,0,0,0,0,0,0,0,0,0,0,0,0,0,0,0,0,0,0,0,0,0,0,0,0,0,0,0,0],"split_type":[0,0,0,0,0,0,0,0,0,0,0,0,0,0,0,0,0,0,0,0,0,0,0,0,0,0,0,0,0,0,0,0,0,0,0,0,0,0,0,0,0,0,0,0,0,0,0,0,0,0,0,0,0,0,0,0,0,0,0,0,0,0,0,0,0,0,0,0,0,0,0,0,0,0,0,0,0,0,0,0,0,0,0,0,0,0,0,0,0,0,0,0,0,0,0,0,0,0,0,0,0,0,0,0,0,0,0,0,0,0,0,0,0,0,0,0,0,0,0,0,0,0,0,0,0,0,0,0,0,0,0,0,0,0,0,0,0,0,0,0,0,0,0,0,0,0,0,0,0,0,0,0,0,0,0,0,0,0,0,0,0,0,0,0,0,0,0,0,0,0,0,0,0,0,0,0,0,0,0,0,0,0,0,0,0,0,0,0,0,0,0,0,0],"sum_hessian":[7.876E3,3.744E3,4.132E3,1.579E3,2.165E3,8.4E1,4.048E3,8.85E2,6.94E2,1.531E3,6.34E2,1.6E1,6.8E1,8.29E2,3.219E3,1.3E1,8.72E2,2E0,6.92E2,5E1,1.481E3,7E0,6.27E2,6E0,1E1,6E0,6.2E1,7.13E2,1.16E2,5.27E2,2.692E3,1E0,1.2E1,2.88E2,5.84E2,1E0,1E0,4.96E2,1.96E2,8E0,4.2E1,9.48E2,5.33E2,5.99E2,2.8E1,2E0,4E0,1E0,9E0,4E0,2E0,1.9E1,4.3E1,6.7E1,6.46E2,3.6E1,8E1,2.63E2,2.64E2,1.934E3,7.58E2,1E1,2E0,1.9E1,2.69E2,4.89E2,9.5E1,2.54E2,2.42E2,4E0,1.92E2,3E0,5E0,1.5E1,2.7E1,8.11E2,1.37E2,5.03E2,3E1,1.06E2,4.93E2,2.4E1,4E0,1E0,1E0,3E0,1E0,3E0,6E0,1E0,3E0,7E0,1.2E1,1.2E1,3.1E1,4E0,6.3E1,2.55E2,3.91E2,3.1E1,5E0,6E0,7.4E1,6.3E1,2E2,7.2E1,1.92E2,1.423E3,5.11E2,2.46E2,5.12E2,8E0,2E0,1.2E1,7E0,1.46E2,1.23E2,1.22E2,3.67E2,7.3E1,2.2E1,1.92E2,6.2E1,1.82E2,6E1,1E0,3E0,4.7E1,1.45E2,3E0,2E0,2.5E1,2E0,7.3E1,7.38E2,7.4E1,6.3E1,1E2,4.03E2,1.1E1,1.9E1,5.1E1,5.5E1,3E1,4.63E2,2E1,4E0,2E0,1E0,2E0,1E0,2E0,4E0,5E0,2E0,6E0,6E0,4E0,8E0,4E0,2.7E1,3E0,1E0,4.5E1,1.8E1,1.94E2,6.1E1,8E1,3.11E2,5E0,2.6E1,1E0,4E0,2E0,4E0,5.7E1,1.7E1,3E1,3.3E1,3E0,1.97E2,1.5E1,5.7E1,6.9E1,1.23E2,1E1,1.413E3,4.32E2,7.9E1,5.6E1,1.9E2,7.3E1,4.39E2],"tree_param":{"num_deleted":"0","num_feature":"12","num_nodes":"193","size_leaf_vector":"0"}},{"base_weights":[6.099201E-1,8.347053E-2,1.1017233E0,2.6164058E-1,-4.152608E-2,4.813677E0,1.030566E0,3.925394E-2,6.0128057E-1,-1.4719933E-1,2.0251948E-1,1.2100002E1,4.246189E0,6.5968066E-1,1.1284356E0,6.555543E-1,2.5696315E-2,2.507908E0,5.9062004E-1,-5.766654E-1,-1.3369803E-1,-1.0295169E0,2.3685299E-1,7.412326E0,1.7061264E1,1.51914E0,5.1567993E0,8.515806E-1,6.22156E-1,2.0985851E0,1.1141654E0,7.880299E-1,5.2590907E-1,-4.781812E-2,9.084349E-2,5.081887E-1,7.700236E-1,-2.968215E-1,-7.1594954E-1,-7.157716E-2,-1.95741E-1,-1.2953633E0,-2.978673E-1,1.8611903E0,2.1836437E-1,5.180369E0,6.892264E-1,1.0058245E1,3.4934866E0,7.312333E-1,1.933389E0,2.4839275E0,6.1827785E-1,1.0957311E0,2.6868951E0,-5.009955E-1,1.1215292E0,1.0627793E0,3.8594624E-1,1.2297557E-1,7.3814976E-1,6.412681E-2,-7.273663E-2,4.2209346E-2,2.4737166E-1,5.355933E-1,3.1022814E-1,1.3352839E0,7.267264E-1,-3.2999298E-1,-2.2481957E-1,-9.415068E-1,-4.8871136E-1,-2.3327595E-1,-1.1579696E-2,-5.4896474E-1,-1.6717401E-1,-1.8282672E0,-1.0802709E0,-1.3846864E0,5.6192584E-2,-1.2552603E0,3.1109877E0,5.652461E-1,1.525958E-1,1.3733053E0,6.609502E0,8.907911E-1,-1.21209875E-1,1.5593902E1,6.111189E0,-2.753895E-1,5.0934534E0,1.0568182E0,6.6781926E-1,5.069033E-1,4.8536963E0,8.5537493E-1,6.006822E-1,1.2183005E0,1.2761483E-1,4.5408893E0,1.5922599E0,-7.424485E-1,8.40678E-1,1.1953981E0,9.6664137E-1,1.2295316E0,2.4439885E-1,2.1324229E-1,-1.22733675E-1,4.2587587E-1,9.182686E-1,1.7009342E-1,4.7819372E-2,7.0510045E-2,-7.655715E-2,1.3403617E-1,1.7921956E-2,3.16657E-1,-4.025874E-1,4.2402738E-1,6.397371E-1,5.2873504E-1,2.8820178E-1,2.0693054E0,1.1436073E0,7.745276E-1,4.606691E-1,-5.604412E-1,-1.4863247E-1,-2.9167172E-1,-2.3063931E-1,5.852766E-2,-1.8580674E-1,-2.1423358E-1,-6.914572E-1,-5.1432925E-1,-1.3783698E-1,1.2928846E-1,-1.8820854E-2,8.607998E0,1.1767887E0,-1.2222984E0,6.7977124E-1,-9.818528E-2,3.1298587E-1,1.1145437E0,6.8560916E-1,5.9524405E-1,-5.194213E-1,1.0111213E1,2.119157E1,7.0797114E0,3.945951E0,5.4633224E-1,-1.0848635E0,3.5987415E0,7.2283473E0,1.8558235E0,9.2809975E-1,5.8181715E-1,9.1138285E-1,6.1415607E-1,-2.7943632E-1,8.41562E0,5.920282E-1,-8.659099E-2,8.7663615E-1,1.1649756E0,5.9568596E-1,-1.70652E-1,4.0466496E-1,6.5127516E0,3.8053246E0,4.528163E-1,2.673286E0,-7.862452E-1,-4.3628603E-1,1.0542612E0,1.6575758E0,1.6494945E0,9.514381E-1],"categories":[],"categories_nodes":[],"categories_segments":[],"categories_sizes":[],"default_left":[true,true,true,true,true,true,true,true,true,true,true,true,true,true,true,true,true,false,true,true,true,true,true,false,false,true,true,true,true,true,true,true,true,true,true,true,true,true,true,true,true,true,true,true,true,true,true,true,true,true,true,false,true,true,true,true,true,true,false,true,true,true,true,true,true,true,true,true,true,false,false,false,true,true,true,true,true,false,false,false,true,false,true,true,true,false,false,true,true,true,true,true,true,true,true,true,true,true,true,false,true,true,true,true,false,true,true,false,false,false,false,false,false,false,false,false,false,false,false,false,false,false,false,false,false,false,false,false,false,false,false,false,false,false,false,false,false,false,false,false,false,false,false,false,false,false,false,false,false,false,false,false,false,false,false,false,false,false,false,false,false,false,false,false,false,false,false,false,false,false,false,false,false,false,false,false,false,false,false,false,false,false,false],"id":61,"left_children":[1,3,5,7,9,11,13,15,17,19,21,23,25,27,29,31,33,-1,35,37,39,41,43,-1,-1,45,47,49,51,53,55,57,59,61,63,65,67,69,71,73,75,77,79,81,83,85,87,89,91,93,95,-1,97,99,101,103,105,107,-1,109,111,113,115,117,119,121,123,125,127,-1,-1,-1,129,131,133,135,137,-1,-1,-1,139,-1,141,143,145,-1,-1,147,149,151,153,155,157,159,161,163,165,167,169,-1,171,173,175,177,-1,179,181,-1,-1,-1,-1,-1,-1,-1,-1,-1,-1,-1,-1,-1,-1,-1,-1,-1,-1,-1,-1,-1,-1,-1,-1,-1,-1,-1,-1,-1,-1,-1,-1,-1,-1,-1,-1,-1,-1,-1,-1,-1,-1,-1,-1,-1,-1,-1,-1,-1,-1,-1,-1,-1,-1,-1,-1,-1,-1,-1,-1,-1,-1,-1,-1,-1,-1,-1,-1,-1,-1,-1,-1,-1,-1,-1,-1],"loss_changes":[2.0348088E3,8.455359E1,1.0715215E3,1.1821482E2,5.755321E1,2.982649E2,1.4445996E2,7.891818E0,1.2050262E1,8.994125E0,2.8594412E1,8.151837E1,1.7443335E2,5.803131E0,4.2843994E1,1.9227982E-1,4.4385123E0,0E0,8.965912E0,1.7596445E0,5.8125877E0,3.4145813E0,1.9545654E1,0E0,0E0,5.4431953E1,4.2289746E2,1.7109978E1,4.485718E0,2.5710526E1,3.717798E1,8.736434E-1,9.26672E-1,1.2160411E0,3.7327194E0,2.2291183E0,4.378662E0,6.357193E-3,1.4321651E0,7.3234873E0,7.580902E0,8.28228E-1,2.0972114E0,2.9892084E1,1.4774832E1,1.499601E1,2.5517883E0,2.592417E2,2.437504E2,2.265831E0,5.4647335E1,0E0,2.717102E0,1.9857693E0,5.5002716E1,4.8500814E0,3.4998535E1,6.066108E-1,0E0,1.061323E-1,2.6289845E-1,1.3127103E-1,1.9689989E-1,8.341128E-1,5.2800894E0,4.2088623E0,1.894083E-1,1.0409698E0,2.1568527E0,0E0,0E0,0E0,3.6054325E-1,1.5773773E-3,6.739758E0,2.6246033E0,7.0894203E0,0E0,0E0,0E0,2.6148338E-2,0E0,5.318956E1,2.1423649E1,2.198837E1,0E0,0E0,2.8573227E-1,1.053062E0,9.17854E1,8.002777E0,8.409091E0,8.158453E1,1.3743076E0,1.9663963E0,8.4916186E-1,6.3991013E1,9.8454666E-1,1.5769806E0,0E0,2.1919261E-1,6.5763397E0,2.2134327E1,3.3550262E-2,0E0,1.3599292E2,9.834961E0,0E0,0E0,0E0,0E0,0E0,0E0,0E0,0E0,0E0,0E0,0E0,0E0,0E0,0E0,0E0,0E0,0E0,0E0,0E0,0E0,0E0,0E0,0E0,0E0,0E0,0E0,0E0,0E0,0E0,0E0,0E0,0E0,0E0,0E0,0E0,0E0,0E0,0E0,0E0,0E0,0E0,0E0,0E0,0E0,0E0,0E0,0E0,0E0,0E0,0E0,0E0,0E0,0E0,0E0,0E0,0E0,0E0,0E0,0E0,0E0,0E0,0E0,0E0,0E0,0E0,0E0,0E0,0E0,0E0,0E0,0E0,0E0,0E0,0E0,0E0,0E0],"parents":[2147483647,0,0,1,1,2,2,3,3,4,4,5,5,6,6,7,7,8,8,9,9,10,10,11,11,12,12,13,13,14,14,15,15,16,16,18,18,19,19,20,20,21,21,22,22,25,25,26,26,27,27,28,28,29,29,30,30,31,31,32,32,33,33,34,34,35,35,36,36,37,37,38,38,39,39,40,40,41,41,42,42,43,43,44,44,45,45,46,46,47,47,48,48,49,49,50,50,52,52,53,53,54,54,55,55,56,56,57,57,59,59,60,60,61,61,62,62,63,63,64,64,65,65,66,66,67,67,68,68,72,72,73,73,74,74,75,75,76,76,80,80,82,82,83,83,84,84,87,87,88,88,89,89,90,90,91,91,92,92,93,93,94,94,95,95,96,96,97,97,98,98,100,100,101,101,102,102,103,103,105,105,106,106],"right_children":[2,4,6,8,10,12,14,16,18,20,22,24,26,28,30,32,34,-1,36,38,40,42,44,-1,-1,46,48,50,52,54,56,58,60,62,64,66,68,70,72,74,76,78,80,82,84,86,88,90,92,94,96,-1,98,100,102,104,106,108,-1,110,112,114,116,118,120,122,124,126,128,-1,-1,-1,130,132,134,136,138,-1,-1,-1,140,-1,142,144,146,-1,-1,148,150,152,154,156,158,160,162,164,166,168,170,-1,172,174,176,178,-1,180,182,-1,-1,-1,-1,-1,-1,-1,-1,-1,-1,-1,-1,-1,-1,-1,-1,-1,-1,-1,-1,-1,-1,-1,-1,-1,-1,-1,-1,-1,-1,-1,-1,-1,-1,-1,-1,-1,-1,-1,-1,-1,-1,-1,-1,-1,-1,-1,-1,-1,-1,-1,-1,-1,-1,-1,-1,-1,-1,-1,-1,-1,-1,-1,-1,-1,-1,-1,-1,-1,-1,-1,-1,-1,-1,-1,-1],"split_conditions":[6.621175E-1,6.572582E-1,6.724138E-2,3.989272E-1,2.777778E-1,7.703592E-1,9.8790765E-1,7.4137926E-2,7.241379E-2,7.4137926E-2,7.4137926E-2,7.563675E-1,8.2218254E-1,1.4619164E-1,9.6551724E-2,1.24566406E-1,1.3484347E-1,5.015816E-2,6.341465E-1,5.5555556E-2,6.0565114E-1,3.888889E-1,4.1296717E-4,1.4824651E-1,3.4122527E-1,9.8790765E-1,8.349742E-1,3.327586E-1,7.4137926E-2,8.2218254E-1,5.5555556E-2,3.275862E-2,2.3554277E-1,9.948173E-2,3.532499E-1,6.324857E-1,5.0082594E-1,3.275862E-2,1.6666667E-1,5.5555556E-2,2.086207E-1,6.7567565E-2,3.275862E-2,7.008511E-1,2.6206896E-1,7.847458E-1,8.0966675E-1,3.275862E-2,8.571358E-1,1.6034484E-1,9.2556846E-1,4.967855E-2,5.0082594E-1,8.0966675E-1,8.349742E-1,8.0838656E-1,8.349742E-1,1.6666667E-1,7.718925E-3,2.2145727E-1,2.607362E-2,5.0082594E-1,1.8427517E-2,5.888164E-2,3.92902E-1,4.4565028E-1,1.6666667E-1,2.1896552E-1,6.4979887E-1,-6.5998593E-3,-4.4963914E-3,-1.8830135E-2,6.893617E-1,4.1296717E-4,4.0172416E-1,5.5555556E-2,1.3234043E-1,-3.6565345E-2,-2.1605417E-2,-2.7693726E-2,5E-1,-2.5105206E-2,9.9787235E-1,1.3234043E-1,4.0172416E-1,2.7466105E-2,1.3219003E-1,1.6666667E-1,1.6666667E-1,2.777778E-1,3.888889E-1,2.777778E-1,2.777778E-1,5.5555556E-2,9.5665354E-1,8.774922E-1,9.5664775E-1,2.2481573E-1,1.48936175E-2,2.4366008E-2,7.4137926E-2,3.181818E-1,8.7090075E-1,6.916462E-1,1.681356E-2,8.2218254E-1,1.48936175E-2,2.4590632E-2,4.8879767E-3,4.264846E-3,-2.4546734E-3,8.517518E-3,1.8365372E-2,3.4018683E-3,9.5638743E-4,1.4102008E-3,-1.531143E-3,2.6807233E-3,3.584391E-4,6.33314E-3,-8.051748E-3,8.480548E-3,1.2794742E-2,1.05747E-2,5.7640355E-3,4.138611E-2,2.2872144E-2,1.54905515E-2,9.213381E-3,-1.1208824E-2,-2.9726492E-3,-5.8334344E-3,-4.612786E-3,1.1705532E-3,-3.7161347E-3,-4.2846715E-3,-1.3829144E-2,-1.02865845E-2,-2.7567395E-3,2.5857692E-3,-3.7641707E-4,1.7215995E-1,2.3535773E-2,-2.4445968E-2,1.3595425E-2,-1.9637055E-3,6.259717E-3,2.2290872E-2,1.3712183E-2,1.190488E-2,-1.0388426E-2,2.0222425E-1,4.238314E-1,1.4159423E-1,7.8919016E-2,1.0926644E-2,-2.169727E-2,7.197483E-2,1.4456694E-1,3.7116468E-2,1.8561995E-2,1.1636343E-2,1.8227657E-2,1.2283121E-2,-5.588726E-3,1.683124E-1,1.1840564E-2,-1.7318198E-3,1.7532723E-2,2.3299512E-2,1.1913719E-2,-3.41304E-3,8.093299E-3,1.3025503E-1,7.610649E-2,9.056326E-3,5.3465717E-2,-1.5724905E-2,-8.72572E-3,2.1085223E-2,3.3151515E-2,3.298989E-2,1.9028762E-2],"split_indices":[1,1,3,1,4,1,6,3,3,3,3,1,1,11,3,1,6,0,1,4,11,4,8,0,0,6,1,3,3,1,4,3,1,1,1,1,8,3,4,4,3,11,3,10,3,1,1,3,1,3,1,0,8,1,1,1,1,4,0,1,7,8,11,1,1,1,4,3,1,0,0,0,10,8,3,4,10,0,0,0,4,0,10,10,3,0,0,4,4,4,4,4,4,4,1,1,1,11,10,0,3,11,1,11,0,1,10,0,0,0,0,0,0,0,0,0,0,0,0,0,0,0,0,0,0,0,0,0,0,0,0,0,0,0,0,0,0,0,0,0,0,0,0,0,0,0,0,0,0,0,0,0,0,0,0,0,0,0,0,0,0,0,0,0,0,0,0,0,0,0,0,0,0,0,0,0,0,0,0,0,0,0,0],"split_type":[0,0,0,0,0,0,0,0,0,0,0,0,0,0,0,0,0,0,0,0,0,0,0,0,0,0,0,0,0,0,0,0,0,0,0,0,0,0,0,0,0,0,0,0,0,0,0,0,0,0,0,0,0,0,0,0,0,0,0,0,0,0,0,0,0,0,0,0,0,0,0,0,0,0,0,0,0,0,0,0,0,0,0,0,0,0,0,0,0,0,0,0,0,0,0,0,0,0,0,0,0,0,0,0,0,0,0,0,0,0,0,0,0,0,0,0,0,0,0,0,0,0,0,0,0,0,0,0,0,0,0,0,0,0,0,0,0,0,0,0,0,0,0,0,0,0,0,0,0,0,0,0,0,0,0,0,0,0,0,0,0,0,0,0,0,0,0,0,0,0,0,0,0,0,0,0,0,0,0,0,0,0,0],"sum_hessian":[7.859E3,3.796E3,4.063E3,1.565E3,2.231E3,7.6E1,3.987E3,9.46E2,6.19E2,1.557E3,6.74E2,5E0,7.1E1,8.33E2,3.154E3,2E1,9.26E2,3E0,6.16E2,4.7E1,1.51E3,1.8E1,6.56E2,3E0,2E0,1.8E1,5.3E1,1.35E2,6.98E2,4.5E1,3.109E3,9E0,1.1E1,4.35E2,4.91E2,4.23E2,1.93E2,1.6E1,3.1E1,7.55E2,7.55E2,1.3E1,5E0,7E0,6.49E2,3E0,1.5E1,1.3E1,4E1,1.22E2,1.3E1,1E0,6.97E2,1.7E1,2.8E1,1.4E1,3.095E3,5E0,4E0,4E0,7E0,7.9E1,3.56E2,3.75E2,1.16E2,3.71E2,5.2E1,1.3E1,1.8E2,1E1,6E0,1.5E1,1.6E1,2.04E2,5.51E2,5.6E1,6.99E2,3E0,1E1,1E0,4E0,2E0,5E0,1.03E2,5.46E2,1E0,2E0,1.2E1,3E0,5E0,8E0,1.2E1,2.8E1,1.9E1,1.03E2,9E0,4E0,4.7E1,6.5E2,1.5E1,2E0,1E1,1.8E1,1.2E1,2E0,2.094E3,1.001E3,4E0,1E0,3E0,1E0,3E0,4E0,1E1,6.9E1,9E0,3.47E2,7.8E1,2.97E2,1.05E2,1.1E1,1.8E2,1.91E2,4E0,4.8E1,2E0,1.1E1,1.52E2,2.8E1,1.3E1,3E0,7E0,1.97E2,3.93E2,1.58E2,1.7E1,3.9E1,5.4E1,6.45E2,2E0,2E0,1E0,4E0,6E0,9.7E1,2.13E2,3.33E2,5E0,7E0,1E0,2E0,3E0,2E0,5E0,3E0,6E0,6E0,1.7E1,1.1E1,2E0,1.7E1,7.7E1,2.6E1,8E0,1E0,2E0,2E0,1E0,4.6E1,5E0,6.45E2,1E0,1E0,2E0,8E0,9E0,9E0,1E1,2E0,1.605E3,4.89E2,2.1E1,9.8E2],"tree_param":{"num_deleted":"0","num_feature":"12","num_nodes":"183","size_leaf_vector":"0"}},{"base_weights":[6.100347E-1,4.563824E0,5.9431213E-1,1.7080475E0,4.9603806E0,5.5652723E-4,6.585848E-1,3.545833E0,-3.677188E-1,7.3093843E0,3.6735115E0,5.9104747E-1,-8.226768E-3,2.2422107E-2,7.1891844E-1,9.6491104E-1,5.229324E0,1.4456886E0,7.953454E0,1.2301755E1,2.938241E0,6.993934E-1,3.5892096E-1,-6.852226E-2,3.0228464E-2,5.6172055E-1,-2.2699277E-1,1.2179546E0,7.012198E-1,1.1103971E0,3.648071E0,7.68957E-1,1.8339364E-1,-2.2484532E-3,-7.791988E-2,1.8285495E-1,1.3265777E-2,3.6184871E0,5.076934E-1,-2.5795275E-1,-2.1333972E-1,7.1473205E-1,1.5845802E0,1.2094889E0,6.879559E-1,5.028069E0,-1.7728326E-1,2.6963833E-1,8.4304345E-1,-1.5968652E-2,7.83946E-2,-8.41977E-2,-5.5562492E-2,1.5246978E-1,1.1594219E0,1.2970531E-1,3.472213E-3,1.7320226E0,6.004053E0,3.9585724E-1,7.279327E-1,-3.5646656E-1,-2.4558704E-1,-1.7375264E-1,-2.3712996E-1,4.664457E-1,1.0289899E0,-1.8855818E-1,1.6276377E0,1.1167561E0,2.8433793E0,4.719184E-1,7.1899194E-1,-4.5645677E-2,9.768419E-3,1.2914476E-1,3.074742E-2,-7.870022E-3,-8.5659295E-2,-8.373612E-2,-3.160274E-2,4.8719976E-2,2.785296E-1,1.4688839E-2,1.6673122E-1,-2.5447428E-2,1.6119538E-2,4.9929124E-1,3.25307E-1,1.8240112E0,6.827775E-1,-2.6681116E-1,-5.944515E-1,-3.4532255E-1,-2.388686E-1,-2.1123053E-1,2.4585523E-1,-2.7735767E-1,-2.3010398E-1,-7.2384304E-1,4.9407494E-1,8.527391E-1,1.6012739E0,-8.046464E-1,1.843415E-1,1.4463706E0,1.984004E0,9.9746555E-1,2.4330513E0,3.2636156E0,-1.6809255E-1,3.8623112E-1,5.726406E-1,5.7927316E-1,7.614049E-1],"categories":[],"categories_nodes":[],"categories_segments":[],"categories_sizes":[],"default_left":[true,true,true,true,true,true,true,true,false,true,true,true,true,true,true,false,false,false,false,false,true,true,false,true,true,true,true,true,true,true,false,true,false,true,true,true,true,true,true,true,true,true,true,true,true,false,false,false,false,true,true,true,true,true,false,true,true,false,false,true,true,true,true,true,true,true,true,true,true,true,true,true,true,false,false,false,false,false,false,false,false,false,false,false,false,false,false,false,false,false,false,false,false,false,false,false,false,false,false,false,false,false,false,false,false,false,false,false,false,false,false,false,false,false,false],"id":62,"left_children":[1,3,5,7,9,11,13,15,-1,17,19,21,23,25,27,-1,-1,-1,-1,-1,29,31,-1,33,35,37,39,41,43,45,-1,47,-1,49,51,53,55,57,59,61,63,65,67,69,71,-1,-1,-1,-1,73,75,77,79,81,-1,83,85,-1,-1,87,89,91,93,95,97,99,101,103,105,107,109,111,113,-1,-1,-1,-1,-1,-1,-1,-1,-1,-1,-1,-1,-1,-1,-1,-1,-1,-1,-1,-1,-1,-1,-1,-1,-1,-1,-1,-1,-1,-1,-1,-1,-1,-1,-1,-1,-1,-1,-1,-1,-1,-1],"loss_changes":[4.9162866E2,3.2563904E1,3.0121777E2,1.701152E1,7.351453E1,4.010422E0,2.7335352E2,8.367838E0,0E0,3.12807E1,1.04038376E2,1.8623042E-1,1.7642047E0,8.3084236E1,5.714453E1,0E0,0E0,0E0,0E0,0E0,2.1070755E1,2.0262218E-1,0E0,1.8335927E-1,1.1985321E0,3.158752E1,1.534462E-1,4.0608765E1,4.2055176E1,2.7272263E1,0E0,1.4261746E-1,0E0,4.0834207E-2,3.284526E-2,1.2971975E0,4.750001E-1,1.1423405E1,4.625187E0,1.1733532E-1,2.5854015E-1,7.1790695E0,9.920776E0,2.3026077E1,4.093335E1,0E0,0E0,0E0,0E0,2.5356742E-2,9.291995E-3,2.0901918E-2,3.6849365E-2,5.83709E-1,0E0,1.3429052E-1,1.4130756E-1,0E0,0E0,8.705616E-1,2.7330322E0,2.1931565E-1,4.0771008E-2,1.7833822E0,2.3296356E-2,1.8699484E0,3.678772E0,8.2414055E-1,7.0903625E0,2.2904388E1,1.0773346E1,6.56102E0,3.1562744E1,0E0,0E0,0E0,0E0,0E0,0E0,0E0,0E0,0E0,0E0,0E0,0E0,0E0,0E0,0E0,0E0,0E0,0E0,0E0,0E0,0E0,0E0,0E0,0E0,0E0,0E0,0E0,0E0,0E0,0E0,0E0,0E0,0E0,0E0,0E0,0E0,0E0,0E0,0E0,0E0,0E0,0E0],"parents":[2147483647,0,0,1,1,2,2,3,3,4,4,5,5,6,6,7,7,9,9,10,10,11,11,12,12,13,13,14,14,20,20,21,21,23,23,24,24,25,25,26,26,27,27,28,28,29,29,31,31,33,33,34,34,35,35,36,36,37,37,38,38,39,39,40,40,41,41,42,42,43,43,44,44,49,49,50,50,51,51,52,52,53,53,55,55,56,56,59,59,60,60,61,61,62,62,63,63,64,64,65,65,66,66,67,67,68,68,69,69,70,70,71,71,72,72],"right_children":[2,4,6,8,10,12,14,16,-1,18,20,22,24,26,28,-1,-1,-1,-1,-1,30,32,-1,34,36,38,40,42,44,46,-1,48,-1,50,52,54,56,58,60,62,64,66,68,70,72,-1,-1,-1,-1,74,76,78,80,82,-1,84,86,-1,-1,88,90,92,94,96,98,100,102,104,106,108,110,112,114,-1,-1,-1,-1,-1,-1,-1,-1,-1,-1,-1,-1,-1,-1,-1,-1,-1,-1,-1,-1,-1,-1,-1,-1,-1,-1,-1,-1,-1,-1,-1,-1,-1,-1,-1,-1,-1,-1,-1,-1,-1,-1],"split_conditions":[2.7272727E-2,5.5555556E-2,3.9510223E-1,8.231776E-1,1.6666667E-1,2.4576882E-2,5.5555556E-2,3.9510223E-1,-7.3543754E-3,5.629188E-1,9.5682657E-1,1.6666667E-1,7.6129995E-2,9.8790765E-1,1.8427517E-2,1.929822E-2,1.04586475E-1,2.8913772E-2,1.5906908E-1,2.460351E-1,2.777778E-1,5E-1,7.1784193E-3,1.8779257E-1,1.3390663E-1,5E-1,3.1941032E-1,6.818182E-1,3.3489376E-2,9.8790765E-1,7.296142E-2,3.6677136E-3,3.6678729E-3,9.212121E-1,9.9787235E-1,5.6940943E-1,1.1433201E-1,8.110852E-1,9.5682657E-1,3.3636364E-1,4.1420597E-1,2.777778E-1,7.310047E-2,5E-1,9.5682657E-1,1.0056138E-1,-3.545665E-3,5.3927666E-3,1.6860869E-2,1.6666667E-1,1.6666667E-1,3.3636364E-1,8.30303E-1,9.212121E-1,2.3188438E-2,6.2027365E-2,1.3484347E-1,3.4640454E-2,1.2008106E-1,3.783784E-1,7.125307E-2,2.088452E-1,3.5019808E-2,9.9787235E-1,5.1233345E-1,2.1335974E-2,1.6564637E-1,2.4846956E-2,6.142506E-3,3.042852E-2,2.0345695E-2,7.920965E-1,1.6666667E-1,-9.129135E-4,1.9536837E-4,2.582895E-3,6.149484E-4,-1.5740044E-4,-1.7131859E-3,-1.6747224E-3,-6.320548E-4,9.743995E-4,5.5705924E-3,2.9377677E-4,3.3346245E-3,-5.089486E-4,3.2239076E-4,9.985825E-3,6.50614E-3,3.6480222E-2,1.365555E-2,-5.336223E-3,-1.1889029E-2,-6.9064507E-3,-4.777372E-3,-4.2246105E-3,4.9171043E-3,-5.5471533E-3,-4.6020797E-3,-1.4476861E-2,9.881498E-3,1.7054781E-2,3.202548E-2,-1.6092926E-2,3.68683E-3,2.8927412E-2,3.968008E-2,1.9949311E-2,4.8661027E-2,6.527231E-2,-3.361851E-3,7.7246223E-3,1.1452812E-2,1.1585463E-2,1.5228097E-2],"split_indices":[2,4,6,6,4,5,4,6,0,6,6,4,6,6,11,0,0,0,0,0,4,0,0,5,11,0,11,2,5,6,0,6,0,2,10,5,5,6,6,2,5,4,5,4,6,0,0,0,0,4,4,2,2,2,0,5,6,0,0,11,11,11,5,10,5,5,5,5,11,5,5,6,4,0,0,0,0,0,0,0,0,0,0,0,0,0,0,0,0,0,0,0,0,0,0,0,0,0,0,0,0,0,0,0,0,0,0,0,0,0,0,0,0,0,0],"split_type":[0,0,0,0,0,0,0,0,0,0,0,0,0,0,0,0,0,0,0,0,0,0,0,0,0,0,0,0,0,0,0,0,0,0,0,0,0,0,0,0,0,0,0,0,0,0,0,0,0,0,0,0,0,0,0,0,0,0,0,0,0,0,0,0,0,0,0,0,0,0,0,0,0,0,0,0,0,0,0,0,0,0,0,0,0,0,0,0,0,0,0,0,0,0,0,0,0,0,0,0,0,0,0,0,0,0,0,0,0,0,0,0,0,0,0],"sum_hessian":[7.924E3,3.1E1,7.893E3,4E0,2.7E1,7.71E2,7.122E3,2E0,2E0,9E0,1.8E1,1.1E1,7.6E2,6.17E2,6.505E3,1E0,1E0,1E0,8E0,1E0,1.7E1,7E0,4E0,2.96E2,4.64E2,1.95E2,4.22E2,2.22E2,6.283E3,5E0,1.2E1,6E0,1E0,3.7E1,2.59E2,4.6E1,4.18E2,3E0,1.92E2,1.27E2,2.95E2,9.4E1,1.28E2,1.59E2,6.124E3,1E0,4E0,1E0,5E0,3.2E1,5E0,2.01E2,5.8E1,4.5E1,1E0,3.2E1,3.86E2,2E0,1E0,1.28E2,6.4E1,1.3E1,1.14E2,1.12E2,1.83E2,5.3E1,4.1E1,3E0,1.25E2,1.51E2,8E0,7.7E2,5.354E3,1.5E1,1.7E1,2E0,3E0,4E0,1.97E2,2.6E1,3.2E1,2.5E1,2E1,8E0,2.4E1,1.17E2,2.69E2,5.1E1,7.7E1,2E0,6.2E1,1E1,3E0,6E0,1.08E2,1.03E2,9E0,2.5E1,1.58E2,1E0,5.2E1,3.2E1,9E0,1E0,2E0,8.4E1,4.1E1,1.39E2,1.2E1,7E0,1E0,4.17E2,3.53E2,1.248E3,4.106E3],"tree_param":{"num_deleted":"0","num_feature":"12","num_nodes":"115","size_leaf_vector":"0"}},{"base_weights":[6.107626E-1,4.2201786E0,5.954963E-1,3.850528E0,1.2117248E1,-7.1524794E-4,6.5974265E-1,5.438709E0,2.688074E0,4.7500804E-1,-1.0416815E-2,3.8322374E-2,7.1779704E-1,1.2881459E0,7.1699433E0,1.2066163E0,3.1757894E0,5.359234E-1,3.5797626E-1,-6.857027E-2,2.4592452E-2,5.9623605E-1,-2.1879572E-1,1.7354007E0,6.9193286E-1,5.1508923E0,-3.8163245E-1,1.4240056E0,7.80075E0,4.9526563E0,-3.565459E-2,3.396763E0,1.6136752E-1,6.0659546E-1,3.4375775E-1,5.786153E-2,-7.142658E-2,1.5880585E-1,7.74867E-3,3.561681E0,5.428999E-1,-1.3654742E-1,-2.3008288E-1,1.1147585E0,1.9506041E0,8.798138E-1,6.5432227E-1,2.6559415E-1,6.51251E-1,3.9360112E-1,1.5987256E-1,1.8900692E-1,-1.3918138E-2,-1.3168961E-2,-7.492199E-2,2.1312177E-1,6.1681062E-2,5.9937492E-2,-6.777514E-3,1.7023326E0,5.9140015E0,4.1150588E-1,7.397238E-1,-1.8777664E-1,1.7741574E-1,-2.1376285E-1,-2.6866677E-1,2.8782408E0,8.5248744E-1,2.4737608E0,1.6109992E0,1.6078695E0,8.3632255E-1,3.7509307E-1,6.7404425E-1,-4.054516E-2,2.6547434E-3,6.6155374E-2,-7.615006E-2,2.4802145E-1,9.6788E-2,1.7738009E-2,1.7324509E-1,4.120168E-2,1.23981595E-1,-3.1451173E-2,2.563156E-3,5.677095E-1,3.6088297E-1,1.2320526E0,6.665167E-1,5.1313564E-2,-2.1226588E-1,4.6776748E-1,-2.1350706E-1,-8.623221E-2,-2.1765101E-1,-3.72856E-1,-2.622217E-1,4.0149984E0,8.3689386E-1,7.9007626E-1,1.1748714E0,2.2107992E0,3.5826676E0,1.3497453E0,2.1867979E0,9.493549E-1,1.909875E0,5.887406E-1,9.275638E-1,5.799053E-1,3.6006764E-1,8.7136346E-1,6.4481956E-1],"categories":[],"categories_nodes":[],"categories_segments":[],"categories_sizes":[],"default_left":[true,true,true,true,false,true,true,true,true,true,true,true,true,true,true,true,true,true,false,true,true,true,true,true,true,false,false,false,false,false,false,false,false,true,true,true,true,true,true,true,true,true,true,true,true,true,true,false,false,false,false,false,false,true,true,true,true,true,true,false,false,true,true,true,true,true,true,true,true,true,true,true,true,true,true,false,false,false,false,false,false,false,false,false,false,false,false,false,false,false,false,false,false,false,false,false,false,false,false,false,false,false,false,false,false,false,false,false,false,false,false,false,false,false,false],"id":63,"left_children":[1,3,5,7,-1,9,11,13,15,17,19,21,23,25,27,29,31,33,-1,35,37,39,41,43,45,-1,-1,-1,-1,-1,-1,-1,-1,47,49,51,53,55,57,59,61,63,65,67,69,71,73,-1,-1,-1,-1,-1,-1,75,77,79,81,83,85,-1,-1,87,89,91,93,95,97,99,101,103,105,107,109,111,113,-1,-1,-1,-1,-1,-1,-1,-1,-1,-1,-1,-1,-1,-1,-1,-1,-1,-1,-1,-1,-1,-1,-1,-1,-1,-1,-1,-1,-1,-1,-1,-1,-1,-1,-1,-1,-1,-1,-1,-1],"loss_changes":[4.359629E2,8.151886E1,3.0243555E2,5.4702515E1,0E0,3.5410829E0,2.5710693E2,9.26084E1,1.2628632E1,3.2586336E-2,1.5349088E0,8.7457596E1,1.7112427E2,2.8674139E1,2.9993958E1,2.4948847E1,9.314117E0,4.36635E-2,0E0,1.0389137E-1,1.0604787E0,2.971714E1,3.7172508E-1,2.0779572E1,4.4708984E1,0E0,0E0,0E0,0E0,0E0,0E0,0E0,0E0,2.5685787E-2,1.6739964E-3,6.2995315E-2,5.4888964E-2,2.6777756E-1,3.1803417E-1,1.1113987E1,4.778515E0,8.3690935E-1,2.0464516E-1,1.8708225E1,1.9814362E1,3.305951E1,2.907837E1,0E0,0E0,0E0,0E0,0E0,0E0,7.6519093E-3,4.7099352E-2,1.22410774E-1,9.103268E-2,1.0553306E-1,7.5879E-2,0E0,0E0,8.225231E-1,2.4142456E0,2.6550663E-1,8.6931765E-1,1.1800003E-1,3.0412197E-2,1.1186695E1,4.135933E-1,1.0786926E1,9.996796E0,1.1154526E1,2.2393494E1,9.950752E-1,2.8326172E1,0E0,0E0,0E0,0E0,0E0,0E0,0E0,0E0,0E0,0E0,0E0,0E0,0E0,0E0,0E0,0E0,0E0,0E0,0E0,0E0,0E0,0E0,0E0,0E0,0E0,0E0,0E0,0E0,0E0,0E0,0E0,0E0,0E0,0E0,0E0,0E0,0E0,0E0,0E0,0E0],"parents":[2147483647,0,0,1,1,2,2,3,3,5,5,6,6,7,7,8,8,9,9,10,10,11,11,12,12,13,13,14,14,15,15,16,16,17,17,19,19,20,20,21,21,22,22,23,23,24,24,33,33,34,34,35,35,36,36,37,37,38,38,39,39,40,40,41,41,42,42,43,43,44,44,45,45,46,46,53,53,54,54,55,55,56,56,57,57,58,58,61,61,62,62,63,63,64,64,65,65,66,66,67,67,68,68,69,69,70,70,71,71,72,72,73,73,74,74],"right_children":[2,4,6,8,-1,10,12,14,16,18,20,22,24,26,28,30,32,34,-1,36,38,40,42,44,46,-1,-1,-1,-1,-1,-1,-1,-1,48,50,52,54,56,58,60,62,64,66,68,70,72,74,-1,-1,-1,-1,-1,-1,76,78,80,82,84,86,-1,-1,88,90,92,94,96,98,100,102,104,106,108,110,112,114,-1,-1,-1,-1,-1,-1,-1,-1,-1,-1,-1,-1,-1,-1,-1,-1,-1,-1,-1,-1,-1,-1,-1,-1,-1,-1,-1,-1,-1,-1,-1,-1,-1,-1,-1,-1,-1,-1,-1,-1],"split_conditions":[2.7272727E-2,5.8854413E-1,3.9510223E-1,1.6666667E-1,2.4234495E-1,7.241379E-2,5.5555556E-2,5.5555556E-2,2.777778E-1,1.6666667E-1,7.6129995E-2,9.8790765E-1,8.275862E-2,8.231776E-1,5.629188E-1,9.8790765E-1,4.4444448E-1,5.272727E-1,7.159525E-3,9.6551724E-2,5.0082594E-1,1.8181819E-1,5.0082594E-1,1.6666667E-1,2.6206896E-1,1.03017844E-1,-7.6326486E-3,2.8480113E-2,1.56015E-1,9.905312E-2,-7.1309175E-4,6.793526E-2,3.2273503E-3,3.6677136E-3,1.3484347E-1,2.777778E-1,1.2389015E-3,5.8793104E-1,2.7758622E-1,8.110852E-1,9.5682657E-1,9.9787235E-1,8.30303E-1,9.8790765E-1,2.2170213E-1,1.2389015E-3,7.920965E-1,5.311883E-3,1.302502E-2,7.872022E-3,3.1974511E-3,3.7801384E-3,-2.7836274E-4,2.0297873E-1,1.48936175E-2,9.9787235E-1,8.30303E-1,9.212121E-1,1.3484347E-1,3.404665E-2,1.1828002E-1,2.6551723E-1,2.1896552E-1,4.2424244E-1,8.30303E-1,2.1276595E-3,1.15517244E-1,6.545454E-1,9.9787235E-1,1.8181819E-1,3.888889E-1,1.6666667E-1,1.6666667E-1,5.0082594E-1,5.181818E-1,-8.109032E-4,5.3094867E-5,1.3231074E-3,-1.5230011E-3,4.960429E-3,1.9357599E-3,3.5476018E-4,3.4649016E-3,8.240336E-4,2.479632E-3,-6.290235E-4,5.126312E-5,1.135419E-2,7.217659E-3,2.464105E-2,1.3330334E-2,1.0262713E-3,-4.2453175E-3,9.3553495E-3,-4.270141E-3,-1.7246441E-3,-4.35302E-3,-7.45712E-3,-5.244434E-3,8.0299966E-2,1.6737876E-2,1.5801525E-2,2.3497429E-2,4.4215985E-2,7.165335E-2,2.6994905E-2,4.3735955E-2,1.8987097E-2,3.81975E-2,1.1774812E-2,1.8551275E-2,1.1598106E-2,7.2013526E-3,1.742727E-2,1.2896391E-2],"split_indices":[2,7,6,4,0,3,4,4,4,4,6,6,3,6,6,6,4,2,0,3,8,2,8,4,3,0,0,0,0,0,0,0,0,6,6,4,8,3,3,6,6,10,2,6,10,8,6,0,0,0,0,0,0,10,10,10,2,2,6,0,0,3,3,2,2,10,3,2,10,2,4,4,4,8,2,0,0,0,0,0,0,0,0,0,0,0,0,0,0,0,0,0,0,0,0,0,0,0,0,0,0,0,0,0,0,0,0,0,0,0,0,0,0,0,0],"split_type":[0,0,0,0,0,0,0,0,0,0,0,0,0,0,0,0,0,0,0,0,0,0,0,0,0,0,0,0,0,0,0,0,0,0,0,0,0,0,0,0,0,0,0,0,0,0,0,0,0,0,0,0,0,0,0,0,0,0,0,0,0,0,0,0,0,0,0,0,0,0,0,0,0,0,0,0,0,0,0,0,0,0,0,0,0,0,0,0,0,0,0,0,0,0,0,0,0,0,0,0,0,0,0,0,0,0,0,0,0,0,0,0,0,0,0],"sum_hessian":[7.928E3,3.3E1,7.895E3,3.2E1,1E0,7.68E2,7.127E3,1.3E1,1.9E1,1.5E1,7.53E2,6.09E2,6.518E3,4E0,9E0,5E0,1.4E1,9E0,6E0,2.83E2,4.7E2,1.92E2,4.17E2,1.61E2,6.357E3,1E0,3E0,1E0,8E0,1E0,4E0,1.3E1,1E0,6E0,3E0,6E0,2.77E2,5.2E1,4.18E2,3E0,1.89E2,5.1E1,3.66E2,4.2E1,1.19E2,1.059E3,5.298E3,1E0,5E0,2E0,1E0,2E0,4E0,1.6E1,2.61E2,3.3E1,1.9E1,9.1E1,3.27E2,2E0,1E0,1.14E2,7.5E1,4.4E1,7E0,2.59E2,1.07E2,5E0,3.7E1,4.6E1,7.3E1,5.9E1,1E3,3.5E2,4.948E3,6E0,1E1,2E0,2.59E2,2.5E1,8E0,1.4E1,5E0,7.1E1,2E1,9E1,2.37E2,2.7E1,8.7E1,9E0,6.6E1,4E0,4E1,4E0,3E0,8E0,2.51E2,5E0,1.02E2,3E0,2E0,3.2E1,5E0,3.8E1,8E0,5.1E1,2.2E1,1.9E1,4E1,2.7E2,7.3E2,2.3E1,3.27E2,6.37E2,4.311E3],"tree_param":{"num_deleted":"0","num_feature":"12","num_nodes":"115","size_leaf_vector":"0"}},{"base_weights":[5.8878356E-1,7.7799655E-2,1.0468049E0,2.5188258E-1,-4.938064E-2,5.584195E0,9.8853457E-1,1.40134655E-2,5.561518E-1,-7.8558046E-1,-2.9478109E-2,1.0172817E1,4.8005147E0,6.0649675E-1,1.0856998E0,5.6924856E-1,7.3841657E-3,1.5502725E0,5.3917265E-1,-1.4862727E0,-5.4181147E-1,-3.2449696E-2,1.3967296E0,1.6665672E1,6.6933756E0,1.1764803E0,6.5792074E0,9.580782E-1,5.653161E-1,1.509846E0,1.0061092E0,1.4026477E0,4.2831424E-1,-6.287764E-2,4.3597758E-2,1.806789E0,1.2503802E0,3.9783278E-1,6.579909E-1,-7.8287137E-1,-5.0215197E-1,-2.4810832E-2,-5.482091E-1,2.162864E0,4.2487875E-1,7.8332186E0,1.3045892E0,6.3676972E0,2.3747917E-1,1.35769005E1,5.0188117E0,2.0120142E0,9.2495865E-1,4.751984E-1,6.022123E-1,1.0675328E0,1.9251008E0,1.0785584E0,8.176372E-1,3.521812E-1,7.862953E-1,-9.096352E-4,-7.169666E-2,2.1749005E-2,1.5292123E-1,1.9879159E0,7.5563425E-1,9.251836E-1,1.669498E0,7.9854983E-1,3.6617503E-1,1.2482693E0,6.2980354E-1,-1.349788E0,-5.448874E-1,-5.0999576E-1,-1.5215537E-1,-2.9187655E-2,1.0476495E0,-2.4594015E-1,-9.263771E-1,5.4458857E0,1.183157E1,-1.0534589E0,6.476392E-1,2.3338045E1,9.5251875E0,4.391462E-3,6.932536E0,1.2974561E0,8.379243E-1,5.148633E-1,8.176106E-2,4.7768494E-1,6.557872E-1,1.8855857E0,8.380898E-1,3.2010143E0,1.4418386E0,9.691262E-1,1.3655001E0,8.8029176E-1,7.5650257E-1,5.915871E-1,1.7785585E-1,-4.0448233E-2,2.0181725E-2,3.6633898E-2,-7.307318E-2,1.048008E-1,-1.7372724E-2,2.135121E-1,-2.621009E-2,9.0798026E-1,2.216772E0,1.0661528E0,3.3071768E-1,1.0932909E0,6.9167274E-1,3.5550673E-2,4.274624E-1,1.7289639E0,9.840699E-1,5.722997E-1,7.980398E-1,-2.312429E-1,-7.7455044E-1,-1.3902438E-1,5.394348E-4,1.9116719E0,4.3944916E-1,-5.870748E-1,5.5562496E-1,-9.7336096E-1,-5.596812E-1,-1.2215033E0,-4.852509E-1,8.4643084E-1,-1.4874059E-1,1.0862352E1,3.7897508E0,5.018389E-1,-6.3844436E-1,7.584576E0,1.3716604E0,7.84082E-1,1.9834361E0,-5.870231E-2,8.5154086E-1,6.772843E-1,4.666896E-1,-1.06840864E-1,1.8451793E-1,3.3895096E-1,6.058858E-1,6.793469E-1,5.495203E-1,3.7675555E0,1.4324216E0,1.0937036E0,7.612662E-1,2.6788492E0,4.9357142E0,2.3288558E0,1.1962976E0,7.7046436E-1,1.0367459E0,1.4359493E0,1.0234616E0,7.20631E-1,9.4577E-1,5.3395975E-1,7.7326167E-1],"categories":[],"categories_nodes":[],"categories_segments":[],"categories_sizes":[],"default_left":[true,true,true,true,true,true,true,true,true,true,true,true,true,true,true,true,true,true,true,false,true,true,true,false,true,true,true,true,true,true,true,false,true,true,true,true,true,true,true,true,true,true,true,false,false,true,false,false,true,true,true,false,true,true,true,true,true,true,true,true,false,true,true,true,true,true,false,true,false,true,true,true,true,false,true,false,false,true,true,true,true,false,false,true,true,false,true,true,true,true,true,true,true,true,true,true,true,true,true,true,true,true,true,false,false,false,false,false,false,false,false,false,false,false,false,false,false,false,false,false,false,false,false,false,false,false,false,false,false,false,false,false,false,false,false,false,false,false,false,false,false,false,false,false,false,false,false,false,false,false,false,false,false,false,false,false,false,false,false,false,false,false,false,false,false,false,false,false,false,false,false,false,false],"id":64,"left_children":[1,3,5,7,9,11,13,15,17,19,21,23,25,27,29,31,33,35,37,-1,39,41,43,-1,45,47,49,51,53,55,57,-1,59,61,63,65,67,69,71,73,75,77,79,-1,-1,81,-1,-1,83,85,87,-1,89,91,93,95,97,99,101,103,-1,105,107,109,111,113,-1,115,-1,117,119,121,123,-1,125,-1,-1,127,129,131,133,-1,-1,135,137,-1,139,141,143,145,147,149,151,153,155,157,159,161,163,165,167,169,171,-1,-1,-1,-1,-1,-1,-1,-1,-1,-1,-1,-1,-1,-1,-1,-1,-1,-1,-1,-1,-1,-1,-1,-1,-1,-1,-1,-1,-1,-1,-1,-1,-1,-1,-1,-1,-1,-1,-1,-1,-1,-1,-1,-1,-1,-1,-1,-1,-1,-1,-1,-1,-1,-1,-1,-1,-1,-1,-1,-1,-1,-1,-1,-1,-1,-1,-1,-1,-1,-1],"loss_changes":[1.8344526E3,8.2042816E1,1.0908994E3,1.1320985E2,3.1355988E1,1.7169336E2,1.5125854E2,3.2233605E0,1.1276276E1,9.324684E0,8.833508E0,1.281424E2,2.895298E2,1.1790558E1,1.09283936E2,9.8725486E-1,2.2100549E0,7.4876785E-2,1.1239029E1,0E0,2.5529766E-1,8.187361E0,2.8832083E0,0E0,2.922203E1,7.414542E1,3.082284E2,2.3510437E0,2.3574677E0,9.355725E1,3.7097168E1,0E0,1.4579237E-1,1.603415E-1,1.365853E0,4.753971E-1,3.1113625E-1,3.8100204E0,5.806259E0,4.472878E-1,6.717014E-2,9.624565E0,3.3746738E0,0E0,0E0,1.9631561E1,0E0,0E0,7.2816815E0,1.3633606E2,2.429964E2,0E0,2.341095E0,3.3690834E0,3.3841553E0,4.6233185E1,1.6138293E2,6.1646484E1,2.674591E0,3.0173123E-1,0E0,3.1694535E-2,3.9934993E-2,1.5560217E0,1.0392606E0,3.5523987E-1,0E0,2.2564507E-1,0E0,4.2589664E-1,5.810589E0,1.4682636E0,3.2173462E0,0E0,2.3807645E-1,0E0,0E0,6.6737423E0,4.065548E0,4.848918E0,2.618599E-2,0E0,0E0,9.628773E-2,1.6878653E0,0E0,1.9297821E1,2.4499705E0,6.28786E1,4.84182E0,8.7446976E-1,1.4223022E0,4.0174767E-1,2.751915E0,7.751312E-1,4.4463974E1,3.5316925E0,6.100183E1,4.0910706E1,1.8962524E1,1.2615295E1,3.6623535E0,1.2920227E0,0E0,0E0,0E0,0E0,0E0,0E0,0E0,0E0,0E0,0E0,0E0,0E0,0E0,0E0,0E0,0E0,0E0,0E0,0E0,0E0,0E0,0E0,0E0,0E0,0E0,0E0,0E0,0E0,0E0,0E0,0E0,0E0,0E0,0E0,0E0,0E0,0E0,0E0,0E0,0E0,0E0,0E0,0E0,0E0,0E0,0E0,0E0,0E0,0E0,0E0,0E0,0E0,0E0,0E0,0E0,0E0,0E0,0E0,0E0,0E0,0E0,0E0,0E0,0E0,0E0,0E0,0E0,0E0,0E0,0E0],"parents":[2147483647,0,0,1,1,2,2,3,3,4,4,5,5,6,6,7,7,8,8,9,9,10,10,11,11,12,12,13,13,14,14,15,15,16,16,17,17,18,18,20,20,21,21,22,22,24,24,25,25,26,26,27,27,28,28,29,29,30,30,32,32,33,33,34,34,35,35,36,36,37,37,38,38,39,39,40,40,41,41,42,42,45,45,48,48,49,49,50,50,52,52,53,53,54,54,55,55,56,56,57,57,58,58,59,59,61,61,62,62,63,63,64,64,65,65,67,67,69,69,70,70,71,71,72,72,74,74,77,77,78,78,79,79,80,80,83,83,84,84,86,86,87,87,88,88,89,89,90,90,91,91,92,92,93,93,94,94,95,95,96,96,97,97,98,98,99,99,100,100,101,101,102,102],"right_children":[2,4,6,8,10,12,14,16,18,20,22,24,26,28,30,32,34,36,38,-1,40,42,44,-1,46,48,50,52,54,56,58,-1,60,62,64,66,68,70,72,74,76,78,80,-1,-1,82,-1,-1,84,86,88,-1,90,92,94,96,98,100,102,104,-1,106,108,110,112,114,-1,116,-1,118,120,122,124,-1,126,-1,-1,128,130,132,134,-1,-1,136,138,-1,140,142,144,146,148,150,152,154,156,158,160,162,164,166,168,170,172,-1,-1,-1,-1,-1,-1,-1,-1,-1,-1,-1,-1,-1,-1,-1,-1,-1,-1,-1,-1,-1,-1,-1,-1,-1,-1,-1,-1,-1,-1,-1,-1,-1,-1,-1,-1,-1,-1,-1,-1,-1,-1,-1,-1,-1,-1,-1,-1,-1,-1,-1,-1,-1,-1,-1,-1,-1,-1,-1,-1,-1,-1,-1,-1,-1,-1,-1,-1,-1,-1],"split_conditions":[6.621175E-1,6.572582E-1,1.8275118E-2,3.8399246E-1,1.9445445E-2,7.876776E-1,5.3197986E-1,2.4576882E-2,3.9791144E-2,2.7272727E-2,9.975693E-1,2.7272727E-2,8.2218254E-1,1.7725962E-1,1.7545912E-1,2.7272727E-2,8.981001E-3,2.2866402E-2,6.028142E-1,-2.9725453E-2,1.2389015E-3,9.82085E-1,9.985596E-1,3.3331344E-1,7.703592E-1,5.318799E-1,8.349742E-1,2.4756933E-2,5.4792248E-2,8.2218254E-1,8.4422266E-1,2.8052954E-2,3.4497833E-1,1.8518186E-1,3.279013E-1,6.4393395E-1,3.637018E-2,3.8608843E-1,1.4377025E-1,1.7464891E-2,5E-1,9.804646E-1,8.2186735E-1,4.3257277E-2,8.497574E-3,7.573734E-1,2.6091782E-2,1.2735394E-1,2.7272727E-2,2.7272727E-2,8.571358E-1,4.024028E-2,2.7027026E-2,9.345995E-1,7.7555764E-1,7.6706135E-1,8.349742E-1,8.2218254E-1,5.9920776E-1,1.24566406E-1,1.5725905E-2,1.4354172E-1,3.3636364E-1,8.23977E-2,3.757258E-1,6.7567565E-2,1.5112685E-2,3.4929782E-2,3.338996E-2,3.092366E-1,3.989272E-1,6.2609863E-1,6.430696E-1,-2.6995758E-2,1.8815268E-2,-1.0199915E-2,-3.0431072E-3,2.3865682E-1,9.806446E-1,9.212121E-1,9.960389E-1,1.0891771E-1,2.366314E-1,8.0460525E-1,7.958708E-1,4.667609E-1,5E-1,8.4844077E-1,9.28372E-1,7.0297873E-1,2.7457688E-2,7.251228E-1,2.125307E-1,6.3859776E-2,9.699887E-1,2.0884521E-2,1.6680852E-1,9.212121E-1,4.600288E-2,7.554066E-1,8.349742E-1,8.76709E-1,8.486788E-1,1.1831743E-2,3.557117E-3,-8.0896466E-4,4.0363448E-4,7.3267793E-4,-1.4614635E-3,2.096016E-3,-3.4745448E-4,4.2702416E-3,-5.242018E-4,1.8159606E-2,4.433544E-2,2.1323055E-2,6.6143535E-3,2.1865819E-2,1.3833455E-2,7.1101345E-4,8.549248E-3,3.4579277E-2,1.9681398E-2,1.14459945E-2,1.5960796E-2,-4.6248576E-3,-1.5491009E-2,-2.7804875E-3,1.0788695E-5,3.8233437E-2,8.788983E-3,-1.1741496E-2,1.1112499E-2,-1.9467218E-2,-1.1193623E-2,-2.4430064E-2,-9.705017E-3,1.6928617E-2,-2.9748117E-3,2.1724704E-1,7.579502E-2,1.0036779E-2,-1.2768887E-2,1.5169153E-1,2.7433207E-2,1.568164E-2,3.966872E-2,-1.1740462E-3,1.7030817E-2,1.3545685E-2,9.333791E-3,-2.1368172E-3,3.6903587E-3,6.7790193E-3,1.2117716E-2,1.3586938E-2,1.0990406E-2,7.5351104E-2,2.864843E-2,2.1874072E-2,1.5225323E-2,5.3576984E-2,9.8714285E-2,4.6577115E-2,2.3925953E-2,1.5409287E-2,2.0734917E-2,2.8718986E-2,2.0469232E-2,1.441262E-2,1.89154E-2,1.0679195E-2,1.5465233E-2],"split_indices":[1,1,5,1,5,1,9,5,5,2,5,2,1,5,5,2,9,5,1,0,8,5,5,0,1,9,1,5,9,1,1,0,1,5,1,1,5,1,5,5,0,5,11,0,0,1,0,0,2,2,1,0,11,1,1,1,1,1,5,1,0,1,2,1,1,11,0,5,0,5,1,1,1,0,5,0,0,5,5,2,5,0,0,1,1,0,0,1,1,10,5,1,11,9,1,11,10,2,5,1,1,1,1,0,0,0,0,0,0,0,0,0,0,0,0,0,0,0,0,0,0,0,0,0,0,0,0,0,0,0,0,0,0,0,0,0,0,0,0,0,0,0,0,0,0,0,0,0,0,0,0,0,0,0,0,0,0,0,0,0,0,0,0,0,0,0,0,0,0,0,0,0,0],"split_type":[0,0,0,0,0,0,0,0,0,0,0,0,0,0,0,0,0,0,0,0,0,0,0,0,0,0,0,0,0,0,0,0,0,0,0,0,0,0,0,0,0,0,0,0,0,0,0,0,0,0,0,0,0,0,0,0,0,0,0,0,0,0,0,0,0,0,0,0,0,0,0,0,0,0,0,0,0,0,0,0,0,0,0,0,0,0,0,0,0,0,0,0,0,0,0,0,0,0,0,0,0,0,0,0,0,0,0,0,0,0,0,0,0,0,0,0,0,0,0,0,0,0,0,0,0,0,0,0,0,0,0,0,0,0,0,0,0,0,0,0,0,0,0,0,0,0,0,0,0,0,0,0,0,0,0,0,0,0,0,0,0,0,0,0,0,0,0,0,0,0,0,0,0],"sum_hessian":[7.838E3,3.705E3,4.133E3,1.564E3,2.141E3,5.2E1,4.081E3,8.78E2,6.86E2,5.6E1,2.085E3,7E0,4.5E1,8.28E2,3.253E3,1E1,8.68E2,1.1E1,6.75E2,1.4E1,4.2E1,2.081E3,4E0,2E0,5E0,1.5E1,3E1,8.6E1,7.42E2,5.13E2,2.74E3,1E0,9E0,2.95E2,5.73E2,5E0,6E0,3.09E2,3.66E2,5E0,3.7E1,2.051E3,3E1,2E0,2E0,4E0,1E0,2E0,1.3E1,5E0,2.5E1,2E0,8.4E1,2.17E2,5.25E2,2.49E2,2.64E2,1.978E3,7.62E2,8E0,1E0,3.7E1,2.58E2,4.78E2,9.5E1,4E0,1E0,4E0,2E0,2.2E1,2.87E2,1.6E1,3.5E2,1E0,4E0,3.6E1,1E0,2.043E3,8E0,1.7E1,1.3E1,3E0,1E0,3E0,1E1,1E0,4E0,7E0,1.8E1,1.5E1,6.9E1,1.97E2,2E1,1.59E2,3.66E2,5.4E1,1.95E2,7.2E1,1.92E2,1.433E3,5.45E2,3.74E2,3.88E2,3E0,5E0,1.3E1,2.4E1,3E0,2.55E2,1.53E2,3.25E2,7.1E1,2.4E1,1E0,3E0,3E0,1E0,5E0,1.7E1,4.5E1,2.42E2,5E0,1.1E1,2.62E2,8.8E1,2E0,2E0,4.35E2,1.608E3,3E0,5E0,1.2E1,5E0,1.1E1,2E0,2E0,1E0,8E0,2E0,3E0,1E0,4E0,3E0,1.6E1,2E0,9E0,6E0,1E0,6.8E1,4.4E1,1.53E2,7E0,1.3E1,7.7E1,8.2E1,2.98E2,6.8E1,1E1,4.4E1,4.4E1,1.51E2,5.6E1,1.6E1,4.1E1,1.51E2,3.65E2,1.068E3,4.51E2,9.4E1,1.1E2,2.64E2,2.8E1,3.6E2],"tree_param":{"num_deleted":"0","num_feature":"12","num_nodes":"173","size_leaf_vector":"0"}},{"base_weights":[5.9529376E-1,8.318325E-2,1.0611397E0,2.5774908E-1,-3.874225E-2,6.399443E0,9.9374115E-1,1.7276788E-2,5.697123E-1,-1.7525385E-1,7.120986E-2,3.8135927E0,8.622886E0,3.0360851E0,9.7270995E-1,5.0973403E-1,8.435483E-3,4.0851703E0,5.571513E-1,-6.035511E-1,-1.5925322E-1,-2.8425822E-1,1.2868324E-1,1.1715145E1,1.0137821E0,2.1143955E1,5.50333E0,1.380515E0,3.620807E0,6.065102E-1,1.068771E0,6.811925E-1,3.367411E-1,-6.131899E-2,4.384427E-2,5.0403886E0,2.0976448E0,4.2137128E-1,6.863975E-1,-2.4885601E-1,-8.6042684E-1,-6.6078596E-2,-2.3716876E-1,-3.6536637E-1,8.631193E-1,4.6649808E-1,1.0519755E-1,7.1316648E0,1.5122395E1,6.2585435E0,2.4292128E-1,4.757698E1,1.137976E1,-1.9825704E-1,8.691188E0,3.449164E0,8.124777E-1,5.48398E0,2.613859E0,7.3970413E-1,5.80347E-1,1.3501202E0,1.0163484E0,8.9140713E-1,3.3549243E-1,1.2623426E-1,4.4458097E-1,1.2305786E-1,-6.543314E-2,2.6318055E-2,2.0272642E-1,8.0966353E-1,3.9109206E-1,1.6861836E0,6.638078E-1,-2.8473002E-1,-1.3259184E-1,1.7899264E0,-8.0437616E-2,-4.8442215E-1,-2.1775687E-1,-9.0998644E-1,-2.3658054E-1,2.2829924E0,-1.3210708E-2,3.75124E-1,2.2064128E0,-1.513566E-1,1.4051269E-1,1.0259339E0,-2.4345268E-1,6.2564033E-1,-1.0101897E0,9.802472E0,-4.5833898E0,2.080851E-1,9.6590173E-1,3.7539275E0,1.7717086E0,6.385056E-1,1.5852101E0,7.7571255E-1,5.681363E-1,1.0568846E0,1.6415004E0,1.0849881E0,8.6277574E-1,3.84994E-1,1.5427238E-1,2.6986083E-1,-1.4597252E-1,1.5463091E-1,4.072503E-2,-8.309267E-3,-6.81271E-2,7.273976E-2,-1.2745415E-2,4.191627E-1,6.973058E-2,1.0673581E0,6.991049E-1,-3.2216197E-4,4.555506E-1,1.901534E0,9.4688886E-1,6.040375E-1,8.7077194E-1,-3.8311645E-2,-1.527631E-1,-1.8583004E-1,2.6692984E0,-2.1562359E-1,1.5153124E-2,-2.0291701E-1,-6.6982305E-1,-1.1383966E-1,-2.699858E-1,-3.056386E-1,-1.3565407E0,1.4849378E-1,-3.8012856E-1,1.993259E-1,-1.0300702E0,2.0600213E-1,8.041627E-1,-1.2648944E0,-8.855699E-2,8.514478E-1,1.2249868E-1,-5.280678E-1,1.8796179E-1,8.370395E-1,3.1871942E-1,-1.1467378E0,-4.0551746E-1,4.9574122E0,1.4894151E1,-1.6631764E-1,5.4114735E-1,-1.03787534E-1,4.286634E0,2.3440967E0,5.3135014E-1,8.1149375E-1,5.22968E-1,3.7618572E-1,3.5991907E0,-1.3812895E-1,8.004794E-1,1.029897E0,5.626581E-1,1.517716E0,8.856334E-1,2.5404382E0,1.2737346E0,9.6784896E-1,1.4561653E0,1.1308414E0,8.293873E-1],"categories":[],"categories_nodes":[],"categories_segments":[],"categories_sizes":[],"default_left":[true,true,true,true,true,true,true,true,true,true,true,true,true,true,true,true,true,true,true,true,true,true,true,true,true,true,true,true,true,true,true,true,true,true,true,false,false,true,true,true,false,true,true,true,true,true,true,false,false,false,true,false,false,true,true,false,true,false,true,true,true,true,true,false,true,true,false,true,true,true,true,true,true,true,true,false,true,true,true,true,true,true,true,false,true,true,false,true,true,false,true,true,true,true,false,true,false,true,true,true,true,true,true,true,true,true,true,false,false,false,false,false,false,false,false,false,false,false,false,false,false,false,false,false,false,false,false,false,false,false,false,false,false,false,false,false,false,false,false,false,false,false,false,false,false,false,false,false,false,false,false,false,false,false,false,false,false,false,false,false,false,false,false,false,false,false,false,false,false,false,false,false,false,false,false,false,false,false,false],"id":65,"left_children":[1,3,5,7,9,11,13,15,17,19,21,23,25,27,29,31,33,35,37,39,41,43,45,47,49,51,53,55,57,59,61,63,65,67,69,-1,-1,71,73,75,-1,77,79,81,83,85,87,-1,-1,-1,89,-1,-1,91,93,-1,95,-1,97,99,101,103,105,-1,107,109,-1,111,113,115,117,119,121,123,125,-1,127,129,131,133,135,137,139,-1,141,143,-1,145,147,-1,149,151,153,155,-1,157,-1,159,161,163,165,167,169,171,173,175,177,-1,-1,-1,-1,-1,-1,-1,-1,-1,-1,-1,-1,-1,-1,-1,-1,-1,-1,-1,-1,-1,-1,-1,-1,-1,-1,-1,-1,-1,-1,-1,-1,-1,-1,-1,-1,-1,-1,-1,-1,-1,-1,-1,-1,-1,-1,-1,-1,-1,-1,-1,-1,-1,-1,-1,-1,-1,-1,-1,-1,-1,-1,-1,-1,-1,-1,-1,-1,-1,-1,-1,-1],"loss_changes":[1.8780144E3,7.982864E1,1.4809629E3,1.15691895E2,3.3152157E1,2.8399805E2,1.7383398E2,3.78493E0,2.8819199E1,6.7095833E0,2.500262E1,5.341836E2,1.0284668E3,3.8274567E1,1.4153687E2,3.6379433E-1,2.1157236E0,8.0255127E-1,1.1633926E1,3.1320963E0,6.889633E0,1.5949578E1,8.332434E0,6.26286E1,7.3522156E1,1.195167E3,4.066255E2,1.2322323E1,5.201358E1,2.75943E0,4.6592773E1,4.1570377E-1,1.6232145E-1,2.205795E-1,1.577537E0,0E0,0E0,3.7257996E0,7.324753E0,4.5411527E-2,0E0,1.1572148E1,2.43783E0,1.10874E1,1.4144416E1,1.0551034E1,8.9342985E0,0E0,0E0,0E0,6.314841E0,0E0,0E0,5.790913E0,2.2650171E2,0E0,7.817073E-1,0E0,1.7225647E1,1.1295982E1,1.5093079E0,4.2132935E1,2.8040283E1,0E0,2.4051666E-3,1.4522919E-1,0E0,1.1577293E-2,4.2169333E-2,9.302268E-1,1.6048455E0,3.9074707E-1,7.6848755E0,5.2648354E-1,3.9517517E0,0E0,3.5640001E-3,5.9924955E0,5.5649457E0,1.8907089E0,2.591278E0,8.024244E0,7.17125E0,0E0,1.6652272E0,4.6709337E0,0E0,8.288298E0,1.1046274E1,0E0,1.3067675E0,1.7571807E-1,1.8058825E-1,3.040244E2,0E0,3.263424E-1,0E0,1.7333565E1,8.299984E0,2.284481E0,3.4393093E1,9.5918655E-1,1.4594879E0,1.9273315E1,8.16264E1,8.0338135E1,7.117859E0,0E0,0E0,0E0,0E0,0E0,0E0,0E0,0E0,0E0,0E0,0E0,0E0,0E0,0E0,0E0,0E0,0E0,0E0,0E0,0E0,0E0,0E0,0E0,0E0,0E0,0E0,0E0,0E0,0E0,0E0,0E0,0E0,0E0,0E0,0E0,0E0,0E0,0E0,0E0,0E0,0E0,0E0,0E0,0E0,0E0,0E0,0E0,0E0,0E0,0E0,0E0,0E0,0E0,0E0,0E0,0E0,0E0,0E0,0E0,0E0,0E0,0E0,0E0,0E0,0E0,0E0,0E0,0E0,0E0,0E0,0E0,0E0],"parents":[2147483647,0,0,1,1,2,2,3,3,4,4,5,5,6,6,7,7,8,8,9,9,10,10,11,11,12,12,13,13,14,14,15,15,16,16,17,17,18,18,19,19,20,20,21,21,22,22,23,23,24,24,25,25,26,26,27,27,28,28,29,29,30,30,31,31,32,32,33,33,34,34,37,37,38,38,39,39,41,41,42,42,43,43,44,44,45,45,46,46,50,50,53,53,54,54,56,56,58,58,59,59,60,60,61,61,62,62,64,64,65,65,67,67,68,68,69,69,70,70,71,71,72,72,73,73,74,74,76,76,77,77,78,78,79,79,80,80,81,81,82,82,84,84,85,85,87,87,88,88,90,90,91,91,92,92,93,93,95,95,97,97,98,98,99,99,100,100,101,101,102,102,103,103,104,104,105,105,106,106],"right_children":[2,4,6,8,10,12,14,16,18,20,22,24,26,28,30,32,34,36,38,40,42,44,46,48,50,52,54,56,58,60,62,64,66,68,70,-1,-1,72,74,76,-1,78,80,82,84,86,88,-1,-1,-1,90,-1,-1,92,94,-1,96,-1,98,100,102,104,106,-1,108,110,-1,112,114,116,118,120,122,124,126,-1,128,130,132,134,136,138,140,-1,142,144,-1,146,148,-1,150,152,154,156,-1,158,-1,160,162,164,166,168,170,172,174,176,178,-1,-1,-1,-1,-1,-1,-1,-1,-1,-1,-1,-1,-1,-1,-1,-1,-1,-1,-1,-1,-1,-1,-1,-1,-1,-1,-1,-1,-1,-1,-1,-1,-1,-1,-1,-1,-1,-1,-1,-1,-1,-1,-1,-1,-1,-1,-1,-1,-1,-1,-1,-1,-1,-1,-1,-1,-1,-1,-1,-1,-1,-1,-1,-1,-1,-1,-1,-1,-1,-1,-1,-1],"split_conditions":[6.621175E-1,6.572582E-1,3.275862E-2,3.8399246E-1,1.6666667E-1,8.2218254E-1,7.4137926E-2,7.4137926E-2,3.275862E-2,8.275862E-2,2.1896552E-1,7.876776E-1,8.349742E-1,8.2218254E-1,9.8790765E-1,5.5555556E-2,7.6129995E-2,3.9780295E-1,6.028142E-1,5.5555556E-2,4.95086E-1,5E-1,2.6206896E-1,7.563675E-1,9.8790765E-1,1.6666667E-1,8.571358E-1,7.7025306E-1,8.349742E-1,1.4619164E-1,2.5344828E-1,3.275862E-2,6.658651E-2,1.8427517E-2,3.532499E-1,1.0080777E-1,4.1952897E-2,3.8608843E-1,1.5172413E-1,1.9148937E-1,-1.7208537E-2,1.15517244E-1,2.086207E-1,6.724138E-2,6.142506E-3,6.1111116E-1,3.0172414E-1,1.4263329E-1,3.024479E-1,1.2517087E-1,1.6666667E-1,9.515396E-1,2.275952E-1,2.777778E-1,4.4444448E-1,6.898328E-2,6.595745E-1,1.096796E-1,6.8723404E-1,3.327586E-1,5.0082594E-1,8.2218254E-1,8.349742E-1,1.7828142E-2,2.911106E-1,1.8202345E-1,8.891619E-3,3.9234042E-1,1.4482759E-1,1.4037362E-1,3.698545E-1,2.1896552E-1,3.989272E-1,5.34398E-1,6.450739E-1,-5.6946003E-3,5.0041294E-1,5.5555556E-2,5.5555556E-2,5.5555556E-2,3.5106385E-1,2.777778E-1,1.2931034E-1,4.5659848E-2,6.1111116E-1,2.5344828E-1,4.4128254E-2,5.0082594E-1,4.1296717E-4,2.0518677E-2,3.888889E-1,1.6666667E-1,3.888889E-1,2.777778E-1,-9.166779E-2,8.0460525E-1,1.9318035E-2,8.54249E-1,2.777778E-1,2.5344828E-1,9.2556846E-1,2.2481573E-1,1.48936175E-2,7.6706135E-1,8.349742E-1,8.2218254E-1,5.0082594E-1,7.69988E-3,3.0854475E-3,5.3972164E-3,-2.9194504E-3,3.0926182E-3,8.1450056E-4,-1.6618535E-4,-1.362542E-3,1.4547951E-3,-2.549083E-4,8.383254E-3,1.3946116E-3,2.1347161E-2,1.3982098E-2,-6.4432393E-6,9.111012E-3,3.8030677E-2,1.8937778E-2,1.208075E-2,1.7415438E-2,-7.662329E-4,-3.055262E-3,-3.7166008E-3,5.3385966E-2,-4.3124715E-3,3.0306246E-4,-4.05834E-3,-1.3396461E-2,-2.2767931E-3,-5.3997156E-3,-6.112772E-3,-2.7130812E-2,2.9698755E-3,-7.602571E-3,3.986518E-3,-2.0601403E-2,4.1200425E-3,1.6083254E-2,-2.5297888E-2,-1.7711398E-3,1.7028956E-2,2.4499737E-3,-1.0561356E-2,3.7592356E-3,1.674079E-2,6.374388E-3,-2.2934755E-2,-8.110349E-3,9.914824E-2,2.97883E-1,-3.3263527E-3,1.0822947E-2,-2.0757506E-3,8.5732676E-2,4.6881933E-2,1.0627002E-2,1.6229875E-2,1.045936E-2,7.523714E-3,7.1983814E-2,-2.762579E-3,1.6009588E-2,2.0597938E-2,1.1253161E-2,3.0354321E-2,1.7712668E-2,5.080876E-2,2.547469E-2,1.9356979E-2,2.9123306E-2,2.2616828E-2,1.6587745E-2],"split_indices":[1,1,3,1,4,1,3,3,3,3,3,1,1,1,6,4,6,1,1,4,11,4,3,1,6,4,1,1,1,11,3,3,6,11,1,0,0,1,3,10,0,3,3,3,11,4,3,0,0,0,4,0,0,4,4,0,10,0,10,3,8,1,1,0,1,1,0,10,3,1,1,3,1,11,1,0,8,4,4,4,10,4,3,0,4,3,0,8,8,0,4,4,4,4,0,1,0,1,4,3,1,11,10,1,1,1,8,0,0,0,0,0,0,0,0,0,0,0,0,0,0,0,0,0,0,0,0,0,0,0,0,0,0,0,0,0,0,0,0,0,0,0,0,0,0,0,0,0,0,0,0,0,0,0,0,0,0,0,0,0,0,0,0,0,0,0,0,0,0,0,0,0,0,0,0,0,0,0,0],"split_type":[0,0,0,0,0,0,0,0,0,0,0,0,0,0,0,0,0,0,0,0,0,0,0,0,0,0,0,0,0,0,0,0,0,0,0,0,0,0,0,0,0,0,0,0,0,0,0,0,0,0,0,0,0,0,0,0,0,0,0,0,0,0,0,0,0,0,0,0,0,0,0,0,0,0,0,0,0,0,0,0,0,0,0,0,0,0,0,0,0,0,0,0,0,0,0,0,0,0,0,0,0,0,0,0,0,0,0,0,0,0,0,0,0,0,0,0,0,0,0,0,0,0,0,0,0,0,0,0,0,0,0,0,0,0,0,0,0,0,0,0,0,0,0,0,0,0,0,0,0,0,0,0,0,0,0,0,0,0,0,0,0,0,0,0,0,0,0,0,0,0,0,0,0,0,0,0,0,0,0],"sum_hessian":[7.872E3,3.75E3,4.122E3,1.542E3,2.208E3,5.1E1,4.071E3,8.71E2,6.71E2,9.85E2,1.223E3,2.4E1,2.7E1,4.1E1,4.03E3,1.5E1,8.56E2,2E0,6.69E2,3.5E1,9.5E2,1.7E2,1.053E3,6E0,1.8E1,5E0,2.2E1,1.1E1,3E1,8.38E2,3.192E3,7E0,8E0,2.88E2,5.68E2,1E0,1E0,3.27E2,3.42E2,1.5E1,2E1,4.33E2,5.17E2,1.59E2,1.1E1,6.8E1,9.85E2,3E0,3E0,2E0,1.6E1,1E0,4E0,8E0,1.4E1,2E0,9E0,1E1,2E1,1.36E2,7.02E2,5E2,2.692E3,4E0,3E0,3E0,5E0,6E0,2.82E2,5.12E2,5.6E1,2.3E1,3.04E2,7E0,3.35E2,1.1E1,4E0,3E0,4.3E2,3.7E1,4.8E2,3E1,1.29E2,4E0,7E0,6.5E1,3E0,1.19E2,8.66E2,6E0,1E1,4E0,4E0,1.3E1,1E0,2E0,7E0,8E0,1.2E1,1.22E2,1.4E1,4E1,6.62E2,2.5E2,2.5E2,1.859E3,8.33E2,2E0,1E0,2E0,1E0,4E0,2E0,1.3E1,2.69E2,2.34E2,2.78E2,2.1E1,3.5E1,6E0,1.7E1,4.3E1,2.61E2,5E0,2E0,2.61E2,7.4E1,1E0,3E0,1E0,2E0,1.78E2,2.52E2,1.5E1,2.2E1,1.61E2,3.19E2,1.3E1,1.7E1,3.5E1,9.4E1,6E0,1E0,4.7E1,1.8E1,6E0,1.13E2,2.1E1,8.45E2,6E0,4E0,2E0,2E0,3E0,1E0,7E0,6E0,1E0,1E0,1E0,7E0,8E0,4E0,4.8E1,7.4E1,9E0,5E0,1E0,3.9E1,7E0,6.55E2,6.7E1,1.83E2,7.2E1,1.78E2,1.414E3,4.45E2,9.1E1,7.42E2],"tree_param":{"num_deleted":"0","num_feature":"12","num_nodes":"179","size_leaf_vector":"0"}},{"base_weights":[5.8150387E-1,7.8392625E-2,1.0400043E0,2.5624672E-1,-4.5613743E-2,1.6132654E1,9.910647E-1,1.7486291E-2,5.510758E-1,-1.8572152E0,-3.382595E-2,6.173097E0,2.3998577E1,3.5707476E0,9.4746834E-1,7.880363E-1,6.1934246E-3,3.6370025E0,5.3586566E-1,-3.2451525E-1,-2.0958276E0,-1.6338064E-1,7.154795E-2,1.6120768E1,3.381858E-1,3.9825443E1,1.5570925E1,4.796828E0,2.3799639E0,6.0577947E-1,1.0381241E0,9.907823E-1,3.3421305E-1,-5.9405692E-2,3.8685255E-2,4.9647903E0,2.3523636E0,4.0121832E-1,6.528079E-1,-2.4810176E0,-1.7184398E0,-1.1603042E-1,-2.365253E-1,5.7076797E-2,1.0706333E0,4.689E0,-1.4318004E0,-4.7358721E-1,2.5248888E1,2.927364E0,7.205829E0,4.3688E-2,3.301035E0,8.438552E-1,5.707442E-1,2.0521774E0,1.0065501E0,2.5489566E-1,1.0775928E0,4.7266093E-1,2.4111763E-1,2.794124E-3,-6.956237E-2,1.5119626E-2,1.5589222E-1,2.0826559E-1,4.5364904E-1,1.1288875E0,6.0635024E-1,-3.6112997E-1,-8.452769E-2,-1.3516103E-1,-3.2941362E-1,-4.480723E-1,7.691109E-2,1.5070609E0,-3.512881E-1,-7.358284E-1,-2.2809389E0,7.460251E-1,-1.5854628E0,6.78218E0,5.5498767E-1,1.1961949E1,5.5936494E0,7.8917694E-1,-4.6643662E-1,3.868151E0,2.5183573E-1,7.217445E-1,9.4803E-1,5.1451296E-1,6.3661826E-1,1.0732973E0,2.9030342E0,1.7014823E0,9.8418796E-1,6.497762E-2,-1.33187445E-2,-5.2435506E-2,-7.378257E-2,1.0279127E-1,-9.517914E-3,2.0938557E-1,6.8747597E-3,7.6742697E-1,-7.6089827E-3,5.9797835E-1,3.4240103E-1,1.6839359E0,1.0062888E0,5.493193E-1,7.5947344E-1,-3.034386E-1,-7.134467E-1,8.244424E-1,-1.1139021E-1,-1.7565024E-1,8.591675E-1,-1.9486393E-1,-4.3022197E-1,-7.328681E-1,1.2413991E-1,5.1300704E-1,5.2410617E-2,3.02408E-1,2.2160277E0,-1.0739828E0,4.154957E-1,8.376674E0,2.1624033E0,1.0134543E0,6.504752E-2,3.7899752E0,6.0895905E0,-5.2565706E-1,-1.02230944E-1,5.6626825E0,2.1168847E0,-5.0000386E0,5.4738336E0,8.157111E-1,5.02862E-1,3.9553005E-1,1.0219637E0,5.657735E-1,4.3587697E-1,9.1812444E-1,5.892999E-1,2.0459247E0,7.022572E-1,4.217843E0,2.086476E0,1.2700641E0,2.0870595E0,1.0528699E0,8.3748966E-1],"categories":[],"categories_nodes":[],"categories_segments":[],"categories_sizes":[],"default_left":[true,true,true,true,true,true,true,true,true,true,true,true,true,true,true,true,true,true,true,false,true,true,true,false,true,false,true,true,true,true,true,true,true,true,true,false,false,true,true,false,false,true,true,true,true,false,true,true,false,true,true,true,true,true,true,true,true,false,false,false,false,true,true,true,true,true,true,true,true,true,true,true,true,true,true,true,true,false,false,false,false,true,true,false,true,false,true,true,true,true,true,true,true,true,true,true,true,false,false,false,false,false,false,false,false,false,false,false,false,false,false,false,false,false,false,false,false,false,false,false,false,false,false,false,false,false,false,false,false,false,false,false,false,false,false,false,false,false,false,false,false,false,false,false,false,false,false,false,false,false,false,false,false,false,false,false,false],"id":66,"left_children":[1,3,5,7,9,11,13,15,17,19,21,23,25,27,29,31,33,35,37,-1,39,41,43,-1,45,-1,47,49,51,53,55,57,59,61,63,-1,-1,65,67,-1,-1,69,71,73,75,-1,77,79,-1,81,83,85,87,89,91,93,95,-1,-1,-1,-1,97,99,101,103,105,107,109,111,113,115,117,119,121,123,125,127,-1,-1,-1,-1,129,131,-1,133,-1,135,137,139,141,143,145,147,149,151,153,155,-1,-1,-1,-1,-1,-1,-1,-1,-1,-1,-1,-1,-1,-1,-1,-1,-1,-1,-1,-1,-1,-1,-1,-1,-1,-1,-1,-1,-1,-1,-1,-1,-1,-1,-1,-1,-1,-1,-1,-1,-1,-1,-1,-1,-1,-1,-1,-1,-1,-1,-1,-1,-1,-1,-1,-1,-1,-1,-1,-1],"loss_changes":[1.8219185E3,8.307354E1,3.0466816E3,1.0891094E2,4.734546E1,9.9472656E2,4.620874E2,7.4299145E0,3.1786942E1,4.980728E0,3.0111721E1,3.655658E2,7.7058057E2,9.585724E1,1.2526099E2,1.0054898E0,1.7979816E0,1.6870117E0,1.0751846E1,0E0,3.1121445E-1,3.4122944E0,1.7549187E1,0E0,3.565684E1,0E0,8.325127E2,1.4293982E2,7.593742E1,6.9118958E0,1.0176709E2,4.2176247E-1,7.6674223E-3,1.7748427E-1,1.555495E0,0E0,0E0,3.2098694E0,7.893631E0,0E0,0E0,4.626543E0,3.634901E0,1.2022654E1,1.0949589E1,0E0,1.367281E0,3.5707233E0,0E0,1.754462E2,8.7341736E1,4.057094E0,4.3424316E1,1.1261063E0,2.6240845E0,7.913913E1,4.7660645E1,0E0,0E0,0E0,0E0,4.0435806E-2,1.4280438E-2,1.0175834E0,7.484093E-1,8.38194E0,3.969864E0,1.5967865E0,2.7793274E0,1.3022232E0,1.3042978E1,7.542284E0,2.7075233E0,7.4267273E0,1.2316513E1,1.1128174E1,2.5595956E0,0E0,0E0,0E0,0E0,4.78291E1,2.7329924E0,0E0,2.3007202E0,0E0,1.0972643E-1,6.293637E1,1.2798032E2,9.0021324E-1,2.1869621E0,1.5252533E0,4.3314514E0,1.5841793E1,5.208792E1,1.5092773E1,2.9999512E1,0E0,0E0,0E0,0E0,0E0,0E0,0E0,0E0,0E0,0E0,0E0,0E0,0E0,0E0,0E0,0E0,0E0,0E0,0E0,0E0,0E0,0E0,0E0,0E0,0E0,0E0,0E0,0E0,0E0,0E0,0E0,0E0,0E0,0E0,0E0,0E0,0E0,0E0,0E0,0E0,0E0,0E0,0E0,0E0,0E0,0E0,0E0,0E0,0E0,0E0,0E0,0E0,0E0,0E0,0E0,0E0,0E0,0E0,0E0,0E0],"parents":[2147483647,0,0,1,1,2,2,3,3,4,4,5,5,6,6,7,7,8,8,9,9,10,10,11,11,12,12,13,13,14,14,15,15,16,16,17,17,18,18,20,20,21,21,22,22,24,24,26,26,27,27,28,28,29,29,30,30,31,31,32,32,33,33,34,34,37,37,38,38,41,41,42,42,43,43,44,44,46,46,47,47,49,49,50,50,51,51,52,52,53,53,54,54,55,55,56,56,61,61,62,62,63,63,64,64,65,65,66,66,67,67,68,68,69,69,70,70,71,71,72,72,73,73,74,74,75,75,76,76,81,81,82,82,84,84,86,86,87,87,88,88,89,89,90,90,91,91,92,92,93,93,94,94,95,95,96,96],"right_children":[2,4,6,8,10,12,14,16,18,20,22,24,26,28,30,32,34,36,38,-1,40,42,44,-1,46,-1,48,50,52,54,56,58,60,62,64,-1,-1,66,68,-1,-1,70,72,74,76,-1,78,80,-1,82,84,86,88,90,92,94,96,-1,-1,-1,-1,98,100,102,104,106,108,110,112,114,116,118,120,122,124,126,128,-1,-1,-1,-1,130,132,-1,134,-1,136,138,140,142,144,146,148,150,152,154,156,-1,-1,-1,-1,-1,-1,-1,-1,-1,-1,-1,-1,-1,-1,-1,-1,-1,-1,-1,-1,-1,-1,-1,-1,-1,-1,-1,-1,-1,-1,-1,-1,-1,-1,-1,-1,-1,-1,-1,-1,-1,-1,-1,-1,-1,-1,-1,-1,-1,-1,-1,-1,-1,-1,-1,-1,-1,-1,-1,-1],"split_conditions":[6.621175E-1,6.572582E-1,2.2506302E-3,3.8399246E-1,2.2506302E-3,8.2218254E-1,7.4137926E-2,2.4576882E-2,3.275862E-2,5.5555556E-2,1.6666667E-1,7.876776E-1,8.349742E-1,8.349742E-1,9.8790765E-1,1.6666667E-1,7.6129995E-2,3.9780295E-1,6.028142E-1,-6.490305E-3,1.6666667E-1,4.2413792E-1,9.017241E-1,3.2241535E-1,9.8790765E-1,7.9650885E-1,8.7090075E-1,8.2218254E-1,8.5870504E-1,1.9346416E-1,4.6813108E-2,3.6677136E-3,5.2478902E-2,1.8518186E-1,3.279013E-1,9.92958E-2,4.7047272E-2,3.989272E-1,2.0678791E-1,-4.962035E-2,-3.4368794E-2,6.1847318E-2,7.21642E-1,1.8427517E-2,9.7704357E-1,9.378E-2,2.777778E-1,8.4844077E-1,5.0497776E-1,7.7943826E-1,3.275862E-2,1.6666667E-1,3.888889E-1,8.224432E-1,8.147807E-1,8.2218254E-1,1.8427517E-2,5.097913E-3,2.1551857E-2,9.453218E-3,4.8223524E-3,2.0884521E-2,1.2968774E-1,5.4538816E-2,3.757258E-1,3.8608843E-1,4.3256068E-1,6.2609863E-1,6.430696E-1,5.0234064E-2,7.904214E-2,7.160605E-1,5.5555556E-2,3.888889E-1,1.3267812E-1,7.300144E-1,9.5862067E-1,-1.47165675E-2,-4.5618776E-2,1.4920501E-2,-3.1709254E-2,3.275862E-2,1.6666667E-1,2.3923898E-1,2.777778E-1,1.5783539E-2,3.448276E-2,9.416637E-2,3.275862E-2,1.568239E-1,9.5682657E-1,9.5682657E-1,1.4619164E-1,7.7943826E-1,2.086207E-1,8.2218254E-1,8.349742E-1,1.2995524E-3,-2.6637487E-4,-1.0487101E-3,-1.4756514E-3,2.0558254E-3,-1.9035827E-4,4.1877115E-3,1.374952E-4,1.5348539E-2,-1.5217965E-4,1.1959567E-2,6.8480205E-3,3.3678718E-2,2.0125775E-2,1.0986386E-2,1.5189469E-2,-6.068772E-3,-1.4268933E-2,1.6488848E-2,-2.2278042E-3,-3.5130046E-3,1.718335E-2,-3.8972786E-3,-8.604439E-3,-1.4657361E-2,2.4827982E-3,1.02601405E-2,1.0482123E-3,6.04816E-3,4.4320554E-2,-2.1479657E-2,8.309914E-3,1.6753347E-1,4.3248065E-2,2.0269087E-2,1.3009503E-3,7.57995E-2,1.2179181E-1,-1.0513141E-2,-2.0446188E-3,1.13253646E-1,4.2337693E-2,-1.0000077E-1,1.0947667E-1,1.6314222E-2,1.0057239E-2,7.910601E-3,2.0439275E-2,1.131547E-2,8.717539E-3,1.8362489E-2,1.1785998E-2,4.091849E-2,1.4045144E-2,8.435686E-2,4.172952E-2,2.5401281E-2,4.174119E-2,2.1057397E-2,1.6749794E-2],"split_indices":[1,1,5,1,5,1,3,5,3,4,4,1,1,1,6,4,6,1,1,0,4,3,3,0,6,0,1,1,1,5,5,6,1,5,1,0,0,1,5,0,0,5,5,11,5,0,4,1,0,1,3,4,4,1,1,1,11,0,0,0,0,11,1,1,1,1,1,1,1,5,5,5,4,4,11,5,3,0,0,0,0,3,4,0,4,0,3,5,3,5,6,6,11,1,3,1,1,0,0,0,0,0,0,0,0,0,0,0,0,0,0,0,0,0,0,0,0,0,0,0,0,0,0,0,0,0,0,0,0,0,0,0,0,0,0,0,0,0,0,0,0,0,0,0,0,0,0,0,0,0,0,0,0,0,0,0,0],"split_type":[0,0,0,0,0,0,0,0,0,0,0,0,0,0,0,0,0,0,0,0,0,0,0,0,0,0,0,0,0,0,0,0,0,0,0,0,0,0,0,0,0,0,0,0,0,0,0,0,0,0,0,0,0,0,0,0,0,0,0,0,0,0,0,0,0,0,0,0,0,0,0,0,0,0,0,0,0,0,0,0,0,0,0,0,0,0,0,0,0,0,0,0,0,0,0,0,0,0,0,0,0,0,0,0,0,0,0,0,0,0,0,0,0,0,0,0,0,0,0,0,0,0,0,0,0,0,0,0,0,0,0,0,0,0,0,0,0,0,0,0,0,0,0,0,0,0,0,0,0,0,0,0,0,0,0,0,0],"sum_hessian":[7.898E3,3.766E3,4.132E3,1.547E3,2.219E3,1.3E1,4.119E3,8.55E2,6.92E2,1.4E1,2.205E3,6E0,7E0,6.8E1,4.051E3,1.2E1,8.43E2,3E0,6.89E2,2E0,1.2E1,9.89E2,1.216E3,2E0,4E0,2E0,5E0,3.3E1,3.5E1,8.5E2,3.201E3,8E0,4E0,2.79E2,5.64E2,1E0,2E0,3.21E2,3.68E2,5E0,7E0,6.01E2,3.88E2,1.199E3,1.7E1,1E0,3E0,2E0,3E0,1.9E1,1.4E1,1E1,2.5E1,1.08E2,7.42E2,9.6E1,3.105E3,1E0,7E0,1E0,3E0,3.9E1,2.4E2,4.7E2,9.4E1,6.9E1,2.52E2,3.2E1,3.36E2,6.8E1,5.33E2,1.86E2,2.02E2,4.5E1,1.154E3,1.3E1,4E0,2E0,1E0,1E0,1E0,7E0,1.2E1,3E0,1.1E1,4E0,6E0,2.1E1,4E0,5.1E1,5.7E1,4.02E2,3.4E2,4.5E1,5.1E1,9.6E1,3.009E3,8E0,3.1E1,4.9E1,1.91E2,1.03E2,3.67E2,6.9E1,2.5E1,1.9E1,5E1,1.09E2,1.43E2,5E0,2.7E1,2.46E2,9E1,5.9E1,9E0,1.5E1,5.18E2,1.79E2,7E0,8.7E1,1.15E2,3E1,1.5E1,6.1E1,1.093E3,5E0,8E0,2E0,2E0,5E0,2E0,6E0,6E0,3E0,8E0,5E0,1E0,1E1,1.1E1,2E0,2E0,3.5E1,1.6E1,7E0,5E1,2.42E2,1.6E2,4.8E1,2.92E2,1.2E1,3.3E1,1.9E1,3.2E1,4.6E1,5E1,2.048E3,9.61E2],"tree_param":{"num_deleted":"0","num_feature":"12","num_nodes":"157","size_leaf_vector":"0"}},{"base_weights":[5.574621E-1,4.2378755E0,5.4345816E-1,6.0051423E-1,8.28318E0,-6.183818E-4,6.010975E-1,-3.5232058E-1,4.3559403E0,8.882475E0,2.0865944E-1,5.7303464E-1,-6.1844373E-3,1.7247325E-2,6.5680194E-1,8.2261384E-1,-4.709828E-1,1.3587799E0,5.4400682E0,3.7910858E-1,7.635322E-1,-6.284462E-2,2.8137723E-2,5.234198E-1,-2.1547848E-1,1.483936E0,6.2977433E-1,9.352587E-1,1.14430636E-1,-7.163255E-4,-7.258249E-2,1.7203517E-1,1.2817093E-2,4.33954E0,4.7710258E-1,-2.4812256E-1,-2.0153718E-1,1.3799094E0,1.0464137E1,1.1655023E0,6.103191E-1,2.6098368E-1,-1.5994538E-1,-1.687839E-2,1.0069504E-1,-8.987413E-2,-6.3255854E-2,1.4132057E-1,1.139474E0,9.815508E-2,3.3935886E-3,2.0309014E0,5.5522594E0,3.753773E-1,6.5340436E-1,-2.7838722E-1,-2.220726E-1,3.9096675E-3,-2.0642628E-1,7.950605E-1,1.5701318E0,9.727818E-1,1.4617385E0,4.7955924E-1,6.512182E-1,-6.1187938E-2,-4.2625275E-3,1.3945523E-1,-3.9751206E-2,-3.39361E-2,-9.3037315E-2,-7.763978E-2,-5.298431E-2,2.3646355E-1,7.275036E-2,1.4495362E-1,5.344314E-2,-1.7890481E-2,2.4856599E-2,6.669795E-1,3.5347816E-1,8.3421624E-1,5.86897E-1,-2.4190705E-1,-4.8149532E-1,-2.0887998E-1,-3.4213445E-1,-2.103892E-1,4.992734E-1,-1.01909935E-1,-2.1103518E-1,1.0991295E-1,1.6824445E0,2.2871082E0,1.2122146E0,8.1329805E-1,1.983698E0,3.0806131E0,1.2624439E0,7.9692537E-1,4.4724014E-1,4.9009404E-1,6.866112E-1],"categories":[],"categories_nodes":[],"categories_segments":[],"categories_sizes":[],"default_left":[true,true,true,true,true,true,true,true,true,false,false,true,true,true,true,false,false,false,false,true,false,true,true,true,true,true,true,false,true,true,true,true,true,true,true,true,true,true,false,true,true,false,false,true,true,true,true,true,false,true,true,false,false,true,true,true,true,true,true,true,true,true,true,true,true,false,false,false,false,false,false,false,false,false,false,false,false,false,false,false,false,false,false,false,false,false,false,false,false,false,false,false,false,false,false,false,false,false,false,false,false,false,false],"id":67,"left_children":[1,3,5,7,9,11,13,15,17,-1,-1,19,21,23,25,-1,-1,-1,-1,27,-1,29,31,33,35,37,39,-1,41,43,45,47,49,51,53,55,57,59,-1,61,63,-1,-1,65,67,69,71,73,-1,75,77,-1,-1,79,81,83,85,87,89,91,93,95,97,99,101,-1,-1,-1,-1,-1,-1,-1,-1,-1,-1,-1,-1,-1,-1,-1,-1,-1,-1,-1,-1,-1,-1,-1,-1,-1,-1,-1,-1,-1,-1,-1,-1,-1,-1,-1,-1,-1,-1],"loss_changes":[4.123269E2,4.4454834E2,2.5046191E2,5.9014957E1,6.861212E1,2.436794E0,2.3484619E2,1.9831402E0,8.269516E0,0E0,0E0,1.5809035E-1,1.4758157E0,7.41771E1,1.4703271E2,0E0,0E0,0E0,0E0,5.872281E-1,0E0,1.7216802E-1,1.0379341E0,3.429672E1,1.7321014E-1,1.8963669E2,6.627954E1,0E0,1.4940238E-1,6.383942E-2,3.5808086E-2,1.275093E0,3.4209472E-1,2.664669E0,3.4246445E0,7.263422E-2,3.0884647E-1,2.2504852E1,0E0,1.2241364E1,3.2830322E1,0E0,0E0,1.8171955E-2,3.2304738E-2,1.2234986E-2,2.0748973E-2,2.7908313E-1,0E0,8.316755E-2,1.7627577E-1,0E0,0E0,7.0718193E-1,6.742687E-1,3.7564707E-1,7.971215E-2,8.1764024E-1,1.3159084E-1,3.1122948E1,3.8886932E1,2.140242E1,2.6817795E1,1.4934357E1,2.6629883E1,0E0,0E0,0E0,0E0,0E0,0E0,0E0,0E0,0E0,0E0,0E0,0E0,0E0,0E0,0E0,0E0,0E0,0E0,0E0,0E0,0E0,0E0,0E0,0E0,0E0,0E0,0E0,0E0,0E0,0E0,0E0,0E0,0E0,0E0,0E0,0E0,0E0,0E0],"parents":[2147483647,0,0,1,1,2,2,3,3,4,4,5,5,6,6,7,7,8,8,11,11,12,12,13,13,14,14,19,19,21,21,22,22,23,23,24,24,25,25,26,26,28,28,29,29,30,30,31,31,32,32,33,33,34,34,35,35,36,36,37,37,39,39,40,40,43,43,44,44,45,45,46,46,47,47,49,49,50,50,53,53,54,54,55,55,56,56,57,57,58,58,59,59,60,60,61,61,62,62,63,63,64,64],"right_children":[2,4,6,8,10,12,14,16,18,-1,-1,20,22,24,26,-1,-1,-1,-1,28,-1,30,32,34,36,38,40,-1,42,44,46,48,50,52,54,56,58,60,-1,62,64,-1,-1,66,68,70,72,74,-1,76,78,-1,-1,80,82,84,86,88,90,92,94,96,98,100,102,-1,-1,-1,-1,-1,-1,-1,-1,-1,-1,-1,-1,-1,-1,-1,-1,-1,-1,-1,-1,-1,-1,-1,-1,-1,-1,-1,-1,-1,-1,-1,-1,-1,-1,-1,-1,-1,-1],"split_conditions":[2.2506302E-3,2.777778E-1,3.9510223E-1,7.090609E-2,4.4444448E-1,5E-1,5.5555556E-2,5.719247E-1,3.8609636E-1,1.776495E-1,4.173189E-3,1.6878912E-2,7.6129995E-2,9.8790765E-1,4.096147E-2,1.6452277E-2,-9.419655E-3,2.7175598E-2,1.08801365E-1,5.5555556E-2,1.5270644E-2,1.8518186E-1,1.3390663E-1,5E-1,3.1941032E-1,4.060137E-2,1.8427517E-2,1.8705172E-2,3.6677136E-3,1.6213539E-1,3.6677136E-3,5.675189E-1,1.4998199E-1,8.110852E-1,9.5682657E-1,2.2722362E-1,1.48936175E-2,1.6666667E-1,2.0928274E-1,7.0297873E-1,1.6666667E-1,5.2196733E-3,-3.1989077E-3,1.3513514E-1,2.0884521E-2,2.2191213E-1,3.9234042E-1,1.8427517E-2,2.278948E-2,6.4742017E-1,1.6666667E-1,4.061803E-2,1.1104519E-1,1.3390663E-1,1.7752971E-1,2.0300683E-1,6.6582644E-1,6.965602E-1,3.4520882E-1,2.1786101E-2,1.7021276E-2,6.142506E-3,1.3422757E-1,1.4305004E-1,9.8790765E-1,-1.2237587E-3,-8.525055E-5,2.7891046E-3,-7.950241E-4,-6.7872193E-4,-1.8607463E-3,-1.5527956E-3,-1.0596862E-3,4.729271E-3,1.4550071E-3,2.8990724E-3,1.0688629E-3,-3.5780962E-4,4.9713196E-4,1.3339589E-2,7.069563E-3,1.6684324E-2,1.173794E-2,-4.8381407E-3,-9.629906E-3,-4.1775997E-3,-6.8426887E-3,-4.207784E-3,9.985467E-3,-2.0381988E-3,-4.2207036E-3,2.1982589E-3,3.364889E-2,4.574216E-2,2.4244292E-2,1.626596E-2,3.9673958E-2,6.161226E-2,2.5248878E-2,1.5938507E-2,8.944803E-3,9.80188E-3,1.3732223E-2],"split_indices":[5,4,6,7,4,0,4,6,6,0,0,6,6,6,5,0,0,0,0,4,0,5,11,0,11,5,11,0,6,5,6,5,5,6,6,5,10,4,0,10,4,0,0,11,11,5,10,11,0,11,4,0,0,11,5,5,5,11,11,5,10,11,5,5,6,0,0,0,0,0,0,0,0,0,0,0,0,0,0,0,0,0,0,0,0,0,0,0,0,0,0,0,0,0,0,0,0,0,0,0,0,0,0],"split_type":[0,0,0,0,0,0,0,0,0,0,0,0,0,0,0,0,0,0,0,0,0,0,0,0,0,0,0,0,0,0,0,0,0,0,0,0,0,0,0,0,0,0,0,0,0,0,0,0,0,0,0,0,0,0,0,0,0,0,0,0,0,0,0,0,0,0,0,0,0,0,0,0,0,0,0,0,0,0,0,0,0,0,0,0,0,0,0,0,0,0,0,0,0,0,0,0,0,0,0,0,0,0,0],"sum_hessian":[8.016E3,3E1,7.986E3,1.6E1,1.4E1,7.65E2,7.221E3,1.3E1,3E0,1.3E1,1E0,7E0,7.58E2,6.29E2,6.592E3,1E0,1.2E1,1E0,2E0,4E0,3E0,2.86E2,4.72E2,1.98E2,4.31E2,2.08E2,6.384E3,1E0,3E0,3.9E1,2.47E2,4.5E1,4.27E2,2E0,1.96E2,1.27E2,3.04E2,2.06E2,2E0,2.23E2,6.161E3,2E0,1E0,3.4E1,5E0,8.5E1,1.62E2,4.4E1,1E0,4.2E1,3.85E2,1E0,1E0,1.25E2,7.1E1,5.7E1,7E1,7E0,2.97E2,5.1E1,1.55E2,1.36E2,8.7E1,1.469E3,4.692E3,7E0,2.7E1,4E0,1E0,5E0,8E1,6.6E1,9.6E1,1.8E1,2.6E1,2E1,2.2E1,1.93E2,1.92E2,8E0,1.17E2,1.8E1,5.3E1,4.9E1,8E0,6.4E1,6E0,5E0,2E0,1.3E1,2.84E2,2.9E1,2.2E1,5.1E1,1.04E2,1.18E2,1.8E1,9E0,7.8E1,1.35E2,1.334E3,8.46E2,3.846E3],"tree_param":{"num_deleted":"0","num_feature":"12","num_nodes":"103","size_leaf_vector":"0"}},{"base_weights":[5.431604E-1,4.4363707E-2,9.9359304E-1,2.3376566E-1,-9.027892E-2,1.1447516E1,9.573715E-1,6.8019433E-3,5.208485E-1,-9.1104406E-1,-7.257318E-2,5.220729E0,1.7151812E1,3.569202E0,9.3227834E-1,5.942048E-1,4.323998E-4,3.8972433E0,5.091123E-1,-1.6091022E0,-6.2227696E-1,8.533969E-2,-8.184509E-2,1.5772333E1,2.7515122E-1,3.9070667E1,6.4869127E0,9.369753E0,2.6330438E0,5.918721E-1,1.0176438E0,3.7907943E-1,1.1792563E0,-5.882839E-2,3.1093787E-2,4.8087344E0,2.0004413E0,4.2715642E-1,7.0342344E-1,3.113787E-1,-5.005257E-1,-2.7718621E-1,-7.325936E-2,4.53708E0,-1.0541875E0,-5.384867E-1,1.0760125E1,1.1394873E0,5.2652297E0,5.574912E-1,8.0362356E-1,9.7010183E-1,1.260515E0,1.2211525E-1,6.7092854E-1,-8.2402945E-2,-4.553401E-2,1.5191117E-2,1.1864049E-1,3.854634E-1,5.7764065E-1,1.161588E0,6.6214806E-1,-4.722873E-2,9.112158E-1,-2.2710659E-1,-6.938624E-1,1.4178097E-1,-5.4255104E-1,-9.1156825E-2,-1.8843578E-2,-1.1853595E0,-4.5195222E-1,7.418999E-1,-1.6949067E0,1.6355356E0,4.854499E-2,6.0242267E0,1.1455553E0,7.4835515E-1,5.391547E-1,6.502129E-1,1.2026216E0,1.1583263E0,9.1843945E-1,1.4111876E0,9.88507E-1,2.2604986E-1,-1.5754648E-1,8.1956106E-1,2.3235197E-1,-3.7331093E-2,-8.533979E-2,4.386158E-2,-5.2288447E-2,7.991604E-2,-1.3778066E-2,1.8403387E-1,-5.260057E-2,6.7513764E-1,3.644092E-1,5.265651E-1,9.4323903E-1,1.3491691E0,7.921245E-1,7.107993E-1,3.411186E-1,-5.346985E-1,5.316664E-2,3.483512E-1,1.090906E0,-3.2255137E-1,-8.7312184E-2,-9.1367155E-1,-4.715528E-1,-1.7447174E-1,3.4753683E-1,-1.8492307E-1,-6.150751E-1,-1.24882255E-2,-1.14296086E-1,-1.8361063E-1,5.2119397E-2,5.693235E-1,7.488035E0,2.3310728E-1,-1.9196096E-1,6.5036297E-1,9.4927776E-1,5.7836646E-1,4.449073E-1,6.846573E-1,2.6017216E-1,2.6963053E0,8.1280106E-1,8.630601E-1,1.4644543E0,9.829863E-1,7.5200266E-1,1.1022872E0,2.2886612E0,6.9156206E-1,1.0801784E0],"categories":[],"categories_nodes":[],"categories_segments":[],"categories_sizes":[],"default_left":[true,true,true,true,true,true,true,true,true,true,true,true,true,true,true,true,true,true,true,false,false,true,true,false,true,false,true,false,true,true,true,true,false,true,true,false,false,true,true,true,true,true,true,false,true,true,false,true,true,true,true,true,true,true,true,true,true,true,true,true,true,true,true,true,true,true,true,true,true,true,true,false,false,false,false,true,true,false,false,true,true,true,true,true,true,true,true,false,false,false,false,false,false,false,false,false,false,false,false,false,false,false,false,false,false,false,false,false,false,false,false,false,false,false,false,false,false,false,false,false,false,false,false,false,false,false,false,false,false,false,false,false,false,false,false,false,false,false,false,false,false,false,false],"id":68,"left_children":[1,3,5,7,9,11,13,15,17,19,21,23,25,27,29,31,33,35,37,-1,-1,39,41,-1,43,-1,45,-1,47,49,51,53,-1,55,57,-1,-1,59,61,63,65,67,69,-1,71,73,-1,75,77,79,81,83,85,87,89,91,93,95,97,99,101,103,105,107,109,111,113,115,117,119,121,-1,-1,-1,-1,123,125,-1,-1,127,129,131,133,135,137,139,141,-1,-1,-1,-1,-1,-1,-1,-1,-1,-1,-1,-1,-1,-1,-1,-1,-1,-1,-1,-1,-1,-1,-1,-1,-1,-1,-1,-1,-1,-1,-1,-1,-1,-1,-1,-1,-1,-1,-1,-1,-1,-1,-1,-1,-1,-1,-1,-1,-1,-1,-1,-1,-1,-1,-1,-1],"loss_changes":[1.7787917E3,9.582701E1,1.5715093E3,1.0172372E2,3.1881613E1,4.7893677E2,2.70573E2,3.2552576E0,2.6591003E1,8.973991E0,3.1507006E0,3.810122E2,1.6291221E3,2.0519171E2,1.1913086E2,1.0034046E0,1.568907E0,7.29393E-1,1.0829422E1,0E0,0E0,1.5852419E1,3.395074E0,0E0,3.1861685E1,0E0,1.6219429E2,0E0,1.3288373E2,5.832489E0,3.747168E1,5.113385E-1,0E0,8.9170694E-2,7.90131E-1,0E0,0E0,2.9507828E0,3.5627213E0,1.8597523E1,1.6963863E0,9.518671E0,1.8934011E0,0E0,1.403246E-1,3.8880067E0,0E0,1.2035484E1,3.616095E1,2.3330994E0,6.71122E0,2.6331055E1,2.148169E1,1.3881218E-1,1.3879168E-1,1.1130691E-2,1.1520773E-1,9.056994E-1,9.8306596E-1,2.2227287E0,1.7616425E0,7.4505424E-1,2.8300018E0,2.675413E0,3.1229935E0,1.7600864E-1,7.813101E-1,2.1917257E0,1.308013E0,2.663291E0,5.6446834E0,0E0,0E0,0E0,0E0,9.4144394E1,3.410295E-1,0E0,0E0,9.788933E-1,2.299286E0,1.0466843E0,1.7463615E1,5.290515E1,2.2904907E1,9.244263E1,4.961197E0,0E0,0E0,0E0,0E0,0E0,0E0,0E0,0E0,0E0,0E0,0E0,0E0,0E0,0E0,0E0,0E0,0E0,0E0,0E0,0E0,0E0,0E0,0E0,0E0,0E0,0E0,0E0,0E0,0E0,0E0,0E0,0E0,0E0,0E0,0E0,0E0,0E0,0E0,0E0,0E0,0E0,0E0,0E0,0E0,0E0,0E0,0E0,0E0,0E0,0E0,0E0,0E0,0E0,0E0,0E0,0E0],"parents":[2147483647,0,0,1,1,2,2,3,3,4,4,5,5,6,6,7,7,8,8,9,9,10,10,11,11,12,12,13,13,14,14,15,15,16,16,17,17,18,18,21,21,22,22,24,24,26,26,28,28,29,29,30,30,31,31,33,33,34,34,37,37,38,38,39,39,40,40,41,41,42,42,44,44,45,45,47,47,48,48,49,49,50,50,51,51,52,52,53,53,54,54,55,55,56,56,57,57,58,58,59,59,60,60,61,61,62,62,63,63,64,64,65,65,66,66,67,67,68,68,69,69,70,70,75,75,76,76,79,79,80,80,81,81,82,82,83,83,84,84,85,85,86,86],"right_children":[2,4,6,8,10,12,14,16,18,20,22,24,26,28,30,32,34,36,38,-1,-1,40,42,-1,44,-1,46,-1,48,50,52,54,-1,56,58,-1,-1,60,62,64,66,68,70,-1,72,74,-1,76,78,80,82,84,86,88,90,92,94,96,98,100,102,104,106,108,110,112,114,116,118,120,122,-1,-1,-1,-1,124,126,-1,-1,128,130,132,134,136,138,140,142,-1,-1,-1,-1,-1,-1,-1,-1,-1,-1,-1,-1,-1,-1,-1,-1,-1,-1,-1,-1,-1,-1,-1,-1,-1,-1,-1,-1,-1,-1,-1,-1,-1,-1,-1,-1,-1,-1,-1,-1,-1,-1,-1,-1,-1,-1,-1,-1,-1,-1,-1,-1,-1,-1,-1,-1],"split_conditions":[6.621175E-1,6.572582E-1,2.7272727E-2,3.8253418E-1,5E-1,8.2218254E-1,5E-1,5E-1,5E-1,2.7272727E-2,1.2389015E-3,7.876776E-1,8.349742E-1,7.703592E-1,9.8790765E-1,6.736668E-2,7.6129995E-2,3.9780295E-1,6.341465E-1,-3.2182045E-2,-1.2445539E-2,8.30303E-1,5.0082594E-1,3.1544665E-1,9.8790765E-1,7.814133E-1,8.7090075E-1,1.8739505E-1,8.571358E-1,9.212121E-1,9.212121E-1,2.4243233E-1,2.3585126E-2,3.6677136E-3,3.279013E-1,9.617469E-2,4.0008824E-2,5.4282683E-1,5.0082594E-1,7.008511E-1,3.5106385E-1,3.9234042E-1,9.9787235E-1,9.07416E-2,8.0460525E-1,8.4844077E-1,2.152025E-1,8.349742E-1,9.28372E-1,4.2424244E-1,9.345995E-1,5.181818E-1,8.349742E-1,1.8202345E-1,3.198908E-1,5.0082594E-1,4.2424244E-1,8.23977E-2,3.757258E-1,3.8608843E-1,9.212121E-1,7.008511E-1,6.4979887E-1,1.3234043E-1,3.969697E-1,9.212121E-1,9.212121E-1,2.0297873E-1,4.2424244E-1,2.0297873E-1,8.30303E-1,-2.3707189E-2,-9.039044E-3,1.4837998E-2,-3.3898134E-2,8.2218254E-1,8.4844077E-1,1.2048453E-1,2.2911105E-2,5.8854413E-1,5.8854413E-1,8.835277E-1,9.532107E-1,8.2218254E-1,8.4422266E-1,8.2218254E-1,8.5870504E-1,4.520997E-3,-3.1509295E-3,1.6391221E-2,4.6470393E-3,-7.4662187E-4,-1.7067958E-3,8.772316E-4,-1.045769E-3,1.5983207E-3,-2.7556132E-4,3.6806774E-3,-1.0520114E-3,1.3502752E-2,7.288184E-3,1.0531302E-2,1.886478E-2,2.6983382E-2,1.584249E-2,1.4215985E-2,6.822372E-3,-1.0693969E-2,1.0633328E-3,6.967024E-3,2.181812E-2,-6.4510275E-3,-1.7462437E-3,-1.827343E-2,-9.431056E-3,-3.4894347E-3,6.9507365E-3,-3.6984612E-3,-1.2301502E-2,-2.497645E-4,-2.2859217E-3,-3.6722126E-3,1.0423879E-3,1.1386469E-2,1.497607E-1,4.6621454E-3,-3.8392192E-3,1.3007259E-2,1.8985555E-2,1.1567329E-2,8.8981455E-3,1.36931455E-2,5.203443E-3,5.3926103E-2,1.6256021E-2,1.7261202E-2,2.9289085E-2,1.9659724E-2,1.5040053E-2,2.2045743E-2,4.5773223E-2,1.3831241E-2,2.1603568E-2],"split_indices":[1,1,2,1,0,1,0,0,0,2,8,1,1,1,6,7,6,1,1,0,0,2,8,0,6,0,1,0,1,2,2,1,0,6,1,0,0,7,8,10,10,10,10,0,1,1,0,1,1,2,1,2,1,1,1,8,2,1,1,1,2,10,1,10,2,2,2,10,2,10,2,0,0,0,0,1,1,0,0,7,7,1,1,1,1,1,1,0,0,0,0,0,0,0,0,0,0,0,0,0,0,0,0,0,0,0,0,0,0,0,0,0,0,0,0,0,0,0,0,0,0,0,0,0,0,0,0,0,0,0,0,0,0,0,0,0,0,0,0,0,0,0,0],"split_type":[0,0,0,0,0,0,0,0,0,0,0,0,0,0,0,0,0,0,0,0,0,0,0,0,0,0,0,0,0,0,0,0,0,0,0,0,0,0,0,0,0,0,0,0,0,0,0,0,0,0,0,0,0,0,0,0,0,0,0,0,0,0,0,0,0,0,0,0,0,0,0,0,0,0,0,0,0,0,0,0,0,0,0,0,0,0,0,0,0,0,0,0,0,0,0,0,0,0,0,0,0,0,0,0,0,0,0,0,0,0,0,0,0,0,0,0,0,0,0,0,0,0,0,0,0,0,0,0,0,0,0,0,0,0,0,0,0,0,0,0,0,0,0],"sum_hessian":[7.917E3,3.757E3,4.16E3,1.561E3,2.196E3,1.4E1,4.146E3,8.72E2,6.89E2,4.6E1,2.15E3,7E0,7E0,3.9E1,4.107E3,9E0,8.63E2,2E0,6.87E2,1.3E1,3.3E1,1.19E2,2.031E3,2E0,5E0,2E0,5E0,5E0,3.4E1,8.24E2,3.283E3,7E0,2E0,2.94E2,5.69E2,1E0,1E0,4.84E2,2.03E2,8.6E1,3.3E1,8.5E1,1.946E3,1E0,4E0,2E0,3E0,2.2E1,1.2E1,7.1E2,1.14E2,2.747E3,5.36E2,4E0,3E0,1.05E2,1.89E2,4.82E2,8.7E1,3.8E2,1.04E2,1.6E1,1.87E2,5.4E1,3.2E1,1.4E1,1.9E1,3.3E1,5.2E1,1.464E3,4.82E2,3E0,1E0,1E0,1E0,1.5E1,7E0,1E1,2E0,6.1E1,6.49E2,8.3E1,3.1E1,5.9E2,2.157E3,3.44E2,1.92E2,3E0,1E0,2E0,1E0,7E0,9.8E1,1.3E1,1.76E2,1.49E2,3.33E2,6.3E1,2.4E1,2.5E1,3.55E2,9.2E1,1.2E1,1E1,6E0,1.62E2,2.5E1,9E0,4.5E1,8E0,2.4E1,8E0,6E0,9E0,1E1,1.3E1,2E1,9E0,4.3E1,3.33E2,1.131E3,1.45E2,3.37E2,1.3E1,2E0,4E0,3E0,4.2E1,1.9E1,4.57E2,1.92E2,7.6E1,7E0,6E0,2.5E1,3.01E2,2.89E2,1.553E3,6.04E2,2.55E2,8.9E1,4.6E1,1.46E2],"tree_param":{"num_deleted":"0","num_feature":"12","num_nodes":"143","size_leaf_vector":"0"}},{"base_weights":[5.3934216E-1,6.290457E-2,9.7771364E-1,2.2128542E-1,-4.7993716E-2,9.608526E0,9.451167E-1,2.7789451E-2,5.251431E-1,-1.8129338E0,-3.6467023E-2,1.534465E1,2.6513479E0,1.4928427E0,8.4504384E-1,7.225892E-1,1.8592708E-2,1.3418332E0,5.077597E-1,-2.83296E-1,-2.052164E0,-1.9306551E-1,8.848549E-2,6.039734E0,3.8400925E1,-9.1426115E0,4.997143E0,3.198949E0,1.3687879E0,5.5213344E-1,9.2435384E-1,4.760004E-1,1.1378946E0,-5.8920323E-3,1.5724184E-1,2.2903862E0,1.0829513E0,4.605267E-1,7.673385E-1,-8.077319E-2,-2.512162E-1,-5.121857E-1,1.0948936E-1,1.5501966E1,4.7648206E-1,-1.0677872E0,1.0566451E1,7.377947E0,2.5729804E0,9.7660416E-1,1.7261485E0,7.177473E-1,5.2440614E-1,1.0056899E0,7.453027E-1,5.409996E-1,2.2544347E-1,4.635716E-1,1.2895296E0,8.123748E-2,-2.6911236E-2,2.1187681E-1,-2.918256E-1,6.3715315E-1,1.3287021E0,8.1820136E-1,4.4658354E-1,9.0381795E-1,3.8419116E-1,-1.1837268E-1,1.3886077E0,-2.5654793E-1,3.9894012E-1,-1.3628625E0,-1.0533334E-1,1.2185712E-1,-6.7650896E-1,-1.1640238E0,4.469031E0,5.9842676E-1,-1.8734694E0,6.261744E-1,3.3777275E0,1.4685278E0,7.599619E-1,3.0966797E0,1.3157787E0,5.526901E-1,1.740289E0,5.5144507E-1,4.6037975E-1,8.996487E-1,1.3523217E0,8.978652E-1,7.071121E-1,4.125075E-1,9.089391E-1,1.7054756E-1,6.1741363E-2,5.128175E-2,-3.861228E-2,1.04927324E-1,3.50726E-1,-1.8332191E-1,-3.9990985E-1,8.6273474E-1,3.1440455E-1,2.2810169E-1,8.849275E-1,3.4597403E-1,4.8818073E-1,7.045498E-1,1.1184503E0,4.3689367E-1,2.091527E-1,-7.649662E-2,-5.5592644E-1,-1.8628953E-1,2.2887864E0,-2.2830054E-1,-4.4853708E-1,2.5487478E0,-2.8999448E-1,-1.5683169E0,-8.121855E-1,5.9100785E-3,-1.3517869E0,1.9671302E-2,2.0557642E-1,-1.0411736E0,1.0642906E0,-1.7965848E0,2.2330832E-1,8.0460477E-1,1.1318968E-1,5.4574776E0,2.6738303E0,2.7912362E0,1.2600772E0,6.9386524E-1,1.0242617E0,4.0996914E0,2.3163908E0,5.881125E-1,1.5049882E0,1.346283E0,5.201254E-1,1.4520679E1,4.1753605E-1,4.615111E-1,6.3310015E-1,4.98242E-1,1.8963741E-2,-8.0017745E-1,9.094347E-1,1.6397676E0,1.2334232E0,6.978719E-1,1.0244373E0,7.483001E-1,6.0801446E-1],"categories":[],"categories_nodes":[],"categories_segments":[],"categories_sizes":[],"default_left":[true,true,true,true,true,true,true,true,true,true,true,true,true,true,true,true,true,true,true,false,false,true,true,true,false,false,true,true,true,true,true,true,true,true,true,false,true,true,true,true,true,true,true,false,true,true,false,false,true,true,true,true,true,true,true,true,false,false,false,true,true,true,true,true,false,true,true,true,true,true,true,true,true,true,true,true,true,true,false,false,false,true,true,true,true,true,true,true,true,true,true,true,true,true,true,false,false,false,false,false,false,false,false,false,false,false,false,false,false,false,false,false,false,false,false,false,false,false,false,false,false,false,false,false,false,false,false,false,false,false,false,false,false,false,false,false,false,false,false,false,false,false,false,false,false,false,false,false,false,false,false,false,false,false,false,false,false,false,false,false,false],"id":69,"left_children":[1,3,5,7,9,11,13,15,17,19,21,23,25,27,29,31,33,35,37,-1,-1,39,41,43,-1,-1,45,47,49,51,53,55,57,59,61,-1,63,65,67,69,71,73,75,-1,77,79,-1,-1,81,83,85,87,89,91,93,95,-1,-1,-1,97,99,101,103,105,-1,107,109,111,113,115,117,119,121,123,125,127,129,131,-1,-1,-1,133,135,137,139,141,143,145,147,149,151,153,155,157,159,-1,-1,-1,-1,-1,-1,-1,-1,-1,-1,-1,-1,-1,-1,-1,-1,-1,-1,-1,-1,-1,-1,-1,-1,-1,-1,-1,-1,-1,-1,-1,-1,-1,-1,-1,-1,-1,-1,-1,-1,-1,-1,-1,-1,-1,-1,-1,-1,-1,-1,-1,-1,-1,-1,-1,-1,-1,-1,-1,-1,-1,-1,-1,-1,-1,-1],"loss_changes":[1.6383059E3,6.603557E1,1.1461829E3,9.102188E1,4.493877E1,5.980929E2,2.2265112E2,6.031919E0,8.297653E0,5.0179443E0,4.300323E1,1.7098591E3,2.1806554E2,1.3146191E2,7.9776855E1,1.0594249E0,3.1743317E0,2.1533947E0,7.102539E0,0E0,0E0,6.3573036E0,1.5434432E1,3.307078E2,0E0,0E0,2.1782657E2,1.0426874E2,8.157446E1,3.228836E0,3.9167236E1,8.411455E-2,2.1874952E-1,1.454691E0,3.4625306E0,0E0,8.217325E-1,2.3553314E0,4.589527E0,1.8452694E1,2.2587166E0,1.4236694E1,1.1503368E1,0E0,3.0165255E1,4.8670354E0,0E0,0E0,5.7727432E1,2.9471588E1,1.708678E2,1.7255726E1,9.921417E-1,6.7979614E1,4.702362E0,1.5554714E-1,0E0,0E0,0E0,2.6190066E-1,5.86346E-1,1.8424115E0,1.4705718E-1,2.082591E-1,0E0,6.386938E-1,1.950386E0,2.5482635E0,1.8478847E-1,5.937892E0,1.1986446E1,3.4125786E0,8.177977E0,1.0498161E0,3.9505744E0,9.947668E0,1.2007425E1,3.0815897E0,0E0,0E0,0E0,9.939141E-1,3.3568237E1,2.229741E1,3.1508408E0,5.1787354E1,3.2213684E1,2.0743675E0,2.4007675E2,3.1279144E0,3.153801E0,2.3970459E1,1.4162903E1,3.9981384E0,2.6016846E0,0E0,0E0,0E0,0E0,0E0,0E0,0E0,0E0,0E0,0E0,0E0,0E0,0E0,0E0,0E0,0E0,0E0,0E0,0E0,0E0,0E0,0E0,0E0,0E0,0E0,0E0,0E0,0E0,0E0,0E0,0E0,0E0,0E0,0E0,0E0,0E0,0E0,0E0,0E0,0E0,0E0,0E0,0E0,0E0,0E0,0E0,0E0,0E0,0E0,0E0,0E0,0E0,0E0,0E0,0E0,0E0,0E0,0E0,0E0,0E0,0E0,0E0,0E0,0E0,0E0,0E0],"parents":[2147483647,0,0,1,1,2,2,3,3,4,4,5,5,6,6,7,7,8,8,9,9,10,10,11,11,12,12,13,13,14,14,15,15,16,16,17,17,18,18,21,21,22,22,23,23,26,26,27,27,28,28,29,29,30,30,31,31,32,32,33,33,34,34,36,36,37,37,38,38,39,39,40,40,41,41,42,42,44,44,45,45,48,48,49,49,50,50,51,51,52,52,53,53,54,54,55,55,59,59,60,60,61,61,62,62,63,63,65,65,66,66,67,67,68,68,69,69,70,70,71,71,72,72,73,73,74,74,75,75,76,76,77,77,81,81,82,82,83,83,84,84,85,85,86,86,87,87,88,88,89,89,90,90,91,91,92,92,93,93,94,94],"right_children":[2,4,6,8,10,12,14,16,18,20,22,24,26,28,30,32,34,36,38,-1,-1,40,42,44,-1,-1,46,48,50,52,54,56,58,60,62,-1,64,66,68,70,72,74,76,-1,78,80,-1,-1,82,84,86,88,90,92,94,96,-1,-1,-1,98,100,102,104,106,-1,108,110,112,114,116,118,120,122,124,126,128,130,132,-1,-1,-1,134,136,138,140,142,144,146,148,150,152,154,156,158,160,-1,-1,-1,-1,-1,-1,-1,-1,-1,-1,-1,-1,-1,-1,-1,-1,-1,-1,-1,-1,-1,-1,-1,-1,-1,-1,-1,-1,-1,-1,-1,-1,-1,-1,-1,-1,-1,-1,-1,-1,-1,-1,-1,-1,-1,-1,-1,-1,-1,-1,-1,-1,-1,-1,-1,-1,-1,-1,-1,-1,-1,-1,-1,-1,-1,-1],"split_conditions":[6.621175E-1,6.572582E-1,2.2506302E-3,3.989272E-1,2.2506302E-3,8.3943033E-1,1.7347857E-1,2.6017286E-2,5.4105148E-2,5.5555556E-2,1.6666667E-1,8.2200134E-1,1.6666667E-1,1.7734967E-2,9.8790765E-1,6.736668E-2,3.6276892E-1,2.2866402E-2,6.430696E-1,-5.6659197E-3,-4.104328E-2,3.4520882E-1,1.8427517E-2,7.876776E-1,7.680185E-1,-1.8285222E-1,8.7090075E-1,7.6935333E-1,8.2552147E-1,1.4619164E-1,8.349742E-1,2.871445E-1,5.616971E-2,8.23977E-2,3.9022523E-1,4.5807723E-2,1.6666667E-1,7.985258E-2,6.4979887E-1,7.7799785E-1,9.9234784E-1,1.389089E-1,9.8424554E-1,3.100393E-1,8.0442405E-1,2.777778E-1,2.1132901E-1,1.4755893E-1,7.938249E-1,7.7033323E-1,8.3047175E-1,6.385488E-1,5.8854413E-1,8.2218254E-1,3.4308606E-1,2.4243233E-1,4.5088693E-3,9.271432E-3,2.579059E-2,1.417897E-1,1.7410874E-1,3.8253418E-1,3.9342475E-1,3.4929782E-2,2.6574042E-2,2.2170213E-1,4.4565028E-1,6.474741E-1,8.9332014E-1,6.6213536E-1,5.5555556E-2,9.122254E-1,9.9261796E-1,1.3539791E-1,1.9670507E-1,2.777778E-1,9.9783945E-1,4.4444448E-1,8.9380614E-2,1.1968535E-2,-3.7469387E-2,3.3333334E-1,8.349742E-1,2.0884521E-2,9.9787235E-1,2.923833E-1,8.62944E-1,1.8427517E-2,6.4332014E-1,8.147807E-1,9.345995E-1,5.5555556E-2,4.2122793E-1,8.76709E-1,3.888889E-1,8.25015E-3,1.8178781E-2,3.4109512E-3,1.2348272E-3,1.0256349E-3,-7.722456E-4,2.0985464E-3,7.01452E-3,-3.6664382E-3,-7.998197E-3,1.7254693E-2,6.2880907E-3,4.562034E-3,1.769855E-2,6.9194804E-3,9.763614E-3,1.4090995E-2,2.2369005E-2,8.737873E-3,4.183054E-3,-1.5299325E-3,-1.1118528E-2,-3.7257907E-3,4.5775726E-2,-4.5660106E-3,-8.970741E-3,5.0974954E-2,-5.7998896E-3,-3.1366337E-2,-1.624371E-2,1.1820157E-4,-2.7035736E-2,3.9342605E-4,4.1115284E-3,-2.0823471E-2,2.1285813E-2,-3.5931695E-2,4.4661663E-3,1.6092096E-2,2.2637935E-3,1.09149545E-1,5.3476606E-2,5.5824723E-2,2.5201544E-2,1.3877304E-2,2.0485234E-2,8.1993826E-2,4.6327814E-2,1.1762249E-2,3.0099763E-2,2.6925659E-2,1.0402507E-2,2.904136E-1,8.350721E-3,9.230222E-3,1.2662003E-2,9.96484E-3,3.792748E-4,-1.600355E-2,1.8188693E-2,3.279535E-2,2.4668464E-2,1.3957438E-2,2.0488746E-2,1.4966001E-2,1.2160289E-2],"split_indices":[1,1,5,1,5,1,5,5,5,4,4,1,4,5,6,7,1,5,1,0,0,11,11,1,0,0,1,1,1,11,1,1,1,1,1,0,4,11,1,5,5,5,5,0,1,4,0,0,1,1,1,5,7,1,5,1,0,0,0,5,5,1,1,5,0,10,1,1,5,5,4,5,5,5,5,4,5,4,0,0,0,4,1,11,10,11,1,11,5,1,1,4,5,1,4,0,0,0,0,0,0,0,0,0,0,0,0,0,0,0,0,0,0,0,0,0,0,0,0,0,0,0,0,0,0,0,0,0,0,0,0,0,0,0,0,0,0,0,0,0,0,0,0,0,0,0,0,0,0,0,0,0,0,0,0,0,0,0,0,0,0],"split_type":[0,0,0,0,0,0,0,0,0,0,0,0,0,0,0,0,0,0,0,0,0,0,0,0,0,0,0,0,0,0,0,0,0,0,0,0,0,0,0,0,0,0,0,0,0,0,0,0,0,0,0,0,0,0,0,0,0,0,0,0,0,0,0,0,0,0,0,0,0,0,0,0,0,0,0,0,0,0,0,0,0,0,0,0,0,0,0,0,0,0,0,0,0,0,0,0,0,0,0,0,0,0,0,0,0,0,0,0,0,0,0,0,0,0,0,0,0,0,0,0,0,0,0,0,0,0,0,0,0,0,0,0,0,0,0,0,0,0,0,0,0,0,0,0,0,0,0,0,0,0,0,0,0,0,0,0,0,0,0,0,0],"sum_hessian":[7.844E3,3.759E3,4.085E3,1.548E3,2.211E3,1.5E1,4.07E3,9.46E2,6.02E2,1.4E1,2.197E3,8E0,7E0,6.28E2,3.442E3,1.2E1,9.34E2,1.2E1,5.9E2,2E0,1.2E1,9.75E2,1.222E3,6E0,2E0,1E0,6E0,4.2E1,5.86E2,7.34E2,2.708E3,8E0,4E0,7.94E2,1.4E2,2E0,1E1,5E2,9E1,3.33E2,6.42E2,4.1E1,1.181E3,2E0,4E0,3E0,3E0,5E0,3.7E1,2.8E2,3.06E2,1.04E2,6.3E2,1.861E3,8.47E2,6E0,2E0,1E0,3E0,1.54E2,6.4E2,1.25E2,1.5E1,4E0,6E0,1.8E1,4.82E2,6.6E1,2.4E1,3.25E2,8E0,6.37E2,5E0,1.3E1,2.8E1,1.163E3,1.8E1,3E0,1E0,1E0,2E0,1.1E1,2.6E1,8.5E1,1.95E2,7E1,2.36E2,9E1,1.4E1,4.41E2,1.89E2,1.426E3,4.35E2,1.68E2,6.79E2,5E0,1E0,2.7E1,1.27E2,8.3E1,5.57E2,7.1E1,5.4E1,8E0,7E0,2E0,2E0,2E0,1.6E1,1.42E2,3.4E2,3.5E1,3.1E1,1.8E1,6E0,2.97E2,2.8E1,3E0,5E0,5.56E2,8.1E1,1E0,4E0,9E0,4E0,2.6E1,2E0,5.24E2,6.39E2,1.5E1,3E0,2E0,1E0,8E0,3E0,6E0,2E1,1.1E1,7.4E1,1.57E2,3.8E1,3E1,4E1,4.9E1,1.87E2,3E0,8.7E1,1E0,1.3E1,2.11E2,2.3E2,1.74E2,1.5E1,8E0,1.418E3,1.26E2,3.09E2,6.6E1,1.02E2,4.78E2,2.01E2],"tree_param":{"num_deleted":"0","num_feature":"12","num_nodes":"161","size_leaf_vector":"0"}},{"base_weights":[5.2277416E-1,1.7480332E0,4.9301505E-1,1.1281483E0,2.9555345E0,1.3966364E-3,5.468573E-1,8.4772974E-1,3.2594595E0,4.0691266E0,5.331415E-1,-1.5359807E-1,3.7339926E-1,-2.583332E-3,5.961725E-1,-3.6632244E-2,1.0559169E0,2.2466426E0,4.4182363E0,5.23047E0,2.2256753E0,7.3741585E-1,-1.1418656E0,-1.0482191E-2,-1.9865716E-1,2.3936981E-1,6.1247957E-1,-5.2502207E-2,2.7600577E-2,7.517909E-1,5.6387067E-1,5.8176357E-1,-2.3868632E-1,8.7286186E-1,2.174004E0,1.1823287E0,2.768705E0,4.8776507E0,1.061466E1,1.8872367E0,2.86647E0,2.7534658E-1,1.0848761E0,-6.5321594E-2,3.562734E-2,-2.1792054E-1,-1.7772518E-1,5.463007E-3,3.085569E-1,1.7985235E0,5.743591E-1,5.4156996E-2,-5.622325E-2,1.736074E-1,1.1522831E-2,5.41033E-1,8.2806104E-1,3.2262564E-1,5.8047414E-1,7.772022E-1,2.1331899E-1,-2.1337803E-2,-2.5146678E-1,7.427675E-1,1.6910152E0,1.507042E0,2.952468E0,4.205453E-1,1.4425758E0,3.8081994E0,1.7597932E0,1.9056325E0,4.9730864E0,1.8085556E-2,1.6106071E0,2.3814495E-1,1.165559E0,2.2821497E-2,-7.0403896E-2,1.2450638E-1,2.1675827E-2,-3.330328E-1,-2.1394654E-1,-9.170493E-2,-1.9101915E-1,1.02840476E-1,-1.664524E-2,7.173251E-1,2.909618E-1,1.1669883E0,5.535467E-1,-1.7807283E-2,8.493073E-2,-7.1174435E-2,-4.569632E-2,2.2741921E-1,6.595127E-2,1.7045787E-1,-1.9837369E-3,7.871443E-1,5.0648385E-1,1.3751996E0,7.9348135E-1,5.224454E-1,3.0691928E-1,4.7104567E-1,6.117897E-1,-2.6866063E-1,-1.5841638E-1,8.511577E-1,1.1603329E-1,8.208053E-1,1.7533962E0,3.4883482E0,1.0082895E0,2.0062892E0,8.776623E-1,3.4564996E-1,-4.958109E-2,-1.1470875E-2,8.782028E-2,-0E0,-7.310828E-2,1.6785587E-1,7.8825586E-2,4.9717713E-2,-1.5682764E-2,-6.253706E-1,-2.3644558E-1,-2.5625423E-1,-2.0984457E-1,-1.9931826E-1,6.987391E-1,-2.0700282E-1,-1.6570781E-1,1.2144708E-1,4.7476772E-2,1.3593198E-2,-6.821072E-2,4.6318114E-1,8.6284477E-1,3.1435174E-1,1.7833805E-1,5.988189E-1,1.4326228E0,4.1760132E-1,5.959206E-1,5.7216827E-2,1.4305824E-1,-8.9427456E-2,-5.8822203E-2,3.20984E-2,-4.7825594E-2,1.7493747E-1,3.3202276E-1,-0E0,1.528365E-1,9.153884E-2,5.425637E-1,-3.1813942E-2,1.5512696E-2,4.701785E-1,1.6517802E0,5.706698E-1,3.4870014E-1,1.7009417E0,8.7336224E-1,1.0731215E0,7.4789983E-1,8.752252E-1,4.3799123E-1,3.4394827E-1,2.712167E-1,1.2210947E0,4.67244E-1,1.1819549E0,6.078014E-1],"categories":[],"categories_nodes":[],"categories_segments":[],"categories_sizes":[],"default_left":[true,true,true,true,true,true,true,true,true,true,true,true,true,true,true,true,true,true,false,true,true,true,false,true,true,true,true,true,true,true,true,true,true,true,true,true,true,true,false,false,false,true,true,true,true,true,true,true,true,false,true,true,true,true,true,true,true,true,true,false,false,false,true,true,true,true,false,false,false,false,true,false,false,true,false,false,false,true,true,true,true,true,true,true,true,true,true,true,true,true,true,false,true,true,true,true,true,true,true,true,true,true,true,true,true,true,true,false,false,false,false,false,false,false,false,false,false,false,false,false,false,false,false,false,false,false,false,false,false,false,false,false,false,false,false,false,false,false,false,false,false,false,false,false,false,false,false,false,false,false,false,false,false,false,false,false,false,false,false,false,false,false,false,false,false,false,false,false,false,false,false,false,false,false,false,false,false],"id":70,"left_children":[1,3,5,7,9,11,13,15,17,19,21,23,25,27,29,31,33,35,-1,37,39,41,-1,43,45,47,49,51,53,55,57,59,61,63,65,67,69,71,-1,-1,-1,73,75,77,79,81,83,85,87,-1,89,91,93,95,97,99,101,103,105,-1,-1,-1,107,109,111,113,-1,-1,-1,-1,115,-1,-1,117,-1,-1,-1,119,121,123,125,127,129,131,133,135,137,139,141,143,145,-1,147,149,151,153,155,157,159,161,163,165,167,169,171,173,175,-1,-1,-1,-1,-1,-1,-1,-1,-1,-1,-1,-1,-1,-1,-1,-1,-1,-1,-1,-1,-1,-1,-1,-1,-1,-1,-1,-1,-1,-1,-1,-1,-1,-1,-1,-1,-1,-1,-1,-1,-1,-1,-1,-1,-1,-1,-1,-1,-1,-1,-1,-1,-1,-1,-1,-1,-1,-1,-1,-1,-1,-1,-1,-1,-1,-1,-1,-1,-1,-1],"loss_changes":[2.8796655E2,1.3905115E2,2.0432141E2,7.3329056E1,1.7005658E2,4.3977215E1,1.8852344E2,2.034124E1,1.3416992E1,8.878339E1,7.232345E0,3.4678564E0,7.1274548E0,8.647069E-1,3.1932373E1,2.7070162E0,1.7607758E1,3.4824142E0,0E0,3.2537964E1,1.8873138E0,2.8244352E0,0E0,3.282347E-1,1.4649391E-1,2.3307543E0,3.2537594E0,8.690399E-2,8.355184E-1,1.7454102E1,2.1107056E1,3.146385E-1,3.9690733E-2,7.777584E0,4.8562202E0,4.319849E-1,3.2792892E0,3.927124E0,0E0,0E0,0E0,2.8296897E0,5.933647E-1,2.7794093E-2,8.422819E-2,6.511307E-2,2.1692991E-1,7.356214E-2,7.1676445E-1,0E0,7.2620773E-1,1.7702572E-2,3.0195355E-2,1.9550657E-1,6.9445854E-1,2.3342896E0,1.4823059E1,1.0059547E0,1.6842041E1,0E0,0E0,0E0,4.2474866E-3,4.527355E0,4.4296265E-2,6.009754E0,0E0,0E0,0E0,0E0,9.6508026E-2,0E0,0E0,1.7248584E-1,0E0,0E0,0E0,8.855168E-3,1.1174053E-2,1.0551557E-2,6.499876E-2,1.17230356E-1,1.1054039E-2,2.3643677E0,5.2560806E-2,2.1919906E-3,4.3708242E-2,8.077145E-3,2.570219E-1,3.7124395E-2,3.4227753E-1,0E0,3.0055903E-3,1.5370935E-2,2.1331638E-2,1.0149515E-1,7.093923E-2,7.183417E-1,1.5558201E-1,9.394239E0,2.5266724E0,7.205475E0,9.35968E0,5.784192E-1,3.796425E-1,2.9289093E0,8.479126E0,0E0,0E0,0E0,0E0,0E0,0E0,0E0,0E0,0E0,0E0,0E0,0E0,0E0,0E0,0E0,0E0,0E0,0E0,0E0,0E0,0E0,0E0,0E0,0E0,0E0,0E0,0E0,0E0,0E0,0E0,0E0,0E0,0E0,0E0,0E0,0E0,0E0,0E0,0E0,0E0,0E0,0E0,0E0,0E0,0E0,0E0,0E0,0E0,0E0,0E0,0E0,0E0,0E0,0E0,0E0,0E0,0E0,0E0,0E0,0E0,0E0,0E0,0E0,0E0,0E0,0E0,0E0,0E0,0E0,0E0],"parents":[2147483647,0,0,1,1,2,2,3,3,4,4,5,5,6,6,7,7,8,8,9,9,10,10,11,11,12,12,13,13,14,14,15,15,16,16,17,17,19,19,20,20,21,21,23,23,24,24,25,25,26,26,27,27,28,28,29,29,30,30,31,31,32,32,33,33,34,34,35,35,36,36,37,37,41,41,42,42,43,43,44,44,45,45,46,46,47,47,48,48,50,50,51,51,52,52,53,53,54,54,55,55,56,56,57,57,58,58,62,62,63,63,64,64,65,65,70,70,73,73,77,77,78,78,79,79,80,80,81,81,82,82,83,83,84,84,85,85,86,86,87,87,88,88,89,89,90,90,92,92,93,93,94,94,95,95,96,96,97,97,98,98,99,99,100,100,101,101,102,102,103,103,104,104,105,105,106,106],"right_children":[2,4,6,8,10,12,14,16,18,20,22,24,26,28,30,32,34,36,-1,38,40,42,-1,44,46,48,50,52,54,56,58,60,62,64,66,68,70,72,-1,-1,-1,74,76,78,80,82,84,86,88,-1,90,92,94,96,98,100,102,104,106,-1,-1,-1,108,110,112,114,-1,-1,-1,-1,116,-1,-1,118,-1,-1,-1,120,122,124,126,128,130,132,134,136,138,140,142,144,146,-1,148,150,152,154,156,158,160,162,164,166,168,170,172,174,176,-1,-1,-1,-1,-1,-1,-1,-1,-1,-1,-1,-1,-1,-1,-1,-1,-1,-1,-1,-1,-1,-1,-1,-1,-1,-1,-1,-1,-1,-1,-1,-1,-1,-1,-1,-1,-1,-1,-1,-1,-1,-1,-1,-1,-1,-1,-1,-1,-1,-1,-1,-1,-1,-1,-1,-1,-1,-1,-1,-1,-1,-1,-1,-1,-1,-1,-1,-1,-1,-1],"split_conditions":[7.4137926E-2,2.777778E-1,5.5555556E-2,7.090609E-2,6.8723404E-1,7.090609E-2,3.9510223E-1,5.5555556E-2,9.5682657E-1,3.888889E-1,6.724138E-2,5.719247E-1,7.920965E-1,7.6129995E-2,2.6206896E-1,5.719247E-1,6.724138E-2,6.7567565E-2,8.836472E-2,5.4282683E-1,6.724138E-2,3.888889E-1,-2.2837311E-2,8.513586E-2,6.0565114E-1,3.8609636E-1,2.0884521E-2,7.985258E-2,5.0082594E-1,1.6666667E-1,7.920965E-1,5E-1,5.0041294E-1,6.893617E-1,1.6666667E-1,1.1111111E-1,5.5555556E-2,8.231776E-1,2.1229321E-1,3.7744734E-2,5.73294E-2,5.4282683E-1,5.629188E-1,1.2285012E-2,5.0082594E-1,4.1296717E-4,5.0082594E-1,2.3620689E-1,1.8427517E-2,3.597047E-2,1.48936175E-2,1.4310345E-1,3.9234042E-1,5.8793104E-1,1.3390663E-1,5.0082594E-1,1.48936175E-2,5.0082594E-1,1.6666667E-1,1.5544044E-2,4.26638E-3,-4.2675607E-4,6.724138E-2,5E-1,1.6666667E-1,5.0082594E-1,5.9049357E-2,8.410906E-3,2.8851515E-2,7.6163985E-2,1.6666667E-1,3.8112648E-2,9.946173E-2,8.231776E-1,3.2212142E-2,4.7628987E-3,2.3311181E-2,3.6677136E-3,1.3234043E-1,4.5172414E-1,4.4310343E-1,2.561702E-1,1.8427517E-2,9.9787235E-1,4.7413793E-1,7.0297873E-1,7.008511E-1,1.4310345E-1,9.9787235E-1,2.1206897E-1,3.1941032E-1,-3.5614564E-4,1.6878912E-2,1.6666667E-1,4.1296717E-4,1.2389015E-3,6.189655E-1,9.9787235E-1,1.6666667E-1,6.965602E-1,6.621622E-1,4.8525798E-1,1.8427517E-2,3.095823E-1,7.008511E-1,1.48936175E-2,1.48936175E-2,-5.3732125E-3,-3.1683275E-3,1.7023154E-2,2.3206659E-3,1.6416106E-2,3.5067923E-2,6.976696E-2,2.0165788E-2,4.0125784E-2,1.7553246E-2,6.912999E-3,-9.916219E-4,-2.2941749E-4,1.7564055E-3,-0E0,-1.4621655E-3,3.3571173E-3,1.5765117E-3,9.943543E-4,-3.1365527E-4,-1.2507413E-2,-4.7289114E-3,-5.1250844E-3,-4.1968916E-3,-3.986365E-3,1.3974782E-2,-4.140056E-3,-3.314156E-3,2.4289414E-3,9.495354E-4,2.7186394E-4,-1.3642143E-3,9.263623E-3,1.7256895E-2,6.2870346E-3,3.566761E-3,1.1976378E-2,2.8652456E-2,8.352026E-3,1.19184125E-2,1.1443365E-3,2.8611647E-3,-1.7885491E-3,-1.176444E-3,6.41968E-4,-9.565118E-4,3.4987493E-3,6.6404548E-3,-0E0,3.05673E-3,1.8307767E-3,1.0851273E-2,-6.362788E-4,3.102539E-4,9.40357E-3,3.3035602E-2,1.1413395E-2,6.9740023E-3,3.4018833E-2,1.7467244E-2,2.1462431E-2,1.4957996E-2,1.7504504E-2,8.759825E-3,6.8789655E-3,5.4243337E-3,2.4421895E-2,9.34488E-3,2.3639096E-2,1.2156027E-2],"split_indices":[3,4,4,7,10,7,6,4,6,4,3,6,6,6,3,6,3,11,0,7,3,4,0,6,11,6,11,11,8,4,6,0,8,10,4,4,4,6,0,0,0,7,6,11,8,8,8,3,11,0,10,3,10,3,11,8,10,8,4,0,0,0,3,0,4,8,0,0,0,0,4,0,0,6,0,0,0,6,10,3,3,10,11,10,3,10,10,3,10,3,11,0,6,4,8,8,3,10,4,11,11,11,11,11,10,10,10,0,0,0,0,0,0,0,0,0,0,0,0,0,0,0,0,0,0,0,0,0,0,0,0,0,0,0,0,0,0,0,0,0,0,0,0,0,0,0,0,0,0,0,0,0,0,0,0,0,0,0,0,0,0,0,0,0,0,0,0,0,0,0,0,0,0,0,0,0,0],"split_type":[0,0,0,0,0,0,0,0,0,0,0,0,0,0,0,0,0,0,0,0,0,0,0,0,0,0,0,0,0,0,0,0,0,0,0,0,0,0,0,0,0,0,0,0,0,0,0,0,0,0,0,0,0,0,0,0,0,0,0,0,0,0,0,0,0,0,0,0,0,0,0,0,0,0,0,0,0,0,0,0,0,0,0,0,0,0,0,0,0,0,0,0,0,0,0,0,0,0,0,0,0,0,0,0,0,0,0,0,0,0,0,0,0,0,0,0,0,0,0,0,0,0,0,0,0,0,0,0,0,0,0,0,0,0,0,0,0,0,0,0,0,0,0,0,0,0,0,0,0,0,0,0,0,0,0,0,0,0,0,0,0,0,0,0,0,0,0,0,0,0,0,0,0,0,0,0,0],"sum_hessian":[7.906E3,1.87E2,7.719E3,1.24E2,6.3E1,7.62E2,6.957E3,1.1E2,1.4E1,4.3E1,2E1,5.38E2,2.24E2,5.73E2,6.384E3,2.1E1,8.9E1,8E0,6E0,2.6E1,1.7E1,1.8E1,2E0,1.29E2,4.09E2,1.44E2,8E1,2.16E2,3.57E2,1.096E3,5.288E3,5E0,1.6E1,7.7E1,1.2E1,3E0,5E0,2.5E1,1E0,1.2E1,5E0,8E0,1E1,5.9E1,7E1,2.11E2,1.98E2,3.3E1,1.11E2,2E0,7.8E1,7E0,2.09E2,3.5E1,3.22E2,2.92E2,8.04E2,3.41E2,4.947E3,3E0,2E0,1E0,1.5E1,6.7E1,1E1,7E0,5E0,1E0,2E0,2E0,3E0,1E0,2.4E1,7E0,1E0,1E0,9E0,3E0,5.6E1,9E0,6.1E1,6E0,2.05E2,2.7E1,1.71E2,6E0,2.7E1,4E0,1.07E2,2E0,7.6E1,2E0,5E0,8.5E1,1.24E2,2.3E1,1.2E1,2.5E1,2.97E2,3.5E1,2.57E2,4.7E1,7.57E2,2.4E1,3.17E2,1.102E3,3.845E3,1.2E1,3E0,5.7E1,1E1,1E0,9E0,1E0,6E0,2E0,1E0,1E0,6E0,2E0,1E0,2E0,5.4E1,4E0,5E0,3.5E1,2.6E1,1E0,5E0,1.6E1,1.89E2,2.4E1,3E0,1.03E2,6.8E1,4E0,2E0,1.7E1,1E1,2E0,2E0,8.8E1,1.9E1,1E0,1E0,1.9E1,5.7E1,4E0,1E0,3.3E1,5.2E1,3E0,1.21E2,1.6E1,7E0,7E0,5E0,2.1E1,4E0,1.1E2,1.87E2,2.6E1,9E0,1.82E2,7.5E1,2.8E1,1.9E1,1.05E2,6.52E2,4E0,2E1,1.54E2,1.63E2,5E0,1.097E3,2.6E1,3.819E3],"tree_param":{"num_deleted":"0","num_feature":"12","num_nodes":"177","size_leaf_vector":"0"}},{"base_weights":[5.168966E-1,4.525186E0,5.0361174E-1,6.563336E0,3.1424763E0,2.3566224E-2,5.5852026E-1,2.0861094E0,8.298088E0,2.437232E0,1.0455456E1,-1.5241401E-1,4.3175194E-1,6.7710364E-4,5.9835005E-1,3.1092745E-1,4.6601534E0,1.0904605E0,2.8792136E0,1.4284173E-2,-2.0205022E-1,4.092711E0,3.961408E-1,4.359285E-1,-4.2182896E-3,1.7253577E0,5.8092254E-1,7.890418E-1,-2.34246E-1,-3.1253812E-1,4.3357363E0,6.332714E-1,2.969109E-3,-1.8832338E-1,-2.3593497E-1,1.8789684E0,5.2722607E0,2.820153E-1,5.764641E-1,5.6083786E-1,1.8907931E-1,1.6525548E-2,-5.182583E-2,1.8087457E0,-2.7708814E-1,7.80093E-1,5.435983E-1,2.1382895E-1,8.8364977E-1,9.307632E-2,-1.8782822E-2,-1.9865727E-1,-8.482372E-2,-2.1469653E-1,-2.943672E-1,4.2189178E-1,2.2453424E-1,9.978849E-1,5.1667225E-1,2.2481485E-1,6.6659856E-1,-6.514354E-2,4.2116117E-2,-2.6579669E-2,-6.469437E-2,1.1425391E0,2.058873E0,1.988682E-1,-7.195592E-1,9.1522E-1,5.93858E-1,4.7240588E-1,6.264155E-1,1.2018803E-1,-4.426417E-2,1.5471268E-3,-6.4510554E-2,-2.8651533E-1,-1.9305108E-1,7.664083E-1,-1.9204603E-1,-1.9290264E-1,-2.3421608E-1,-8.013858E-1,-2.6920173E-1,3.1411454E-1,5.623681E-1,7.155052E-1,2.0799327E-1,3.031736E-1,1.2341334E0,1.4111357E0,4.9991965E-1,2.8432568E-3,-7.531542E-2,8.071585E-2,-3.175293E-3,-4.04989E-2,6.780273E-2,-4.2150803E-2,-7.5281665E-2,7.2907394E-1,4.042152E0,2.3726041E0,1.1896157E0,-1.0653464E0,-1.8312941E-1,6.381813E-1,1.0280201E0,9.015259E-1,5.449164E-1,5.106063E-1,4.2418668E-1,6.7633146E-1,4.0577734E-1],"categories":[],"categories_nodes":[],"categories_segments":[],"categories_sizes":[],"default_left":[true,true,true,true,true,true,true,true,false,true,false,true,true,true,true,true,false,true,false,true,true,true,true,true,true,true,true,false,false,false,false,true,true,true,true,false,false,true,true,true,false,true,true,true,true,true,true,false,false,true,true,true,true,true,true,true,true,true,true,false,false,true,true,true,true,true,true,false,true,true,true,true,true,false,false,false,false,false,false,false,false,false,false,false,false,false,false,false,false,false,false,false,false,false,false,false,false,false,false,false,false,false,false,false,false,false,false,false,false,false,false,false,false,false,false],"id":71,"left_children":[1,3,5,7,9,11,13,15,-1,17,-1,19,21,23,25,27,-1,29,-1,31,33,35,37,39,41,43,45,-1,-1,-1,-1,47,49,51,53,-1,-1,55,57,59,-1,61,63,65,67,69,71,-1,-1,73,75,77,79,81,83,85,87,89,91,-1,-1,93,95,97,99,101,103,-1,105,107,109,111,113,-1,-1,-1,-1,-1,-1,-1,-1,-1,-1,-1,-1,-1,-1,-1,-1,-1,-1,-1,-1,-1,-1,-1,-1,-1,-1,-1,-1,-1,-1,-1,-1,-1,-1,-1,-1,-1,-1,-1,-1,-1,-1],"loss_changes":[4.2438452E2,6.719586E1,2.0978418E2,7.433807E1,7.555731E1,5.8737133E1,1.586853E2,1.4677854E1,0E0,8.023598E0,0E0,4.7310057E0,3.1510014E1,1.0217077E0,1.3056592E2,6.777808E-1,0E0,2.0240072E1,0E0,9.101415E-1,1.839447E-1,2.6876945E0,4.961796E0,1.1839187E-1,4.6626064E-1,1.710965E1,4.8645752E1,0E0,0E0,0E0,0E0,1.6639566E-1,2.551371E-1,3.2760334E-1,1.2720346E-1,0E0,0E0,1.1679077E0,2.1834354E0,5.5775285E-2,0E0,6.8678975E-1,4.4690996E-2,1.5389191E1,9.677619E-1,2.5851746E1,3.2492188E1,0E0,0E0,9.718715E-2,9.792422E-2,1.1574745E-1,2.7181866E0,1.8546104E-2,3.2534242E-1,5.8466625E-1,8.0886984E-1,1.7134018E0,9.8620987E-1,0E0,0E0,5.527696E-2,4.388335E-1,6.533712E-2,1.9781858E-2,3.1718987E1,1.8188812E1,0E0,3.499694E-1,1.8486633E1,6.3857574E0,5.3949585E0,2.8035889E1,0E0,0E0,0E0,0E0,0E0,0E0,0E0,0E0,0E0,0E0,0E0,0E0,0E0,0E0,0E0,0E0,0E0,0E0,0E0,0E0,0E0,0E0,0E0,0E0,0E0,0E0,0E0,0E0,0E0,0E0,0E0,0E0,0E0,0E0,0E0,0E0,0E0,0E0,0E0,0E0,0E0,0E0],"parents":[2147483647,0,0,1,1,2,2,3,3,4,4,5,5,6,6,7,7,9,9,11,11,12,12,13,13,14,14,15,15,17,17,19,19,20,20,21,21,22,22,23,23,24,24,25,25,26,26,31,31,32,32,33,33,34,34,37,37,38,38,39,39,41,41,42,42,43,43,44,44,45,45,46,46,49,49,50,50,51,51,52,52,53,53,54,54,55,55,56,56,57,57,58,58,61,61,62,62,63,63,64,64,65,65,66,66,68,68,69,69,70,70,71,71,72,72],"right_children":[2,4,6,8,10,12,14,16,-1,18,-1,20,22,24,26,28,-1,30,-1,32,34,36,38,40,42,44,46,-1,-1,-1,-1,48,50,52,54,-1,-1,56,58,60,-1,62,64,66,68,70,72,-1,-1,74,76,78,80,82,84,86,88,90,92,-1,-1,94,96,98,100,102,104,-1,106,108,110,112,114,-1,-1,-1,-1,-1,-1,-1,-1,-1,-1,-1,-1,-1,-1,-1,-1,-1,-1,-1,-1,-1,-1,-1,-1,-1,-1,-1,-1,-1,-1,-1,-1,-1,-1,-1,-1,-1,-1,-1,-1,-1,-1],"split_conditions":[2.7272727E-2,1.6666667E-1,5.5555556E-2,5.5555556E-2,5.8854413E-1,7.090609E-2,5.261916E-2,7.090609E-2,1.6596176E-1,2.777778E-1,2.0910911E-1,5.261916E-2,5E-1,3.231905E-2,6.724138E-2,2.9613025E-2,9.320307E-2,1.166234E-1,5.758427E-2,5E-1,8.30303E-1,1.3137093E-1,1.3137093E-1,1.6666667E-1,1.7815007E-2,1.39269E-1,2.0408714E-1,1.5780836E-2,-4.68492E-3,-6.2507624E-3,8.671472E-2,2.607362E-2,1.721282E-1,9.9787235E-1,6.802305E-1,3.7579365E-2,1.0544521E-1,3.14278E-1,2.1896552E-1,1.5337423E-3,3.7815862E-3,1.5337423E-3,6.242424E-1,1.6666667E-1,1.3989916E-1,3.2586205E-1,2.777778E-1,4.276579E-3,1.7672995E-2,1.7815007E-2,1.7815007E-2,3.0878644E-2,1.1883327E-1,6.893617E-1,6.8356144E-1,3.5106385E-1,3.969697E-1,1.5151241E-1,1.48936175E-2,4.496297E-3,1.3331971E-2,1.9814548E-1,5.9479654E-1,7.981635E-1,5.260173E-1,1.166234E-1,3.888889E-1,3.977364E-3,2.777778E-1,1.6666667E-1,5.181818E-1,6.39089E-1,7.090609E-2,2.4037606E-3,-8.852834E-4,3.0942534E-5,-1.2902111E-3,-5.7303063E-3,-3.8610217E-3,1.5328166E-2,-3.8409205E-3,-3.8580527E-3,-4.6843216E-3,-1.6027717E-2,-5.3840345E-3,6.2822904E-3,1.1247362E-2,1.4310103E-2,4.1598654E-3,6.063472E-3,2.4682667E-2,2.8222714E-2,9.998393E-3,5.6865134E-5,-1.5063084E-3,1.614317E-3,-6.350586E-5,-8.09978E-4,1.3560546E-3,-8.43016E-4,-1.5056332E-3,1.4581478E-2,8.084304E-2,4.745208E-2,2.3792313E-2,-2.1306926E-2,-3.6625883E-3,1.2763626E-2,2.0560402E-2,1.8030519E-2,1.0898327E-2,1.0212125E-2,8.483733E-3,1.3526629E-2,8.115547E-3],"split_indices":[2,4,4,4,7,7,7,7,0,4,0,7,0,5,3,7,0,7,0,0,2,7,7,4,7,5,5,0,0,0,0,7,5,10,5,0,0,5,3,7,0,7,2,4,5,3,4,0,0,7,7,5,5,10,5,10,2,5,10,0,0,5,5,5,5,7,4,0,4,4,2,5,7,0,0,0,0,0,0,0,0,0,0,0,0,0,0,0,0,0,0,0,0,0,0,0,0,0,0,0,0,0,0,0,0,0,0,0,0,0,0,0,0,0,0],"split_type":[0,0,0,0,0,0,0,0,0,0,0,0,0,0,0,0,0,0,0,0,0,0,0,0,0,0,0,0,0,0,0,0,0,0,0,0,0,0,0,0,0,0,0,0,0,0,0,0,0,0,0,0,0,0,0,0,0,0,0,0,0,0,0,0,0,0,0,0,0,0,0,0,0,0,0,0,0,0,0,0,0,0,0,0,0,0,0,0,0,0,0,0,0,0,0,0,0,0,0,0,0,0,0,0,0,0,0,0,0,0,0,0,0,0,0],"sum_hessian":[7.985E3,2.6E1,7.959E3,1E1,1.6E1,8.17E2,7.142E3,3E0,7E0,1.5E1,1E0,5.71E2,2.46E2,4.76E2,6.666E3,2E0,1E0,4E0,1.1E1,1.31E2,4.4E2,2E0,2.44E2,5E0,4.71E2,1.01E2,6.565E3,1E0,1E0,3E0,1E0,2E0,1.29E2,3.15E2,1.25E2,1E0,1E0,1.5E2,9.4E1,3E0,2E0,3.28E2,1.43E2,9.7E1,4E0,1.035E3,5.53E3,1E0,1E0,2.5E1,1.04E2,2.86E2,2.9E1,9.3E1,3.2E1,4.3E1,1.07E2,1.1E1,8.3E1,1E0,2E0,7.8E1,2.5E2,4.9E1,9.4E1,2.7E1,7E1,2E0,2E0,5.99E2,4.36E2,2.975E3,2.555E3,2.1E1,4E0,7.2E1,3.2E1,1.6E1,2.7E2,3E0,2.6E1,4.6E1,4.7E1,1E0,3.1E1,2.5E1,1.8E1,3E0,1.04E2,3E0,8E0,1E0,8.2E1,1E1,6.8E1,1.35E2,1.15E2,4.3E1,6E0,3.1E1,6.3E1,2.4E1,3E0,5.1E1,1.9E1,1E0,1E0,1.74E2,4.25E2,5.9E1,3.77E2,1.658E3,1.317E3,2.083E3,4.72E2],"tree_param":{"num_deleted":"0","num_feature":"12","num_nodes":"115","size_leaf_vector":"0"}},{"base_weights":[4.9374107E-1,3.4600776E-2,9.149223E-1,2.0964064E-1,-8.823253E-2,4.4611263E0,8.684465E-1,2.1222085E-2,4.9496332E-1,-3.2109284E-1,-1.4321403E-2,1.074219E1,3.4345698E0,1.2444421E0,8.0164456E-1,4.5902576E0,1.4720114E-2,4.520863E-1,7.4845785E-1,-1.7561105E0,-2.8710666E-1,-1.6693224E-1,1.00337684E-1,1.4977226E1,8.214978E0,5.004271E-1,4.9762707E0,9.438324E-1,1.553575E0,8.751156E-1,5.190758E-1,5.794786E-1,7.1963025E-3,1.5994378E0,4.40169E-1,2.0974412E0,7.09393E-1,-2.3073266E-1,-1.8826535E0,-3.3650094E-1,1.6993317E-1,-4.451199E-2,-2.507855E-1,1.216035E-2,2.0675378E-1,9.852323E0,8.2891333E-1,2.509415E-2,5.830396E0,1.0608806E1,3.9858148E0,1.4096447E0,7.441142E-1,2.9816272E0,1.1884382E0,9.451221E-1,7.007321E-1,4.8700595E-1,7.447111E-1,4.6551144E-1,9.952422E-1,-4.0775977E-2,5.1804606E-2,2.1871593E0,1.023743E0,3.9447907E-1,5.639224E-1,8.298647E-1,4.1927668E-1,-2.425674E0,-1.5883921E0,-2.5394782E-1,-5.861309E-1,-2.1016936E-1,6.6727287E-1,-1.9188999E-1,4.9747806E-2,-3.7192062E-1,-1.9373848E-1,3.8737637E-1,-7.142247E-2,5.8794326E-1,9.749121E-2,-1.5504827E0,4.5141667E-1,-6.879944E-1,5.376947E0,1.3098984E0,5.10621E0,6.9854903E-1,9.402035E-1,2.447815E0,4.401473E0,4.8381156E-1,1.3763208E0,8.4479016E-1,1.2163128E0,9.975645E-1,6.7624396E-1,5.642399E-1,4.5643964E-1,5.2149E-1,1.3584733E0,5.1654565E-1,2.1061614E-1,5.5257972E-2,-6.209928E-2,6.1179906E-2,-4.2296824E-1,6.948456E-1,3.765402E-1,4.4559154E-1,6.9155025E-1,5.8489245E-1,1.0577315E0,7.467048E-1,3.8154575E-1,-3.6315846E-1,2.0789759E-1,1.0596587E-1,-6.581935E-1,-7.666549E-1,9.015172E-2,1.3705497E0,2.418688E-1,-1.18474014E-1,2.1794388E-1,-2.0344913E-1,-5.408338E-1,-3.0639097E-1,-2.6155958E-2,1.8488856E-1,9.5187515E-1,-1.021455E0,-2.2057233E-2,1.7950152E0,5.019367E-1,-4.3588582E-1,1.7930241E-1,-8.070472E-1,-2.4529989E0,9.7948456E-1,4.4892445E-2,3.8717026E-1,-1.698613E0,2.1624618E0,8.4165325E0,1.114019E0,2.1238909E0,9.113669E-1,6.248892E-1,1.1508864E0,6.376812E-1,4.2731314E0,2.1327875E0,1.7878865E-1,4.9855247E0,4.24076E-1,1.6714675E0,2.247265E0,1.1887903E0,-7.808601E-1,8.564209E-1,1.2729169E0,9.17317E-1,6.0357034E-1,1.1260086E0,7.5406635E-1,6.045275E-1,5.2180374E-1,1.1654419E0,4.8851666E-1,3.810258E-1,4.520808E-1,5.96137E-1,6.1408347E-1,2.672068E0],"categories":[],"categories_nodes":[],"categories_segments":[],"categories_sizes":[],"default_left":[true,true,true,true,true,true,true,true,true,true,true,true,true,true,true,false,true,true,true,true,true,true,true,false,true,true,true,true,true,true,true,true,true,true,true,false,true,false,true,true,true,true,true,true,true,false,false,true,false,false,true,true,true,true,true,true,true,true,true,true,false,true,true,false,false,true,true,true,true,false,false,true,true,true,true,false,true,true,true,true,true,true,true,true,true,true,true,true,false,true,true,true,true,true,true,true,true,true,true,true,true,true,true,false,false,false,false,false,false,false,false,false,false,false,false,false,false,false,false,false,false,false,false,false,false,false,false,false,false,false,false,false,false,false,false,false,false,false,false,false,false,false,false,false,false,false,false,false,false,false,false,false,false,false,false,false,false,false,false,false,false,false,false,false,false,false,false,false,false,false,false,false,false,false,false,false,false],"id":72,"left_children":[1,3,5,7,9,11,13,15,17,19,21,23,25,27,29,-1,31,33,35,37,39,41,43,-1,45,47,49,51,53,55,57,59,61,63,65,-1,67,-1,69,71,73,75,77,79,81,-1,-1,83,-1,-1,85,87,89,91,93,95,97,99,101,103,-1,105,107,-1,-1,109,111,113,115,-1,-1,117,119,121,123,-1,125,127,129,131,133,135,137,139,141,143,145,147,-1,149,151,153,155,157,159,161,163,165,167,169,171,173,175,-1,-1,-1,-1,-1,-1,-1,-1,-1,-1,-1,-1,-1,-1,-1,-1,-1,-1,-1,-1,-1,-1,-1,-1,-1,-1,-1,-1,-1,-1,-1,-1,-1,-1,-1,-1,-1,-1,-1,-1,-1,-1,-1,-1,-1,-1,-1,-1,-1,-1,-1,-1,-1,-1,-1,-1,-1,-1,-1,-1,-1,-1,-1,-1,-1,-1,-1,-1,-1,-1,-1,-1,-1,-1],"loss_changes":[1.5310399E3,8.145982E1,6.79198E2,8.398031E1,3.8311035E1,3.313817E2,1.0202466E2,2.7876667E1,6.6233673E0,2.5960117E1,2.9584362E1,3.71286E1,2.0868414E2,5.6564392E1,7.170874E1,0E0,3.9858456E0,7.014908E0,4.171467E0,2.205677E0,1.1858353E1,7.4378586E0,9.054234E0,0E0,6.1624756E1,4.1248703E1,1.5491473E2,2.8676239E1,1.56406E2,3.329492E1,5.0377045E0,4.0906954E-1,1.9874599E0,1.0120983E0,2.893837E0,0E0,2.9185257E0,0E0,4.6887589E-1,9.692707E0,9.75737E0,4.10793E0,2.941679E0,1.6583122E1,1.8185932E1,0E0,0E0,1.0517277E1,0E0,0E0,1.7251773E2,3.2091797E1,1.7173157E0,4.279602E1,3.1700836E1,5.2939697E1,5.4814453E0,1.380539E0,1.1839043E1,8.7769985E-2,0E0,9.172741E-1,2.1459503E0,0E0,0E0,1.979126E0,2.01548E0,3.193962E0,2.1422815E-1,0E0,0E0,1.8000292E1,5.8830605E0,4.9350348E0,6.548113E0,0E0,5.11243E0,3.860796E0,5.530304E0,1.0936411E1,2.0253431E1,9.771572E0,1.4873267E1,1.5299644E0,2.618381E0,7.1198473E0,1.9245209E2,1.3727417E1,0E0,2.599434E0,2.3004608E0,2.2937347E1,3.9911743E1,3.3756037E0,3.0147003E1,2.7287048E1,8.521118E0,2.751339E0,3.899109E0,4.2718887E0,1.0173264E0,2.3368263E-1,2.2222023E1,0E0,0E0,0E0,0E0,0E0,0E0,0E0,0E0,0E0,0E0,0E0,0E0,0E0,0E0,0E0,0E0,0E0,0E0,0E0,0E0,0E0,0E0,0E0,0E0,0E0,0E0,0E0,0E0,0E0,0E0,0E0,0E0,0E0,0E0,0E0,0E0,0E0,0E0,0E0,0E0,0E0,0E0,0E0,0E0,0E0,0E0,0E0,0E0,0E0,0E0,0E0,0E0,0E0,0E0,0E0,0E0,0E0,0E0,0E0,0E0,0E0,0E0,0E0,0E0,0E0,0E0,0E0,0E0,0E0,0E0,0E0,0E0,0E0,0E0],"parents":[2147483647,0,0,1,1,2,2,3,3,4,4,5,5,6,6,7,7,8,8,9,9,10,10,11,11,12,12,13,13,14,14,16,16,17,17,18,18,19,19,20,20,21,21,22,22,24,24,25,25,26,26,27,27,28,28,29,29,30,30,31,31,32,32,33,33,34,34,36,36,38,38,39,39,40,40,41,41,42,42,43,43,44,44,47,47,50,50,51,51,52,52,53,53,54,54,55,55,56,56,57,57,58,58,59,59,61,61,62,62,65,65,66,66,67,67,68,68,71,71,72,72,73,73,74,74,76,76,77,77,78,78,79,79,80,80,81,81,82,82,83,83,84,84,85,85,86,86,87,87,89,89,90,90,91,91,92,92,93,93,94,94,95,95,96,96,97,97,98,98,99,99,100,100,101,101,102,102],"right_children":[2,4,6,8,10,12,14,16,18,20,22,24,26,28,30,-1,32,34,36,38,40,42,44,-1,46,48,50,52,54,56,58,60,62,64,66,-1,68,-1,70,72,74,76,78,80,82,-1,-1,84,-1,-1,86,88,90,92,94,96,98,100,102,104,-1,106,108,-1,-1,110,112,114,116,-1,-1,118,120,122,124,-1,126,128,130,132,134,136,138,140,142,144,146,148,-1,150,152,154,156,158,160,162,164,166,168,170,172,174,176,-1,-1,-1,-1,-1,-1,-1,-1,-1,-1,-1,-1,-1,-1,-1,-1,-1,-1,-1,-1,-1,-1,-1,-1,-1,-1,-1,-1,-1,-1,-1,-1,-1,-1,-1,-1,-1,-1,-1,-1,-1,-1,-1,-1,-1,-1,-1,-1,-1,-1,-1,-1,-1,-1,-1,-1,-1,-1,-1,-1,-1,-1,-1,-1,-1,-1,-1,-1,-1,-1,-1,-1,-1,-1],"split_conditions":[6.621175E-1,6.572582E-1,1.7915016E-2,3.989272E-1,2.3847678E-1,7.876776E-1,1.7455888E-1,2.7272727E-2,6.430696E-1,2.7272727E-2,1.6666667E-1,2.7272727E-2,8.2218254E-1,8.2552147E-1,7.090609E-2,9.180515E-2,2.4576882E-2,3.3489376E-2,3.969697E-1,5.5555556E-2,3.888889E-1,3.9234042E-1,6.832013E-1,2.995445E-1,7.703592E-1,1.166234E-1,8.349742E-1,7.6906526E-1,8.3047175E-1,8.4422266E-1,9.212121E-1,3.4497833E-1,2.4990782E-2,2.838298E-1,8.30303E-1,4.194882E-2,6.4979887E-1,-4.614653E-3,1.6666667E-1,8.30303E-1,1.6680852E-1,5.5555556E-2,5.7994235E-1,3.14368E-1,7.6386386E-1,1.9704644E-1,1.6578266E-2,2.7272727E-2,1.1660792E-1,2.1217611E-1,8.5870504E-1,1.7293844E-1,9.9787235E-1,9.212121E-1,8.571358E-1,8.2218254E-1,4.2424244E-1,4.50036E-1,9.345995E-1,3.1730676E-1,1.9904843E-2,9.948173E-2,3.92902E-1,4.3743186E-2,2.047486E-2,1.074901E-1,6.028142E-1,6.474741E-1,6.373785E-2,-4.851348E-2,-3.176784E-2,6.242424E-1,3.790061E-2,5.181818E-1,1.1541232E-1,-3.8377997E-3,7.2727275E-1,7.5757575E-1,7.5757575E-1,2.8943104E-1,3.3174288E-1,5.818182E-1,7.9834354E-1,2.777778E-1,1.6666667E-1,2.777778E-1,2.777778E-1,9.212121E-1,1.021242E-1,1.6680852E-1,7.9132783E-1,3.132877E-2,1.6666667E-1,1.6816708E-1,4.222182E-2,5.5555556E-2,8.349742E-1,8.5870504E-1,2.777778E-1,5E-1,5.8854413E-1,6.984155E-1,5.806626E-1,1.0330913E-2,4.2123226E-3,1.1051594E-3,-1.2419856E-3,1.2235981E-3,-8.459365E-3,1.3896912E-2,7.5308043E-3,8.91183E-3,1.38310045E-2,1.1697848E-2,2.1154629E-2,1.4934096E-2,7.630915E-3,-7.263169E-3,4.1579516E-3,2.1193174E-3,-1.316387E-2,-1.5333097E-2,1.8030343E-3,2.7410993E-2,4.8373756E-3,-2.3694802E-3,4.3588774E-3,-4.0689823E-3,-1.0816676E-2,-6.1278194E-3,-5.231192E-4,3.697771E-3,1.9037502E-2,-2.04291E-2,-4.4114466E-4,3.5900302E-2,1.00387335E-2,-8.717716E-3,3.586048E-3,-1.6140943E-2,-4.9059976E-2,1.958969E-2,8.9784886E-4,7.7434047E-3,-3.397226E-2,4.3249235E-2,1.6833064E-1,2.228038E-2,4.2477816E-2,1.8227337E-2,1.2497784E-2,2.3017729E-2,1.2753624E-2,8.546262E-2,4.2655747E-2,3.5757727E-3,9.9710494E-2,8.481519E-3,3.342935E-2,4.49453E-2,2.3775807E-2,-1.5617202E-2,1.7128417E-2,2.5458338E-2,1.834634E-2,1.20714065E-2,2.2520171E-2,1.50813265E-2,1.2090549E-2,1.0436075E-2,2.3308838E-2,9.770333E-3,7.620516E-3,9.041616E-3,1.1922739E-2,1.2281669E-2,5.344136E-2],"split_indices":[1,1,5,1,5,1,5,2,1,2,4,2,1,1,7,0,5,5,2,4,4,10,5,0,1,7,1,1,1,1,2,1,9,10,2,0,1,0,4,2,10,4,5,5,5,0,0,2,0,0,1,5,10,2,1,1,2,5,1,1,0,1,1,0,0,5,1,1,5,0,0,2,5,2,5,0,2,2,2,5,5,2,5,4,4,4,4,2,0,10,1,5,4,5,5,4,1,1,4,4,7,5,5,0,0,0,0,0,0,0,0,0,0,0,0,0,0,0,0,0,0,0,0,0,0,0,0,0,0,0,0,0,0,0,0,0,0,0,0,0,0,0,0,0,0,0,0,0,0,0,0,0,0,0,0,0,0,0,0,0,0,0,0,0,0,0,0,0,0,0,0,0,0,0,0,0,0],"split_type":[0,0,0,0,0,0,0,0,0,0,0,0,0,0,0,0,0,0,0,0,0,0,0,0,0,0,0,0,0,0,0,0,0,0,0,0,0,0,0,0,0,0,0,0,0,0,0,0,0,0,0,0,0,0,0,0,0,0,0,0,0,0,0,0,0,0,0,0,0,0,0,0,0,0,0,0,0,0,0,0,0,0,0,0,0,0,0,0,0,0,0,0,0,0,0,0,0,0,0,0,0,0,0,0,0,0,0,0,0,0,0,0,0,0,0,0,0,0,0,0,0,0,0,0,0,0,0,0,0,0,0,0,0,0,0,0,0,0,0,0,0,0,0,0,0,0,0,0,0,0,0,0,0,0,0,0,0,0,0,0,0,0,0,0,0,0,0,0,0,0,0,0,0,0,0,0,0],"sum_hessian":[7.917E3,3.788E3,4.129E3,1.562E3,2.226E3,5.3E1,4.076E3,9.41E2,6.21E2,5.36E2,1.69E3,7E0,4.6E1,6.14E2,3.462E3,1E0,9.4E2,5.32E2,8.9E1,1.2E1,5.24E2,7.25E2,9.65E2,2E0,5E0,1.6E1,3E1,3.12E2,3.02E2,2.747E3,7.15E2,1.2E1,9.28E2,5E0,5.27E2,2E0,8.7E1,1E0,1.1E1,4.73E2,5.1E1,2.95E2,4.3E2,5.28E2,4.37E2,4E0,1E0,1.5E1,1E0,4E0,2.6E1,9.3E1,2.19E2,6.1E1,2.41E2,1.959E3,7.88E2,6.27E2,8.8E1,1E1,2E0,4.47E2,4.81E2,2E0,3E0,3.86E2,1.41E2,6.1E1,2.6E1,3E0,8E0,3.56E2,1.17E2,2.9E1,2.2E1,1.15E2,1.8E2,1.37E2,2.93E2,9.6E1,4.32E2,9.7E1,3.4E2,3E0,1.2E1,6E0,2E1,9.1E1,2E0,1.79E2,4E1,4.5E1,1.6E1,5.1E1,1.9E2,1.431E3,5.28E2,5.9E1,7.29E2,1.76E2,4.51E2,6.5E1,2.3E1,8E0,2E0,8.1E1,3.66E2,4.72E2,9E0,2.1E1,3.65E2,7.4E1,6.7E1,3E1,3.1E1,2E0,2.4E1,2.88E2,6.8E1,1.1E1,1.06E2,1E1,1.9E1,8E0,1.4E1,9E1,9E1,6.9E1,6.8E1,1.75E2,1.18E2,7.1E1,2.5E1,2.1E1,4.11E2,6E0,9.1E1,4.5E1,2.95E2,2E0,1E0,5E0,7E0,3E0,3E0,1E1,1E1,7.4E1,1.7E1,4.5E1,1.34E2,2.3E1,1.7E1,6E0,3.9E1,2E0,1.4E1,4.9E1,2E0,3.3E1,1.57E2,1E1,1.421E3,4.43E2,8.5E1,1.5E1,4.4E1,3.48E2,3.81E2,1.65E2,1.1E1,3.15E2,1.36E2,3.5E1,3E1,1.5E1,8E0],"tree_param":{"num_deleted":"0","num_feature":"12","num_nodes":"177","size_leaf_vector":"0"}},{"base_weights":[4.9524456E-1,5.3289145E-2,8.952663E-1,2.064393E-1,-5.6151815E-2,4.1457815E0,8.4985E-1,5.8406633E-3,4.5236024E-1,-1.5074345E0,-4.6622206E-2,2.0620682E0,5.2432513E0,1.2338674E0,7.8190213E-1,5.811325E-1,-1.0870645E-3,3.623458E0,4.416199E-1,-4.5861965E-1,-3.531615E-2,6.969693E0,3.0926338E-1,1.3625641E1,3.8060415E0,9.3886036E-1,1.5303688E0,5.047149E-1,8.5697377E-1,1.026922E0,4.313399E-1,6.429995E-2,-2.5585797E-2,4.521411E0,1.8086617E0,2.8640327E-1,5.344301E-1,-8.253816E-1,4.239626E-1,-7.47105E-2,6.0685E-2,2.8632345E0,-1.4436834E-1,2.0647947E1,1.0412957E1,-2.8640297E-1,5.643383E0,1.3514112E0,7.8619194E-1,2.7325866E0,1.1519021E0,4.722062E-1,7.272385E-1,9.331196E-1,6.9173825E-1,2.5406495E-1,6.675463E-1,5.772871E-2,4.0381944E-1,-4.78783E-2,5.9575435E-2,3.746211E-1,2.6234033E-2,9.319992E-1,5.024776E-1,-1.0976142E0,-4.6311307E-1,6.618973E-1,-1.1940047E0,5.289831E-1,-8.8333815E-2,7.986813E-2,-6.06268E-1,8.1648064E-1,4.18326E0,-1.0957173E0,1.6580561E-1,1.5241152E-1,-5.7381994E-1,8.997858E0,4.501825E0,1.2404803E0,5.0186806E0,8.031336E-1,-9.5603013E-1,2.13059E0,4.6356716E0,1.9581053E0,9.4607246E-1,4.4900423E-1,5.7020587E-1,1.2529644E0,4.9881056E-1,8.254658E-1,1.2664887E0,7.921785E-1,6.6616696E-1,3.750299E-1,-1.918819E-1,2.0746294E-1,8.289522E-1,1.6439724E-1,4.0707834E-2,2.0342764E-1,7.9308456E-1,3.8161445E-2,-5.783698E-2,-7.804537E-2,1.1727477E-1,1.9179437E-1,4.8368275E-1,1.5924183E-1,1.21240625E-2,6.3189197E-1,1.056301E0,4.4691795E-1,6.6488755E-1,-1.971385E-2,-1.144945E0,1.7328047E0,-6.239593E-1,1.955251E0,5.251796E-1,-8.7605923E-1,9.1410905E-1,-4.2072913E-1,-6.8674974E-2,1.5980812E-2,4.513976E-1,2.964732E-1,-8.031047E-1,-1.2687707E0,-5.0817585E-1,4.0079907E-1,-1.871105E-1,7.079118E-1,-8.07702E-2,4.949249E0,9.122988E-1,1.1133829E0,2.4704108E0,9.0720713E-1,6.898168E-1,-1.7446231E0,6.0947802E-2,3.3507123E0,1.7384399E0,5.5033126E0,1.6060463E0,1.4578605E0,1.1390659E1,4.795432E-1,1.0559019E0,4.622869E-1,7.032113E-2,1.161478E-1,5.772536E-1,6.275994E-1,4.6648264E0,2.8155056E-1,5.601886E-1,6.384971E-1,8.936551E-1,3.0725753E0,1.2523075E0,6.226151E-1,9.1502684E-1,8.253024E-1,6.5702516E-1],"categories":[],"categories_nodes":[],"categories_segments":[],"categories_sizes":[],"default_left":[true,true,true,true,true,true,true,true,true,false,true,true,true,true,true,true,true,true,true,true,true,false,true,true,true,true,true,true,true,false,true,true,true,false,false,true,true,true,true,true,true,true,true,false,false,true,true,true,true,true,true,true,true,true,true,true,true,true,true,true,true,true,true,true,true,true,true,true,false,true,true,true,true,false,false,true,true,true,false,false,true,true,false,true,true,true,true,true,true,true,true,true,true,true,true,true,true,false,false,false,false,false,false,false,false,false,false,false,false,false,false,false,false,false,false,false,false,false,false,false,false,false,false,false,false,false,false,false,false,false,false,false,false,false,false,false,false,false,false,false,false,false,false,false,false,false,false,false,false,false,false,false,false,false,false,false,false,false,false,false,false,false,false,false,false,false,false,false,false],"id":73,"left_children":[1,3,5,7,9,11,13,15,17,-1,19,21,23,25,27,29,31,33,35,37,39,-1,41,43,45,47,49,51,53,-1,55,57,59,-1,-1,61,63,65,67,69,71,73,75,-1,-1,77,79,81,83,85,87,89,91,93,95,97,99,101,103,105,107,109,111,113,115,117,119,121,-1,123,125,127,129,-1,-1,131,133,135,-1,-1,137,139,-1,141,143,145,147,149,151,153,155,157,159,161,163,165,167,-1,-1,-1,-1,-1,-1,-1,-1,-1,-1,-1,-1,-1,-1,-1,-1,-1,-1,-1,-1,-1,-1,-1,-1,-1,-1,-1,-1,-1,-1,-1,-1,-1,-1,-1,-1,-1,-1,-1,-1,-1,-1,-1,-1,-1,-1,-1,-1,-1,-1,-1,-1,-1,-1,-1,-1,-1,-1,-1,-1,-1,-1,-1,-1,-1,-1,-1,-1,-1,-1,-1,-1],"loss_changes":[1.4035792E3,6.3233715E1,6.1396216E2,7.7558014E1,3.0385365E1,1.27401184E2,1.0690112E2,3.4612262E0,2.3465164E1,0E0,1.01716385E1,1.740881E2,4.3222327E2,5.3483765E1,7.252881E1,5.215149E-1,1.3717561E0,9.853058E-1,1.0083649E1,1.900482E1,8.050863E0,0E0,1.7941406E1,4.8184082E1,2.437378E2,1.9161072E1,1.3873145E2,5.260071E0,3.4341187E1,0E0,2.792486E-1,5.0622416E-1,1.1841561E0,0E0,0E0,6.057873E0,5.4170685E0,3.8845863E0,6.928832E0,1.2422522E1,7.932542E0,5.0941925E0,4.0083375E0,0E0,0E0,1.3384609E0,7.182184E1,3.173584E1,6.963867E0,8.062445E1,3.8226227E1,1.3810883E0,1.1095146E1,6.710376E1,2.0334473E0,3.1431797E-1,1.7541134E-1,4.1121876E-1,2.7001977E-1,4.245826E-1,1.0306009E0,3.8941383E0,1.23278946E-1,9.5950127E-1,3.5696182E0,1.1662865E0,6.8202076E0,2.333521E0,0E0,1.830494E1,9.630495E0,1.4287928E1,3.166656E0,0E0,0E0,9.857893E-2,8.8504195E-1,5.8933836E-1,0E0,0E0,2.6248932E1,1.1745789E1,0E0,2.4259644E0,1.930876E0,2.4938873E1,4.2514435E1,2.1762617E2,9.407944E0,2.6390305E0,3.6242294E-1,5.9402187E1,8.199539E-1,1.792157E1,1.0394226E1,3.419548E0,8.08136E-1,0E0,0E0,0E0,0E0,0E0,0E0,0E0,0E0,0E0,0E0,0E0,0E0,0E0,0E0,0E0,0E0,0E0,0E0,0E0,0E0,0E0,0E0,0E0,0E0,0E0,0E0,0E0,0E0,0E0,0E0,0E0,0E0,0E0,0E0,0E0,0E0,0E0,0E0,0E0,0E0,0E0,0E0,0E0,0E0,0E0,0E0,0E0,0E0,0E0,0E0,0E0,0E0,0E0,0E0,0E0,0E0,0E0,0E0,0E0,0E0,0E0,0E0,0E0,0E0,0E0,0E0,0E0,0E0,0E0,0E0,0E0,0E0],"parents":[2147483647,0,0,1,1,2,2,3,3,4,4,5,5,6,6,7,7,8,8,10,10,11,11,12,12,13,13,14,14,15,15,16,16,17,17,18,18,19,19,20,20,22,22,23,23,24,24,25,25,26,26,27,27,28,28,30,30,31,31,32,32,35,35,36,36,37,37,38,38,39,39,40,40,41,41,42,42,45,45,46,46,47,47,48,48,49,49,50,50,51,51,52,52,53,53,54,54,55,55,56,56,57,57,58,58,59,59,60,60,61,61,62,62,63,63,64,64,65,65,66,66,67,67,69,69,70,70,71,71,72,72,75,75,76,76,77,77,80,80,81,81,83,83,84,84,85,85,86,86,87,87,88,88,89,89,90,90,91,91,92,92,93,93,94,94,95,95,96,96],"right_children":[2,4,6,8,10,12,14,16,18,-1,20,22,24,26,28,30,32,34,36,38,40,-1,42,44,46,48,50,52,54,-1,56,58,60,-1,-1,62,64,66,68,70,72,74,76,-1,-1,78,80,82,84,86,88,90,92,94,96,98,100,102,104,106,108,110,112,114,116,118,120,122,-1,124,126,128,130,-1,-1,132,134,136,-1,-1,138,140,-1,142,144,146,148,150,152,154,156,158,160,162,164,166,168,-1,-1,-1,-1,-1,-1,-1,-1,-1,-1,-1,-1,-1,-1,-1,-1,-1,-1,-1,-1,-1,-1,-1,-1,-1,-1,-1,-1,-1,-1,-1,-1,-1,-1,-1,-1,-1,-1,-1,-1,-1,-1,-1,-1,-1,-1,-1,-1,-1,-1,-1,-1,-1,-1,-1,-1,-1,-1,-1,-1,-1,-1,-1,-1,-1,-1,-1,-1,-1,-1,-1,-1],"split_conditions":[6.621175E-1,6.572582E-1,1.7554916E-2,3.8253418E-1,2.7272727E-2,8.2218254E-1,1.7455888E-1,5E-1,5E-1,-3.0148689E-2,6.142506E-3,7.6935333E-1,8.349742E-1,8.2552147E-1,9.8790765E-1,2.7272727E-2,1.0025515E-1,3.9780295E-1,4.4565028E-1,1.6204537E-1,8.30303E-1,1.3939387E-1,9.8790765E-1,2.7272727E-2,8.571358E-1,7.664299E-1,8.3047175E-1,9.212121E-1,8.349742E-1,2.053844E-2,2.4243233E-1,9.780176E-2,3.279013E-1,9.042822E-2,3.6173232E-2,4.3256068E-1,1.4377025E-1,1.389089E-1,1.810407E-1,4.1296717E-4,9.657904E-1,7.9534507E-1,2.7272727E-2,4.1295895E-1,2.0825914E-1,8.4844077E-1,2.7272727E-2,1.7293844E-1,1.7338856E-1,9.212121E-1,4.222182E-2,9.5665354E-1,1.4619164E-1,8.2218254E-1,3.5082823E-1,1.8202345E-1,2.607362E-2,1.407094E-1,9.533169E-1,1.4557076E-1,7.559238E-2,3.989272E-1,4.2424244E-1,7.920965E-1,8.30303E-1,1.8995319E-2,1.39269E-1,1.6312568E-1,-2.3880092E-2,3.7810586E-2,6.1667267E-2,8.3282316E-1,6.621622E-1,1.6329613E-2,8.36652E-2,8.0460525E-1,7.958708E-1,2.7272727E-2,-1.1476398E-2,1.7995715E-1,9.28372E-1,7.6206964E-1,1.0037361E-1,9.245589E-2,8.0460525E-1,4.879366E-2,2.4815723E-1,4.078142E-2,8.571358E-1,9.345995E-1,7.739557E-2,6.2630534E-1,3.4520882E-1,7.554066E-1,1.8427517E-2,8.76709E-1,1.3882065E-1,7.5005977E-3,-3.8376378E-3,4.1492586E-3,1.6579043E-2,3.2879447E-3,8.1415667E-4,4.068553E-3,1.586169E-2,7.632289E-4,-1.1567395E-3,-1.5609073E-3,2.3454954E-3,3.8358872E-3,9.673655E-3,3.1848364E-3,2.4248124E-4,1.2637839E-2,2.1126019E-2,8.938359E-3,1.3297751E-2,-3.94277E-4,-2.28989E-2,3.4656093E-2,-1.2479186E-2,3.910502E-2,1.0503592E-2,-1.7521184E-2,1.828218E-2,-8.414582E-3,-1.3734994E-3,3.1961623E-4,9.027951E-3,5.929464E-3,-1.6062094E-2,-2.5375413E-2,-1.0163517E-2,8.015981E-3,-3.7422099E-3,1.4158236E-2,-1.615404E-3,9.898497E-2,1.8245976E-2,2.2267658E-2,4.9408216E-2,1.8144142E-2,1.3796335E-2,-3.4892462E-2,1.218956E-3,6.701425E-2,3.4768797E-2,1.1006625E-1,3.2120924E-2,2.9157208E-2,2.2781318E-1,9.590864E-3,2.1118037E-2,9.245737E-3,1.4064225E-3,2.322956E-3,1.1545071E-2,1.25519885E-2,9.329653E-2,5.631011E-3,1.1203771E-2,1.2769942E-2,1.7873103E-2,6.1451506E-2,2.504615E-2,1.2452302E-2,1.8300537E-2,1.6506048E-2,1.3140503E-2],"split_indices":[1,1,5,1,2,1,5,0,0,0,11,1,1,1,6,2,1,1,1,5,2,0,6,2,1,1,1,2,1,0,1,1,1,0,0,1,5,5,5,8,5,1,2,0,0,1,2,5,5,2,5,1,11,1,5,1,7,5,11,5,6,1,2,6,2,5,5,5,0,5,5,5,11,0,0,1,1,2,0,0,1,1,0,5,1,5,11,5,1,1,11,5,11,1,11,1,11,0,0,0,0,0,0,0,0,0,0,0,0,0,0,0,0,0,0,0,0,0,0,0,0,0,0,0,0,0,0,0,0,0,0,0,0,0,0,0,0,0,0,0,0,0,0,0,0,0,0,0,0,0,0,0,0,0,0,0,0,0,0,0,0,0,0,0,0,0,0,0,0],"split_type":[0,0,0,0,0,0,0,0,0,0,0,0,0,0,0,0,0,0,0,0,0,0,0,0,0,0,0,0,0,0,0,0,0,0,0,0,0,0,0,0,0,0,0,0,0,0,0,0,0,0,0,0,0,0,0,0,0,0,0,0,0,0,0,0,0,0,0,0,0,0,0,0,0,0,0,0,0,0,0,0,0,0,0,0,0,0,0,0,0,0,0,0,0,0,0,0,0,0,0,0,0,0,0,0,0,0,0,0,0,0,0,0,0,0,0,0,0,0,0,0,0,0,0,0,0,0,0,0,0,0,0,0,0,0,0,0,0,0,0,0,0,0,0,0,0,0,0,0,0,0,0,0,0,0,0,0,0,0,0,0,0,0,0,0,0,0,0,0,0],"sum_hessian":[7.939E3,3.772E3,4.167E3,1.572E3,2.2E3,5.7E1,4.11E3,8.66E2,7.06E2,1.4E1,2.186E3,2E1,3.7E1,6.17E2,3.493E3,1E1,8.56E2,2E0,7.04E2,5.8E1,2.128E3,5E0,1.5E1,5E0,3.2E1,3.1E2,3.07E2,7.45E2,2.748E3,2E0,8E0,2.33E2,6.23E2,1E0,1E0,2.64E2,4.4E2,4.1E1,1.7E1,1.509E3,6.19E2,2E0,1.3E1,1E0,4E0,1E1,2.2E1,8.3E1,2.27E2,7.3E1,2.34E2,6.51E2,9.4E1,1.88E3,8.68E2,5E0,3E0,2.29E2,4E0,4.94E2,1.29E2,1.97E2,6.7E1,3.2E1,4.08E2,2.3E1,1.8E1,1.5E1,2E0,3.3E1,1.476E3,6.02E2,1.7E1,1E0,1E0,3E0,1E1,4E0,6E0,5E0,1.7E1,8.1E1,2E0,2.25E2,2E0,5.6E1,1.7E1,4.7E1,1.87E2,5.28E2,1.23E2,2.8E1,6.6E1,1.422E3,4.58E2,1.74E2,6.94E2,4E0,1E0,1E0,2E0,3.1E1,1.98E2,3E0,1E0,5.1E1,4.43E2,3.8E1,9.1E1,7.4E1,1.23E2,6E0,6.1E1,1E1,2.2E1,3.05E2,1.03E2,1E0,2.2E1,1E0,1.7E1,1E0,1.4E1,7E0,2.6E1,8.2E1,1.394E3,5.14E2,8.8E1,3E0,1.4E1,2E0,1E0,6E0,4E0,1E0,3E0,1.5E1,2E0,7.4E1,7E0,1.16E2,1.09E2,1E0,1E0,1.3E1,4.3E1,1.3E1,4E0,4.5E1,2E0,3.6E1,1.51E2,5.1E2,1.8E1,2E0,1.21E2,2.4E1,4E0,1.5E1,5.1E1,3.81E2,1.041E3,3E0,4.55E2,7.4E1,1E2,3.6E1,6.58E2],"tree_param":{"num_deleted":"0","num_feature":"12","num_nodes":"169","size_leaf_vector":"0"}},{"base_weights":[4.8298928E-1,3.0261507E-2,8.8949037E-1,2.038814E-1,-9.28391E-2,9.561102E0,8.6329913E-1,4.700822E-3,4.6628106E-1,-5.780356E-1,-6.113013E-2,1.6430428E1,4.1284804E0,3.274373E0,8.40445E-1,4.5755485E-1,-1.7914867E-3,3.5692031E0,4.5502484E-1,-1.7258811E0,-4.5866776E-1,-6.46171E-2,1.2615445E0,3.4073606E-1,3.7061142E1,-6.421215E-1,9.921481E0,9.430924E0,2.4650924E0,5.0059766E-1,9.251591E-1,3.0666956E-1,8.299708E-1,-4.044533E-2,3.6472216E-2,4.4535966E0,1.7815346E0,3.6733952E-1,6.5056604E-1,-3.780795E-1,-9.294475E-1,-6.123788E-2,-8.7672496E-1,2.0901353E0,5.5104E-1,-1.8618164E0,4.1205177E0,6.972942E-1,-1.117964E0,9.74804E-1,3.2506456E0,4.4404793E-1,5.628557E-1,1.2949141E0,8.561061E-1,1.1318028E-1,5.179182E-1,4.3764174E-2,-5.8743563E-2,1.6685471E-2,1.3279693E-1,3.2424837E-1,5.147866E-1,9.678787E-1,5.87112E-1,-4.092499E-1,1.0234457E0,-1.158388E0,-6.341302E-1,-9.677007E-2,4.1079456E-3,-9.8532104E-1,-6.1098963E-1,1.7313488E0,-1.9608732E-1,3.7116728E0,3.239347E-1,9.084913E0,1.3920932E0,5.5226374E-1,4.076193E-1,7.394561E-1,4.937797E-1,8.7833786E-1,1.6937753E0,9.2089576E-1,6.841047E-1,2.0074883E-1,-1.8900402E-1,7.508084E-1,2.0490058E-1,1.4829692E-1,2.1301445E-2,-2.0704035E-2,-6.634845E-2,1.0641814E-1,-1.216451E-2,2.3004383E-1,-5.392442E-2,7.014312E-1,3.02071E-1,1.2191023E0,4.8185724E-1,1.0436792E0,5.0200623E-1,6.2681067E-1,3.2744262E-1,-4.6645576E-1,3.4327716E-1,-1.1852509E-1,1.9201725E0,-1.23995036E-1,-7.8644115E-1,-8.377959E-2,-8.760427E-1,1.4697561E0,-9.071787E-3,-8.190989E-1,-8.3322756E-2,8.0423456E-1,5.6802073E0,5.706164E-1,-2.4687938E-1,1.0220724E1,3.1111622E0,-5.7371664E-1,2.2057028E0,4.6990362E-1,6.9990295E-1,4.9725667E-1,3.7851456E-1,5.9621197E-1,1.5244781E0,2.365626E-1,5.472096E-1,1.4481156E0,7.1909267E-1,2.6440265E0,1.289783E0,8.0917335E-1,1.202107E0,1.3783984E0,6.731338E-1],"categories":[],"categories_nodes":[],"categories_segments":[],"categories_sizes":[],"default_left":[true,true,true,true,true,true,true,true,true,true,true,true,true,true,true,true,true,true,true,false,true,true,true,true,false,true,false,false,true,true,true,true,false,true,true,false,false,true,true,true,true,true,true,false,true,false,false,false,false,true,true,true,true,true,true,true,true,true,true,true,true,true,true,true,true,true,true,false,true,true,true,false,true,false,false,true,true,true,true,true,true,true,true,true,true,true,true,false,false,false,false,false,false,false,false,false,false,false,false,false,false,false,false,false,false,false,false,false,false,false,false,false,false,false,false,false,false,false,false,false,false,false,false,false,false,false,false,false,false,false,false,false,false,false,false,false,false,false,false,false,false,false,false],"id":74,"left_children":[1,3,5,7,9,11,13,15,17,19,21,23,25,27,29,31,33,35,37,-1,39,41,43,45,-1,47,-1,-1,49,51,53,55,-1,57,59,-1,-1,61,63,65,67,69,71,-1,73,-1,-1,-1,-1,75,77,79,81,83,85,87,89,91,93,95,97,99,101,103,105,107,109,-1,111,113,115,-1,117,-1,-1,119,121,123,125,127,129,131,133,135,137,139,141,-1,-1,-1,-1,-1,-1,-1,-1,-1,-1,-1,-1,-1,-1,-1,-1,-1,-1,-1,-1,-1,-1,-1,-1,-1,-1,-1,-1,-1,-1,-1,-1,-1,-1,-1,-1,-1,-1,-1,-1,-1,-1,-1,-1,-1,-1,-1,-1,-1,-1,-1,-1,-1,-1,-1,-1],"loss_changes":[1.434587E3,7.88376E1,9.2995825E2,7.9975296E1,3.3185234E1,4.3735242E2,2.2468921E2,2.5656142E0,2.246457E1,1.783664E1,9.355812E0,1.7656578E3,2.0492538E2,1.8306958E2,1.16635254E2,5.9195304E-1,1.2700573E0,9.54443E-1,1.1193634E1,0E0,4.429535E0,5.5158386E0,2.7181587E0,3.0342205E1,0E0,3.0279002E0,0E0,0E0,3.9077255E1,2.7552032E0,8.251294E1,3.5295016E-1,0E0,6.595426E-1,8.192301E-1,0E0,0E0,2.8254013E0,3.882393E0,4.6451473E0,9.01392E-1,4.676174E0,1.695919E-2,0E0,3.0747027E0,0E0,0E0,0E0,0E0,2.1511642E1,2.3780147E2,1.5919113E0,4.54908E0,8.426221E1,3.0271729E1,1.539537E-1,2.5097072E-1,1.7576535E-1,9.993625E-2,9.2942464E-1,1.3382435E0,2.8706398E0,2.1532345E0,9.803505E-1,1.6738319E0,4.417454E0,2.4911516E0,0E0,6.0199904E-1,1.31657715E1,1.372737E1,0E0,3.304249E-1,0E0,0E0,1.173951E1,1.5066451E0,2.539386E1,2.8168453E1,1.1666107E0,7.604523E-1,1.1736282E1,3.7570724E0,2.2335693E1,9.874713E1,6.208423E1,5.376648E0,0E0,0E0,0E0,0E0,0E0,0E0,0E0,0E0,0E0,0E0,0E0,0E0,0E0,0E0,0E0,0E0,0E0,0E0,0E0,0E0,0E0,0E0,0E0,0E0,0E0,0E0,0E0,0E0,0E0,0E0,0E0,0E0,0E0,0E0,0E0,0E0,0E0,0E0,0E0,0E0,0E0,0E0,0E0,0E0,0E0,0E0,0E0,0E0,0E0,0E0,0E0,0E0,0E0,0E0,0E0,0E0],"parents":[2147483647,0,0,1,1,2,2,3,3,4,4,5,5,6,6,7,7,8,8,9,9,10,10,11,11,12,12,13,13,14,14,15,15,16,16,17,17,18,18,20,20,21,21,22,22,23,23,25,25,28,28,29,29,30,30,31,31,33,33,34,34,37,37,38,38,39,39,40,40,41,41,42,42,44,44,49,49,50,50,51,51,52,52,53,53,54,54,55,55,56,56,57,57,58,58,59,59,60,60,61,61,62,62,63,63,64,64,65,65,66,66,68,68,69,69,70,70,72,72,75,75,76,76,77,77,78,78,79,79,80,80,81,81,82,82,83,83,84,84,85,85,86,86],"right_children":[2,4,6,8,10,12,14,16,18,20,22,24,26,28,30,32,34,36,38,-1,40,42,44,46,-1,48,-1,-1,50,52,54,56,-1,58,60,-1,-1,62,64,66,68,70,72,-1,74,-1,-1,-1,-1,76,78,80,82,84,86,88,90,92,94,96,98,100,102,104,106,108,110,-1,112,114,116,-1,118,-1,-1,120,122,124,126,128,130,132,134,136,138,140,142,-1,-1,-1,-1,-1,-1,-1,-1,-1,-1,-1,-1,-1,-1,-1,-1,-1,-1,-1,-1,-1,-1,-1,-1,-1,-1,-1,-1,-1,-1,-1,-1,-1,-1,-1,-1,-1,-1,-1,-1,-1,-1,-1,-1,-1,-1,-1,-1,-1,-1,-1,-1,-1,-1,-1,-1],"split_conditions":[6.621175E-1,6.572582E-1,2.7272727E-2,3.8399246E-1,5.9866764E-2,8.349742E-1,1.7734967E-2,2.4576882E-2,5E-1,2.7272727E-2,9.975693E-1,8.2200134E-1,8.7090075E-1,7.703592E-1,9.8790765E-1,6.736668E-2,1.3484347E-1,3.9780295E-1,6.341465E-1,-3.451762E-2,4.8703637E-2,9.9360824E-1,9.983796E-1,8.0442405E-1,7.412228E-1,8.4844077E-1,1.9842961E-1,1.8861848E-1,8.2218254E-1,8.147807E-1,1.7131796E-1,2.4243233E-1,1.6599415E-2,9.948173E-2,3.3081108E-1,8.907193E-2,3.563069E-2,5.4282683E-1,2.9276198E-1,4.699316E-2,5.42852E-2,6.8518186E-1,9.533169E-1,4.1802704E-2,6.965602E-1,-3.7236325E-2,8.241035E-2,1.3945883E-2,-2.235928E-2,9.8790765E-1,8.349742E-1,3.3876485E-1,2.923833E-1,8.2218254E-1,8.4422266E-1,1.8202345E-1,3.1730676E-1,1.493518E-1,2.314548E-1,8.23977E-2,3.757258E-1,3.8608843E-1,1.4377025E-1,6.4979887E-1,6.4979887E-1,8.2186735E-1,7.3939395E-1,-2.316776E-2,5.6445807E-2,6.74919E-1,6.894131E-1,-1.970642E-2,9.9657905E-1,3.4626976E-2,-3.9217463E-3,7.847458E-1,8.0460525E-1,5E-1,8.571358E-1,5.8854413E-1,7.2128004E-1,6.385488E-1,9.5682657E-1,7.6706135E-1,8.349742E-1,8.2218254E-1,1.8427517E-2,4.0149763E-3,-3.7800802E-3,1.5016168E-2,4.0980116E-3,2.9659383E-3,4.2602888E-4,-4.1408069E-4,-1.3269689E-3,2.1283627E-3,-2.432902E-4,4.6008765E-3,-1.0784883E-3,1.4028624E-2,6.04142E-3,2.4382045E-2,9.637144E-3,2.0873584E-2,1.0040125E-2,1.2536213E-2,6.548852E-3,-9.329115E-3,6.865543E-3,-2.3705016E-3,3.8403448E-2,-2.4799006E-3,-1.5728822E-2,-1.6755917E-3,-1.7520854E-2,2.9395122E-2,-1.8143574E-4,-1.6381977E-2,-1.6664551E-3,1.6084692E-2,1.1360414E-1,1.1412328E-2,-4.937588E-3,2.0441447E-1,6.222324E-2,-1.1474333E-2,4.4114053E-2,9.398072E-3,1.3998059E-2,9.945133E-3,7.570291E-3,1.1924239E-2,3.048956E-2,4.731252E-3,1.0944192E-2,2.896231E-2,1.4381853E-2,5.288053E-2,2.5795659E-2,1.6183466E-2,2.4042139E-2,2.7567968E-2,1.3462676E-2],"split_indices":[1,1,2,1,5,1,5,5,0,2,5,1,1,1,6,7,6,1,1,0,5,5,5,1,0,1,0,0,1,1,5,1,0,1,1,0,0,7,5,5,5,5,11,0,11,0,0,0,0,6,1,5,11,1,1,1,1,5,5,1,1,1,5,1,1,11,2,0,5,5,5,0,5,0,0,1,1,0,1,7,1,5,6,1,1,1,11,0,0,0,0,0,0,0,0,0,0,0,0,0,0,0,0,0,0,0,0,0,0,0,0,0,0,0,0,0,0,0,0,0,0,0,0,0,0,0,0,0,0,0,0,0,0,0,0,0,0,0,0,0,0,0,0],"split_type":[0,0,0,0,0,0,0,0,0,0,0,0,0,0,0,0,0,0,0,0,0,0,0,0,0,0,0,0,0,0,0,0,0,0,0,0,0,0,0,0,0,0,0,0,0,0,0,0,0,0,0,0,0,0,0,0,0,0,0,0,0,0,0,0,0,0,0,0,0,0,0,0,0,0,0,0,0,0,0,0,0,0,0,0,0,0,0,0,0,0,0,0,0,0,0,0,0,0,0,0,0,0,0,0,0,0,0,0,0,0,0,0,0,0,0,0,0,0,0,0,0,0,0,0,0,0,0,0,0,0,0,0,0,0,0,0,0,0,0,0,0,0,0],"sum_hessian":[7.795E3,3.688E3,4.107E3,1.53E3,2.158E3,1.2E1,4.095E3,8.7E2,6.6E2,1.32E2,2.026E3,5E0,7E0,3.8E1,4.057E3,1.2E1,8.58E2,2E0,6.58E2,1.2E1,1.2E2,2.021E3,5E0,3E0,2E0,4E0,3E0,4E0,3.4E1,8.1E2,3.247E3,9E0,3E0,4.27E2,4.31E2,1E0,1E0,4.55E2,2.03E2,1.03E2,1.7E1,2.013E3,8E0,2E0,3E0,2E0,1E0,1E0,3E0,1.2E1,2.2E1,4.26E2,3.84E2,5.1E2,2.737E3,5E0,4E0,7.6E1,3.51E2,3.58E2,7.3E1,3.53E2,1.02E2,3.3E1,1.7E2,1.01E2,2E0,9E0,8E0,1.304E3,7.09E2,5E0,3E0,1E0,2E0,2E0,1E1,5E0,1.7E1,1.06E2,3.2E2,1.07E2,2.77E2,2.5E2,2.6E2,1.987E3,7.5E2,4E0,1E0,2E0,2E0,1.3E1,6.3E1,5.9E1,2.92E2,8.7E1,2.71E2,4.8E1,2.5E1,1.9E1,3.34E2,4E0,9.8E1,2.8E1,5E0,1.47E2,2.3E1,9.4E1,7E0,1E0,1E0,2E0,6E0,1.283E3,2.1E1,6E0,7.03E2,2E0,1E0,1E0,1E0,7E0,3E0,4E0,1E0,5E0,1.2E1,6.9E1,3.7E1,7.7E1,2.43E2,9.1E1,1.6E1,4.8E1,2.29E2,5.4E1,1.96E2,7.7E1,1.83E2,1.423E3,5.64E2,1.1E1,7.39E2],"tree_param":{"num_deleted":"0","num_feature":"12","num_nodes":"143","size_leaf_vector":"0"}},{"base_weights":[4.8105088E-1,4.2639337E-2,8.776553E-1,1.9739726E-1,-6.601254E-2,3.9781106E0,8.14321E-1,1.5557025E-2,4.699802E-1,-7.171143E-1,-4.4336043E-2,2.0933466E0,4.9189706E0,8.916112E-1,5.142339E-1,-1.0254519E-3,2.0738114E-1,1.9318193E0,4.6183598E-1,-1.4181231E-1,-7.3282176E-1,-5.6798164E-2,1.9221659E-1,6.1706624E0,6.5836143E-1,8.77964E0,3.6639185E0,1.178875E0,8.376922E-1,8.355013E-1,4.9302468E-1,3.5252768E-1,-7.4626226E-3,6.9769126E-1,-3.0747442E-2,3.840691E-1,6.2619317E-1,-6.864368E-1,-8.6844707E-1,-1.889107E-1,-3.9777838E-2,4.314266E-1,-9.164314E-2,4.9164023E0,1.0574068E1,2.8445366E-1,3.656095E0,1.309974E1,5.6617126E0,-4.5928586E-1,5.300588E0,1.8342927E0,1.122045E0,9.0529996E-1,6.8667775E-1,2.115213E0,7.9577947E-1,4.3267572E-1,5.590226E-1,2.1035464E-1,6.0326844E-1,7.753954E-2,-2.6032977E-2,1.0833087E0,6.033647E-1,1.3032694E-1,-2.9200578E-1,4.1271508E-1,1.8778168E-1,6.777651E-1,3.0828297E-1,-7.187773E-1,-2.621487E-1,-1.9137036E0,-6.770808E-1,-5.313038E-2,-7.9756093E-1,-7.412592E-2,4.3932818E-2,-3.99243E-1,5.663817E-1,8.2106754E-2,-5.638863E-1,8.154225E0,3.7968147E0,3.9687267E-1,-5.8515406E-1,7.921723E-1,5.5950127E0,1.5498796E-1,-7.6204604E-1,7.0270634E0,2.5897422E0,6.522766E-1,2.4539013E0,1.4927658E0,1.0185558E0,7.982118E-1,1.2407341E0,7.389207E-1,6.34477E-1,7.4688166E-1,1.6887693E0,6.881335E-1,4.1765314E-1,7.0777756E-1,5.0314015E-1,2.6101854E-1,-1.861692E-1,7.4180865E-1,3.1303275E-1,1.1092072E-1,4.7398712E-2,-3.9541222E-2,3.4003004E-2,1.3393342E-1,6.245975E-1,4.475372E-1,1.03125066E-1,-1.8679842E-1,-3.9652392E-1,3.2567698E-1,4.9041378E-1,7.563895E-1,1.7212346E-1,5.9117556E-1,1.1432368E0,-5.047349E-2,3.36711E-1,-6.3371134E-1,-2.641978E-2,-5.072572E-1,-8.7044007E-1,-2.1140844E-2,-1.8403253E-1,-5.553943E-1,5.9529543E-2,-9.609731E-1,1.8991826E-1,9.0451455E-1,2.7029964E-1,-5.165344E-2,1.0771093E0,1.2922545E-1,-8.670751E-1,4.2806373E0,1.264308E0,3.0513078E-1,5.378924E-1,7.7639403E0,8.588507E-1,2.3668551E0,4.634194E-1,1.8926458E0,4.542776E0,2.8510733E0,1.2842995E0,9.0343255E-1,1.194614E0,5.8968806E-1,8.6827976E-1,1.9361532E0,1.1867356E0,1.1160228E0,7.016114E-1,6.141011E-1,7.4994916E-1,6.490641E-1,9.085132E-1,1.1823221E0,5.580278E-1,1.3242103E-1,4.2577037E-1,1.3723478E0,6.3788915E-1,5.730209E-1,2.3628764E-1],"categories":[],"categories_nodes":[],"categories_segments":[],"categories_sizes":[],"default_left":[true,true,true,true,true,true,true,true,true,true,true,true,true,true,true,true,true,false,true,false,true,true,true,true,true,true,true,true,true,true,true,true,true,true,true,true,true,true,true,true,true,true,true,true,false,true,true,false,false,true,true,true,true,true,true,false,true,true,true,true,true,true,true,false,true,true,true,true,true,true,true,false,false,false,false,true,true,true,true,true,true,true,true,false,true,true,false,false,false,false,false,true,false,true,true,true,true,true,true,true,true,true,false,true,true,true,true,false,false,false,false,false,false,false,false,false,false,false,false,false,false,false,false,false,false,false,false,false,false,false,false,false,false,false,false,false,false,false,false,false,false,false,false,false,false,false,false,false,false,false,false,false,false,false,false,false,false,false,false,false,false,false,false,false,false,false,false,false,false,false,false,false,false,false,false,false,false],"id":75,"left_children":[1,3,5,7,9,11,13,15,17,19,21,23,25,27,29,31,33,-1,35,-1,37,39,41,43,45,47,49,51,53,55,57,59,61,63,65,67,69,71,73,75,77,79,81,83,-1,85,87,-1,-1,89,91,93,95,97,99,-1,101,103,105,107,109,111,113,-1,115,117,119,121,123,125,127,-1,-1,-1,-1,129,131,133,135,137,139,141,143,-1,145,147,-1,-1,-1,-1,-1,149,-1,151,153,155,157,159,161,163,165,167,-1,169,171,173,175,-1,-1,-1,-1,-1,-1,-1,-1,-1,-1,-1,-1,-1,-1,-1,-1,-1,-1,-1,-1,-1,-1,-1,-1,-1,-1,-1,-1,-1,-1,-1,-1,-1,-1,-1,-1,-1,-1,-1,-1,-1,-1,-1,-1,-1,-1,-1,-1,-1,-1,-1,-1,-1,-1,-1,-1,-1,-1,-1,-1,-1,-1,-1,-1,-1,-1,-1,-1,-1,-1],"loss_changes":[1.380086E3,6.3403393E1,8.1717114E2,7.7083145E1,3.1244873E1,1.4424133E2,9.455835E1,2.9718726E0,7.077545E0,5.9747696E-1,6.323092E0,1.6432382E2,2.5720508E2,4.9939697E1,5.5491333E0,1.9516966E0,8.695609E0,0E0,7.8214417E0,0E0,2.1520233E-1,4.575377E0,7.306199E0,2.2945923E1,2.3509161E1,1.5459851E2,2.8656085E2,1.8354553E1,2.7697021E1,2.0065765E0,3.037094E0,4.926933E-1,1.3327359E0,6.430788E-1,2.1331313E0,2.3346825E0,3.1679764E0,6.549969E-1,2.798088E0,1.9174408E1,5.192394E0,6.617152E0,4.0702314E0,1.2464218E1,0E0,1.9648056E0,1.1388437E1,0E0,0E0,2.3417947E0,1.3576123E2,2.8961655E1,1.7578491E1,6.747168E1,2.1348572E0,0E0,1.7424679E0,1.4707718E0,2.9757385E0,2.2486597E-1,1.21973276E-1,1.4825058E-1,5.6280756E-1,0E0,1.6395473E-1,2.4712247E-1,1.7957163E-1,2.419281E0,4.2709148E-1,6.6151733E0,2.9871583E-1,0E0,0E0,0E0,0E0,2.9366283E0,7.287617E-1,7.4516826E0,4.9145284E0,2.8298182E0,4.940851E0,4.8688655E0,2.849835E0,0E0,4.651169E0,1.5749335E-1,0E0,0E0,0E0,0E0,0E0,8.098297E1,0E0,4.2351894E0,2.791423E1,2.7696838E1,7.1162415E0,2.0736023E1,1.6325195E1,5.6408844E0,8.3006287E-1,5.45311E-1,0E0,1.1911316E0,8.769684E-1,4.38591E0,5.0403824E0,0E0,0E0,0E0,0E0,0E0,0E0,0E0,0E0,0E0,0E0,0E0,0E0,0E0,0E0,0E0,0E0,0E0,0E0,0E0,0E0,0E0,0E0,0E0,0E0,0E0,0E0,0E0,0E0,0E0,0E0,0E0,0E0,0E0,0E0,0E0,0E0,0E0,0E0,0E0,0E0,0E0,0E0,0E0,0E0,0E0,0E0,0E0,0E0,0E0,0E0,0E0,0E0,0E0,0E0,0E0,0E0,0E0,0E0,0E0,0E0,0E0,0E0,0E0,0E0,0E0,0E0,0E0,0E0,0E0,0E0],"parents":[2147483647,0,0,1,1,2,2,3,3,4,4,5,5,6,6,7,7,8,8,9,9,10,10,11,11,12,12,13,13,14,14,15,15,16,16,18,18,20,20,21,21,22,22,23,23,24,24,25,25,26,26,27,27,28,28,29,29,30,30,31,31,32,32,33,33,34,34,35,35,36,36,37,37,38,38,39,39,40,40,41,41,42,42,43,43,45,45,46,46,49,49,50,50,51,51,52,52,53,53,54,54,56,56,57,57,58,58,59,59,60,60,61,61,62,62,64,64,65,65,66,66,67,67,68,68,69,69,70,70,75,75,76,76,77,77,78,78,79,79,80,80,81,81,82,82,84,84,85,85,91,91,93,93,94,94,95,95,96,96,97,97,98,98,99,99,100,100,101,101,103,103,104,104,105,105,106,106],"right_children":[2,4,6,8,10,12,14,16,18,20,22,24,26,28,30,32,34,-1,36,-1,38,40,42,44,46,48,50,52,54,56,58,60,62,64,66,68,70,72,74,76,78,80,82,84,-1,86,88,-1,-1,90,92,94,96,98,100,-1,102,104,106,108,110,112,114,-1,116,118,120,122,124,126,128,-1,-1,-1,-1,130,132,134,136,138,140,142,144,-1,146,148,-1,-1,-1,-1,-1,150,-1,152,154,156,158,160,162,164,166,168,-1,170,172,174,176,-1,-1,-1,-1,-1,-1,-1,-1,-1,-1,-1,-1,-1,-1,-1,-1,-1,-1,-1,-1,-1,-1,-1,-1,-1,-1,-1,-1,-1,-1,-1,-1,-1,-1,-1,-1,-1,-1,-1,-1,-1,-1,-1,-1,-1,-1,-1,-1,-1,-1,-1,-1,-1,-1,-1,-1,-1,-1,-1,-1,-1,-1,-1,-1,-1,-1,-1,-1,-1,-1],"split_conditions":[6.621175E-1,6.572582E-1,6.724138E-2,3.989272E-1,7.4137926E-2,8.2218254E-1,7.090609E-2,3.8253418E-1,7.241379E-2,2.1276595E-3,7.827586E-1,7.703592E-1,8.349742E-1,2.5344828E-1,1.6034484E-1,7.4137926E-2,3.8608843E-1,3.8636386E-2,6.341465E-1,-2.836246E-3,3.5106385E-1,2.086207E-1,7.008511E-1,7.645918E-1,1.166234E-1,5E-1,8.571358E-1,9.6551724E-2,8.349742E-1,7.4137926E-2,8.147807E-1,2.3554277E-1,8.23977E-2,2.3103449E-1,3.9022523E-1,6.324857E-1,6.4979887E-1,5E-1,6.8723404E-1,6.621622E-1,6.965602E-1,6.4496315E-1,8.2186735E-1,7.290039E-1,2.1148136E-1,8.0966675E-1,7.847458E-1,2.619948E-1,1.1323425E-1,8.4844077E-1,5E-1,8.2218254E-1,1.8427517E-2,8.2218254E-1,4.3103448E-1,4.230426E-2,1.5E-1,6.808764E-1,2.923833E-1,2.2145727E-1,5E-1,3.3965516E-1,3.279013E-1,2.1666173E-2,3.8399246E-1,2.1896552E-1,3.9342475E-1,4.4565028E-1,1.5172413E-1,6.474741E-1,2.3793104E-1,-1.4375546E-2,-5.242974E-3,-3.8274072E-2,-1.3541616E-2,6E-2,1.3234043E-1,6.0565114E-1,4.1296717E-4,3.1148937E-1,6.965602E-1,9.9787235E-1,8.4482753E-1,1.630845E-1,7.554066E-1,3.5106385E-1,-1.17030805E-2,1.5843445E-2,1.1190025E-1,3.099759E-3,-1.5240921E-2,9.28372E-1,5.1794842E-2,7.759628E-1,8.275862E-2,7.6706135E-1,2.086207E-1,7.554066E-1,5.0082594E-1,5.0082594E-1,7.724138E-1,7.008511E-1,3.3775385E-2,2.5689656E-1,6.8848956E-1,2.7021277E-1,5.8854413E-1,5.220371E-3,-3.723384E-3,1.4836173E-2,6.260655E-3,2.2184143E-3,9.479742E-4,-7.908244E-4,6.8006007E-4,2.6786684E-3,1.249195E-2,8.950744E-3,2.0625012E-3,-3.7359684E-3,-7.930478E-3,6.5135392E-3,9.808276E-3,1.5127789E-2,3.442469E-3,1.1823511E-2,2.2864735E-2,-1.0094697E-3,6.73422E-3,-1.2674226E-2,-5.283956E-4,-1.0145145E-2,-1.7408801E-2,-4.2281687E-4,-3.6806506E-3,-1.1107885E-2,1.1905908E-3,-1.9219462E-2,3.7983651E-3,1.8090291E-2,5.4059927E-3,-1.0330688E-3,2.1542186E-2,2.5845089E-3,-1.7341502E-2,8.5612744E-2,2.5286159E-2,6.1026155E-3,1.0757848E-2,1.552788E-1,1.7177014E-2,4.7337104E-2,9.268388E-3,3.7852917E-2,9.085552E-2,5.7021465E-2,2.5685988E-2,1.806865E-2,2.389228E-2,1.1793761E-2,1.7365595E-2,3.8723063E-2,2.3734713E-2,2.2320457E-2,1.4032228E-2,1.2282022E-2,1.4998983E-2,1.2981283E-2,1.8170264E-2,2.3646442E-2,1.1160556E-2,2.6484206E-3,8.515407E-3,2.7446955E-2,1.2757783E-2,1.1460417E-2,4.725753E-3],"split_indices":[1,1,3,1,3,1,7,1,3,10,3,1,1,3,3,3,1,0,1,0,10,3,10,1,7,0,1,3,1,3,1,1,1,3,1,1,1,0,10,11,11,11,11,1,0,1,1,0,0,1,0,1,11,1,3,0,3,1,11,1,0,3,1,0,1,3,1,1,3,1,3,0,0,0,0,10,10,11,8,10,11,10,3,0,1,10,0,0,0,0,0,1,0,1,3,1,3,1,8,8,3,10,0,3,1,10,7,0,0,0,0,0,0,0,0,0,0,0,0,0,0,0,0,0,0,0,0,0,0,0,0,0,0,0,0,0,0,0,0,0,0,0,0,0,0,0,0,0,0,0,0,0,0,0,0,0,0,0,0,0,0,0,0,0,0,0,0,0,0,0,0,0,0,0,0,0,0],"split_type":[0,0,0,0,0,0,0,0,0,0,0,0,0,0,0,0,0,0,0,0,0,0,0,0,0,0,0,0,0,0,0,0,0,0,0,0,0,0,0,0,0,0,0,0,0,0,0,0,0,0,0,0,0,0,0,0,0,0,0,0,0,0,0,0,0,0,0,0,0,0,0,0,0,0,0,0,0,0,0,0,0,0,0,0,0,0,0,0,0,0,0,0,0,0,0,0,0,0,0,0,0,0,0,0,0,0,0,0,0,0,0,0,0,0,0,0,0,0,0,0,0,0,0,0,0,0,0,0,0,0,0,0,0,0,0,0,0,0,0,0,0,0,0,0,0,0,0,0,0,0,0,0,0,0,0,0,0,0,0,0,0,0,0,0,0,0,0,0,0,0,0,0,0,0,0,0,0],"sum_hessian":[7.937E3,3.77E3,4.167E3,1.555E3,2.215E3,8.3E1,4.084E3,9.33E2,6.22E2,7.1E1,2.144E3,2.8E1,5.5E1,3.247E3,8.37E2,8.59E2,7.4E1,3E0,6.19E2,2E0,6.9E1,2.037E3,1.07E2,7E0,2.1E1,1.3E1,4.2E1,5.12E2,2.735E3,5.1E1,7.86E2,1.5E1,8.44E2,2.4E1,5E1,4.21E2,1.98E2,5.3E1,1.6E1,2.32E2,1.805E3,5.8E1,4.9E1,6E0,1E0,1.9E1,2E0,5E0,8E0,1.2E1,3E1,4E1,4.72E2,1.888E3,8.47E2,1E0,5E1,4.12E2,3.74E2,1E1,5E0,1.51E2,6.93E2,4E0,2E1,3.1E1,1.9E1,3.67E2,5.4E1,1.7E2,2.8E1,4.9E1,4E0,2E0,1.4E1,1.9E2,4.2E1,1.28E3,5.25E2,8E0,5E1,3.6E1,1.3E1,1E0,5E0,1.7E1,2E0,1E0,1E0,4E0,8E0,1.8E1,1.2E1,1.4E1,2.6E1,1.02E2,3.7E2,1.432E3,4.56E2,4.21E2,4.26E2,4.8E1,2E0,2.2E1,3.9E2,1.01E2,2.73E2,9E0,1E0,3E0,2E0,7.1E1,8E1,5.66E2,1.27E2,1E0,1.9E1,2E0,2.9E1,1E1,9E0,1.74E2,1.93E2,1E0,5.3E1,1.44E2,2.6E1,2E0,2.6E1,8E0,1.82E2,9E0,3.3E1,8.64E2,4.16E2,1.3E1,5.12E2,4E0,4E0,2.3E1,2.7E1,3.2E1,4E0,4E0,9E0,4E0,1E0,1.1E1,6E0,1.6E1,2E0,1E0,1.3E1,2.1E1,5E0,1.3E1,8.9E1,2.25E2,1.45E2,3.61E2,1.071E3,3.2E1,4.24E2,3.7E1,3.84E2,3.64E2,6.2E1,3.1E1,1.7E1,4E0,1.8E1,1.1E1,3.79E2,9E0,9.2E1,2.16E2,5.7E1],"tree_param":{"num_deleted":"0","num_feature":"12","num_nodes":"177","size_leaf_vector":"0"}},{"base_weights":[4.804812E-1,7.603378E0,4.5857012E-1,1.4522362E0,8.788912E0,1.9441473E0,4.4294038E-1,1.3146622E-1,4.380087E0,9.227069E0,2.2763821E-1,1.755499E0,5.2013264E0,3.540822E-3,4.9234024E-1,6.860326E-1,-1.9811767E-1,7.019697E0,1.09216795E1,3.7967923E-1,1.9099871E0,-1.4008535E-1,3.5640043E-1,1.2160642E-1,5.5366695E-1,9.228069E0,2.1173615E0,8.278291E-1,2.789805E-1,7.223144E-1,2.125873E0,-6.1643673E-3,-1.8391573E-1,2.454139E-1,5.820083E-1,-5.6841397E-3,3.0019847E-1,7.069453E-1,4.942658E-1,3.9747996E0,7.472207E-1,3.6389008E-1,-1.8337697E-1,1.5374582E-1,4.936991E0,1.7412319E0,2.2923172E0,-6.2494695E-2,4.318147E-2,-1.24200165E-1,-1.9265763E-1,2.8298616E-2,2.8921616E-1,1.5718554E0,5.3351104E-1,-3.680539E-2,3.4970354E-2,1.0030499E0,2.9080704E-1,4.911873E-1,7.7967376E-1,4.338958E-1,5.5759084E-1,5.2195156E-1,1.6514699E-1,1.3069762E0,-1.736131E-1,3.5849903E0,1.4586992E0,8.6048955E-1,2.359163E0,-7.0266477E-3,-6.6816226E-2,1.1717199E-1,8.990923E-3,-1.8373242E-1,1.2480965E0,-1.9637825E-1,-1.4681393E-1,3.2821974E-1,-1.43419E-2,5.348653E-1,2.5985724E-1,1.349154E0,5.155698E-1,4.445553E-2,-4.711935E-2,1.5013151E-1,1.5598599E-2,5.86107E-1,1.1902936E0,-1.639185E-1,2.9431668E-1,3.8874185E-1,6.4582056E-1,1.1422E0,7.255126E-1,4.8592395E-1,3.913801E-1,3.6139506E-1,5.78465E-1],"categories":[],"categories_nodes":[],"categories_segments":[],"categories_sizes":[],"default_left":[true,true,true,true,true,true,true,true,false,true,false,true,false,true,true,false,false,true,false,true,true,true,true,true,true,false,true,false,true,true,true,true,true,true,true,true,true,true,true,false,false,true,false,true,false,true,true,true,true,true,true,true,true,false,true,true,true,true,true,true,true,true,true,false,false,false,false,false,false,false,false,false,false,false,false,false,false,false,false,false,false,false,false,false,false,false,false,false,false,false,false,false,false,false,false,false,false,false,false,false,false],"id":76,"left_children":[1,3,5,7,9,11,13,15,-1,17,-1,19,-1,21,23,-1,-1,25,-1,27,29,31,33,35,37,-1,39,-1,41,43,45,47,49,51,53,55,57,59,61,-1,-1,63,-1,65,-1,67,69,71,73,75,77,79,81,-1,83,85,87,89,91,93,95,97,99,-1,-1,-1,-1,-1,-1,-1,-1,-1,-1,-1,-1,-1,-1,-1,-1,-1,-1,-1,-1,-1,-1,-1,-1,-1,-1,-1,-1,-1,-1,-1,-1,-1,-1,-1,-1,-1,-1],"loss_changes":[1.2382855E3,1.7304675E2,1.8353613E2,1.650123E1,7.543933E1,4.7446594E1,1.7008984E2,6.6156256E-1,0E0,4.6497314E1,0E0,1.6375122E1,0E0,4.01751E1,1.6012708E2,0E0,0E0,9.4368256E1,0E0,2.8327167E-1,1.7480957E1,3.3035707E0,5.682947E0,2.274543E1,5.4899414E1,0E0,7.425742E0,0E0,3.1272888E-1,2.6833035E1,2.4100037E0,3.8847607E-1,2.090149E-1,1.460475E0,3.3066921E0,7.39765E-1,2.6324005E0,2.633136E1,1.6562988E1,0E0,0E0,1.6041166E-1,0E0,3.9929285E0,0E0,8.255428E0,3.1375122E0,1.4451027E-2,1.8589613E-1,4.5818067E0,4.8485756E-2,3.428202E-1,8.678551E-1,0E0,7.9994774E-1,2.7843428E-1,5.6200993E-1,1.5840197E-1,6.7440414E-1,6.6552734E0,2.4463074E1,4.86203E0,8.621033E0,0E0,0E0,0E0,0E0,0E0,0E0,0E0,0E0,0E0,0E0,0E0,0E0,0E0,0E0,0E0,0E0,0E0,0E0,0E0,0E0,0E0,0E0,0E0,0E0,0E0,0E0,0E0,0E0,0E0,0E0,0E0,0E0,0E0,0E0,0E0,0E0,0E0,0E0],"parents":[2147483647,0,0,1,1,2,2,3,3,4,4,5,5,6,6,7,7,9,9,11,11,13,13,14,14,17,17,19,19,20,20,21,21,22,22,23,23,24,24,26,26,28,28,29,29,30,30,31,31,32,32,33,33,34,34,35,35,36,36,37,37,38,38,41,41,43,43,45,45,46,46,47,47,48,48,49,49,50,50,51,51,52,52,54,54,55,55,56,56,57,57,58,58,59,59,60,60,61,61,62,62],"right_children":[2,4,6,8,10,12,14,16,-1,18,-1,20,-1,22,24,-1,-1,26,-1,28,30,32,34,36,38,-1,40,-1,42,44,46,48,50,52,54,56,58,60,62,-1,-1,64,-1,66,-1,68,70,72,74,76,78,80,82,-1,84,86,88,90,92,94,96,98,100,-1,-1,-1,-1,-1,-1,-1,-1,-1,-1,-1,-1,-1,-1,-1,-1,-1,-1,-1,-1,-1,-1,-1,-1,-1,-1,-1,-1,-1,-1,-1,-1,-1,-1,-1,-1,-1,-1],"split_conditions":[2.2506302E-3,5.5555556E-2,1.7644942E-2,7.090609E-2,4.4444448E-1,5E-1,5.5555556E-2,5.719247E-1,8.7601736E-2,2.777778E-1,4.5527644E-3,3.9510223E-1,1.04026526E-1,7.090609E-2,7.920965E-1,1.3720651E-2,-3.9623533E-3,1.6666667E-1,2.1843359E-1,5.5555556E-2,5.5555556E-2,5.719247E-1,9.5682657E-1,3.9510223E-1,3.1697875E-1,1.8456139E-1,9.8790765E-1,1.6556581E-2,4.0821142E-2,1.3137093E-1,1.6666667E-1,8.513586E-2,1.1955348E-1,3.8609636E-1,7.125307E-2,1.3484347E-1,3.9791144E-2,1.6666667E-1,2.777778E-1,7.949599E-2,1.4944414E-2,1.6666667E-1,-3.6675392E-3,8.231776E-1,9.8739825E-2,9.8790765E-1,9.8790765E-1,1.3134678E-1,2.5585163E-1,1.1190133E-1,9.400432E-1,1.9229385E-1,1.3390663E-1,3.1437106E-2,1.48936175E-2,1.493518E-1,2.0075622E-1,2.2222222E-1,4.384228E-2,6.0565114E-1,1.8427517E-2,6.2081385E-1,9.5682657E-1,1.0439031E-2,3.3029397E-3,2.6139524E-2,-3.472262E-3,7.1699806E-2,2.9173983E-2,1.720979E-2,4.718326E-2,-1.4053295E-4,-1.3363245E-3,2.3434397E-3,1.7981845E-4,-3.6746482E-3,2.4961928E-2,-3.9275647E-3,-2.9362785E-3,6.5643946E-3,-2.8683798E-4,1.0697306E-2,5.1971446E-3,2.6983079E-2,1.0311396E-2,8.8911055E-4,-9.42387E-4,3.00263E-3,3.1197196E-4,1.172214E-2,2.380587E-2,-3.2783698E-3,5.8863335E-3,7.774837E-3,1.2916411E-2,2.2844E-2,1.45102525E-2,9.718479E-3,7.827601E-3,7.227901E-3,1.15693E-2],"split_indices":[5,4,5,7,4,4,4,6,0,4,0,6,0,7,6,0,0,4,0,4,4,6,6,6,5,0,6,0,7,7,4,6,5,6,11,6,5,4,4,0,0,4,0,6,0,6,6,5,5,5,5,5,11,0,10,5,5,4,5,11,11,5,6,0,0,0,0,0,0,0,0,0,0,0,0,0,0,0,0,0,0,0,0,0,0,0,0,0,0,0,0,0,0,0,0,0,0,0,0,0,0],"split_type":[0,0,0,0,0,0,0,0,0,0,0,0,0,0,0,0,0,0,0,0,0,0,0,0,0,0,0,0,0,0,0,0,0,0,0,0,0,0,0,0,0,0,0,0,0,0,0,0,0,0,0,0,0,0,0,0,0,0,0,0,0,0,0,0,0,0,0,0,0,0,0,0,0,0,0,0,0,0,0,0,0,0,0,0,0,0,0,0,0,0,0,0,0,0,0,0,0,0,0,0,0],"sum_hessian":[7.942E3,2.4E1,7.918E3,4E0,2E1,8.2E1,7.836E3,3E0,1E0,1.9E1,1E0,7.8E1,4E0,7.92E2,7.044E3,1E0,2E0,9E0,1E1,8E0,7E1,5.63E2,2.29E2,1E3,6.044E3,6E0,3E0,1E0,7E0,1.1E1,5.9E1,1.39E2,4.24E2,1.54E2,7.5E1,5.84E2,4.16E2,1.687E3,4.357E3,1E0,2E0,6E0,1E0,1E1,1E0,1.9E1,4E1,6.5E1,7.4E1,5.5E1,3.69E2,2.6E1,1.28E2,3E0,7.2E1,3.31E2,2.53E2,5E0,4.11E2,4.26E2,1.261E3,2.232E3,2.125E3,3E0,3E0,2E0,8E0,2E0,1.7E1,2E0,3.8E1,5E0,6E1,2.3E1,5.1E1,5.3E1,2E0,3.4E2,2.9E1,3E0,2.3E1,1.3E1,1.15E2,1E0,7.1E1,3.7E1,2.94E2,3.6E1,2.17E2,2E0,3E0,3E0,4.08E2,2.57E2,1.69E2,1.63E2,1.098E3,1.002E3,1.23E3,2.05E2,1.92E3],"tree_param":{"num_deleted":"0","num_feature":"12","num_nodes":"101","size_leaf_vector":"0"}},{"base_weights":[4.5438513E-1,1.5765728E0,4.2833018E-1,1.4536566E0,4.0536404E0,-6.3841897E-3,4.7605947E-1,2.8932887E-1,1.6504716E0,2.8017564E0,9.913995E0,-3.8752653E-2,3.8981345E-2,4.465177E-3,5.225852E-1,-9.2080005E-2,2.1480134E0,1.4509339E0,2.5917356E0,3.101986E0,6.6442806E-1,1.5748076E-2,-4.6090044E-2,1.5330398E-1,2.6943237E-2,3.904347E-1,-1.7958735E-1,1.0342387E0,5.075766E-1,4.664957E-1,-1.9274583E-1,4.314392E0,1.0622473E0,1.3087384E0,2.2329817E0,3.3361773E0,1.402067E0,7.673848E-1,3.4890578E0,4.7821328E-2,-1.7200893E-2,-5.734552E-2,-2.0304555E-2,1.077713E-1,1.1058888E0,1.382023E-1,1.6232837E-2,1.0414821E0,3.7219873E-1,-1.1363995E-1,-1.8821058E-1,9.791611E-1,5.113184E0,3.4456152E-1,5.3089935E-1,8.1541306E-1,1.9432673E-1,-1.972011E-1,-7.5934485E-2,1.284572E0,3.96855E-1,1.5065622E0,7.03162E-1,2.3848908E0,-2.893675E-1,2.2422393E-1,3.5470765E0,9.164686E-1,1.7973276E0,-1.1621248E-1,6.286408E-2,-2.3152322E-2,8.946973E-2,-6.369921E-2,-3.7955675E-2,-3.879221E-2,1.7229337E-3,6.637171E-2,3.382084E-1,9.329083E-2,1.9900453E-1,3.0833531E-2,-1.8571539E-2,1.1772383E-1,1.2422996E0,3.0388412E-1,5.004712E-1,-1.7781666E-1,2.2783804E0,-2.5684178E-1,-1.8154229E-1,1.4035281E0,7.452007E-1,2.8850555E-1,4.09306E-1,6.711288E-1,5.0428087E-1,-2.0872594E-1,-1.23639375E-1,4.1462517E0,1.0545805E0,-1.2995046E0,2.1690366E0,1.6363438E0,3.1261165E0,3.818705E0,2.264447E0,2.0663047E-1,2.1452076E0,1.7780177E-2,1.01924695E-1,-3.281585E-2,1.2462322E-2,-6.755497E-2,-3.3348385E-2,-5.393902E-2,3.5728381E-3,-2.46069E-2,-7.470604E-2,8.735042E-3,-1.042562E-1,-5.922278E-2,1.0710832E-1,1.992834E-1,4.2268795E-1,1.775649E-1,-4.7720606E-3,4.0729132E-1,1.3100673E-1,2.219204E-2,1.7675538E-1,3.34509E-2,-3.565878E-2,1.4876999E0,8.13252E-1,2.2744413E-1,3.6025885E-1,1.3289188E0,4.8137414E-1,-5.5753708E-2,-1.972241E-1,-1.7553112E-1,-3.6724845E-1,-3.7838072E-1,-1.7881615E-1,1.1341445E0,3.1343343E0,9.7238207E-1,4.797331E-1,3.606253E-1,2.6910412E-1,6.9436204E-1,3.9355358E-1,1.0688936E0,6.2378234E-1,4.1503766E-1,5.304755E-1],"categories":[],"categories_nodes":[],"categories_segments":[],"categories_sizes":[],"default_left":[true,true,true,true,true,true,true,true,true,true,false,true,true,true,true,true,true,true,true,true,false,true,true,true,true,true,true,true,true,true,true,false,true,true,true,true,true,false,false,true,true,true,true,true,false,true,true,true,true,true,true,true,false,true,true,false,false,true,false,false,false,true,true,true,false,false,true,false,true,false,true,true,false,true,true,true,true,true,true,true,true,true,true,false,true,true,true,true,false,true,true,true,true,true,true,true,true,false,false,false,false,false,false,false,false,false,false,false,false,false,false,false,false,false,false,false,false,false,false,false,false,false,false,false,false,false,false,false,false,false,false,false,false,false,false,false,false,false,false,false,false,false,false,false,false,false,false,false,false,false,false,false,false,false,false,false,false],"id":77,"left_children":[1,3,5,7,9,11,13,15,17,19,-1,21,23,25,27,29,31,33,35,37,-1,39,41,43,45,47,49,51,53,55,57,-1,59,61,63,65,67,-1,-1,69,71,73,75,77,-1,79,81,83,85,87,89,91,-1,93,95,-1,-1,97,-1,-1,-1,99,101,103,-1,-1,105,-1,107,-1,109,111,-1,113,115,117,119,121,123,125,127,129,131,-1,133,135,137,139,-1,141,143,145,147,149,151,153,155,-1,-1,-1,-1,-1,-1,-1,-1,-1,-1,-1,-1,-1,-1,-1,-1,-1,-1,-1,-1,-1,-1,-1,-1,-1,-1,-1,-1,-1,-1,-1,-1,-1,-1,-1,-1,-1,-1,-1,-1,-1,-1,-1,-1,-1,-1,-1,-1,-1,-1,-1,-1,-1,-1,-1,-1,-1,-1,-1,-1],"loss_changes":[2.3229004E2,5.2862854E1,1.6129358E2,3.9304535E1,5.169429E1,1.1301994E0,1.5367566E2,1.8054657E1,2.6360199E1,3.9647865E0,0E0,1.8036026E-1,4.369035E-1,4.4733402E1,4.8760498E1,1.2256495E0,8.588131E0,1.2578888E1,2.0808884E1,4.7697296E0,0E0,5.707285E-2,1.1353123E-1,1.2586203E0,3.430187E-1,2.2646446E0,2.3100853E-1,3.898163E1,2.3477173E1,2.4931765E-1,6.516576E-4,0E0,2.9914713E-1,1.211409E1,7.2848053E0,9.744461E0,1.3953819E0,0E0,0E0,6.9121145E-2,1.6462415E-2,3.1663954E-2,4.9962483E-2,2.6658484E-1,0E0,5.881825E-2,1.3519984E-1,9.21226E-1,1.6757812E0,7.831929E0,1.5042782E-1,1.742572E1,0E0,2.7682343E0,2.0095337E1,0E0,0E0,1.3483763E-3,0E0,0E0,0E0,9.192668E1,7.8258415E1,7.8435745E0,0E0,0E0,2.0233917E0,0E0,2.770029E0,0E0,4.2300567E-2,9.1455495E-3,0E0,2.1955788E-2,4.6803795E-2,3.176389E-2,4.0061522E-2,1.3241181E-1,1.38973E-2,1.2946555E-1,1.20881766E-1,2.3207833E-1,7.006146E-2,0E0,1.9984245E-2,5.259371E-1,8.4194946E-1,1.095922E-1,0E0,2.6102614E-1,1.5426254E-1,2.8282967E1,6.839714E0,5.425987E-1,1.5068741E0,1.6012451E1,1.0562134E1,0E0,0E0,0E0,0E0,0E0,0E0,0E0,0E0,0E0,0E0,0E0,0E0,0E0,0E0,0E0,0E0,0E0,0E0,0E0,0E0,0E0,0E0,0E0,0E0,0E0,0E0,0E0,0E0,0E0,0E0,0E0,0E0,0E0,0E0,0E0,0E0,0E0,0E0,0E0,0E0,0E0,0E0,0E0,0E0,0E0,0E0,0E0,0E0,0E0,0E0,0E0,0E0,0E0,0E0,0E0,0E0,0E0,0E0,0E0,0E0],"parents":[2147483647,0,0,1,1,2,2,3,3,4,4,5,5,6,6,7,7,8,8,9,9,11,11,12,12,13,13,14,14,15,15,16,16,17,17,18,18,19,19,21,21,22,22,23,23,24,24,25,25,26,26,27,27,28,28,29,29,30,30,32,32,33,33,34,34,35,35,36,36,39,39,40,40,41,41,42,42,43,43,45,45,46,46,47,47,48,48,49,49,50,50,51,51,53,53,54,54,57,57,61,61,62,62,63,63,66,66,68,68,70,70,71,71,73,73,74,74,75,75,76,76,77,77,78,78,79,79,80,80,81,81,82,82,84,84,85,85,86,86,87,87,89,89,90,90,91,91,92,92,93,93,94,94,95,95,96,96],"right_children":[2,4,6,8,10,12,14,16,18,20,-1,22,24,26,28,30,32,34,36,38,-1,40,42,44,46,48,50,52,54,56,58,-1,60,62,64,66,68,-1,-1,70,72,74,76,78,-1,80,82,84,86,88,90,92,-1,94,96,-1,-1,98,-1,-1,-1,100,102,104,-1,-1,106,-1,108,-1,110,112,-1,114,116,118,120,122,124,126,128,130,132,-1,134,136,138,140,-1,142,144,146,148,150,152,154,156,-1,-1,-1,-1,-1,-1,-1,-1,-1,-1,-1,-1,-1,-1,-1,-1,-1,-1,-1,-1,-1,-1,-1,-1,-1,-1,-1,-1,-1,-1,-1,-1,-1,-1,-1,-1,-1,-1,-1,-1,-1,-1,-1,-1,-1,-1,-1,-1,-1,-1,-1,-1,-1,-1,-1,-1,-1,-1,-1,-1],"split_conditions":[7.4137926E-2,1.3137093E-1,3.9510223E-1,5.5555556E-2,2.777778E-1,1.3484347E-1,5.5555556E-2,7.090609E-2,3.888889E-1,6.724138E-2,1.9827989E-1,1.8518186E-1,1.3390663E-1,9.8790765E-1,4.924379E-2,5.719247E-1,2.2506302E-3,9.9787235E-1,1.3521786E-1,9.5682657E-1,1.3288561E-2,3.4520882E-1,7.6129995E-2,5.6940943E-1,1.4052935E-1,1.8427517E-2,1.1307166E-1,4.8523586E-2,9.5682657E-1,3.275862E-2,1.3098668E-1,8.628784E-2,3.275862E-2,2.777778E-1,1.403493E-1,2.2506302E-3,5E-1,1.5347696E-2,6.9781154E-2,1.2068965E-1,1.6618654E-1,9.9787235E-1,1.6666667E-1,2.777778E-1,2.2117777E-2,9.0745404E-2,5.672414E-1,7.0297873E-1,9.5682657E-1,1.1190133E-1,1.6034484E-1,2.086207E-1,1.02263674E-1,7.920965E-1,2.6206896E-1,1.6308261E-2,3.8865346E-3,6.724138E-2,-1.5186897E-3,2.569144E-2,7.9371E-3,2.2506302E-3,2.2506302E-3,2.777778E-1,-5.78735E-3,4.4844784E-3,9.722722E-2,1.8329373E-2,5.629188E-1,-2.3242496E-3,1.6878912E-2,6.2068963E-1,1.7893945E-3,7.724138E-1,4.1206896E-1,9.9787235E-1,5E-1,1.3234043E-1,1.6339576E-1,6.4742017E-1,9.866762E-2,8.782859E-1,7.063378E-1,2.3544766E-3,1.8887287E-1,3.4827584E-1,1.48936175E-2,3.006842E-2,4.5567606E-2,2.0300683E-1,1.48936175E-2,1.9137931E-1,3.4299605E-2,2.9655173E-1,1.5115231E-1,1.3854879E-1,1.6666667E-1,-4.174519E-3,-2.4727874E-3,8.292503E-2,2.1091608E-2,-2.5990091E-2,4.338073E-2,3.2726876E-2,6.252233E-2,7.63741E-2,4.528894E-2,4.1326093E-3,4.2904153E-2,3.5560355E-4,2.0384938E-3,-6.56317E-4,2.4924643E-4,-1.3510995E-3,-6.669677E-4,-1.0787804E-3,7.1456765E-5,-4.92138E-4,-1.4941208E-3,1.7470084E-4,-2.085124E-3,-1.1844556E-3,2.1421663E-3,3.985668E-3,8.453758E-3,3.551298E-3,-9.544121E-5,8.145826E-3,2.6201345E-3,4.438408E-4,3.5351077E-3,6.69018E-4,-7.1317557E-4,2.9753996E-2,1.6265038E-2,4.5488826E-3,7.2051766E-3,2.6578376E-2,9.627483E-3,-1.1150741E-3,-3.9444817E-3,-3.5106223E-3,-7.3449686E-3,-7.5676143E-3,-3.576323E-3,2.268289E-2,6.268668E-2,1.9447641E-2,9.594662E-3,7.2125057E-3,5.3820824E-3,1.3887241E-2,7.871072E-3,2.137787E-2,1.2475646E-2,8.300753E-3,1.0609509E-2],"split_indices":[3,7,6,4,4,6,4,7,4,3,0,5,11,6,5,6,5,10,5,6,0,11,6,5,5,11,5,5,6,3,5,0,3,4,5,5,4,0,0,3,5,10,4,4,0,5,3,10,6,5,3,3,0,6,3,0,0,3,0,0,0,5,5,4,0,0,5,0,6,0,6,3,0,3,3,10,4,10,5,11,5,5,5,0,5,3,10,5,0,5,10,3,5,3,5,5,4,0,0,0,0,0,0,0,0,0,0,0,0,0,0,0,0,0,0,0,0,0,0,0,0,0,0,0,0,0,0,0,0,0,0,0,0,0,0,0,0,0,0,0,0,0,0,0,0,0,0,0,0,0,0,0,0,0,0,0,0],"split_type":[0,0,0,0,0,0,0,0,0,0,0,0,0,0,0,0,0,0,0,0,0,0,0,0,0,0,0,0,0,0,0,0,0,0,0,0,0,0,0,0,0,0,0,0,0,0,0,0,0,0,0,0,0,0,0,0,0,0,0,0,0,0,0,0,0,0,0,0,0,0,0,0,0,0,0,0,0,0,0,0,0,0,0,0,0,0,0,0,0,0,0,0,0,0,0,0,0,0,0,0,0,0,0,0,0,0,0,0,0,0,0,0,0,0,0,0,0,0,0,0,0,0,0,0,0,0,0,0,0,0,0,0,0,0,0,0,0,0,0,0,0,0,0,0,0,0,0,0,0,0,0,0,0,0,0,0,0],"sum_hessian":[7.953E3,1.8E2,7.773E3,1.72E2,8E0,7.69E2,7.004E3,2.5E1,1.47E2,7E0,1E0,4.49E2,3.2E2,6.29E2,6.375E3,2.1E1,4E0,1.22E2,2.5E1,6E0,1E0,5.3E1,3.96E2,3E1,2.9E2,2.03E2,4.26E2,1.81E2,6.194E3,3E0,1.8E1,1E0,3E0,1.04E2,1.8E1,1.5E1,1E1,1E0,5E0,2.7E1,2.6E1,2.75E2,1.21E2,2.9E1,1E0,2.5E1,2.65E2,5E0,1.98E2,5E1,3.76E2,1.79E2,2E0,7.76E2,5.418E3,1E0,2E0,1.7E1,1E0,2E0,1E0,7.8E1,2.6E1,1.7E1,1E0,1E0,1.4E1,5E0,5E0,2E0,2.5E1,2.5E1,1E0,2.06E2,6.9E1,6.6E1,5.5E1,2.5E1,4E0,1.5E1,1E1,1.87E2,7.8E1,1E0,4E0,1.3E2,6.8E1,4.9E1,1E0,3.2E1,3.44E2,6.3E1,1.16E2,4.17E2,3.59E2,8.63E2,4.555E3,1.4E1,3E0,1.1E1,6.7E1,1.1E1,1.5E1,9E0,8E0,1.1E1,3E0,1E0,4E0,1.2E1,1.3E1,2E1,5E0,1.82E2,2.4E1,5E1,1.9E1,4.8E1,1.8E1,5.2E1,3E0,6E0,1.9E1,2E0,2E0,8E0,7E0,2E0,8E0,1.77E2,1E1,1.9E1,5.9E1,2E0,2E0,5.6E1,7.4E1,1E0,6.7E1,7E0,4.2E1,1.9E1,1.3E1,4E0,3.4E2,5.5E1,8E0,6.2E1,5.4E1,8.7E1,3.3E2,1.8E1,3.41E2,9.1E1,7.72E2,1.035E3,3.52E3],"tree_param":{"num_deleted":"0","num_feature":"12","num_nodes":"157","size_leaf_vector":"0"}},{"base_weights":[4.5220977E-1,1.4570385E0,4.286349E-1,2.5659946E-1,2.13272E0,-3.6891294E-3,4.7519767E-1,-7.694998E-2,4.016419E0,4.4977255E0,1.7365372E0,-1.327834E-1,3.333043E-1,1.2007441E-1,5.3596926E-1,-2.3365893E0,2.3396918E-1,5.330225E0,1.5594956E0,8.4741074E-1,5.6575294E0,4.1559717E-1,1.8350251E0,-3.2040211E-3,-1.7044638E-1,8.896085E-4,3.872788E-1,-4.8007886E-3,2.85816E-1,3.9701435E-1,5.7661813E-1,1.2733981E-1,-4.055423E0,7.220166E-1,1.1545778E-1,6.544627E-1,2.0638363E0,3.862853E0,-4.3933493E-1,6.1294727E0,2.2086097E-1,2.1470572E-1,8.092574E-1,1.7804432E0,2.3122442E0,-4.649771E-2,3.336407E-2,-1.5547544E-1,-2.1228975E-1,8.200409E-2,-3.014134E-2,1.0955898E0,3.5612443E-1,-4.987728E-2,2.3621816E-2,-3.1658617E-1,2.8886583E-1,4.502641E-1,3.173285E-1,7.670464E-1,5.388531E-1,6.635131E-1,-1.911436E-1,8.456171E-1,-5.6145463E0,3.802358E-1,1.0159794E0,-7.784133E-2,4.3745288E-1,9.7653E0,5.4611063E0,1.2024489E-1,3.128514E-1,1.070211E0,1.8020769E0,3.736624E0,1.274747E0,1.8026149E-2,-6.086128E-2,1.1063218E-3,6.486011E-2,-8.994769E-2,-1.7068183E-1,-1.7987943E-1,-2.4617131E-1,-4.1180924E-2,5.9519354E-2,1.1595814E-1,1.2419075E0,3.0343032E-1,4.56221E-1,4.3693095E-2,-5.8179867E-2,1.6466752E-1,1.0402926E-2,4.474334E-1,2.7542016E-1,4.1307724E-1,6.362667E-1,-1.15739845E-1,3.2728368E-1,1.0296103E0,7.1663666E-1,7.37037E-1,5.1091343E-1,4.7038946E-1,1.909956E-1,1.1268506E0,3.9090282E-1,-1.9233976E-1,-2.6407659E-2,-1.640012E-1,6.3810766E-1,1.6804017E0,5.624608E-1,-1.2135969E0,2.8933754E0,-9.706827E-3,2.1832873E-1,-7.00165E-2,-3.2573204E-2,6.777918E-2,-1.6933395E-2,1.6148669E-1,4.9361724E-2,-1.5719993E-1,2.3264644E-1,-1.9364443E-1,-1.619079E-1,-3.3824947E-1,-1.6232066E-1,-3.4636825E-1,-2.1314338E-1,-3.41231E-2,-1.1722126E-1,1.5853189E-2,7.760411E-2,8.302934E-1,1.5250052E0,3.842212E-1,2.3261228E-1,3.2705495E-1,5.368101E-1,5.8100957E-2,-1.4382091E-1,-6.49917E-2,-3.9403956E-2,7.1722314E-2,2.0208877E-1,-1.7979292E-2,2.8213415E-2,3.4655973E-1,7.3446983E-1,-2.8183734E-2,2.7853614E-1,1.713642E-1,4.3887153E-1,1.0248814E0,5.520296E-1,1.1749683E-1,-7.614859E-1,3.0448672E-1,4.986024E-1,6.449457E-1,1.3450953E0,1.1320028E0,6.8290323E-1,5.80079E-1,8.576589E-1,4.9853745E-1,6.8629754E-1],"categories":[],"categories_nodes":[],"categories_segments":[],"categories_sizes":[],"default_left":[true,true,true,true,true,true,true,true,true,true,true,true,true,true,true,true,true,false,true,true,true,true,true,true,true,true,true,true,true,true,true,true,true,true,true,false,false,false,false,true,false,true,false,true,true,true,true,true,true,false,true,true,true,true,true,false,true,true,true,true,true,false,false,false,false,true,true,true,true,false,false,false,false,true,false,false,true,true,true,true,true,true,true,true,true,true,true,false,true,true,true,true,true,true,true,true,true,true,true,true,true,true,true,true,true,false,false,false,false,false,false,false,false,false,false,false,false,false,false,false,false,false,false,false,false,false,false,false,false,false,false,false,false,false,false,false,false,false,false,false,false,false,false,false,false,false,false,false,false,false,false,false,false,false,false,false,false,false,false,false,false,false,false,false,false,false,false,false,false,false,false],"id":78,"left_children":[1,3,5,7,9,11,13,15,17,19,21,23,25,27,29,31,33,-1,35,37,39,41,43,45,47,49,51,53,55,57,59,61,63,65,67,-1,-1,-1,-1,69,-1,71,-1,73,75,77,79,81,83,-1,85,87,89,91,93,-1,95,97,99,101,103,-1,-1,-1,-1,105,107,109,111,-1,-1,-1,-1,113,-1,-1,115,117,119,121,123,125,127,129,131,133,135,-1,137,139,141,143,145,147,149,151,153,155,157,159,161,163,165,167,169,-1,-1,-1,-1,-1,-1,-1,-1,-1,-1,-1,-1,-1,-1,-1,-1,-1,-1,-1,-1,-1,-1,-1,-1,-1,-1,-1,-1,-1,-1,-1,-1,-1,-1,-1,-1,-1,-1,-1,-1,-1,-1,-1,-1,-1,-1,-1,-1,-1,-1,-1,-1,-1,-1,-1,-1,-1,-1,-1,-1,-1,-1,-1,-1,-1,-1],"loss_changes":[1.862738E2,1.460545E2,1.5487561E2,8.2093025E1,1.0537103E2,3.2567333E1,1.4985925E2,4.2600494E1,1.4345779E1,6.745865E1,1.2636505E1,2.6392355E0,3.7143097E0,2.1018839E1,3.3406372E1,3.1286106E1,3.0450194E0,0E0,5.759063E-1,1.7429098E1,3.110315E1,5.074054E-1,9.7384644E-1,1.9437905E-1,2.4643326E-1,7.539811E-2,3.7844677E0,7.430044E-1,8.3174133E-1,5.64151E0,3.2833496E1,6.1826223E-1,3.4764732E1,8.8947296E-1,2.7136195E0,0E0,0E0,0E0,0E0,9.54007E0,0E0,3.0723691E-2,0E0,6.1169434E-1,1.0655228E1,5.3186312E-2,6.642936E-2,3.0039215E-1,9.921694E-2,0E0,2.1672007E-2,9.8376846E-1,8.4670067E-1,1.7533368E-1,6.5943927E-1,0E0,8.746147E-1,5.460846E0,2.3408546E0,9.766174E0,2.1060303E1,0E0,0E0,0E0,0E0,5.1598907E-2,2.0108557E-1,1.5615487E-1,2.0128598E0,0E0,0E0,0E0,0E0,6.856148E-1,0E0,0E0,2.2676556E1,6.1084818E-2,9.775713E-3,4.1200154E-2,4.4253007E-2,1.2983699E0,3.5109997E-2,1.3398242E-1,1.4058733E-1,6.8832114E-3,9.938143E-5,0E0,2.8218174E-1,6.098299E-1,5.363455E-1,5.1094916E-2,2.40466E-2,9.6764505E-2,1.6477159E-1,8.648505E-1,3.8585854E-1,4.1518555E0,4.15361E0,1.896587E0,1.9974403E0,1.440686E1,8.646454E0,8.756073E0,7.15625E0,0E0,0E0,0E0,0E0,0E0,0E0,0E0,0E0,0E0,0E0,0E0,0E0,0E0,0E0,0E0,0E0,0E0,0E0,0E0,0E0,0E0,0E0,0E0,0E0,0E0,0E0,0E0,0E0,0E0,0E0,0E0,0E0,0E0,0E0,0E0,0E0,0E0,0E0,0E0,0E0,0E0,0E0,0E0,0E0,0E0,0E0,0E0,0E0,0E0,0E0,0E0,0E0,0E0,0E0,0E0,0E0,0E0,0E0,0E0,0E0,0E0,0E0,0E0,0E0,0E0,0E0],"parents":[2147483647,0,0,1,1,2,2,3,3,4,4,5,5,6,6,7,7,8,8,9,9,10,10,11,11,12,12,13,13,14,14,15,15,16,16,18,18,19,19,20,20,21,21,22,22,23,23,24,24,25,25,26,26,27,27,28,28,29,29,30,30,31,31,32,32,33,33,34,34,39,39,41,41,43,43,44,44,45,45,46,46,47,47,48,48,50,50,51,51,52,52,53,53,54,54,56,56,57,57,58,58,59,59,60,60,65,65,66,66,67,67,68,68,73,73,76,76,77,77,78,78,79,79,80,80,81,81,82,82,83,83,84,84,85,85,86,86,88,88,89,89,90,90,91,91,92,92,93,93,94,94,95,95,96,96,97,97,98,98,99,99,100,100,101,101,102,102,103,103,104,104],"right_children":[2,4,6,8,10,12,14,16,18,20,22,24,26,28,30,32,34,-1,36,38,40,42,44,46,48,50,52,54,56,58,60,62,64,66,68,-1,-1,-1,-1,70,-1,72,-1,74,76,78,80,82,84,-1,86,88,90,92,94,-1,96,98,100,102,104,-1,-1,-1,-1,106,108,110,112,-1,-1,-1,-1,114,-1,-1,116,118,120,122,124,126,128,130,132,134,136,-1,138,140,142,144,146,148,150,152,154,156,158,160,162,164,166,168,170,-1,-1,-1,-1,-1,-1,-1,-1,-1,-1,-1,-1,-1,-1,-1,-1,-1,-1,-1,-1,-1,-1,-1,-1,-1,-1,-1,-1,-1,-1,-1,-1,-1,-1,-1,-1,-1,-1,-1,-1,-1,-1,-1,-1,-1,-1,-1,-1,-1,-1,-1,-1,-1,-1,-1,-1,-1,-1,-1,-1,-1,-1,-1,-1,-1,-1],"split_conditions":[7.4137926E-2,1.6666667E-1,5.5555556E-2,1.3137093E-1,2.7272727E-2,7.090609E-2,7.920965E-1,2.7272727E-2,6.724138E-2,2.777778E-1,6.3859776E-2,5.719247E-1,3.8609636E-1,3.9510223E-1,1.6666667E-1,5.5555556E-2,8.231776E-1,1.06604494E-1,5.5555556E-2,9.8790765E-1,4.4444448E-1,5.4084355E-1,6.724138E-2,8.513586E-2,8.30303E-1,2.689655E-1,1.8427517E-2,7.6129995E-2,1.15517244E-1,4.2413792E-1,2.6206896E-1,5.719247E-1,5.629188E-1,1.7815007E-2,5E-1,1.3089254E-2,4.1276727E-2,7.725706E-2,-8.786699E-3,9.689189E-1,4.417219E-3,5.910807E-2,1.6185148E-2,8.231776E-1,2.777778E-1,2.7518427E-1,7.5757575E-1,2.862069E-1,3.2068965E-1,1.6400819E-3,8.1379306E-1,6.818182E-1,9.5682657E-1,1.7758621E-1,1.3390663E-1,-6.331723E-3,1.9137931E-1,3.7931034E-1,4.3103448E-1,1.8427517E-2,5.181818E-1,1.3270263E-2,-3.822872E-3,1.6912341E-2,-1.1229093E-1,5E-1,5E-1,5.5555556E-2,5.5555556E-2,1.9530599E-1,1.0922212E-1,2.4048977E-3,6.257028E-3,5E-1,3.604154E-2,7.4732475E-2,3.888889E-1,4.5E-1,1.6878912E-2,2.9137933E-1,1.3390663E-1,6.965602E-1,4.127764E-1,1.15517244E-1,3.2931036E-1,9.533169E-1,9.465517E-1,2.3191627E-3,8.110852E-1,6.0565114E-1,3.4520882E-1,6.4742017E-1,8.30303E-1,1.3484347E-1,1.6666667E-1,8.30303E-1,2.086207E-1,1.4482759E-1,2.923833E-1,7.2727275E-1,9.533169E-1,6.818182E-1,9.6551724E-2,2.777778E-1,7.827586E-1,9.4077885E-3,3.819912E-3,2.2537012E-2,7.818056E-3,-3.846795E-3,-5.2815315E-4,-3.2800238E-3,1.2762153E-2,3.3608034E-2,1.1249215E-2,-2.4271939E-2,5.786751E-2,-1.9413653E-4,4.3665743E-3,-1.40033E-3,-6.514641E-4,1.3555837E-3,-3.386679E-4,3.2297336E-3,9.872344E-4,-3.1439986E-3,4.6529286E-3,-3.8728886E-3,-3.2381578E-3,-6.7649893E-3,-3.246413E-3,-6.927365E-3,-4.2628674E-3,-6.82462E-4,-2.344425E-3,3.1706376E-4,1.5520821E-3,1.6605867E-2,3.0500105E-2,7.6844236E-3,4.6522454E-3,6.541099E-3,1.0736202E-2,1.1620191E-3,-2.8764182E-3,-1.2998339E-3,-7.880791E-4,1.4344462E-3,4.0417756E-3,-3.5958583E-4,5.6426827E-4,6.9311946E-3,1.4689396E-2,-5.6367466E-4,5.5707227E-3,3.427284E-3,8.77743E-3,2.0497628E-2,1.1040592E-2,2.3499366E-3,-1.5229717E-2,6.0897344E-3,9.972048E-3,1.2898914E-2,2.6901904E-2,2.2640057E-2,1.3658064E-2,1.160158E-2,1.7153177E-2,9.970749E-3,1.372595E-2],"split_indices":[3,4,4,7,2,7,6,2,3,4,9,6,6,6,4,4,6,0,4,6,4,6,3,6,2,3,11,6,3,3,3,6,6,7,0,0,0,0,0,6,0,7,0,6,4,11,2,3,3,0,3,2,6,3,11,0,3,3,3,11,2,0,0,0,0,0,0,4,4,0,0,0,0,0,0,0,4,3,6,3,11,11,11,3,3,11,3,0,6,11,11,11,2,6,4,2,3,3,11,11,11,2,3,4,3,0,0,0,0,0,0,0,0,0,0,0,0,0,0,0,0,0,0,0,0,0,0,0,0,0,0,0,0,0,0,0,0,0,0,0,0,0,0,0,0,0,0,0,0,0,0,0,0,0,0,0,0,0,0,0,0,0,0,0,0,0,0,0,0,0,0],"split_type":[0,0,0,0,0,0,0,0,0,0,0,0,0,0,0,0,0,0,0,0,0,0,0,0,0,0,0,0,0,0,0,0,0,0,0,0,0,0,0,0,0,0,0,0,0,0,0,0,0,0,0,0,0,0,0,0,0,0,0,0,0,0,0,0,0,0,0,0,0,0,0,0,0,0,0,0,0,0,0,0,0,0,0,0,0,0,0,0,0,0,0,0,0,0,0,0,0,0,0,0,0,0,0,0,0,0,0,0,0,0,0,0,0,0,0,0,0,0,0,0,0,0,0,0,0,0,0,0,0,0,0,0,0,0,0,0,0,0,0,0,0,0,0,0,0,0,0,0,0,0,0,0,0,0,0,0,0,0,0,0,0,0,0,0,0,0,0,0,0,0,0],"sum_hessian":[7.873E3,1.8E2,7.693E3,6.5E1,1.15E2,7.48E2,6.945E3,6E1,5E0,1.6E1,9.9E1,5.41E2,2.07E2,1.015E3,5.93E3,7E0,5.3E1,3E0,2E0,4E0,1.2E1,7E0,9.2E1,1.22E2,4.19E2,2.9E1,1.78E2,5.79E2,4.36E2,1.343E3,4.587E3,3E0,4E0,1E1,4.3E1,1E0,1E0,1E0,3E0,1.1E1,1E0,5E0,2E0,8.4E1,8E0,5.6E1,6.6E1,3.1E2,1.09E2,8E0,2.1E1,7E0,1.71E2,2.24E2,3.55E2,2E0,4.34E2,8.04E2,5.39E2,7.58E2,3.829E3,1E0,2E0,1E0,3E0,5E0,5E0,2.7E1,1.6E1,1E0,1E1,3E0,2E0,3E0,8.1E1,3E0,5E0,1E1,4.6E1,3.3E1,3.3E1,5.9E1,2.51E2,5.7E1,5.2E1,1.9E1,2E0,1E0,6E0,1.13E2,5.8E1,1.8E1,2.06E2,3E1,3.25E2,3.3E1,4.01E2,6.71E2,1.33E2,1.2E1,5.27E2,1.21E2,6.37E2,4.72E2,3.357E3,3E0,2E0,4E0,1E0,8E0,1.9E1,4E0,1.2E1,1E0,2E0,2E0,3E0,9E0,1E0,3.4E1,1.2E1,7E0,2.6E1,4E0,2.9E1,4.9E1,1E1,6.7E1,1.84E2,5E0,5.2E1,1.2E1,4E1,1.8E1,1E0,1E0,1E0,3E0,3E0,5.2E1,6.1E1,2.3E1,3.5E1,1.7E1,1E0,1.5E2,5.6E1,9E0,2.1E1,1.25E2,2E2,2.5E1,8E0,4E0,3.97E2,6.5E1,6.06E2,2.3E1,1.1E2,9E0,3E0,4.66E2,6.1E1,5.5E1,6.6E1,4.7E1,5.9E2,2.06E2,2.66E2,3.137E3,2.2E2],"tree_param":{"num_deleted":"0","num_feature":"12","num_nodes":"171","size_leaf_vector":"0"}},{"base_weights":[4.2760876E-1,1.7275712E0,3.9587638E-1,2.9709325E0,1.4934927E0,-4.5098425E-3,4.393428E-1,2.622589E0,9.618835E0,1.1085116E0,2.3119152E0,-4.8453487E-2,2.1841679E-2,5.32005E-3,4.7967252E-1,4.257125E0,1.3339273E0,7.2303736E-1,1.4869198E0,2.7523994E0,1.8404354E0,7.35386E-2,-5.1242653E-2,6.497028E-2,-1.2719957E-3,3.6601892E-1,-1.6924863E-1,3.644708E-1,5.168717E-1,-1.9940345E-1,5.698212E0,3.8049161E0,1.0890979E0,5.774892E-1,2.354655E0,2.6322785E-1,1.6088738E0,1.2134442E0,3.0213153E0,2.400647E0,1.0765237E0,-5.253877E-2,1.390609E-1,-8.592745E-3,-5.4325107E-2,2.3244856E-2,8.302497E-2,1.2168603E-2,-1.9082956E-2,1.0629905E0,3.3770487E-1,-1.8513271E-1,-1.2975173E-1,4.1670063E-1,3.0343544E-1,7.640986E-1,4.9828178E-1,8.329341E-1,6.2469935E0,1.4050399E-1,1.3148788E0,-1.2853573E-2,8.791193E-1,4.4282827E0,-4.935883E-2,1.3270622E-1,3.2398298E-1,1.8856717E0,1.1824725E0,1.6551983E0,9.1106284E-1,1.4356534E0,6.674995E-2,-8.427011E-3,-7.281481E-2,5.905158E-2,-4.1579057E-2,-6.2165957E-2,-3.3389736E-2,4.286815E-2,-7.565864E-2,6.9073625E-2,1.7066883E-1,3.3653905E-3,6.847822E-2,-3.506478E-2,6.90251E-3,6.436147E-1,1.4975562E0,2.654614E-1,4.688234E-1,-2.8847253E-1,-1.7809539E-1,3.8617264E-2,-1.6324115E-1,3.9981997E-1,5.458298E-1,2.6810473E-1,4.8824644E-1,1.9156675E-1,7.8151023E-1,2.8427914E-1,5.112988E-1,1.4040413E0,2.1754843E-1,3.4741655E-1,-1.6945736E-1,-2.1334459E-1,9.1554815E-1,6.446468E-1,-7.417179E-1,6.3742775E-1,1.9217215E0,5.528191E-1,1.2994281E0,1.9883901E-1,-1.2159153E-2,1.21713564E-1,-5.2387198E-3,-1.9175312E-2,-8.334124E-2,-4.8319235E-2,-7.0049874E-2,-4.6587385E-2,1.4892865E-2,2.276708E-2,1.358229E-1,1.2814496E-1,-1.11221656E-1,7.971164E-2,-6.965356E-3,2.2526608E-1,7.8972004E-2,-9.513123E-3,1.55896405E-2,3.0131653E-1,-1.7093007E-2,6.812893E-2,-4.2215005E-2,8.21779E-2,-5.5605504E-3,4.158811E-1,7.7325785E-1,3.7109622E-1,2.3771143E-1,4.254874E-2,4.8888278E-1,-4.5632416E-1,-1.586617E-1,-3.934187E-1,-1.7424302E-1,4.6190298E-1,-1.6234177E-1,-1.9060032E-1,4.0314204E-1,6.191417E-1,1.4894086E-1,2.3525888E-1,4.6836448E-1,6.4232105E-1,2.806124E-1,-4.569388E-2,6.9864357E-1,8.8765955E-1,6.8724793E-1,1.6142528E-1,3.1521046E-1,6.271508E-1,4.924536E-1],"categories":[],"categories_nodes":[],"categories_segments":[],"categories_sizes":[],"default_left":[true,true,true,true,true,true,true,true,false,true,true,true,true,true,true,true,true,true,true,true,true,true,true,true,true,true,true,true,true,false,true,false,true,true,true,true,true,true,false,false,true,true,false,true,true,true,true,true,true,true,true,true,true,true,true,true,true,false,false,false,true,true,true,false,true,false,false,true,false,false,true,false,true,false,false,true,true,true,true,true,true,true,true,true,true,true,true,true,false,true,true,true,true,true,false,true,true,true,true,true,true,true,true,false,false,false,false,false,false,false,false,false,false,false,false,false,false,false,false,false,false,false,false,false,false,false,false,false,false,false,false,false,false,false,false,false,false,false,false,false,false,false,false,false,false,false,false,false,false,false,false,false,false,false,false,false,false,false,false,false,false,false,false,false,false,false,false,false,false],"id":79,"left_children":[1,3,5,7,9,11,13,15,-1,17,19,21,23,25,27,29,31,33,35,37,39,41,43,45,47,49,51,53,55,-1,57,-1,59,61,63,65,67,69,-1,-1,71,73,-1,75,77,79,81,83,85,87,89,91,93,95,97,99,101,-1,-1,-1,103,105,107,-1,109,-1,-1,111,-1,-1,113,-1,115,-1,-1,117,119,121,123,125,127,129,131,133,135,137,139,141,-1,143,145,147,149,151,-1,153,155,157,159,161,163,165,167,-1,-1,-1,-1,-1,-1,-1,-1,-1,-1,-1,-1,-1,-1,-1,-1,-1,-1,-1,-1,-1,-1,-1,-1,-1,-1,-1,-1,-1,-1,-1,-1,-1,-1,-1,-1,-1,-1,-1,-1,-1,-1,-1,-1,-1,-1,-1,-1,-1,-1,-1,-1,-1,-1,-1,-1,-1,-1,-1,-1,-1,-1,-1,-1,-1,-1],"loss_changes":[3.2423486E2,5.2979004E1,1.3365283E2,5.9342224E1,4.8983856E1,8.7192106E-1,1.21248535E2,5.770717E1,0E0,1.5412201E1,8.698486E0,9.7004354E-2,4.6979293E-1,3.7131863E1,2.7086914E1,7.9665924E1,8.429583E0,1.2407782E1,7.940483E0,9.201263E0,9.930107E0,5.5990573E-2,3.52754E-2,1.2163949E-1,7.350922E-2,3.655838E0,2.3677444E-1,4.8834534E0,2.1871094E1,0E0,2.3083954E1,0E0,3.2016697E0,8.97876E0,2.1737835E1,2.1441966E-2,5.0353546E0,3.938055E-2,0E0,0E0,4.0565805E0,7.236232E-4,0E0,4.3709032E-2,4.0186346E-2,9.830165E-2,1.3245028E-1,8.5316435E-2,5.543987E-2,9.8454094E-1,1.7035885E0,1.8153572E-1,6.541971E-1,1.7302094E0,4.6163254E0,3.2690582E0,1.2354004E1,0E0,0E0,0E0,1.081728E0,9.9504244E-1,1.4017334E0,0E0,1.2820685E0,0E0,0E0,8.7498474E-1,0E0,0E0,1.9781446E-1,0E0,3.8213927E-2,0E0,0E0,2.7388792E-2,1.0479964E-2,1.7524183E-2,4.613836E-2,7.580633E-2,6.4911336E-2,8.157402E-2,6.649339E-2,2.3960587E-2,4.706738E-1,6.133987E-2,4.84662E-2,3.7409067E-3,0E0,3.1464005E-1,5.44137E-1,3.4476244E-1,1.8913841E-1,1.6738436E0,0E0,1.4768295E0,2.7321835E0,3.9086113E0,3.5843868E0,1.2631729E0,3.0193481E0,9.5030975E-1,9.051392E0,0E0,0E0,0E0,0E0,0E0,0E0,0E0,0E0,0E0,0E0,0E0,0E0,0E0,0E0,0E0,0E0,0E0,0E0,0E0,0E0,0E0,0E0,0E0,0E0,0E0,0E0,0E0,0E0,0E0,0E0,0E0,0E0,0E0,0E0,0E0,0E0,0E0,0E0,0E0,0E0,0E0,0E0,0E0,0E0,0E0,0E0,0E0,0E0,0E0,0E0,0E0,0E0,0E0,0E0,0E0,0E0,0E0,0E0,0E0,0E0,0E0,0E0,0E0,0E0,0E0,0E0],"parents":[2147483647,0,0,1,1,2,2,3,3,4,4,5,5,6,6,7,7,9,9,10,10,11,11,12,12,13,13,14,14,15,15,16,16,17,17,18,18,19,19,20,20,21,21,22,22,23,23,24,24,25,25,26,26,27,27,28,28,30,30,32,32,33,33,34,34,35,35,36,36,37,37,40,40,41,41,43,43,44,44,45,45,46,46,47,47,48,48,49,49,50,50,51,51,52,52,53,53,54,54,55,55,56,56,60,60,61,61,62,62,64,64,67,67,70,70,72,72,75,75,76,76,77,77,78,78,79,79,80,80,81,81,82,82,83,83,84,84,85,85,86,86,87,87,89,89,90,90,91,91,92,92,93,93,95,95,96,96,97,97,98,98,99,99,100,100,101,101,102,102],"right_children":[2,4,6,8,10,12,14,16,-1,18,20,22,24,26,28,30,32,34,36,38,40,42,44,46,48,50,52,54,56,-1,58,-1,60,62,64,66,68,70,-1,-1,72,74,-1,76,78,80,82,84,86,88,90,92,94,96,98,100,102,-1,-1,-1,104,106,108,-1,110,-1,-1,112,-1,-1,114,-1,116,-1,-1,118,120,122,124,126,128,130,132,134,136,138,140,142,-1,144,146,148,150,152,-1,154,156,158,160,162,164,166,168,-1,-1,-1,-1,-1,-1,-1,-1,-1,-1,-1,-1,-1,-1,-1,-1,-1,-1,-1,-1,-1,-1,-1,-1,-1,-1,-1,-1,-1,-1,-1,-1,-1,-1,-1,-1,-1,-1,-1,-1,-1,-1,-1,-1,-1,-1,-1,-1,-1,-1,-1,-1,-1,-1,-1,-1,-1,-1,-1,-1,-1,-1,-1,-1,-1,-1],"split_conditions":[7.4137926E-2,2.7272727E-2,3.9510223E-1,5.8854413E-1,2.777778E-1,7.6129995E-2,5.5555556E-2,1.6666667E-1,1.923767E-1,1.6666667E-1,3.888889E-1,1.8427517E-2,3.2068965E-1,9.8790765E-1,1.6666667E-1,5.5555556E-2,9.8790765E-1,1.3137093E-1,5.4084355E-1,9.689189E-1,6.545454E-1,6.818182E-1,4.2424244E-1,1.3484347E-1,6.621622E-1,1.8427517E-2,6.965602E-1,3.948276E-1,1.6034484E-1,-3.988069E-3,5.629188E-1,7.609832E-2,2.777778E-1,5.5555556E-2,6.724138E-2,5E-1,6.545454E-1,5E-1,6.0426306E-2,4.801294E-2,5E-1,1.3211198E-2,2.781218E-3,1.4482759E-1,8.30303E-1,3.0172414E-1,3.1551725E-1,6.4742017E-1,6.666666E-1,8.110852E-1,9.5682657E-1,3.3636364E-1,2.689655E-1,3.6551723E-1,8.30303E-1,7.920965E-1,7.920965E-1,1.665868E-2,1.2493987E-1,2.8100796E-3,4.4444448E-1,8.231776E-1,1.6878912E-2,8.8565655E-2,5.5555556E-2,2.6541245E-3,6.4796596E-3,9.8790765E-1,2.3649449E-2,3.3103965E-2,7.920965E-1,2.8713068E-2,5.629188E-1,-1.6854021E-4,-1.4562961E-3,4.0821142E-2,3.4655172E-1,6.242424E-1,4.8103446E-1,9.212121E-1,3.969697E-1,3.0172414E-1,8.30303E-1,4.7413793E-1,3.948276E-1,4.2424244E-1,5.5555556E-2,6.818182E-1,2.9951124E-2,2.6551723E-1,1.6379312E-1,3.6977887E-1,1.15517244E-1,7.2727275E-1,-3.264823E-3,8.275862E-2,9.533169E-1,1.3137093E-1,9.212121E-1,2.777778E-1,1.4619164E-1,1.6584766E-1,5.181818E-1,2.8080825E-2,4.3509686E-3,6.948331E-3,-3.389147E-3,-4.2668916E-3,1.8310962E-2,1.2892936E-2,-1.4834357E-2,1.2748554E-2,3.8434427E-2,1.1056381E-2,2.5988562E-2,3.97678E-3,-2.4318305E-4,2.4342712E-3,-1.0477439E-4,-3.835062E-4,-1.6668248E-3,-9.663847E-4,-1.4009975E-3,-9.3174767E-4,2.978573E-4,4.553416E-4,2.7164582E-3,2.5628991E-3,-2.224433E-3,1.5942327E-3,-1.3930711E-4,4.5053214E-3,1.5794401E-3,-1.9026245E-4,3.117928E-4,6.0263304E-3,-3.418601E-4,1.3625786E-3,-8.443001E-4,1.6435579E-3,-1.11211004E-4,8.317621E-3,1.5465157E-2,7.4219243E-3,4.7542285E-3,8.5097476E-4,9.777656E-3,-9.126483E-3,-3.1732337E-3,-7.868374E-3,-3.4848603E-3,9.23806E-3,-3.2468354E-3,-3.8120064E-3,8.06284E-3,1.2382833E-2,2.978817E-3,4.7051776E-3,9.367289E-3,1.28464205E-2,5.612248E-3,-9.138776E-4,1.3972871E-2,1.7753191E-2,1.3744959E-2,3.2285054E-3,6.304209E-3,1.2543015E-2,9.8490715E-3],"split_indices":[3,2,6,7,4,6,4,4,0,4,4,11,3,6,4,4,6,7,6,6,2,2,2,6,11,11,11,3,3,0,6,0,4,4,3,0,2,0,0,0,4,6,0,3,2,3,3,11,2,6,6,2,3,3,2,6,6,0,0,0,4,6,6,0,4,0,0,6,0,0,6,0,6,0,0,7,3,2,3,2,2,3,2,3,3,2,4,2,0,3,3,11,3,11,0,3,11,7,2,4,11,11,2,0,0,0,0,0,0,0,0,0,0,0,0,0,0,0,0,0,0,0,0,0,0,0,0,0,0,0,0,0,0,0,0,0,0,0,0,0,0,0,0,0,0,0,0,0,0,0,0,0,0,0,0,0,0,0,0,0,0,0,0,0,0,0,0,0,0],"split_type":[0,0,0,0,0,0,0,0,0,0,0,0,0,0,0,0,0,0,0,0,0,0,0,0,0,0,0,0,0,0,0,0,0,0,0,0,0,0,0,0,0,0,0,0,0,0,0,0,0,0,0,0,0,0,0,0,0,0,0,0,0,0,0,0,0,0,0,0,0,0,0,0,0,0,0,0,0,0,0,0,0,0,0,0,0,0,0,0,0,0,0,0,0,0,0,0,0,0,0,0,0,0,0,0,0,0,0,0,0,0,0,0,0,0,0,0,0,0,0,0,0,0,0,0,0,0,0,0,0,0,0,0,0,0,0,0,0,0,0,0,0,0,0,0,0,0,0,0,0,0,0,0,0,0,0,0,0,0,0,0,0,0,0,0,0,0,0,0,0],"sum_hessian":[7.866E3,1.87E2,7.679E3,2.9E1,1.58E2,7.52E2,6.927E3,2.8E1,1E0,1.08E2,5E1,2.82E2,4.7E2,5.89E2,6.338E3,1.2E1,1.6E1,5.4E1,5.4E1,2.5E1,2.5E1,6E0,2.76E2,1.64E2,3.06E2,1.92E2,3.97E2,1.548E3,4.79E3,3E0,9E0,1E0,1.5E1,5E1,4E0,5E0,4.9E1,4E0,2.1E1,1.4E1,1.1E1,2E0,4E0,1.9E1,2.57E2,5E1,1.14E2,1.74E2,1.32E2,7E0,1.85E2,2.82E2,1.15E2,8.33E2,7.15E2,3.34E2,4.456E3,1E0,8E0,3E0,1.2E1,1.7E1,3.3E1,2E0,2E0,2E0,3E0,2.9E1,2E1,1E0,3E0,8E0,3E0,1E0,1E0,6E0,1.3E1,1.86E2,7.1E1,4.2E1,8E0,9.9E1,1.5E1,1.51E2,2.3E1,8.2E1,5E1,4E0,3E0,1.2E2,6.5E1,1.7E1,2.65E2,1.9E1,9.6E1,7.38E2,9.5E1,6.01E2,1.14E2,1E1,3.24E2,2.56E2,4.2E3,1.1E1,1E0,5E0,1.2E1,1E0,3.2E1,1E0,1E0,1E0,2.8E1,2E0,1E0,1E0,2E0,3E0,3E0,9E0,4E0,6.9E1,1.17E2,5.6E1,1.5E1,3.5E1,7E0,1E0,7E0,8.7E1,1.2E1,9E0,6E0,7.3E1,7.8E1,6E0,1.7E1,5E0,7.7E1,7E0,4.3E1,2E0,2E0,2.4E1,9.6E1,3E0,6.2E1,7E0,1E1,4E0,2.61E2,6E0,1.3E1,4E0,7.34E2,8E1,1.5E1,5.17E2,8.4E1,6.5E1,4.9E1,7E0,3E0,1.51E2,1.73E2,5.2E1,2.04E2,5.86E2,3.614E3],"tree_param":{"num_deleted":"0","num_feature":"12","num_nodes":"169","size_leaf_vector":"0"}},{"base_weights":[4.3314952E-1,1.5785557E-3,8.1872874E-1,1.8546996E-1,-1.2717248E-1,1.0642821E1,7.897793E-1,1.876404E-2,4.3348676E-1,-9.1369045E-1,-1.0395934E-1,1.8064396E1,4.759373E0,3.168278E0,7.485741E-1,4.3071717E-1,1.04267355E-2,1.3810198E0,4.219361E-1,-1.9261187E0,-6.642292E-1,-1.8772446E-1,9.034514E-2,8.830947E0,4.3542747E1,-3.4422069E0,1.0705387E1,8.9797125E0,2.7783606E0,4.379003E-1,8.26799E-1,8.5014653E-1,3.6112863E-1,-1.1622114E-2,1.2261335E-1,1.8945125E0,1.0673375E0,3.4995574E-1,5.714988E-1,-1.5603717E-1,-2.0764506E0,-1.610668E-1,-7.997696E-1,-1.411277E-1,-2.3415689E-1,2.6427971E-2,2.3813076E-1,1.4123478E1,2.27029E0,6.684602E-1,-9.785432E0,-2.1873994E0,2.2074402E1,3.766818E-1,3.7195723E0,8.394383E-1,4.2914578E-1,1.5442792E0,8.016148E-1,2.2113436E-1,5.68272E-1,6.951221E-2,-3.0022945E-2,1.7975023E-1,-3.1513777E-1,1.1588398E0,4.9236214E-1,3.7630025E-1,1.4648336E-1,3.5848004E-1,6.2247956E-1,-2.6298306E0,-1.6530826E0,-1.864124E-1,-3.0558387E-2,-9.291952E-1,1.0498726E-1,4.582026E-1,-1.5192112E-1,-2.969387E-1,-8.0373846E-2,-2.0911876E-2,3.8866606E-1,1.16627075E-1,9.5240825E-1,2.142856E-1,3.7478483E0,7.7576363E-1,2.6839762E-3,6.403998E0,2.7738073E0,1.3710042E0,5.8571535E-1,4.699701E-1,3.3611414E-1,8.434804E-1,2.2232432E0,8.7118924E-1,6.531847E-1,5.5022705E-1,1.18423924E-1,2.695886E-1,8.058279E-1,1.7082298E-1,5.2081946E-2,-1.833737E-2,-5.528387E-2,7.854093E-2,3.0358967E-1,-1.7709155E-1,-4.5542705E-1,3.455419E-1,8.0580664E-1,6.888951E-1,1.2986927E-1,-2.3640741E-1,3.7642744E-1,7.032961E-1,4.602344E-1,-9.366001E-1,-1.8605219E0,-6.65876E-1,-1.4010842E0,-3.9567617E-1,4.492343E-1,9.395054E-1,1.9750055E-2,-2.2180316E-1,-1.0296684E-1,-1.5716466E-1,-3.5350773E-1,4.9397215E-2,-2.7170533E-1,-6.3462084E-4,-5.6596786E-1,2.0729291E0,2.7194375E-1,9.687979E-1,8.28439E-2,2.1456122E0,7.2627604E-1,9.23472E-1,5.309813E-1,3.547369E-1,-5.087647E-1,6.922027E0,3.188679E0,-5.118874E-1,3.5641954E0,1.6390566E0,7.860388E-1,7.23023E-2,8.275446E-1,3.7461615E-1,5.498247E-1,3.8565773E-1,-7.045774E-2,5.8048135E-1,1.0533851E0,4.8469415E0,1.8780897E0,7.604334E-1,1.2347069E0,2.0400362E0,6.4427006E-1],"categories":[],"categories_nodes":[],"categories_segments":[],"categories_sizes":[],"default_left":[true,true,true,true,true,true,true,true,true,true,true,true,true,true,true,true,true,true,true,true,true,true,true,true,false,true,true,false,true,true,true,false,true,true,true,false,true,true,true,false,true,true,true,true,true,true,true,false,true,false,false,false,false,true,true,true,true,true,true,true,true,true,true,true,true,false,false,true,true,true,true,false,true,false,false,true,true,true,true,true,true,true,true,true,true,false,false,true,true,true,true,true,true,true,true,true,true,true,true,false,false,false,false,false,false,false,false,false,false,false,false,false,false,false,false,false,false,false,false,false,false,false,false,false,false,false,false,false,false,false,false,false,false,false,false,false,false,false,false,false,false,false,false,false,false,false,false,false,false,false,false,false,false,false,false,false,false,false,false,false,false,false,false,false,false],"id":80,"left_children":[1,3,5,7,9,11,13,15,17,19,21,23,25,27,29,31,33,35,37,39,41,43,45,47,-1,49,51,-1,53,55,57,-1,59,61,63,-1,65,67,69,-1,71,73,75,77,79,81,83,-1,85,-1,-1,-1,-1,87,89,91,93,95,97,99,101,103,105,107,109,-1,-1,111,113,115,117,-1,119,-1,-1,121,123,125,127,129,131,133,135,137,139,-1,-1,141,143,145,147,149,151,153,155,157,159,161,163,-1,-1,-1,-1,-1,-1,-1,-1,-1,-1,-1,-1,-1,-1,-1,-1,-1,-1,-1,-1,-1,-1,-1,-1,-1,-1,-1,-1,-1,-1,-1,-1,-1,-1,-1,-1,-1,-1,-1,-1,-1,-1,-1,-1,-1,-1,-1,-1,-1,-1,-1,-1,-1,-1,-1,-1,-1,-1,-1,-1,-1,-1,-1,-1,-1,-1],"loss_changes":[1.3256239E3,8.901546E1,1.1936067E3,6.4008026E1,4.0327362E1,5.0953833E2,4.1032397E2,3.173775E0,6.591194E0,1.5532013E1,3.4973183E1,1.1257408E3,3.700213E2,1.5315265E2,1.00092285E2,4.154501E-1,2.2488992E0,4.6467304E-1,6.544586E0,3.142048E0,3.4442177E0,3.2319145E0,6.108864E0,1.3954248E2,0E0,8.9231224E1,6.5157837E2,0E0,1.5168085E2,2.7806244E0,5.907959E1,0E0,4.2048693E-1,1.1337711E0,3.7520478E0,0E0,6.678057E-2,2.2058678E0,2.0763245E0,0E0,1.1444397E0,3.2494515E-2,4.767288E0,4.8726215E0,7.240616E0,7.7647047E0,1.6900185E1,0E0,6.7644444E0,0E0,0E0,0E0,0E0,2.8738337E0,1.1665625E2,2.042079E0,3.024826E0,5.2305298E1,3.266272E1,3.1801754E-1,3.616011E-1,2.4166471E-1,1.8143189E-1,1.645227E0,2.997694E-1,0E0,0E0,4.7567444E0,3.940524E-1,4.516244E-1,1.9777718E0,0E0,4.68956E-1,0E0,0E0,4.0498505E0,9.7927296E-1,2.7938712E0,2.510189E0,4.1911926E0,5.428712E0,4.4163795E0,1.0066861E1,4.7756042E0,7.0843735E0,0E0,0E0,1.5320158E-1,1.9186008E0,1.30383E1,9.500903E1,3.7207127E-1,1.4985147E0,4.21521E0,5.0358906E0,2.8274536E0,4.7882874E1,8.687866E1,1.2100983E1,0E0,0E0,0E0,0E0,0E0,0E0,0E0,0E0,0E0,0E0,0E0,0E0,0E0,0E0,0E0,0E0,0E0,0E0,0E0,0E0,0E0,0E0,0E0,0E0,0E0,0E0,0E0,0E0,0E0,0E0,0E0,0E0,0E0,0E0,0E0,0E0,0E0,0E0,0E0,0E0,0E0,0E0,0E0,0E0,0E0,0E0,0E0,0E0,0E0,0E0,0E0,0E0,0E0,0E0,0E0,0E0,0E0,0E0,0E0,0E0,0E0,0E0,0E0,0E0,0E0,0E0],"parents":[2147483647,0,0,1,1,2,2,3,3,4,4,5,5,6,6,7,7,8,8,9,9,10,10,11,11,12,12,13,13,14,14,15,15,16,16,17,17,18,18,19,19,20,20,21,21,22,22,23,23,25,25,26,26,28,28,29,29,30,30,32,32,33,33,34,34,36,36,37,37,38,38,40,40,41,41,42,42,43,43,44,44,45,45,46,46,48,48,53,53,54,54,55,55,56,56,57,57,58,58,59,59,60,60,61,61,62,62,63,63,64,64,67,67,68,68,69,69,70,70,72,72,75,75,76,76,77,77,78,78,79,79,80,80,81,81,82,82,83,83,84,84,87,87,88,88,89,89,90,90,91,91,92,92,93,93,94,94,95,95,96,96,97,97,98,98],"right_children":[2,4,6,8,10,12,14,16,18,20,22,24,26,28,30,32,34,36,38,40,42,44,46,48,-1,50,52,-1,54,56,58,-1,60,62,64,-1,66,68,70,-1,72,74,76,78,80,82,84,-1,86,-1,-1,-1,-1,88,90,92,94,96,98,100,102,104,106,108,110,-1,-1,112,114,116,118,-1,120,-1,-1,122,124,126,128,130,132,134,136,138,140,-1,-1,142,144,146,148,150,152,154,156,158,160,162,164,-1,-1,-1,-1,-1,-1,-1,-1,-1,-1,-1,-1,-1,-1,-1,-1,-1,-1,-1,-1,-1,-1,-1,-1,-1,-1,-1,-1,-1,-1,-1,-1,-1,-1,-1,-1,-1,-1,-1,-1,-1,-1,-1,-1,-1,-1,-1,-1,-1,-1,-1,-1,-1,-1,-1,-1,-1,-1,-1,-1,-1,-1,-1,-1,-1,-1],"split_conditions":[6.621175E-1,6.572582E-1,2.7272727E-2,3.989272E-1,6.724138E-2,8.349742E-1,6.724138E-2,7.4137926E-2,9.6551724E-2,2.7272727E-2,2.777778E-1,8.2200134E-1,2.777778E-1,7.7943826E-1,9.8790765E-1,2.7272727E-2,3.6276892E-1,4.155457E-1,6.341465E-1,5.5555556E-2,5.5555556E-2,6.0565114E-1,8.30303E-1,7.876776E-1,8.708549E-1,8.7090075E-1,8.7090075E-1,1.7959425E-1,8.2218254E-1,1.15517244E-1,1.8427517E-2,1.700293E-2,2.4243233E-1,8.23977E-2,3.9022523E-1,3.7890248E-2,6.255075E-1,6.324857E-1,9.689189E-1,-3.1207432E-3,1.6666667E-1,5.272727E-1,5E-1,1.15517244E-1,7.5757575E-1,9.533169E-1,6.189655E-1,2.8246954E-1,8.0442405E-1,1.3369204E-2,-1.9570863E-1,-4.3747988E-2,4.4148803E-1,1.6666667E-1,8.349742E-1,9.5682657E-1,5.8854413E-1,6.818182E-1,8.349742E-1,3.5031803E-2,2.607362E-2,1.3390663E-1,6.965602E-1,3.8253418E-1,3.9342475E-1,2.3176797E-2,9.847242E-3,9.689189E-1,4.2424244E-1,2.2586207E-1,3.888889E-1,-5.259661E-2,2.777778E-1,-3.7282477E-3,-6.1116775E-4,2.777778E-1,5.272727E-1,2.088452E-1,3.1551725E-1,5.5555556E-2,9.212121E-1,8.327586E-1,2.6206896E-1,1.15517244E-1,6.2931037E-1,4.285712E-3,7.495696E-2,7.958708E-1,7.958708E-1,3.888889E-1,8.571358E-1,7.4242425E-1,1.6666667E-1,8.147807E-1,9.345995E-1,2.777778E-1,7.7025306E-1,8.2218254E-1,7.4137926E-2,1.1004541E-2,2.3684783E-3,5.391772E-3,1.6116558E-2,3.4164595E-3,1.0416389E-3,-3.667474E-4,-1.1056773E-3,1.5708185E-3,6.0717934E-3,-3.541831E-3,-9.108541E-3,6.9108377E-3,1.6116133E-2,1.3777901E-2,2.5973853E-3,-4.728148E-3,7.5285486E-3,1.4065922E-2,9.204688E-3,-1.8732002E-2,-3.721044E-2,-1.3317519E-2,-2.8021684E-2,-7.913523E-3,8.984686E-3,1.8790107E-2,3.950011E-4,-4.436063E-3,-2.0593368E-3,-3.143293E-3,-7.0701544E-3,9.879443E-4,-5.4341066E-3,-1.2692417E-5,-1.1319357E-2,4.145858E-2,5.438875E-3,1.9375958E-2,1.6568779E-3,4.2912245E-2,1.4525521E-2,1.846944E-2,1.0619625E-2,7.0947376E-3,-1.0175293E-2,1.3844053E-1,6.377358E-2,-1.0237747E-2,7.128391E-2,3.278113E-2,1.5720775E-2,1.4460459E-3,1.6550893E-2,7.492323E-3,1.0996494E-2,7.7131544E-3,-1.4091549E-3,1.1609627E-2,2.1067703E-2,9.6938826E-2,3.7561793E-2,1.5208667E-2,2.4694137E-2,4.0800724E-2,1.2885401E-2],"split_indices":[1,1,2,1,3,1,3,3,3,2,4,1,4,1,6,2,1,1,1,4,4,11,2,1,0,1,1,0,1,3,11,0,1,1,1,0,1,1,6,0,4,2,4,3,2,11,3,0,1,0,0,0,0,4,1,6,7,2,1,1,7,11,11,1,1,0,0,6,2,3,4,0,4,0,0,4,2,11,3,4,2,3,3,3,3,0,0,1,1,4,1,2,4,1,1,4,1,1,3,0,0,0,0,0,0,0,0,0,0,0,0,0,0,0,0,0,0,0,0,0,0,0,0,0,0,0,0,0,0,0,0,0,0,0,0,0,0,0,0,0,0,0,0,0,0,0,0,0,0,0,0,0,0,0,0,0,0,0,0,0,0,0,0,0,0],"split_type":[0,0,0,0,0,0,0,0,0,0,0,0,0,0,0,0,0,0,0,0,0,0,0,0,0,0,0,0,0,0,0,0,0,0,0,0,0,0,0,0,0,0,0,0,0,0,0,0,0,0,0,0,0,0,0,0,0,0,0,0,0,0,0,0,0,0,0,0,0,0,0,0,0,0,0,0,0,0,0,0,0,0,0,0,0,0,0,0,0,0,0,0,0,0,0,0,0,0,0,0,0,0,0,0,0,0,0,0,0,0,0,0,0,0,0,0,0,0,0,0,0,0,0,0,0,0,0,0,0,0,0,0,0,0,0,0,0,0,0,0,0,0,0,0,0,0,0,0,0,0,0,0,0,0,0,0,0,0,0,0,0,0,0,0,0],"sum_hessian":[7.966E3,3.759E3,4.207E3,1.548E3,2.211E3,1.2E1,4.195E3,9.26E2,6.22E2,6.3E1,2.148E3,5E0,7E0,7.1E1,4.124E3,1.8E1,9.08E2,7E0,6.15E2,1.2E1,5.1E1,1.501E3,6.47E2,4E0,1E0,3E0,4E0,4E0,6.7E1,8.3E2,3.294E3,2E0,1.6E1,7.59E2,1.49E2,2E0,5E0,4.16E2,1.99E2,1E0,1.1E1,1.1E1,4E1,7.5E2,7.51E2,4.52E2,1.95E2,2E0,2E0,2E0,1E0,2E0,2E0,1.9E1,4.8E1,1.7E1,8.13E2,1.11E2,3.183E3,1E1,6E0,1.4E2,6.19E2,1.32E2,1.7E1,4E0,1E0,3.68E2,4.8E1,3.9E1,1.6E2,4E0,7E0,9E0,2E0,3.5E1,5E0,1.3E1,7.37E2,5.33E2,2.18E2,4E2,5.2E1,1.67E2,2.8E1,1E0,1E0,9E0,1E1,1.2E1,3.6E1,5E0,1.2E1,5.64E2,2.49E2,5.5E1,5.6E1,2.166E3,1.017E3,2E0,8E0,3E0,3E0,2E1,1.2E2,4.24E2,1.95E2,7.3E1,5.9E1,9E0,8E0,3.44E2,2.4E1,1E0,4.7E1,1E0,3.8E1,1.06E2,5.4E1,2E0,5E0,2.3E1,1.2E1,2E0,3E0,6E0,7E0,3.03E2,4.34E2,1.54E2,3.79E2,1.3E2,8.8E1,3.86E2,1.4E1,3E0,4.9E1,6E0,1.61E2,4E0,2.4E1,5E0,4E0,6E0,4E0,1E1,2E0,7E0,2.9E1,3E0,2E0,4E0,8E0,2.58E2,3.06E2,2.22E2,2.7E1,2.5E1,3E1,6E0,5E1,1.661E3,5.05E2,6E0,1.011E3],"tree_param":{"num_deleted":"0","num_feature":"12","num_nodes":"165","size_leaf_vector":"0"}},{"base_weights":[4.2754176E-1,4.45651E0,4.1351148E-1,4.614514E0,2.1107157E-1,-1.0070124E-3,4.5852965E-1,3.6288276E0,6.022231E0,3.52856E-1,-8.687621E-3,-3.982596E-3,5.01367E-1,5.0020366E0,4.8123378E-1,9.262738E0,5.3425665E0,1.422206E-1,3.7794277E-1,7.869831E-2,-2.3352169E-2,3.6798888E-1,-1.7613383E-1,1.4147956E0,4.7879103E-1,1.8932757E0,6.0436993E0,3.6916363E0,-5.403939E-1,4.2415792E-1,2.707621E-1,2.3018586E-2,1.4009692E-1,-5.8511127E-2,-3.5564153E-4,7.871663E-1,3.3313876E-1,-5.9006874E-2,-1.7926735E-1,5.6036437E-1,1.7167944E0,1.2391838E0,4.715726E-1,2.798575E0,-1.5369685E-1,4.7522575E-1,2.8042027E-1,8.3965115E-2,3.0411476E-1,4.1017509E-1,1.3464723E-2,4.0243376E-2,1.7323798E-1,-6.2328365E-2,-3.375157E-2,2.9172335E-2,-1.6177293E-2,1.2476482E0,4.9437824E-1,2.6141843E-1,4.659602E-1,-1.5513296E-1,5.6157317E-2,-2.5679022E-1,-1.7640756E-1,3.0950837E0,3.3469883E-1,2.3068764E0,1.1061859E0,-1.262064E0,1.3340257E0,4.0716705E-1,5.473146E-1,6.438013E-1,4.24279E0,1.7844062E-1,3.7805295E-1,2.6704438E-4,1.1538841E-1,6.9011204E-2,-9.911778E-2,1.5591438E-1,4.121063E-1,-6.864833E-2,-4.860646E-2,2.6385326E-2,-5.219628E-2,2.159098E-2,7.8060865E-1,-2.154238E-2,1.5965898E-2,1.67811E-1,7.261306E-1,2.0519394E-1,3.4959668E-1,1.2853568E0,4.450383E-1,3.312087E-1,-1.3772087E-1,-2.0524178E-1,-6.586548E-1,-1.6507876E-1,-1.9399866E-1,1.8244637E-2,2.2888932E0,2.4825456E0,1.1518248E0,8.0087304E-1,1.8553528E0,3.2858827E0,1.2058252E0,2.5253198E-1,4.215903E-1,7.5879043E-1,5.0473773E-1],"categories":[],"categories_nodes":[],"categories_segments":[],"categories_sizes":[],"default_left":[true,true,true,true,false,true,true,true,true,true,true,true,true,true,true,false,false,false,true,true,true,true,true,true,true,true,false,false,false,true,true,true,true,true,true,true,true,true,true,true,true,true,true,true,false,false,true,false,false,false,true,true,true,true,true,true,true,false,true,true,true,false,true,true,true,false,true,true,true,false,true,true,true,false,false,false,false,false,false,false,false,false,false,false,false,false,false,false,false,false,false,false,false,false,false,false,false,false,false,false,false,false,false,false,false,false,false,false,false,false,false,false,false,false,false],"id":81,"left_children":[1,3,5,7,-1,9,11,13,15,17,19,21,23,25,27,-1,-1,-1,29,31,33,35,37,39,41,43,-1,-1,-1,45,47,49,51,53,55,57,59,61,63,65,67,69,71,73,-1,-1,75,-1,-1,-1,77,79,81,83,85,87,89,-1,91,93,95,-1,97,99,101,-1,103,105,107,-1,109,111,113,-1,-1,-1,-1,-1,-1,-1,-1,-1,-1,-1,-1,-1,-1,-1,-1,-1,-1,-1,-1,-1,-1,-1,-1,-1,-1,-1,-1,-1,-1,-1,-1,-1,-1,-1,-1,-1,-1,-1,-1,-1,-1],"loss_changes":[4.451671E2,1.7941467E1,1.4668726E2,2.9114258E1,0E0,2.0897896E0,1.4048682E2,6.9717316E1,6.0482483E0,6.0964584E-2,9.6648294E-1,3.8525475E1,1.3356702E2,3.2772003E1,1.8203117E1,0E0,0E0,0E0,2.2788763E-2,3.6695302E-1,5.217359E-1,2.6770382E0,1.4404202E-1,3.998654E1,3.4543335E1,6.3584948E0,0E0,0E0,0E0,1.3293028E-2,1.9177675E-2,2.0418279E-1,1.6450536E-1,2.2060394E-2,1.827957E-1,1.7019529E0,1.6287556E0,1.2978171E-1,6.746864E-2,2.3248323E1,4.0656036E1,1.4637756E1,3.0519531E1,6.2810802E0,0E0,0E0,2.7559996E-3,0E0,0E0,0E0,7.411732E-2,5.5307038E-2,1.2909722E-1,1.6322494E-2,4.001959E-2,7.59616E-1,4.422675E-2,0E0,6.529968E-1,5.399618E-1,8.3602047E-1,0E0,3.023862E-1,2.1880686E-1,6.138897E-2,0E0,2.3659082E1,1.0830902E1,1.2580505E1,0E0,1.2961159E1,7.520935E0,2.5806702E1,0E0,0E0,0E0,0E0,0E0,0E0,0E0,0E0,0E0,0E0,0E0,0E0,0E0,0E0,0E0,0E0,0E0,0E0,0E0,0E0,0E0,0E0,0E0,0E0,0E0,0E0,0E0,0E0,0E0,0E0,0E0,0E0,0E0,0E0,0E0,0E0,0E0,0E0,0E0,0E0,0E0,0E0],"parents":[2147483647,0,0,1,1,2,2,3,3,5,5,6,6,7,7,8,8,9,9,10,10,11,11,12,12,13,13,14,14,18,18,19,19,20,20,21,21,22,22,23,23,24,24,25,25,29,29,30,30,31,31,32,32,33,33,34,34,35,35,36,36,37,37,38,38,39,39,40,40,41,41,42,42,43,43,46,46,50,50,51,51,52,52,53,53,54,54,55,55,56,56,58,58,59,59,60,60,62,62,63,63,64,64,66,66,67,67,68,68,70,70,71,71,72,72],"right_children":[2,4,6,8,-1,10,12,14,16,18,20,22,24,26,28,-1,-1,-1,30,32,34,36,38,40,42,44,-1,-1,-1,46,48,50,52,54,56,58,60,62,64,66,68,70,72,74,-1,-1,76,-1,-1,-1,78,80,82,84,86,88,90,-1,92,94,96,-1,98,100,102,-1,104,106,108,-1,110,112,114,-1,-1,-1,-1,-1,-1,-1,-1,-1,-1,-1,-1,-1,-1,-1,-1,-1,-1,-1,-1,-1,-1,-1,-1,-1,-1,-1,-1,-1,-1,-1,-1,-1,-1,-1,-1,-1,-1,-1,-1,-1,-1],"split_conditions":[2.7272727E-2,4.4444448E-1,3.9510223E-1,2.777778E-1,4.2214314E-3,7.4137926E-2,5.5555556E-2,1.6666667E-1,9.689189E-1,3.6677136E-3,1.7338854E-1,9.8790765E-1,3.2409076E-2,5.5555556E-2,9.8790765E-1,1.8525477E-1,1.06851324E-1,2.8444119E-3,1.6666667E-1,1.3484347E-1,7.6129995E-2,1.6034484E-1,2.1276595E-3,1.6666667E-1,7.4137926E-2,8.231776E-1,1.2087398E-1,7.383273E-2,-1.0807877E-2,1.8181819E-1,5.272727E-1,2.4576882E-2,1.6680852E-1,7.1034485E-1,4.864062E-1,1.7266834E-1,9.5682657E-1,1.4169967E-1,3.0878644E-2,6.3859776E-2,9.6551724E-2,5.185452E-2,2.777778E-1,3.9510223E-1,-3.073937E-3,9.504515E-3,1.3044652E-1,1.6793023E-3,6.082295E-3,8.203502E-3,9.212121E-1,4.948276E-1,1.6330573E-1,8.30303E-1,6.242424E-1,4.8487574E-1,9.212121E-1,2.4952965E-2,1.4482759E-1,6.4422035E-1,1.48936175E-2,-3.1026592E-3,3.3636364E-1,3E-1,7.5757575E-1,6.1901674E-2,2.6107311E-2,2.1065898E-2,2.7637739E-2,-2.5241278E-2,7.958229E-2,7.920965E-1,2.481995E-1,1.2876025E-2,8.48558E-2,3.5688123E-3,7.5610587E-3,5.3408876E-6,2.3077682E-3,1.380224E-3,-1.9823555E-3,3.1182875E-3,8.242126E-3,-1.3729666E-3,-9.721292E-4,5.277065E-4,-1.0439255E-3,4.318196E-4,1.5612173E-2,-4.3084758E-4,3.1931794E-4,3.35622E-3,1.4522612E-2,4.1038785E-3,6.9919336E-3,2.5707135E-2,8.900765E-3,6.624174E-3,-2.7544172E-3,-4.1048354E-3,-1.3173096E-2,-3.301575E-3,-3.8799732E-3,3.6489274E-4,4.5777865E-2,4.965091E-2,2.3036497E-2,1.6017461E-2,3.7107054E-2,6.571765E-2,2.4116503E-2,5.0506396E-3,8.431806E-3,1.5175808E-2,1.0094754E-2],"split_indices":[2,4,6,4,0,3,4,4,6,6,5,6,5,4,6,0,0,0,4,6,6,3,10,4,3,6,0,0,0,2,2,5,10,3,5,5,6,5,5,9,3,5,4,6,0,0,5,0,0,0,2,3,5,2,2,5,2,0,3,5,10,0,2,3,2,0,5,5,5,0,5,6,5,0,0,0,0,0,0,0,0,0,0,0,0,0,0,0,0,0,0,0,0,0,0,0,0,0,0,0,0,0,0,0,0,0,0,0,0,0,0,0,0,0,0],"split_type":[0,0,0,0,0,0,0,0,0,0,0,0,0,0,0,0,0,0,0,0,0,0,0,0,0,0,0,0,0,0,0,0,0,0,0,0,0,0,0,0,0,0,0,0,0,0,0,0,0,0,0,0,0,0,0,0,0,0,0,0,0,0,0,0,0,0,0,0,0,0,0,0,0,0,0,0,0,0,0,0,0,0,0,0,0,0,0,0,0,0,0,0,0,0,0,0,0,0,0,0,0,0,0,0,0,0,0,0,0,0,0,0,0,0,0],"sum_hessian":[7.887E3,2.7E1,7.86E3,2.6E1,1E0,7.7E2,7.09E3,1.6E1,1E1,1.6E1,7.54E2,6.01E2,6.489E3,1.1E1,5E0,1E0,9E0,2E0,1.4E1,1.08E2,6.46E2,1.9E2,4.11E2,1.56E2,6.333E3,3E0,8E0,1E0,4E0,9E0,5E0,5.7E1,5.1E1,2.55E2,3.91E2,1.4E1,1.76E2,1.1E1,4E2,4.1E1,1.15E2,5.9E1,6.274E3,2E0,1E0,6E0,3E0,1E0,4E0,1E0,5.6E1,1.3E1,3.8E1,2.2E2,3.5E1,1.36E2,2.55E2,5E0,9E0,1.15E2,6.1E1,6E0,5E0,1.3E1,3.87E2,3E0,3.8E1,5.8E1,5.7E1,2E0,5.7E1,3.392E3,2.882E3,1E0,1E0,2E0,1E0,5E1,6E0,1.1E1,2E0,3.6E1,2E0,1.49E2,7.1E1,8E0,2.7E1,1.35E2,1E0,2.19E2,3.6E1,4E0,5E0,7.1E1,4.4E1,1E0,6E1,2E0,3E0,1.2E1,1E0,2.38E2,1.49E2,3.3E1,5E0,5E1,8E0,4.1E1,1.6E1,3E0,5.4E1,2.9E2,3.102E3,4.82E2,2.4E3],"tree_param":{"num_deleted":"0","num_feature":"12","num_nodes":"115","size_leaf_vector":"0"}},{"base_weights":[4.1632357E-1,1.1415956E-2,7.83561E-1,1.7168702E-1,-1.0376722E-1,1.5669357E1,7.4988073E-1,5.993477E-3,3.8148892E-1,-7.2777873E-1,-7.685453E-2,3.2994022E1,9.44227E0,2.0626361E0,7.2247535E-1,4.1497794E-1,-2.941769E-4,3.3240929E0,3.7135205E-1,-1.7113435E0,-5.696378E-1,-1.574797E-1,1.09450005E-1,1.4927248E1,4.279903E1,5.3730936E0,2.639728E1,5.7655754E0,1.7542807E0,4.2484626E-1,7.996265E-1,5.371903E-1,2.493676E-1,7.631505E-2,-1.6804596E-2,4.179155E0,1.6270521E0,3.0632877E-1,5.18488E-1,-1.9023935E-1,-2.1919374E0,-1.4387071E-1,-6.694944E-1,-2.2162612E-1,-7.350882E-2,1.4331487E0,8.958007E-2,1.9385874E-1,1.0010539E1,8.505604E0,2.4444954E0,4.6785223E-1,2.4275897E0,3.9195973E-1,6.510737E-1,1.0440688E0,7.525491E-1,1.6973479E-1,5.8401924E-1,3.6734134E-1,1.0216873E-1,1.5802488E-1,6.138192E-2,-4.534052E-2,1.3867073E-2,6.0694474E-1,2.8653294E-1,1.1186575E0,4.8675457E-1,-2.7356148E0,-1.3508333E0,-1.6812095E-1,-3.547607E-2,-6.0837525E-1,-1.2934351E0,-3.9363852E-1,-1.9288714E-1,4.6743207E-2,-1.4579602E-1,5.609389E0,3.7177484E-2,3.2081775E-2,4.0837297E-1,-6.705981E-1,6.662649E-1,3.6622515E0,1.860544E1,2.9185514E0,9.929231E-1,2.5613933E0,1.7405778E-1,5.0750823E0,1.5764934E0,5.9321165E-1,3.7294418E-1,4.801762E-1,1.157141E0,9.1724354E-1,1.4309942E0,5.279934E-1,7.878323E-1,1.7319778E-1,6.475428E-1,2.5136918E-1,1.336389E-1,4.3384574E-2,1.2237027E-1,4.1410033E-2,-5.0916098E-2,-1.2782389E-2,8.04532E-2,2.1588637E-1,7.2565234E-1,6.413432E-1,2.712682E-1,1.6684421E0,9.1823536E-1,1.1337051E0,4.648739E-1,9.159123E-3,-6.2026024E-2,-7.100627E-1,-1.11732416E-1,-6.5787695E-2,-4.723555E-1,-4.356536E-2,-2.6556277E-1,-4.5331478E-2,1.9265221E-1,-3.6770642E-1,-6.5347046E-2,8.294918E0,1.5103786E0,-1.3758332E0,1.1245499E0,-1.5878212E-1,1.6081056E-1,6.3968915E-1,1.0066459E-1,9.123811E0,-2.7044587E0,5.6226146E-1,3.3316488E0,8.0186176E-1,-1.489333E-1,1.1251957E1,4.197739E0,1.150834E0,4.2153726E0,1.1230452E0,5.692045E-1,4.3061155E-1,3.420526E-1,8.301389E-1,4.312556E-1,5.3567E0,5.4003406E-1,7.627648E-1,1.0806383E0,2.4420662E0,1.2782478E0,6.393473E-1,3.2853025E-1,8.646661E-1,6.287815E-1],"categories":[],"categories_nodes":[],"categories_segments":[],"categories_sizes":[],"default_left":[true,true,true,true,true,true,true,true,true,true,true,true,true,true,true,true,true,true,true,true,true,true,true,false,false,true,false,true,true,true,true,true,true,true,true,false,false,true,true,false,true,true,true,true,true,true,true,true,true,false,true,true,true,true,true,true,true,false,true,false,false,true,true,true,true,true,true,true,true,false,false,false,true,true,false,true,true,true,true,true,true,true,true,false,false,true,false,false,false,true,true,true,true,true,true,true,true,true,true,true,true,false,false,false,false,false,false,false,false,false,false,false,false,false,false,false,false,false,false,false,false,false,false,false,false,false,false,false,false,false,false,false,false,false,false,false,false,false,false,false,false,false,false,false,false,false,false,false,false,false,false,false,false,false,false,false,false,false,false,false,false,false,false,false,false],"id":82,"left_children":[1,3,5,7,9,11,13,15,17,19,21,23,25,27,29,31,33,35,37,39,41,43,45,-1,-1,47,-1,49,51,53,55,57,59,61,63,-1,-1,65,67,-1,69,71,73,75,77,79,81,83,85,-1,87,89,91,93,95,97,99,-1,101,-1,-1,103,105,107,109,111,113,115,117,-1,-1,-1,119,121,-1,123,125,127,129,131,133,135,137,-1,-1,139,-1,-1,-1,141,143,145,147,149,151,153,155,157,159,161,163,-1,-1,-1,-1,-1,-1,-1,-1,-1,-1,-1,-1,-1,-1,-1,-1,-1,-1,-1,-1,-1,-1,-1,-1,-1,-1,-1,-1,-1,-1,-1,-1,-1,-1,-1,-1,-1,-1,-1,-1,-1,-1,-1,-1,-1,-1,-1,-1,-1,-1,-1,-1,-1,-1,-1,-1,-1,-1,-1,-1,-1,-1,-1,-1],"loss_changes":[1.1745947E3,6.9369286E1,2.072637E3,5.4617687E1,3.668679E1,9.024209E2,1.481665E2,2.2646365E0,2.0216965E1,1.3693012E1,3.1495117E1,1.9949341E2,4.582066E2,9.281363E1,9.285181E1,2.1397376E-1,1.0940963E0,1.0357151E0,6.5494385E0,8.843143E0,3.2866764E0,7.8725014E0,1.6593285E1,0E0,0E0,1.513273E2,0E0,5.054396E1,6.7429565E1,6.1073303E0,3.6713623E1,8.238292E-2,9.077194E-2,1.807307E-1,6.2412447E-1,0E0,0E0,2.7877007E0,3.8204613E0,0E0,2.9775124E0,3.541246E-2,2.1256714E0,4.0660934E0,5.517744E0,5.426323E1,1.1433411E1,1.5102375E0,1.5884421E2,0E0,1.2716923E0,1.6624327E1,1.12905304E2,2.703537E0,8.901188E0,2.4964355E1,2.1213623E1,0E0,1.16176605E-1,0E0,0E0,3.641987E-2,1.3892299E-1,1.794796E-1,6.1054814E-1,1.2960348E0,2.3734245E0,5.908518E-1,2.6514664E0,0E0,0E0,0E0,4.893915E-3,2.907795E0,0E0,3.0358448E0,7.7111607E0,3.206911E0,7.0613394E0,2.1369133E1,1.178001E1,1.3014097E1,6.753605E0,0E0,0E0,8.945982E1,0E0,0E0,0E0,4.452799E0,4.9833593E0,5.0866882E1,4.248758E1,5.55563E-1,1.1286697E0,1.2208443E0,6.719644E1,9.576508E0,1.8571045E1,8.074997E0,2.8275269E1,0E0,0E0,0E0,0E0,0E0,0E0,0E0,0E0,0E0,0E0,0E0,0E0,0E0,0E0,0E0,0E0,0E0,0E0,0E0,0E0,0E0,0E0,0E0,0E0,0E0,0E0,0E0,0E0,0E0,0E0,0E0,0E0,0E0,0E0,0E0,0E0,0E0,0E0,0E0,0E0,0E0,0E0,0E0,0E0,0E0,0E0,0E0,0E0,0E0,0E0,0E0,0E0,0E0,0E0,0E0,0E0,0E0,0E0,0E0,0E0,0E0,0E0,0E0,0E0],"parents":[2147483647,0,0,1,1,2,2,3,3,4,4,5,5,6,6,7,7,8,8,9,9,10,10,11,11,12,12,13,13,14,14,15,15,16,16,17,17,18,18,19,19,20,20,21,21,22,22,25,25,27,27,28,28,29,29,30,30,31,31,32,32,33,33,34,34,37,37,38,38,40,40,41,41,42,42,43,43,44,44,45,45,46,46,47,47,48,48,50,50,51,51,52,52,53,53,54,54,55,55,56,56,58,58,61,61,62,62,63,63,64,64,65,65,66,66,67,67,68,68,72,72,73,73,75,75,76,76,77,77,78,78,79,79,80,80,81,81,82,82,85,85,89,89,90,90,91,91,92,92,93,93,94,94,95,95,96,96,97,97,98,98,99,99,100,100],"right_children":[2,4,6,8,10,12,14,16,18,20,22,24,26,28,30,32,34,36,38,40,42,44,46,-1,-1,48,-1,50,52,54,56,58,60,62,64,-1,-1,66,68,-1,70,72,74,76,78,80,82,84,86,-1,88,90,92,94,96,98,100,-1,102,-1,-1,104,106,108,110,112,114,116,118,-1,-1,-1,120,122,-1,124,126,128,130,132,134,136,138,-1,-1,140,-1,-1,-1,142,144,146,148,150,152,154,156,158,160,162,164,-1,-1,-1,-1,-1,-1,-1,-1,-1,-1,-1,-1,-1,-1,-1,-1,-1,-1,-1,-1,-1,-1,-1,-1,-1,-1,-1,-1,-1,-1,-1,-1,-1,-1,-1,-1,-1,-1,-1,-1,-1,-1,-1,-1,-1,-1,-1,-1,-1,-1,-1,-1,-1,-1,-1,-1,-1,-1,-1,-1,-1,-1,-1,-1],"split_conditions":[6.621175E-1,6.572582E-1,2.7272727E-2,3.8399246E-1,9.6551724E-2,1.6666667E-1,7.4137926E-2,7.241379E-2,5E-1,2.7272727E-2,2.777778E-1,7.9600966E-1,8.7090075E-1,7.703592E-1,9.8790765E-1,1.6666667E-1,8.23977E-2,3.9780295E-1,6.341465E-1,5.5555556E-2,5.5555556E-2,7.5757575E-1,4.1296717E-4,2.9854494E-1,8.559806E-1,2.777778E-1,5.279456E-1,5E-1,8.2218254E-1,9.212121E-1,2.5344828E-1,3.6677136E-3,8.175623E-2,2.3393584E-2,1.3484347E-1,8.3583094E-2,3.254104E-2,1.6034484E-1,1.2389015E-3,-3.804787E-3,1.6666667E-1,6.545454E-1,8.275862E-2,2.5344828E-1,2.9655173E-1,3.8448274E-1,5E-1,8.31193E-1,8.0838656E-1,1.7011207E-1,7.554066E-1,9.8790765E-1,8.349742E-1,4.2424244E-1,9.345995E-1,9.212121E-1,7.554066E-1,3.3946957E-3,8.0071E-2,7.3468266E-3,2.0433746E-3,5.0082594E-1,9.9787235E-1,9.948173E-2,3.279013E-1,2.2170213E-1,3.8608843E-1,2.1896552E-1,3.3636364E-1,-5.4712296E-2,-2.7016666E-2,-3.3624189E-3,5.0041294E-1,7.4137926E-2,-2.58687E-2,1.3234043E-1,4.0172416E-1,1.6666667E-1,3.2931036E-1,6.969697E-1,6.6170216E-1,3.9234042E-1,7.008511E-1,-1.34119615E-2,1.3325297E-2,7.876776E-1,3.721088E-1,5.8371026E-2,1.985846E-2,7.847458E-1,1.6666667E-1,5E-1,5E-1,1.1034483E-1,1.6666667E-1,1.6551724E-1,9.532107E-1,8.2218254E-1,7.554066E-1,7.290039E-1,8.4422266E-1,3.4639554E-3,1.2950855E-2,5.0273836E-3,2.672778E-3,8.676915E-4,2.4474054E-3,8.2820066E-4,-1.018322E-3,-2.5564778E-4,1.609064E-3,4.3177274E-3,1.45130465E-2,1.2826864E-2,5.425364E-3,3.336884E-2,1.8364707E-2,2.2674102E-2,9.297478E-3,1.8318245E-4,-1.2405205E-3,-1.4201254E-2,-2.2346482E-3,-1.3157539E-3,-9.44711E-3,-8.7130716E-4,-5.3112553E-3,-9.0662955E-4,3.8530442E-3,-7.354128E-3,-1.3069409E-3,1.6589835E-1,3.020757E-2,-2.7516663E-2,2.2490997E-2,-3.1756423E-3,3.2162112E-3,1.2793783E-2,2.013292E-3,1.8247621E-1,-5.4089174E-2,1.1245229E-2,6.663298E-2,1.6037235E-2,-2.978666E-3,2.2503914E-1,8.395478E-2,2.3016678E-2,8.430745E-2,2.2460904E-2,1.13840895E-2,8.61223E-3,6.841052E-3,1.6602779E-2,8.625112E-3,1.07134E-1,1.0800681E-2,1.5255296E-2,2.1612765E-2,4.8841324E-2,2.5564956E-2,1.2786946E-2,6.570605E-3,1.7293321E-2,1.257563E-2],"split_indices":[1,1,2,1,3,4,3,3,0,2,4,1,1,1,6,4,1,1,1,4,4,2,8,0,0,4,0,0,1,2,3,6,1,1,6,0,0,3,8,0,4,2,3,3,3,3,4,1,1,0,1,6,1,2,1,2,1,0,1,0,0,8,10,1,1,10,1,3,2,0,0,0,8,3,0,10,3,4,3,2,10,10,10,0,0,1,0,0,0,1,4,0,4,3,4,3,1,1,1,1,1,0,0,0,0,0,0,0,0,0,0,0,0,0,0,0,0,0,0,0,0,0,0,0,0,0,0,0,0,0,0,0,0,0,0,0,0,0,0,0,0,0,0,0,0,0,0,0,0,0,0,0,0,0,0,0,0,0,0,0,0,0,0,0,0],"split_type":[0,0,0,0,0,0,0,0,0,0,0,0,0,0,0,0,0,0,0,0,0,0,0,0,0,0,0,0,0,0,0,0,0,0,0,0,0,0,0,0,0,0,0,0,0,0,0,0,0,0,0,0,0,0,0,0,0,0,0,0,0,0,0,0,0,0,0,0,0,0,0,0,0,0,0,0,0,0,0,0,0,0,0,0,0,0,0,0,0,0,0,0,0,0,0,0,0,0,0,0,0,0,0,0,0,0,0,0,0,0,0,0,0,0,0,0,0,0,0,0,0,0,0,0,0,0,0,0,0,0,0,0,0,0,0,0,0,0,0,0,0,0,0,0,0,0,0,0,0,0,0,0,0,0,0,0,0,0,0,0,0,0,0,0,0],"sum_hessian":[7.899E3,3.757E3,4.142E3,1.571E3,2.186E3,9E0,4.133E3,8.78E2,6.93E2,9E1,2.096E3,2E0,7E0,8.4E1,4.049E3,1.3E1,8.65E2,2E0,6.91E2,1.2E1,7.8E1,1.463E3,6.33E2,1E0,1E0,6E0,1E0,6E0,7.8E1,8.34E2,3.215E3,7E0,6E0,1.53E2,7.12E2,1E0,1E0,4.8E2,2.11E2,3E0,9E0,1.5E1,6.3E1,8.29E2,6.34E2,9E0,6.24E2,3E0,3E0,3E0,3E0,2.7E1,5.1E1,7.29E2,1.05E2,5.18E2,2.697E3,1E0,6E0,3E0,3E0,2.3E1,1.3E2,3.69E2,3.43E2,2.9E1,4.51E2,1E1,2.01E2,5E0,4E0,1.2E1,3E0,5.8E1,5E0,1.18E2,7.11E2,2.38E2,3.96E2,2E0,7E0,5.29E2,9.5E1,1E0,2E0,2E0,1E0,2E0,1E0,3E0,2.4E1,1.2E1,3.9E1,6.2E1,6.67E2,7.9E1,2.6E1,3.91E2,1.27E2,3.67E2,2.33E3,1E0,5E0,4E0,1.9E1,1.01E2,2.9E1,2.2E1,3.47E2,2.45E2,9.8E1,7E0,2.2E1,1.8E1,4.33E2,2E0,8E0,6E0,1.95E2,1E0,2E0,4.8E1,1E1,2.3E1,9.5E1,2.33E2,4.78E2,1.46E2,9.2E1,1.05E2,2.91E2,1E0,1E0,3E0,4E0,2.13E2,3.16E2,5.4E1,4.1E1,1E0,1E0,1E0,2E0,8E0,1.6E1,1E0,1.1E1,3.4E1,5E0,2E0,6E1,2.31E2,4.36E2,9E0,7E1,3E0,2.3E1,2.02E2,1.89E2,1.6E1,1.11E2,2.35E2,1.32E2,1.57E3,7.6E2],"tree_param":{"num_deleted":"0","num_feature":"12","num_nodes":"165","size_leaf_vector":"0"}},{"base_weights":[4.317469E-1,5.2813287E0,4.1300482E-1,7.0733213E-1,5.4287324E0,1.4546916E0,3.907341E-1,5.196872E0,8.986968E0,3.571957E-1,1.5560102E0,-1.2302042E-2,4.3395025E-1,1.6581113E0,7.8994966E-1,-5.0418295E-2,1.15712155E-2,8.728388E-1,4.19689E-1,1.5616693E0,2.310284E0,8.706706E-1,-4.4617426E-1,4.580787E-3,-5.786208E-2,1.1190937E-1,1.0588835E-3,-9.729539E-2,9.294865E-1,2.5107592E-1,4.333219E-1,1.7152301E0,1.193048E0,1.8075913E-1,2.4443035E0,6.770602E-1,2.0123656E0,7.0240624E-2,-1.5714217E-2,-6.414825E-2,-3.9227605E-2,8.0234006E-2,1.0788182E0,6.436996E-2,-1.0282075E-2,-9.99543E-3,-4.6387464E-1,1.341062E0,6.808828E-1,2.5552374E-1,2.8818155E-2,5.3788745E-1,4.1368142E-1,1.6312577E0,2.80714E0,-1.9797452E-1,1.4803108E0,4.782325E0,1.9729276E0,8.453989E-1,-1.2910316E0,9.461723E-2,-7.068802E-2,-2.7575102E-2,4.3331034E-2,-3.4359355E-2,-6.6210225E-2,-5.940588E-2,-2.0016007E-2,-5.6678347E-2,1.13101736E-1,1.0593319E-1,-7.7835023E-3,-1.7729726E-3,-3.8451433E-2,-1.18151136E-1,3.715741E-1,-1.59139E-1,-6.419086E-1,9.9619853E-1,2.1748335E0,4.9633792E-1,1.2772592E0,-8.378601E-2,2.576814E-1,-8.7773815E-2,1.0932724E-1,7.738541E-1,4.761529E-1,4.3219584E-1,3.6139312E-1],"categories":[],"categories_nodes":[],"categories_segments":[],"categories_sizes":[],"default_left":[true,true,true,false,true,true,true,false,false,false,true,true,true,true,true,true,true,true,true,true,true,true,false,true,true,true,true,true,true,true,true,true,true,false,true,true,false,true,true,true,true,true,false,true,true,true,true,true,true,true,true,true,true,false,false,false,false,false,false,false,false,false,false,false,false,false,false,false,false,false,false,false,false,false,false,false,false,false,false,false,false,false,false,false,false,false,false,false,false,false,false],"id":83,"left_children":[1,3,5,-1,7,9,11,-1,-1,-1,13,15,17,19,21,23,25,27,29,31,33,35,-1,37,39,41,43,45,47,49,51,53,55,-1,57,59,-1,61,63,65,67,69,-1,71,73,75,77,79,81,83,85,87,89,-1,-1,-1,-1,-1,-1,-1,-1,-1,-1,-1,-1,-1,-1,-1,-1,-1,-1,-1,-1,-1,-1,-1,-1,-1,-1,-1,-1,-1,-1,-1,-1,-1,-1,-1,-1,-1,-1],"loss_changes":[7.1608154E2,1.9083496E1,1.8206726E2,0E0,8.423645E0,1.806073E1,1.3400781E2,0E0,0E0,0E0,1.1286713E1,6.7897165E-1,4.334961E1,7.0650024E0,1.9649334E0,1.18483126E-1,4.8179373E-1,1.2040741E1,1.5424927E1,5.8612366E0,4.476761E0,3.338746E0,0E0,4.6897486E-2,2.7361572E-2,1.281785E0,2.9920512E-1,3.863946E-1,2.0778534E1,4.920559E-1,1.2699341E1,5.8671875E0,1.423489E1,0E0,1.365609E1,5.4376774E0,0E0,3.1200182E-2,1.8615799E-2,9.375095E-3,2.3797572E-2,1.9344309E-1,0E0,1.9160768E-1,8.385641E-2,4.374764E-1,8.110732E-2,2.1468521E1,1.3997513E1,3.7158966E-1,1.0050479E-1,1.4183807E1,5.0126343E0,0E0,0E0,0E0,0E0,0E0,0E0,0E0,0E0,0E0,0E0,0E0,0E0,0E0,0E0,0E0,0E0,0E0,0E0,0E0,0E0,0E0,0E0,0E0,0E0,0E0,0E0,0E0,0E0,0E0,0E0,0E0,0E0,0E0,0E0,0E0,0E0,0E0,0E0],"parents":[2147483647,0,0,1,1,2,2,4,4,5,5,6,6,10,10,11,11,12,12,13,13,14,14,15,15,16,16,17,17,18,18,19,19,20,20,21,21,23,23,24,24,25,25,26,26,27,27,28,28,29,29,30,30,31,31,32,32,34,34,35,35,37,37,38,38,39,39,40,40,41,41,43,43,44,44,45,45,46,46,47,47,48,48,49,49,50,50,51,51,52,52],"right_children":[2,4,6,-1,8,10,12,-1,-1,-1,14,16,18,20,22,24,26,28,30,32,34,36,-1,38,40,42,44,46,48,50,52,54,56,-1,58,60,-1,62,64,66,68,70,-1,72,74,76,78,80,82,84,86,88,90,-1,-1,-1,-1,-1,-1,-1,-1,-1,-1,-1,-1,-1,-1,-1,-1,-1,-1,-1,-1,-1,-1,-1,-1,-1,-1,-1,-1,-1,-1,-1,-1,-1,-1,-1,-1,-1,-1],"split_conditions":[2.2506302E-3,3.8609636E-1,7.4137926E-2,1.4146643E-2,5.4282683E-1,3.9510223E-1,3.9510223E-1,1.0393744E-1,1.7973936E-1,7.143914E-3,1.3728845E-1,7.6129995E-2,5.4015122E-2,9.9787235E-1,1.403493E-1,1.7572922E-1,1.3390663E-1,2.0075621E-2,7.920965E-1,2.0975873E-2,8.110852E-1,1.3989916E-1,-8.923485E-3,1.3793103E-1,9.9787235E-1,5.6940943E-1,2.5738207E-1,3.9312038E-1,2.3620689E-1,9.875765E-1,2.6206896E-1,1.3137093E-1,5.185452E-2,3.6151826E-3,1.2882608E-1,1.39269E-1,4.024731E-2,1.5637378E-1,1.53583E-1,1.3234043E-1,3.4520882E-1,2.3404256E-1,2.1576364E-2,4.4310343E-1,7.2727275E-1,1.9482759E-1,1.5E-1,1.9137931E-1,4.7623336E-2,1.15517244E-1,7.5517243E-1,1.650162E-1,7.2727275E-1,3.2625154E-2,5.61428E-2,-3.9594905E-3,2.9606216E-2,9.564649E-2,3.945855E-2,1.6907977E-2,-2.5820632E-2,1.8923446E-3,-1.4137604E-3,-5.5150205E-4,8.666207E-4,-6.871871E-4,-1.3242045E-3,-1.1881175E-3,-4.0032013E-4,-1.133567E-3,2.2620347E-3,2.1186636E-3,-1.5567004E-4,-3.5459452E-5,-7.690287E-4,-2.3630226E-3,7.431482E-3,-3.18278E-3,-1.2838172E-2,1.992397E-2,4.349667E-2,9.926758E-3,2.5545184E-2,-1.6757202E-3,5.153628E-3,-1.7554762E-3,2.1865447E-3,1.5477081E-2,9.523057E-3,8.643917E-3,7.2278623E-3],"split_indices":[5,6,3,0,7,6,6,0,0,0,5,6,5,10,5,5,11,5,6,5,6,5,0,3,10,5,5,11,3,5,3,7,5,0,5,5,0,5,5,10,11,10,0,3,11,3,3,3,5,3,3,5,11,0,0,0,0,0,0,0,0,0,0,0,0,0,0,0,0,0,0,0,0,0,0,0,0,0,0,0,0,0,0,0,0,0,0,0,0,0,0],"split_type":[0,0,0,0,0,0,0,0,0,0,0,0,0,0,0,0,0,0,0,0,0,0,0,0,0,0,0,0,0,0,0,0,0,0,0,0,0,0,0,0,0,0,0,0,0,0,0,0,0,0,0,0,0,0,0,0,0,0,0,0,0,0,0,0,0,0,0,0,0,0,0,0,0,0,0,0,0,0,0,0,0,0,0,0,0,0,0,0,0,0,0],"sum_hessian":[7.887E3,3E1,7.857E3,1E0,2.9E1,1.64E2,7.693E3,2.8E1,1E0,1.4E1,1.5E2,7.45E2,6.948E3,1.32E2,1.8E1,2.87E2,4.58E2,2.18E2,6.73E3,1.16E2,1.6E1,1.7E1,1E0,3.4E1,2.53E2,4.3E1,4.15E2,1.2E1,2.06E2,5.04E2,6.226E3,8.1E1,3.5E1,1E0,1.5E1,1.5E1,2E0,8E0,2.6E1,1.88E2,6.5E1,4.2E1,1E0,6.3E1,3.52E2,1E1,2E0,7.7E1,1.29E2,4.94E2,1E1,9.83E2,5.243E3,7.6E1,5E0,6E0,2.9E1,2E0,1.3E1,1.4E1,1E0,7E0,1E0,2.2E1,4E0,1.3E1,1.75E2,3.1E1,3.4E1,8E0,3.4E1,4E1,2.3E1,2.71E2,8.1E1,8E0,2E0,1E0,1E0,5.5E1,2.2E1,9.9E1,3E1,3E0,4.91E2,4E0,6E0,2.03E2,7.8E2,3.87E3,1.373E3],"tree_param":{"num_deleted":"0","num_feature":"12","num_nodes":"91","size_leaf_vector":"0"}},{"base_weights":[3.8242045E-1,8.6609053E-4,4.2425847E-1,4.7513226E-1,-6.7090355E-3,1.8396351E-3,4.63415E-1,7.590959E-1,3.9429513E-1,-4.257934E-2,1.6674463E-2,3.5821497E-1,-1.7557983E-1,1.1194248E0,4.4474763E-1,1.6183168E-1,4.1189125E-1,8.961659E-2,-4.6297166E-2,6.486228E-2,3.9214566E-3,4.0385294E0,3.3305034E-1,-2.0000665E-1,-1.3711698E-1,-5.5716765E-1,1.6619924E0,2.9078093E-1,4.668087E-1,1.4696935E-1,2.2076001E-2,-2.3518855E-2,-5.744086E-2,1.6355307E-1,5.0177608E-2,-5.374711E-3,3.119176E-2,1.099449E0,3.1148267E-1,-2.217625E-1,-1.7759438E-1,-4.2654693E-2,-1.6081858E-1,-4.1875067E0,1.6054015E-1,2.499813E0,9.92337E-1,4.293385E-1,2.6950905E-1,4.0889165E-1,5.350763E-1,6.0830425E-2,-6.96278E-2,9.660794E-2,-2.9105283E-2,-6.5955415E-2,-4.335747E-2,7.911041E-2,3.1006292E-1,8.826439E-2,3.7849568E-2,3.0617015E-2,-1.177642E-2,-1.4792106E-2,5.4002713E-2,1.3044014E0,6.434325E-1,8.486677E-1,2.899381E-1,-2.0724152E-1,-3.4568995E-1,-3.0334947E-1,-1.724119E-1,-1.2414193E-1,1.0166044E0,-1.8620501E-1,-1.4860758E-1,-4.2186892E-1,1.3536488E0,5.357153E0,2.3709779E0,7.472647E-1,1.6118106E0,3.4276468E-1,5.6027746E-1,4.1670093E-1,2.5450695E-1,6.4242125E-1,3.8816598E-1,6.890088E-1,5.0821257E-1,9.0492465E-2,2.9073974E-2,1.8600853E-1,-4.8587492E-4,-3.7571367E-2,1.1218017E-2,-7.342615E-2,-5.5892386E-2,-5.3304855E-2,-1.695012E-3,1.7016363E-1,3.9145708E-2,1.357426E-1,3.444985E-1,6.4595245E-2,3.9866406E-1,-3.6412037E-3,6.747718E-2,7.82994E-2,1.9230966E-3,-2.9213797E-2,-2.4083836E-3,3.7428327E-2,-3.0913455E-2,1.00782186E-1,3.5805866E-2,3.8165936E-1,9.972538E-1,2.1489798E-1,4.174933E-1,-2.5677434E-1,-1.8224503E-1,-1.5421975E-1,-5.846712E-1,-6.319146E-1,-1.372899E-1,-1.6717015E-1,-2.5487965E-1,4.7477577E-2,-1.5920204E-1,-1.6950881E-1,-2.4940675E-1,3.3995515E-1,-4.5842162E-1,6.01442E-1,1.6889232E0,8.852178E0,5.11726E-1,2.031657E0,2.6412928E0,7.9155153E-1,2.7992088E-1,1.8215226E0,6.45658E-1,5.831358E-1,2.9989618E-1,4.4634798E-1,8.862767E-1,3.0344483E-1,5.286815E-1,2.2388163E-1,2.8808492E-1,7.0535696E-1,2.06632E-1,1.4373061E-1,3.9676008E-1,5.324141E-1,8.4348756E-1,7.535146E-1,4.758334E-1],"categories":[],"categories_nodes":[],"categories_segments":[],"categories_sizes":[],"default_left":[true,true,true,true,true,true,true,false,true,true,true,true,true,true,true,false,false,true,true,true,true,false,true,true,true,true,true,true,true,false,true,true,true,true,true,true,true,true,true,true,true,true,true,false,true,true,true,true,true,true,true,true,false,true,true,true,true,true,true,true,true,true,true,true,true,false,false,true,true,true,true,true,true,true,false,true,false,true,true,true,true,true,true,true,true,true,true,true,true,true,true,false,false,false,false,false,false,false,false,false,false,false,false,false,false,false,false,false,false,false,false,false,false,false,false,false,false,false,false,false,false,false,false,false,false,false,false,false,false,false,false,false,false,false,false,false,false,false,false,false,false,false,false,false,false,false,false,false,false,false,false,false,false,false,false,false,false,false,false,false,false],"id":84,"left_children":[1,3,5,7,9,11,13,-1,15,17,19,21,23,25,27,-1,-1,29,31,33,35,-1,37,39,41,43,45,47,49,-1,51,53,55,57,59,61,63,65,67,69,71,73,75,-1,77,79,81,83,85,87,89,91,-1,93,95,97,99,101,103,105,107,109,111,113,115,-1,-1,117,119,121,123,125,127,129,-1,131,-1,133,135,137,139,141,143,145,147,149,151,153,155,157,159,-1,-1,-1,-1,-1,-1,-1,-1,-1,-1,-1,-1,-1,-1,-1,-1,-1,-1,-1,-1,-1,-1,-1,-1,-1,-1,-1,-1,-1,-1,-1,-1,-1,-1,-1,-1,-1,-1,-1,-1,-1,-1,-1,-1,-1,-1,-1,-1,-1,-1,-1,-1,-1,-1,-1,-1,-1,-1,-1,-1,-1,-1,-1,-1,-1,-1,-1,-1,-1,-1],"loss_changes":[1.2631824E2,2.8183763E0,1.1794861E2,1.6684985E-1,6.467414E-1,3.8297558E1,7.973291E1,0E0,1.1856794E-2,1.5033984E-1,2.8551438E-1,1.8135347E1,3.659277E-1,1.6436757E2,2.1500244E1,0E0,0E0,2.8787643E-2,7.361436E-2,1.3527438E-1,9.405364E-2,0E0,3.1770782E0,1.0128212E-1,3.493042E-1,1.1579349E2,7.561301E1,2.2985535E0,2.1858887E1,0E0,1.6687775E-2,6.59644E-2,2.1270096E-2,1.388548E-1,3.715411E-2,6.3290685E-2,9.977543E-2,1.9080973E-1,2.1623821E0,1.9016695E-1,5.6151867E-2,2.8202543E0,2.515912E-2,0E0,2.6145908E1,1.786441E1,1.1153328E1,1.1171246E0,1.4816513E0,1.4443298E1,1.0395752E1,5.5714045E-4,0E0,4.0292043E-2,3.272006E-2,5.9836507E-3,3.0820414E-2,2.5117878E-2,3.568679E-3,1.3419245E-1,8.130513E-2,5.5357717E-2,3.7804782E-2,2.6671428E-2,5.0760254E-2,0E0,0E0,3.6228466E-1,1.7637434E0,1.1597967E-1,5.2374434E-1,1.9653773E-1,3.1356096E-2,1.8663058E-1,0E0,2.143228E-2,0E0,7.5911283E-1,2.7390423E0,3.7872925E1,3.4944153E0,1.0560741E0,3.8950768E0,5.9200096E-1,1.3842373E0,7.378588E-1,6.173248E-1,6.6396484E0,5.7719116E0,8.958527E0,1.7093262E1,0E0,0E0,0E0,0E0,0E0,0E0,0E0,0E0,0E0,0E0,0E0,0E0,0E0,0E0,0E0,0E0,0E0,0E0,0E0,0E0,0E0,0E0,0E0,0E0,0E0,0E0,0E0,0E0,0E0,0E0,0E0,0E0,0E0,0E0,0E0,0E0,0E0,0E0,0E0,0E0,0E0,0E0,0E0,0E0,0E0,0E0,0E0,0E0,0E0,0E0,0E0,0E0,0E0,0E0,0E0,0E0,0E0,0E0,0E0,0E0,0E0,0E0,0E0,0E0,0E0,0E0,0E0,0E0,0E0,0E0],"parents":[2147483647,0,0,1,1,2,2,3,3,4,4,5,5,6,6,8,8,9,9,10,10,11,11,12,12,13,13,14,14,17,17,18,18,19,19,20,20,22,22,23,23,24,24,25,25,26,26,27,27,28,28,30,30,31,31,32,32,33,33,34,34,35,35,36,36,37,37,38,38,39,39,40,40,41,41,42,42,44,44,45,45,46,46,47,47,48,48,49,49,50,50,51,51,53,53,54,54,55,55,56,56,57,57,58,58,59,59,60,60,61,61,62,62,63,63,64,64,67,67,68,68,69,69,70,70,71,71,72,72,73,73,75,75,77,77,78,78,79,79,80,80,81,81,82,82,83,83,84,84,85,85,86,86,87,87,88,88,89,89,90,90],"right_children":[2,4,6,8,10,12,14,-1,16,18,20,22,24,26,28,-1,-1,30,32,34,36,-1,38,40,42,44,46,48,50,-1,52,54,56,58,60,62,64,66,68,70,72,74,76,-1,78,80,82,84,86,88,90,92,-1,94,96,98,100,102,104,106,108,110,112,114,116,-1,-1,118,120,122,124,126,128,130,-1,132,-1,134,136,138,140,142,144,146,148,150,152,154,156,158,160,-1,-1,-1,-1,-1,-1,-1,-1,-1,-1,-1,-1,-1,-1,-1,-1,-1,-1,-1,-1,-1,-1,-1,-1,-1,-1,-1,-1,-1,-1,-1,-1,-1,-1,-1,-1,-1,-1,-1,-1,-1,-1,-1,-1,-1,-1,-1,-1,-1,-1,-1,-1,-1,-1,-1,-1,-1,-1,-1,-1,-1,-1,-1,-1,-1,-1,-1,-1,-1,-1],"split_conditions":[3.9510223E-1,7.241379E-2,5.5555556E-2,2.7272727E-2,7.6129995E-2,9.8790765E-1,8.275862E-2,1.5181918E-2,3.6677136E-3,1.8427517E-2,2.862069E-1,2.7272727E-2,6.4742017E-1,1.6666667E-1,9.5682657E-1,3.2366335E-3,8.237825E-3,3.9234042E-1,6.242424E-1,1.8427517E-2,8.30303E-1,8.077059E-2,1.7021276E-2,3.2931036E-1,2.689655E-1,2.7272727E-2,2.2170213E-1,2.5344828E-1,2.777778E-1,2.939387E-3,1.6878912E-2,9.6551724E-2,8.30303E-1,6.818182E-1,5.181818E-1,5.181818E-1,1.3484347E-1,3.3636364E-1,1.8427517E-2,3.2068965E-1,3.3636364E-1,2.5689656E-1,3.948276E-1,-8.375013E-2,3.5106385E-1,5.4792248E-2,3.888889E-1,2.777778E-1,5.181818E-1,1.724138E-1,2.6206896E-1,5.5555556E-2,-1.392556E-3,2.777778E-1,6.1206895E-1,6.7664776E-3,4.8103446E-1,1.3484347E-1,5.5555556E-2,6.965602E-1,8.30303E-1,3.6977887E-1,6.0565114E-1,2.9655173E-1,1.4619164E-1,2.6088027E-2,1.2868649E-2,6.818182E-1,9.5682657E-1,3.5106385E-1,9.9787235E-1,3.7960687E-1,7.224138E-1,1.48936175E-2,2.0332089E-2,3.7931034E-1,-2.9721516E-3,9.8790765E-1,3.931204E-1,2.7272727E-2,2.777778E-1,8.6855036E-1,2.4815723E-1,3.3636364E-1,9.9787235E-1,7.920965E-1,7.920965E-1,6.965602E-1,2.1896552E-1,7.5757575E-1,5.181818E-1,1.8098493E-3,5.8147946E-4,3.7201706E-3,-9.717498E-6,-7.514273E-4,2.2436034E-4,-1.4685229E-3,-1.1178477E-3,-1.0660971E-3,-3.390024E-5,3.4032725E-3,7.8291417E-4,2.714852E-3,6.8899696E-3,1.2919048E-3,7.973281E-3,-7.282407E-5,1.3495436E-3,1.5659881E-3,3.846193E-5,-5.842759E-4,-4.8167673E-5,7.485665E-4,-6.182691E-4,2.0156438E-3,7.161173E-4,7.633187E-3,1.9945076E-2,4.2979596E-3,8.349866E-3,-5.135487E-3,-3.6449006E-3,-3.0843948E-3,-1.1693424E-2,-1.2638292E-2,-2.7457979E-3,-3.3434029E-3,-5.097593E-3,9.495515E-4,-3.1840408E-3,-3.3901762E-3,-4.988135E-3,6.7991028E-3,-9.168432E-3,1.2028839E-2,3.3778463E-2,1.7704354E-1,1.023452E-2,4.063314E-2,5.2825853E-2,1.583103E-2,5.5984175E-3,3.6430452E-2,1.291316E-2,1.1662715E-2,5.9979237E-3,8.92696E-3,1.7725535E-2,6.0688965E-3,1.057363E-2,4.4776327E-3,5.7616984E-3,1.4107139E-2,4.13264E-3,2.874612E-3,7.935202E-3,1.0648281E-2,1.6869752E-2,1.5070291E-2,9.516668E-3],"split_indices":[6,3,4,2,6,6,3,0,6,11,3,2,11,4,6,0,0,10,2,11,2,0,10,3,3,2,10,3,4,0,6,3,2,2,2,2,6,2,11,3,2,3,3,0,10,9,4,4,2,3,3,4,0,4,3,9,3,6,4,11,2,11,11,3,11,0,0,2,6,10,10,11,3,10,0,3,0,6,11,2,4,11,11,2,10,6,6,11,3,2,2,0,0,0,0,0,0,0,0,0,0,0,0,0,0,0,0,0,0,0,0,0,0,0,0,0,0,0,0,0,0,0,0,0,0,0,0,0,0,0,0,0,0,0,0,0,0,0,0,0,0,0,0,0,0,0,0,0,0,0,0,0,0,0,0,0,0,0,0,0,0],"split_type":[0,0,0,0,0,0,0,0,0,0,0,0,0,0,0,0,0,0,0,0,0,0,0,0,0,0,0,0,0,0,0,0,0,0,0,0,0,0,0,0,0,0,0,0,0,0,0,0,0,0,0,0,0,0,0,0,0,0,0,0,0,0,0,0,0,0,0,0,0,0,0,0,0,0,0,0,0,0,0,0,0,0,0,0,0,0,0,0,0,0,0,0,0,0,0,0,0,0,0,0,0,0,0,0,0,0,0,0,0,0,0,0,0,0,0,0,0,0,0,0,0,0,0,0,0,0,0,0,0,0,0,0,0,0,0,0,0,0,0,0,0,0,0,0,0,0,0,0,0,0,0,0,0,0,0,0,0,0,0,0,0],"sum_hessian":[7.913E3,7.82E2,7.131E3,1.2E1,7.7E2,6.05E2,6.526E3,2E0,1E1,3.04E2,4.66E2,2.01E2,4.04E2,1.8E2,6.346E3,1E0,9E0,8E0,2.96E2,9.7E1,3.69E2,1E0,2E2,2.46E2,1.58E2,4.4E1,1.36E2,7.96E2,5.55E3,4E0,4E0,9.8E1,1.98E2,1.2E1,8.5E1,2.75E2,9.4E1,5E0,1.95E2,1.23E2,1.23E2,3.2E1,1.26E2,7E0,3.7E1,6E1,7.6E1,1.05E2,6.91E2,3.004E3,2.546E3,3E0,1E0,4E0,9.4E1,1.22E2,7.6E1,8E0,4E0,2E1,6.5E1,4.1E1,2.34E2,3.1E1,6.3E1,3E0,2E0,7E0,1.88E2,1.11E2,1.2E1,4E0,1.19E2,3E1,2E0,3.9E1,8.7E1,2.5E1,1.2E1,2E0,5.8E1,5.5E1,2.1E1,6.4E1,4.1E1,6.3E1,6.28E2,2.44E2,2.76E3,3.77E2,2.169E3,1E0,2E0,2E0,2E0,7.8E1,1.6E1,6.8E1,5.4E1,6.1E1,1.5E1,2E0,6E0,1E0,3E0,1.9E1,1E0,2.7E1,3.8E1,1.5E1,2.6E1,8.1E1,1.53E2,7E0,2.4E1,1.7E1,4.6E1,2E0,5E0,1.19E2,6.9E1,3.6E1,7.5E1,7E0,5E0,1E0,3E0,1.13E2,6E0,5E0,2.5E1,3.2E1,7E0,1E0,2.4E1,4E0,8E0,1E0,1E0,2.7E1,3.1E1,5E1,5E0,1.7E1,4E0,9E0,5.5E1,3.1E1,1E1,3.2E1,3.1E1,3.3E2,2.98E2,2.13E2,3.1E1,9.4E1,2.666E3,1.88E2,1.89E2,2.52E2,1.917E3],"tree_param":{"num_deleted":"0","num_feature":"12","num_nodes":"161","size_leaf_vector":"0"}},{"base_weights":[3.8316974E-1,3.276932E0,3.731892E-1,1.1464276E0,5.484196E0,-1.5120371E-2,4.170067E-1,3.2589283E0,4.9009505E-1,8.719409E0,4.9849734E0,1.773386E-1,-1.6930896E-1,9.181733E-2,4.7075203E-1,6.095534E-1,4.3010845E0,8.5286725E-1,-4.6156162E-1,-6.0827364E-3,3.3932313E-1,-2.0644027E-1,-1.6277894E-1,-2.7057918E-4,2.2154859E-1,1.191744E0,4.488431E-1,-2.757333E-1,1.507603E0,2.3367764E-1,-1.3986755E-2,1.0151258E0,3.266175E-1,-2.3333424E-1,-1.4239302E-1,5.3588793E-2,-1.6515146E-1,8.763772E-2,-1.5901027E-2,1.0598017E0,2.1261178E-1,3.23218E-1,1.4227643E0,5.293298E-1,3.975321E-1,1.7626049E-1,3.511355E-1,-4.5455176E-2,3.8170314E-3,2.7920806E-1,4.1559124E-1,-2.0007923E-1,-3.1574658E-1,-2.1975964E-1,-1.291778E-1,-1.04611844E-1,2.1024399E-1,-6.6533774E-1,-1.6320008E-1,2.6340032E-2,1.6858876E-1,1.0640636E-1,-2.1594606E-2,1.3023367E0,1.7777218E-1,4.5279148E-1,2.0134361E-1,1.8315624E0,2.3989217E-2,1.9329624E0,1.0841941E0,9.151833E-1,5.1410115E-1,3.490721E0,3.9550233E-1,9.445668E-3,-5.693668E-2,7.2794355E-2,-3.6011627E-3,2.1480313E-1,3.4950092E-1,6.8212396E-1,3.433838E-1,-1.7738491E-1,-2.8523472E-1,-6.702528E-1,-1.7632441E-1,4.4576865E-2,-1.6606852E-1,1.3486731E-1,4.9372534E-3,4.0426496E-1,1.4435951E-1,4.4276804E-2,1.0630758E0,-4.782375E-2,-3.3155284E-3,-8.280006E-3,6.269684E-1,-2.6384413E-1,2.0513234E-1,3.3111181E0,1.6450316E-1,2.8435655E0,-9.580474E-2,1.7416614E0,3.1300342E0,4.92406E-1,1.8205574E0,6.5173E-1,7.484455E0,7.650238E-1,4.9492425E-1,3.5064855E-1,4.4077227E-1],"categories":[],"categories_nodes":[],"categories_segments":[],"categories_sizes":[],"default_left":[true,true,true,true,true,true,true,true,true,false,false,true,true,true,true,false,false,true,false,true,true,true,true,true,true,true,true,false,false,true,true,false,true,true,true,true,true,true,true,true,true,true,true,true,true,false,false,true,true,true,true,true,true,false,false,false,false,false,true,true,true,true,true,false,false,true,true,true,true,true,true,true,true,false,true,false,false,false,false,false,false,false,false,false,false,false,false,false,false,false,false,false,false,false,false,false,false,false,false,false,false,false,false,false,false,false,false,false,false,false,false,false,false,false,false],"id":85,"left_children":[1,3,5,7,9,11,13,15,17,-1,-1,19,21,23,25,-1,-1,27,-1,29,31,33,35,37,39,41,43,-1,-1,45,47,-1,49,51,53,55,57,59,61,63,65,67,69,71,73,-1,-1,75,77,79,81,83,85,-1,-1,-1,-1,-1,87,89,91,93,95,-1,-1,97,99,101,103,105,107,109,111,-1,113,-1,-1,-1,-1,-1,-1,-1,-1,-1,-1,-1,-1,-1,-1,-1,-1,-1,-1,-1,-1,-1,-1,-1,-1,-1,-1,-1,-1,-1,-1,-1,-1,-1,-1,-1,-1,-1,-1,-1,-1],"loss_changes":[2.2961755E2,1.2634683E2,1.350935E2,1.9287308E1,6.844635E0,2.390815E1,1.2466724E2,8.259602E0,4.049559E0,0E0,0E0,1.0652037E1,9.1991425E-2,1.20972E1,9.650769E1,0E0,0E0,6.31409E0,0E0,3.1696004E-1,1.5045929E0,9.609699E-2,2.0080853E-1,8.1333494E-1,3.0555573E0,3.6005157E1,2.445752E1,0E0,0E0,7.807642E-3,9.216052E-2,0E0,7.4160385E-1,9.581709E-2,6.345451E-3,1.16237335E-1,3.212471E-1,4.390213E-1,3.500612E-1,8.287115E-1,1.0870266E0,1.7260313E1,2.3844513E1,1.3410034E1,2.227716E1,0E0,0E0,3.825728E-2,5.4460492E-2,5.252714E-1,1.145401E0,4.09472E-2,5.5810857E-1,0E0,0E0,0E0,0E0,0E0,2.2908974E-1,1.170204E-1,1.9160724E-1,1.2959528E0,2.2999041E-1,0E0,0E0,1.4828806E0,7.192631E-1,1.5390333E1,1.105126E1,1.1013031E1,3.728968E1,1.4940506E2,1.0563904E1,0E0,7.3045654E0,0E0,0E0,0E0,0E0,0E0,0E0,0E0,0E0,0E0,0E0,0E0,0E0,0E0,0E0,0E0,0E0,0E0,0E0,0E0,0E0,0E0,0E0,0E0,0E0,0E0,0E0,0E0,0E0,0E0,0E0,0E0,0E0,0E0,0E0,0E0,0E0,0E0,0E0,0E0,0E0],"parents":[2147483647,0,0,1,1,2,2,3,3,4,4,5,5,6,6,7,7,8,8,11,11,12,12,13,13,14,14,17,17,19,19,20,20,21,21,22,22,23,23,24,24,25,25,26,26,29,29,30,30,32,32,33,33,34,34,35,35,36,36,37,37,38,38,39,39,40,40,41,41,42,42,43,43,44,44,47,47,48,48,49,49,50,50,51,51,52,52,58,58,59,59,60,60,61,61,62,62,65,65,66,66,67,67,68,68,69,69,70,70,71,71,72,72,74,74],"right_children":[2,4,6,8,10,12,14,16,18,-1,-1,20,22,24,26,-1,-1,28,-1,30,32,34,36,38,40,42,44,-1,-1,46,48,-1,50,52,54,56,58,60,62,64,66,68,70,72,74,-1,-1,76,78,80,82,84,86,-1,-1,-1,-1,-1,88,90,92,94,96,-1,-1,98,100,102,104,106,108,110,112,-1,114,-1,-1,-1,-1,-1,-1,-1,-1,-1,-1,-1,-1,-1,-1,-1,-1,-1,-1,-1,-1,-1,-1,-1,-1,-1,-1,-1,-1,-1,-1,-1,-1,-1,-1,-1,-1,-1,-1,-1,-1],"split_conditions":[2.2506302E-3,2.777778E-1,5.5555556E-2,9.8790765E-1,9.689189E-1,9.8790765E-1,7.920965E-1,3.9510223E-1,1.6666667E-1,1.7438817E-1,9.969947E-2,3.9510223E-1,2.086207E-1,3.9510223E-1,9.6551724E-2,1.2191067E-2,8.602169E-2,5.5555556E-2,-9.231232E-3,8.793104E-2,9.6551724E-2,6.068796E-1,3.006842E-2,1.7410874E-1,3.871084E-2,1.6666667E-1,3.327586E-1,-5.5146655E-3,3.015206E-2,1.3044652E-1,7.6129995E-2,2.0302515E-2,9.5682657E-1,1.3636363E-1,5.0041294E-1,2.817789E-2,3.1418797E-2,1.3484347E-1,1.3390663E-1,3.2413793E-1,1.4482759E-1,9.8790765E-1,2.2170213E-1,4.168167E-2,2.4576882E-2,3.5252096E-3,7.0227096E-3,2.7518427E-1,1.417897E-1,3.9234042E-1,1.7752971E-1,2.1398991E-1,3.5106385E-1,-4.395193E-3,-2.5835559E-3,-2.092237E-3,4.2048795E-3,-1.3306755E-2,1.48936175E-2,1.2068965E-1,5E-1,5.675189E-1,7.6129995E-2,2.6046732E-2,3.5554436E-3,2.3404256E-1,4.384228E-2,6.724138E-2,5.0082594E-1,2.7637739E-2,9.9787235E-1,4.0691394E-2,1.8427517E-2,6.981442E-2,2.777778E-1,1.8891336E-4,-1.1387336E-3,1.4558871E-3,-7.202325E-5,4.2960625E-3,6.9900183E-3,1.3642479E-2,6.8676756E-3,-3.5476983E-3,-5.7046944E-3,-1.3405056E-2,-3.526488E-3,8.915373E-4,-3.3213703E-3,2.6973463E-3,9.874507E-5,8.085299E-3,2.8871903E-3,8.855361E-4,2.1261515E-2,-9.56475E-4,-6.631057E-5,-1.6560013E-4,1.2539367E-2,-5.2768826E-3,4.102647E-3,6.622236E-2,3.290063E-3,5.6871306E-2,-1.9160948E-3,3.4833226E-2,6.260068E-2,9.84812E-3,3.6411148E-2,1.30346E-2,1.496891E-1,1.5300476E-2,9.898485E-3,7.0129707E-3,8.815445E-3],"split_indices":[5,4,4,6,6,6,6,6,4,0,0,6,3,6,3,0,0,4,0,3,3,11,5,5,5,4,3,0,0,5,6,0,6,11,8,5,5,6,11,3,3,6,10,5,5,0,0,11,5,10,5,5,10,0,0,0,0,0,10,3,0,5,6,0,0,10,5,3,8,5,10,5,11,0,4,0,0,0,0,0,0,0,0,0,0,0,0,0,0,0,0,0,0,0,0,0,0,0,0,0,0,0,0,0,0,0,0,0,0,0,0,0,0,0,0],"split_type":[0,0,0,0,0,0,0,0,0,0,0,0,0,0,0,0,0,0,0,0,0,0,0,0,0,0,0,0,0,0,0,0,0,0,0,0,0,0,0,0,0,0,0,0,0,0,0,0,0,0,0,0,0,0,0,0,0,0,0,0,0,0,0,0,0,0,0,0,0,0,0,0,0,0,0,0,0,0,0,0,0,0,0,0,0,0,0,0,0,0,0,0,0,0,0,0,0,0,0,0,0,0,0,0,0,0,0,0,0,0,0,0,0,0,0],"sum_hessian":[7.966E3,2.7E1,7.939E3,1.4E1,1.3E1,8.05E2,7.134E3,3E0,1.1E1,1E0,1.2E1,3.58E2,4.47E2,1.012E3,6.122E3,1E0,2E0,8E0,3E0,1.68E2,1.9E2,6.5E1,3.82E2,5.92E2,4.2E2,1.8E2,5.942E3,3E0,5E0,5E0,1.63E2,3E0,1.87E2,4.5E1,2E1,4E0,3.78E2,8.9E1,5.03E2,4E0,4.16E2,3.8E1,1.42E2,2.312E3,3.63E3,4E0,1E0,5.9E1,1.04E2,1.23E2,6.4E1,3.3E1,1.2E1,2E0,1.8E1,2E0,2E0,1E0,3.77E2,5.1E1,3.8E1,2.2E1,4.81E2,3E0,1E0,1.8E1,3.98E2,6E0,3.2E1,5.6E1,8.6E1,8.7E1,2.225E3,2E0,3.628E3,1E1,4.9E1,1E1,9.4E1,6.5E1,5.8E1,1.3E1,5.1E1,2.7E1,6E0,3E0,9E0,5E0,3.72E2,8E0,4.3E1,3E0,3.5E1,2.1E1,1E0,1.97E2,2.84E2,5E0,1.3E1,3E0,3.95E2,3E0,3E0,1E0,3.1E1,4.9E1,7E0,4.8E1,3.8E1,8.4E1,3E0,1.57E2,2.068E3,1.824E3,1.804E3],"tree_param":{"num_deleted":"0","num_feature":"12","num_nodes":"115","size_leaf_vector":"0"}},{"base_weights":[3.7637123E-1,-2.9190296E-2,7.437294E-1,1.5544504E-1,-1.6272128E-1,7.8804474E0,7.1729314E-1,6.4472766E-3,3.8247812E-1,-2.0994017E0,-1.5171951E-1,9.0325373E-1,1.1225934E1,1.6170858E0,6.855033E-1,1.2674705E-2,-3.1162074E-1,3.058757E-1,5.3379476E-1,-2.5583428E-1,-2.44658E0,-2.0800406E-1,-1.8559413E-2,8.588631E0,-1.5278635E0,3.4438168E1,4.275304E0,1.4749427E0,7.3497405E0,7.541779E-1,4.1456857E-1,-8.196763E-4,2.2827795E-1,-1.7496412E-1,-4.356153E-1,3.4479865E-1,3.780386E-2,8.6580116E-1,4.790273E-1,-3.642235E-1,-1.6609798E-1,1.7860003E0,-4.2093802E-2,-2.0129404E0,5.6141242E-2,4.211936E1,1.8134058E1,-3.7823734E0,9.046794E0,3.9907343E0,1.2470468E0,-7.00859E-1,1.0906064E1,1.3920052E0,7.2850364E-1,5.743951E-1,3.8236198E-1,6.789194E-2,-1.8951E-2,5.8072E-1,3.8251605E-2,-4.5439047E-1,-1.9864617E-1,7.193653E-1,3.1881472E-1,3.2509014E-1,1.824369E-2,9.582065E-1,3.874025E-1,3.1349072E-1,5.599068E-1,-1.4068064E-1,-4.555833E-1,-4.1180693E-2,-2.583513E-1,-1.3521354E0,3.6383717E0,-1.2930164E-1,3.30454E-1,-2.4339976E0,-7.620344E-1,5.388457E-1,-1.040898E1,-2.3916223E0,1.1873677E1,2.2526639E0,7.932301E0,3.6173296E-1,1.7991159E0,1.2813991E0,1.779267E1,8.6165047E-1,1.8431894E0,7.915434E-1,5.7477117E-1,4.6058026E-1,1.4541651E0,3.733555E-1,6.179816E-1,2.7871194E-1,5.3894494E-2,2.9520053E-2,-3.6949307E-2,6.4369017E-1,3.099283E-1,2.4061528E-1,2.9436497E-3,1.7808063E0,6.446097E-1,1.134982E0,3.0551368E-1,1.253921E-1,3.866376E-1,-1.4298616E-2,1.3190544E-1,1.0151539E0,2.7011862E-1,5.276422E-1,1.25588E-1,2.67432E-1,4.843569E-1,6.188307E-1,3.3895627E-1,-1.6570224E-1,2.9001027E-2,-3.9622772E-1,-9.2777056E-1,1.5170274E0,-5.443916E-2,-1.5033773E-1,-2.9716927E-1,8.137603E0,1.9706199E0,-1.0093091E-1,-1.123543E0,1.5723592E0,1.7645386E-1,9.872344E-1,3.3414533E0,9.8503685E0,2.5814433E0,1.8579921E-1,1.7988573E0,3.6163838E0,1.3846819E0,2.5659537E0,3.4227133E-1,3.445705E0,8.4578484E-1,6.8185693E-1,1.0843318E0,8.703608E-1,5.4298544E-1,1.052887E0,3.791603E-1,1.4015338E1,2.5074732E-1,3.8423544E-1,1.3742734E-1,9.512003E-1,5.5558586E-1],"categories":[],"categories_nodes":[],"categories_segments":[],"categories_sizes":[],"default_left":[true,true,true,true,true,true,true,true,true,true,true,true,true,true,true,true,true,true,true,false,false,true,true,false,true,true,true,true,true,true,true,true,true,false,true,true,true,true,true,true,true,true,true,true,false,false,false,true,true,true,true,false,true,true,true,true,true,true,true,true,true,false,false,true,true,true,true,true,true,true,true,true,true,true,true,false,true,true,true,false,false,false,false,false,false,true,true,true,true,false,false,true,true,true,true,true,true,true,true,false,false,false,false,false,false,false,false,false,false,false,false,false,false,false,false,false,false,false,false,false,false,false,false,false,false,false,false,false,false,false,false,false,false,false,false,false,false,false,false,false,false,false,false,false,false,false,false,false,false,false,false,false,false,false,false,false,false,false,false,false,false],"id":86,"left_children":[1,3,5,7,9,11,13,15,17,19,21,23,25,27,29,31,33,35,37,-1,-1,39,41,-1,43,45,47,49,51,53,55,57,59,-1,61,63,65,67,69,71,73,75,77,79,-1,-1,-1,81,83,85,87,-1,89,91,93,95,97,99,101,103,105,-1,-1,107,109,111,113,115,117,119,121,123,125,127,129,-1,131,133,135,-1,-1,-1,-1,-1,-1,137,139,141,143,-1,-1,145,147,149,151,153,155,157,159,-1,-1,-1,-1,-1,-1,-1,-1,-1,-1,-1,-1,-1,-1,-1,-1,-1,-1,-1,-1,-1,-1,-1,-1,-1,-1,-1,-1,-1,-1,-1,-1,-1,-1,-1,-1,-1,-1,-1,-1,-1,-1,-1,-1,-1,-1,-1,-1,-1,-1,-1,-1,-1,-1,-1,-1,-1,-1,-1,-1,-1,-1],"loss_changes":[1.182423E3,9.301368E1,7.836697E2,5.3553722E1,4.6509605E1,3.543612E2,1.1828613E2,1.8913065E0,7.2051315E0,7.646721E0,1.6314281E1,1.0412748E2,1.6175485E3,1.1142581E2,7.445947E1,2.7333248E0,2.7652943E-1,4.344715E0,3.667038E0,0E0,0E0,9.990654E0,2.7491936E1,0E0,3.3952818E0,3.6668945E1,3.3188397E2,7.757764E1,9.8133575E1,5.1990356E1,4.089432E0,1.1002166E0,3.6896272E0,0E0,2.1107197E-3,3.4546661E0,2.9282534E-1,1.1537495E0,2.3567963E0,6.573509E0,1.3905537E1,5.0115562E1,2.0782742E1,1.0916424E0,0E0,0E0,0E0,9.7465195E1,1.8206314E2,7.153844E1,6.198694E1,0E0,1.4679037E2,2.8944E1,2.9622925E1,1.3300404E1,1.344162E0,5.34204E-1,6.105659E-1,2.4954128E-1,2.5589404E-1,0E0,0E0,1.4340849E0,3.569294E0,1.7500639E-2,1.884807E-1,8.43729E-1,1.644125E-1,4.2089796E-1,1.4960632E0,4.0406466E-1,6.2860413E0,1.0611866E1,2.8899612E0,0E0,3.4528465E1,1.45655365E1,2.308799E1,0E0,0E0,0E0,0E0,0E0,0E0,1.0319942E1,2.5555527E1,1.2333647E1,5.7254654E1,0E0,0E0,5.0416058E1,1.0499147E2,6.971741E1,8.234375E0,5.649599E0,2.3041055E2,1.6494141E0,3.082037E-1,0E0,0E0,0E0,0E0,0E0,0E0,0E0,0E0,0E0,0E0,0E0,0E0,0E0,0E0,0E0,0E0,0E0,0E0,0E0,0E0,0E0,0E0,0E0,0E0,0E0,0E0,0E0,0E0,0E0,0E0,0E0,0E0,0E0,0E0,0E0,0E0,0E0,0E0,0E0,0E0,0E0,0E0,0E0,0E0,0E0,0E0,0E0,0E0,0E0,0E0,0E0,0E0,0E0,0E0,0E0,0E0,0E0,0E0,0E0,0E0,0E0,0E0],"parents":[2147483647,0,0,1,1,2,2,3,3,4,4,5,5,6,6,7,7,8,8,9,9,10,10,11,11,12,12,13,13,14,14,15,15,16,16,17,17,18,18,21,21,22,22,24,24,25,25,26,26,27,27,28,28,29,29,30,30,31,31,32,32,34,34,35,35,36,36,37,37,38,38,39,39,40,40,41,41,42,42,43,43,47,47,48,48,49,49,50,50,52,52,53,53,54,54,55,55,56,56,57,57,58,58,59,59,60,60,63,63,64,64,65,65,66,66,67,67,68,68,69,69,70,70,71,71,72,72,73,73,74,74,76,76,77,77,78,78,85,85,86,86,87,87,88,88,91,91,92,92,93,93,94,94,95,95,96,96,97,97,98,98],"right_children":[2,4,6,8,10,12,14,16,18,20,22,24,26,28,30,32,34,36,38,-1,-1,40,42,-1,44,46,48,50,52,54,56,58,60,-1,62,64,66,68,70,72,74,76,78,80,-1,-1,-1,82,84,86,88,-1,90,92,94,96,98,100,102,104,106,-1,-1,108,110,112,114,116,118,120,122,124,126,128,130,-1,132,134,136,-1,-1,-1,-1,-1,-1,138,140,142,144,-1,-1,146,148,150,152,154,156,158,160,-1,-1,-1,-1,-1,-1,-1,-1,-1,-1,-1,-1,-1,-1,-1,-1,-1,-1,-1,-1,-1,-1,-1,-1,-1,-1,-1,-1,-1,-1,-1,-1,-1,-1,-1,-1,-1,-1,-1,-1,-1,-1,-1,-1,-1,-1,-1,-1,-1,-1,-1,-1,-1,-1,-1,-1,-1,-1,-1,-1,-1,-1],"split_conditions":[6.621175E-1,6.572582E-1,2.2506302E-3,3.989272E-1,2.2506302E-3,8.2218254E-1,4.168167E-2,3.9022523E-1,6.341465E-1,5.5555556E-2,2.777778E-1,7.876776E-1,8.349742E-1,4.078142E-2,7.090609E-2,3.8253418E-1,3.9342475E-1,6.324857E-1,2.6233345E-1,-5.1166853E-3,-4.89316E-2,2.024667E-1,4.1296717E-4,1.7177261E-1,4.4444448E-1,2.2222222E-1,2.777778E-1,7.6906526E-1,8.39857E-1,1.8427517E-2,1.4619164E-1,2.5864244E-1,3.8608843E-1,-3.4992823E-3,6.805897E-1,7.090609E-2,1.6666667E-1,6.4979887E-1,3.5106385E-1,5.5555556E-2,3.9234042E-1,6.8723404E-1,8.3552396E-1,8.0460525E-1,1.1228248E-3,8.423872E-1,3.6268115E-1,8.7090075E-1,8.7090075E-1,7.563675E-1,8.2218254E-1,-1.401718E-2,1.6666667E-1,8.2218254E-1,8.4422266E-1,6.385488E-1,9.998778E-1,3.231905E-2,1.0025515E-1,6.4742017E-1,1.5880446E-1,-9.087809E-3,-3.9729234E-3,1.6666667E-1,3.9791144E-2,8.404753E-1,8.2186735E-1,5E-1,1.389089E-1,6.474741E-1,7.090609E-2,9.9787235E-1,1.8185091E-1,2.0435722E-1,5.5555556E-2,-2.7042707E-2,9.9787235E-1,8.2283044E-1,8.547894E-1,-4.867995E-2,-1.5240688E-2,1.0776914E-2,-2.0817961E-1,-4.7832444E-2,2.3747353E-1,7.2514045E-1,5E-1,1.166234E-1,8.307456E-1,2.5627982E-2,3.5585338E-1,7.6706135E-1,8.349742E-1,8.2218254E-1,1.4079942E-1,1.3683832E-1,6.421498E-1,9.699887E-1,1.6132517E-1,5.574239E-3,1.0778898E-3,5.9040106E-4,-7.389861E-4,1.2873803E-2,6.198566E-3,4.8123053E-3,5.8872993E-5,3.5616126E-2,1.2892193E-2,2.269964E-2,6.1102733E-3,2.507842E-3,7.732752E-3,-2.8597232E-4,2.6381086E-3,2.0303078E-2,5.402372E-3,1.0552844E-2,2.51176E-3,5.34864E-3,9.687138E-3,1.2376613E-2,6.779125E-3,-3.3140448E-3,5.8002054E-4,-7.924554E-3,-1.855541E-2,3.0340547E-2,-1.0887831E-3,-3.0067544E-3,-5.9433854E-3,1.6275205E-1,3.9412398E-2,-2.0186182E-3,-2.247086E-2,3.1447183E-2,3.5290772E-3,1.9744689E-2,6.682906E-2,1.9700737E-1,5.1628865E-2,3.715984E-3,3.5977148E-2,7.232767E-2,2.7693639E-2,5.1319074E-2,6.8454263E-3,6.89141E-2,1.6915696E-2,1.36371385E-2,2.1686634E-2,1.7407216E-2,1.0859708E-2,2.1057738E-2,7.583206E-3,2.8030676E-1,5.014946E-3,7.6847086E-3,2.748547E-3,1.9024005E-2,1.1111717E-2],"split_indices":[1,1,5,1,5,1,5,1,1,4,4,1,1,5,7,1,1,1,5,0,0,5,8,0,4,4,4,1,1,11,11,5,1,0,11,7,4,1,10,4,10,10,5,1,0,0,0,1,1,1,1,0,4,1,1,5,1,5,1,11,5,0,0,4,5,5,11,4,5,1,7,10,5,5,4,0,10,5,5,0,0,0,0,0,0,1,0,7,1,0,0,1,1,1,5,5,5,1,5,0,0,0,0,0,0,0,0,0,0,0,0,0,0,0,0,0,0,0,0,0,0,0,0,0,0,0,0,0,0,0,0,0,0,0,0,0,0,0,0,0,0,0,0,0,0,0,0,0,0,0,0,0,0,0,0,0,0,0,0,0,0],"split_type":[0,0,0,0,0,0,0,0,0,0,0,0,0,0,0,0,0,0,0,0,0,0,0,0,0,0,0,0,0,0,0,0,0,0,0,0,0,0,0,0,0,0,0,0,0,0,0,0,0,0,0,0,0,0,0,0,0,0,0,0,0,0,0,0,0,0,0,0,0,0,0,0,0,0,0,0,0,0,0,0,0,0,0,0,0,0,0,0,0,0,0,0,0,0,0,0,0,0,0,0,0,0,0,0,0,0,0,0,0,0,0,0,0,0,0,0,0,0,0,0,0,0,0,0,0,0,0,0,0,0,0,0,0,0,0,0,0,0,0,0,0,0,0,0,0,0,0,0,0,0,0,0,0,0,0,0,0,0,0,0,0],"sum_hessian":[7.936E3,3.772E3,4.164E3,1.583E3,2.189E3,1.5E1,4.149E3,9.56E2,6.27E2,1.2E1,2.177E3,5E0,1E1,1.41E2,4.008E3,9.38E2,1.8E1,4.17E2,2.1E2,2E0,1E1,1.53E3,6.47E2,1E0,4E0,2E0,8E0,1.38E2,3E0,3.197E3,8.11E2,8.83E2,5.5E1,9E0,9E0,3.64E2,5.3E1,2.9E1,1.81E2,3.23E2,1.207E3,8E0,6.39E2,3E0,1E0,1E0,1E0,3E0,5E0,1.1E1,1.27E2,1E0,2E0,1.23E2,3.074E3,1.35E2,6.76E2,1.84E2,6.99E2,1.9E1,3.6E1,8E0,1E0,2.3E1,3.41E2,3E0,5E1,2.4E1,5E0,6E1,1.21E2,9.4E1,2.29E2,5.13E2,6.94E2,3E0,5E0,5.18E2,1.21E2,2E0,1E0,2E0,1E0,1E0,4E0,8E0,3E0,4.9E1,7.8E1,1E0,1E0,5.7E1,6.6E1,2.179E3,8.95E2,1.2E2,1.5E1,6.52E2,2.4E1,1.1E1,1.73E2,1.89E2,5.1E2,1.5E1,4E0,5E0,3.1E1,1E0,2.2E1,5E0,3.36E2,1E0,2E0,3.9E1,1.1E1,2.2E1,2E0,3E0,2E0,4.8E1,1.2E1,9.5E1,2.6E1,8.2E1,1.2E1,2.04E2,2.5E1,4E0,5.09E2,1.84E2,5.1E2,1E0,4E0,5.04E2,1.4E1,1.3E1,1.08E2,4E0,4E0,2E0,1E0,4.4E1,5E0,1.4E1,6.4E1,1.3E1,4.4E1,2.5E1,4.1E1,1.586E3,5.93E2,8.6E1,8.09E2,1.4E1,1.06E2,1E0,1.4E1,6.23E2,2.9E1,3E0,2.1E1],"tree_param":{"num_deleted":"0","num_feature":"12","num_nodes":"161","size_leaf_vector":"0"}},{"base_weights":[3.769717E-1,-1.680561E-2,7.379417E-1,1.5504795E-1,-1.4170805E-1,4.15992E0,6.9372827E-1,2.0692204E-3,3.478496E-1,-1.0184612E0,-1.1716792E-1,7.9918838E0,2.82531E0,7.6950747E-1,4.0164417E-1,3.3411235E-1,-3.771806E-3,3.1126564E0,3.3843797E-1,-1.1339296E0,5.310192E-1,-1.9470605E-1,6.1966106E-2,3.8373098E0,1.3980983E1,7.8294E0,2.0201018E0,1.5026373E0,7.380055E-1,5.390895E-1,3.7514433E-1,4.8083037E-1,1.5024969E-1,5.794905E-2,-2.5636187E-2,3.9098399E0,1.5263698E0,2.763839E-1,4.822002E-1,-2.0132011E-1,-1.3634923E0,-5.2064174E-1,1.5129062E0,-5.6295484E-1,-1.8434624E-1,1.024823E0,4.6151035E-2,9.965149E0,1.3753052E0,4.1487637E1,4.4376264E0,3.3670402E0,1.0165596E1,2.8429954E0,-1.1369188E0,3.081212E0,1.3509389E0,4.9085534E-1,7.7397585E-1,4.3414998E-1,1.479478E0,3.644472E-1,5.520015E-1,3.685458E-1,7.1076405E-1,2.0883704E-2,4.1834885E-1,4.940817E-2,3.5112068E-1,-4.1824736E-2,3.0217668E-2,7.366769E-1,2.6027557E-1,9.333485E-1,4.4084665E-1,-0E0,-2.2120655E-1,-1.0657291E0,-1.8059857E0,-1.399315E-1,-7.8553843E-1,-9.661122E-2,-2.2661698E-1,3.2110603E0,-1.3599995E-2,9.320697E-2,-1.5798827E-1,2.8907433E0,1.4536796E1,3.7278703E-1,5.0304356E0,5.075667E-1,5.5615406E0,-3.4635645E-1,3.9473433E0,1.0741098E0,-6.0341682E0,4.8321518E-1,3.9954276E0,4.668578E-1,1.8340726E0,5.973489E-1,3.0565658E-1,8.668897E-1,6.092831E-1,5.0761926E-1,2.875113E-1,2.33122E-1,2.8424726E0,3.7797168E-1,-4.7791716E-2,3.9759037E-1,6.226528E-1,5.582786E-1,2.3472707E-1,1.04845725E-1,-2.4649888E-1,8.049692E-2,1.8322555E-2,6.5642095E-1,1.5641253E-1,-3.125205E-2,-1.1030774E-1,7.6108046E-2,-9.256849E-2,5.83437E-1,1.271643E0,2.8835976E-1,4.166823E-2,1.5883964E0,8.1243354E-1,4.826568E-1,2.1039912E-1,-1.2064066E0,-9.284676E-1,-1.5065418E-1,-8.519804E-2,-9.9472463E-1,-2.9218727E-1,-1.7652181E-1,-1.4081654E-2,-2.6158586E-1,-1.6283229E-1,5.160927E-4,8.015552E0,-5.920296E-1,7.3543274E-1,-4.6347465E-2,2.9601386E-1,-2.615475E-1,4.1085535E-1,-1.1370035E0,3.4848287E0,1.1240419E1,1.9309361E0,-4.754025E-1,5.8517494E0,6.920069E-1,2.8873226E-1,2.8230896E0,4.4756646E0,1.6309797E0,3.6643216E-1,2.9861066E0,1.1363914E0,7.9401976E-1,5.2792823E-1,7.6377857E-1,2.1659817E-1,7.3063564E-1,1.1917837E0,1.1069769E0,5.7265794E-1,7.5622594E-1,4.416482E-1,2.2537243E-1,4.263698E-1,2.773253E-1,-2.4428125E-2,2.8740155E-2,5.367573E0,3.632659E-1,5.1506877E-1,8.7923825E-2,-7.237685E-2,4.534399E-1,1.8040878E-1,4.675719E-1,6.810412E-1],"categories":[],"categories_nodes":[],"categories_segments":[],"categories_sizes":[],"default_left":[true,true,true,true,true,true,true,true,true,true,true,true,true,true,true,true,true,true,true,true,true,true,true,true,true,true,true,true,true,true,true,true,true,true,true,false,false,true,true,true,true,false,false,true,true,true,true,true,true,false,true,false,false,true,true,true,true,true,true,true,true,true,true,true,false,true,false,true,true,true,true,true,true,true,true,false,false,true,false,true,true,true,true,true,true,true,true,false,false,false,false,false,false,true,true,true,false,true,true,true,true,true,true,true,true,true,true,true,true,true,true,true,true,false,false,false,false,false,false,false,false,false,false,false,false,false,false,false,false,false,false,false,false,false,false,false,false,false,false,false,false,false,false,false,false,false,false,false,false,false,false,false,false,false,false,false,false,false,false,false,false,false,false,false,false,false,false,false,false,false,false,false,false,false,false,false,false,false,false,false,false,false,false,false,false,false,false,false,false],"id":87,"left_children":[1,3,5,7,9,11,13,15,17,19,21,23,25,27,29,31,33,35,37,39,41,43,45,47,49,51,53,55,57,59,61,63,65,67,69,-1,-1,71,73,75,77,-1,-1,79,81,83,85,87,89,-1,91,-1,-1,93,95,97,99,101,103,105,107,109,111,113,-1,115,-1,117,119,121,123,125,127,129,131,-1,-1,133,-1,135,137,139,141,143,145,147,149,-1,-1,-1,-1,-1,-1,151,153,155,-1,157,159,161,163,165,167,169,171,173,175,177,179,181,183,185,187,-1,-1,-1,-1,-1,-1,-1,-1,-1,-1,-1,-1,-1,-1,-1,-1,-1,-1,-1,-1,-1,-1,-1,-1,-1,-1,-1,-1,-1,-1,-1,-1,-1,-1,-1,-1,-1,-1,-1,-1,-1,-1,-1,-1,-1,-1,-1,-1,-1,-1,-1,-1,-1,-1,-1,-1,-1,-1,-1,-1,-1,-1,-1,-1,-1,-1,-1,-1,-1,-1,-1,-1,-1,-1,-1,-1],"loss_changes":[1.1192863E3,8.085121E1,6.205486E2,4.6753464E1,4.687678E1,2.5995874E2,8.96626E1,1.7202728E0,1.784909E1,1.0825104E1,2.948453E1,3.1362085E2,1.5307297E2,7.3971924E1,2.965683E0,3.805418E-1,1.1731899E0,8.8316345E-1,6.1835175E0,1.1732613E1,4.751619E0,5.606003E0,9.734951E0,1.2099314E2,1.3380178E3,4.399408E1,9.0296844E1,3.023822E1,2.7310791E1,1.3015064E1,1.248558E0,1.1240578E-1,2.4516748E-1,5.5773187E-1,5.8138037E-1,0E0,0E0,3.550026E0,3.767292E0,4.629773E-2,5.1585083E0,0E0,0E0,3.7478647E0,5.333454E0,2.3519625E1,6.068554E0,6.120659E1,2.2505531E1,0E0,1.811325E1,0E0,0E0,9.677997E1,8.1638626E1,2.6210747E1,5.1506714E1,7.6837463E0,4.1047485E1,1.2471695E0,2.2385748E1,3.7090302E0,3.3199596E-1,1.0579491E-1,0E0,1.2633415E-1,0E0,2.119981E-1,3.30657E-1,3.5764927E-1,8.1539094E-1,1.0651169E0,2.8972778E0,9.083195E-1,1.819027E0,0E0,0E0,1.2381935E-1,0E0,7.67678E-4,2.602394E0,3.0917E0,2.1485138E0,5.130318E1,3.3204668E0,1.4536808E1,7.004612E0,0E0,0E0,0E0,0E0,0E0,0E0,2.3501745E1,2.915945E2,4.0488136E1,0E0,5.47418E-2,3.7416077E-1,4.8382273E0,6.1770325E1,3.245514E0,5.819601E0,7.5926636E1,1.7506683E1,1.1890755E0,3.153057E-1,8.935484E-2,4.487062E1,1.2200928E0,7.308126E-2,1.2540722E-1,1.1587429E-1,0E0,0E0,0E0,0E0,0E0,0E0,0E0,0E0,0E0,0E0,0E0,0E0,0E0,0E0,0E0,0E0,0E0,0E0,0E0,0E0,0E0,0E0,0E0,0E0,0E0,0E0,0E0,0E0,0E0,0E0,0E0,0E0,0E0,0E0,0E0,0E0,0E0,0E0,0E0,0E0,0E0,0E0,0E0,0E0,0E0,0E0,0E0,0E0,0E0,0E0,0E0,0E0,0E0,0E0,0E0,0E0,0E0,0E0,0E0,0E0,0E0,0E0,0E0,0E0,0E0,0E0,0E0,0E0,0E0,0E0,0E0,0E0,0E0,0E0,0E0,0E0],"parents":[2147483647,0,0,1,1,2,2,3,3,4,4,5,5,6,6,7,7,8,8,9,9,10,10,11,11,12,12,13,13,14,14,15,15,16,16,17,17,18,18,19,19,20,20,21,21,22,22,23,23,24,24,25,25,26,26,27,27,28,28,29,29,30,30,31,31,32,32,33,33,34,34,37,37,38,38,39,39,40,40,43,43,44,44,45,45,46,46,47,47,48,48,50,50,53,53,54,54,55,55,56,56,57,57,58,58,59,59,60,60,61,61,62,62,63,63,65,65,67,67,68,68,69,69,70,70,71,71,72,72,73,73,74,74,77,77,79,79,80,80,81,81,82,82,83,83,84,84,85,85,86,86,93,93,94,94,95,95,97,97,98,98,99,99,100,100,101,101,102,102,103,103,104,104,105,105,106,106,107,107,108,108,109,109,110,110,111,111,112,112],"right_children":[2,4,6,8,10,12,14,16,18,20,22,24,26,28,30,32,34,36,38,40,42,44,46,48,50,52,54,56,58,60,62,64,66,68,70,-1,-1,72,74,76,78,-1,-1,80,82,84,86,88,90,-1,92,-1,-1,94,96,98,100,102,104,106,108,110,112,114,-1,116,-1,118,120,122,124,126,128,130,132,-1,-1,134,-1,136,138,140,142,144,146,148,150,-1,-1,-1,-1,-1,-1,152,154,156,-1,158,160,162,164,166,168,170,172,174,176,178,180,182,184,186,188,-1,-1,-1,-1,-1,-1,-1,-1,-1,-1,-1,-1,-1,-1,-1,-1,-1,-1,-1,-1,-1,-1,-1,-1,-1,-1,-1,-1,-1,-1,-1,-1,-1,-1,-1,-1,-1,-1,-1,-1,-1,-1,-1,-1,-1,-1,-1,-1,-1,-1,-1,-1,-1,-1,-1,-1,-1,-1,-1,-1,-1,-1,-1,-1,-1,-1,-1,-1,-1,-1,-1,-1,-1,-1,-1,-1],"split_conditions":[6.621175E-1,6.572582E-1,5E-1,3.8399246E-1,6.724138E-2,1.6666667E-1,7.090609E-2,7.4137926E-2,5E-1,5E-1,2.777778E-1,8.1140214E-1,7.876776E-1,1.8427517E-2,1.4619164E-1,1.24946564E-1,1.0025515E-1,3.9780295E-1,6.341465E-1,5.5555556E-2,5E-1,1.2931034E-1,4.1296717E-4,7.7843237E-1,8.349742E-1,7.563675E-1,3.888889E-1,7.554066E-1,7.554066E-1,3.327586E-1,9.859468E-1,9.062067E-2,6.736668E-2,9.578559E-2,3.279013E-1,7.8196794E-2,3.0527396E-2,1.8427517E-2,5.0082594E-1,5.0041294E-1,2.777778E-1,-1.0412835E-2,3.0258123E-2,5.5555556E-2,3.5106385E-1,3.7931034E-1,6.586207E-1,7.563675E-1,7.938249E-1,8.297527E-1,8.5267967E-1,6.73408E-2,2.0331192E-1,8.2218254E-1,8.76709E-1,7.072881E-1,8.2218254E-1,7.290039E-1,8.349742E-1,2.777778E-1,5.8854413E-1,9.699887E-1,6.4496315E-1,3.4743626E-2,1.421528E-2,2.607362E-2,8.366977E-3,5.888164E-2,3.5106385E-1,3.2117623E-1,3.757258E-1,5.4282683E-1,6.324857E-1,2.1896552E-1,6.4979887E-1,-0E0,-4.424131E-3,1.6666667E-1,-3.6119714E-2,7.0638824E-1,9.9787235E-1,4.0862072E-1,1.6666667E-1,3.5172415E-1,5.37931E-1,4.0172416E-1,9.9787235E-1,5.7814863E-2,2.907359E-1,7.4557406E-3,1.0060871E-1,1.0151333E-2,1.1123081E-1,1.166234E-1,8.349742E-1,8.5870504E-1,-1.20683365E-1,1.6666667E-1,1.4310345E-1,7.6706135E-1,8.349742E-1,3.2068965E-1,2.862069E-1,8.2218254E-1,1.2389015E-3,1.6034484E-1,1.3882065E-1,3.3333334E-1,6.893617E-1,9.644023E-1,5.0082594E-1,5.4137933E-1,3.5106385E-1,1.1165572E-2,4.6945415E-3,2.0969145E-3,-4.9299775E-3,1.6099385E-3,3.664511E-4,1.31284185E-2,3.1282504E-3,-6.2504096E-4,-2.2061546E-3,1.5221608E-3,-1.8513697E-3,1.166874E-2,2.543286E-2,5.767195E-3,8.3336455E-4,3.1767927E-2,1.6248671E-2,9.653136E-3,4.207982E-3,-2.4128132E-2,-1.856935E-2,-3.0130835E-3,-1.7039607E-3,-1.9894492E-2,-5.8437455E-3,-3.5304362E-3,-2.8163308E-4,-5.231717E-3,-3.2566458E-3,1.0321854E-5,1.6031103E-1,-1.1840591E-2,1.4708655E-2,-9.2694926E-4,5.920277E-3,-5.23095E-3,8.217107E-3,-2.274007E-2,6.9696575E-2,2.2480838E-1,3.861872E-2,-9.50805E-3,1.1703499E-1,1.3840137E-2,5.774645E-3,5.6461792E-2,8.951329E-2,3.261959E-2,7.328643E-3,5.9722133E-2,2.2727827E-2,1.5880395E-2,1.0558564E-2,1.5275571E-2,4.331963E-3,1.4612713E-2,2.3835672E-2,2.2139536E-2,1.1453158E-2,1.5124518E-2,8.832963E-3,4.5074485E-3,8.527395E-3,5.546506E-3,-4.885625E-4,5.748031E-4,1.0735145E-1,7.2653177E-3,1.0301375E-2,1.7584765E-3,-1.4475369E-3,9.068797E-3,3.6081753E-3,9.351438E-3,1.3620824E-2],"split_indices":[1,1,0,1,3,4,7,3,0,4,4,1,1,11,11,1,1,1,1,4,0,3,8,1,1,1,4,1,1,3,1,1,7,1,1,0,0,11,8,8,4,0,0,4,10,3,3,1,1,0,1,0,0,1,1,1,1,1,1,4,7,1,11,1,0,7,0,1,10,1,1,7,1,3,1,0,0,4,0,11,10,3,4,3,3,3,10,0,0,0,0,0,0,7,1,1,0,4,3,1,1,3,3,1,8,3,11,4,10,1,8,3,10,0,0,0,0,0,0,0,0,0,0,0,0,0,0,0,0,0,0,0,0,0,0,0,0,0,0,0,0,0,0,0,0,0,0,0,0,0,0,0,0,0,0,0,0,0,0,0,0,0,0,0,0,0,0,0,0,0,0,0,0,0,0,0,0,0,0,0,0,0,0,0,0,0,0,0,0],"split_type":[0,0,0,0,0,0,0,0,0,0,0,0,0,0,0,0,0,0,0,0,0,0,0,0,0,0,0,0,0,0,0,0,0,0,0,0,0,0,0,0,0,0,0,0,0,0,0,0,0,0,0,0,0,0,0,0,0,0,0,0,0,0,0,0,0,0,0,0,0,0,0,0,0,0,0,0,0,0,0,0,0,0,0,0,0,0,0,0,0,0,0,0,0,0,0,0,0,0,0,0,0,0,0,0,0,0,0,0,0,0,0,0,0,0,0,0,0,0,0,0,0,0,0,0,0,0,0,0,0,0,0,0,0,0,0,0,0,0,0,0,0,0,0,0,0,0,0,0,0,0,0,0,0,0,0,0,0,0,0,0,0,0,0,0,0,0,0,0,0,0,0,0,0,0,0,0,0,0,0,0,0,0,0,0,0,0,0,0,0],"sum_hessian":[7.874E3,3.766E3,4.108E3,1.585E3,2.181E3,5.2E1,4.056E3,8.84E2,7.01E2,5.9E1,2.122E3,1.3E1,3.9E1,3.22E3,8.36E2,1.5E1,8.69E2,2E0,6.99E2,5.5E1,4E0,1.481E3,6.41E2,8E0,5E0,5E0,3.4E1,1.32E2,3.088E3,1.34E2,7.02E2,8E0,7E0,2.27E2,6.42E2,1E0,1E0,4.89E2,2.1E2,1.1E1,4.4E1,2E0,2E0,4E1,1.441E3,1E1,6.31E2,2E0,6E0,1E0,4E0,2E0,3E0,2.7E1,7E0,1.1E1,1.21E2,3.93E2,2.695E3,1.21E2,1.3E1,6.63E2,3.9E1,6E0,2E0,5E0,2E0,2.21E2,6E0,4.98E2,1.44E2,1.6E1,4.73E2,1.7E1,1.93E2,1E0,1E1,2.7E1,1.7E1,1.4E1,2.6E1,4.69E2,9.72E2,3E0,7E0,5.13E2,1.18E2,1E0,1E0,5E0,1E0,1E0,3E0,7E0,2E1,5E0,2E0,3E0,8E0,4.3E1,7.8E1,2.49E2,1.44E2,1.722E3,9.73E2,8E1,4.1E1,7E0,6E0,6.42E2,2.1E1,1.3E1,2.6E1,2E0,4E0,4E0,1E0,1.1E2,1.11E2,2E0,4E0,4.32E2,6.6E1,1.05E2,3.9E1,1.3E1,3E0,4.19E2,5.4E1,2E0,1.5E1,1.63E2,3E1,1.2E1,1.5E1,1.1E1,3E0,1.8E1,8E0,2.38E2,2.31E2,6.27E2,3.45E2,2E0,1E0,4E0,3E0,3.04E2,2.09E2,1E2,1.8E1,6E0,1E0,4E0,1.6E1,4E0,1E0,1E0,2E0,3E0,5E0,3E0,4E1,2.9E1,4.9E1,6.4E1,1.85E2,2.3E1,1.21E2,1.214E3,5.08E2,6.6E1,9.07E2,1.6E1,6.4E1,2.9E1,1.2E1,6E0,1E0,3E0,3E0,5.81E2,6.1E1,3E0,1.8E1,1E1,3E0,8E0,1.8E1],"tree_param":{"num_deleted":"0","num_feature":"12","num_nodes":"189","size_leaf_vector":"0"}},{"base_weights":[3.644585E-1,-2.7257067E-3,6.960802E-1,1.541805E-1,-1.16434395E-1,3.415137E0,6.668352E-1,-1.7994325E-4,3.577313E-1,-8.464185E-1,-9.428165E-2,9.220163E0,2.598681E0,3.8212273E-1,7.403483E-1,9.241263E-2,-1.7845096E-2,2.7173123E0,3.459736E-1,-1.8987539E0,-6.408215E-1,-1.5009096E-1,2.960833E-2,3.3719587E0,1.2387341E1,4.9285775E-1,4.193613E0,3.5669655E-1,5.458434E-1,1.6014174E0,7.2278166E-1,2.8804168E-1,8.163797E-2,2.4975014E-1,-2.1556292E-2,3.8511984E0,1.6749102E0,2.1789867E-1,4.0949085E-1,-2.476569E-1,-2.2833886E0,-7.37074E-1,5.231769E-1,-1.8953355E-1,-9.969661E-2,2.6265502E-1,-1.668254E-2,3.4831858E0,-2.1306081E-1,1.1032911E1,2.4999557E0,3.4597677E-1,6.196096E-1,6.545012E-1,2.7809012E-1,4.8621798E-1,2.2882807E0,-7.131651E-1,7.2913605E-1,1.337342E-1,3.8128373E-1,1.1177502E-1,5.687954E-2,9.69376E-2,5.5666673E-1,-3.444911E-2,3.6726627E-2,3.1007797E-1,-2.6056042E-2,5.09813E-1,3.366833E-1,-1.5940025E-1,-8.786269E-1,8.7445843E-1,3.260393E-1,-1.6098209E-1,-3.1949165E-1,-1.4083621E-1,4.497409E-3,-6.799836E-2,1.0512264E0,-2.3659569E-1,4.2843148E-2,2.9848033E-1,4.799211E0,-1.49117E0,3.2842574E-1,1.7693485E1,7.2605343E0,-1.1494557E0,5.363743E0,7.843173E-1,3.3993256E-1,7.989969E-1,5.691395E-1,4.7690383E-1,1.2456462E0,3.737356E-1,1.726694E-2,2.34273E0,2.9299676E-1,4.472496E0,1.1943649E0,-9.479074E-1,6.2335986E-1,7.8984225E-1,6.0265255E-1,4.2493176E-1,1.6612294E-1,6.024077E-2,1.4398389E-1,2.0486134E-1,4.755458E-2,1.6561572E-1,-2.4280176E-1,1.1774714E-2,-4.3506835E-2,-7.438216E-2,8.889348E-2,6.6226876E-1,2.62417E-1,-2.7805027E-1,-2.0203117E-2,3.8790244E-1,6.822854E-1,1.2122803E0,3.1818777E-1,-1.821167E-1,-1.1064178E-1,-9.4582605E-1,-2.4429937E-1,-2.2251135E-1,8.843389E-3,6.540174E-1,-3.697072E-1,-0E0,-2.3015133E-1,-1.1911903E-1,1.9761029E-1,1.5609233E-1,-4.578821E-1,7.2042376E-1,1.8391386E0,5.953255E-1,-3.894885E-1,-4.1233633E-2,3.4122697E-1,-1.967755E0,6.2429655E-2,8.10033E-1,-1.710417E-1,-8.834475E-2,-2.1188214E0,-2.8457358E-1,1.067937E1,1.4810661E0,3.7405196E-1,3.7277663E-1,2.604E-1,6.818344E-1,3.8147372E-1,4.7490072E-1,3.6958313E0,-0E0,4.2594177E-1,-3.94964E-1,1.4959653E-1,1.1572654E0,2.931633E0,8.581757E-1,2.542379E-1,2.822686E0,4.6793237E0,2.3160357E0,6.895429E-1,2.8433907E-1,7.9579526E-1,6.682446E-1,1.1924846E0,8.9924973E-1,5.342941E-1],"categories":[],"categories_nodes":[],"categories_segments":[],"categories_sizes":[],"default_left":[true,true,true,true,true,true,true,true,true,true,true,true,true,true,true,true,true,true,true,true,true,true,true,false,false,true,true,true,true,true,true,true,true,true,true,false,false,true,true,false,false,true,true,true,true,true,true,true,true,true,true,true,true,true,true,true,true,true,true,false,true,true,true,true,false,true,true,true,true,true,true,true,true,false,false,true,true,true,true,true,true,true,true,false,false,true,true,false,false,true,true,true,true,false,false,true,true,true,true,true,true,true,true,false,true,true,true,false,false,false,false,false,false,false,false,false,false,false,false,false,false,false,false,false,false,false,false,false,false,false,false,false,false,false,false,false,false,false,false,false,false,false,false,false,false,false,false,false,false,false,false,false,false,false,false,false,false,false,false,false,false,false,false,false,false,false,false,false,false,false,false,false,false,false,false,false,false,false,false,false,false],"id":88,"left_children":[1,3,5,7,9,11,13,15,17,19,21,23,25,27,29,31,33,35,37,39,41,43,45,-1,-1,47,49,51,53,55,57,59,61,63,65,-1,-1,67,69,-1,-1,71,73,75,77,79,81,83,85,87,89,91,93,95,97,99,101,103,105,-1,107,109,111,113,-1,115,117,119,121,123,125,127,129,-1,-1,131,133,135,137,139,141,143,145,-1,-1,147,149,-1,-1,151,153,155,157,-1,-1,159,161,163,165,167,169,171,173,-1,175,177,179,-1,-1,-1,-1,-1,-1,-1,-1,-1,-1,-1,-1,-1,-1,-1,-1,-1,-1,-1,-1,-1,-1,-1,-1,-1,-1,-1,-1,-1,-1,-1,-1,-1,-1,-1,-1,-1,-1,-1,-1,-1,-1,-1,-1,-1,-1,-1,-1,-1,-1,-1,-1,-1,-1,-1,-1,-1,-1,-1,-1,-1,-1,-1,-1,-1,-1,-1,-1,-1,-1,-1,-1,-1,-1],"loss_changes":[9.673622E2,6.727422E1,3.3112048E2,4.9785187E1,3.53155E1,2.019621E2,8.633789E1,1.4737632E0,1.8600677E1,1.3477016E1,1.4677471E1,8.46344E1,1.3135107E2,3.4536362E0,4.922986E1,2.9111648E-1,7.5064695E-1,1.7101955E0,5.4957886E0,6.3377876E0,6.2190437E0,2.8982162E0,7.1178155E0,0E0,0E0,3.6883835E1,2.493074E2,1.9871826E0,3.2232704E0,4.9634155E1,2.9530518E1,8.116341E-2,9.7945035E-2,4.5732927E-1,5.619591E-1,0E0,0E0,5.0964365E0,3.249237E0,0E0,0E0,4.054327E0,1.8789709E-1,3.0198383E0,2.7598042E0,2.854589E1,7.210274E0,1.3420685E1,1.0099794E1,6.56886E1,1.9372174E2,1.7690811E0,8.536434E-2,8.211205E0,8.238263E-1,8.821065E0,9.4508514E1,4.6986403E0,2.4417603E1,0E0,8.726239E-3,9.599954E-2,9.848522E-2,1.8341792E-1,0E0,2.569968E-1,7.8683126E-1,2.6873188E0,8.580828E-2,3.8984718E0,4.1303196E0,5.502701E-4,1.6252365E0,0E0,0E0,7.039526E0,7.2790184E0,5.8046274E0,4.361621E0,6.784711E0,7.9491615E0,1.4998589E1,1.0880074E1,0E0,0E0,3.276742E0,2.5410042E0,0E0,0E0,8.477942E0,3.1141745E2,2.456787E0,1.7827682E0,0E0,0E0,1.1171236E0,3.397741E1,4.7159672E-1,5.253475E-1,4.3936634E-1,4.2251158E-1,3.8116455E-2,1.4901989E1,0E0,4.5549214E-2,1.05625244E2,2.0912018E1,0E0,0E0,0E0,0E0,0E0,0E0,0E0,0E0,0E0,0E0,0E0,0E0,0E0,0E0,0E0,0E0,0E0,0E0,0E0,0E0,0E0,0E0,0E0,0E0,0E0,0E0,0E0,0E0,0E0,0E0,0E0,0E0,0E0,0E0,0E0,0E0,0E0,0E0,0E0,0E0,0E0,0E0,0E0,0E0,0E0,0E0,0E0,0E0,0E0,0E0,0E0,0E0,0E0,0E0,0E0,0E0,0E0,0E0,0E0,0E0,0E0,0E0,0E0,0E0,0E0,0E0,0E0,0E0,0E0,0E0,0E0,0E0,0E0,0E0],"parents":[2147483647,0,0,1,1,2,2,3,3,4,4,5,5,6,6,7,7,8,8,9,9,10,10,11,11,12,12,13,13,14,14,15,15,16,16,17,17,18,18,19,19,20,20,21,21,22,22,25,25,26,26,27,27,28,28,29,29,30,30,31,31,32,32,33,33,34,34,37,37,38,38,41,41,42,42,43,43,44,44,45,45,46,46,47,47,48,48,49,49,50,50,51,51,52,52,53,53,54,54,55,55,56,56,57,57,58,58,60,60,61,61,62,62,63,63,65,65,66,66,67,67,68,68,69,69,70,70,71,71,72,72,75,75,76,76,77,77,78,78,79,79,80,80,81,81,82,82,85,85,86,86,89,89,90,90,91,91,92,92,95,95,96,96,97,97,98,98,99,99,100,100,101,101,102,102,104,104,105,105,106,106],"right_children":[2,4,6,8,10,12,14,16,18,20,22,24,26,28,30,32,34,36,38,40,42,44,46,-1,-1,48,50,52,54,56,58,60,62,64,66,-1,-1,68,70,-1,-1,72,74,76,78,80,82,84,86,88,90,92,94,96,98,100,102,104,106,-1,108,110,112,114,-1,116,118,120,122,124,126,128,130,-1,-1,132,134,136,138,140,142,144,146,-1,-1,148,150,-1,-1,152,154,156,158,-1,-1,160,162,164,166,168,170,172,174,-1,176,178,180,-1,-1,-1,-1,-1,-1,-1,-1,-1,-1,-1,-1,-1,-1,-1,-1,-1,-1,-1,-1,-1,-1,-1,-1,-1,-1,-1,-1,-1,-1,-1,-1,-1,-1,-1,-1,-1,-1,-1,-1,-1,-1,-1,-1,-1,-1,-1,-1,-1,-1,-1,-1,-1,-1,-1,-1,-1,-1,-1,-1,-1,-1,-1,-1,-1,-1,-1,-1,-1,-1,-1,-1,-1,-1],"split_conditions":[6.621175E-1,6.572582E-1,5E-1,3.8399246E-1,7.4137926E-2,7.703592E-1,9.8790765E-1,8.014725E-2,5E-1,2.7272727E-2,2.777778E-1,7.563675E-1,8.2218254E-1,9.212121E-1,9.6551724E-2,1.15517244E-1,7.241379E-2,3.9780295E-1,4.4565028E-1,5.5555556E-2,5E-1,7.5757575E-1,2.6206896E-1,6.7439176E-2,2.4774681E-1,9.8790765E-1,8.349742E-1,9.998778E-1,2.777778E-1,8.2218254E-1,5.5555556E-2,1.1111111E-1,3.3965516E-1,6.736668E-2,3.279013E-1,7.702397E-2,3.34982E-2,4.3256068E-1,2.777778E-1,-4.9531376E-3,-4.566777E-2,5.5555556E-2,5E-1,6.666666E-1,3.7586206E-1,2.1896552E-1,3.2931036E-1,7.847458E-1,2.7272727E-2,2.7272727E-2,8.571358E-1,1.15517244E-1,3.086207E-1,5.8854413E-1,8.736376E-1,7.554066E-1,8.349742E-1,8.0838656E-1,8.349742E-1,2.674684E-3,6.157965E-2,6.666666E-1,9.013972E-3,4.0821142E-2,1.1133335E-2,1.0025515E-1,7.559238E-2,3.8608843E-1,1.0172413E-1,9.689189E-1,1.3793103E-1,6.724138E-2,3.888889E-1,1.7489169E-2,6.5207863E-3,5.4137933E-1,2.965517E-1,2.6206896E-1,1.6666667E-1,8.30303E-1,9.212121E-1,5.181818E-1,8.30303E-1,5.9696063E-3,9.598422E-2,4.4444448E-1,1.6666667E-1,3.538697E-1,1.4521068E-1,2.777778E-1,2.777778E-1,9.5682657E-1,5.8854413E-1,1.5979938E-2,1.1382789E-2,2.5344828E-1,9.345995E-1,6.9796443E-1,9.5682657E-1,7.264724E-1,7.759628E-1,3.3636364E-1,6.818182E-1,-1.8958148E-2,8.3943033E-1,8.2218254E-1,5.181818E-1,8.498635E-3,3.3224588E-3,1.2048155E-3,2.8796776E-3,4.0972265E-3,9.510915E-4,3.3123144E-3,-4.856035E-3,2.3549427E-4,-8.7013666E-4,-1.4876432E-3,1.7778695E-3,1.3245375E-2,5.24834E-3,-5.5610053E-3,-4.0406233E-4,7.758049E-3,1.3645709E-2,2.4245605E-2,6.363755E-3,-3.642334E-3,-2.2128355E-3,-1.8916521E-2,-4.8859874E-3,-4.450227E-3,1.7686778E-4,1.3080347E-2,-7.394144E-3,-0E0,-4.6030264E-3,-2.3823807E-3,3.9522056E-3,3.1218466E-3,-9.157642E-3,1.4408475E-2,3.678277E-2,1.190651E-2,-7.7897697E-3,-8.2467264E-4,6.824539E-3,-3.93551E-2,1.2485931E-3,1.620066E-2,-3.420834E-3,-1.7668951E-3,-4.2376425E-2,-5.6914715E-3,2.1358739E-1,2.9621322E-2,7.481039E-3,7.4555324E-3,5.2079996E-3,1.3636688E-2,7.629474E-3,9.498014E-3,7.391662E-2,-0E0,8.5188355E-3,-7.89928E-3,2.9919306E-3,2.3145309E-2,5.8632657E-2,1.7163513E-2,5.0847577E-3,5.645372E-2,9.3586475E-2,4.6320714E-2,1.3790857E-2,5.6867814E-3,1.5915904E-2,1.33648915E-2,2.3849692E-2,1.7984994E-2,1.06858825E-2],"split_indices":[1,1,0,1,3,1,6,1,0,2,4,1,1,2,3,3,3,1,1,4,4,2,3,0,0,6,1,1,4,1,4,4,3,7,1,0,0,1,4,0,0,4,0,2,3,3,3,1,2,2,1,3,3,7,1,1,1,1,1,0,1,2,1,7,0,1,6,1,3,6,3,3,4,0,0,3,3,3,4,2,2,2,2,0,0,4,4,0,0,4,4,6,7,0,0,3,1,1,6,1,1,2,2,0,1,1,2,0,0,0,0,0,0,0,0,0,0,0,0,0,0,0,0,0,0,0,0,0,0,0,0,0,0,0,0,0,0,0,0,0,0,0,0,0,0,0,0,0,0,0,0,0,0,0,0,0,0,0,0,0,0,0,0,0,0,0,0,0,0,0,0,0,0,0,0,0,0,0,0,0,0],"split_type":[0,0,0,0,0,0,0,0,0,0,0,0,0,0,0,0,0,0,0,0,0,0,0,0,0,0,0,0,0,0,0,0,0,0,0,0,0,0,0,0,0,0,0,0,0,0,0,0,0,0,0,0,0,0,0,0,0,0,0,0,0,0,0,0,0,0,0,0,0,0,0,0,0,0,0,0,0,0,0,0,0,0,0,0,0,0,0,0,0,0,0,0,0,0,0,0,0,0,0,0,0,0,0,0,0,0,0,0,0,0,0,0,0,0,0,0,0,0,0,0,0,0,0,0,0,0,0,0,0,0,0,0,0,0,0,0,0,0,0,0,0,0,0,0,0,0,0,0,0,0,0,0,0,0,0,0,0,0,0,0,0,0,0,0,0,0,0,0,0,0,0,0,0,0,0,0,0,0,0,0,0],"sum_hessian":[7.944E3,3.77E3,4.174E3,1.584E3,2.186E3,4.4E1,4.13E3,9.01E2,6.83E2,6.4E1,2.122E3,5E0,3.9E1,8.48E2,3.282E3,1.44E2,7.57E2,3E0,6.8E2,1E1,5.4E1,1.463E3,6.59E2,2E0,3E0,1.7E1,2.2E1,7.35E2,1.13E2,6.5E1,3.217E3,7E0,1.37E2,1E1,7.47E2,1E0,2E0,2.26E2,4.54E2,2E0,8E0,5E1,4E0,8.2E2,6.43E2,1.09E2,5.5E2,3E0,1.4E1,4E0,1.8E1,7.07E2,2.8E1,8E1,3.3E1,2.5E1,4E1,1.4E1,3.203E3,3E0,4E0,6.1E1,7.6E1,7E0,3E0,6.12E2,1.35E2,1.64E2,6.2E1,1.9E2,2.64E2,1E1,4E1,1E0,3E0,6.73E2,1.47E2,4.61E2,1.82E2,7.7E1,3.2E1,1.17E2,4.33E2,1E0,2E0,4E0,1E1,1E0,3E0,8E0,1E1,9E0,6.98E2,5E0,2.3E1,6.2E1,1.8E1,2.4E1,9E0,2E0,2.3E1,1.3E1,2.7E1,1.2E1,2E0,2.163E3,1.04E3,3E0,1E0,2.4E1,3.7E1,4E0,7.2E1,6E0,1E0,1E2,5.12E2,4.3E1,9.2E1,1.9E1,1.45E2,1E0,6.1E1,1.12E2,7.8E1,5E0,2.59E2,6E0,4E0,3.6E1,4E0,4.94E2,1.79E2,7E0,1.4E2,1.79E2,2.82E2,1.11E2,7.1E1,4.9E1,2.8E1,2.3E1,9E0,1.8E1,9.9E1,3.38E2,9.5E1,3E0,1E0,5E0,5E0,4E0,4E0,5E0,5E0,3E0,6E0,4.93E2,2.05E2,1.9E1,4.3E1,1.4E1,4E0,3E0,2.1E1,2E0,7E0,1E0,1E0,1E0,2.2E1,2E0,1.1E1,8E0,1.9E1,1E0,1E0,1.662E3,5.01E2,1.94E2,8.46E2],"tree_param":{"num_deleted":"0","num_feature":"12","num_nodes":"181","size_leaf_vector":"0"}},{"base_weights":[3.5446063E-1,-1.6786885E-2,6.903418E-1,1.478957E-1,-1.3505283E-1,6.6642523E0,6.724744E-1,-1.4009702E-3,3.4149307E-1,-8.6240286E-1,-1.0185234E-1,1.5447898E1,-2.4994178E-2,1.9451336E0,6.4817643E-1,3.41618E-1,-8.25623E-3,3.0186994E0,3.3213595E-1,-1.8886331E0,-6.62766E-1,-1.0947726E-2,-1.5155184E-1,6.516184E0,4.060001E1,-5.883303E-1,4.069772E-1,4.8101482E0,1.681465E0,1.469923E0,6.251666E-1,-9.60893E-3,4.163486E-1,5.9194256E-2,-2.2142561E-2,3.7934368E0,1.4783554E0,2.9944012E-1,5.622377E-1,-5.2233756E-1,-8.7635684E-1,-3.8384702E-2,4.296971E-1,-4.336871E-1,-1.3508245E-1,1.2827166E1,-7.1989936E-1,4.6647346E-1,-1.1131378E0,6.9022913E0,2.2325315E0,1.1042772E-1,2.381025E0,7.275151E-1,2.0809193E0,3.8313022E-1,6.861997E-1,1.168294E-1,-2.3916014E-1,7.140627E-1,3.4760788E-1,1.2111097E-1,4.3035243E-2,-3.506869E-2,3.3303957E-2,1.2979606E0,2.91955E-1,6.8890756E-1,2.576004E-1,-6.591209E-1,-9.3014285E-2,-1.0013853E0,-5.443449E-1,-4.713317E-2,1.0953321E0,2.0706906E0,3.3324337E-1,-2.4127378E-1,-6.806954E-1,2.416579E-1,-1.4577264E-1,2.7001085E0,8.453046E-1,3.11313E-1,-7.446569E-1,4.7901993E0,1.4746728E0,4.6776617E-1,1.8502972E0,1.7407504E0,4.4582644E0,3.5191104E-1,4.7176194E-1,7.417657E-1,5.64696E-1,1.4914489E-1,4.460054E-2,4.2250106E-1,2.5216016E-1,3.414299E-1,1.0923238E-1,9.103686E-2,3.3978928E-2,3.998291E-2,-4.1370206E-2,7.199388E-2,-9.14428E-2,1.02163225E-1,3.1642994E-1,4.8122722E-1,9.6073735E-1,3.8473055E-1,1.7882153E-1,-6.2243235E-1,-1.4832555E0,1.704161E-1,-2.8231683E-1,-9.11856E-1,-1.6323097E0,3.2017088E-1,-9.729533E-1,-2.12724E-1,-3.0684035E-4,1.668886E0,-1.0318053E0,-1.1420741E0,4.5900986E-1,-1.29147E-2,-5.119798E-1,-5.0643516E-1,-1.0339726E0,7.613868E-1,-4.518716E-1,-9.9108076E-1,-1.4070362E-1,2.7474454E-1,6.981081E-1,1.0836984E1,4.005759E0,2.619007E-1,2.230364E0,1.2682587E0,2.6253307E-1,2.5226808E0,1.1856195E0,2.933407E0,1.331735E0,1.7495714E1,1.4763232E0,3.8118693E-1,2.7828994E-1,3.8218212E-1,7.959011E-1,6.297485E-1,1.0995533E0,8.562806E-1,5.3772205E-1],"categories":[],"categories_nodes":[],"categories_segments":[],"categories_sizes":[],"default_left":[true,true,true,true,true,true,true,true,true,true,true,true,true,true,true,true,true,true,true,false,true,true,true,true,false,true,false,true,true,true,true,true,true,true,true,false,false,true,true,true,true,true,true,true,true,false,false,false,false,false,true,true,true,true,true,true,true,true,false,false,true,true,true,true,true,false,true,true,true,true,true,true,true,true,true,false,true,true,true,true,true,false,false,true,false,true,true,true,true,true,true,true,true,true,true,false,false,false,false,false,false,false,false,false,false,false,false,false,false,false,false,false,false,false,false,false,false,false,false,false,false,false,false,false,false,false,false,false,false,false,false,false,false,false,false,false,false,false,false,false,false,false,false,false,false,false,false,false,false,false,false,false,false,false,false,false,false],"id":89,"left_children":[1,3,5,7,9,11,13,15,17,19,21,23,25,27,29,31,33,35,37,-1,39,41,43,45,-1,47,-1,49,51,53,55,57,59,61,63,-1,-1,65,67,69,71,73,75,77,79,-1,-1,-1,-1,-1,81,83,85,87,89,91,93,95,-1,-1,97,99,101,103,105,-1,107,109,111,113,115,117,119,121,123,-1,125,127,129,131,133,-1,-1,135,-1,137,139,141,143,145,147,149,151,153,155,-1,-1,-1,-1,-1,-1,-1,-1,-1,-1,-1,-1,-1,-1,-1,-1,-1,-1,-1,-1,-1,-1,-1,-1,-1,-1,-1,-1,-1,-1,-1,-1,-1,-1,-1,-1,-1,-1,-1,-1,-1,-1,-1,-1,-1,-1,-1,-1,-1,-1,-1,-1,-1,-1,-1,-1,-1,-1,-1,-1,-1,-1],"loss_changes":[9.855201E2,7.312715E1,4.412942E2,4.536415E1,5.272922E1,7.250138E2,1.274812E2,2.0803843E0,1.673603E1,1.9077492E1,9.441076E0,1.109278E3,1.8669966E0,5.562909E1,7.643762E1,4.6209455E-1,8.1416094E-1,8.3935547E-1,5.0574875E0,0E0,2.2369423E0,8.938432E0,6.2514477E0,2.0114778E2,0E0,2.0276856E0,0E0,2.8885834E1,7.8274765E1,4.9503296E1,5.825232E1,1.07813366E-1,1.9541955E-1,1.4433008E-1,5.174008E-1,0E0,0E0,4.3154564E0,3.181612E0,2.865899E0,1.096859E0,6.9087E0,6.5944204E0,3.4649801E0,5.1547375E0,0E0,0E0,0E0,0E0,0E0,1.3505154E0,3.9074326E0,1.0527762E2,1.4357639E1,4.6115173E1,2.1363602E0,2.1138062E1,4.647486E-4,0E0,0E0,4.3013573E-2,6.0519844E-2,4.8626885E-2,2.773983E-1,6.599236E-1,0E0,2.7393684E0,3.1748524E0,2.2273827E-1,7.9092026E-1,6.326861E-1,7.288933E-1,3.5716043E0,5.357547E0,7.0902977E0,0E0,7.834309E0,2.6072867E0,1.7939272E0,1.28550005E1,5.260599E0,0E0,0E0,1.8148077E-1,0E0,4.8557404E1,3.3068604E1,6.657707E0,3.121008E0,2.465332E1,2.7621875E2,1.2275772E0,5.8729286E0,8.6447266E1,7.623596E0,0E0,0E0,0E0,0E0,0E0,0E0,0E0,0E0,0E0,0E0,0E0,0E0,0E0,0E0,0E0,0E0,0E0,0E0,0E0,0E0,0E0,0E0,0E0,0E0,0E0,0E0,0E0,0E0,0E0,0E0,0E0,0E0,0E0,0E0,0E0,0E0,0E0,0E0,0E0,0E0,0E0,0E0,0E0,0E0,0E0,0E0,0E0,0E0,0E0,0E0,0E0,0E0,0E0,0E0,0E0,0E0,0E0,0E0,0E0,0E0,0E0,0E0],"parents":[2147483647,0,0,1,1,2,2,3,3,4,4,5,5,6,6,7,7,8,8,9,9,10,10,11,11,12,12,13,13,14,14,15,15,16,16,17,17,18,18,20,20,21,21,22,22,23,23,25,25,27,27,28,28,29,29,30,30,31,31,32,32,33,33,34,34,37,37,38,38,39,39,40,40,41,41,42,42,43,43,44,44,50,50,51,51,52,52,53,53,54,54,55,55,56,56,57,57,60,60,61,61,62,62,63,63,64,64,66,66,67,67,68,68,69,69,70,70,71,71,72,72,73,73,74,74,76,76,77,77,78,78,79,79,80,80,83,83,85,85,86,86,87,87,88,88,89,89,90,90,91,91,92,92,93,93,94,94],"right_children":[2,4,6,8,10,12,14,16,18,20,22,24,26,28,30,32,34,36,38,-1,40,42,44,46,-1,48,-1,50,52,54,56,58,60,62,64,-1,-1,66,68,70,72,74,76,78,80,-1,-1,-1,-1,-1,82,84,86,88,90,92,94,96,-1,-1,98,100,102,104,106,-1,108,110,112,114,116,118,120,122,124,-1,126,128,130,132,134,-1,-1,136,-1,138,140,142,144,146,148,150,152,154,156,-1,-1,-1,-1,-1,-1,-1,-1,-1,-1,-1,-1,-1,-1,-1,-1,-1,-1,-1,-1,-1,-1,-1,-1,-1,-1,-1,-1,-1,-1,-1,-1,-1,-1,-1,-1,-1,-1,-1,-1,-1,-1,-1,-1,-1,-1,-1,-1,-1,-1,-1,-1,-1,-1,-1,-1,-1,-1,-1,-1,-1,-1],"split_conditions":[6.621175E-1,6.572582E-1,2.2506302E-3,3.8253418E-1,9.6551724E-2,8.349742E-1,7.4137926E-2,7.4137926E-2,5E-1,2.2506302E-3,3.783784E-1,8.0838656E-1,8.7090075E-1,7.6935333E-1,4.6813108E-2,1.6878912E-2,8.23977E-2,3.9780295E-1,6.430696E-1,-3.7772663E-2,3.889089E-2,7.5639176E-1,2.086207E-1,7.876776E-1,8.1200016E-1,8.4844077E-1,8.139544E-3,5E-1,8.2218254E-1,8.2218254E-1,9.8790765E-1,1.8202345E-1,2.2506302E-3,2.685066E-2,3.279013E-1,7.586873E-2,2.9567108E-2,2.9708318E-2,6.4979887E-1,1.7194815E-2,1.3836876E-1,6.103448E-1,7.6764494E-1,6.621622E-1,2.3620689E-1,2.565433E-1,-1.4397987E-2,9.329469E-3,-2.2262756E-2,1.3804582E-1,7.554066E-1,8.0966675E-1,8.349742E-1,4.0862072E-1,4.0511344E-2,9.9787235E-1,8.349742E-1,1.3151047E-1,-4.7832024E-3,1.4281253E-2,5E-1,6.877926E-2,1.417897E-1,1.1451206E-1,3.757258E-1,2.5959212E-2,3.989272E-1,6.474741E-1,5.2673745E-1,5E-1,4.1769043E-1,1.3665827E-1,1.39269E-1,1.9445445E-1,6.4160967E-1,4.141381E-2,7.746669E-1,1.6379312E-1,3.810767E-1,4.3761253E-1,2.6917538E-2,5.400217E-2,1.6906092E-2,6.724138E-2,-1.4893138E-2,5E-1,5E-1,7.6206964E-1,2.4576882E-2,8.307456E-1,4.1141517E-2,5.8854413E-1,9.345995E-1,8.2218254E-1,1.6034484E-1,2.9828977E-3,8.9201075E-4,8.450021E-3,5.043203E-3,6.8285977E-3,2.1846476E-3,1.8207373E-3,6.795785E-4,7.996582E-4,-8.274041E-4,1.4398776E-3,-1.828856E-3,2.0432645E-3,6.3285986E-3,9.6245445E-3,1.9214746E-2,7.694611E-3,3.5764305E-3,-1.2448647E-2,-2.9665109E-2,3.4083219E-3,-5.6463364E-3,-1.823712E-2,-3.2646194E-2,6.4034173E-3,-1.9459065E-2,-4.25448E-3,-6.136807E-6,3.337772E-2,-2.0636106E-2,-2.2841481E-2,9.180197E-3,-2.58294E-4,-1.02395965E-2,-1.0128703E-2,-2.0679452E-2,1.5227736E-2,-9.037432E-3,-1.9821614E-2,-2.8140724E-3,5.4948907E-3,1.3962161E-2,2.1673967E-1,8.011518E-2,5.238014E-3,4.460728E-2,2.5365174E-2,5.250661E-3,5.0453614E-2,2.371239E-2,5.866814E-2,2.66347E-2,3.4991428E-1,2.9526465E-2,7.6237386E-3,5.565799E-3,7.6436424E-3,1.5918022E-2,1.259497E-2,2.1991067E-2,1.7125612E-2,1.0754441E-2],"split_indices":[1,1,5,1,3,1,3,3,0,5,11,1,1,1,5,6,1,1,1,0,5,5,3,1,0,1,0,0,1,1,6,1,5,1,1,0,0,5,1,5,5,3,5,11,3,0,0,0,0,0,1,1,1,3,5,10,1,1,0,0,0,5,5,5,1,0,1,1,5,0,11,5,5,5,5,0,5,3,5,5,5,0,0,3,0,0,0,1,5,1,5,7,1,1,3,0,0,0,0,0,0,0,0,0,0,0,0,0,0,0,0,0,0,0,0,0,0,0,0,0,0,0,0,0,0,0,0,0,0,0,0,0,0,0,0,0,0,0,0,0,0,0,0,0,0,0,0,0,0,0,0,0,0,0,0,0,0],"split_type":[0,0,0,0,0,0,0,0,0,0,0,0,0,0,0,0,0,0,0,0,0,0,0,0,0,0,0,0,0,0,0,0,0,0,0,0,0,0,0,0,0,0,0,0,0,0,0,0,0,0,0,0,0,0,0,0,0,0,0,0,0,0,0,0,0,0,0,0,0,0,0,0,0,0,0,0,0,0,0,0,0,0,0,0,0,0,0,0,0,0,0,0,0,0,0,0,0,0,0,0,0,0,0,0,0,0,0,0,0,0,0,0,0,0,0,0,0,0,0,0,0,0,0,0,0,0,0,0,0,0,0,0,0,0,0,0,0,0,0,0,0,0,0,0,0,0,0,0,0,0,0,0,0,0,0,0,0],"sum_hessian":[7.903E3,3.754E3,4.149E3,1.569E3,2.185E3,1.2E1,4.137E3,8.86E2,6.83E2,9.5E1,2.09E3,5E0,7E0,7.7E1,4.06E3,1.7E1,8.69E2,2E0,6.81E2,1.5E1,8E1,7.39E2,1.351E3,4E0,1E0,3E0,4E0,6E0,7.1E1,1.1E2,3.95E3,3E0,1.4E1,1.48E2,7.21E2,1E0,1E0,5.97E2,8.4E1,4.9E1,3.1E1,6.96E2,4.3E1,7.4E1,1.277E3,2E0,2E0,1E0,2E0,3E0,3E0,2.2E1,4.9E1,5E1,6E1,7.96E2,3.154E3,2E0,1E0,2E0,1.2E1,3E1,1.18E2,5.85E2,1.36E2,4E0,5.93E2,5.9E1,2.5E1,3.7E1,1.2E1,2.2E1,9E0,6.91E2,5E0,2E0,4.1E1,4.2E1,3.2E1,3.5E1,1.242E3,2E0,1E0,1.8E1,4E0,1.3E1,3.6E1,4.1E1,9E0,5.3E1,7E0,5.9E2,2.06E2,2.163E3,9.91E2,1E0,1E0,6E0,6E0,1E0,2.9E1,1.8E1,1E2,4.5E1,5.4E2,1.04E2,3.2E1,6.8E1,5.25E2,3.4E1,2.5E1,9E0,1.6E1,3.6E1,1E0,5E0,7E0,2E1,2E0,3E0,6E0,1.52E2,5.39E2,4E0,1E0,3E0,3.8E1,2.3E1,1.9E1,2.2E1,1E1,2E1,1.5E1,7E0,1.235E3,1.7E1,1E0,1E0,1.2E1,1.4E1,2.2E1,8E0,3.3E1,4E0,5E0,1.3E1,4E1,1E0,6E0,4.21E2,1.69E2,1.62E2,4.4E1,1.648E3,5.15E2,8.3E1,9.08E2],"tree_param":{"num_deleted":"0","num_feature":"12","num_nodes":"157","size_leaf_vector":"0"}},{"base_weights":[3.4648585E-1,1.831596E0,3.250187E-1,3.091469E0,1.3806188E0,-1.2993916E-2,3.6248532E-1,2.8183682E0,8.110481E0,7.6482904E-1,1.9162521E0,-1.145915E-1,2.3868091E-1,8.5211255E-2,4.0696466E-1,9.7439253E-1,3.1075463E0,6.054361E-1,2.4213564E0,2.600901E-1,2.077995E0,-3.3565874E-3,-1.5259166E-1,1.7382495E-1,3.9109504E-1,-7.237656E-3,2.2215095E-1,7.696079E-1,3.9287013E-1,3.7365413E0,-2.2373226E-1,4.559348E0,2.1553228E0,-4.238738E-2,8.878473E-1,3.3492715E0,1.8135291E-1,9.2648245E-2,3.8425022E-1,2.1161468E0,1.1481774E0,-4.120375E-2,3.1730846E-2,-1.7889194E-1,-1.2648365E-1,3.2606288E-3,2.1725075E-1,5.458114E-1,3.248441E-1,-3.4313384E-2,2.773141E-2,8.516506E-1,2.1486123E-1,3.938098E-1,9.9619144E-1,5.812777E-1,3.7473434E-1,4.4193685E-2,2.6664834E0,7.447122E-1,-1.4397028E-1,7.798222E-1,2.626385E0,1.4561824E0,4.3940854E0,-4.6135425E-3,-5.0341032E-2,1.1483299E-1,9.460788E-3,3.157494E-3,-1.8353523E-1,-1.0679488E-2,-1.4436546E-1,1.6084407E-1,-2.7005928E-2,2.9605612E-1,1.3579005E-1,6.2780464E-1,8.517757E-2,3.9176553E-1,1.8895918E-1,3.737801E-1,-3.5994746E-2,1.6938636E-1,1.5232787E-2,3.7241846E-1,2.085651E-1,1.15046166E-1,6.7571926E-1,1.2380916E0,6.7765003E-1,3.3809274E-1,6.8631566E-1,2.8046975E-1,4.0144634E-1,2.8919945E0,7.2290756E-2,1.0360481E-1,-1.7572571E-1,1.4690797E-1,8.0423605E-1,7.8044355E-2,-4.0508665E-2,-6.8867374E-3,-5.5392712E-2,2.0520507E-1,9.507532E-2,-1.6306691E-1,1.6804516E-2,-1.5051529E-1,5.1246554E-1,-6.588243E-1,-1.7995918E-1,-1.4884986E-1,4.748554E-1,-1.5129824E-1,-1.1510768E-1,-6.7629516E-2,-1.4454123E-3,-4.1426393E-1,3.0989665E-1,3.9648425E-2,2.1860833E-1,4.151693E-1,9.3942547E-1,-1.4163688E-1,4.7148114E-1,4.3061706E-1,1.7277078E-1,-1.3036286E-2,3.4244758E-1,1.8498095E-2,-4.414462E-2,1.0548486E-1,1.0428121E0,1.1501842E-1,7.1106157E-3,4.370192E-1,1.864232E-1,1.7689045E-1,2.3978996E-1,2.4349974E-1,-1.4464128E0,2.022622E0,5.918545E-1,5.328572E-1,1.4569999E0,4.234738E-1,1.2653238E0,-4.0000606E-2,3.9137873E-1,1.0744133E0,5.7401556E-1,3.5315773E-1,2.3703352E-1,4.3051562E-1,3.3803326E-1],"categories":[],"categories_nodes":[],"categories_segments":[],"categories_sizes":[],"default_left":[true,true,true,true,true,true,true,true,false,true,true,true,true,true,true,true,true,true,true,true,true,true,true,true,true,true,true,true,true,false,false,false,true,true,true,true,false,false,false,false,false,true,true,true,true,true,true,true,true,true,true,false,true,true,true,true,true,false,true,false,true,true,false,false,false,true,true,true,true,true,true,true,true,false,true,true,true,true,true,true,true,false,true,true,true,true,true,true,true,true,true,true,true,true,true,false,false,false,false,false,false,false,false,false,false,false,false,false,false,false,false,false,false,false,false,false,false,false,false,false,false,false,false,false,false,false,false,false,false,false,false,false,false,false,false,false,false,false,false,false,false,false,false,false,false,false,false,false,false,false,false,false,false,false,false,false,false],"id":90,"left_children":[1,3,5,7,9,11,13,15,-1,17,19,21,23,25,27,29,31,33,35,37,39,41,43,45,47,49,51,53,55,-1,-1,-1,57,59,61,63,-1,-1,-1,-1,-1,65,67,69,71,73,75,77,79,81,83,-1,85,87,89,91,93,-1,95,-1,97,99,-1,-1,-1,101,103,105,107,109,111,113,115,-1,117,119,121,123,125,127,129,-1,131,133,135,137,139,141,143,145,147,149,151,153,155,-1,-1,-1,-1,-1,-1,-1,-1,-1,-1,-1,-1,-1,-1,-1,-1,-1,-1,-1,-1,-1,-1,-1,-1,-1,-1,-1,-1,-1,-1,-1,-1,-1,-1,-1,-1,-1,-1,-1,-1,-1,-1,-1,-1,-1,-1,-1,-1,-1,-1,-1,-1,-1,-1,-1,-1,-1,-1,-1,-1,-1,-1],"loss_changes":[2.5129144E2,6.233786E1,9.8500244E1,3.2428772E1,2.6959534E1,1.9857853E1,8.632861E1,1.4040512E1,0E0,9.853527E0,1.166214E1,2.336515E0,2.1769152E0,1.226263E1,3.0720703E1,1.467007E1,3.02668E1,6.671914E0,6.6758194E0,7.1417004E-2,5.7398987E-1,1.8825628E-1,2.7122688E-1,1.1619701E0,6.083803E-1,5.479848E-1,1.7149582E0,1.9036423E1,1.9760315E1,0E0,0E0,0E0,1.6468788E1,9.33362E-1,4.0261955E0,2.3982391E0,0E0,0E0,0E0,0E0,0E0,2.1984957E-2,1.3358226E-1,1.7549133E-1,4.28689E-1,1.5757234E-1,7.850175E-1,7.022004E-1,3.9746237E-1,2.2358274E-1,4.4326055E-1,0E0,3.4905243E-1,6.6688213E0,1.0506317E1,1.2918259E1,1.3296387E1,0E0,7.1033096E0,0E0,8.834018E-2,3.2303238E-1,0E0,0E0,0E0,4.3046474E-2,1.0911554E-2,1.6589329E-2,7.2735794E-2,4.483185E-1,2.872982E-1,1.9197147E0,2.6970863E-2,0E0,2.7364092E-2,6.639676E-1,4.8974276E-1,9.328995E-1,3.190501E-1,2.3317766E-1,5.125898E-1,0E0,1.4512187E-1,1.081815E0,1.8628588E-1,1.3616204E-1,3.481636E-1,8.791901E0,4.3454E0,1.1960358E1,8.958773E0,3.1196022E0,1.5257446E1,3.6619034E0,7.550598E0,0E0,0E0,0E0,0E0,0E0,0E0,0E0,0E0,0E0,0E0,0E0,0E0,0E0,0E0,0E0,0E0,0E0,0E0,0E0,0E0,0E0,0E0,0E0,0E0,0E0,0E0,0E0,0E0,0E0,0E0,0E0,0E0,0E0,0E0,0E0,0E0,0E0,0E0,0E0,0E0,0E0,0E0,0E0,0E0,0E0,0E0,0E0,0E0,0E0,0E0,0E0,0E0,0E0,0E0,0E0,0E0,0E0,0E0,0E0,0E0,0E0,0E0],"parents":[2147483647,0,0,1,1,2,2,3,3,4,4,5,5,6,6,7,7,9,9,10,10,11,11,12,12,13,13,14,14,15,15,16,16,17,17,18,18,19,19,20,20,21,21,22,22,23,23,24,24,25,25,26,26,27,27,28,28,32,32,33,33,34,34,35,35,41,41,42,42,43,43,44,44,45,45,46,46,47,47,48,48,49,49,50,50,52,52,53,53,54,54,55,55,56,56,58,58,60,60,61,61,65,65,66,66,67,67,68,68,69,69,70,70,71,71,72,72,74,74,75,75,76,76,77,77,78,78,79,79,80,80,82,82,83,83,84,84,85,85,86,86,87,87,88,88,89,89,90,90,91,91,92,92,93,93,94,94],"right_children":[2,4,6,8,10,12,14,16,-1,18,20,22,24,26,28,30,32,34,36,38,40,42,44,46,48,50,52,54,56,-1,-1,-1,58,60,62,64,-1,-1,-1,-1,-1,66,68,70,72,74,76,78,80,82,84,-1,86,88,90,92,94,-1,96,-1,98,100,-1,-1,-1,102,104,106,108,110,112,114,116,-1,118,120,122,124,126,128,130,-1,132,134,136,138,140,142,144,146,148,150,152,154,156,-1,-1,-1,-1,-1,-1,-1,-1,-1,-1,-1,-1,-1,-1,-1,-1,-1,-1,-1,-1,-1,-1,-1,-1,-1,-1,-1,-1,-1,-1,-1,-1,-1,-1,-1,-1,-1,-1,-1,-1,-1,-1,-1,-1,-1,-1,-1,-1,-1,-1,-1,-1,-1,-1,-1,-1,-1,-1,-1,-1,-1,-1],"split_conditions":[1.7644942E-2,2.7272727E-2,5.5555556E-2,5.4282683E-1,1.6666667E-1,7.090609E-2,7.920965E-1,5.5555556E-2,1.6220962E-1,7.090609E-2,9.8790765E-1,5.719247E-1,9.5682657E-1,3.9510223E-1,1.8427517E-2,8.231776E-1,1.6666667E-1,5.5555556E-2,5.5555556E-2,5.4084355E-1,5E-1,8.513586E-2,6.0565114E-1,3.8609636E-1,2.7412677E-1,1.3484347E-1,3.438963E-2,6.818182E-1,4.2424244E-1,7.473082E-2,-4.474645E-3,9.118696E-2,2.777778E-1,7.559238E-2,5E-1,8.110852E-1,3.6270581E-3,1.8529649E-3,7.6850043E-3,4.2322934E-2,2.2963548E-2,2.7518427E-1,1.417897E-1,3.006842E-2,1.4259993E-1,2.3172489E-1,6.0565114E-1,8.2186735E-1,8.30303E-1,2.4576882E-2,1.3390663E-1,1.703301E-2,3.3636364E-1,2.777778E-1,1.6825712E-1,1.6666667E-1,1.6666667E-1,8.8387367E-4,4.4444448E-1,1.4894243E-2,5.719247E-1,1.3211198E-2,5.25277E-2,2.9123647E-2,8.788171E-2,3.6677136E-3,5.181818E-1,3.3636364E-1,1.4494058E-1,2.628736E-2,3.1418797E-2,1.11001074E-1,9.0628374E-1,3.2168813E-3,4.371624E-1,5.275477E-2,5.600468E-1,1.3125676E-1,7.7575755E-1,8.2186735E-1,3.0221128E-1,7.475602E-3,1.732085E-1,5.675189E-1,1.1244148E-1,6.818182E-1,7.5757575E-1,1.6636658E-1,3.420958E-2,1.3188693E-1,1.8914297E-1,1.2243428E-1,1.3656825E-1,4.127764E-1,6.965602E-1,5.783989E-2,1.4458151E-3,2.072096E-3,-3.5145143E-3,2.9381593E-3,1.6084721E-2,1.5608871E-3,-8.101733E-4,-1.3773475E-4,-1.1078542E-3,4.104101E-3,1.9015063E-3,-3.261338E-3,3.360903E-4,-3.0103058E-3,1.024931E-2,-1.3176486E-2,-3.5991834E-3,-2.976997E-3,9.497108E-3,-3.0259648E-3,-2.3021535E-3,-1.3525903E-3,-2.8908245E-5,-8.285278E-3,6.1979326E-3,7.929685E-4,4.3721665E-3,8.303386E-3,1.878851E-2,-2.8327375E-3,9.429622E-3,8.612341E-3,3.4554156E-3,-2.6072573E-4,6.8489513E-3,3.699619E-4,-8.8289235E-4,2.109697E-3,2.0856243E-2,2.3003684E-3,1.4221232E-4,8.740384E-3,3.7284638E-3,3.5378088E-3,4.795799E-3,4.8699947E-3,-2.8928256E-2,4.0452443E-2,1.183709E-2,1.0657144E-2,2.9139997E-2,8.469476E-3,2.5306474E-2,-8.000121E-4,7.827574E-3,2.1488266E-2,1.1480311E-2,7.0631546E-3,4.7406703E-3,8.610312E-3,6.760665E-3],"split_indices":[5,2,4,7,4,7,6,4,0,7,6,6,6,6,11,6,4,4,4,6,0,6,11,6,5,6,5,2,2,0,0,0,4,6,0,6,0,0,0,0,0,11,5,5,5,5,11,11,2,5,11,0,2,4,5,4,4,0,4,0,6,6,0,0,0,6,2,2,5,5,5,5,5,0,5,5,5,5,2,11,11,0,5,5,5,11,2,5,5,5,5,5,5,11,11,0,0,0,0,0,0,0,0,0,0,0,0,0,0,0,0,0,0,0,0,0,0,0,0,0,0,0,0,0,0,0,0,0,0,0,0,0,0,0,0,0,0,0,0,0,0,0,0,0,0,0,0,0,0,0,0,0,0,0,0,0,0],"split_type":[0,0,0,0,0,0,0,0,0,0,0,0,0,0,0,0,0,0,0,0,0,0,0,0,0,0,0,0,0,0,0,0,0,0,0,0,0,0,0,0,0,0,0,0,0,0,0,0,0,0,0,0,0,0,0,0,0,0,0,0,0,0,0,0,0,0,0,0,0,0,0,0,0,0,0,0,0,0,0,0,0,0,0,0,0,0,0,0,0,0,0,0,0,0,0,0,0,0,0,0,0,0,0,0,0,0,0,0,0,0,0,0,0,0,0,0,0,0,0,0,0,0,0,0,0,0,0,0,0,0,0,0,0,0,0,0,0,0,0,0,0,0,0,0,0,0,0,0,0,0,0,0,0,0,0,0,0],"sum_hessian":[7.889E3,1.12E2,7.777E3,2.9E1,8.3E1,7.76E2,7.001E3,2.8E1,1E0,3.9E1,4.4E1,5.53E2,2.23E2,9.68E2,6.033E3,4E0,2.4E1,3.6E1,3E0,4E0,4E1,1.41E2,4.12E2,1.57E2,6.6E1,5.78E2,3.9E2,2.25E2,5.808E3,1E0,3E0,9E0,1.5E1,1.1E1,2.5E1,2E0,1E0,2E0,2E0,3.8E1,2E0,6.8E1,7.3E1,2.04E2,2.08E2,3.2E1,1.25E2,1.9E1,4.7E1,3.26E2,2.52E2,4E0,3.86E2,8.5E1,1.4E2,5.09E2,5.299E3,3E0,1.2E1,1E0,1E1,2.4E1,1E0,1E0,1E0,1.4E1,5.4E1,1.5E1,5.8E1,5E0,1.99E2,2.8E1,1.8E2,5E0,2.7E1,6.3E1,6.2E1,1.6E1,3E0,3.1E1,1.6E1,1E0,3.25E2,2E1,2.32E2,1.4E1,3.72E2,4.3E1,4.2E1,7.9E1,6.1E1,1.54E2,3.55E2,1.171E3,4.128E3,1.1E1,1E0,1E0,9E0,1E0,2.3E1,4E0,1E1,6E0,4.8E1,2E0,1.3E1,2E0,5.6E1,4E0,1E0,1E0,1.98E2,2.2E1,6E0,1.44E2,3.6E1,1E1,1.7E1,1E0,6.2E1,2.9E1,3.3E1,1E1,6E0,2E0,1E0,2.6E1,5E0,7E0,9E0,4.2E1,2.83E2,1.9E1,1E0,1.7E1,2.15E2,1E1,4E0,1.86E2,1.86E2,4E1,3E0,2E0,4E1,1.9E1,6E1,4.3E1,1.8E1,1.9E1,1.35E2,7.9E1,2.76E2,4.37E2,7.34E2,2.829E3,1.299E3],"tree_param":{"num_deleted":"0","num_feature":"12","num_nodes":"157","size_leaf_vector":"0"}},{"base_weights":[3.3678633E-1,-1.0377213E-2,3.7504864E-1,-1.1701317E-1,2.571111E-1,-6.9097728E-3,4.1019607E-1,6.765023E-3,-1.5401396E-1,2.4471266E0,2.2382617E-1,8.015086E-2,-2.1827124E-2,1.0569377E0,3.8939494E-1,5.1909953E-1,1.3549494E-3,-2.0928535E-1,-1.440859E-1,1.016364E0,4.328181E0,3.7902857E-3,2.6346698E-1,3.25574E-1,6.077389E-2,-4.3983225E-2,7.939619E-3,1.1692586E0,4.2388657E-1,5.39629E-1,3.6615378E-1,-3.2578554E-2,3.017771E-2,-1.7707859E-1,-2.8212255E-1,-7.964919E-2,-1.5198392E-1,1.14081345E-1,-1.5819876E-2,3.8616157E-1,2.2507255E-1,4.3570897E-1,6.8403326E-2,1.9302301E-2,1.1535285E-1,-4.5880444E-2,3.8169976E-3,3.0429402E-2,-1.9921055E-2,1.0583475E0,2.8832333E0,-4.9702793E-1,4.9281254E-1,4.4806668E-1,6.800339E-1,2.7392778E-1,3.9446834E-1,3.234127E-2,-3.5280094E-2,1.0070349E-1,1.4849373E-2,-1.539039E-1,-4.563445E-1,-5.571081E-1,-1.4337718E-1,-1.43638E-1,1.004229E0,-1.5842462E-1,-1.04171135E-1,1.6181481E-1,-5.887355E-2,-5.0555725E-2,2.2810285E-3,2.8308347E-1,5.9432316E-1,8.139142E-2,2.8168073E-1,5.39367E-1,5.6921955E-2,-2.3777653E-1,3.68174E-1,2.8351936E-1,1.1251386E-2,-6.987083E-2,1.4019716E-1,-4.379331E-2,-8.973827E-2,1.236949E-1,-2.4761913E-2,1.890033E-2,4.3583047E-1,4.0077977E-3,-3.7305027E-2,9.6048915E-1,2.3412652E0,6.5946665E0,2.2484393E0,-8.167131E-1,-4.2350218E-2,5.691175E-1,-4.6531063E-1,3.065784E-1,5.734269E-1,9.428137E-1,6.119628E-1,-3.0191112E-1,2.7985513E-1,4.1963065E-1,2.823075E-1,-2.5333632E-2,-4.8800055E-2,1.3529012E-1,2.3150764E-2,-9.5534325E-2,2.1667546E-2,-1.6367278E-1,-1.1604466E-1,-2.6071203E-1,-6.738675E-1,-3.3973214E-1,-8.750674E-1,-1.3867234E-1,-1.7206495E-1,-2.3687357E-2,-8.264249E-2,1.7119339E-2,-1.0215394E-1,1.9731927E-1,4.9988964E-1,6.7248565E-1,9.015225E-2,1.7536806E-1,1.2747403E-2,3.255112E-1,1.816366E-1,5.1401593E-2,-2.2144401E-2,-1.3770379E-1,1.8344097E-3,8.195979E-2,1.7922363E-1,-5.673602E-2,-3.6134925E-2,-4.3538038E-2,-1.015043E-1,2.6902232E-1,-4.1868914E-2,-4.2643566E-2,2.886116E-2,-2.8182684E-2,3.95241E-2,-5.9822492E-2,1.20489E0,-1.8658265E-2,5.3142477E-2,-3.2243454E-1,-3.0081678E-2,2.52502E-1,1.0729454E0,7.9888363E0,1.5355451E0,1.8012648E0,4.470055E0,1.01599395E-1,7.959986E-1,3.1770253E-1,-8.816061E-1,1.5244362E0,5.083173E-1,7.961418E-1,3.0444193E0,5.341033E-1,8.8166577E-1,-4.4063544E-1,1.5404555E-1,3.0410632E-1,1.7941752E-1,4.556294E-1,3.8406214E-1,2.068601E-1,3.1651396E-1],"categories":[],"categories_nodes":[],"categories_segments":[],"categories_sizes":[],"default_left":[true,true,true,true,true,true,true,true,true,true,true,true,true,true,true,false,true,true,true,false,false,true,true,true,true,true,true,true,true,true,true,true,true,true,true,true,true,true,true,true,true,true,true,true,true,true,true,true,true,true,true,true,true,true,true,true,true,false,true,true,true,true,true,true,false,false,false,true,false,false,false,true,true,true,true,true,true,false,false,false,false,false,true,true,true,true,true,true,true,true,true,true,true,true,true,false,true,false,false,true,false,true,true,true,true,true,true,true,true,false,false,false,false,false,false,false,false,false,false,false,false,false,false,false,false,false,false,false,false,false,false,false,false,false,false,false,false,false,false,false,false,false,false,false,false,false,false,false,false,false,false,false,false,false,false,false,false,false,false,false,false,false,false,false,false,false,false,false,false,false,false,false,false,false,false,false,false,false,false,false,false],"id":91,"left_children":[1,3,5,7,9,11,13,15,17,19,21,23,25,27,29,-1,31,33,35,-1,-1,37,39,41,43,45,47,49,51,53,55,57,59,61,63,65,67,69,71,73,75,77,79,81,83,85,87,89,91,93,95,97,99,101,103,105,107,-1,109,111,113,115,117,119,-1,-1,-1,121,-1,-1,-1,123,125,127,129,131,133,-1,-1,-1,-1,-1,135,137,139,141,143,145,147,149,151,153,155,157,159,-1,161,-1,-1,163,-1,165,167,169,171,173,175,177,179,-1,-1,-1,-1,-1,-1,-1,-1,-1,-1,-1,-1,-1,-1,-1,-1,-1,-1,-1,-1,-1,-1,-1,-1,-1,-1,-1,-1,-1,-1,-1,-1,-1,-1,-1,-1,-1,-1,-1,-1,-1,-1,-1,-1,-1,-1,-1,-1,-1,-1,-1,-1,-1,-1,-1,-1,-1,-1,-1,-1,-1,-1,-1,-1,-1,-1,-1,-1,-1,-1,-1,-1],"loss_changes":[1.0571924E2,2.2551405E1,9.624048E1,2.5916147E0,1.6204828E1,7.846077E-1,8.815173E1,3.535957E-1,2.2378731E-1,7.428335E0,1.9351368E0,4.0796566E-1,3.4116024E-1,1.4341095E1,2.2129028E1,0E0,1.2678915E-1,1.300528E-1,1.8112993E-1,0E0,0E0,7.626075E-2,8.4949684E-1,1.622566E-1,1.836966E-1,2.7532041E-2,1.3840869E-1,3.1876678E1,2.0705104E0,1.0826874E1,1.4341187E1,1.0828525E-2,7.388659E-2,2.6774025E-1,7.0100105E-1,2.9025533E0,9.216833E-2,4.8676953E-2,1.9170478E-2,8.8263893E-1,1.1611166E0,1.5140712E-1,2.452279E-1,9.5418826E-2,1.668657E-1,2.2903442E-2,4.1260827E-2,5.62541E-1,4.142942E-2,1.9708588E1,1.9274849E1,3.1539088E-1,2.2343454E0,9.087036E0,5.7837677E0,4.449089E0,1.1844299E1,0E0,6.2402487E-3,2.9777437E-2,4.3539293E-2,5.702853E-3,6.993741E-2,3.2128346E-1,0E0,0E0,0E0,6.556511E-2,0E0,0E0,0E0,6.739188E-3,2.933013E-2,5.21189E-1,5.337472E-1,2.632107E-1,4.2616463E-1,0E0,0E0,0E0,0E0,0E0,6.2923044E-2,2.31002E-2,6.259072E-2,2.5084496E-2,3.1617954E-3,6.314181E-2,9.55659E-3,1.1640954E-1,1.3110446E0,4.68552E-2,1.0982067E-1,1.2019165E1,4.734476E1,0E0,6.4978523E0,0E0,0E0,2.8595161E0,0E0,3.3016224E0,1.6637375E1,2.0200504E1,5.4365005E0,8.7009585E-1,3.0983276E0,4.3359985E0,1.966507E0,0E0,0E0,0E0,0E0,0E0,0E0,0E0,0E0,0E0,0E0,0E0,0E0,0E0,0E0,0E0,0E0,0E0,0E0,0E0,0E0,0E0,0E0,0E0,0E0,0E0,0E0,0E0,0E0,0E0,0E0,0E0,0E0,0E0,0E0,0E0,0E0,0E0,0E0,0E0,0E0,0E0,0E0,0E0,0E0,0E0,0E0,0E0,0E0,0E0,0E0,0E0,0E0,0E0,0E0,0E0,0E0,0E0,0E0,0E0,0E0,0E0,0E0,0E0,0E0,0E0,0E0,0E0,0E0,0E0,0E0,0E0,0E0],"parents":[2147483647,0,0,1,1,2,2,3,3,4,4,5,5,6,6,7,7,8,8,9,9,10,10,11,11,12,12,13,13,14,14,16,16,17,17,18,18,21,21,22,22,23,23,24,24,25,25,26,26,27,27,28,28,29,29,30,30,31,31,32,32,33,33,34,34,35,35,36,36,37,37,38,38,39,39,40,40,41,41,42,42,43,43,44,44,45,45,46,46,47,47,48,48,49,49,50,50,51,51,52,52,53,53,54,54,55,55,56,56,58,58,59,59,60,60,61,61,62,62,63,63,67,67,71,71,72,72,73,73,74,74,75,75,76,76,82,82,83,83,84,84,85,85,86,86,87,87,88,88,89,89,90,90,91,91,92,92,93,93,94,94,96,96,99,99,101,101,102,102,103,103,104,104,105,105,106,106,107,107,108,108],"right_children":[2,4,6,8,10,12,14,16,18,20,22,24,26,28,30,-1,32,34,36,-1,-1,38,40,42,44,46,48,50,52,54,56,58,60,62,64,66,68,70,72,74,76,78,80,82,84,86,88,90,92,94,96,98,100,102,104,106,108,-1,110,112,114,116,118,120,-1,-1,-1,122,-1,-1,-1,124,126,128,130,132,134,-1,-1,-1,-1,-1,136,138,140,142,144,146,148,150,152,154,156,158,160,-1,162,-1,-1,164,-1,166,168,170,172,174,176,178,180,-1,-1,-1,-1,-1,-1,-1,-1,-1,-1,-1,-1,-1,-1,-1,-1,-1,-1,-1,-1,-1,-1,-1,-1,-1,-1,-1,-1,-1,-1,-1,-1,-1,-1,-1,-1,-1,-1,-1,-1,-1,-1,-1,-1,-1,-1,-1,-1,-1,-1,-1,-1,-1,-1,-1,-1,-1,-1,-1,-1,-1,-1,-1,-1,-1,-1,-1,-1,-1,-1,-1,-1],"split_conditions":[5.5555556E-2,7.090609E-2,4.2840246E-2,5.261916E-2,5E-1,1.7410874E-1,9.6551724E-2,2.2506302E-3,2.086207E-1,1.3137093E-1,2.7975213E-2,2.4576882E-2,2.4990782E-2,1.4097947E-1,1.8113072E-1,1.038199E-2,2.3846036E-2,2.0300683E-1,1.1307166E-1,2.032728E-2,8.656362E-2,2.6251352E-1,2.6206896E-1,4.0821142E-2,2.4990782E-2,8.362069E-1,4.2413792E-1,1.3809867E-1,1.7365862E-1,2.777778E-1,1.6666667E-1,1.2389015E-3,1.3530788E-1,1.7758621E-1,2.2722362E-1,1.1190133E-1,9.0556353E-1,3.4827584E-1,4.2797983E-1,1.3137093E-1,3.327586E-1,1.6666667E-1,5E-1,7.5862065E-2,7.4893616E-2,5E-1,8.827586E-1,8.794563E-1,7.656644E-1,1.3137093E-1,1.3836876E-1,8.275862E-2,2.2767374E-1,9.155563E-2,5.0054014E-2,1.9445445E-1,7.090609E-2,6.468254E-4,6.675369E-1,4.5172414E-1,1.4494058E-1,1.6546634E-1,8.993518E-2,2.1398991E-1,-2.8675436E-3,-2.87276E-3,2.0084579E-2,4.4877565E-1,-2.0834226E-3,3.2362961E-3,-1.1774709E-3,3.9234042E-1,9.2806983E-1,7.008511E-1,5.8854413E-1,3.543392E-1,5.982759E-1,1.078734E-2,1.138439E-3,-4.7555305E-3,7.3634796E-3,5.670387E-3,3.2413793E-1,1.4482759E-1,1.2389015E-3,1.6666667E-1,2.7021277E-1,8.9629096E-1,6.736668E-2,1.6666667E-1,3.7586206E-1,6.2477493E-1,2.7021277E-1,2.2506302E-3,2.2506302E-3,1.3189332E-1,1.3989916E-1,-1.6334262E-2,-8.4700435E-4,3.5106385E-1,-9.306213E-3,9.0925455E-2,9.6236944E-2,4.4472452E-2,1.552935E-1,1.166234E-1,8.362441E-1,6.101008E-1,1.3137093E-1,-5.066726E-4,-9.760011E-4,2.7058022E-3,4.6301528E-4,-1.9106865E-3,4.333509E-4,-3.2734554E-3,-2.320893E-3,-5.2142404E-3,-1.3477351E-2,-6.7946427E-3,-1.7501349E-2,-2.7734467E-3,-3.4412988E-3,-4.7374712E-4,-1.6528497E-3,3.4238677E-4,-2.043079E-3,3.9463853E-3,9.997793E-3,1.3449713E-2,1.8030449E-3,3.507361E-3,2.5494807E-4,6.5102237E-3,3.632732E-3,1.0280318E-3,-4.42888E-4,-2.7540757E-3,3.6688194E-5,1.6391958E-3,3.5844725E-3,-1.1347204E-3,-7.2269846E-4,-8.7076076E-4,-2.030086E-3,5.380446E-3,-8.3737826E-4,-8.528713E-4,5.772232E-4,-5.6365365E-4,7.90482E-4,-1.1964499E-3,2.40978E-2,-3.731653E-4,1.0628495E-3,-6.448691E-3,-6.0163357E-4,5.05004E-3,2.1458907E-2,1.5977672E-1,3.0710902E-2,3.6025293E-2,8.94011E-2,2.0319878E-3,1.591997E-2,6.3540507E-3,-1.7632121E-2,3.0488724E-2,1.0166345E-2,1.5922835E-2,6.0888384E-2,1.0682065E-2,1.7633315E-2,-8.812709E-3,3.080911E-3,6.0821264E-3,3.5883503E-3,9.112588E-3,7.6812427E-3,4.1372017E-3,6.330279E-3],"split_indices":[4,7,9,7,0,5,3,5,3,7,9,5,9,5,5,0,9,5,5,0,0,5,3,7,9,3,3,5,5,4,4,8,5,3,5,5,5,3,5,7,3,4,0,3,10,4,3,5,5,7,5,3,5,5,5,5,7,0,5,3,5,5,5,5,0,0,0,5,0,0,0,10,5,10,7,5,3,0,0,0,0,0,3,3,8,4,10,5,7,4,3,5,10,5,5,0,5,0,0,10,0,5,5,5,5,7,5,5,7,0,0,0,0,0,0,0,0,0,0,0,0,0,0,0,0,0,0,0,0,0,0,0,0,0,0,0,0,0,0,0,0,0,0,0,0,0,0,0,0,0,0,0,0,0,0,0,0,0,0,0,0,0,0,0,0,0,0,0,0,0,0,0,0,0,0,0,0,0,0,0,0],"split_type":[0,0,0,0,0,0,0,0,0,0,0,0,0,0,0,0,0,0,0,0,0,0,0,0,0,0,0,0,0,0,0,0,0,0,0,0,0,0,0,0,0,0,0,0,0,0,0,0,0,0,0,0,0,0,0,0,0,0,0,0,0,0,0,0,0,0,0,0,0,0,0,0,0,0,0,0,0,0,0,0,0,0,0,0,0,0,0,0,0,0,0,0,0,0,0,0,0,0,0,0,0,0,0,0,0,0,0,0,0,0,0,0,0,0,0,0,0,0,0,0,0,0,0,0,0,0,0,0,0,0,0,0,0,0,0,0,0,0,0,0,0,0,0,0,0,0,0,0,0,0,0,0,0,0,0,0,0,0,0,0,0,0,0,0,0,0,0,0,0,0,0,0,0,0,0,0,0,0,0,0,0],"sum_hessian":[7.958E3,7.9E2,7.168E3,5.65E2,2.25E2,6.04E2,6.564E3,1.3E2,4.35E2,3E0,2.22E2,8.8E1,5.16E2,2.04E2,6.36E3,1E0,1.29E2,6.5E1,3.7E2,2E0,1E0,3.4E1,1.88E2,6E0,8.2E1,2.96E2,2.2E2,1.73E2,3.1E1,8.51E2,5.509E3,5.9E1,7E1,4.6E1,1.9E1,4.1E1,3.29E2,5E0,2.9E1,4.4E1,1.44E2,4E0,2E0,4.7E1,3.5E1,2.85E2,1.1E1,1.22E2,9.8E1,1.63E2,1E1,2E0,2.9E1,5.16E2,3.35E2,1.295E3,4.214E3,2E0,5.7E1,1.2E1,5.8E1,4.3E1,3E0,6E0,1.3E1,3.9E1,2E0,2.89E2,4E1,4E0,1E0,1E1,1.9E1,3E1,1.4E1,4.1E1,1.03E2,3E0,1E0,1E0,1E0,1E0,4.6E1,4E0,3.1E1,2.73E2,1.2E1,2E0,9E0,1.19E2,3E0,4.1E1,5.7E1,1.52E2,1.1E1,1E0,9E0,1E0,1E0,2.7E1,2E0,2.43E2,2.73E2,6.8E1,2.67E2,1.3E1,1.282E3,3.441E3,7.73E2,3.4E1,2.3E1,8E0,4E0,3E0,5.5E1,3.3E1,1E1,2E0,1E0,4E0,2E0,1.2E2,1.69E2,6E0,4E0,1.7E1,2E0,2.2E1,8E0,1.2E1,2E0,1.7E1,2.4E1,7.1E1,3.2E1,2.1E1,2.5E1,2E0,2E0,1.3E1,1.8E1,1E2,1.73E2,3E0,9E0,1E0,1E0,7E0,2E0,3.6E1,8.3E1,2E0,1E0,2.8E1,1.3E1,1E0,5.6E1,2.1E1,1.31E2,1E0,1E1,8E0,1E0,9E0,1.8E1,2.41E2,2E0,1.7E1,2.56E2,6.4E1,4E0,2.08E2,5.9E1,1E1,3E0,1.032E3,2.5E2,1.708E3,1.733E3,2.42E2,5.31E2],"tree_param":{"num_deleted":"0","num_feature":"12","num_nodes":"181","size_leaf_vector":"0"}},{"base_weights":[3.247949E-1,-8.6797815E-4,3.5986242E-1,3.277932E-1,-6.750452E-3,9.7350407E-1,3.3979303E-1,4.1308644E-1,2.0952171E-1,-3.2106426E-2,2.456098E-2,2.1289406E0,8.109185E-1,-9.821539E-3,3.712985E-1,5.055828E-1,1.3652702E-1,9.008431E-2,2.544211E-1,1.2167629E-1,-3.5665084E-2,5.539172E-2,-1.0150314E-2,4.221093E0,1.1896834E0,3.0816663E-2,8.799966E-1,2.868328E-1,-1.4420784E-1,4.2814013E-1,3.3085757E-1,7.177081E-1,3.022363E-1,1.9105594E-1,-1.803558E-2,6.633575E-3,-4.0613618E-2,4.7410946E-2,4.6294907E-1,1.3199491E-2,-2.8132962E-2,1.3188343E0,5.7684383E0,7.869016E0,6.814496E-1,9.989418E-1,-1.2651472E-1,5.8057094E-1,1.038996E0,1.0592997E0,2.5746506E-1,-5.33976E-2,-1.5480442E-1,3.8806495E-1,5.493835E-1,2.1723172E-1,3.4770694E-1,-2.3421028E-1,5.7171166E-1,-0E0,2.2680587E-1,5.7509452E-2,-6.474147E-2,7.277045E-2,-3.002682E-2,-5.881489E-2,-3.4474116E-2,2.9695276E-2,9.583035E-2,1.0275942E0,6.8008475E-2,-3.4364185E-3,7.170635E-2,-7.358541E-2,-1.0842262E-2,3.6652548E0,-2.0439613E-1,2.631161E0,5.1752436E-1,-1.3385749E-1,-1.0758414E-2,2.626244E0,4.6410057E-1,2.214281E0,9.224851E-1,6.804876E-1,1.3278633E0,2.0995821E-1,3.426827E-1,-1.1503034E-1,9.8701453E-1,-2.1464108E-1,-1.499124E-1,5.6324124E-1,3.6579153E-1,9.763953E-1,4.91035E-1,1.341333E-1,2.2601819E-1,5.438871E-1,3.3776358E-1,3.0553907E-1,7.580667E-2,4.5662284E-2,3.3526057E-1,-4.1740134E-2,1.8224686E-2,-6.7346625E-2,-3.7806887E-2,-3.721838E-2,3.4925986E-2,1.8336784E-2,1.4515546E-1,1.5596636E-1,6.1925538E-2,-6.586148E-2,2.3523299E-2,-2.2220813E-2,8.7420814E-2,-1.4657562E-2,-1.3948844E-1,-1.9902756E-2,2.3921276E-2,-7.5405383E-1,9.1892266E-1,-1.6329032E-1,-1.079522E-1,4.853134E0,9.7225493E-1,5.95151E-1,-3.7574422E-1,2.9497423E0,1.7773389E0,-1.2323872E0,9.467493E-1,3.8547784E-1,1.7419477E-1,2.7661952E-1,4.185448E-1,2.1008138E-2,-1.354612E-1,-1.4161377E-1,-3.33241E-1,-1.4022274E-1,-1.7461035E-1,5.735695E-2,6.2203485E-1,2.613409E-1,4.055228E-1,1.4095367E0,6.599663E-1,4.1759214E-1,6.00847E-1,2.4299824E-1,-6.990891E-2,2.0532207E-1,3.4621117E-1,1.9749963E-1,6.6543436E-1,7.457071E-1,3.340186E-1],"categories":[],"categories_nodes":[],"categories_segments":[],"categories_sizes":[],"default_left":[true,true,true,true,true,true,true,true,true,true,true,true,true,true,true,true,false,false,false,true,true,true,true,true,true,true,true,true,true,true,true,false,true,true,true,true,true,true,true,true,true,true,false,false,true,false,true,true,true,true,true,true,true,true,true,true,true,false,false,false,true,false,false,true,true,true,true,true,true,false,false,true,true,true,true,false,false,false,true,true,false,true,true,true,true,false,false,true,true,true,false,true,true,true,true,true,true,true,true,true,true,false,false,false,false,false,false,false,false,false,false,false,false,false,false,false,false,false,false,false,false,false,false,false,false,false,false,false,false,false,false,false,false,false,false,false,false,false,false,false,false,false,false,false,false,false,false,false,false,false,false,false,false,false,false,false,false,false,false,false,false],"id":92,"left_children":[1,3,5,7,9,11,13,15,17,19,21,23,25,27,29,31,-1,-1,-1,33,35,37,39,41,43,45,47,49,51,53,55,-1,57,59,61,63,65,67,69,71,73,75,-1,-1,77,-1,79,81,83,85,87,89,91,93,95,97,99,-1,-1,-1,101,-1,-1,103,105,107,109,111,113,-1,-1,115,117,119,121,-1,-1,-1,123,125,-1,127,129,131,133,-1,-1,135,137,139,-1,141,143,145,147,149,151,153,155,157,159,-1,-1,-1,-1,-1,-1,-1,-1,-1,-1,-1,-1,-1,-1,-1,-1,-1,-1,-1,-1,-1,-1,-1,-1,-1,-1,-1,-1,-1,-1,-1,-1,-1,-1,-1,-1,-1,-1,-1,-1,-1,-1,-1,-1,-1,-1,-1,-1,-1,-1,-1,-1,-1,-1,-1,-1,-1,-1,-1,-1],"loss_changes":[8.9292114E1,1.4661423E0,8.679724E1,9.67617E-2,5.937025E-1,4.133719E1,7.529596E1,1.5541852E-1,2.1407276E-2,2.2642112E-1,3.586281E-1,5.196039E1,1.0557968E1,2.2549501E1,1.4355713E1,1.4317477E-1,0E0,0E0,0E0,9.4087884E-2,8.520818E-2,5.622E-1,6.6399805E-2,3.4785904E1,6.3720467E1,2.5424454E0,8.361145E0,3.890503E0,3.6892128E-1,1.2574463E1,6.984131E0,0E0,5.3135E-1,4.3171838E-2,1.31065715E-2,1.0398025E-1,3.8482785E-2,1.4680064E-1,7.04436E-1,6.7565955E-2,6.873725E-2,1.221348E1,0E0,0E0,5.360504E0,0E0,9.640008E-3,1.4639322E1,1.5340981E1,3.1436682E-1,6.577053E-1,2.675868E0,8.6034775E-2,7.5629272E0,1.5922928E1,3.310833E-1,6.1514587E0,0E0,0E0,0E0,5.024442E-2,0E0,0E0,9.856868E-2,1.603757E-2,1.3841897E-2,5.233264E-2,1.6508372E-1,8.814052E-2,0E0,0E0,9.087877E-2,2.4210244E-2,9.1619074E-2,2.0679843E-2,0E0,0E0,0E0,9.0805855E0,4.1902065E-4,0E0,1.0621443E1,6.7181234E0,1.5049858E0,5.9970856E0,0E0,0E0,6.6220856E-1,2.5384808E-1,1.1190432E-1,0E0,1.969037E-1,6.4723015E-2,6.5317383E0,7.173294E0,1.0259476E1,4.4934235E0,1.0373414E0,1.0339203E0,6.399578E0,4.543335E0,0E0,0E0,0E0,0E0,0E0,0E0,0E0,0E0,0E0,0E0,0E0,0E0,0E0,0E0,0E0,0E0,0E0,0E0,0E0,0E0,0E0,0E0,0E0,0E0,0E0,0E0,0E0,0E0,0E0,0E0,0E0,0E0,0E0,0E0,0E0,0E0,0E0,0E0,0E0,0E0,0E0,0E0,0E0,0E0,0E0,0E0,0E0,0E0,0E0,0E0,0E0,0E0,0E0,0E0,0E0,0E0,0E0,0E0,0E0,0E0],"parents":[2147483647,0,0,1,1,2,2,3,3,4,4,5,5,6,6,7,7,8,8,9,9,10,10,11,11,12,12,13,13,14,14,15,15,19,19,20,20,21,21,22,22,23,23,24,24,25,25,26,26,27,27,28,28,29,29,30,30,32,32,33,33,34,34,35,35,36,36,37,37,38,38,39,39,40,40,41,41,44,44,46,46,47,47,48,48,49,49,50,50,51,51,52,52,53,53,54,54,55,55,56,56,60,60,63,63,64,64,65,65,66,66,67,67,68,68,71,71,72,72,73,73,74,74,78,78,79,79,81,81,82,82,83,83,84,84,87,87,88,88,89,89,91,91,92,92,93,93,94,94,95,95,96,96,97,97,98,98,99,99,100,100],"right_children":[2,4,6,8,10,12,14,16,18,20,22,24,26,28,30,32,-1,-1,-1,34,36,38,40,42,44,46,48,50,52,54,56,-1,58,60,62,64,66,68,70,72,74,76,-1,-1,78,-1,80,82,84,86,88,90,92,94,96,98,100,-1,-1,-1,102,-1,-1,104,106,108,110,112,114,-1,-1,116,118,120,122,-1,-1,-1,124,126,-1,128,130,132,134,-1,-1,136,138,140,-1,142,144,146,148,150,152,154,156,158,160,-1,-1,-1,-1,-1,-1,-1,-1,-1,-1,-1,-1,-1,-1,-1,-1,-1,-1,-1,-1,-1,-1,-1,-1,-1,-1,-1,-1,-1,-1,-1,-1,-1,-1,-1,-1,-1,-1,-1,-1,-1,-1,-1,-1,-1,-1,-1,-1,-1,-1,-1,-1,-1,-1,-1,-1,-1,-1,-1,-1],"split_conditions":[3.9510223E-1,7.4137926E-2,9.6551724E-2,1.6666667E-1,1.3484347E-1,2.7272727E-2,5.5555556E-2,1.8181819E-1,5.272727E-1,4.7443286E-2,5.9479654E-1,1.6666667E-1,5.5555556E-2,9.8790765E-1,4.6263954E-1,5.5555556E-2,2.7305402E-3,1.8016861E-3,5.0884215E-3,4.1206896E-1,1.4692114E-1,5.788621E-1,7.523407E-1,5.5555556E-2,9.5682657E-1,8.231776E-1,1.8181819E-1,1.8427517E-2,1.1307166E-1,8.30303E-1,9.5682657E-1,1.4354162E-2,1.6878912E-2,7.739557E-2,3.6677136E-3,2.9655173E-1,3.6677136E-3,8.30303E-1,3.3103448E-1,8.30303E-1,6.666666E-1,8.231776E-1,1.1536876E-1,1.5738031E-1,9.8790765E-1,1.9978834E-2,1.8509182E-1,9.8790765E-1,2.1065898E-2,8.110852E-1,9.5682657E-1,1.09200574E-1,1.6034484E-1,6.832913E-2,7.125307E-2,1.4619164E-1,2.6206896E-1,-4.6842056E-3,1.1434233E-2,-0E0,4.4562478E-2,1.150189E-3,-1.2948294E-3,8.30303E-1,6.2068963E-1,8.30303E-1,8.4482753E-1,9.533169E-1,2.7196616E-1,2.0551885E-2,1.3601695E-3,4.95086E-1,2.862069E-1,6.242424E-1,7.224138E-1,7.330509E-2,-4.0879226E-3,5.262322E-2,2.777778E-1,1.8181819E-1,-2.1516827E-4,1.6666667E-1,3.888889E-1,4.4444448E-1,2.1876127E-2,1.3609751E-2,2.6557267E-2,5.181818E-1,6.4496315E-1,3.3849478E-2,1.9740291E-2,2.1398991E-1,8.30303E-1,2.367663E-2,2.689655E-1,1.735686E-1,2.777778E-1,9.212121E-1,9.212121E-1,7.5757575E-1,3.3636364E-1,6.1107813E-3,1.5161333E-3,9.1324566E-4,6.7052115E-3,-8.348027E-4,3.6449372E-4,-1.3469325E-3,-7.561377E-4,-7.443676E-4,6.985197E-4,3.6673568E-4,2.9031092E-3,3.1193271E-3,1.2385107E-3,-1.3172296E-3,4.7046598E-4,-4.4441625E-4,1.7484162E-3,-2.931512E-4,-2.7897689E-3,-3.9805513E-4,4.784255E-4,-1.5081076E-2,1.8378453E-2,-3.2658065E-3,-2.159044E-3,9.7062685E-2,1.9445099E-2,1.190302E-2,-7.514884E-3,5.8994845E-2,3.5546776E-2,-2.4647743E-2,1.8934986E-2,7.7095567E-3,3.4838952E-3,5.5323904E-3,8.370896E-3,4.2016275E-4,-2.709224E-3,-2.8322753E-3,-6.6648195E-3,-2.8044549E-3,-3.4922068E-3,1.147139E-3,1.2440696E-2,5.2268174E-3,8.110455E-3,2.8190734E-2,1.3199326E-2,8.351843E-3,1.201694E-2,4.859965E-3,-1.3981782E-3,4.1064415E-3,6.924223E-3,3.9499924E-3,1.3308687E-2,1.4914142E-2,6.6803717E-3],"split_indices":[6,3,3,4,6,2,4,2,2,5,5,4,4,6,5,4,0,0,0,3,5,5,5,4,6,6,2,11,5,2,6,0,6,11,6,3,6,2,3,2,2,6,0,0,6,0,5,6,5,6,6,5,3,5,11,11,3,0,0,0,5,0,0,2,3,2,3,11,5,0,0,11,3,2,3,0,0,0,4,2,0,4,4,4,5,0,0,2,11,5,0,5,2,5,3,5,4,2,2,2,2,0,0,0,0,0,0,0,0,0,0,0,0,0,0,0,0,0,0,0,0,0,0,0,0,0,0,0,0,0,0,0,0,0,0,0,0,0,0,0,0,0,0,0,0,0,0,0,0,0,0,0,0,0,0,0,0,0,0,0,0],"split_type":[0,0,0,0,0,0,0,0,0,0,0,0,0,0,0,0,0,0,0,0,0,0,0,0,0,0,0,0,0,0,0,0,0,0,0,0,0,0,0,0,0,0,0,0,0,0,0,0,0,0,0,0,0,0,0,0,0,0,0,0,0,0,0,0,0,0,0,0,0,0,0,0,0,0,0,0,0,0,0,0,0,0,0,0,0,0,0,0,0,0,0,0,0,0,0,0,0,0,0,0,0,0,0,0,0,0,0,0,0,0,0,0,0,0,0,0,0,0,0,0,0,0,0,0,0,0,0,0,0,0,0,0,0,0,0,0,0,0,0,0,0,0,0,0,0,0,0,0,0,0,0,0,0,0,0,0,0,0,0,0,0],"sum_hessian":[7.818E3,7.6E2,7.058E3,1.3E1,7.47E2,2.23E2,6.835E3,7E0,6E0,4.13E2,3.34E2,2.7E1,1.96E2,5.65E2,6.27E3,5E0,2E0,2E0,4E0,9E0,4.04E2,1.77E2,1.57E2,8E0,1.9E1,1.6E1,1.8E2,1.76E2,3.89E2,2.605E3,3.665E3,2E0,3E0,6E0,3E0,4.2E1,3.62E2,1.74E2,3E0,6.8E1,8.9E1,3E0,5E0,1E0,1.8E1,2E0,1.4E1,6.3E1,1.17E2,6E0,1.7E2,4.1E1,3.48E2,1.959E3,6.46E2,4.74E2,3.191E3,1E0,2E0,1E0,5E0,1E0,2E0,1.5E1,2.7E1,9E1,2.72E2,1.28E2,4.6E1,1E0,2E0,5.3E1,1.5E1,2.4E1,6.5E1,1E0,2E0,1E0,1.7E1,1.3E1,1E0,3E0,6E1,1E1,1.07E2,3E0,3E0,1.1E2,6E1,3.9E1,2E0,2.5E1,3.23E2,2.2E2,1.739E3,7.7E1,5.69E2,4.6E1,4.28E2,1.53E2,3.038E3,3E0,2E0,1.4E1,1E0,2.2E1,5E0,6.3E1,2.7E1,2.62E2,1E1,1.17E2,1.1E1,1.6E1,3E1,1.6E1,3.7E1,2E0,1.3E1,1.3E1,1.1E1,5.2E1,1.3E1,4E0,1.3E1,5E0,8E0,1E0,2E0,5.2E1,8E0,3E0,7E0,1E0,1.06E2,1.8E1,9.2E1,3.3E1,2.7E1,5E0,3.4E1,1.6E1,9E0,2.34E2,8.9E1,2.3E1,1.97E2,4.8E2,1.259E3,3.2E1,4.5E1,3.42E2,2.27E2,3E1,1.6E1,3.66E2,6.2E1,4E1,1.13E2,2.7E1,3.011E3],"tree_param":{"num_deleted":"0","num_feature":"12","num_nodes":"161","size_leaf_vector":"0"}},{"base_weights":[3.3855644E-1,-1.3678387E-2,6.5462655E-1,1.4524996E-1,-1.2864192E-1,7.619416E0,6.255108E-1,1.0487672E-2,3.5126883E-1,-1.0353309E0,-9.783556E-2,1.2268512E1,3.1946719E0,1.9557115E0,5.995614E-1,2.3552635E0,4.6993815E-3,8.530853E-1,3.3665833E-1,-2.0574806E0,-7.73521E-1,-3.4099147E-1,-8.16041E-2,4.2234006E0,3.2345043E1,-1.2218379E0,6.586037E0,4.5070868E0,1.6878289E0,3.387706E-1,6.6632086E-1,5.005494E-1,3.6102817E0,1.0636827E-2,-4.8523605E-1,1.2350368E0,6.132803E-1,2.781199E-1,4.466057E-1,-2.8751203E-1,-5.970696E-1,-1.3925172E-1,-4.9008954E-2,1.231117E1,-4.5338103E-1,4.6633685E-1,-1.7791994E0,5.9821877E0,2.1343184E0,1.5892316E-1,2.3547542E0,3.1121665E-1,5.177584E-1,8.751255E-1,6.272633E-1,-2.8461255E-3,1.823228E-1,1.7722036E0,5.7004124E-1,9.8841804E-1,4.3696883E-1,3.0816558E-1,5.9991978E-2,1.1185317E0,4.2826858E-1,-3.625997E-1,2.611124E-1,-1.0741987E0,-5.318207E-1,-3.905042E-1,-7.633194E-2,2.0508501E-1,-9.1460675E-2,2.591698E0,-1.6304125E0,2.59685E0,7.804813E-1,2.3050216E-1,-2.6783994E-1,5.176965E0,1.3253996E0,2.9687142E-1,5.5061644E-1,3.662197E-1,1.0477257E0,6.733128E-1,1.0695323E0,6.8150204E-1,5.0903887E-1,5.893397E-2,-2.6596125E-2,5.2010846E-1,-4.2177837E-2,-3.0836076E-1,5.545698E-1,2.845853E-1,7.0256776E-1,2.6576325E-1,2.2654504E-2,4.8746184E-1,1.8540841E0,4.665453E-1,2.0310478E-1,-2.7375463E-1,-8.635073E-1,6.002517E-1,-1.4307001E-1,-7.058116E-1,-3.3928704E-1,-3.118859E-1,-7.6688665E-1,1.9074634E-1,-1.6777942E-1,1.16179556E-1,5.330377E-1,-5.1149654E-1,-5.945979E-2,1.6764137E-1,6.583906E-1,-5.5557334E-1,2.9195502E-1,5.341243E0,2.3522007E0,-4.5315364E-1,1.8961859E0,3.1032366E-1,-8.630239E-2,7.470079E-1,5.086248E-1,8.844836E-1,3.2366213E-1,3.6033714E0,4.851819E-1,1.2555227E0,4.762572E-1,1.9522141E0,7.523498E-1,5.9588015E-1,9.6384025E-1,8.580677E-1,4.8624247E-1],"categories":[],"categories_nodes":[],"categories_segments":[],"categories_sizes":[],"default_left":[true,true,true,true,true,true,true,true,true,true,true,true,true,true,true,true,true,true,true,false,false,true,true,true,false,true,false,true,true,true,true,false,false,true,false,true,true,true,true,true,true,true,true,false,true,false,false,false,true,true,true,true,true,true,true,true,true,false,false,false,true,true,true,true,true,true,true,false,true,true,true,true,true,false,false,false,false,true,true,true,true,true,true,true,true,true,true,true,true,false,false,false,false,false,false,false,false,false,false,false,false,false,false,false,false,false,false,false,false,false,false,false,false,false,false,false,false,false,false,false,false,false,false,false,false,false,false,false,false,false,false,false,false,false,false,false,false,false,false,false,false],"id":93,"left_children":[1,3,5,7,9,11,13,15,17,19,21,23,25,27,29,31,33,35,37,-1,-1,39,41,43,-1,45,-1,47,49,51,53,-1,-1,55,-1,57,59,61,63,65,67,69,71,-1,73,-1,-1,-1,75,77,79,81,83,85,87,89,91,-1,-1,-1,93,95,97,99,101,103,105,-1,107,109,111,113,115,-1,-1,-1,-1,117,119,121,123,125,127,129,131,133,135,137,139,-1,-1,-1,-1,-1,-1,-1,-1,-1,-1,-1,-1,-1,-1,-1,-1,-1,-1,-1,-1,-1,-1,-1,-1,-1,-1,-1,-1,-1,-1,-1,-1,-1,-1,-1,-1,-1,-1,-1,-1,-1,-1,-1,-1,-1,-1,-1,-1,-1,-1,-1,-1],"loss_changes":[8.8112195E2,6.8400314E1,8.4417725E2,4.3619446E1,6.0627213E1,3.4327728E2,1.4297107E2,1.2860804E1,4.442749E0,1.8518372E1,8.278185E0,1.2999292E3,1.425567E2,5.1596863E1,7.086304E1,4.77036E0,2.7536201E0,1.3086967E0,3.837822E0,0E0,0E0,1.7287378E0,3.697359E0,2.4159233E2,0E0,4.3728766E0,0E0,2.1294174E1,7.359532E1,4.0344315E0,2.6254395E1,0E0,0E0,2.1725042E0,0E0,1.892108E0,5.8524704E-1,2.5795193E0,2.3974304E0,4.5370054E0,4.81874E-1,1.1228695E1,1.358872E1,0E0,1.6927212E1,0E0,0E0,0E0,1.3633432E0,7.022819E-1,1.4384067E2,2.410637E0,8.712822E0,1.9757263E1,1.7400879E1,1.2756146E0,5.1960716E0,0E0,0E0,0E0,7.9097915E-1,3.1494865E0,3.6522332E-1,2.1409268E0,1.7199097E0,4.192095E0,1.8628333E0,0E0,5.863886E-1,4.116579E0,1.3915537E1,5.2280326E0,1.4489597E1,0E0,0E0,0E0,0E0,4.7143102E-1,5.9477824E-1,1.88797E0,3.8207085E1,3.524086E0,1.8801022E-1,1.7914772E0,3.4342003E1,2.8610825E1,7.2077576E1,4.5072815E1,6.694977E0,0E0,0E0,0E0,0E0,0E0,0E0,0E0,0E0,0E0,0E0,0E0,0E0,0E0,0E0,0E0,0E0,0E0,0E0,0E0,0E0,0E0,0E0,0E0,0E0,0E0,0E0,0E0,0E0,0E0,0E0,0E0,0E0,0E0,0E0,0E0,0E0,0E0,0E0,0E0,0E0,0E0,0E0,0E0,0E0,0E0,0E0,0E0,0E0,0E0,0E0,0E0,0E0],"parents":[2147483647,0,0,1,1,2,2,3,3,4,4,5,5,6,6,7,7,8,8,9,9,10,10,11,11,12,12,13,13,14,14,15,15,16,16,17,17,18,18,21,21,22,22,23,23,25,25,27,27,28,28,29,29,30,30,33,33,35,35,36,36,37,37,38,38,39,39,40,40,41,41,42,42,44,44,48,48,49,49,50,50,51,51,52,52,53,53,54,54,55,55,56,56,60,60,61,61,62,62,63,63,64,64,65,65,66,66,68,68,69,69,70,70,71,71,72,72,77,77,78,78,79,79,80,80,81,81,82,82,83,83,84,84,85,85,86,86,87,87,88,88],"right_children":[2,4,6,8,10,12,14,16,18,20,22,24,26,28,30,32,34,36,38,-1,-1,40,42,44,-1,46,-1,48,50,52,54,-1,-1,56,-1,58,60,62,64,66,68,70,72,-1,74,-1,-1,-1,76,78,80,82,84,86,88,90,92,-1,-1,-1,94,96,98,100,102,104,106,-1,108,110,112,114,116,-1,-1,-1,-1,118,120,122,124,126,128,130,132,134,136,138,140,-1,-1,-1,-1,-1,-1,-1,-1,-1,-1,-1,-1,-1,-1,-1,-1,-1,-1,-1,-1,-1,-1,-1,-1,-1,-1,-1,-1,-1,-1,-1,-1,-1,-1,-1,-1,-1,-1,-1,-1,-1,-1,-1,-1,-1,-1,-1,-1,-1,-1,-1,-1],"split_conditions":[6.621175E-1,6.572582E-1,2.7272727E-2,3.989272E-1,7.4137926E-2,8.349742E-1,7.4137926E-2,2.7272727E-2,1.2931034E-1,2.7272727E-2,1.5E-1,8.2218254E-1,8.7090075E-1,7.6935333E-1,9.8790765E-1,2.083415E-1,3.9342475E-1,6.969697E-1,6.341465E-1,-4.114961E-2,-1.547042E-2,6.621622E-1,6.242424E-1,7.876776E-1,6.4690083E-1,8.4844077E-1,1.3172074E-1,5E-1,8.2218254E-1,9.212121E-1,2.5344828E-1,1.00109875E-2,7.220563E-2,3.8253418E-1,-9.704721E-3,5.4282683E-1,1.4004913E-1,6.324857E-1,3.3636364E-1,6.4496315E-1,3.3636364E-1,2.9482758E-1,2.6206896E-1,2.4622339E-1,9.8790765E-1,9.326736E-3,-3.5583988E-2,1.19643755E-1,7.554066E-1,8.106056E-1,8.349742E-1,9.859468E-1,9.345995E-1,8.2218254E-1,8.349742E-1,1.0025515E-1,3.8608843E-1,3.544407E-2,1.1400824E-2,1.9768361E-2,1.4619164E-1,9.689189E-1,2.7931035E-1,6.433126E-1,6.4979887E-1,3.4520882E-1,3.3636364E-1,-2.1483975E-2,1.15517244E-1,5.4848486E-1,3.7931034E-1,2.5344828E-1,1.3882065E-1,5.1833957E-2,-3.260825E-2,5.1937E-2,1.5609625E-2,6.724138E-2,5E-1,6.724138E-2,8.571358E-1,9.699887E-1,2.741379E-1,7.125307E-2,9.532107E-1,7.6706135E-1,8.349742E-1,8.2218254E-1,4.2424244E-1,1.1786794E-3,-5.319225E-4,1.0402169E-2,-8.435567E-4,-6.167215E-3,1.1091395E-2,5.6917057E-3,1.40513545E-2,5.315265E-3,4.5309006E-4,9.7492365E-3,3.708168E-2,9.330906E-3,4.0620957E-3,-5.475092E-3,-1.7270146E-2,1.2005033E-2,-2.8614001E-3,-1.4116232E-2,-6.7857406E-3,-6.237718E-3,-1.5337733E-2,3.8149266E-3,-3.3555883E-3,2.3235912E-3,1.06607545E-2,-1.022993E-2,-1.1891958E-3,3.3528274E-3,1.3167812E-2,-1.1111466E-2,5.8391006E-3,1.0682485E-1,4.7044013E-2,-9.0630725E-3,3.7923716E-2,6.206473E-3,-1.7260478E-3,1.49401575E-2,1.0172496E-2,1.7689671E-2,6.4732423E-3,7.2067425E-2,9.703638E-3,2.5110453E-2,9.525144E-3,3.9044283E-2,1.5046995E-2,1.1917603E-2,1.9276805E-2,1.7161353E-2,9.724849E-3],"split_indices":[1,1,2,1,3,1,3,2,3,2,3,1,1,1,6,1,1,2,1,0,0,11,2,1,0,1,0,0,1,2,3,0,0,1,0,7,11,1,2,11,2,3,3,0,6,0,0,0,1,1,1,1,1,1,1,1,1,0,0,0,11,6,3,1,1,11,2,0,3,2,3,3,11,0,0,0,0,3,0,3,1,1,3,11,1,1,1,1,2,0,0,0,0,0,0,0,0,0,0,0,0,0,0,0,0,0,0,0,0,0,0,0,0,0,0,0,0,0,0,0,0,0,0,0,0,0,0,0,0,0,0,0,0,0,0,0,0,0,0,0,0],"split_type":[0,0,0,0,0,0,0,0,0,0,0,0,0,0,0,0,0,0,0,0,0,0,0,0,0,0,0,0,0,0,0,0,0,0,0,0,0,0,0,0,0,0,0,0,0,0,0,0,0,0,0,0,0,0,0,0,0,0,0,0,0,0,0,0,0,0,0,0,0,0,0,0,0,0,0,0,0,0,0,0,0,0,0,0,0,0,0,0,0,0,0,0,0,0,0,0,0,0,0,0,0,0,0,0,0,0,0,0,0,0,0,0,0,0,0,0,0,0,0,0,0,0,0,0,0,0,0,0,0,0,0,0,0,0,0,0,0,0,0,0,0],"sum_hessian":[7.914E3,3.743E3,4.171E3,1.571E3,2.172E3,1.7E1,4.154E3,9.5E2,6.21E2,7.1E1,2.101E3,8E0,9E0,7.9E1,4.075E3,2E0,9.48E2,1.7E1,6.04E2,1.4E1,5.7E1,1.31E2,1.97E3,6E0,2E0,4E0,5E0,7E0,7.2E1,8.31E2,3.244E3,1E0,1E0,9.37E2,1.1E1,6E0,1.1E1,3.95E2,2.09E2,1.09E2,2.2E1,7.11E2,1.259E3,2E0,4E0,1E0,3E0,4E0,3E0,2.2E1,5E1,7.21E2,1.1E2,5.1E2,2.734E3,8.69E2,6.8E1,3E0,3E0,3E0,8E0,3.47E2,4.8E1,5E0,2.04E2,9.6E1,1.3E1,2E0,2E1,1.42E2,5.69E2,1.8E2,1.079E3,1E0,3E0,2E0,1E0,1.9E1,3E0,1.3E1,3.7E1,6.81E2,4E1,8.6E1,2.4E1,2.51E2,2.59E2,1.873E3,8.61E2,2.41E2,6.28E2,2.7E1,4.1E1,1E0,7E0,3.28E2,1.9E1,7E0,4.1E1,3E0,2E0,1.74E2,3E1,8.2E1,1.4E1,7E0,6E0,1E1,1E1,1.18E2,2.4E1,1.45E2,4.24E2,1.42E2,3.8E1,7.6E1,1.003E3,1.7E1,2E0,2E0,1E0,1.2E1,1E0,9E0,2.8E1,6.58E2,2.3E1,6E0,3.4E1,6E0,8E1,4E0,2E1,6.3E1,1.88E2,6.8E1,1.91E2,1.438E3,4.35E2,5.2E1,8.09E2],"tree_param":{"num_deleted":"0","num_feature":"12","num_nodes":"141","size_leaf_vector":"0"}},{"base_weights":[3.3100954E-1,1.2642441E0,3.0890647E-1,1.7149934E-1,1.4363313E0,-7.5280597E-3,3.4428862E-1,1.0907562E0,-1.3186125E-1,5.7061796E0,1.3970075E0,1.5455063E-1,-1.4973293E-1,-4.0376503E-3,3.7639722E-1,3.556133E0,4.034908E-1,1.0921251E-2,-1.4062601E-1,2.253667E0,1.2215842E0,1.1894518E-3,2.7863935E-1,-6.8942346E-2,-1.589632E-1,6.3737646E-2,-1.52398925E-2,7.6527303E-1,3.6596438E-1,7.2355694E-1,2.7066064E-1,-1.5974513E-1,-9.3738005E-2,7.5281935E0,5.7309514E-1,5.870569E-1,1.432391E0,-2.980891E-2,3.6836486E-2,4.3359205E-1,2.2220333E-1,-1.274474E-1,9.711145E-1,-1.4515826E-1,-1.929078E-1,3.9862778E-2,1.3635483E-1,-3.3664722E-2,9.964834E-3,4.6833658E-1,1.0966763E0,4.1052377E-1,3.0809057E-1,-1.6767299E-1,-4.1718837E-2,-1.0603775E-1,-1.0404097E-2,5.788753E0,-1.0039634E-1,4.9729928E-1,2.6059558E0,1.6270175E0,7.8294563E-1,4.57884E-2,-3.3791974E-2,1.3579633E-2,8.291415E-2,3.342759E-1,6.9504964E-1,2.679681E-1,1.4981858E-1,3.8781088E-2,-1.45986E-1,-2.3483418E-1,-1.363016E-1,-4.49103E-1,-1.8388253E-1,2.970369E-1,2.962912E-2,2.2825503E-1,8.132924E-2,-4.9185537E-2,-2.3994818E-2,2.8784814E-1,1.3914315E-3,3.1521302E-1,1.4981302E0,2.5403438E0,7.96232E-1,4.0776473E-1,2.1949928E0,2.1262795E-1,3.3486235E-1,2.5528264E0,7.5663443E0,-3.3521155E-1,-2.6073217E-2,2.4913802E0,4.0668854E-1,1.5228256E0,3.7208505E0,6.597302E-1,1.7914252E0,-4.4925963E-3,6.5600544E-2,-1.1413157E-1,-3.0140413E-2,9.683253E-2,-2.206086E-3,1.6167857E-1,6.4950034E-2,2.4224778E-1,5.0660044E-1,7.5941455E-1,2.4941054E-1,3.8224018E-1,1.964834E-1,2.1460896E-2,2.065709E-1,-1.4281785E-1,4.9374887E-1,-2.0267664E-1,-1.3672763E-1,-3.7731656E-1,-1.3559584E-1,-1.4242041E-1,-1.0196837E-1,-8.5157263E-1,-1.4881694E-1,-1.4969394E-1,-2.537528E-1,-1.5662676E-2,6.581438E-2,3.294951E-1,6.953114E-2,9.210391E-3,1.583007E-1,-1.2929896E-2,-5.2580077E-2,-3.129306E-2,3.696094E-2,8.6299665E-2,1.0112981E0,-3.927793E-2,2.5134303E-2,-1.272907E-1,5.154025E-1,6.2151794E0,8.396971E-1,1.137252E0,6.6313977E0,6.5345156E-1,3.3821893E0,2.798543E-1,4.3630716E-1,1.9925489E-1,8.9224434E-1,3.1341878E-1,4.69487E-1],"categories":[],"categories_nodes":[],"categories_segments":[],"categories_sizes":[],"default_left":[true,true,true,true,true,true,true,true,true,false,true,true,true,true,true,false,true,false,true,true,true,true,true,true,true,true,true,true,true,false,false,true,true,false,true,true,true,true,true,true,true,true,false,true,true,true,true,true,true,true,true,true,true,false,false,false,false,true,true,true,false,true,true,true,true,true,true,true,true,true,true,true,true,true,true,true,true,false,true,true,true,true,true,true,true,true,true,true,true,true,false,true,true,false,false,false,false,false,false,false,false,false,false,false,false,false,false,false,false,false,false,false,false,false,false,false,false,false,false,false,false,false,false,false,false,false,false,false,false,false,false,false,false,false,false,false,false,false,false,false,false,false,false,false,false,false,false,false,false,false,false,false,false,false,false,false,false,false,false],"id":94,"left_children":[1,3,5,7,9,11,13,15,17,-1,19,21,23,25,27,-1,29,-1,31,33,35,37,39,41,43,45,47,49,51,-1,-1,53,55,-1,57,59,61,63,65,67,69,71,-1,73,75,77,79,81,83,85,87,89,91,-1,-1,-1,-1,93,95,97,-1,99,101,103,105,107,109,111,113,115,117,119,121,123,125,127,129,-1,131,133,135,137,139,141,143,145,147,149,151,153,-1,155,157,-1,-1,-1,-1,-1,-1,-1,-1,-1,-1,-1,-1,-1,-1,-1,-1,-1,-1,-1,-1,-1,-1,-1,-1,-1,-1,-1,-1,-1,-1,-1,-1,-1,-1,-1,-1,-1,-1,-1,-1,-1,-1,-1,-1,-1,-1,-1,-1,-1,-1,-1,-1,-1,-1,-1,-1,-1,-1,-1,-1,-1,-1,-1,-1,-1,-1],"loss_changes":[1.6340851E2,3.437033E1,8.673474E1,7.126292E0,2.3825684E1,1.797002E1,7.79303E1,1.0196264E1,2.6557237E-2,0E0,2.2676117E1,6.929305E0,3.028164E-1,4.463157E-1,2.5771973E1,0E0,1.4726138E-1,0E0,7.82603E-3,2.3187144E2,1.7258286E1,1.8094987E-1,1.7191601E0,2.6660187E0,1.6031742E-1,1.4015123E-1,2.3512313E-1,1.6174568E1,1.5970703E1,0E0,0E0,6.220907E-3,4.4628866E-3,0E0,7.170035E1,5.563986E0,1.1970123E1,2.6641734E-2,8.004871E-2,1.2927485E0,4.7203255E-1,1.307922E-1,0E0,1.9556236E-1,2.0929956E-1,1.5908857E-1,9.221715E-2,4.2437404E-2,5.0398755E-1,1.3745581E1,3.3254387E1,1.6942322E1,6.8799133E0,0E0,0E0,0E0,0E0,6.83696E0,3.1189144E-1,5.4629617E0,0E0,1.4470459E1,2.4703436E0,5.286822E-3,2.1242075E-2,6.888379E-2,2.911073E-2,5.721712E-1,3.3358288E-1,7.046075E-1,4.2020476E-1,3.8655952E-1,5.512655E-3,3.0555105E-1,4.2790413E-2,3.4634018E-1,2.2841787E-1,0E0,1.01578265E-1,1.045115E-1,7.1139745E-2,1.2540787E-2,8.097465E-2,8.787252E-1,2.003302E-1,6.8779693E0,3.335922E1,7.391007E1,2.3328125E1,1.274292E1,0E0,5.31769E0,6.0348206E0,0E0,0E0,0E0,0E0,0E0,0E0,0E0,0E0,0E0,0E0,0E0,0E0,0E0,0E0,0E0,0E0,0E0,0E0,0E0,0E0,0E0,0E0,0E0,0E0,0E0,0E0,0E0,0E0,0E0,0E0,0E0,0E0,0E0,0E0,0E0,0E0,0E0,0E0,0E0,0E0,0E0,0E0,0E0,0E0,0E0,0E0,0E0,0E0,0E0,0E0,0E0,0E0,0E0,0E0,0E0,0E0,0E0,0E0,0E0,0E0,0E0,0E0,0E0,0E0,0E0,0E0],"parents":[2147483647,0,0,1,1,2,2,3,3,4,4,5,5,6,6,7,7,8,8,10,10,11,11,12,12,13,13,14,14,16,16,18,18,19,19,20,20,21,21,22,22,23,23,24,24,25,25,26,26,27,27,28,28,31,31,32,32,34,34,35,35,36,36,37,37,38,38,39,39,40,40,41,41,43,43,44,44,45,45,46,46,47,47,48,48,49,49,50,50,51,51,52,52,57,57,58,58,59,59,61,61,62,62,63,63,64,64,65,65,66,66,67,67,68,68,69,69,70,70,71,71,72,72,73,73,74,74,75,75,76,76,78,78,79,79,80,80,81,81,82,82,83,83,84,84,85,85,86,86,87,87,88,88,89,89,91,91,92,92],"right_children":[2,4,6,8,10,12,14,16,18,-1,20,22,24,26,28,-1,30,-1,32,34,36,38,40,42,44,46,48,50,52,-1,-1,54,56,-1,58,60,62,64,66,68,70,72,-1,74,76,78,80,82,84,86,88,90,92,-1,-1,-1,-1,94,96,98,-1,100,102,104,106,108,110,112,114,116,118,120,122,124,126,128,130,-1,132,134,136,138,140,142,144,146,148,150,152,154,-1,156,158,-1,-1,-1,-1,-1,-1,-1,-1,-1,-1,-1,-1,-1,-1,-1,-1,-1,-1,-1,-1,-1,-1,-1,-1,-1,-1,-1,-1,-1,-1,-1,-1,-1,-1,-1,-1,-1,-1,-1,-1,-1,-1,-1,-1,-1,-1,-1,-1,-1,-1,-1,-1,-1,-1,-1,-1,-1,-1,-1,-1,-1,-1,-1,-1,-1,-1],"split_conditions":[7.4137926E-2,5.5555556E-2,5.5555556E-2,5.3197986E-1,2.1276595E-3,5.3197986E-1,4.2840246E-2,2.7272727E-2,5.0041294E-1,1.1412359E-1,2.7272727E-2,4.2840246E-2,1.1307166E-1,1.7410874E-1,5.032409E-2,7.112266E-2,8.981001E-3,2.1842502E-4,6.724138E-2,1.6666667E-1,1.6666667E-1,2.4990782E-2,2.764674E-1,1.1190133E-1,8.30303E-1,8.30303E-1,2.4990782E-2,3.783784E-1,6.131617E-1,1.4471139E-2,5.413213E-3,1.3098668E-1,5.5787235E-1,1.5056387E-1,5.318799E-1,1.3377745E-1,1.343176E-1,1.21534035E-1,8.30303E-1,8.30303E-1,6.621622E-1,1.3513514E-1,1.9422289E-2,3.3636364E-1,1.15517244E-1,3.231905E-2,1.6666667E-1,3.9234042E-1,1.3390663E-1,5.0082594E-1,4.95086E-1,6.123514E-1,1.6666667E-1,-3.3534598E-3,-8.343767E-4,-2.120755E-3,-2.0808194E-4,2.777778E-1,2.777778E-1,5.0082594E-1,5.2119117E-2,5E-1,1.3989916E-1,6.242424E-1,1.4953187E-1,1.417897E-1,2.60713E-1,6.4742017E-1,4.741379E-1,6.666666E-1,5.7823193E-1,2.2586207E-1,2.137931E-1,3.6977887E-1,9.0700394E-1,2.1615052E-1,6.802305E-1,5.9407377E-3,3.9234042E-1,3.5106385E-1,2.4990782E-2,2.6206896E-1,9.212121E-1,5.053115E-1,1.6666667E-1,1.6666667E-1,1.6666667E-1,7.008511E-1,4.8523586E-2,5.3197986E-1,4.3899853E-2,9.902773E-1,9.212121E-1,5.1056527E-2,1.5132688E-1,-6.704231E-3,-5.2146433E-4,4.98276E-2,8.133771E-3,3.0456511E-2,7.441701E-2,1.3194604E-2,3.5828505E-2,-8.985192E-5,1.3120108E-3,-2.2826314E-3,-6.0280826E-4,1.9366505E-3,-4.4121716E-5,3.2335713E-3,1.2990007E-3,4.844955E-3,1.0132008E-2,1.5188291E-2,4.9882107E-3,7.6448033E-3,3.929668E-3,4.292179E-4,4.1314177E-3,-2.856357E-3,9.874977E-3,-4.0535326E-3,-2.7345526E-3,-7.5463313E-3,-2.7119168E-3,-2.8484082E-3,-2.0393673E-3,-1.7031452E-2,-2.9763388E-3,-2.9938787E-3,-5.0750556E-3,-3.1325352E-4,1.3162877E-3,6.589902E-3,1.3906228E-3,1.8420782E-4,3.1660139E-3,-2.5859792E-4,-1.0516015E-3,-6.258612E-4,7.392188E-4,1.7259932E-3,2.022596E-2,-7.855586E-4,5.02686E-4,-2.5458138E-3,1.030805E-2,1.2430359E-1,1.6793942E-2,2.274504E-2,1.3262795E-1,1.3069031E-2,6.7643784E-2,5.5970857E-3,8.726143E-3,3.9850976E-3,1.7844886E-2,6.2683756E-3,9.38974E-3],"split_indices":[3,4,4,9,10,9,9,2,8,0,2,9,5,5,5,0,9,0,3,4,4,9,5,5,2,2,9,11,5,0,0,5,10,0,9,5,5,5,2,2,11,11,0,2,3,5,4,10,11,8,11,5,4,0,0,0,0,4,4,8,0,4,5,2,5,5,5,11,3,2,5,3,3,11,5,5,5,0,10,10,9,3,2,5,4,4,4,10,5,9,0,5,2,0,0,0,0,0,0,0,0,0,0,0,0,0,0,0,0,0,0,0,0,0,0,0,0,0,0,0,0,0,0,0,0,0,0,0,0,0,0,0,0,0,0,0,0,0,0,0,0,0,0,0,0,0,0,0,0,0,0,0,0,0,0,0,0,0,0],"split_type":[0,0,0,0,0,0,0,0,0,0,0,0,0,0,0,0,0,0,0,0,0,0,0,0,0,0,0,0,0,0,0,0,0,0,0,0,0,0,0,0,0,0,0,0,0,0,0,0,0,0,0,0,0,0,0,0,0,0,0,0,0,0,0,0,0,0,0,0,0,0,0,0,0,0,0,0,0,0,0,0,0,0,0,0,0,0,0,0,0,0,0,0,0,0,0,0,0,0,0,0,0,0,0,0,0,0,0,0,0,0,0,0,0,0,0,0,0,0,0,0,0,0,0,0,0,0,0,0,0,0,0,0,0,0,0,0,0,0,0,0,0,0,0,0,0,0,0,0,0,0,0,0,0,0,0,0,0,0,0],"sum_hessian":[7.929E3,1.83E2,7.746E3,2.5E1,1.58E2,7.79E2,6.967E3,6E0,1.9E1,1E0,1.57E2,3.64E2,4.15E2,5.88E2,6.379E3,1E0,5E0,1E0,1.8E1,2.6E1,1.31E2,1.63E2,2.01E2,4.3E1,3.72E2,8.3E1,5.05E2,1.66E2,6.213E3,1E0,4E0,1.2E1,6E0,6E0,2E1,3.3E1,9.8E1,8.7E1,7.6E1,5.3E1,1.48E2,4.1E1,2E0,2.66E2,1.06E2,6.3E1,2E1,2.92E2,2.13E2,8.8E1,7.8E1,3.509E3,2.704E3,1.1E1,1E0,5E0,1E0,2E0,1.8E1,3.2E1,1E0,7.5E1,2.3E1,4E0,8.3E1,5.1E1,2.5E1,3.9E1,1.4E1,9E1,5.8E1,4E0,3.7E1,2.3E1,2.43E2,3E0,1.03E2,2E0,6.1E1,7E0,1.3E1,1.11E2,1.81E2,6E0,2.07E2,7.7E1,1.1E1,1.3E1,6.5E1,3.504E3,5E0,5.93E2,2.111E3,1E0,1E0,4E0,1.4E1,1E0,3.1E1,7.2E1,3E0,2.1E1,2E0,1E0,3E0,3E0,8E1,8E0,4.3E1,4E0,2.1E1,2.6E1,1.3E1,1.2E1,2E0,3.4E1,5.6E1,1.8E1,4E1,3E0,1E0,4E0,3.3E1,9E0,1.4E1,2.05E2,3.8E1,1E0,2E0,7E1,3.3E1,2.7E1,3.4E1,4E0,3E0,7E0,6E0,1E1,1.01E2,1.62E2,1.9E1,5E0,1E0,7.6E1,1.31E2,2.4E1,5.3E1,1E0,1E1,1E1,3E0,6.2E1,3E0,6.4E2,2.864E3,5.82E2,1.1E1,1.822E3,2.89E2],"tree_param":{"num_deleted":"0","num_feature":"12","num_nodes":"159","size_leaf_vector":"0"}},{"base_weights":[3.10871E-1,-4.681242E-2,6.2949103E-1,1.3391377E-1,-1.7198285E-1,8.031934E0,6.092131E-1,7.3442645E-3,3.2332367E-1,-1.8729708E0,-1.6152872E-1,1.4489364E1,-1.3574907E-1,9.454234E-1,5.480133E-1,1.7650622E0,8.609818E-4,6.990862E-1,2.9710293E-1,-2.3451068E-1,-6.3867666E-2,4.089402E0,3.1726292E1,-5.7393277E-1,5.0350326E-1,6.2030894E-1,1.2756627E0,3.3403945E-1,6.053196E-1,5.13673E-1,3.5027964E0,5.948729E-3,-4.8678488E-1,8.704395E-1,4.1102278E-1,2.5809708E-1,5.1371056E-1,-2.9374993E-1,-8.698274E-2,5.906352E-1,-8.438866E-2,1.3484341E1,-7.362066E-2,4.6437028E-1,-1.0913684E0,1.1475345E0,4.0152302E-1,2.5464783E0,8.7714934E-1,2.7590373E-1,3.7044942E-1,6.6220504E-1,4.784619E-1,4.419902E-1,1.3490727E-3,1.4658728E0,7.6312506E-1,1.2669653E-1,7.1348476E-1,4.4335783E-1,2.3387372E-1,6.248714E-1,1.8519315E-1,-2.2103417E-1,-4.3510884E-1,-4.451744E-1,-2.953161E-2,1.5406833E0,3.644246E-1,2.2747123E-1,-1.19435064E-1,-1.5482259E0,2.5145376E0,6.6254845E0,1.0047957E0,2.6543891E-2,4.625224E-1,8.372913E0,2.349307E0,6.718185E-2,1.0833107E0,3.355079E-1,1.0024813E-1,1.4918172E-1,3.8261265E-1,5.867599E-1,9.106504E-1,5.91875E-1,4.4762972E-1,1.6129972E-1,7.501495E-1,-7.693021E-3,1.3029335E-1,1.721335E0,6.4155453E-1,6.538529E-1,1.5533065E0,-1.8384485E-1,6.1515963E-1,9.574425E-1,4.178258E-1,1.1554102E-1,2.762453E-1,4.2532346E-1,8.3005077E-1,2.4498053E-1,7.3237225E-2,-2.3110294E-1,2.3301146E0,-6.798217E-1,-3.086791E-1,-1.3532841E-1,-8.171026E-1,4.4769056E-2,-4.6122736E-1,7.215187E-1,2.4846091E0,-3.3954698E-1,6.7392975E-1,-1.1935085E-2,8.5190445E-1,-5.9807026E-1,-1.0144257E-1,2.414358E0,9.169027E0,9.483508E-1,4.6089034E0,1.2904927E-1,-6.4241654E-1,4.1095465E-1,6.93213E-1,3.574523E0,2.0653174E0,-5.739992E-4,2.51698E0,1.9007545E0,8.144947E-1,3.6122215E-1,1.5542494E-2,7.045186E-2,4.7306123E-1,-3.0125707E-2,1.9681141E-1,5.6374335E-1,3.5615513E-1,4.0728647E-1,6.416356E-1,1.1344692E0,8.0422866E-1,3.454885E-1,7.62833E-1,2.7622983E-1,4.5625636E-1],"categories":[],"categories_nodes":[],"categories_segments":[],"categories_sizes":[],"default_left":[true,true,true,true,true,true,true,true,true,false,true,true,true,true,true,true,true,true,true,true,true,true,false,true,false,true,true,true,true,false,false,true,false,true,true,true,true,true,true,true,true,false,true,false,false,true,true,true,true,true,true,true,true,true,true,true,true,true,false,true,true,true,true,true,true,true,true,true,true,true,true,false,false,true,true,true,true,false,true,true,true,true,true,true,true,true,true,true,true,false,false,false,false,false,false,false,false,false,false,false,false,false,false,false,false,false,false,false,false,false,false,false,false,false,false,false,false,false,false,false,false,false,false,false,false,false,false,false,false,false,false,false,false,false,false,false,false,false,false,false,false,false,false,false,false,false,false,false,false,false,false,false,false],"id":95,"left_children":[1,3,5,7,9,11,13,15,17,-1,19,21,23,25,27,29,31,33,35,37,39,41,-1,43,-1,45,47,49,51,-1,-1,53,-1,55,57,59,61,63,65,67,69,-1,71,-1,-1,73,75,77,79,81,83,85,87,89,91,93,95,97,-1,99,101,103,105,107,109,111,113,115,117,119,121,-1,-1,123,125,127,129,-1,131,133,135,137,139,141,143,145,147,149,151,-1,-1,-1,-1,-1,-1,-1,-1,-1,-1,-1,-1,-1,-1,-1,-1,-1,-1,-1,-1,-1,-1,-1,-1,-1,-1,-1,-1,-1,-1,-1,-1,-1,-1,-1,-1,-1,-1,-1,-1,-1,-1,-1,-1,-1,-1,-1,-1,-1,-1,-1,-1,-1,-1,-1,-1,-1,-1,-1,-1,-1,-1,-1,-1],"loss_changes":[8.9627765E2,8.3828705E1,6.225864E2,3.6346344E1,3.8801613E1,5.986133E2,8.516211E1,1.033687E1,5.900444E0,0E0,1.5502552E1,1.0915836E3,1.5913286E0,6.824414E1,4.2963135E1,6.5916023E0,2.2427373E0,1.8039398E0,4.746601E0,1.0869568E1,1.2518187E1,1.7001022E2,0E0,1.9688709E0,0E0,3.7005264E1,1.594093E2,1.5280075E0,1.9855408E1,0E0,0E0,1.793206E0,0E0,1.1500454E0,1.2765172E0,2.1203003E0,3.1026058E0,9.089775E0,7.342238E0,5.8747673E0,9.880564E0,0E0,1.4006679E1,0E0,0E0,7.143204E1,5.211712E0,7.9831024E1,4.025815E1,2.9908943E0,1.1988335E0,3.5607727E1,2.8982239E0,7.5397015E-1,1.0378144E0,3.0000305E-1,1.4718676E0,1.3079536E0,0E0,5.73267E-1,2.1263943E0,2.4983768E0,1.3896811E-1,1.5236431E1,9.238873E0,5.6347523E0,9.902709E0,3.4804583E0,5.165041E0,1.3669108E1,6.965478E0,0E0,0E0,1.7446846E1,1.7246902E1,2.2374957E0,2.2248688E0,0E0,2.2973969E1,8.225147E0,4.1708725E1,1.7562199E0,7.9575366E-1,2.1217138E-1,1.9869919E0,1.4339386E1,1.02517395E1,7.5765038E0,9.4755554E-1,0E0,0E0,0E0,0E0,0E0,0E0,0E0,0E0,0E0,0E0,0E0,0E0,0E0,0E0,0E0,0E0,0E0,0E0,0E0,0E0,0E0,0E0,0E0,0E0,0E0,0E0,0E0,0E0,0E0,0E0,0E0,0E0,0E0,0E0,0E0,0E0,0E0,0E0,0E0,0E0,0E0,0E0,0E0,0E0,0E0,0E0,0E0,0E0,0E0,0E0,0E0,0E0,0E0,0E0,0E0,0E0,0E0,0E0,0E0,0E0,0E0,0E0,0E0,0E0],"parents":[2147483647,0,0,1,1,2,2,3,3,4,4,5,5,6,6,7,7,8,8,10,10,11,11,12,12,13,13,14,14,15,15,16,16,17,17,18,18,19,19,20,20,21,21,23,23,25,25,26,26,27,27,28,28,31,31,33,33,34,34,35,35,36,36,37,37,38,38,39,39,40,40,42,42,45,45,46,46,47,47,48,48,49,49,50,50,51,51,52,52,53,53,54,54,55,55,56,56,57,57,59,59,60,60,61,61,62,62,63,63,64,64,65,65,66,66,67,67,68,68,69,69,70,70,73,73,74,74,75,75,76,76,78,78,79,79,80,80,81,81,82,82,83,83,84,84,85,85,86,86,87,87,88,88],"right_children":[2,4,6,8,10,12,14,16,18,-1,20,22,24,26,28,30,32,34,36,38,40,42,-1,44,-1,46,48,50,52,-1,-1,54,-1,56,58,60,62,64,66,68,70,-1,72,-1,-1,74,76,78,80,82,84,86,88,90,92,94,96,98,-1,100,102,104,106,108,110,112,114,116,118,120,122,-1,-1,124,126,128,130,-1,132,134,136,138,140,142,144,146,148,150,152,-1,-1,-1,-1,-1,-1,-1,-1,-1,-1,-1,-1,-1,-1,-1,-1,-1,-1,-1,-1,-1,-1,-1,-1,-1,-1,-1,-1,-1,-1,-1,-1,-1,-1,-1,-1,-1,-1,-1,-1,-1,-1,-1,-1,-1,-1,-1,-1,-1,-1,-1,-1,-1,-1,-1,-1,-1,-1,-1,-1,-1,-1,-1,-1],"split_conditions":[6.621175E-1,6.572582E-1,2.2506302E-3,3.989272E-1,2.2506302E-3,8.349742E-1,1.7347857E-1,2.2506302E-3,1.0010803E-1,-3.7459414E-2,5.952467E-1,8.2200134E-1,8.7090075E-1,8.2552147E-1,9.8790765E-1,2.4097994E-1,3.9342475E-1,7.008511E-1,6.430696E-1,4.0172416E-1,6.0965073E-1,7.7843237E-1,6.3452584E-1,8.4844077E-1,1.0070065E-2,7.7033323E-1,8.3047175E-1,7.7778685E-1,8.349742E-1,1.027346E-2,7.0055924E-2,2.4576882E-2,-9.735697E-3,1.2068965E-1,5.497849E-1,4.1206574E-1,6.4979887E-1,3.5767013E-1,9.272596E-2,2.7586207E-1,2.7021277E-1,2.6968682E-1,8.0442405E-1,9.287406E-3,-2.1827368E-2,5E-1,9.6551724E-2,5E-1,8.571358E-1,9.5682657E-1,1.3234043E-1,8.2218254E-1,3.517285E-1,1.7815007E-2,3.8253418E-1,2.2866402E-2,9.2275836E-2,2.8793103E-1,1.4269695E-2,1.6034484E-1,4.4565028E-1,6.474741E-1,5.327586E-1,3.5559958E-1,4.304105E-1,6.67987E-2,5.372704E-1,5.981275E-1,6.0163844E-1,7.2875404E-1,6.3044655E-1,-3.0964516E-2,5.029075E-2,7.573734E-1,1.7293844E-1,8.0966675E-1,9.9787235E-1,1.6745827E-1,9.6551724E-2,1.7005762E-1,4.222182E-2,7.738564E-1,7.684338E-1,3.4655172E-1,3.622614E-1,7.554066E-1,4.2852E-1,8.76709E-1,2.5344828E-1,3.2259943E-3,1.5002989E-2,-1.5386041E-4,2.605867E-3,3.44267E-2,1.283109E-2,1.3077057E-2,3.1066129E-2,-3.676897E-3,1.2303192E-2,1.914885E-2,8.356515E-3,2.3108204E-3,5.524906E-3,8.5064685E-3,1.6601015E-2,4.8996103E-3,1.4647444E-3,-4.622059E-3,4.660229E-2,-1.3596434E-2,-6.173582E-3,-2.7065682E-3,-1.6342051E-2,8.953811E-4,-9.224547E-3,1.4430374E-2,4.969218E-2,-6.7909393E-3,1.3478595E-2,-2.387017E-4,1.7038088E-2,-1.1961405E-2,-2.0288513E-3,4.8287157E-2,1.8338054E-1,1.8967016E-2,9.217807E-2,2.5809854E-3,-1.2848331E-2,8.219093E-3,1.3864259E-2,7.149046E-2,4.1306347E-2,-1.1479983E-5,5.03396E-2,3.801509E-2,1.6289894E-2,7.224443E-3,3.1084986E-4,1.4090373E-3,9.461224E-3,-6.0251413E-4,3.936228E-3,1.1274867E-2,7.1231024E-3,8.145729E-3,1.2832711E-2,2.2689382E-2,1.6084572E-2,6.9097695E-3,1.525666E-2,5.5245967E-3,9.125127E-3],"split_indices":[1,1,5,1,5,1,5,5,5,0,5,1,1,1,6,1,1,10,1,3,5,1,0,1,0,1,1,1,1,0,0,5,0,3,1,1,1,5,5,3,10,0,1,0,0,0,3,0,1,6,10,1,5,7,1,5,5,3,0,3,1,1,3,5,5,5,5,5,5,5,5,0,0,1,5,1,10,0,3,5,5,1,1,3,5,1,5,1,3,0,0,0,0,0,0,0,0,0,0,0,0,0,0,0,0,0,0,0,0,0,0,0,0,0,0,0,0,0,0,0,0,0,0,0,0,0,0,0,0,0,0,0,0,0,0,0,0,0,0,0,0,0,0,0,0,0,0,0,0,0,0,0,0],"split_type":[0,0,0,0,0,0,0,0,0,0,0,0,0,0,0,0,0,0,0,0,0,0,0,0,0,0,0,0,0,0,0,0,0,0,0,0,0,0,0,0,0,0,0,0,0,0,0,0,0,0,0,0,0,0,0,0,0,0,0,0,0,0,0,0,0,0,0,0,0,0,0,0,0,0,0,0,0,0,0,0,0,0,0,0,0,0,0,0,0,0,0,0,0,0,0,0,0,0,0,0,0,0,0,0,0,0,0,0,0,0,0,0,0,0,0,0,0,0,0,0,0,0,0,0,0,0,0,0,0,0,0,0,0,0,0,0,0,0,0,0,0,0,0,0,0,0,0,0,0,0,0,0,0],"sum_hessian":[7.864E3,3.705E3,4.159E3,1.516E3,2.189E3,1.1E1,4.148E3,9.09E2,6.07E2,1.3E1,2.176E3,6E0,5E0,6.38E2,3.51E3,3E0,9.06E2,3.9E1,5.68E2,1.245E3,9.31E2,4E0,2E0,3E0,2E0,3.22E2,3.16E2,7.42E2,2.768E3,2E0,1E0,8.97E2,9E0,2.4E1,1.5E1,4.82E2,8.6E1,8.88E2,3.57E2,2.8E1,9.03E2,1E0,3E0,1E0,2E0,9.4E1,2.28E2,7.5E1,2.41E2,2.87E2,4.55E2,1.91E3,8.58E2,9E0,8.88E2,3E0,2.1E1,8E0,7E0,5.5E1,4.27E2,6.4E1,2.2E1,5.87E2,3.01E2,4.9E1,3.08E2,5E0,2.3E1,9.1E1,8.12E2,2E0,1E0,2E0,9.2E1,3.2E1,1.96E2,2E0,7.3E1,4.9E1,1.92E2,2.14E2,7.3E1,2.4E1,4.31E2,1.466E3,4.44E2,1.82E2,6.76E2,5E0,4E0,8.3E2,5.8E1,2E0,1E0,1.9E1,2E0,5E0,3E0,2E0,5.3E1,1.13E2,3.14E2,3.3E1,3.1E1,1.4E1,8E0,5.85E2,2E0,1.02E2,1.99E2,2.7E1,2.2E1,2.63E2,4.5E1,3E0,2E0,7E0,1.6E1,6.6E1,2.5E1,2.9E1,7.83E2,1E0,1E0,9.1E1,1E0,2.8E1,4E0,1.61E2,3.5E1,1.3E1,6E1,4.8E1,1E0,4.7E1,1.45E2,1.98E2,1.6E1,6.8E1,5E0,5E0,1.9E1,5.4E1,3.77E2,3.44E2,1.122E3,1.42E2,3.02E2,7.5E1,1.07E2,3.3E1,6.43E2],"tree_param":{"num_deleted":"0","num_feature":"12","num_nodes":"153","size_leaf_vector":"0"}},{"base_weights":[3.1666604E-1,-2.7879376E-2,6.2765086E-1,1.271232E-1,-1.3669325E-1,2.7862737E0,5.8174294E-1,-1.9149968E-3,2.9207307E-1,-1.8925034E0,-1.2758082E-1,7.237609E0,2.362907E0,3.2952672E-1,6.4820224E-1,3.6751652E-1,-8.5770525E-3,3.4502597E0,2.8569067E-1,-1.0895909E-1,-2.0602055E0,-1.8193606E-1,3.1973098E-3,4.367459E0,1.2757309E1,2.1613485E-1,3.2924743E0,3.0111656E-1,5.0554776E-1,9.2784727E-1,6.0434943E-1,2.8052518E-1,5.10407E-1,7.2590746E-2,-2.0032568E-2,1.8054397E-1,3.4248224E-1,-2.7348516E0,-1.6579134E0,-2.799117E-1,-1.4290816E-1,-1.1755921E0,2.8153231E-2,7.1193886E0,3.1812716E0,2.9950776E0,-2.2080001E-1,6.6202426E0,2.1115746E0,6.324457E-1,2.929162E-1,8.465882E-1,3.114737E-1,6.3828456E-1,1.2199293E0,6.5958744E-1,4.634088E-1,3.8080257E-1,1.600337E-1,5.1838923E-2,1.3364777E-1,-3.0064177E-2,3.1184137E-2,2.6452956E-1,-6.84618E-2,9.671446E-1,3.2863545E-1,-7.9379237E-1,-1.9296447E0,-6.2875307E-1,-2.4449724E-1,-1.6359867E-1,5.42959E-2,-1.3956648E0,-7.555542E-1,1.0542709E0,1.1022109E-2,2.1921605E-1,4.1472216E0,-1.6875511E0,4.9129196E-2,1.167955E1,4.283536E0,-8.0141747E-1,2.9311106E0,7.583659E-1,4.243096E-1,3.3110148E-1,1.982986E-1,4.7836018E-1,3.3685203E0,4.2151913E-1,-1.3809012E-2,7.709596E-1,2.4015175E-1,2.3564517E0,7.7862006E-1,5.795608E-1,8.7282276E-1,5.564962E-1,3.8477287E-1,4.1895753E-1,1.5088059E-1,2.1024846E-2,1.8720213E-1,1.2419225E-1,3.548245E-2,1.9271985E-1,3.4582905E-2,-2.1218605E-2,-1.1105686E-1,7.649178E-2,-1.1284431E-1,5.705144E-1,2.1790622E-1,1.36113E-1,-8.020674E-2,1.4142549E0,3.3914238E-1,6.958494E-1,3.034427E-1,-1.15589924E-1,-8.442278E-1,-2.626294E-1,3.3186865E-1,-5.1354356E-2,-2.0348442E-1,-8.672713E-1,1.43544E-1,3.256503E0,3.34807E-3,-3.8784035E-2,2.7569297E-1,-2.4749758E0,1.0170278E-1,6.743032E-1,-2.7208132E-1,6.704897E0,1.497899E1,5.330067E0,2.4210851E0,6.2484022E-2,-2.3669055E0,1.5059872E0,6.3876348E0,6.2646013E-1,1.1149486E0,2.0633414E-1,5.5604136E-1,2.4369915E-1,4.0241265E-1,2.3740414E-1,-1.6261038E-1,7.391251E-1,3.1072757E-1,-2.007137E-1,7.9920597E0,3.1304392E-1,5.3226703E-1,-3.7980616E-1,1.5931721E-1,-7.286479E-1,8.0043936E-1,6.3234365E-1,1.4867295E-1,1.7770362E0,3.3872428E0,6.270508E0,6.5743995E-1,4.029111E-1,6.424092E-1,9.5003575E-1,6.968845E-1,4.2023218E-1,6.2794286E-1,5.411086E-1,3.4294897E-1],"categories":[],"categories_nodes":[],"categories_segments":[],"categories_sizes":[],"default_left":[true,true,true,true,true,true,true,true,true,true,true,true,true,true,true,true,true,false,true,false,true,true,true,true,false,true,true,true,true,true,true,true,false,true,true,true,true,false,true,true,true,true,true,false,false,true,true,true,true,true,true,true,true,true,true,true,true,true,true,true,true,true,true,true,true,true,true,false,false,true,true,true,true,false,false,true,true,false,false,true,true,true,true,true,true,true,true,true,true,true,true,true,true,true,true,true,true,true,true,true,true,false,false,false,false,false,false,false,false,false,false,false,false,false,false,false,false,false,false,false,false,false,false,false,false,false,false,false,false,false,false,false,false,false,false,false,false,false,false,false,false,false,false,false,false,false,false,false,false,false,false,false,false,false,false,false,false,false,false,false,false,false,false,false,false,false,false,false,false,false,false,false,false,false,false,false,false],"id":96,"left_children":[1,3,5,7,9,11,13,15,17,19,21,23,25,27,29,31,33,-1,35,-1,37,39,41,43,-1,45,47,49,51,53,55,57,-1,59,61,63,65,-1,67,69,71,73,75,-1,-1,77,79,81,83,85,87,89,91,93,95,97,99,101,103,105,107,109,111,113,115,117,119,-1,-1,121,123,125,127,-1,-1,129,131,-1,-1,133,135,137,139,141,143,145,147,149,151,153,155,157,159,161,163,165,167,169,171,173,175,-1,-1,-1,-1,-1,-1,-1,-1,-1,-1,-1,-1,-1,-1,-1,-1,-1,-1,-1,-1,-1,-1,-1,-1,-1,-1,-1,-1,-1,-1,-1,-1,-1,-1,-1,-1,-1,-1,-1,-1,-1,-1,-1,-1,-1,-1,-1,-1,-1,-1,-1,-1,-1,-1,-1,-1,-1,-1,-1,-1,-1,-1,-1,-1,-1,-1,-1,-1,-1,-1,-1,-1,-1,-1,-1,-1],"loss_changes":[8.460938E2,6.3193214E1,4.1070044E2,3.2896492E1,3.511136E1,1.5685956E2,6.8041626E1,2.1305892E0,1.329105E1,3.284092E0,1.5572674E1,9.7355255E1,1.5802808E2,4.180069E0,3.9233765E1,1.3156962E-1,7.922511E-1,0E0,4.0165787E0,0E0,1.2298889E0,5.897297E0,1.892011E1,9.710449E0,0E0,2.9806215E1,2.1266113E2,1.9120636E0,7.6615105E0,3.6532654E1,2.1535461E1,9.681821E-2,0E0,1.2850606E-1,3.8426614E-1,4.993079E0,3.6755753E0,0E0,1.1723232E0,5.376171E0,4.5227222E0,8.5020065E-1,1.1061276E1,0E0,0E0,1.0295626E1,8.497345E0,1.5254071E2,9.948918E1,3.3011007E-1,2.5514374E0,3.872059E1,2.7043839E0,1.1509537E1,1.078472E2,3.3894104E1,5.656494E0,1.7580986E-2,1.5859991E-2,9.013972E-2,1.4863786E-1,4.4533294E-1,8.0065787E-1,2.4914083E0,1.4780754E-1,2.4357567E0,3.896408E0,0E0,0E0,4.4135885E0,4.2118664E0,4.480274E0,8.694672E0,0E0,0E0,2.3865406E1,8.184326E0,0E0,0E0,4.814328E0,3.7485073E0,3.7327026E1,1.5727234E1,1.2705031E1,1.5595334E2,2.2827864E-1,1.6144156E-1,3.1264076E0,2.926036E0,1.5403843E0,8.866165E1,6.091356E-1,1.2483637E0,7.460373E0,1.9427218E0,3.3953613E1,1.02567535E2,1.6033905E1,7.1503296E0,3.3856506E0,2.7131157E0,0E0,0E0,0E0,0E0,0E0,0E0,0E0,0E0,0E0,0E0,0E0,0E0,0E0,0E0,0E0,0E0,0E0,0E0,0E0,0E0,0E0,0E0,0E0,0E0,0E0,0E0,0E0,0E0,0E0,0E0,0E0,0E0,0E0,0E0,0E0,0E0,0E0,0E0,0E0,0E0,0E0,0E0,0E0,0E0,0E0,0E0,0E0,0E0,0E0,0E0,0E0,0E0,0E0,0E0,0E0,0E0,0E0,0E0,0E0,0E0,0E0,0E0,0E0,0E0,0E0,0E0,0E0,0E0,0E0,0E0,0E0,0E0,0E0,0E0,0E0,0E0],"parents":[2147483647,0,0,1,1,2,2,3,3,4,4,5,5,6,6,7,7,8,8,9,9,10,10,11,11,12,12,13,13,14,14,15,15,16,16,18,18,20,20,21,21,22,22,23,23,25,25,26,26,27,27,28,28,29,29,30,30,31,31,33,33,34,34,35,35,36,36,38,38,39,39,40,40,41,41,42,42,45,45,46,46,47,47,48,48,49,49,50,50,51,51,52,52,53,53,54,54,55,55,56,56,57,57,58,58,59,59,60,60,61,61,62,62,63,63,64,64,65,65,66,66,69,69,70,70,71,71,72,72,75,75,76,76,79,79,80,80,81,81,82,82,83,83,84,84,85,85,86,86,87,87,88,88,89,89,90,90,91,91,92,92,93,93,94,94,95,95,96,96,97,97,98,98,99,99,100,100],"right_children":[2,4,6,8,10,12,14,16,18,20,22,24,26,28,30,32,34,-1,36,-1,38,40,42,44,-1,46,48,50,52,54,56,58,-1,60,62,64,66,-1,68,70,72,74,76,-1,-1,78,80,82,84,86,88,90,92,94,96,98,100,102,104,106,108,110,112,114,116,118,120,-1,-1,122,124,126,128,-1,-1,130,132,-1,-1,134,136,138,140,142,144,146,148,150,152,154,156,158,160,162,164,166,168,170,172,174,176,-1,-1,-1,-1,-1,-1,-1,-1,-1,-1,-1,-1,-1,-1,-1,-1,-1,-1,-1,-1,-1,-1,-1,-1,-1,-1,-1,-1,-1,-1,-1,-1,-1,-1,-1,-1,-1,-1,-1,-1,-1,-1,-1,-1,-1,-1,-1,-1,-1,-1,-1,-1,-1,-1,-1,-1,-1,-1,-1,-1,-1,-1,-1,-1,-1,-1,-1,-1,-1,-1,-1,-1,-1,-1,-1,-1],"split_conditions":[6.621175E-1,6.572582E-1,6.724138E-2,3.8399246E-1,2.7272727E-2,7.703592E-1,9.8790765E-1,7.4137926E-2,1.5454546E-1,5.5555556E-2,2.777778E-1,7.5787616E-1,8.2218254E-1,9.212121E-1,2.3620689E-1,4.0821142E-2,5.4538816E-2,6.900519E-2,4.4565028E-1,-2.179182E-3,1.6666667E-1,5.818182E-1,7.4137926E-2,7.290039E-1,2.5514618E-1,9.8790765E-1,8.349742E-1,6.6854E-1,1.4619164E-1,8.2218254E-1,8.4422266E-1,1.24566406E-1,1.0208139E-2,8.30303E-1,3.279013E-1,4.3256068E-1,3.3636364E-1,-5.469703E-2,2.777778E-1,5.0082594E-1,9.533169E-1,3.888889E-1,4.1296717E-4,1.4238776E-1,6.362543E-2,7.847458E-1,2.7272727E-2,5.272727E-1,8.571358E-1,3.4655172E-1,5.8854413E-1,3.327586E-1,8.9569235E-1,7.958708E-1,8.349742E-1,8.2218254E-1,2.777778E-1,6.724138E-2,1.2982363E-1,2.0061906E-2,2.9655173E-1,3.2117623E-1,3.757258E-1,3.8608843E-1,8.2593434E-4,5.4282683E-1,5.0082594E-1,-1.5875846E-2,-3.8592894E-2,5.5555556E-2,4.9310344E-1,2.9655173E-1,2.3620689E-1,-2.7913295E-2,-1.5111084E-2,5.939394E-1,5E-1,4.3843207E-3,8.294443E-2,4.4444448E-1,1.6666667E-1,2.777778E-1,3.888889E-1,2.777778E-1,2.777778E-1,8.30303E-1,4.6551722E-1,8.147807E-1,9.345995E-1,2.5344828E-1,8.752054E-1,7.738564E-1,9.5682657E-1,5.5555556E-2,1.6666667E-1,9.212121E-1,4.1296717E-4,7.554066E-1,6.965602E-1,8.76709E-1,5.818182E-1,8.37915E-3,3.0176118E-3,4.2049692E-4,3.7440425E-3,2.483845E-3,7.09649E-4,3.8543968E-3,6.916581E-4,-4.243721E-4,-2.221137E-3,1.5298356E-3,-2.256886E-3,1.1410288E-2,4.3581245E-3,2.72226E-3,-1.6041347E-3,2.8285097E-2,6.7828475E-3,1.3916988E-2,6.0688537E-3,-2.3117985E-3,-1.6884556E-2,-5.2525876E-3,6.637373E-3,-1.0270871E-3,-4.0696883E-3,-1.7345427E-2,2.87088E-3,6.513006E-2,6.6961395E-5,-7.756807E-4,5.5138594E-3,-4.9499515E-2,2.0340555E-3,1.3486063E-2,-5.441626E-3,1.3409793E-1,2.995798E-1,1.0660134E-1,4.84217E-2,1.2496804E-3,-4.733811E-2,3.0119743E-2,1.2775269E-1,1.2529203E-2,2.2298971E-2,4.126683E-3,1.1120827E-2,4.8739826E-3,8.048253E-3,4.7480827E-3,-3.2522075E-3,1.4782501E-2,6.214551E-3,-4.0142736E-3,1.598412E-1,6.2608784E-3,1.064534E-2,-7.596123E-3,3.1863442E-3,-1.45729575E-2,1.6008787E-2,1.2646873E-2,2.973459E-3,3.5540722E-2,6.774485E-2,1.2541015E-1,1.3148799E-2,8.058222E-3,1.28481835E-2,1.9000715E-2,1.393769E-2,8.404643E-3,1.2558857E-2,1.0822172E-2,6.8589794E-3],"split_indices":[1,1,3,1,2,1,6,3,2,4,4,1,1,2,3,7,1,0,1,0,4,2,3,1,0,6,1,1,11,1,1,1,0,2,1,1,2,0,4,8,11,4,8,0,0,1,2,2,1,3,7,3,1,1,1,1,4,3,1,1,3,1,1,1,8,7,8,0,0,4,3,3,3,0,0,2,4,0,0,4,4,4,4,4,4,2,3,1,1,3,1,1,6,4,4,2,8,1,11,1,2,0,0,0,0,0,0,0,0,0,0,0,0,0,0,0,0,0,0,0,0,0,0,0,0,0,0,0,0,0,0,0,0,0,0,0,0,0,0,0,0,0,0,0,0,0,0,0,0,0,0,0,0,0,0,0,0,0,0,0,0,0,0,0,0,0,0,0,0,0,0,0,0,0,0,0,0],"split_type":[0,0,0,0,0,0,0,0,0,0,0,0,0,0,0,0,0,0,0,0,0,0,0,0,0,0,0,0,0,0,0,0,0,0,0,0,0,0,0,0,0,0,0,0,0,0,0,0,0,0,0,0,0,0,0,0,0,0,0,0,0,0,0,0,0,0,0,0,0,0,0,0,0,0,0,0,0,0,0,0,0,0,0,0,0,0,0,0,0,0,0,0,0,0,0,0,0,0,0,0,0,0,0,0,0,0,0,0,0,0,0,0,0,0,0,0,0,0,0,0,0,0,0,0,0,0,0,0,0,0,0,0,0,0,0,0,0,0,0,0,0,0,0,0,0,0,0,0,0,0,0,0,0,0,0,0,0,0,0,0,0,0,0,0,0,0,0,0,0,0,0,0,0,0,0,0,0],"sum_hessian":[7.896E3,3.746E3,4.15E3,1.545E3,2.201E3,8.6E1,4.064E3,8.67E2,6.78E2,1.1E1,2.19E3,7E0,7.9E1,8.48E2,3.216E3,1.5E1,8.52E2,1E0,6.77E2,1E0,1E1,1.547E3,6.43E2,5E0,2E0,2.4E1,5.5E1,7.31E2,1.17E2,4.35E2,2.781E3,1E1,5E0,1.05E2,7.47E2,2.38E2,4.39E2,3E0,7E0,4.4E2,1.107E3,1.3E1,6.3E2,1E0,4E0,3E0,2.1E1,1.4E1,4.1E1,1.7E1,7.14E2,4.2E1,7.5E1,2.19E2,2.16E2,1.997E3,7.84E2,5E0,5E0,7.9E1,2.6E1,6.25E2,1.22E2,1.78E2,6E1,9E0,4.3E2,2E0,5E0,4E1,4E2,1.002E3,1.05E2,8E0,5E0,1E1,6.2E2,1E0,2E0,3E0,1.8E1,4E0,1E1,9E0,3.2E1,1E1,7E0,5.08E2,2.06E2,3.7E1,5E0,5.6E1,1.9E1,1.64E2,5.5E1,6E1,1.56E2,1.453E3,5.44E2,3.58E2,4.26E2,4E0,1E0,1E0,4E0,1.4E1,6.5E1,1.6E1,1E1,5.64E2,6.1E1,9.3E1,2.9E1,2.3E1,1.55E2,3E0,5.7E1,5E0,4E0,2.7E1,4.03E2,1.2E1,2.8E1,3.88E2,1.2E1,2.63E2,7.39E2,9E0,9.6E1,3E0,7E0,5.22E2,9.8E1,2E0,1E0,6E0,1.2E1,2E0,2E0,6E0,4E0,6E0,3E0,2.3E1,9E0,8E0,2E0,3E0,4E0,2.29E2,2.79E2,1.86E2,2E1,1.4E1,2.3E1,3E0,2E0,2.9E1,2.7E1,6E0,1.3E1,3E0,1.61E2,1E1,4.5E1,3.9E1,2.1E1,3E0,1.53E2,3.82E2,1.071E3,3.77E2,1.67E2,1.24E2,2.34E2,8.9E1,3.37E2],"tree_param":{"num_deleted":"0","num_feature":"12","num_nodes":"177","size_leaf_vector":"0"}},{"base_weights":[3.0931154E-1,1.6991044E0,2.903946E-1,2.9981503E0,1.22182E0,-1.2246082E-2,3.2465434E-1,5.1303954E0,1.3259984E0,4.7684836E-1,1.8195273E0,1.435577E-1,-1.4387211E-1,7.374955E-2,3.6630335E-1,8.7028277E-1,7.993444E0,7.4727926E0,7.6167595E-1,1.1579394E0,2.6285678E-1,1.2284306E-1,1.9443572E0,1.3753248E-3,2.6117653E-1,-1.3032418E-1,-1.6429254E-1,-9.994346E-3,1.8516728E-1,4.738016E-1,3.4288865E-1,2.1914835E0,-1.3735595E-1,4.331258E-1,9.162095E0,2.414621E0,5.8918345E-1,4.323326E-1,2.198776E0,-1.375526E-1,4.316526E-1,4.598103E-2,2.1592836E-1,2.193118E0,8.996595E-1,-3.9241076E-2,2.4168877E-2,2.094513E-1,3.5485086E-1,-2.5113252E-1,-1.2612231E-1,-2.1916457E-1,-1.5723535E-1,-3.30116E-2,2.3576342E-2,3.53687E-1,1.7486298E-1,1.0129035E0,4.399377E-1,5.0041455E-1,3.2040203E-1,4.257174E-1,3.3985114E0,9.769268E-2,7.151493E-1,5.3364056E-1,2.1971294E-1,3.1365535E0,-0E0,1.6632193E0,3.4379683E0,-5.1495045E-2,-5.056251E-3,1.1258388E-1,1.3423724E-2,4.6665168E-1,1.8647465E-1,5.70988E-1,3.197981E-1,-4.9812597E-1,-1.4465666E-1,-8.846693E-2,-1.293375E-1,-8.374953E-1,-1.6655676E-1,-1.4652742E-1,-2.0842375E-1,2.2176367E-1,-3.4783635E-2,7.3387876E-2,-6.864439E-3,1.5351988E-1,7.301465E-1,2.1921135E-1,1.3208964E-1,5.119757E-1,1.4874508E0,3.6826867E-1,5.9039587E-1,4.258708E-1,6.0203743E-1,2.9354268E-1,3.8530186E-1,1.291999E-1,6.823855E-1,8.036945E-2,2.9341418E-1,1.2959098E0,4.182118E0,1.2060704E0,3.655818E0,-6.1587606E-2,-1.9928034E-2,2.7924731E-2,-3.954656E-2,-0E0,1.746835E-1,9.142525E-2,4.7739437E-3,1.6586573E-1,5.8021075E-1,-1.0815412E-1,2.0251672E-1,-1.7731725E-1,7.8507555E-1,3.5602823E-1,1.9171993E-1,-1.8173942E-1,-6.7924535E-1,-2.6802504E-2,-1.1108311E-1,-1.3779531E-1,-1.16772E-1,-1.1051612E-1,-2.3600386E-1,-1.5794389E-1,-1.2943213E-1,-4.365049E-1,-1.7062981E-1,3.7347484E-2,-3.7757188E-2,5.4236405E-2,1.285359E-1,1.1298189E-1,-1.81246E-2,7.157118E-1,5.7428893E-2,1.095361E0,6.285916E-1,1.9647089E-1,3.8634464E-1,8.807124E-2,1.72694E-1,1.381967E0,2.4218072E-1,2.7798057E0,7.7696383E-1,3.4193066E-1,4.9778068E-1,3.1742385E-1,6.742143E-1,7.047582E-1,3.6532998E-1,1.0299218E0,5.383517E-1,2.736224E-1,3.612594E-1,3.4648532E-1,4.435002E-1],"categories":[],"categories_nodes":[],"categories_segments":[],"categories_sizes":[],"default_left":[true,true,true,true,true,true,true,true,true,true,true,true,true,true,true,true,true,false,true,true,true,true,true,true,true,true,true,true,true,true,true,true,false,false,false,false,true,true,true,false,false,false,false,true,false,true,true,true,true,true,true,true,true,true,true,true,true,true,true,true,true,false,false,false,false,true,true,true,false,false,true,true,true,true,true,true,true,true,true,true,false,true,true,false,true,true,true,false,true,true,true,true,true,true,true,true,true,true,true,true,true,true,true,false,false,false,false,false,false,false,false,false,false,false,false,false,false,false,false,false,false,false,false,false,false,false,false,false,false,false,false,false,false,false,false,false,false,false,false,false,false,false,false,false,false,false,false,false,false,false,false,false,false,false,false,false,false,false,false,false,false,false,false,false,false,false,false,false,false],"id":97,"left_children":[1,3,5,7,9,11,13,15,17,19,21,23,25,27,29,31,33,-1,35,37,39,41,43,45,47,49,51,53,55,57,59,61,-1,-1,-1,-1,63,65,67,-1,-1,-1,-1,69,-1,71,73,75,77,79,81,83,85,87,89,91,93,95,97,99,101,-1,-1,-1,-1,103,105,107,-1,-1,109,111,113,115,117,119,121,123,125,127,-1,129,131,-1,133,135,137,-1,139,141,143,145,147,149,151,153,155,157,159,161,163,165,167,-1,-1,-1,-1,-1,-1,-1,-1,-1,-1,-1,-1,-1,-1,-1,-1,-1,-1,-1,-1,-1,-1,-1,-1,-1,-1,-1,-1,-1,-1,-1,-1,-1,-1,-1,-1,-1,-1,-1,-1,-1,-1,-1,-1,-1,-1,-1,-1,-1,-1,-1,-1,-1,-1,-1,-1,-1,-1,-1,-1,-1,-1,-1,-1,-1,-1],"loss_changes":[2.0814282E2,6.4646515E1,8.1069336E1,9.866057E1,3.455786E1,1.6317455E1,7.337811E1,1.4798398E2,5.4641594E1,5.0280075E0,9.068756E0,6.089001E0,1.07987404E-1,9.336782E0,1.5095154E1,7.230093E0,6.33338E1,0E0,3.8546295E0,5.939226E0,1.871394E0,1.6803272E-2,9.7798E0,1.5316568E-1,9.330015E-1,1.16714954E-1,4.9099922E-2,4.418664E-1,7.1736526E-1,1.9480316E1,1.745935E1,4.4363785E0,0E0,0E0,0E0,0E0,8.525076E-1,6.503862E-2,6.840563E0,0E0,0E0,0E0,0E0,1.9349014E1,0E0,2.3961298E-2,9.871893E-2,7.2597504E-1,4.592619E-1,1.8596292E-1,2.3748398E-2,5.355319E-1,6.825018E-2,1.5310428E-1,3.5340458E-1,1.7836604E0,7.5422096E-1,1.4772774E1,1.084079E1,4.576355E0,7.5010986E0,0E0,0E0,0E0,0E0,1.5955997E-1,1.0768801E-2,2.6053562E0,0E0,0E0,2.998413E0,1.22336745E-2,1.9113757E-2,8.0122665E-2,6.280338E-2,3.1022573E-1,5.726743E-1,1.5503395E0,2.5403023E-1,8.026987E-2,0E0,2.6792303E-2,1.5694618E-2,0E0,5.3819E-2,1.3935089E-2,1.8487918E-1,0E0,7.2829336E-2,8.836299E-2,1.9410628E-1,8.5762525E-1,5.4885387E-2,7.201786E-1,3.6178374E-1,7.219795E0,2.8917671E1,2.2758255E0,7.381027E0,5.9321213E0,6.886856E0,4.0915833E0,2.7982178E0,0E0,0E0,0E0,0E0,0E0,0E0,0E0,0E0,0E0,0E0,0E0,0E0,0E0,0E0,0E0,0E0,0E0,0E0,0E0,0E0,0E0,0E0,0E0,0E0,0E0,0E0,0E0,0E0,0E0,0E0,0E0,0E0,0E0,0E0,0E0,0E0,0E0,0E0,0E0,0E0,0E0,0E0,0E0,0E0,0E0,0E0,0E0,0E0,0E0,0E0,0E0,0E0,0E0,0E0,0E0,0E0,0E0,0E0,0E0,0E0,0E0,0E0,0E0,0E0,0E0,0E0],"parents":[2147483647,0,0,1,1,2,2,3,3,4,4,5,5,6,6,7,7,8,8,9,9,10,10,11,11,12,12,13,13,14,14,15,15,16,16,18,18,19,19,20,20,21,21,22,22,23,23,24,24,25,25,26,26,27,27,28,28,29,29,30,30,31,31,36,36,37,37,38,38,43,43,45,45,46,46,47,47,48,48,49,49,50,50,51,51,52,52,53,53,54,54,55,55,56,56,57,57,58,58,59,59,60,60,65,65,66,66,67,67,70,70,71,71,72,72,73,73,74,74,75,75,76,76,77,77,78,78,79,79,81,81,82,82,84,84,85,85,86,86,88,88,89,89,90,90,91,91,92,92,93,93,94,94,95,95,96,96,97,97,98,98,99,99,100,100,101,101,102,102],"right_children":[2,4,6,8,10,12,14,16,18,20,22,24,26,28,30,32,34,-1,36,38,40,42,44,46,48,50,52,54,56,58,60,62,-1,-1,-1,-1,64,66,68,-1,-1,-1,-1,70,-1,72,74,76,78,80,82,84,86,88,90,92,94,96,98,100,102,-1,-1,-1,-1,104,106,108,-1,-1,110,112,114,116,118,120,122,124,126,128,-1,130,132,-1,134,136,138,-1,140,142,144,146,148,150,152,154,156,158,160,162,164,166,168,-1,-1,-1,-1,-1,-1,-1,-1,-1,-1,-1,-1,-1,-1,-1,-1,-1,-1,-1,-1,-1,-1,-1,-1,-1,-1,-1,-1,-1,-1,-1,-1,-1,-1,-1,-1,-1,-1,-1,-1,-1,-1,-1,-1,-1,-1,-1,-1,-1,-1,-1,-1,-1,-1,-1,-1,-1,-1,-1,-1,-1,-1,-1,-1,-1,-1],"split_conditions":[5E-1,2.7272727E-2,5.5555556E-2,1.6666667E-1,1.6666667E-1,9.8790765E-1,7.920965E-1,5.5555556E-2,9.5682657E-1,9.8790765E-1,5.4892205E-2,3.9510223E-1,7.5757575E-1,3.9510223E-1,2.6206896E-1,8.231776E-1,5.629188E-1,1.4945585E-1,9.8790765E-1,3.9510223E-1,5.5555556E-2,5.4084355E-1,3.888889E-1,7.6129995E-2,9.5682657E-1,4.1296717E-4,1.6034484E-1,1.3484347E-1,1.6034484E-1,1.2389015E-3,5.181818E-1,3.9510223E-1,-2.747119E-3,8.662515E-3,1.832419E-1,4.829242E-2,2.777778E-1,8.513586E-2,5.5555556E-2,-2.751052E-3,8.633052E-3,9.196206E-4,4.318567E-3,2.777778E-1,1.799319E-2,8.30303E-1,1.7931035E-1,1.6034484E-1,2.1896552E-1,3.5344827E-1,5.0082594E-1,3.5106385E-1,6.189655E-1,7.241379E-2,3.2586205E-1,7.0297873E-1,7.008511E-1,7.008511E-1,9.9787235E-1,4.0862072E-1,8.30303E-1,8.514348E-3,6.797022E-2,1.9538535E-3,1.4302986E-2,3.6677136E-3,5.5555556E-2,8.110852E-1,-0E0,3.3264387E-2,8.231776E-1,1.6878912E-2,3.6677136E-3,2.2170213E-1,1.2389015E-3,1.2931034E-1,1.2389015E-3,2.4936171E-1,9.9787235E-1,2.6034483E-1,-2.893133E-3,4.2424244E-1,4.7413793E-1,-1.6749905E-2,1.5E-1,3.2586205E-1,6.2586206E-1,4.4352734E-3,3.3636364E-1,9.212121E-1,5.0082594E-1,5.0082594E-1,1.6666667E-1,3.9234042E-1,7.5757575E-1,9.6551724E-2,2.086207E-1,3.888889E-1,1.6666667E-1,7.4893616E-2,5.0082594E-1,6.9482756E-1,3.7586206E-1,2.583998E-3,1.364771E-2,1.607389E-3,5.8682836E-3,2.5918195E-2,8.3642356E-2,2.4121407E-2,7.3116355E-2,-1.2317521E-3,-3.985607E-4,5.584946E-4,-7.9093117E-4,-0E0,3.49367E-3,1.828505E-3,9.547887E-5,3.3173147E-3,1.1604215E-2,-2.1630824E-3,4.0503344E-3,-3.5463448E-3,1.570151E-2,7.1205646E-3,3.8343987E-3,-3.6347883E-3,-1.3584907E-2,-5.3605007E-4,-2.2216623E-3,-2.7559062E-3,-2.33544E-3,-2.2103225E-3,-4.720077E-3,-3.1588776E-3,-2.5886425E-3,-8.730098E-3,-3.4125962E-3,7.469497E-4,-7.5514376E-4,1.084728E-3,2.5707178E-3,2.259638E-3,-3.6249202E-4,1.4314235E-2,1.1485778E-3,2.190722E-2,1.2571831E-2,3.9294176E-3,7.726893E-3,1.7614248E-3,3.4538798E-3,2.7639339E-2,4.843614E-3,5.5596113E-2,1.5539276E-2,6.838613E-3,9.955613E-3,6.3484767E-3,1.3484286E-2,1.4095164E-2,7.3065995E-3,2.0598436E-2,1.0767034E-2,5.4724477E-3,7.225188E-3,6.9297063E-3,8.870004E-3],"split_indices":[0,2,4,4,4,6,6,4,6,6,9,6,2,6,3,6,6,0,6,6,4,6,4,6,6,8,3,6,3,8,2,6,0,0,0,0,4,6,4,0,0,0,0,4,0,2,3,3,3,3,8,10,3,3,3,10,10,10,10,3,2,0,0,0,0,6,4,6,0,0,6,6,6,10,8,3,8,10,10,3,0,2,3,0,3,3,3,0,2,2,8,8,4,10,2,3,3,4,4,10,8,3,3,0,0,0,0,0,0,0,0,0,0,0,0,0,0,0,0,0,0,0,0,0,0,0,0,0,0,0,0,0,0,0,0,0,0,0,0,0,0,0,0,0,0,0,0,0,0,0,0,0,0,0,0,0,0,0,0,0,0,0,0,0,0,0,0,0,0],"split_type":[0,0,0,0,0,0,0,0,0,0,0,0,0,0,0,0,0,0,0,0,0,0,0,0,0,0,0,0,0,0,0,0,0,0,0,0,0,0,0,0,0,0,0,0,0,0,0,0,0,0,0,0,0,0,0,0,0,0,0,0,0,0,0,0,0,0,0,0,0,0,0,0,0,0,0,0,0,0,0,0,0,0,0,0,0,0,0,0,0,0,0,0,0,0,0,0,0,0,0,0,0,0,0,0,0,0,0,0,0,0,0,0,0,0,0,0,0,0,0,0,0,0,0,0,0,0,0,0,0,0,0,0,0,0,0,0,0,0,0,0,0,0,0,0,0,0,0,0,0,0,0,0,0,0,0,0,0,0,0,0,0,0,0,0,0,0,0,0,0],"sum_hessian":[7.924E3,1.06E2,7.818E3,2.8E1,7.8E1,7.95E2,7.023E3,1.2E1,1.6E1,3.5E1,4.3E1,3.64E2,4.31E2,1E3,6.023E3,5E0,7E0,1E0,1.5E1,8E0,2.7E1,3E0,4E1,1.65E2,1.99E2,2.61E2,1.7E2,5.71E2,4.29E2,1.076E3,4.947E3,2E0,3E0,1E0,6E0,1E0,1.4E1,5E0,3E0,8E0,1.9E1,2E0,1E0,3.2E1,8E0,5.9E1,1.06E2,1.29E2,7E1,8E0,2.53E2,1.8E1,1.52E2,3.39E2,2.32E2,2.4E1,4.05E2,6.3E1,1.013E3,6.17E2,4.33E3,1E0,1E0,3E0,1.1E1,3E0,2E0,2E0,1E0,2.3E1,9E0,4.3E1,1.6E1,1.1E1,9.5E1,1E1,1.19E2,9E0,6.1E1,2E0,6E0,2.1E1,2.32E2,1E0,1.7E1,1.27E2,2.5E1,2E0,3.37E2,8.8E1,1.44E2,1.6E1,8E0,1.98E2,2.07E2,3.1E1,3.2E1,6.87E2,3.26E2,3.57E2,2.6E2,3.064E3,1.266E3,1E0,2E0,1E0,1E0,1E0,1E0,1E0,8E0,3.2E1,1.1E1,8E0,8E0,4E0,7E0,9E0,8.6E1,3E0,7E0,6E0,1.13E2,2E0,7E0,4.7E1,1.4E1,1E0,1E0,6E0,1.5E1,1.36E2,9.6E1,1E1,7E0,7.4E1,5.3E1,3E0,2.2E1,1.3E1,3.24E2,6.6E1,2.2E1,1.2E1,1.32E2,2E0,1.4E1,1E0,7E0,1.75E2,2.3E1,1E2,1.07E2,7E0,2.4E1,1.1E1,2.1E1,5.72E2,1.15E2,7.7E1,2.49E2,6.3E1,2.94E2,3.3E1,2.27E2,2.369E3,6.95E2,7.61E2,5.05E2],"tree_param":{"num_deleted":"0","num_feature":"12","num_nodes":"169","size_leaf_vector":"0"}},{"base_weights":[2.9614383E-1,-5.8947317E-2,6.186707E-1,1.2044479E-1,-1.9164735E-1,7.5069857E0,5.913045E-1,-4.820434E-3,2.8050205E-1,-1.8021882E0,-1.823606E-1,1.1379076E1,3.3327847E0,2.3203142E0,5.612208E-1,2.8653565E-1,-1.0240554E-2,2.3335001E0,2.7054775E-1,-1.2642074E-1,-2.1210659E0,-2.5371358E-1,-1.46531155E-2,3.5811026E0,3.0911938E1,-1.0876048E1,5.766823E0,1.2095388E0,2.886665E0,6.2751997E-1,3.05863E-1,3.5064405E-1,2.0924956E-1,6.6922754E-2,-2.4881853E-2,3.347539E0,1.4144351E0,2.174605E-1,4.039435E-1,-1.2292773E-1,-3.0456173E-1,-9.3322885E-1,4.8244814E-3,1.1614657E1,-1.0170591E0,3.8520527E1,1.5562264E1,-1.7097738E0,1.1077626E1,4.710407E0,-2.1091694E-2,5.1953135E0,2.028886E0,-5.1121795E-1,6.329166E-1,2.871409E-1,4.2538267E-1,2.6611015E-1,5.23862E-1,-3.8747776E-2,3.5384157E-1,1.2825964E-1,5.3778473E-2,-3.5666823E-2,1.778472E-2,5.6565374E-1,2.0025799E-1,4.528E-1,2.3540783E-1,-1.1593558E-1,-1.3276398E-1,-7.2599113E-1,-2.9191554E-1,-1.3683022E0,-6.1572367E-1,1.1674246E0,-8.877081E-3,-2.2778647E0,2.3784058E0,4.5500302E-1,-2.7086165E0,2.2708445E0,8.56163E0,6.2562275E-1,-3.5377806E-1,8.086664E0,3.4821808E0,-3.135301E-1,2.633117E0,-7.115403E-1,7.003694E-1,8.1648064E-1,5.967739E-1,4.1102257E-1,2.672547E-1,7.3631525E-1,2.812996E-1,4.3540984E-1,1.5117684E-1,9.027772E-2,-2.6553935E-1,6.835636E-1,2.2186075E-1,1.8094966E-1,9.2467636E-2,1.4365869E-2,7.57911E-2,-2.5031468E-2,-1.1673515E-1,6.1461255E-2,-1.0040431E-1,8.105678E-1,4.833379E-1,-1.1464596E-1,2.3722605E-1,8.73237E-1,4.1494128E-1,1.888255E-1,4.3296218E-1,-1.274812E-1,-1.0692053E-1,-6.139016E-2,-1.3382334E-1,-5.95008E-1,-1.2094377E0,-1.9879802E-1,-3.3428633E-1,-1.45648E-1,-7.542445E-1,6.4320284E-1,2.1926587E0,-5.067973E-1,1.6645482E-2,2.7346148E0,5.329061E-1,6.712767E-1,2.758697E-1,-4.379929E-1,4.397575E-1,4.32835E0,2.3647575E0,4.2624807E-1,-1.2481468E0,3.4068902E0,1.4392433E0,8.1238604E-1,-8.582223E-1,6.3740903E-1,9.9928087E-1,3.6986986E-1,6.309945E-1,2.9961094E-1,5.1721424E-1,3.1124127E-1,1.4641875E-1,2.8672764E-1,2.7775593E0,3.5807598E-1,2.6929997E-2],"categories":[],"categories_nodes":[],"categories_segments":[],"categories_sizes":[],"default_left":[true,true,true,true,true,true,true,true,true,true,true,true,true,true,true,true,true,true,true,false,false,true,true,true,true,false,true,true,true,true,true,true,true,true,true,false,false,true,true,true,true,true,true,false,true,false,false,true,false,true,true,true,true,true,true,true,true,true,false,true,true,true,true,true,true,true,true,true,true,true,true,true,true,false,true,true,true,false,false,false,false,true,false,true,true,false,true,true,true,true,false,true,true,true,true,true,true,false,false,false,false,false,false,false,false,false,false,false,false,false,false,false,false,false,false,false,false,false,false,false,false,false,false,false,false,false,false,false,false,false,false,false,false,false,false,false,false,false,false,false,false,false,false,false,false,false,false,false,false,false,false,false,false,false,false,false,false,false,false],"id":98,"left_children":[1,3,5,7,9,11,13,15,17,19,21,23,25,27,29,31,33,35,37,-1,-1,39,41,43,45,-1,47,49,51,53,55,57,59,61,63,-1,-1,65,67,69,71,73,75,-1,77,-1,-1,79,-1,81,83,85,87,89,91,93,95,97,-1,99,101,103,105,107,109,111,113,115,117,119,121,123,125,-1,127,129,131,-1,-1,-1,-1,133,-1,135,137,-1,139,141,143,145,-1,147,149,151,153,155,157,-1,-1,-1,-1,-1,-1,-1,-1,-1,-1,-1,-1,-1,-1,-1,-1,-1,-1,-1,-1,-1,-1,-1,-1,-1,-1,-1,-1,-1,-1,-1,-1,-1,-1,-1,-1,-1,-1,-1,-1,-1,-1,-1,-1,-1,-1,-1,-1,-1,-1,-1,-1,-1,-1,-1,-1,-1,-1,-1,-1,-1,-1],"loss_changes":[9.037865E2,8.94295E1,7.779447E2,3.2030293E1,3.2158554E1,2.511394E2,2.1379138E2,1.4125135E0,1.4084873E1,6.4690933E0,2.5690842E1,1.2319204E3,3.0905432E2,4.3023254E1,6.8477905E1,4.8473477E-2,9.9453104E-1,1.4598141E0,4.9071693E0,0E0,0E0,9.998863E0,1.1489257E1,2.380462E2,7.1848145E1,0E0,2.9763788E2,1.0493529E2,8.8136566E1,1.9863037E1,1.8182983E0,6.426942E-2,3.0789182E-1,1.0824424E-1,3.411368E-1,0E0,0E0,2.9481983E0,1.5877304E0,2.0366669E-2,5.693741E0,1.5326118E0,1.002898E1,0E0,2.0356895E1,0E0,0E0,7.650997E0,0E0,5.2866943E1,4.014433E0,5.1535645E1,4.890262E1,3.8878984E0,2.1043335E1,1.7356491E0,4.948969E0,9.2920244E-2,0E0,1.0803772E-1,1.686086E-1,3.641033E-2,9.92789E-2,5.068456E-1,7.723747E-1,3.213067E-1,5.567644E0,2.3014374E0,3.810513E-1,1.8167019E-2,7.5058937E-3,1.7184258E0,4.1261215E0,0E0,4.9316692E-1,3.4306202E0,7.905835E0,0E0,0E0,0E0,0E0,2.9602222E0,0E0,2.5866508E-2,8.884195E-1,0E0,4.370819E0,5.259566E0,2.3546066E1,3.2136173E0,0E0,1.6960693E1,2.0673462E1,1.111887E0,3.2967072E0,3.2116875E1,1.5015821E0,0E0,0E0,0E0,0E0,0E0,0E0,0E0,0E0,0E0,0E0,0E0,0E0,0E0,0E0,0E0,0E0,0E0,0E0,0E0,0E0,0E0,0E0,0E0,0E0,0E0,0E0,0E0,0E0,0E0,0E0,0E0,0E0,0E0,0E0,0E0,0E0,0E0,0E0,0E0,0E0,0E0,0E0,0E0,0E0,0E0,0E0,0E0,0E0,0E0,0E0,0E0,0E0,0E0,0E0,0E0,0E0,0E0,0E0,0E0,0E0,0E0,0E0],"parents":[2147483647,0,0,1,1,2,2,3,3,4,4,5,5,6,6,7,7,8,8,9,9,10,10,11,11,12,12,13,13,14,14,15,15,16,16,17,17,18,18,21,21,22,22,23,23,24,24,26,26,27,27,28,28,29,29,30,30,31,31,32,32,33,33,34,34,37,37,38,38,39,39,40,40,41,41,42,42,44,44,47,47,49,49,50,50,51,51,52,52,53,53,54,54,55,55,56,56,57,57,59,59,60,60,61,61,62,62,63,63,64,64,65,65,66,66,67,67,68,68,69,69,70,70,71,71,72,72,74,74,75,75,76,76,81,81,83,83,84,84,86,86,87,87,88,88,89,89,91,91,92,92,93,93,94,94,95,95,96,96],"right_children":[2,4,6,8,10,12,14,16,18,20,22,24,26,28,30,32,34,36,38,-1,-1,40,42,44,46,-1,48,50,52,54,56,58,60,62,64,-1,-1,66,68,70,72,74,76,-1,78,-1,-1,80,-1,82,84,86,88,90,92,94,96,98,-1,100,102,104,106,108,110,112,114,116,118,120,122,124,126,-1,128,130,132,-1,-1,-1,-1,134,-1,136,138,-1,140,142,144,146,-1,148,150,152,154,156,158,-1,-1,-1,-1,-1,-1,-1,-1,-1,-1,-1,-1,-1,-1,-1,-1,-1,-1,-1,-1,-1,-1,-1,-1,-1,-1,-1,-1,-1,-1,-1,-1,-1,-1,-1,-1,-1,-1,-1,-1,-1,-1,-1,-1,-1,-1,-1,-1,-1,-1,-1,-1,-1,-1,-1,-1,-1,-1,-1,-1,-1,-1],"split_conditions":[6.621175E-1,6.572582E-1,2.7272727E-2,3.8399246E-1,2.7272727E-2,8.349742E-1,7.4137926E-2,7.4137926E-2,1.8181819E-1,5.5555556E-2,2.777778E-1,8.2218254E-1,1.6666667E-1,8.2218254E-1,7.090609E-2,1.24566406E-1,8.23977E-2,3.9780295E-1,6.341465E-1,-2.5284146E-3,-4.2421315E-2,5.5555556E-2,6.724138E-2,7.876776E-1,2.2222222E-1,-2.1752095E-1,8.7090075E-1,7.703592E-1,8.349742E-1,5.5555556E-2,9.212121E-1,9.062067E-2,2.4243233E-1,2.3393584E-2,3.279013E-1,6.6950776E-2,2.8288702E-2,3.8608843E-1,7.090609E-2,7.5757575E-1,7.4137926E-2,5.272727E-1,1.15517244E-1,2.3229314E-1,1.166234E-1,7.7041054E-1,3.112453E-1,8.4844077E-1,2.2155252E-1,7.635859E-1,1.6666667E-1,1.8181819E-1,8.571358E-1,8.2185304E-1,2.5344828E-1,7.2128004E-1,1.4619164E-1,3.4743626E-2,1.047724E-2,1.8071677E-1,2.8379714E-1,3.5106385E-1,3.5106385E-1,3.2117623E-1,3.757258E-1,2.1896552E-1,3.989272E-1,2.5689656E-1,9.212121E-1,3.1148937E-1,8.62069E-2,1.8181819E-1,3.5106385E-1,-2.7366044E-2,3.5106385E-1,9.3103446E-2,1.6034484E-1,-4.5557294E-2,4.7568116E-2,9.10006E-3,-5.417233E-2,7.554066E-1,1.712326E-1,8.0460525E-1,5E-1,1.6173328E-1,3.888889E-1,2.2222222E-1,6.893617E-1,7.510687E-1,1.4007388E-2,8.2218254E-1,7.554066E-1,5.8854413E-1,5.8854413E-1,3.327586E-1,8.9569235E-1,8.708197E-3,3.0235366E-3,1.8055543E-3,-5.310787E-3,1.36712715E-2,4.437215E-3,3.618993E-3,1.8493527E-3,2.8731738E-4,1.5158219E-3,-5.0062936E-4,-2.334703E-3,1.2292251E-3,-2.008086E-3,1.6211355E-2,9.666758E-3,-2.2929192E-3,4.744521E-3,1.746474E-2,8.2988255E-3,3.77651E-3,8.659244E-3,-2.549624E-3,-2.1384107E-3,-1.2278032E-3,-2.6764667E-3,-1.190016E-2,-2.4188753E-2,-3.9759604E-3,-6.6857263E-3,-2.91296E-3,-1.508489E-2,1.2864057E-2,4.385317E-2,-1.0135946E-2,3.3290964E-4,5.4692294E-2,1.0658122E-2,1.3425534E-2,5.517394E-3,-8.759858E-3,8.79515E-3,8.6567E-2,4.729515E-2,8.524961E-3,-2.4962936E-2,6.81378E-2,2.8784866E-2,1.624772E-2,-1.7164446E-2,1.274818E-2,1.9985616E-2,7.397397E-3,1.2619889E-2,5.992219E-3,1.0344285E-2,6.224825E-3,2.928375E-3,5.7345526E-3,5.5551186E-2,7.1615195E-3,5.385999E-4],"split_indices":[1,1,2,1,2,1,3,3,2,4,4,1,4,1,7,1,1,1,1,0,0,4,3,1,4,0,1,1,1,4,2,1,1,1,1,0,0,1,7,2,3,2,3,0,7,0,0,1,0,1,4,2,1,1,3,1,11,1,0,1,1,10,10,1,1,3,1,3,2,10,3,2,10,0,10,3,3,0,0,0,0,1,0,1,4,0,4,4,10,1,0,1,1,7,7,3,1,0,0,0,0,0,0,0,0,0,0,0,0,0,0,0,0,0,0,0,0,0,0,0,0,0,0,0,0,0,0,0,0,0,0,0,0,0,0,0,0,0,0,0,0,0,0,0,0,0,0,0,0,0,0,0,0,0,0,0,0,0,0],"split_type":[0,0,0,0,0,0,0,0,0,0,0,0,0,0,0,0,0,0,0,0,0,0,0,0,0,0,0,0,0,0,0,0,0,0,0,0,0,0,0,0,0,0,0,0,0,0,0,0,0,0,0,0,0,0,0,0,0,0,0,0,0,0,0,0,0,0,0,0,0,0,0,0,0,0,0,0,0,0,0,0,0,0,0,0,0,0,0,0,0,0,0,0,0,0,0,0,0,0,0,0,0,0,0,0,0,0,0,0,0,0,0,0,0,0,0,0,0,0,0,0,0,0,0,0,0,0,0,0,0,0,0,0,0,0,0,0,0,0,0,0,0,0,0,0,0,0,0,0,0,0,0,0,0,0,0,0,0,0,0],"sum_hessian":[7.891E3,3.756E3,4.135E3,1.597E3,2.159E3,1.6E1,4.119E3,8.96E2,7.01E2,1.2E1,2.147E3,8E0,8E0,7E1,4.049E3,1.6E1,8.8E2,3E0,6.98E2,2E0,1E1,1.506E3,6.41E2,6E0,2E0,1E0,7E0,2.4E1,4.6E1,3.214E3,8.35E2,8E0,8E0,1.4E2,7.4E2,1E0,2E0,5E2,1.98E2,4.22E2,1.084E3,1.3E1,6.28E2,2E0,4E0,1E0,1E0,3E0,4E0,6E0,1.8E1,1.2E1,3.4E1,1.5E1,3.199E3,7.23E2,1.12E2,6E0,2E0,3E0,5E0,2.4E1,1.16E2,5.91E2,1.49E2,2.3E1,4.77E2,1.53E2,4.5E1,2.5E2,1.72E2,3.1E1,1.053E3,5E0,8E0,7E0,6.21E2,3E0,1E0,1E0,2E0,4E0,2E0,6E0,1.2E1,4E0,8E0,7E0,2.7E1,1.3E1,2E0,5.25E2,2.674E3,9.9E1,6.24E2,3.5E1,7.7E1,2E0,4E0,2E0,1E0,1E0,4E0,9E0,1.5E1,4.2E1,7.4E1,5.23E2,6.8E1,1.09E2,4E1,5E0,1.8E1,5E1,4.27E2,1.2E1,1.41E2,3.7E1,8E0,1.07E2,1.43E2,3E0,1.69E2,2.5E1,6E0,3.3E2,7.23E2,2E0,6E0,5E0,2E0,3E1,5.91E2,3E0,1E0,5E0,1E0,1.1E1,1E0,4E0,4E0,4E0,3E0,1.6E1,1.1E1,1E0,1.2E1,2.66E2,2.59E2,3.51E2,2.323E3,4.9E1,5E1,4.57E2,1.67E2,2.9E1,6E0,5.9E1,1.8E1],"tree_param":{"num_deleted":"0","num_feature":"12","num_nodes":"159","size_leaf_vector":"0"}},{"base_weights":[2.8106636E-1,2.734432E0,2.72471E-1,1.5360404E0,4.149231E0,-2.3638803E-4,3.018104E-1,2.3200235E0,-6.292471E-1,7.18651E0,3.6685271E0,-2.466431E-2,3.3041783E-2,-1.4642705E-4,3.2957196E-1,4.1877246E-1,2.4891186E0,1.9717693E-1,-2.7928144E-2,1.0259118E-1,1.7860996E-2,2.6559392E-1,-1.2624367E-1,8.5719085E-1,3.1336564E-1,1.2277564E0,2.9473464E0,6.733113E-1,6.313129E-2,8.097165E-3,-3.3779036E-2,1.9932771E-2,1.3691211E-1,4.2040724E-2,-1.6353207E-3,3.0482786E0,2.3075515E-1,3.081599E-4,-1.2884092E-1,7.826235E-1,2.1438844E0,2.0142832E-1,3.2930297E-1,3.297331E0,-1.2425364E-1,-2.2852883E-2,3.37469E-1,-1.6873445E-2,5.819758E-2,-4.4289093E-2,-2.2058211E-2,1.7483352E-1,-1.5560389E-2,2.102989E-1,1.0651517E-1,2.9423652E-2,3.6840037E-1,-1.7029285E-2,1.5810652E-2,1.2552588E0,4.0682945E0,1.695718E-1,3.1654912E-1,-9.354273E-2,9.742694E-2,-1.5218891E-1,-1.2092686E-1,6.255547E-1,1.0130453E0,3.5957742E0,1.3844864E0,2.7566174E-1,1.812624E-1,6.696751E-1,3.2454246E-1,7.0641674E-2,-2.6155668E-1,-8.387892E-2,-1.2275733E-2,1.13601424E-1,-0E0,-5.569414E-2,-3.7214946E-2,-1.3055997E-2,-5.7709858E-2,2.1270621E-1,5.4140344E-2,-5.0514698E-2,4.3907434E-2,1.2337559E-1,3.3792332E-1,9.317676E-2,3.5259438E-1,-4.936302E-3,6.1542246E-2,9.946136E-1,7.6766655E-2,1.528988E-3,-4.688314E-2,6.6616476E-2,-1.5580631E-2,6.7182624E-1,1.6285986E-1,1.1254613E-1,3.3901677E-1,2.8085718E-1,-9.381355E-2,-1.270853E-1,-2.9535452E-1,-1.245287E-1,-8.611733E-2,5.8615017E-1,1.5319294E0,9.158452E-1,6.0215807E0,-3.819132E-1,2.886067E-1,-4.6127653E-1,1.8257979E-1,1.0259328E0,4.125247E-1,-1.3293914E-1,3.2650572E-1],"categories":[],"categories_nodes":[],"categories_segments":[],"categories_sizes":[],"default_left":[true,true,true,true,true,true,true,true,false,false,false,true,true,true,true,false,true,true,true,true,true,true,true,true,true,true,false,false,true,true,true,true,true,true,true,true,true,true,true,true,true,true,true,false,false,true,false,true,true,true,true,true,true,true,true,true,true,true,true,false,false,true,true,false,true,true,true,true,true,false,false,true,true,true,true,false,false,false,false,false,false,false,false,false,false,false,false,false,false,false,false,false,false,false,false,false,false,false,false,false,false,false,false,false,false,false,false,false,false,false,false,false,false,false,false,false,false,false,false,false,false,false,false],"id":99,"left_children":[1,3,5,7,9,11,13,15,-1,-1,-1,17,19,21,23,-1,25,27,29,31,33,35,37,39,41,43,-1,-1,45,47,49,51,53,55,57,59,61,63,65,67,69,71,73,-1,-1,75,-1,77,79,81,83,85,87,89,91,93,95,97,99,-1,-1,101,103,-1,105,107,109,111,113,-1,-1,115,117,119,121,-1,-1,-1,-1,-1,-1,-1,-1,-1,-1,-1,-1,-1,-1,-1,-1,-1,-1,-1,-1,-1,-1,-1,-1,-1,-1,-1,-1,-1,-1,-1,-1,-1,-1,-1,-1,-1,-1,-1,-1,-1,-1,-1,-1,-1,-1,-1,-1],"loss_changes":[1.6506323E2,4.4136993E1,6.2527344E1,2.654026E1,9.060806E0,6.1742705E-1,5.9148132E1,3.2545395E0,0E0,0E0,0E0,3.167988E-1,3.3693945E-1,1.9924788E1,5.5143066E1,0E0,4.7063904E0,3.7954628E-1,9.158486E-2,1.5950274E-1,1.252102E-1,1.8267551E1,1.3441753E-1,1.7852234E1,1.1154663E1,9.509224E0,0E0,0E0,1.3286915E-1,7.6396376E-2,4.4594318E-2,9.847707E-2,7.798433E-2,4.779728E-1,3.940688E-2,2.4888115E0,9.6900845E-1,7.9051495E-2,6.301594E-2,6.3643265E0,9.662136E0,1.1479626E0,8.804749E0,0E0,0E0,1.0559699E-1,0E0,1.0710685E-2,6.448778E-2,1.3743281E-2,5.565341E-2,7.590644E-3,3.0628243E-2,1.0524535E-1,7.8967154E-2,1.270864E-1,7.506559E-1,4.4070404E-2,1.10056415E-1,0E0,0E0,3.269248E-1,3.3987427E-1,0E0,1.6346948E-1,3.3486533E-1,3.06983E-2,3.5752296E0,3.376297E1,0E0,0E0,1.4513025E0,5.458164E-1,6.739788E0,4.878357E0,0E0,0E0,0E0,0E0,0E0,0E0,0E0,0E0,0E0,0E0,0E0,0E0,0E0,0E0,0E0,0E0,0E0,0E0,0E0,0E0,0E0,0E0,0E0,0E0,0E0,0E0,0E0,0E0,0E0,0E0,0E0,0E0,0E0,0E0,0E0,0E0,0E0,0E0,0E0,0E0,0E0,0E0,0E0,0E0,0E0,0E0,0E0,0E0],"parents":[2147483647,0,0,1,1,2,2,3,3,4,4,5,5,6,6,7,7,11,11,12,12,13,13,14,14,16,16,17,17,18,18,19,19,20,20,21,21,22,22,23,23,24,24,25,25,28,28,29,29,30,30,31,31,32,32,33,33,34,34,35,35,36,36,37,37,38,38,39,39,40,40,41,41,42,42,45,45,47,47,48,48,49,49,50,50,51,51,52,52,53,53,54,54,55,55,56,56,57,57,58,58,61,61,62,62,64,64,65,65,66,66,67,67,68,68,71,71,72,72,73,73,74,74],"right_children":[2,4,6,8,10,12,14,16,-1,-1,-1,18,20,22,24,-1,26,28,30,32,34,36,38,40,42,44,-1,-1,46,48,50,52,54,56,58,60,62,64,66,68,70,72,74,-1,-1,76,-1,78,80,82,84,86,88,90,92,94,96,98,100,-1,-1,102,104,-1,106,108,110,112,114,-1,-1,116,118,120,122,-1,-1,-1,-1,-1,-1,-1,-1,-1,-1,-1,-1,-1,-1,-1,-1,-1,-1,-1,-1,-1,-1,-1,-1,-1,-1,-1,-1,-1,-1,-1,-1,-1,-1,-1,-1,-1,-1,-1,-1,-1,-1,-1,-1,-1,-1,-1,-1],"split_conditions":[2.2506302E-3,2.777778E-1,3.9510223E-1,1.6666667E-1,9.689189E-1,1.3484347E-1,5.5555556E-2,3.8609636E-1,-1.2584942E-2,1.437302E-1,7.337054E-2,2.4576882E-2,2.1002881E-1,9.8790765E-1,3.9881166E-2,8.375449E-3,5.5555556E-2,5.5555556E-2,1.732085E-1,1.6680852E-1,5.9479654E-1,5E-1,2.1276595E-3,5E-1,9.5682657E-1,8.231776E-1,5.8946926E-2,1.3466226E-2,5E-1,5.0082594E-1,1.6878912E-2,5E-1,3.5106385E-1,5.792222E-1,1.6666667E-1,8.110852E-1,7.920965E-1,1.4169967E-1,2.3064458E-1,5.0082594E-1,5E-1,3.1445804E-1,1.48936175E-2,6.594662E-2,-2.4850727E-3,4.0821142E-2,6.74938E-3,1.6680852E-1,1.4593086E-1,3.5106385E-1,8.555095E-1,1.6666667E-1,1.5961468E-1,1.2990637E-1,1.9688514E-1,1.6666667E-1,5.7994235E-1,8.450666E-1,2.777778E-1,2.5105175E-2,8.136589E-2,3.2949224E-2,1.3234043E-1,-1.8708546E-3,1.4314008E-1,2.0201656E-1,9.396831E-1,3.907094E-2,2.0510639E-1,7.1915485E-2,2.7689729E-2,4.3482177E-2,3.1580842E-1,1.3656825E-1,4.474253E-2,1.4128335E-3,-5.2311337E-3,-1.6775783E-3,-2.4551465E-4,2.2720285E-3,-0E0,-1.1138828E-3,-7.442989E-4,-2.6111995E-4,-1.1541971E-3,4.254124E-3,1.0828068E-3,-1.010294E-3,8.7814865E-4,2.4675117E-3,6.7584664E-3,1.8635351E-3,7.0518875E-3,-9.872604E-5,1.2308449E-3,1.9892272E-2,1.5353331E-3,3.057976E-5,-9.376628E-4,1.3323295E-3,-3.1161262E-4,1.3436524E-2,3.257197E-3,2.2509226E-3,6.780335E-3,5.6171436E-3,-1.876271E-3,-2.541706E-3,-5.9070904E-3,-2.490574E-3,-1.7223465E-3,1.1723003E-2,3.0638587E-2,1.8316904E-2,1.2043161E-1,-7.6382635E-3,5.772134E-3,-9.225531E-3,3.6515957E-3,2.0518655E-2,8.250494E-3,-2.6587828E-3,6.5301144E-3],"split_indices":[5,4,6,4,6,6,4,6,0,0,0,5,5,6,5,0,4,4,5,10,5,0,10,4,6,6,0,0,0,8,6,0,10,5,4,6,6,5,5,8,0,5,10,0,0,7,0,10,5,10,5,4,5,5,5,4,5,5,4,0,0,5,10,0,5,5,5,5,10,0,0,5,5,5,5,0,0,0,0,0,0,0,0,0,0,0,0,0,0,0,0,0,0,0,0,0,0,0,0,0,0,0,0,0,0,0,0,0,0,0,0,0,0,0,0,0,0,0,0,0,0,0,0],"split_type":[0,0,0,0,0,0,0,0,0,0,0,0,0,0,0,0,0,0,0,0,0,0,0,0,0,0,0,0,0,0,0,0,0,0,0,0,0,0,0,0,0,0,0,0,0,0,0,0,0,0,0,0,0,0,0,0,0,0,0,0,0,0,0,0,0,0,0,0,0,0,0,0,0,0,0,0,0,0,0,0,0,0,0,0,0,0,0,0,0,0,0,0,0,0,0,0,0,0,0,0,0,0,0,0,0,0,0,0,0,0,0,0,0,0,0,0,0,0,0,0,0,0,0],"sum_hessian":[7.841E3,2.7E1,7.814E3,1.5E1,1.2E1,7.59E2,7.055E3,1.1E1,4E0,1E0,1.1E1,4.38E2,3.21E2,5.94E2,6.461E3,1E0,1E1,6E0,4.32E2,5.7E1,2.64E2,1.91E2,4.03E2,1.92E2,6.269E3,3E0,7E0,1E0,5E0,6E1,3.72E2,1.7E1,4E1,1.18E2,1.46E2,2E0,1.89E2,8E0,3.95E2,1.82E2,1E1,7.82E2,5.487E3,1E0,2E0,4E0,1E0,4E1,2E1,1.95E2,1.77E2,3E0,1.4E1,1.1E1,2.9E1,1.14E2,4E0,7.8E1,6.8E1,1E0,1E0,1.11E2,7.8E1,4E0,4E0,9.8E1,2.97E2,1.09E2,7.3E1,3E0,7E0,1.66E2,6.16E2,7.5E1,5.412E3,3E0,1E0,2E0,3.8E1,1E1,1E1,7.3E1,1.22E2,1.42E2,3.5E1,2E0,1E0,9E0,5E0,7E0,4E0,2.8E1,1E0,5.5E1,5.9E1,1E0,3E0,4.8E1,3E1,2.6E1,4.2E1,1E0,1.1E2,8E0,7E1,2E0,2E0,8.4E1,1.4E1,2.68E2,2.9E1,1.05E2,4E0,7.2E1,1E0,3E0,1.63E2,1E0,6.15E2,3.1E1,4.4E1,2.3E1,5.389E3],"tree_param":{"num_deleted":"0","num_feature":"12","num_nodes":"123","size_leaf_vector":"0"}},{"base_weights":[2.9075277E-1,-4.11708E-2,5.893244E-1,1.2254213E-1,-1.5821165E-1,8.219617E0,5.630988E-1,1.12565495E-2,2.9194102E-1,-1.8924084E0,-1.4520746E-1,3.6645684E-1,1.24119835E1,1.4692686E0,5.320232E-1,1.6354147E0,5.5163926E-3,5.860287E-1,2.567386E-1,-1.221237E-1,-2.135586E0,-2.0686996E-1,-4.3954803E-3,7.0787234E0,-1.7239125E0,3.0391693E1,6.124586E0,1.3169556E0,3.3120792E0,3.05439E-1,5.9092385E-1,4.7414058E-1,3.2478762E0,1.1109121E-2,-3.3336776E-1,1.4086561E0,5.25475E-1,2.0742588E-1,3.921462E-1,-2.940007E0,-1.7279441E0,-1.0953203E-1,-2.423525E-1,-1.0849795E-1,1.4042926E-1,-2.2727828E0,6.859363E-2,3.789857E1,1.5273831E1,-5.688212E-1,1.0805399E1,1.8561858E0,6.59025E-1,1.6924768E1,1.2473724E0,2.7923656E-1,4.6001896E-1,1.1767894E0,5.658355E-1,1.2528428E-3,1.6992971E-1,-1.781756E-1,-4.548855E-1,1.5909437E0,5.8999497E-1,2.585333E-1,6.89982E-1,1.8326423E-1,4.2660546E-1,2.4177413E-1,5.0829756E-1,-7.347145E-1,-1.9352034E0,-7.5857095E-2,-1.141462E-1,-3.3576387E-1,-1.4809553E-1,-6.3748665E-2,-1.3610381E0,1.6069894E0,1.1158921E-1,5.6113493E-1,-2.414604E0,1.049717E0,4.301082E0,-5.3743654E-1,1.1158E0,4.7670355E-1,2.0966022E0,4.9217075E-1,2.6566947E-1,7.757127E-1,2.934262E-1,4.38819E-1,1.5595849E0,3.4397087E-1,5.9991586E-1,1.0463018E-1,-9.431441E-3,4.2214563E-1,-5.593037E-3,-2.0668615E-1,-4.7738662E-1,5.634254E-1,3.1716533E-2,7.094278E-1,-1.6296333E-2,3.7313452E-1,1.6545731E-1,7.6451886E-1,1.13034174E-1,4.1237563E-1,9.262873E-2,5.63046E-1,3.2873282E-1,-1.2595187E-1,9.664896E-1,-1.16002835E-1,-6.6152595E-2,-3.4614816E-1,1.423495E0,-1.3101512E-1,-1.0416763E0,-1.5808591E0,-5.003386E-2,2.0814312E0,6.9346344E-1,-1.3264586E0,1.2923683E-1,2.8025415E0,3.3907947E-1,7.9204698E0,3.0161154E0,-7.195043E-1,6.516154E-1,2.1575482E0,7.266642E-1,7.895192E-1,-6.4839023E-1,6.094935E-1,2.920966E-1,3.5480326E-1,2.5095275E-1,3.8864416E-1,3.3613834E0,3.7497124E-1,4.9962338E-2,9.817304E-1,2.9493386E-1,4.4015446E0,1.328874E0,4.4552684E-1,1.7792805E-1,6.7702997E-1,4.623084E-1],"categories":[],"categories_nodes":[],"categories_segments":[],"categories_sizes":[],"default_left":[true,true,true,true,true,true,true,true,true,true,true,true,true,true,true,true,true,true,true,false,true,true,true,false,true,true,true,true,true,true,true,false,false,true,true,true,true,true,true,false,true,true,true,true,true,false,false,false,false,true,false,true,true,false,true,true,true,true,true,true,true,false,true,false,false,true,true,true,true,true,true,false,false,true,true,true,true,true,false,true,true,false,false,true,true,true,true,true,false,true,true,true,true,true,true,true,true,false,false,false,false,false,false,false,false,false,false,false,false,false,false,false,false,false,false,false,false,false,false,false,false,false,false,false,false,false,false,false,false,false,false,false,false,false,false,false,false,false,false,false,false,false,false,false,false,false,false,false,false,false,false,false,false,false,false],"id":100,"left_children":[1,3,5,7,9,11,13,15,17,19,21,23,25,27,29,31,33,35,37,-1,39,41,43,-1,45,47,49,51,53,55,57,-1,-1,59,61,63,65,67,69,-1,71,73,75,77,79,-1,-1,-1,-1,81,-1,83,85,-1,87,89,91,93,95,97,99,-1,101,-1,-1,103,105,107,109,111,113,-1,-1,115,117,119,121,123,-1,125,127,-1,-1,129,131,133,135,137,-1,139,141,143,145,147,149,151,153,-1,-1,-1,-1,-1,-1,-1,-1,-1,-1,-1,-1,-1,-1,-1,-1,-1,-1,-1,-1,-1,-1,-1,-1,-1,-1,-1,-1,-1,-1,-1,-1,-1,-1,-1,-1,-1,-1,-1,-1,-1,-1,-1,-1,-1,-1,-1,-1,-1,-1,-1,-1,-1,-1,-1,-1,-1,-1],"loss_changes":[7.892058E2,7.2269875E1,8.372554E2,2.9635662E1,4.9478264E1,4.7020636E2,1.1737158E2,8.824148E0,6.3909225E0,6.912285E0,1.8954174E1,7.898033E1,9.925154E2,3.7307434E1,5.384912E1,5.675337E0,1.7902119E0,3.0298462E0,3.6858177E0,0E0,2.9394913E0,5.2301483E0,1.00356E1,0E0,4.3469305E0,7.103027E1,2.3195764E2,4.5085846E1,2.831355E2,3.3259811E0,4.6881104E1,0E0,0E0,1.455378E0,2.5311005E-1,3.0257034E-1,2.6642838E0,2.1329536E0,2.5391006E0,0E0,1.6149883E0,5.7538986E-2,9.770248E0,2.1660889E1,1.1687986E1,0E0,0E0,0E0,0E0,7.4307313E0,0E0,1.3709692E2,3.2088264E1,0E0,5.7385273E0,2.0092278E0,6.237459E0,3.6843887E1,2.317102E1,9.707131E-1,2.4120517E0,0E0,3.879428E-3,0E0,0E0,1.6683244E0,5.4021835E-1,1.2204466E0,4.232397E0,1.6424315E0,7.4479675E-1,0E0,0E0,2.6568232E0,2.6594162E-2,1.0348934E1,8.398404E0,7.7390695E0,0E0,1.7906923E0,6.9767814E0,0E0,0E0,6.6071686E1,7.2492035E1,3.693314E0,1.6597248E1,2.0498219E0,0E0,9.214754E-1,8.4360504E-1,4.0878723E1,1.5627213E0,3.4265432E0,5.4574142E1,6.883976E0,2.8162476E1,0E0,0E0,0E0,0E0,0E0,0E0,0E0,0E0,0E0,0E0,0E0,0E0,0E0,0E0,0E0,0E0,0E0,0E0,0E0,0E0,0E0,0E0,0E0,0E0,0E0,0E0,0E0,0E0,0E0,0E0,0E0,0E0,0E0,0E0,0E0,0E0,0E0,0E0,0E0,0E0,0E0,0E0,0E0,0E0,0E0,0E0,0E0,0E0,0E0,0E0,0E0,0E0,0E0,0E0,0E0,0E0,0E0,0E0],"parents":[2147483647,0,0,1,1,2,2,3,3,4,4,5,5,6,6,7,7,8,8,9,9,10,10,11,11,12,12,13,13,14,14,15,15,16,16,17,17,18,18,20,20,21,21,22,22,24,24,25,25,26,26,27,27,28,28,29,29,30,30,33,33,34,34,35,35,36,36,37,37,38,38,40,40,41,41,42,42,43,43,44,44,49,49,51,51,52,52,54,54,55,55,56,56,57,57,58,58,59,59,60,60,62,62,65,65,66,66,67,67,68,68,69,69,70,70,73,73,74,74,75,75,76,76,77,77,79,79,80,80,83,83,84,84,85,85,86,86,87,87,89,89,90,90,91,91,92,92,93,93,94,94,95,95,96,96],"right_children":[2,4,6,8,10,12,14,16,18,20,22,24,26,28,30,32,34,36,38,-1,40,42,44,-1,46,48,50,52,54,56,58,-1,-1,60,62,64,66,68,70,-1,72,74,76,78,80,-1,-1,-1,-1,82,-1,84,86,-1,88,90,92,94,96,98,100,-1,102,-1,-1,104,106,108,110,112,114,-1,-1,116,118,120,122,124,-1,126,128,-1,-1,130,132,134,136,138,-1,140,142,144,146,148,150,152,154,-1,-1,-1,-1,-1,-1,-1,-1,-1,-1,-1,-1,-1,-1,-1,-1,-1,-1,-1,-1,-1,-1,-1,-1,-1,-1,-1,-1,-1,-1,-1,-1,-1,-1,-1,-1,-1,-1,-1,-1,-1,-1,-1,-1,-1,-1,-1,-1,-1,-1,-1,-1,-1,-1,-1,-1,-1,-1],"split_conditions":[6.621175E-1,6.572582E-1,2.7272727E-2,3.989272E-1,2.7272727E-2,8.2218254E-1,4.6813108E-2,2.7272727E-2,1.8266115E-1,5.5555556E-2,2.777778E-1,7.876776E-1,8.349742E-1,4.078142E-2,5.3197986E-1,2.4097994E-1,3.9022523E-1,2.2866402E-2,8.30303E-1,-2.442474E-3,1.6666667E-1,5.5555556E-2,6.832013E-1,1.4157447E-1,4.4444448E-1,2.2222222E-1,8.7090075E-1,8.349742E-1,4.1411594E-2,9.212121E-1,1.8427517E-2,9.482811E-3,6.495752E-2,3.8253418E-1,3.9342475E-1,2.9744682E-1,4.4565028E-1,6.474741E-1,6.028142E-1,-5.880014E-2,2.777778E-1,1.1307166E-1,1.6666667E-1,6.586244E-1,6.89323E-1,-4.5455653E-2,1.3718725E-3,7.579714E-1,3.054766E-1,2.777778E-1,2.1610798E-1,8.2218254E-1,8.5870504E-1,3.3849537E-1,4.4562478E-2,1.4575082E-1,1.4619164E-1,6.818182E-1,7.554066E-1,1.3636363E-1,3.8608843E-1,-3.563512E-3,1.764494E-1,3.1818874E-2,1.1799899E-2,1.6584766E-1,1.7581923E-1,4.1206574E-1,6.4979887E-1,4.3256068E-1,3.888889E-1,-1.469429E-2,-3.8704067E-2,1.1190133E-1,9.7344255E-1,9.9090743E-1,9.7560316E-1,5E-1,-2.7220761E-2,9.212121E-1,1.3882065E-1,1.1222699E-2,-4.8292078E-2,7.703592E-1,5E-1,3.3129275E-2,5E-1,2.777778E-1,4.1932043E-2,8.9569235E-1,7.2128004E-1,6.2630534E-1,8.960625E-1,8.084264E-2,7.554066E-1,7.290039E-1,8.349742E-1,2.0926036E-3,-1.8862882E-4,8.442912E-3,-1.1186074E-4,-4.133723E-3,-9.547732E-3,1.1268509E-2,6.343307E-4,1.4188555E-2,-3.2592664E-4,7.46269E-3,3.309146E-3,1.5290377E-2,2.2606833E-3,8.247512E-3,1.8525746E-3,1.1260919E-2,6.5746563E-3,-2.5190373E-3,1.9329792E-2,-2.3200565E-3,-1.3230519E-3,-6.922963E-3,2.84699E-2,-2.6203024E-3,-2.0833526E-2,-3.161718E-2,-1.0006771E-3,4.162862E-2,1.3869269E-2,-2.652917E-2,2.5847366E-3,5.605083E-2,6.7815892E-3,1.5840939E-1,6.0322307E-2,-1.4390086E-2,1.3032307E-2,4.315096E-2,1.4533283E-2,1.5790384E-2,-1.2967804E-2,1.218987E-2,5.8419323E-3,7.096065E-3,5.0190547E-3,7.772883E-3,6.722767E-2,7.4994247E-3,9.992467E-4,1.9634608E-2,5.898677E-3,8.803089E-2,2.657748E-2,8.910537E-3,3.5585607E-3,1.35405995E-2,9.246168E-3],"split_indices":[1,1,2,1,2,1,5,2,5,4,4,1,1,5,9,1,1,5,2,0,4,4,5,0,4,4,1,1,5,2,11,0,0,1,1,10,1,1,1,0,4,5,4,5,5,0,0,0,0,4,0,1,1,0,5,5,11,2,1,11,1,0,5,0,0,11,5,1,1,1,4,0,0,5,5,5,5,0,0,2,11,0,0,1,0,5,0,4,0,1,1,5,1,5,1,1,1,0,0,0,0,0,0,0,0,0,0,0,0,0,0,0,0,0,0,0,0,0,0,0,0,0,0,0,0,0,0,0,0,0,0,0,0,0,0,0,0,0,0,0,0,0,0,0,0,0,0,0,0,0,0,0,0,0,0],"split_type":[0,0,0,0,0,0,0,0,0,0,0,0,0,0,0,0,0,0,0,0,0,0,0,0,0,0,0,0,0,0,0,0,0,0,0,0,0,0,0,0,0,0,0,0,0,0,0,0,0,0,0,0,0,0,0,0,0,0,0,0,0,0,0,0,0,0,0,0,0,0,0,0,0,0,0,0,0,0,0,0,0,0,0,0,0,0,0,0,0,0,0,0,0,0,0,0,0,0,0,0,0,0,0,0,0,0,0,0,0,0,0,0,0,0,0,0,0,0,0,0,0,0,0,0,0,0,0,0,0,0,0,0,0,0,0,0,0,0,0,0,0,0,0,0,0,0,0,0,0,0,0,0,0,0,0],"sum_hessian":[7.963E3,3.771E3,4.192E3,1.572E3,2.199E3,1.4E1,4.178E3,9.49E2,6.23E2,1.6E1,2.183E3,5E0,9E0,1.38E2,4.04E3,3E0,9.46E2,6.6E1,5.57E2,2E0,1.4E1,1.518E3,6.65E2,1E0,4E0,2E0,7E0,1.28E2,1E1,8.34E2,3.206E3,2E0,1E0,9.31E2,1.5E1,4E0,6.2E1,4.09E2,1.48E2,4E0,1E1,4.06E2,1.112E3,3.87E2,2.78E2,3E0,1E0,1E0,1E0,3E0,4E0,7E1,5.8E1,1E0,9E0,7.14E2,1.2E2,1.31E2,3.075E3,8.77E2,5.4E1,7E0,8E0,3E0,1E0,2.4E1,3.8E1,3.69E2,4E1,6.5E1,8.3E1,2E0,8E0,5E1,3.56E2,5.58E2,5.54E2,3.74E2,1.3E1,5E0,2.73E2,2E0,1E0,5.3E1,1.7E1,1.6E1,4.2E1,5E0,4E0,4.2E1,6.72E2,4.1E1,7.9E1,4.5E1,8.6E1,4.1E2,2.665E3,8.2E1,7.95E2,2.2E1,3.2E1,1E0,7E0,1E1,1.4E1,3.7E1,1E0,3.1E1,3.38E2,1.9E1,2.1E1,3E1,3.5E1,6.3E1,2E1,4.8E1,2E0,3.42E2,1.4E1,5.55E2,3E0,5.44E2,1E1,3E0,3.71E2,3E0,2E0,3E0,2.7E2,1.5E1,3.8E1,4E0,1.3E1,1.4E1,2E0,1.1E1,3.1E1,4E0,1E0,2.6E1,1.6E1,9.4E1,5.78E2,3.6E1,5E0,5.9E1,2E1,9E0,3.6E1,6E0,8E1,2.54E2,1.56E2,1.707E3,9.58E2],"tree_param":{"num_deleted":"0","num_feature":"12","num_nodes":"155","size_leaf_vector":"0"}},{"base_weights":[2.772949E-1,2.6059315E0,2.689364E-1,4.0537995E-1,2.6809716E0,7.014897E-2,3.0754519E-1,-1.54734E-3,1.6979653E-1,8.2159746E-1,2.9115656E-1,-4.466226E-2,1.6755808E-2,8.693943E-1,1.6266745E-1,9.1130245E-1,3.835341E-1,4.336495E-1,2.682695E-1,-3.7680059E-3,-5.1670957E-2,2.2847256E-1,1.163038E-2,2.2192323E-1,1.4276083E-1,6.4663893E-1,1.3396918E0,-5.3862745E-1,4.4467998E-1,4.2810652E-1,3.9988308E0,1.332024E-1,2.7833825E-1,-2.5920302E-1,6.3641504E-3,-6.197754E-2,-3.801815E-2,2.9249188E-2,-9.163594E-3,1.7256638E-1,3.6215132E-1,-3.2388136E-1,1.4541075E-1,-5.089682E-1,7.06061E-1,7.4777675E-1,1.4844563E0,-1.1554172E-1,-8.163175E-1,9.565248E-2,5.9228396E-1,5.8336437E-1,3.244683E-1,2.1665756E-1,-9.430262E-2,4.3516332E-1,2.6727885E-1,8.85252E-2,-5.773464E-3,-1.1233827E-1,-5.848521E-2,-4.7414992E-2,-1.5317249E-2,2.4350487E-2,5.9906834E-1,8.220867E-4,-3.772951E-2,-1.2496734E-1,1.9229285E-1,-1.16854526E-1,3.781184E-1,1.5029015E-1,1.0197759E-2,-1.0293086E0,-8.952859E-2,7.484658E-1,-5.984619E-1,1.8401723E0,4.9960038E-1,1.7876854E0,1.0633821E0,-4.4271278E-1,1.7067939E-1,7.2372276E-1,-3.6406934E-2,3.715952E-1,8.632713E-1,4.403333E-1,1.8409067E-1,-1.3299847E-1,2.5249177E-1,-2.3706248E-1,6.948829E-2,6.48847E-2,5.116446E-1,3.810341E-1,2.5157666E-1],"categories":[],"categories_nodes":[],"categories_segments":[],"categories_sizes":[],"default_left":[true,true,true,false,false,true,true,true,true,true,true,true,true,false,true,true,true,true,true,true,true,false,true,true,true,true,true,true,true,true,false,true,true,false,true,true,true,true,true,true,true,false,true,true,true,true,true,false,false,true,true,true,true,true,true,true,true,false,false,false,false,false,false,false,false,false,false,false,false,false,false,false,false,false,false,false,false,false,false,false,false,false,false,false,false,false,false,false,false,false,false,false,false,false,false,false,false],"id":101,"left_children":[1,3,5,-1,-1,7,9,11,13,15,17,19,21,-1,23,25,27,29,31,33,35,-1,37,39,41,43,45,47,49,51,-1,53,55,-1,57,59,61,63,65,67,69,-1,71,73,75,77,79,-1,-1,81,83,85,87,89,91,93,95,-1,-1,-1,-1,-1,-1,-1,-1,-1,-1,-1,-1,-1,-1,-1,-1,-1,-1,-1,-1,-1,-1,-1,-1,-1,-1,-1,-1,-1,-1,-1,-1,-1,-1,-1,-1,-1,-1,-1,-1],"loss_changes":[1.5415845E2,4.2722473E0,6.066803E1,0E0,0E0,9.19252E0,5.56781E1,5.911866E-1,2.6230469E0,7.894562E0,2.0876404E1,6.3155144E-2,5.6574905E-1,0E0,6.1334324E-1,1.8881638E1,2.070858E0,1.6901276E1,7.5014343E0,9.042721E-2,2.4570405E-2,0E0,1.884433E-1,8.9436245E-1,5.0819874E-1,7.355751E0,5.110626E0,2.2940713E-1,1.6885643E0,1.4185608E1,0E0,7.3056936E0,8.875214E0,0E0,3.3595014E-2,1.4249831E-2,1.6639419E-2,7.631755E-1,6.766569E-2,5.919905E-1,2.810545E-1,0E0,2.6000404E-1,1.117348E0,5.7017593E0,3.2748423E0,5.8797607E0,0E0,0E0,4.3870583E-1,1.9467373E0,2.0878769E1,8.622383E0,3.5379105E0,2.4241061E0,9.562096E0,8.545898E0,0E0,0E0,0E0,0E0,0E0,0E0,0E0,0E0,0E0,0E0,0E0,0E0,0E0,0E0,0E0,0E0,0E0,0E0,0E0,0E0,0E0,0E0,0E0,0E0,0E0,0E0,0E0,0E0,0E0,0E0,0E0,0E0,0E0,0E0,0E0,0E0,0E0,0E0,0E0,0E0],"parents":[2147483647,0,0,1,1,2,2,5,5,6,6,7,7,8,8,9,9,10,10,11,11,12,12,14,14,15,15,16,16,17,17,18,18,19,19,20,20,22,22,23,23,24,24,25,25,26,26,27,27,28,28,29,29,31,31,32,32,34,34,35,35,36,36,37,37,38,38,39,39,40,40,42,42,43,43,44,44,45,45,46,46,49,49,50,50,51,51,52,52,53,53,54,54,55,55,56,56],"right_children":[2,4,6,-1,-1,8,10,12,14,16,18,20,22,-1,24,26,28,30,32,34,36,-1,38,40,42,44,46,48,50,52,-1,54,56,-1,58,60,62,64,66,68,70,-1,72,74,76,78,80,-1,-1,82,84,86,88,90,92,94,96,-1,-1,-1,-1,-1,-1,-1,-1,-1,-1,-1,-1,-1,-1,-1,-1,-1,-1,-1,-1,-1,-1,-1,-1,-1,-1,-1,-1,-1,-1,-1,-1,-1,-1,-1,-1,-1,-1,-1,-1],"split_conditions":[2.7272727E-2,3.8609636E-1,7.920965E-1,8.107599E-3,5.361943E-2,3.9510223E-1,9.6551724E-2,1.6878912E-2,3.2949224E-2,1.4097947E-1,1.8086064E-1,1.8518186E-1,8.793104E-2,1.7387886E-2,3.1445804E-1,3.3636364E-1,1.7365862E-1,1.803205E-1,2.137931E-1,5E-1,7.5757575E-1,4.5694513E-3,5.829132E-1,8.30303E-1,3.1517825E-1,2.1276595E-3,3.5106385E-1,6.545454E-1,3.5106385E-1,2.6206896E-1,7.997661E-2,3.3093265E-1,2.6206896E-1,-5.1840604E-3,1.1034483E-1,2.7931035E-1,4.4310343E-1,5.792222E-1,8.869283E-1,1.3793103E-1,4.5732804E-2,-6.477627E-3,9.875765E-1,2.1876125E-2,1.3206698E-1,6.818182E-1,1.343176E-1,-2.3108344E-3,-1.632635E-2,1.886028E-1,2.2767374E-1,4.2424244E-1,6.666666E-1,1.889629E-1,4.1897732E-1,6.545454E-1,5.181818E-1,1.7705039E-3,-1.1546928E-4,-2.2467652E-3,-1.1697041E-3,-9.482998E-4,-3.0634497E-4,4.8700973E-4,1.1981366E-2,1.6441734E-5,-7.5459015E-4,-2.4993466E-3,3.845857E-3,-2.3370904E-3,7.5623677E-3,3.0058029E-3,2.0395516E-4,-2.058617E-2,-1.7905717E-3,1.4969315E-2,-1.19692385E-2,3.6803447E-2,9.992007E-3,3.575371E-2,2.1267643E-2,-8.854255E-3,3.4135878E-3,1.4474454E-2,-7.2813866E-4,7.431904E-3,1.7265426E-2,8.806666E-3,3.6818134E-3,-2.6599693E-3,5.0498354E-3,-4.7412496E-3,1.3897658E-3,1.2976939E-3,1.0232892E-2,7.620682E-3,5.031533E-3],"split_indices":[2,6,6,0,0,6,3,6,5,5,5,5,3,0,5,2,5,5,3,0,2,0,5,2,5,10,10,2,10,3,0,5,3,0,3,3,3,5,5,3,5,0,5,5,5,2,5,0,0,5,5,2,2,5,5,2,2,0,0,0,0,0,0,0,0,0,0,0,0,0,0,0,0,0,0,0,0,0,0,0,0,0,0,0,0,0,0,0,0,0,0,0,0,0,0,0,0],"split_type":[0,0,0,0,0,0,0,0,0,0,0,0,0,0,0,0,0,0,0,0,0,0,0,0,0,0,0,0,0,0,0,0,0,0,0,0,0,0,0,0,0,0,0,0,0,0,0,0,0,0,0,0,0,0,0,0,0,0,0,0,0,0,0,0,0,0,0,0,0,0,0,0,0,0,0,0,0,0,0,0,0,0,0,0,0,0,0,0,0,0,0,0,0,0,0,0,0],"sum_hessian":[7.934E3,2.8E1,7.906E3,1E0,2.7E1,1.286E3,6.62E3,7.48E2,5.38E2,2.04E2,6.416E3,2.23E2,5.25E2,5E0,5.33E2,1.69E2,3.5E1,8.87E2,5.529E3,3.3E1,1.9E2,1.2E1,5.13E2,1.33E2,4E2,1.05E2,6.4E1,2E0,3.3E1,8.86E2,1E0,3.84E2,5.145E3,1E0,3.2E1,1.07E2,8.3E1,2.78E2,2.35E2,9.9E1,3.4E1,2E0,3.98E2,5E0,1E2,1.3E1,5.1E1,1E0,1E0,1E1,2.3E1,3.54E2,5.32E2,2.81E2,1.03E2,3.38E2,4.807E3,4E0,2.8E1,6E0,1.01E2,5.8E1,2.5E1,2.76E2,2E0,1.74E2,6.1E1,6E0,9.3E1,1E0,3.3E1,3.84E2,1.4E1,2E0,3E0,9.7E1,3E0,2E0,1.1E1,2.9E1,2.2E1,1E0,9E0,1.9E1,4E0,2.02E2,1.52E2,2.91E2,2.41E2,2.6E1,2.55E2,5.5E1,4.8E1,5.8E1,2.8E2,5.82E2,4.225E3],"tree_param":{"num_deleted":"0","num_feature":"12","num_nodes":"97","size_leaf_vector":"0"}},{"base_weights":[2.6459795E-1,-1.6898636E-3,2.9298243E-1,2.8252554E-1,-5.978216E-3,6.4971375E-1,2.7366954E-1,4.590639E-1,2.2676647E-1,-3.0537754E-2,2.7464312E-2,7.2299474E-1,3.2425597E-1,2.5215673E-1,3.8471577E-1,1.6939455E-1,2.766358E-1,3.733388E-2,-3.961364E-2,1.4519173E-1,2.0223912E-2,6.074316E-1,1.1520197E0,2.1068104E-1,1.4227256E0,3.5727176E-1,2.4388579E-1,7.384437E-1,3.271206E-1,1.20070174E-1,-2.0794582E-2,-5.68053E-2,-3.3694394E-2,7.554515E-2,2.4427934E-1,8.830271E-2,8.101982E-3,7.7361065E-1,3.0823532E-1,7.6913565E-1,2.7133272E0,8.682585E-2,1.2989739E0,1.8993862E0,7.9946035E-1,4.0868703E-1,-9.685376E-3,9.83894E-2,2.5606707E-1,1.7468086E0,6.936327E-1,-2.6737478E-1,3.3547607E-1,2.0230782E-1,5.581183E-3,-2.750991E-2,1.2143133E-1,-3.8930863E-2,-6.39923E-2,2.818175E-2,-3.509813E-2,-1.0058689E-2,1.4590743E-1,1.8475333E-1,4.5521894E-1,3.247672E-2,1.6914979E-1,3.3975583E-2,-6.1211716E-3,6.679044E-1,1.4885335E0,1.5859976E-1,6.2329626E-1,1.175237E0,3.363167E-1,1.04685456E-1,7.51778E0,-1.0656814E-1,4.9039227E-1,2.759645E0,8.498859E-1,3.7151048E-1,7.3061204E-1,1.0752456E-1,-5.424923E-1,-6.2273836E-1,1.1886053E-1,3.4815118E-1,2.4460694E-1,5.2993804E-1,2.7846541E0,3.2135484E-1,7.909552E-1,4.5869553E-1,-4.943495E-1,4.2242062E-1,2.972528E-1,5.595501E-2,2.9760244E-1,6.443939E-2,-2.343912E-2,-4.9126998E-2,-1.0776298E-2,-1.0808623E-1,-3.2030225E-2,9.499207E-4,-6.617016E-2,-7.738524E-3,6.5561846E-2,-3.653053E-2,1.1576541E-2,1.4090179E-1,-5.9028964E-2,2.4199386E-1,1.3642183E-1,-1.0104008E-2,1.3167515E-1,2.842463E-1,6.949071E-2,2.3054317E-2,7.546223E-1,-4.4966213E-2,3.57114E-3,7.5733685E-1,-3.1582314E-1,1.6773947E0,-1.2097417E-1,-9.537799E-1,1.8379799E-1,9.8511314E-1,4.8187968E-1,1.9335189E0,8.6660075E-1,4.281328E-1,-3.0819467E-1,-8.047348E-1,6.6921103E-1,9.827829E0,-1.263188E-1,-2.965451E-1,5.874924E-1,-6.692103E-1,7.3275316E-1,9.713436E-1,2.3194218E-1,2.0561425E-1,4.155002E-1,1.7238574E0,5.937495E-1,5.701915E-1,-2.2671329E-2,-1.6104685E0,-1.7605434E-1,-4.1327772E-1,-2.079482E0,1.9066738E-1,-7.3815875E-2,1.9732878E-1,3.8021734E-1,2.4300165E-1,9.7964215E-1,3.9376056E0,6.0001973E-2,-2.3429483E-1,6.710174E-1,1.0336145E0,5.218228E-1,5.449661E-1,1.8232216E-1,-9.8208785E-1,-1.3234964E-1,3.5398382E-1,6.2587583E-1,1.0344401E-1,3.5452843E-1],"categories":[],"categories_nodes":[],"categories_segments":[],"categories_sizes":[],"default_left":[true,true,true,true,true,true,true,false,true,true,true,true,true,true,true,false,false,true,true,true,true,true,true,true,true,true,true,true,true,true,true,true,true,true,true,true,true,true,true,true,true,true,true,false,false,true,true,true,true,true,true,true,true,true,true,true,false,true,true,true,true,true,false,true,false,true,true,true,true,true,true,true,true,true,true,true,true,true,true,false,true,true,true,true,true,true,true,true,true,false,true,true,true,true,true,true,true,false,false,false,false,false,false,false,false,false,false,false,false,false,false,false,false,false,false,false,false,false,false,false,false,false,false,false,false,false,false,false,false,false,false,false,false,false,false,false,false,false,false,false,false,false,false,false,false,false,false,false,false,false,false,false,false,false,false,false,false,false,false,false,false,false,false,false,false,false,false,false,false,false,false,false,false,false,false],"id":102,"left_children":[1,3,5,7,9,11,13,-1,15,17,19,21,23,25,27,-1,-1,29,31,33,35,37,39,41,43,45,47,49,51,53,55,57,59,61,63,65,67,69,71,73,75,77,79,-1,-1,81,83,85,87,89,91,93,95,97,99,101,-1,103,105,107,109,111,-1,113,-1,115,117,119,121,123,125,127,129,131,133,135,137,139,141,-1,143,145,147,149,151,153,155,157,159,-1,161,163,165,167,169,171,173,-1,-1,-1,-1,-1,-1,-1,-1,-1,-1,-1,-1,-1,-1,-1,-1,-1,-1,-1,-1,-1,-1,-1,-1,-1,-1,-1,-1,-1,-1,-1,-1,-1,-1,-1,-1,-1,-1,-1,-1,-1,-1,-1,-1,-1,-1,-1,-1,-1,-1,-1,-1,-1,-1,-1,-1,-1,-1,-1,-1,-1,-1,-1,-1,-1,-1,-1,-1,-1,-1,-1,-1,-1,-1,-1,-1,-1,-1],"loss_changes":[6.003601E1,9.29419E-1,4.9375977E1,6.706512E-2,6.198825E-1,8.691574E0,1.6225464E1,0E0,4.715115E-3,2.6868907E-1,2.6885912E-1,1.46319275E1,8.401936E0,4.9226074E0,2.2402847E1,0E0,0E0,2.4912845E-1,3.718126E-2,1.1580545E-1,2.4706066E-1,1.1705307E1,3.7115128E1,8.344596E0,1.3367176E0,7.8431892E0,9.362793E0,6.5348206E0,4.7514725E0,1.9751927E-1,2.8745592E-2,1.0204941E-2,2.5385708E-2,7.0691876E-2,5.4907292E-2,1.9989872E-1,9.479846E-2,1.1149826E1,3.9788704E0,8.869432E0,1.5420541E2,4.4195786E0,3.320962E0,0E0,0E0,4.254135E0,3.2314448E0,6.060199E0,5.11438E0,7.4593105E0,5.273636E0,2.2734761E0,3.0629044E0,1.614142E-1,1.7030852E-2,9.579847E-3,0E0,1.0845292E-2,1.0616064E-2,9.497956E-3,1.9305974E-2,4.1033834E-2,0E0,1.1149645E-3,0E0,1.1763275E-1,1.986599E-1,7.019342E-1,6.2891774E-2,1.181636E1,5.966732E0,1.6825628E0,1.2193432E0,5.564205E0,1.5448585E0,4.4559836E0,7.707387E1,5.1084256E0,5.316911E0,0E0,3.0800462E-1,2.3514366E0,4.700659E0,2.562176E0,3.5325937E0,3.136044E0,5.5174966E0,2.575119E0,5.026886E0,0E0,1.033593E1,6.146433E0,7.460701E0,3.5972E-2,1.7652497E0,3.8850784E0,7.222481E0,0E0,0E0,0E0,0E0,0E0,0E0,0E0,0E0,0E0,0E0,0E0,0E0,0E0,0E0,0E0,0E0,0E0,0E0,0E0,0E0,0E0,0E0,0E0,0E0,0E0,0E0,0E0,0E0,0E0,0E0,0E0,0E0,0E0,0E0,0E0,0E0,0E0,0E0,0E0,0E0,0E0,0E0,0E0,0E0,0E0,0E0,0E0,0E0,0E0,0E0,0E0,0E0,0E0,0E0,0E0,0E0,0E0,0E0,0E0,0E0,0E0,0E0,0E0,0E0,0E0,0E0,0E0,0E0,0E0,0E0,0E0,0E0,0E0,0E0,0E0,0E0,0E0,0E0],"parents":[2147483647,0,0,1,1,2,2,3,3,4,4,5,5,6,6,8,8,9,9,10,10,11,11,12,12,13,13,14,14,17,17,18,18,19,19,20,20,21,21,22,22,23,23,24,24,25,25,26,26,27,27,28,28,29,29,30,30,31,31,32,32,33,33,34,34,35,35,36,36,37,37,38,38,39,39,40,40,41,41,42,42,45,45,46,46,47,47,48,48,49,49,50,50,51,51,52,52,53,53,54,54,55,55,57,57,58,58,59,59,60,60,61,61,63,63,65,65,66,66,67,67,68,68,69,69,70,70,71,71,72,72,73,73,74,74,75,75,76,76,77,77,78,78,80,80,81,81,82,82,83,83,84,84,85,85,86,86,87,87,88,88,90,90,91,91,92,92,93,93,94,94,95,95,96,96],"right_children":[2,4,6,8,10,12,14,-1,16,18,20,22,24,26,28,-1,-1,30,32,34,36,38,40,42,44,46,48,50,52,54,56,58,60,62,64,66,68,70,72,74,76,78,80,-1,-1,82,84,86,88,90,92,94,96,98,100,102,-1,104,106,108,110,112,-1,114,-1,116,118,120,122,124,126,128,130,132,134,136,138,140,142,-1,144,146,148,150,152,154,156,158,160,-1,162,164,166,168,170,172,174,-1,-1,-1,-1,-1,-1,-1,-1,-1,-1,-1,-1,-1,-1,-1,-1,-1,-1,-1,-1,-1,-1,-1,-1,-1,-1,-1,-1,-1,-1,-1,-1,-1,-1,-1,-1,-1,-1,-1,-1,-1,-1,-1,-1,-1,-1,-1,-1,-1,-1,-1,-1,-1,-1,-1,-1,-1,-1,-1,-1,-1,-1,-1,-1,-1,-1,-1,-1,-1,-1,-1,-1,-1,-1,-1,-1,-1,-1],"split_conditions":[4.2840246E-2,2.3046453E-2,5.5725604E-2,2.7272727E-2,2.4990782E-2,6.621622E-1,9.212121E-1,9.181278E-3,1.7815007E-2,1.4692114E-1,1.00558154E-1,3.783784E-1,9.9787235E-1,1.4196974E-1,7.125307E-2,3.387891E-3,5.532716E-3,3.1941032E-1,1.6281264E-2,1.2389015E-3,1.4127764E-1,2.9168166E-2,7.008511E-1,5.221462E-2,3.1418797E-2,8.2186735E-1,2.2236226E-1,1.2882608E-1,7.012963E-2,7.008511E-1,1.3953906E-1,6.242424E-1,1.5952466E-1,6.0496937E-2,9.488657E-2,7.008511E-1,4.9090743E-1,2.349658E-2,9.9787235E-1,5.181818E-1,3.969697E-1,8.2186735E-1,4.3030304E-1,3.7987724E-2,1.5989207E-2,1.2639539E-1,7.5757575E-1,1.4449045E-1,3.068959E-1,1.2765574E-1,3.5106385E-1,1.3882065E-1,4.614692E-1,6.736668E-2,6.848485E-1,9.137559E-2,2.4286264E-3,1.5376306E-1,1.9229384E-1,1.5205258E-1,9.800144E-1,3.510983E-2,2.9181486E-3,4.3030304E-1,9.1043785E-3,9.212121E-1,1.3390663E-1,4.8415557E-1,3.783784E-1,3.9234042E-1,9.9787235E-1,2.9618293E-2,3.871084E-2,7.4893616E-2,3.9234042E-1,2.871804E-2,7.090609E-2,7.090609E-2,1.0936171E-1,5.51929E-2,8.181818E-1,2.7518427E-1,1.292762E-1,4.1296717E-4,3.5106385E-1,5.5787235E-1,5.181818E-1,1.3390663E-1,9.9783945E-1,1.0598761E-2,7.090609E-2,1.6402593E-1,1.7383868E-1,5.9416637E-2,3.4520882E-1,3.8377744E-1,5.4591286E-1,1.1191003E-3,5.9520486E-3,1.2887878E-3,-4.687824E-4,-9.8254E-4,-2.1552596E-4,-2.1617245E-3,-6.4060447E-4,1.8998413E-5,-1.3234032E-3,-1.5477047E-4,1.3112369E-3,-7.3061057E-4,2.3153081E-4,2.8180357E-3,-1.1805793E-3,4.839877E-3,2.7284366E-3,-2.0208016E-4,2.633503E-3,5.6849257E-3,1.3898142E-3,4.610863E-4,1.5092446E-2,-8.9932425E-4,7.14228E-5,1.5146737E-2,-6.3164625E-3,3.3547893E-2,-2.4194834E-3,-1.9075597E-2,3.6759595E-3,1.9702263E-2,9.637593E-3,3.8670376E-2,1.7332016E-2,8.562656E-3,-6.1638933E-3,-1.6094696E-2,1.338422E-2,1.9655658E-1,-2.526376E-3,-5.9309015E-3,1.1749848E-2,-1.3384206E-2,1.4655063E-2,1.9426871E-2,4.6388432E-3,4.112285E-3,8.310004E-3,3.447715E-2,1.1874991E-2,1.140383E-2,-4.5342656E-4,-3.220937E-2,-3.5210869E-3,-8.265554E-3,-4.158964E-2,3.8133475E-3,-1.4763174E-3,3.9465753E-3,7.6043466E-3,4.860033E-3,1.9592842E-2,7.875211E-2,1.2000394E-3,-4.6858964E-3,1.3420348E-2,2.067229E-2,1.0436456E-2,1.0899322E-2,3.6464431E-3,-1.9641757E-2,-2.6469927E-3,7.0796763E-3,1.25175165E-2,2.0688802E-3,7.0905685E-3],"split_indices":[9,5,5,2,9,11,2,0,7,5,5,11,10,5,11,0,0,11,7,8,11,5,10,5,5,11,5,5,5,10,5,2,5,5,5,10,5,5,10,2,2,11,2,0,0,5,2,5,5,5,10,11,5,7,2,5,0,5,5,5,5,5,0,2,0,2,11,5,11,10,10,5,5,10,10,5,7,7,10,0,2,11,5,8,10,10,2,11,5,0,7,5,5,5,11,5,5,0,0,0,0,0,0,0,0,0,0,0,0,0,0,0,0,0,0,0,0,0,0,0,0,0,0,0,0,0,0,0,0,0,0,0,0,0,0,0,0,0,0,0,0,0,0,0,0,0,0,0,0,0,0,0,0,0,0,0,0,0,0,0,0,0,0,0,0,0,0,0,0,0,0,0,0,0,0],"split_type":[0,0,0,0,0,0,0,0,0,0,0,0,0,0,0,0,0,0,0,0,0,0,0,0,0,0,0,0,0,0,0,0,0,0,0,0,0,0,0,0,0,0,0,0,0,0,0,0,0,0,0,0,0,0,0,0,0,0,0,0,0,0,0,0,0,0,0,0,0,0,0,0,0,0,0,0,0,0,0,0,0,0,0,0,0,0,0,0,0,0,0,0,0,0,0,0,0,0,0,0,0,0,0,0,0,0,0,0,0,0,0,0,0,0,0,0,0,0,0,0,0,0,0,0,0,0,0,0,0,0,0,0,0,0,0,0,0,0,0,0,0,0,0,0,0,0,0,0,0,0,0,0,0,0,0,0,0,0,0,0,0,0,0,0,0,0,0,0,0,0,0,0,0,0,0],"sum_hessian":[7.942E3,7.65E2,7.177E3,1.1E1,7.54E2,3.68E2,6.809E3,2E0,9E0,4.35E2,3.19E2,3E2,6.8E1,5.705E3,1.104E3,5E0,4E0,5.1E1,3.84E2,1.8E1,3.01E2,2.37E2,6.3E1,6.2E1,6E0,4.15E2,5.29E3,1.54E2,9.5E2,2.1E1,3E1,9.7E1,2.87E2,1.1E1,7E0,4.5E1,2.56E2,1.52E2,8.5E1,5.1E1,1.2E1,5.6E1,6E0,3E0,3E0,3.64E2,5.1E1,4.09E2,4.881E3,6E0,1.48E2,1.3E1,9.37E2,1.2E1,9E0,2.9E1,1E0,2.9E1,6.8E1,6E0,2.81E2,5E0,6E0,6E0,1E0,2.7E1,1.8E1,9.1E1,1.65E2,1.33E2,1.9E1,5.8E1,2.7E1,2.6E1,2.5E1,8E0,4E0,3.8E1,1.8E1,1E0,5E0,3.27E2,3.7E1,4.2E1,9E0,1.1E1,3.98E2,5.39E2,4.342E3,3E0,3E0,3.1E1,1.17E2,3E0,1E1,2.85E2,6.52E2,5E0,7E0,3E0,6E0,1.2E1,1.7E1,2E0,2.7E1,2E0,6.6E1,3E0,3E0,2.73E2,8E0,1E0,4E0,2E0,4E0,1.9E1,8E0,8E0,1E1,9E1,1E0,3.3E1,1.32E2,1.22E2,1.1E1,1.7E1,2E0,1E0,5.7E1,7E0,2E1,7E0,1.9E1,2.2E1,3E0,3E0,5E0,3E0,1E0,3E1,8E0,3E0,1.5E1,4E0,1E0,6.9E1,2.58E2,4E0,3.3E1,9E0,3.3E1,2E0,7E0,1E1,1E0,2.9E2,1.08E2,9.5E1,4.44E2,4.333E3,9E0,2E0,1E0,1.2E1,1.9E1,6.1E1,5.6E1,2E0,1E0,4E0,6E0,2.14E2,7.1E1,1.49E2,5.03E2],"tree_param":{"num_deleted":"0","num_feature":"12","num_nodes":"175","size_leaf_vector":"0"}},{"base_weights":[2.720188E-1,9.6589553E-1,2.4653141E-1,8.971681E-1,5.2232556E0,-1.7304625E-2,2.754003E-1,2.2695444E0,7.4361503E-1,9.040692E0,6.5326154E-1,-1.0406119E-1,2.1249491E-1,5.3266283E-2,3.1211725E-1,3.8620768E0,1.2756591E0,1.4727944E-1,1.0407921E0,-6.7936677E-1,1.6510572E1,-2.56034E-3,-1.3943078E-1,7.224078E-1,1.9842435E-1,-7.3887804E-3,1.4840321E-1,6.5459573E-1,2.999386E-1,1.2829399E-1,4.751324E0,6.9209843E0,7.8785455E-1,-5.2530475E-2,5.0938135E-1,1.7490226E0,7.4343514E-1,-3.874238E-2,2.775802E-2,-1.2619254E-1,-1.600333E-1,4.910674E-1,1.2828552E0,1.5351984E-1,3.1410104E-1,-2.911432E-2,2.1294925E-2,3.4603024E-1,1.4153814E-1,1.4374907E-1,9.6635526E-1,4.1161823E-1,2.7927458E-1,3.864441E-1,-1.5124264E-1,3.9241442E-1,5.3259206E0,-6.6642356E-1,1.2786822E0,-1.5461639E-1,2.1946268E0,1.4212661E0,8.1752576E-2,1.4865927E0,4.2959223E0,1.0930114E0,5.9447575E-1,2.5799546E-2,-4.227215E-2,9.8883845E-2,1.6323412E-2,-1.5480922E-1,-1.1445877E-1,-1.4134821E-1,-2.117865E-1,1.1088365E-1,5.8974624E-1,3.625273E-1,1.318022E-1,6.296289E-1,2.4797222E-1,3.417593E-1,-3.0602705E-2,5.593591E-2,-1.01746535E-2,3.7732E-1,1.5190439E-1,2.0187981E-1,1.2665458E-1,3.755142E-1,-1.718453E-2,1.169451E0,5.1718616E-1,7.0146555E-1,3.8113475E-1,2.4238846E-1,3.1970245E-1,3.877307E-1,-2.580546E-1,3.9523323E0,-1.0120895E-1,9.164943E-1,4.2096906E0,-1.16744794E-1,1.6357238E0,8.417197E-2,1.6246257E0,2.911355E0,8.207546E-1,-3.0123588E-1,6.924183E-1,-9.782844E-2,9.88731E-2,-4.8574995E-2,-2.137712E-2,7.511381E-2,1.635291E-1,-9.815464E-2,2.2488084E-2,-2.4803466E-1,-1.3589145E-1,-4.73322E-2,-1.20513625E-1,-1.7996801E-1,-1.1904748E-1,-8.5326403E-1,-1.8788113E-1,4.1122574E-1,-1.6785453E-1,8.043993E-3,1.5520376E-1,7.721675E-1,4.7177404E-1,2.8623176E-1,-6.1362308E-2,6.824116E-3,-3.4742586E-2,2.3041282E-2,1.3537873E-1,-4.871217E-2,3.0359558E-3,2.2672911E-1,4.2666918E-1,1.395848E-1,3.4503227E-1,-2.0683648E-1,1.3038723E-1,-3.0411133E-1,5.757756E-1,-1.7284268E-1,7.9530704E-1,9.9927896E-1,2.9320436E0,6.2154E-2,1.4018655E0,4.805119E-1,1.377473E0,3.1992117E-1,5.1060003E-1,3.9407393E-1,2.312921E-1,2.6778632E-1,4.3795756E-1],"categories":[],"categories_nodes":[],"categories_segments":[],"categories_sizes":[],"default_left":[true,true,true,true,true,true,true,true,true,true,false,true,true,true,true,true,true,true,true,false,false,true,true,true,true,true,true,true,true,true,true,false,true,true,true,true,true,true,true,true,true,true,false,true,true,true,true,true,true,true,true,true,true,false,false,false,false,false,false,true,true,true,true,true,false,true,true,true,true,true,true,true,true,true,true,false,false,true,true,true,true,false,true,true,true,true,false,true,true,true,true,true,true,true,true,true,true,false,false,false,false,false,false,false,false,false,false,false,false,false,false,false,false,false,false,false,false,false,false,false,false,false,false,false,false,false,false,false,false,false,false,false,false,false,false,false,false,false,false,false,false,false,false,false,false,false,false,false,false,false,false,false,false,false,false,false,false,false,false,false,false,false,false],"id":103,"left_children":[1,3,5,7,9,11,13,15,17,19,-1,21,23,25,27,29,31,33,35,-1,-1,37,39,41,43,45,47,49,51,53,55,-1,57,59,61,63,65,67,69,71,73,75,-1,77,79,81,83,85,87,89,91,93,95,-1,-1,-1,-1,-1,-1,97,99,101,103,105,-1,107,109,111,113,115,117,119,121,123,125,-1,-1,127,129,131,133,-1,135,137,139,141,-1,143,145,147,149,151,153,155,157,159,161,-1,-1,-1,-1,-1,-1,-1,-1,-1,-1,-1,-1,-1,-1,-1,-1,-1,-1,-1,-1,-1,-1,-1,-1,-1,-1,-1,-1,-1,-1,-1,-1,-1,-1,-1,-1,-1,-1,-1,-1,-1,-1,-1,-1,-1,-1,-1,-1,-1,-1,-1,-1,-1,-1,-1,-1,-1,-1,-1,-1,-1,-1,-1,-1,-1,-1],"loss_changes":[1.3840125E2,7.94971E1,5.7544037E1,5.6994476E1,7.349254E1,1.4865255E1,5.5526733E1,4.1547073E1,4.3586487E1,1.7339423E2,0E0,1.9412661E0,1.4051065E0,5.57864E0,2.429303E1,3.403691E1,4.5804886E1,5.9723945E0,3.4139038E1,0E0,0E0,1.5445831E-1,9.86433E-2,4.561267E-1,1.0126686E0,3.6819583E-1,4.872942E-1,3.1843216E1,1.297522E1,1.9123422E-1,2.0093613E1,0E0,1.1951732E1,1.2318922E1,1.1378347E1,3.009314E1,5.8170395E0,1.5254997E-2,5.9900116E-2,7.296443E-2,1.3519001E-1,1.3077438E-1,0E0,6.321664E-1,1.0899763E0,1.8470609E-1,2.7810094E-1,4.825306E-2,3.1399488E-1,2.8544102E0,1.1116493E1,7.673645E0,7.069336E0,0E0,0E0,0E0,0E0,0E0,0E0,2.9112945E0,9.604822E0,1.1777323E1,6.3573933E0,8.5121155E0,0E0,1.6146935E1,7.298111E0,3.335481E-2,6.7334324E-3,8.378476E-3,4.6469584E-2,1.0732496E-1,6.73728E-2,8.792114E-2,5.501933E-1,0E0,0E0,3.7087667E-1,3.7761474E-1,7.0783615E-2,5.5742097E-1,0E0,5.2434742E-2,3.1377378E-1,6.858146E-2,3.5213947E-2,0E0,6.1315656E-1,3.7304544E-1,4.326838E0,5.770328E0,2.4562126E1,1.5784047E1,1.2199989E1,6.252571E0,4.15567E0,1.3895325E1,0E0,0E0,0E0,0E0,0E0,0E0,0E0,0E0,0E0,0E0,0E0,0E0,0E0,0E0,0E0,0E0,0E0,0E0,0E0,0E0,0E0,0E0,0E0,0E0,0E0,0E0,0E0,0E0,0E0,0E0,0E0,0E0,0E0,0E0,0E0,0E0,0E0,0E0,0E0,0E0,0E0,0E0,0E0,0E0,0E0,0E0,0E0,0E0,0E0,0E0,0E0,0E0,0E0,0E0,0E0,0E0,0E0,0E0,0E0,0E0,0E0,0E0,0E0,0E0,0E0,0E0],"parents":[2147483647,0,0,1,1,2,2,3,3,4,4,5,5,6,6,7,7,8,8,9,9,11,11,12,12,13,13,14,14,15,15,16,16,17,17,18,18,21,21,22,22,23,23,24,24,25,25,26,26,27,27,28,28,29,29,30,30,32,32,33,33,34,34,35,35,36,36,37,37,38,38,39,39,40,40,41,41,43,43,44,44,45,45,46,46,47,47,48,48,49,49,50,50,51,51,52,52,59,59,60,60,61,61,62,62,63,63,65,65,66,66,67,67,68,68,69,69,70,70,71,71,72,72,73,73,74,74,77,77,78,78,79,79,80,80,82,82,83,83,84,84,85,85,87,87,88,88,89,89,90,90,91,91,92,92,93,93,94,94,95,95,96,96],"right_children":[2,4,6,8,10,12,14,16,18,20,-1,22,24,26,28,30,32,34,36,-1,-1,38,40,42,44,46,48,50,52,54,56,-1,58,60,62,64,66,68,70,72,74,76,-1,78,80,82,84,86,88,90,92,94,96,-1,-1,-1,-1,-1,-1,98,100,102,104,106,-1,108,110,112,114,116,118,120,122,124,126,-1,-1,128,130,132,134,-1,136,138,140,142,-1,144,146,148,150,152,154,156,158,160,162,-1,-1,-1,-1,-1,-1,-1,-1,-1,-1,-1,-1,-1,-1,-1,-1,-1,-1,-1,-1,-1,-1,-1,-1,-1,-1,-1,-1,-1,-1,-1,-1,-1,-1,-1,-1,-1,-1,-1,-1,-1,-1,-1,-1,-1,-1,-1,-1,-1,-1,-1,-1,-1,-1,-1,-1,-1,-1,-1,-1,-1,-1,-1,-1,-1,-1],"split_conditions":[4.1231543E-2,4.060137E-2,5.5555556E-2,2.7272727E-2,5.181818E-1,7.090609E-2,7.920965E-1,1.6666667E-1,1.6666667E-1,8.231776E-1,1.306523E-2,5.719247E-1,1.8427517E-2,3.9510223E-1,1.8427517E-2,5.5555556E-2,9.689189E-1,4.2424244E-1,1.8275118E-2,-1.3587335E-2,3.3021143E-1,8.513586E-2,7.5757575E-1,8.110852E-1,9.5682657E-1,1.3484347E-1,3.3636364E-1,6.818182E-1,5.181818E-1,5.719247E-1,5.629188E-1,1.3841969E-1,2.777778E-1,1.3137093E-1,2.9978395E-2,5E-1,1.4619164E-1,1.2285012E-2,1.417897E-1,4.127764E-1,6.802305E-1,1.3413756E-1,2.5657102E-2,4.2424244E-1,1.6897732E-1,4.4562478E-2,5.300684E-1,5.2655745E-1,3.0158442E-1,1.4584084E-1,1.735686E-1,1.3881886E-1,2.777778E-1,7.7288817E-3,-3.0248528E-3,7.848288E-3,1.0651841E-1,-1.3328471E-2,2.5573645E-2,8.231776E-1,5.5555556E-2,2.9348217E-2,3.9160967E-2,5.4892205E-2,8.591844E-2,3.3636364E-1,3.3636364E-1,1.49982E-1,1.6878912E-2,6.621622E-1,1.4305004E-1,3.3636364E-1,3.3636364E-1,3.4092546E-1,6.9346416E-1,2.217673E-3,1.1794925E-2,5.2376664E-1,3.8609636E-1,6.9287467E-1,8.2186735E-1,6.835186E-3,1.4593086E-1,8.30303E-1,3.783784E-1,1.2270436E-1,3.0380876E-3,7.5757575E-1,3.1580842E-1,6.60785E-2,3.888889E-1,6.142506E-3,1.9616494E-1,1.2639539E-1,3.3777457E-1,1.0361902E-1,8.30303E-1,7.7546136E-3,-5.161092E-3,7.9046644E-2,-2.0241789E-3,1.8329887E-2,8.419381E-2,-2.3348958E-3,3.2714475E-2,1.6834395E-3,3.2492515E-2,5.82271E-2,1.6415091E-2,-6.0247174E-3,1.3848365E-2,-1.9565688E-3,1.977462E-3,-9.714999E-4,-4.275424E-4,1.5022762E-3,3.2705818E-3,-1.9630927E-3,4.4976166E-4,-4.960693E-3,-2.717829E-3,-9.46644E-4,-2.4102724E-3,-3.5993601E-3,-2.3809494E-3,-1.7065281E-2,-3.7576226E-3,8.224514E-3,-3.3570905E-3,1.6087986E-4,3.104075E-3,1.544335E-2,9.43548E-3,5.724635E-3,-1.2272461E-3,1.3648233E-4,-6.948517E-4,4.6082563E-4,2.7075745E-3,-9.742434E-4,6.0719114E-5,4.534582E-3,8.533384E-3,2.7916958E-3,6.9006453E-3,-4.1367295E-3,2.6077447E-3,-6.0822265E-3,1.1515512E-2,-3.4568536E-3,1.590614E-2,1.9985579E-2,5.864087E-2,1.2430799E-3,2.803731E-2,9.610238E-3,2.7549459E-2,6.398423E-3,1.0212E-2,7.881478E-3,4.625842E-3,5.3557265E-3,8.759151E-3],"split_indices":[5,5,4,2,2,7,6,4,4,6,0,6,11,6,11,4,6,2,5,0,0,6,2,6,6,6,2,2,2,6,6,0,4,7,5,4,11,11,5,11,5,5,0,2,5,5,5,5,5,5,5,5,4,0,0,0,0,0,0,6,4,5,5,9,0,2,2,5,6,11,5,2,2,5,5,0,0,5,6,11,11,0,5,2,11,5,0,2,5,5,4,11,5,5,5,5,2,0,0,0,0,0,0,0,0,0,0,0,0,0,0,0,0,0,0,0,0,0,0,0,0,0,0,0,0,0,0,0,0,0,0,0,0,0,0,0,0,0,0,0,0,0,0,0,0,0,0,0,0,0,0,0,0,0,0,0,0,0,0,0,0,0,0],"split_type":[0,0,0,0,0,0,0,0,0,0,0,0,0,0,0,0,0,0,0,0,0,0,0,0,0,0,0,0,0,0,0,0,0,0,0,0,0,0,0,0,0,0,0,0,0,0,0,0,0,0,0,0,0,0,0,0,0,0,0,0,0,0,0,0,0,0,0,0,0,0,0,0,0,0,0,0,0,0,0,0,0,0,0,0,0,0,0,0,0,0,0,0,0,0,0,0,0,0,0,0,0,0,0,0,0,0,0,0,0,0,0,0,0,0,0,0,0,0,0,0,0,0,0,0,0,0,0,0,0,0,0,0,0,0,0,0,0,0,0,0,0,0,0,0,0,0,0,0,0,0,0,0,0,0,0,0,0,0,0,0,0,0,0],"sum_hessian":[7.831E3,2.77E2,7.554E3,2.73E2,4E0,7.45E2,6.809E3,2.7E1,2.46E2,2E0,2E0,5.41E2,2.04E2,9.66E2,5.843E3,1E1,1.7E1,8.2E1,1.64E2,1E0,1E0,1.4E2,4.01E2,5E0,1.99E2,5.9E2,3.76E2,2E2,5.643E3,2E0,8E0,1E0,1.6E1,5.3E1,2.9E1,4.8E1,1.16E2,6.4E1,7.6E1,2.46E2,1.55E2,4E0,1E0,1.44E2,5.5E1,3.36E2,2.54E2,1.2E1,3.64E2,7.6E1,1.24E2,8.8E2,4.763E3,1E0,1E0,1E0,7E0,4E0,1.2E1,5.1E1,2E0,9E0,2E1,4.4E1,4E0,3.4E1,8.2E1,3E0,6.1E1,1E1,6.6E1,7E1,1.76E2,1.15E2,4E1,1E0,3E0,1.3E1,1.31E2,9E0,4.6E1,1E0,3.35E2,1.21E2,1.33E2,1E1,2E0,7.1E1,2.93E2,3.1E1,4.5E1,8.5E1,3.9E1,8.3E1,7.97E2,2.492E3,2.271E3,8E0,4.3E1,1E0,1E0,8E0,1E0,1.8E1,2E0,4E0,4E1,4E0,3E1,8E0,7.4E1,1E0,2E0,4.6E1,1.5E1,8E0,2E0,3E0,6.3E1,1.1E1,5.9E1,1.5E1,1.61E2,4.1E1,7.4E1,1E0,3.9E1,1.2E1,1E0,2.1E1,1.1E2,4E0,5E0,4.1E1,5E0,3.3E1,3.02E2,8.6E1,3.5E1,3.4E1,9.9E1,3E0,7E0,5E1,2.1E1,3E0,2.9E2,7E0,2.4E1,3.8E1,7E0,7.8E1,7E0,2.6E1,1.3E1,6.3E1,2E1,5.42E2,2.55E2,1.69E2,2.323E3,1.579E3,6.92E2],"tree_param":{"num_deleted":"0","num_feature":"12","num_nodes":"163","size_leaf_vector":"0"}},{"base_weights":[2.6329952E-1,1.3981485E0,2.401531E-1,6.2115467E-1,2.7872868E0,-1.7853862E-2,2.6759753E-1,-8.927249E-1,8.6740935E-1,6.1834846E0,1.7205167E0,-1.0219485E-1,1.9415648E-1,2.3889404E-3,2.8640395E-1,-1.4221504E0,2.0269973E0,7.3149353E-1,2.5648963E0,1.1742804E0,2.5986233E0,2.6869345E-3,-1.376042E-1,1.385495E-1,2.9170838E-1,9.6641906E-2,-4.1929055E-3,4.0628356E-1,2.501081E-1,-2.0793693E0,-4.268873E-1,3.149862E0,3.8652885E-1,6.7077583E-1,4.195733E0,3.357241E0,7.2078246E-1,1.2660815E0,-9.2157584E-1,4.1686482E0,1.2706538E0,7.576882E-2,-7.2875284E-3,-1.4078224E-1,-9.0505816E-2,-4.07759E-1,1.4373474E-1,1.2765603E0,2.5929144E-1,5.555457E-2,9.6560895E-1,5.3267248E-2,-1.0621363E-2,4.0331838E-1,3.656918E0,2.166002E-1,3.278697E-1,1.2627813E-1,-2.9170356E0,8.953239E-1,7.3617764E-2,5.6984264E-2,1.193632E0,7.8836125E-1,1.711067E0,1.4674727E0,9.2734504E-1,1.358241E-1,3.5134923E-2,-2.5228499E-2,3.14811E-2,-1.38753E-1,-6.584449E-1,-8.5457E-2,-1.5309362E-1,2.0329084E-1,1.1179172E-1,4.4877005E-1,2.1645775E-1,1.4221346E-1,1.9483938E-4,1.0160641E-1,-2.3759617E-3,-3.1633295E-2,9.009033E-4,3.424261E-1,4.8972073E-1,4.2649445E-1,2.0609105E-1,3.1658596E-1,5.4975545E-1,3.8064808E-1,-1.4897424E-1,3.4583735E-1,1.6577696E0,-4.3165982E-1,2.6891464E-1,9.538047E-1,1.9235641E-1,2.0221744E0,5.7121104E-1,1.8426342E-1,9.599706E-2,5.5221763E-2,-8.290884E-3,-1.37068955E-2,-5.4822627E-2,1.748271E-1,2.1313518E-2,-5.8774095E-2,-1.404254E-1,-1.0070322E-1,-6.8147145E-2,2.580343E-1,-5.4949004E-2,6.987061E-2,1.6805257E-1,5.686479E-1,-1.914865E-1,-1.13199785E-1,2.4036425E-1,1.9692334E-3,2.5057432E-1,6.898707E-2,-4.306523E-2,7.876562E-2,4.4804582E-1,-3.3482835E-2,8.452889E-2,8.6090185E-2,-3.6370214E-2,2.503974E-2,-2.0079197E-2,4.051156E-1,2.6132536E-1,-6.699154E-1,4.9758136E-1,3.6917403E-3,5.0831383E-1,2.0917651E-1,-2.5340793E-1,3.4404686E-1,1.8373734E-1,1.1885475E0,3.3057442E-1],"categories":[],"categories_nodes":[],"categories_segments":[],"categories_sizes":[],"default_left":[true,true,true,true,true,true,true,true,true,false,true,true,true,true,true,true,true,true,true,true,true,true,true,true,true,true,true,true,true,true,false,false,false,true,false,false,true,true,false,false,true,true,true,true,true,false,true,false,true,true,false,true,true,true,false,true,true,true,false,true,true,false,false,true,true,false,false,true,true,true,true,true,false,true,false,true,true,true,true,true,true,true,true,true,true,true,true,true,true,true,true,false,false,false,false,false,false,false,false,false,false,false,false,false,false,false,false,false,false,false,false,false,false,false,false,false,false,false,false,false,false,false,false,false,false,false,false,false,false,false,false,false,false,false,false,false,false,false,false,false,false,false,false,false,false],"id":104,"left_children":[1,3,5,7,9,11,13,15,17,-1,19,21,23,25,27,29,31,33,35,37,39,41,43,45,47,49,51,53,55,57,-1,-1,-1,59,-1,-1,61,63,-1,-1,65,67,69,71,73,-1,75,-1,77,79,-1,81,83,85,-1,87,89,91,-1,93,95,-1,-1,97,99,-1,-1,101,103,105,107,109,-1,111,-1,113,115,117,119,121,123,125,127,129,131,133,135,137,139,141,143,-1,-1,-1,-1,-1,-1,-1,-1,-1,-1,-1,-1,-1,-1,-1,-1,-1,-1,-1,-1,-1,-1,-1,-1,-1,-1,-1,-1,-1,-1,-1,-1,-1,-1,-1,-1,-1,-1,-1,-1,-1,-1,-1,-1,-1,-1,-1,-1,-1,-1,-1,-1,-1,-1],"loss_changes":[2.067315E2,1.6919223E2,5.465753E1,3.803498E1,2.004335E2,1.3279091E1,3.4790985E1,2.3109E1,1.9476486E1,0E0,1.9713654E1,1.9753118E0,1.1267776E0,2.8826633E-1,2.8301514E1,7.7356377E0,3.8418617E0,1.6099789E1,8.389187E0,5.6530113E0,3.2210434E1,9.908368E-2,5.1925182E-2,3.9914155E-1,2.3047276E0,1.0505576E0,1.5927577E-1,1.4036957E1,1.3000153E1,1.3711939E1,0E0,0E0,0E0,1.0736164E1,0E0,0E0,6.919013E-1,5.1124496E0,0E0,0E0,1.4269257E-1,3.5828285E-2,8.248213E-2,3.482356E-1,5.557537E-4,0E0,2.4348307E-1,0E0,5.614133E-1,1.3868421E-1,0E0,1.1805197E-1,9.470747E-2,7.8889465E0,0E0,7.6739044E0,3.6985168E0,1.855949E-1,0E0,2.4219254E1,2.2402353E0,0E0,0E0,1.237217E0,4.3061028E0,0E0,0E0,2.3221448E-3,9.835856E-3,2.6504323E-2,5.0372534E-2,4.394102E-2,0E0,1.9887537E-3,0E0,6.6263855E-1,2.0102668E-1,1.0650694E0,4.9425387E-1,1.6846773E-1,5.5920098E-2,1.6535367E-1,5.5183943E-2,7.7476144E-2,1.2752254E-1,4.4716263E0,5.7998047E0,5.7461224E0,4.738693E0,5.2003937E0,9.9748E0,0E0,0E0,0E0,0E0,0E0,0E0,0E0,0E0,0E0,0E0,0E0,0E0,0E0,0E0,0E0,0E0,0E0,0E0,0E0,0E0,0E0,0E0,0E0,0E0,0E0,0E0,0E0,0E0,0E0,0E0,0E0,0E0,0E0,0E0,0E0,0E0,0E0,0E0,0E0,0E0,0E0,0E0,0E0,0E0,0E0,0E0,0E0,0E0,0E0,0E0,0E0,0E0,0E0,0E0],"parents":[2147483647,0,0,1,1,2,2,3,3,4,4,5,5,6,6,7,7,8,8,10,10,11,11,12,12,13,13,14,14,15,15,16,16,17,17,18,18,19,19,20,20,21,21,22,22,23,23,24,24,25,25,26,26,27,27,28,28,29,29,33,33,36,36,37,37,40,40,41,41,42,42,43,43,44,44,46,46,48,48,49,49,51,51,52,52,53,53,55,55,56,56,57,57,59,59,60,60,63,63,64,64,67,67,68,68,69,69,70,70,71,71,73,73,75,75,76,76,77,77,78,78,79,79,80,80,81,81,82,82,83,83,84,84,85,85,86,86,87,87,88,88,89,89,90,90],"right_children":[2,4,6,8,10,12,14,16,18,-1,20,22,24,26,28,30,32,34,36,38,40,42,44,46,48,50,52,54,56,58,-1,-1,-1,60,-1,-1,62,64,-1,-1,66,68,70,72,74,-1,76,-1,78,80,-1,82,84,86,-1,88,90,92,-1,94,96,-1,-1,98,100,-1,-1,102,104,106,108,110,-1,112,-1,114,116,118,120,122,124,126,128,130,132,134,136,138,140,142,144,-1,-1,-1,-1,-1,-1,-1,-1,-1,-1,-1,-1,-1,-1,-1,-1,-1,-1,-1,-1,-1,-1,-1,-1,-1,-1,-1,-1,-1,-1,-1,-1,-1,-1,-1,-1,-1,-1,-1,-1,-1,-1,-1,-1,-1,-1,-1,-1,-1,-1,-1,-1,-1,-1],"split_conditions":[6.724138E-2,2.777778E-1,5.5555556E-2,2.7272727E-2,2.7272727E-2,7.090609E-2,5.261916E-2,7.090609E-2,1.3137093E-1,1.2366969E-1,3.888889E-1,5.261916E-2,1.3137093E-1,1.3390663E-1,2.8240907E-1,1.6666667E-1,5.5555556E-2,1.3989916E-1,1.6666667E-1,1.396291E-1,5E-1,1.417897E-1,9.400432E-1,3.8260713E-2,7.125307E-2,5.675189E-1,1.5196255E-1,2.82229E-1,8.30303E-1,5.5555556E-2,-8.537746E-3,6.299724E-2,7.7305767E-3,5E-1,8.391466E-2,6.714482E-2,5E-1,1.2981635E-1,-1.8431516E-2,8.3372965E-2,5E-1,3.9310345E-1,8.30303E-1,9.395031E-1,9.976593E-1,-8.15518E-3,3.4520882E-1,2.5531206E-2,1.4259993E-1,1.8427517E-2,1.9312179E-2,4.9310344E-1,1.6666667E-1,2.777778E-1,7.3138356E-2,4.2424244E-1,5.8854413E-1,2.9613025E-2,-5.834071E-2,1.6666667E-1,1.3071659E-1,1.1396853E-3,2.387264E-2,5E-1,1.3854879E-1,2.9349452E-2,1.85469E-2,3.3636364E-1,1.2389015E-3,4.0821142E-2,2.60713E-1,3.006842E-2,-1.31688975E-2,9.7344255E-1,-3.0618724E-3,5.689593E-1,6.568239E-1,5.8854413E-1,2.6692474E-1,1.6231546E-1,6.515151E-1,4.5689654E-1,8.30303E-1,3.3636364E-1,2.777778E-1,1.7122795E-1,7.4137926E-2,3.1157726E-1,9.945085E-1,7.090609E-2,1.4619164E-1,7.6129613E-3,-2.9794846E-3,6.916747E-3,3.315539E-2,-8.633196E-3,5.378293E-3,1.9076092E-2,3.847128E-3,4.0443487E-2,1.142422E-2,3.6852683E-3,1.9199412E-3,1.1044352E-3,-1.6581768E-4,-2.741379E-4,-1.0964525E-3,3.4965419E-3,4.2627036E-4,-1.1754818E-3,-2.808508E-3,-2.0140642E-3,-1.3629429E-3,5.1606856E-3,-1.0989801E-3,1.3974123E-3,3.3610512E-3,1.1372958E-2,-3.8297297E-3,-2.2639956E-3,4.807285E-3,3.9384668E-5,5.0114864E-3,1.3797414E-3,-8.613046E-4,1.5753125E-3,8.960917E-3,-6.6965667E-4,1.6905778E-3,1.7218037E-3,-7.2740426E-4,5.007948E-4,-4.0158394E-4,8.102312E-3,5.226507E-3,-1.3398307E-2,9.951627E-3,7.38348E-5,1.0166276E-2,4.1835303E-3,-5.0681583E-3,6.880937E-3,3.6747467E-3,2.3770949E-2,6.6114883E-3],"split_indices":[3,4,4,2,2,7,7,7,7,0,4,7,7,11,5,4,4,5,4,5,0,5,5,5,11,5,5,5,2,4,0,0,0,0,0,0,0,5,0,0,4,3,2,5,5,0,11,0,5,11,0,3,4,4,0,2,7,7,0,4,5,0,0,0,5,0,0,2,8,7,5,5,0,5,0,5,5,7,5,5,2,3,2,2,4,5,3,5,5,7,11,0,0,0,0,0,0,0,0,0,0,0,0,0,0,0,0,0,0,0,0,0,0,0,0,0,0,0,0,0,0,0,0,0,0,0,0,0,0,0,0,0,0,0,0,0,0,0,0,0,0,0,0,0,0],"split_type":[0,0,0,0,0,0,0,0,0,0,0,0,0,0,0,0,0,0,0,0,0,0,0,0,0,0,0,0,0,0,0,0,0,0,0,0,0,0,0,0,0,0,0,0,0,0,0,0,0,0,0,0,0,0,0,0,0,0,0,0,0,0,0,0,0,0,0,0,0,0,0,0,0,0,0,0,0,0,0,0,0,0,0,0,0,0,0,0,0,0,0,0,0,0,0,0,0,0,0,0,0,0,0,0,0,0,0,0,0,0,0,0,0,0,0,0,0,0,0,0,0,0,0,0,0,0,0,0,0,0,0,0,0,0,0,0,0,0,0,0,0,0,0,0,0],"sum_hessian":[7.875E3,1.57E2,7.718E3,1.01E2,5.6E1,7.42E2,6.976E3,1.4E1,8.7E1,1.3E1,4.3E1,5.31E2,2.11E2,4.62E2,6.514E3,1.2E1,2E0,8.1E1,6E0,2.7E1,1.6E1,1.34E2,3.97E2,1.35E2,7.6E1,3E1,4.32E2,1.513E3,5.001E3,7E0,5E0,1E0,1E0,8E1,1E0,4E0,2E0,2.6E1,1E0,7E0,9E0,1.6E1,1.18E2,3.71E2,2.6E1,1E0,1.34E2,2E0,7.4E1,2.9E1,1E0,4.3E1,3.89E2,1.512E3,1E0,3.496E3,1.505E3,2E0,5E0,5.8E1,2.2E1,1E0,1E0,1.3E1,1.3E1,5E0,4E0,6E0,1E1,8.1E1,3.7E1,3.7E2,1E0,2.5E1,1E0,4.6E1,8.8E1,1.3E1,6.1E1,1.1E1,1.8E1,2.3E1,2E1,1.38E2,2.51E2,8.88E2,6.24E2,1.66E2,3.33E3,1.433E3,7.2E1,1E0,1E0,3.4E1,2.4E1,6E0,1.6E1,1E1,3E0,1E1,3E0,2E0,4E0,7E0,3E0,5.9E1,2.2E1,2E0,3.5E1,8E0,3.62E2,1.2E1,1.3E1,3.8E1,8E0,5.1E1,3.7E1,1.1E1,2E0,4E0,5.7E1,5E0,6E0,7E0,1.1E1,2.2E1,1E0,1.5E1,5E0,5E0,1.33E2,1.17E2,1.34E2,5E2,3.88E2,4E0,6.2E2,2.7E1,1.39E2,3.308E3,2.2E1,1.187E3,2.46E2,1.8E1,5.4E1],"tree_param":{"num_deleted":"0","num_feature":"12","num_nodes":"145","size_leaf_vector":"0"}},{"base_weights":[2.3921202E-1,1.5255575E-3,2.6474506E-1,3.0768624E-1,-3.435675E-3,-1.0047286E0,2.6923746E-1,-0E0,3.3430848E-1,-2.7980706E-2,2.9041901E-2,3.1156836E0,-1.4030439E0,7.341231E-1,2.5718138E-1,3.5182175E-1,1.04292944E-1,8.273351E-2,-3.178593E-2,1.0035935E-1,1.7464835E-2,8.3011585E-1,4.143269E-1,6.0866886E-1,2.508284E-1,2.0583428E-1,5.6049585E-2,3.361462E-4,-3.6284845E-2,7.974345E-2,2.859832E-1,1.0475535E-1,9.132575E-3,8.147713E-1,2.1921573E0,-2.1317504E-1,6.3734317E-1,8.9377016E-1,3.3364227E-1,3.11293E-1,2.3010975E-1,-0E0,1.3092099E-1,-4.2769823E-2,1.8917253E-2,-4.151035E-2,-1.946197E-2,1.3349007E-1,3.9779086E-2,9.5112634E-1,-4.4205636E-3,5.0077446E-2,1.8931177E-1,3.174848E-2,-8.54815E-3,7.6311505E-1,1.2082449E0,5.6395322E-2,-1.267057E0,1.922678E0,4.7811708E-1,7.0212275E-1,1.4400086E0,-7.840211E-1,4.13637E-1,4.1731197E-1,2.8341818E-1,3.231622E-1,2.2091529E-1,4.7916584E-2,-1.125101E-1,-6.661376E-2,3.4269483E-3,4.300824E-2,-2.7968302E-2,-4.8854228E-2,-3.2503884E-2,-4.37399E-2,6.9262893E-3,8.290272E-2,2.394508E-1,1.7336199E-2,1.3873266E-1,-1.9664742E-2,1.2664104E-2,-5.732768E-3,8.768801E-2,2.635102E-1,8.013157E-2,1.9923264E-2,4.1569236E-1,2.7169655E-3,-4.803859E-2,7.8548455E-1,9.0258665E-2,5.52645E0,7.774084E-1,2.9024252E-1,-6.804698E-1,6.022652E-1,-2.5250477E-1,1.1289778E0,5.217322E-2,2.6593745E0,9.301425E-1,-2.1370563E-1,-2.0029578E0,2.2211716E0,3.6970863E-1,6.3405804E-2,4.6994886E-1,1.1016681E-1,2.9924828E-1,-1.1382615E-1,3.4855214E-1,-1.5765668E-1,2.2281633E-1],"categories":[],"categories_nodes":[],"categories_segments":[],"categories_sizes":[],"default_left":[true,true,true,true,true,true,true,false,true,true,true,false,false,true,true,false,false,true,true,true,true,true,true,true,true,false,true,true,true,true,true,true,true,true,false,true,true,true,true,true,true,true,false,true,true,true,true,true,true,false,true,true,true,true,true,true,true,true,false,false,true,true,true,true,true,true,true,true,true,false,false,false,false,false,false,false,false,false,false,false,false,false,false,false,false,false,false,false,false,false,false,false,false,false,false,false,false,false,false,false,false,false,false,false,false,false,false,false,false,false,false,false,false,false,false,false,false],"id":105,"left_children":[1,3,5,7,9,11,13,-1,15,17,19,-1,-1,21,23,-1,-1,25,27,29,31,33,35,37,39,-1,41,43,45,47,49,51,53,55,-1,57,59,61,63,65,67,69,-1,71,73,75,77,79,81,-1,83,85,87,89,91,93,95,97,-1,-1,99,101,103,105,107,109,111,113,115,-1,-1,-1,-1,-1,-1,-1,-1,-1,-1,-1,-1,-1,-1,-1,-1,-1,-1,-1,-1,-1,-1,-1,-1,-1,-1,-1,-1,-1,-1,-1,-1,-1,-1,-1,-1,-1,-1,-1,-1,-1,-1,-1,-1,-1,-1,-1,-1],"loss_changes":[4.8166595E1,1.1747783E0,4.0954834E1,9.9033475E-2,6.047714E-1,4.3011204E1,3.9953552E1,0E0,2.6912808E-2,1.82289E-1,2.6717108E-1,0E0,0E0,5.4034576E0,1.5483704E1,0E0,0E0,3.9499998E-2,6.0972124E-2,1.6066054E-1,2.0267795E-1,2.252655E0,5.975636E0,9.553684E0,8.536316E0,0E0,5.2671034E-2,4.1045457E-2,3.1152457E-2,8.453992E-2,8.519596E-1,1.0592654E-1,1.0332024E-1,2.4557648E0,0E0,3.260884E0,6.0718775E0,5.948303E0,5.7653313E0,5.1055145E0,4.3278503E0,4.178395E-2,0E0,1.7867448E-2,4.1655015E-2,1.678574E-2,5.721718E-2,8.1694275E-2,5.1011667E-2,0E0,1.0510792E-3,3.3522423E-2,6.36673E-2,5.0558347E-1,6.489881E-2,1.8051605E0,2.7004398E1,1.6685814E0,0E0,0E0,2.6256986E0,1.2540564E1,8.656946E0,2.8381772E0,4.400404E0,6.732197E0,3.7743378E0,5.090748E0,3.3507996E0,0E0,0E0,0E0,0E0,0E0,0E0,0E0,0E0,0E0,0E0,0E0,0E0,0E0,0E0,0E0,0E0,0E0,0E0,0E0,0E0,0E0,0E0,0E0,0E0,0E0,0E0,0E0,0E0,0E0,0E0,0E0,0E0,0E0,0E0,0E0,0E0,0E0,0E0,0E0,0E0,0E0,0E0,0E0,0E0,0E0,0E0,0E0,0E0],"parents":[2147483647,0,0,1,1,2,2,3,3,4,4,5,5,6,6,8,8,9,9,10,10,13,13,14,14,17,17,18,18,19,19,20,20,21,21,22,22,23,23,24,24,26,26,27,27,28,28,29,29,30,30,31,31,32,32,33,33,35,35,36,36,37,37,38,38,39,39,40,40,41,41,43,43,44,44,45,45,46,46,47,47,48,48,50,50,51,51,52,52,53,53,54,54,55,55,56,56,57,57,60,60,61,61,62,62,63,63,64,64,65,65,66,66,67,67,68,68],"right_children":[2,4,6,8,10,12,14,-1,16,18,20,-1,-1,22,24,-1,-1,26,28,30,32,34,36,38,40,-1,42,44,46,48,50,52,54,56,-1,58,60,62,64,66,68,70,-1,72,74,76,78,80,82,-1,84,86,88,90,92,94,96,98,-1,-1,100,102,104,106,108,110,112,114,116,-1,-1,-1,-1,-1,-1,-1,-1,-1,-1,-1,-1,-1,-1,-1,-1,-1,-1,-1,-1,-1,-1,-1,-1,-1,-1,-1,-1,-1,-1,-1,-1,-1,-1,-1,-1,-1,-1,-1,-1,-1,-1,-1,-1,-1,-1,-1,-1],"split_conditions":[3.9510223E-1,2.4576882E-2,2.2506302E-3,3.6677136E-3,1.3484347E-1,9.8790765E-1,1.7021276E-2,-0E0,1.2068965E-1,1.8427517E-2,1.4127764E-1,6.231367E-2,-2.8060876E-2,1.4323011E-1,9.6551724E-2,7.036435E-3,2.0858587E-3,9.9999994E-2,1.5007201E-1,5.7193017E-1,1.24684915E-1,1.4250991E-1,1.474613E-1,1.32157E-1,2.923833E-1,4.1166856E-3,1.5133238E-1,3.5106385E-1,9.9787235E-1,2.5344828E-1,3.224138E-1,1.2389015E-3,3.948276E-1,6.609337E-1,4.3843143E-2,5.331695E-1,3.095823E-1,1.2738568E-1,1.3386747E-1,2.0921858E-1,1.200036E-1,1.4692114E-1,2.6184197E-3,8.633418E-2,6.4742017E-1,1.6878912E-2,3.4520882E-1,1.6474614E-1,1.3882065E-1,1.9022526E-2,6.5763414E-1,8.084263E-2,1.00918256E-1,8.5713E-1,8.2186735E-1,2.3103449E-1,2.0975873E-2,1.4701116E-1,-2.5341138E-2,3.845356E-2,1.5925458E-1,6.580843E-2,1.2882608E-1,7.5862065E-2,1.3404754E-1,1.6680852E-1,7.920965E-1,2.086207E-1,1.2396471E-1,9.583316E-4,-2.250202E-3,-1.3322752E-3,6.853897E-5,8.601648E-4,-5.59366E-4,-9.770845E-4,-6.5007765E-4,-8.74798E-4,1.3852578E-4,1.6580544E-3,4.7890157E-3,3.4672397E-4,2.774653E-3,-3.9329485E-4,2.5328208E-4,-1.1465536E-4,1.75376E-3,5.270204E-3,1.6026313E-3,3.984653E-4,8.313847E-3,5.433931E-5,-9.607718E-4,1.570969E-2,1.8051732E-3,1.10529E-1,1.5548168E-2,5.8048503E-3,-1.3609396E-2,1.2045303E-2,-5.0500953E-3,2.2579554E-2,1.0434644E-3,5.318749E-2,1.860285E-2,-4.2741126E-3,-4.0059157E-2,4.442343E-2,7.3941723E-3,1.2681161E-3,9.398977E-3,2.2033362E-3,5.9849652E-3,-2.2765228E-3,6.9710426E-3,-3.1531337E-3,4.4563264E-3],"split_indices":[6,5,5,6,6,6,10,0,3,11,11,0,0,5,3,0,0,3,5,5,5,5,5,5,11,0,5,10,10,3,3,8,3,11,0,11,11,5,5,5,5,5,0,5,11,6,11,5,11,0,5,5,5,5,11,3,5,5,0,0,5,5,5,3,5,10,6,3,5,0,0,0,0,0,0,0,0,0,0,0,0,0,0,0,0,0,0,0,0,0,0,0,0,0,0,0,0,0,0,0,0,0,0,0,0,0,0,0,0,0,0,0,0,0,0,0,0],"split_type":[0,0,0,0,0,0,0,0,0,0,0,0,0,0,0,0,0,0,0,0,0,0,0,0,0,0,0,0,0,0,0,0,0,0,0,0,0,0,0,0,0,0,0,0,0,0,0,0,0,0,0,0,0,0,0,0,0,0,0,0,0,0,0,0,0,0,0,0,0,0,0,0,0,0,0,0,0,0,0,0,0,0,0,0,0,0,0,0,0,0,0,0,0,0,0,0,0,0,0,0,0,0,0,0,0,0,0,0,0,0,0,0,0,0,0,0,0],"sum_hessian":[7.937E3,7.7E2,7.167E3,1.2E1,7.58E2,2.5E1,7.142E3,1E0,1.1E1,4.32E2,3.26E2,2E0,2.3E1,1.8E2,6.962E3,1E1,1E0,1.4E1,4.18E2,4.5E1,2.81E2,1.38E2,4.2E1,1.23E2,6.839E3,2E0,1.2E1,5.1E1,3.67E2,4.1E1,4E0,2.4E1,2.57E2,1.37E2,1E0,1.1E1,3.1E1,6E1,6.3E1,1.744E3,5.095E3,7E0,5E0,1.5E1,3.6E1,2.79E2,8.8E1,1.7E1,2.4E1,1E0,3E0,1.5E1,9E0,1.13E2,1.44E2,1.22E2,1.5E1,9E0,2E0,3E0,2.8E1,4.5E1,1.5E1,4E0,5.9E1,3.62E2,1.382E3,4.57E2,4.638E3,5E0,2E0,1E1,5E0,2.4E1,1.2E1,1.52E2,1.27E2,4.6E1,4.2E1,1.2E1,5E0,2E1,4E0,2E0,1E0,6E0,9E0,5E0,4E0,1.1E2,3E0,1.12E2,3.2E1,1.18E2,4E0,1E0,1.4E1,7E0,2E0,2.4E1,4E0,2.7E1,1.8E1,4E0,1.1E1,3E0,1E0,1E0,5.8E1,4.7E1,3.15E2,1.16E2,1.266E3,2.5E1,4.32E2,2.3E1,4.615E3],"tree_param":{"num_deleted":"0","num_feature":"12","num_nodes":"117","size_leaf_vector":"0"}},{"base_weights":[2.528843E-1,-5.8645386E-2,5.3883016E-1,1.01450115E-1,-1.7270254E-1,1.5421625E0,4.9933845E-1,-5.9668114E-3,2.5470638E-1,-1.8633223E0,-1.6159116E-1,3.4060419E0,1.2894936E0,2.621647E-1,5.5904424E-1,-9.065416E-4,-4.9940163E-1,9.962433E-1,2.4487019E-1,-1.5940312E-1,-2.3084054E0,-5.473325E-1,-1.46854E-1,8.066485E0,9.195667E-1,1.2886006E-1,1.9326676E0,6.3406944E-1,2.5617933E-1,1.1281335E0,5.34273E-1,2.9870394E-1,-5.359125E-3,7.2728914E-1,1.5777506E0,1.9768971E-1,3.6802992E-1,-2.9677746E0,-1.8118588E0,-1.4352348E-1,-6.316218E-1,-1.957158E-1,-3.4536023E-2,4.50907E0,1.0812672E1,1.4521513E0,3.3631268E-1,-4.8636127E-1,4.2945862E-1,4.817682E0,1.1712793E0,1.9834286E0,3.0751905E-1,2.4559148E-1,4.392361E-1,4.713333E-1,1.5043926E0,5.902366E-1,3.8607818E-1,4.1589537E-1,1.8196498E-1,7.272063E-2,-1.6841747E-2,9.4528025E-1,4.322629E-1,1.7106009E-1,3.4509474E-1,2.3396106E-1,4.835919E-1,-7.382669E-1,-2.1656113E0,-1.9614797E-2,-1.5125617E-1,-9.754679E-1,-4.5333284E-1,-1.00017704E-1,-2.750934E-1,6.1124235E-1,-5.4666944E-2,6.8072834E0,2.5452523E0,1.1498858E0,2.2872715E0,9.831301E-2,7.2412544E-1,1.4096671E0,-7.847122E-1,1.9129742E0,3.1395215E-1,1.2795695E1,2.97757E0,8.5012245E-1,5.02945E0,-1.7734966E-1,6.253353E-1,2.5771636E-1,-1.3057753E-1,6.7997825E-1,3.9284718E-1,9.789453E-1,3.1264338E-1,3.9797068E0,1.2598265E0,5.003995E-1,8.381846E-1,6.9143856E-1,3.4954935E-1,5.010749E-1,1.9216155E-1,-6.547123E-2,3.6159128E-1,5.7622362E-2,1.8571028E-1,-2.6825896E-2,9.887814E-2,2.2963873E-1,1.0904716E-1,4.66581E-1,1.0845679E-1,3.9064312E-1,1.0910346E-1,8.491146E-1,4.2670506E-1,4.8149195E-1,-1.1273725E0,-4.0029874E-1,-1.3445711E0,-6.0338306E-1,-6.4947896E-2,-1.0828225E-1,-3.345299E-1,9.404752E-2,7.558432E0,-1.4675529E0,-4.468015E-2,2.6044005E-1,-7.175093E-2,1.6395397E-1,2.292157E0,-1.8052847E0,-3.3001843E-1,1.4655575E-1,3.1903036E0,1.00853816E-1,5.0672066E-1,3.8881195E0,2.0554228E0,-6.057486E-1,1.4083308E0,1.1837673E0,1.6258572E1,-3.5089654E-1,-8.5905954E-2,8.7324405E-1,3.1059057E-1,2.37476E-1,3.8900572E-1,1.6247664E-1,-2.1423416E-1,2.6730382E-1,4.5050925E-1,3.3881554E-1,1.9836037E0,6.6497874E-1,-2.6122717E-2,5.5579748E-2,1.8812344E0,-6.598457E-1,5.0924593E-1,1.0488296E0,7.1424073E-1,1.5072371E0,5.5641955E-1,5.361228E-1,3.1254506E-1],"categories":[],"categories_nodes":[],"categories_segments":[],"categories_sizes":[],"default_left":[true,true,true,true,true,true,true,true,true,true,true,true,true,true,true,true,false,true,true,false,true,true,true,true,true,true,true,true,true,true,true,true,true,true,false,true,true,false,true,true,true,true,true,true,false,true,true,true,true,true,true,false,true,true,true,true,true,true,true,true,true,true,true,false,false,true,true,true,true,false,false,false,false,true,true,true,true,true,true,false,false,false,false,true,false,true,true,true,true,false,true,true,true,true,true,true,true,false,true,true,true,false,true,true,true,true,true,false,false,false,false,false,false,false,false,false,false,false,false,false,false,false,false,false,false,false,false,false,false,false,false,false,false,false,false,false,false,false,false,false,false,false,false,false,false,false,false,false,false,false,false,false,false,false,false,false,false,false,false,false,false,false,false,false,false,false,false,false,false,false,false,false,false,false,false],"id":106,"left_children":[1,3,5,7,9,11,13,15,17,19,21,23,25,27,29,31,-1,33,35,-1,37,39,41,43,45,47,49,51,53,55,57,59,61,63,-1,65,67,-1,69,71,73,75,77,79,-1,81,83,85,87,89,91,-1,93,95,97,99,101,103,105,107,109,111,113,-1,-1,115,117,119,121,-1,-1,-1,-1,123,125,127,129,131,133,-1,-1,-1,-1,135,-1,137,139,141,143,-1,145,147,149,151,153,155,157,-1,159,161,163,-1,165,167,169,171,173,-1,-1,-1,-1,-1,-1,-1,-1,-1,-1,-1,-1,-1,-1,-1,-1,-1,-1,-1,-1,-1,-1,-1,-1,-1,-1,-1,-1,-1,-1,-1,-1,-1,-1,-1,-1,-1,-1,-1,-1,-1,-1,-1,-1,-1,-1,-1,-1,-1,-1,-1,-1,-1,-1,-1,-1,-1,-1,-1,-1,-1,-1,-1,-1,-1,-1,-1,-1],"loss_changes":[7.01557E2,6.883503E1,1.6242078E2,2.5822454E1,4.122303E1,7.1621826E1,5.5892822E1,2.2956994E0,4.615246E0,1.0712391E1,1.239769E1,2.0984793E2,1.0240552E2,1.7035484E0,4.4270203E1,1.2147735E0,0E0,8.8781357E-1,3.6768532E0,0E0,1.84935E0,2.6930065E0,1.1559635E1,4.539676E1,3.6428022E0,9.192308E0,1.9206757E2,5.198468E0,1.472496E0,3.2191437E1,2.5000732E1,1.4864802E-1,8.068146E-1,2.5141597E-1,0E0,1.7877693E0,2.6840172E0,0E0,2.2105732E0,1.0306925E-2,3.8986607E0,1.1139355E1,8.314611E0,9.133644E0,0E0,6.7265415E-1,5.4910356E-1,9.599515E0,5.479835E0,2.562131E2,8.563899E1,0E0,1.6357523E0,3.3942566E0,3.6838818E-1,3.7729158E0,4.8701553E1,4.8742004E1,9.166473E0,7.8703046E-2,3.380623E-1,1.897136E-1,9.0720344E-1,0E0,0E0,1.4120226E0,1.9968872E0,1.589344E0,1.8224945E0,0E0,0E0,0E0,0E0,5.133047E0,1.8910923E0,1.1740135E1,7.9364777E0,6.9119934E1,8.709593E0,0E0,0E0,0E0,0E0,1.2840532E-1,0E0,2.4048977E0,6.422285E0,5.061492E0,1.2614284E0,0E0,1.0125122E1,5.3391106E1,2.2365178E2,5.24884E-2,3.8685703E-1,1.8691139E0,5.8438736E-1,0E0,2.1262455E-1,7.0314426E0,4.4710016E0,0E0,5.7060013E1,1.6658936E1,1.4954803E1,9.420677E0,5.057106E0,0E0,0E0,0E0,0E0,0E0,0E0,0E0,0E0,0E0,0E0,0E0,0E0,0E0,0E0,0E0,0E0,0E0,0E0,0E0,0E0,0E0,0E0,0E0,0E0,0E0,0E0,0E0,0E0,0E0,0E0,0E0,0E0,0E0,0E0,0E0,0E0,0E0,0E0,0E0,0E0,0E0,0E0,0E0,0E0,0E0,0E0,0E0,0E0,0E0,0E0,0E0,0E0,0E0,0E0,0E0,0E0,0E0,0E0,0E0,0E0,0E0,0E0,0E0,0E0,0E0,0E0,0E0,0E0],"parents":[2147483647,0,0,1,1,2,2,3,3,4,4,5,5,6,6,7,7,8,8,9,9,10,10,11,11,12,12,13,13,14,14,15,15,17,17,18,18,20,20,21,21,22,22,23,23,24,24,25,25,26,26,27,27,28,28,29,29,30,30,31,31,32,32,33,33,35,35,36,36,38,38,39,39,40,40,41,41,42,42,43,43,45,45,46,46,47,47,48,48,49,49,50,50,52,52,53,53,54,54,55,55,56,56,57,57,58,58,59,59,60,60,61,61,62,62,65,65,66,66,67,67,68,68,73,73,74,74,75,75,76,76,77,77,78,78,83,83,85,85,86,86,87,87,88,88,90,90,91,91,92,92,93,93,94,94,95,95,96,96,98,98,99,99,100,100,102,102,103,103,104,104,105,105,106,106],"right_children":[2,4,6,8,10,12,14,16,18,20,22,24,26,28,30,32,-1,34,36,-1,38,40,42,44,46,48,50,52,54,56,58,60,62,64,-1,66,68,-1,70,72,74,76,78,80,-1,82,84,86,88,90,92,-1,94,96,98,100,102,104,106,108,110,112,114,-1,-1,116,118,120,122,-1,-1,-1,-1,124,126,128,130,132,134,-1,-1,-1,-1,136,-1,138,140,142,144,-1,146,148,150,152,154,156,158,-1,160,162,164,-1,166,168,170,172,174,-1,-1,-1,-1,-1,-1,-1,-1,-1,-1,-1,-1,-1,-1,-1,-1,-1,-1,-1,-1,-1,-1,-1,-1,-1,-1,-1,-1,-1,-1,-1,-1,-1,-1,-1,-1,-1,-1,-1,-1,-1,-1,-1,-1,-1,-1,-1,-1,-1,-1,-1,-1,-1,-1,-1,-1,-1,-1,-1,-1,-1,-1,-1,-1,-1,-1,-1,-1],"split_conditions":[6.621175E-1,6.572582E-1,4.6543032E-2,3.989272E-1,2.7272727E-2,7.6906526E-1,9.8790765E-1,3.9342475E-1,3.9791144E-2,5.5555556E-2,1.8427517E-2,2.6969698E-1,8.2218254E-1,1.8427517E-2,1.8427517E-2,2.4576882E-2,-9.988032E-3,3.888889E-1,8.30303E-1,-3.1880622E-3,1.6666667E-1,5.5555556E-2,2.777778E-1,7.563675E-1,3.7630536E-2,1.7021276E-2,8.349742E-1,1.3683832E-1,9.859468E-1,6.818182E-1,8.4422266E-1,1.24566406E-1,5.4538816E-2,5.3245944E-1,3.1555012E-2,6.430696E-1,6.028142E-1,-5.935549E-2,2.777778E-1,5.1764496E-2,3.9234042E-1,3.9234042E-1,4.942384E-2,7.290039E-1,2.1625343E-1,7.383193E-1,4.2311847E-2,9.8790765E-1,7.4893616E-2,1.8181819E-1,4.078142E-2,3.966857E-2,1.5628377E-1,9.699887E-1,2.7088585E-1,1.1091106E-1,7.554066E-1,8.2218254E-1,4.2424244E-1,1.6666667E-1,2.4243233E-1,9.212121E-1,3.8253418E-1,1.8905604E-2,8.645258E-3,6.242424E-1,6.4979887E-1,4.3256068E-1,1.6666667E-1,-1.4765337E-2,-4.3312225E-2,-3.9229594E-4,-3.0251234E-3,4.2311847E-2,1.9922578E-1,3.8800865E-2,5.5555556E-2,4.3932304E-2,5.788621E-2,1.3614567E-1,5.0905045E-2,2.2997715E-2,4.574543E-2,7.1917176E-1,1.4482508E-2,7.9534507E-1,2.7272727E-2,7.9423225E-1,3.0518545E-2,2.559139E-1,4.2424244E-1,8.571358E-1,3.969697E-1,8.798429E-1,1.6666667E-1,9.5665354E-1,3.7864602E-1,1.3599564E-2,6.4496315E-1,8.76709E-1,8.0966675E-1,7.9594135E-2,8.2218254E-1,5.5555556E-2,4.2870003E-1,1.3503781E-1,1.6666667E-1,1.0021498E-2,3.843231E-3,-1.3094246E-3,7.2318255E-3,1.1524472E-3,3.7142055E-3,-5.365179E-4,1.9775627E-3,4.5927744E-3,2.180943E-3,9.331619E-3,2.1691357E-3,7.812862E-3,2.1820692E-3,1.698229E-2,8.534101E-3,9.629839E-3,-2.254745E-2,-8.005975E-3,-2.6891422E-2,-1.2067661E-2,-1.2989579E-3,-2.1656451E-3,-6.690598E-3,1.8809503E-3,1.5116864E-1,-2.9351057E-2,-8.9360296E-4,5.208801E-3,-1.4350186E-3,3.2790795E-3,4.584314E-2,-3.6105692E-2,-6.6003683E-3,2.931115E-3,6.380607E-2,2.0170764E-3,1.0134413E-2,7.776239E-2,4.1108456E-2,-1.2114972E-2,2.8166614E-2,2.3675347E-2,3.251714E-1,-7.0179305E-3,-1.718119E-3,1.746488E-2,6.211811E-3,4.74952E-3,7.780114E-3,3.2495328E-3,-4.284683E-3,5.3460766E-3,9.010185E-3,6.7763105E-3,3.9672073E-2,1.3299574E-2,-5.224543E-4,1.111595E-3,3.7624687E-2,-1.31969135E-2,1.01849185E-2,2.097659E-2,1.4284815E-2,3.0144742E-2,1.1128391E-2,1.0722456E-2,6.250901E-3],"split_indices":[1,1,5,1,2,1,6,1,5,4,11,2,1,11,11,5,0,4,2,0,4,4,4,1,5,10,1,5,1,2,1,1,1,1,0,1,1,0,4,5,10,10,5,1,0,1,5,6,10,2,5,0,5,1,5,5,1,1,2,4,1,2,1,0,0,2,1,1,4,0,0,0,0,5,5,5,4,5,5,0,0,0,0,1,0,1,2,1,5,0,2,1,2,1,4,1,5,0,11,1,1,0,1,4,5,5,4,0,0,0,0,0,0,0,0,0,0,0,0,0,0,0,0,0,0,0,0,0,0,0,0,0,0,0,0,0,0,0,0,0,0,0,0,0,0,0,0,0,0,0,0,0,0,0,0,0,0,0,0,0,0,0,0,0,0,0,0,0,0,0,0,0,0,0,0],"split_type":[0,0,0,0,0,0,0,0,0,0,0,0,0,0,0,0,0,0,0,0,0,0,0,0,0,0,0,0,0,0,0,0,0,0,0,0,0,0,0,0,0,0,0,0,0,0,0,0,0,0,0,0,0,0,0,0,0,0,0,0,0,0,0,0,0,0,0,0,0,0,0,0,0,0,0,0,0,0,0,0,0,0,0,0,0,0,0,0,0,0,0,0,0,0,0,0,0,0,0,0,0,0,0,0,0,0,0,0,0,0,0,0,0,0,0,0,0,0,0,0,0,0,0,0,0,0,0,0,0,0,0,0,0,0,0,0,0,0,0,0,0,0,0,0,0,0,0,0,0,0,0,0,0,0,0,0,0,0,0,0,0,0,0,0,0,0,0,0,0,0,0,0,0,0,0],"sum_hessian":[7.875E3,3.769E3,4.106E3,1.568E3,2.201E3,1.55E2,3.951E3,9.22E2,6.46E2,1.4E1,2.187E3,1.8E1,1.37E2,7.95E2,3.156E3,9.13E2,9E0,8E0,6.38E2,3E0,1.1E1,8E1,2.107E3,6E0,1.2E1,4.9E1,8.8E1,1.2E1,7.83E2,1.31E2,3.025E3,1.3E1,9E2,6E0,2E0,4.62E2,1.76E2,4E0,7E0,1.4E1,6.6E1,1.468E3,6.39E2,3E0,3E0,6E0,6E0,1.6E1,3.3E1,1.8E1,7E1,2E0,1E1,7.41E2,4.2E1,4.8E1,8.3E1,2.195E3,8.3E2,6E0,7E0,1.15E2,7.85E2,3E0,3E0,3.92E2,7E1,8.2E1,9.4E1,2E0,5E0,1E0,1.3E1,2.2E1,4.4E1,6.66E2,8.02E2,1.9E1,6.2E2,1E0,2E0,5E0,1E0,4E0,2E0,2E0,1.4E1,2E0,3.1E1,3E0,1.5E1,6.5E1,5E0,4E0,6E0,7.18E2,2.3E1,6E0,3.6E1,1.1E1,3.7E1,7E0,7.6E1,1.612E3,5.83E2,8.8E1,7.42E2,4E0,2E0,3E0,4E0,1.02E2,1.3E1,7.23E2,6.2E1,2.01E2,1.91E2,4.6E1,2.4E1,3.6E1,4.6E1,1.2E1,8.2E1,2E0,2E1,4.2E1,2E0,4.3E1,6.23E2,2.11E2,5.91E2,1.8E1,1E0,4E0,6.16E2,2E0,2E0,1E0,1E0,4E0,1E1,1E0,1E0,1.5E1,1.6E1,7E0,8E0,1.8E1,4.7E1,4E0,1E0,1E0,3E0,3E0,3E0,6.23E2,9.5E1,5E0,1.8E1,1.2E1,2.4E1,7E0,4E0,1.8E1,1.9E1,2.6E1,5E1,1.2E1,1.6E3,2.15E2,3.68E2,1.2E1,7.6E1,1.22E2,6.2E2],"tree_param":{"num_deleted":"0","num_feature":"12","num_nodes":"175","size_leaf_vector":"0"}},{"base_weights":[2.5328153E-1,3.19801E0,2.430938E-1,2.9808905E0,6.675248E0,-1.0763601E-3,2.697301E-1,7.576917E-2,-1.4458418E-2,7.264507E-1,2.5732863E-1,2.8521302E-1,5.701337E-2,-3.2583658E-2,1.1071331E-2,4.5528635E-1,1.0381469E0,4.9257064E-1,2.4946105E-1,4.3753505E-1,2.4771465E-1,3.2659285E-2,1.7254002E-1,-3.9191097E-2,-1.6706524E-2,3.2894278E-1,9.460778E-3,-3.0382645E-1,5.3966624E-1,9.0335095E-1,3.0514247E0,2.3434177E-1,6.269E-1,2.6277667E-1,1.8622808E-1,2.1093646E-3,7.5969994E-2,2.1515784E-1,7.8211516E-2,-7.3469535E-2,-3.760599E-2,-1.1504585E-2,-1.0337479E-1,3.2713044E-2,-7.3006423E-3,-4.2630178E-1,6.187079E-1,2.9099384E-1,7.400154E-1,7.8391147E-1,1.9308753E0,4.662587E0,3.0761907E-1,4.2815787E-1,7.039099E-2,8.3272296E-1,4.0945333E-1,3.032276E-1,2.361801E-1,-3.1557685E-1,1.9328703E-1,2.7575204E-2,-4.1095715E-2,2.898522E-3,1.16028264E-1,1.438736E-1,2.7286133E-1,4.1629644E-3,8.916053E-2,-2.2222698E-2,-9.846625E-2,3.1109383E-2,-3.931053E-2,-1.8928926E-2,2.2645459E-2,-5.867174E-2,-1.6550657E-1,1.694023E-2,1.01278126E-1,-3.5270147E-2,5.8434242E-3,-1.6685262E-1,-7.095253E-1,2.3186877E-1,1.2399198E0,1.1041673E0,3.655594E-1,8.285605E-1,-7.060414E-1,2.1969457E0,9.266611E-1,2.253666E0,5.3667417E0,5.6049407E-1,-1.1487686E-2,3.0349186E-1,8.8840073E-1,-2.0615838E-1,2.991375E-1,5.9496623E-1,1.6785308E0,-1.07977346E-1,6.221083E-1,5.4012454E-1,2.9581097E-1,2.1850765E-1,3.4447667E-1,-4.4714805E-1,-8.204184E-2,1.1477419E-1,2.2641443E-1],"categories":[],"categories_nodes":[],"categories_segments":[],"categories_sizes":[],"default_left":[true,true,true,false,false,true,true,true,true,true,true,true,true,true,true,true,true,true,true,false,false,true,true,true,true,false,true,true,true,true,true,true,true,true,true,true,true,true,true,true,true,true,true,true,true,true,false,true,true,true,true,true,true,true,true,true,true,true,true,true,true,false,false,false,false,false,false,false,false,false,false,false,false,false,false,false,false,false,false,false,false,false,false,false,false,false,false,false,false,false,false,false,false,false,false,false,false,false,false,false,false,false,false,false,false,false,false,false,false,false,false],"id":107,"left_children":[1,3,5,-1,-1,7,9,11,13,15,17,19,21,23,25,27,29,31,33,-1,-1,35,37,39,41,-1,43,45,47,49,51,53,55,57,59,61,63,65,67,69,71,73,75,77,79,81,-1,83,85,87,89,91,93,95,97,99,101,103,105,107,109,-1,-1,-1,-1,-1,-1,-1,-1,-1,-1,-1,-1,-1,-1,-1,-1,-1,-1,-1,-1,-1,-1,-1,-1,-1,-1,-1,-1,-1,-1,-1,-1,-1,-1,-1,-1,-1,-1,-1,-1,-1,-1,-1,-1,-1,-1,-1,-1,-1,-1],"loss_changes":[2.378125E2,1.38628845E1,5.145111E1,0E0,0E0,7.99891E-1,4.0321228E1,4.4275886E-1,3.0737332E-1,1.5739189E1,1.2800934E1,7.393837E-3,2.94368E-1,3.9723337E-2,1.3509184E-1,6.5488415E0,2.2725075E1,7.7203445E0,5.6357117E0,0E0,0E0,1.1571028E-1,6.3905716E-2,1.2345821E-2,4.996206E-2,0E0,1.0736112E-1,1.2527658E0,4.4638386E0,9.561058E0,2.302858E1,2.4402099E0,6.4625664E0,5.9397583E0,4.1641693E0,5.7765134E-2,1.0454379E-1,3.169626E-2,3.6799647E-3,1.2066986E-2,3.125143E-2,2.7810514E-2,1.11551955E-2,1.22470625E-1,5.9064724E-2,6.3386405E-1,0E0,2.2021606E0,6.7078495E0,5.1418495E0,1.5031891E0,1.5124207E0,1.9827566E-1,1.920403E0,2.6998942E0,1.478384E1,7.9888897E0,3.8007355E0,6.378952E0,4.8208845E-1,2.9888E0,0E0,0E0,0E0,0E0,0E0,0E0,0E0,0E0,0E0,0E0,0E0,0E0,0E0,0E0,0E0,0E0,0E0,0E0,0E0,0E0,0E0,0E0,0E0,0E0,0E0,0E0,0E0,0E0,0E0,0E0,0E0,0E0,0E0,0E0,0E0,0E0,0E0,0E0,0E0,0E0,0E0,0E0,0E0,0E0,0E0,0E0,0E0,0E0,0E0,0E0],"parents":[2147483647,0,0,1,1,2,2,5,5,6,6,7,7,8,8,9,9,10,10,11,11,12,12,13,13,14,14,15,15,16,16,17,17,18,18,21,21,22,22,23,23,24,24,26,26,27,27,28,28,29,29,30,30,31,31,32,32,33,33,34,34,35,35,36,36,37,37,38,38,39,39,40,40,41,41,42,42,43,43,44,44,45,45,47,47,48,48,49,49,50,50,51,51,52,52,53,53,54,54,55,55,56,56,57,57,58,58,59,59,60,60],"right_children":[2,4,6,-1,-1,8,10,12,14,16,18,20,22,24,26,28,30,32,34,-1,-1,36,38,40,42,-1,44,46,48,50,52,54,56,58,60,62,64,66,68,70,72,74,76,78,80,82,-1,84,86,88,90,92,94,96,98,100,102,104,106,108,110,-1,-1,-1,-1,-1,-1,-1,-1,-1,-1,-1,-1,-1,-1,-1,-1,-1,-1,-1,-1,-1,-1,-1,-1,-1,-1,-1,-1,-1,-1,-1,-1,-1,-1,-1,-1,-1,-1,-1,-1,-1,-1,-1,-1,-1,-1,-1,-1,-1,-1],"split_conditions":[2.7272727E-2,5.8854413E-1,4.2840246E-2,5.961781E-2,1.3350496E-1,1.7410874E-1,3.3759452E-2,2.9528268E-2,2.4990782E-2,5.0082594E-1,1.8427517E-2,2.8483497E-3,9.212121E-1,6.736668E-2,1.8427517E-2,1.9625496E-2,2.682751E-2,6.818182E-1,8.2186735E-1,8.7507E-3,4.954293E-3,2.4990782E-2,3.5106385E-1,2.0579761E-1,9.533169E-1,6.578855E-3,5.300684E-1,1.166234E-1,3.5106385E-1,7.090609E-2,5.3931206E-1,1.4611092E-1,1.6762693E-1,4.3329132E-1,3.3636364E-1,6.4742017E-1,2.9787233E-1,1.2990637E-1,4.510263E-2,4.0821142E-2,2.1840116E-1,9.212121E-1,9.9787235E-1,4.6146923E-1,6.666666E-1,1.8815268E-2,1.2374158E-2,3.32193E-2,1.2389015E-3,3.3636364E-1,5.8854413E-1,3.3636364E-1,3.114872E-2,1.414296E-1,1.6078502E-1,1.628556E-1,6.893617E-1,1.48936175E-2,9.123155E-1,3.0266476E-1,2.7021277E-1,5.515041E-4,-8.219143E-4,5.797044E-5,2.3205653E-3,2.877472E-3,5.4572267E-3,8.3259285E-5,1.7832106E-3,-4.4445394E-4,-1.969325E-3,6.221876E-4,-7.862106E-4,-3.7857852E-4,4.5290915E-4,-1.1734348E-3,-3.3101314E-3,3.388046E-4,2.0255626E-3,-7.054029E-4,1.1686848E-4,-3.3370524E-3,-1.4190505E-2,4.6373755E-3,2.4798395E-2,2.2083346E-2,7.3111877E-3,1.6571209E-2,-1.4120827E-2,4.3938912E-2,1.853322E-2,4.507332E-2,1.0733483E-1,1.1209881E-2,-2.2975371E-4,6.069837E-3,1.7768014E-2,-4.1231676E-3,5.98275E-3,1.1899324E-2,3.3570614E-2,-2.1595468E-3,1.2442165E-2,1.0802491E-2,5.916219E-3,4.370153E-3,6.8895333E-3,-8.942961E-3,-1.6408367E-3,2.2954838E-3,4.5282883E-3],"split_indices":[2,7,9,0,0,5,5,5,9,8,11,9,2,7,11,5,5,2,11,0,0,9,10,5,11,0,5,7,10,7,11,5,5,5,2,11,10,5,5,7,5,2,10,5,2,5,0,5,8,2,7,2,5,5,5,5,10,10,5,5,10,0,0,0,0,0,0,0,0,0,0,0,0,0,0,0,0,0,0,0,0,0,0,0,0,0,0,0,0,0,0,0,0,0,0,0,0,0,0,0,0,0,0,0,0,0,0,0,0,0,0],"split_type":[0,0,0,0,0,0,0,0,0,0,0,0,0,0,0,0,0,0,0,0,0,0,0,0,0,0,0,0,0,0,0,0,0,0,0,0,0,0,0,0,0,0,0,0,0,0,0,0,0,0,0,0,0,0,0,0,0,0,0,0,0,0,0,0,0,0,0,0,0,0,0,0,0,0,0,0,0,0,0,0,0,0,0,0,0,0,0,0,0,0,0,0,0,0,0,0,0,0,0,0,0,0,0,0,0,0,0,0,0,0,0],"sum_hessian":[7.937E3,2.7E1,7.91E3,2.6E1,1E0,7.78E2,7.132E3,1.15E2,6.63E2,1.88E2,6.944E3,9E0,1.06E2,3.88E2,2.75E2,1.01E2,8.7E1,2.24E2,6.72E3,1E0,8E0,8.8E1,1.8E1,2.73E2,1.15E2,1E0,2.74E2,1E1,9.1E1,8.2E1,5E0,7.7E1,1.47E2,5.55E3,1.17E3,5.2E1,3.6E1,1.2E1,6E0,1.1E1,2.62E2,1.09E2,6E0,1.15E2,1.59E2,9E0,1E0,4.1E1,5E1,7.4E1,8E0,3E0,2E0,3.5E1,4.2E1,7.5E1,7.2E1,2.2E3,3.35E3,1.6E1,1.154E3,3.3E1,1.9E1,1.3E1,2.3E1,6E0,6E0,1E0,5E0,4E0,7E0,6E0,2.56E2,9E1,1.9E1,4E0,2E0,9.4E1,2.1E1,5.1E1,1.08E2,5E0,4E0,3.9E1,2E0,2.5E1,2.5E1,7.2E1,2E0,6E0,2E0,1E0,2E0,1E0,1E0,2.8E1,7E0,1.9E1,2.3E1,5.9E1,1.6E1,2.1E1,5.1E1,6.6E1,2.134E3,2.881E3,4.69E2,1E1,6E0,3.43E2,8.11E2],"tree_param":{"num_deleted":"0","num_feature":"12","num_nodes":"111","size_leaf_vector":"0"}},{"base_weights":[2.4310267E-1,4.1439066E0,2.3006696E-1,-2.1018778E-1,4.7073307E0,-1.8842494E-2,2.578148E-1,4.9229903E0,-7.112037E-2,-1.0138315E-1,1.8729147E-1,5.560399E-2,2.9253322E-1,3.2323062E-1,5.1328816E0,5.585914E-4,-1.349716E-1,2.251273E0,1.6548036E-1,-3.6817014E-3,1.4102282E-1,2.5913435E-1,3.775494E-1,4.0417876E0,5.975417E0,6.3596433E-1,-5.421434E-3,-1.2161739E-1,-1.7081709E-1,1.5200937E-1,3.776846E0,8.121489E-3,1.9253193E-1,2.1766974E-1,-7.861341E-3,2.851936E-1,1.3290791E-1,3.5936785E-1,2.2581857E-1,3.0002007E-1,4.7215125E-1,5.340826E0,7.7535886E-1,-3.1398296E-2,1.7242681E-2,-1.309748E-1,-3.6378205E-3,-2.2868949E-1,-1.5833354E-1,1.8147528E-1,-2.410265E-2,3.940196E-1,1.7580363E-1,3.749139E-1,1.1290845E-1,-2.9090079E-2,2.2260606E-2,1.0597076E-1,5.295072E-1,1.6967428E-1,1.01573795E-1,1.782762E-1,4.314447E-1,6.2168485E-1,2.1414351E-1,6.041611E-1,2.8518873E-1,7.212317E-1,4.0149048E-1,2.2130694E0,-1.5091865E-1,-3.9973605E-2,-1.6359806E-3,1.7666847E-1,1.1822928E-2,-2.8329504E-1,-1.2679835E-1,1.1327271E0,-1.2854606E-1,-3.967454E-1,-1.8884891E-1,-1.2984951E-1,-1.860025E-1,1.0823894E-1,2.540497E-1,2.1728404E-2,-3.484538E-2,1.7235014E-1,7.5462663E-1,1.3587792E-1,2.503438E-1,1.1089045E-1,4.3874544E-1,-0E0,1.9033444E-1,1.9967569E-2,-3.3038568E-2,-1.6439913E-2,4.4627912E-2,4.4455883E-1,-5.293673E-3,7.491792E-4,5.9121555E-1,1.871364E-1,-2.7065264E-2,-2.5356147E-1,1.0695542E-1,-7.3080007E-3,3.2590702E-1,7.071135E-1,3.7083492E-1,1.011194E0,3.7097967E-1,2.1700431E-1,-1.17146775E-1,1.5936905E-1,9.4869226E-1,9.920232E-2,3.0614582E-1,5.384364E-1,1.1376466E0,4.1824326E-1,1.5906847E-1],"categories":[],"categories_nodes":[],"categories_segments":[],"categories_sizes":[],"default_left":[true,true,true,false,true,true,true,true,false,true,true,true,true,false,true,true,true,true,true,true,true,true,true,true,false,false,true,true,true,false,false,true,true,true,true,true,true,true,true,true,true,false,true,true,true,true,true,true,true,true,true,true,true,true,true,true,true,true,true,true,true,true,true,true,true,true,true,true,true,false,false,false,false,false,false,false,false,false,false,false,false,false,false,false,false,false,false,false,false,false,false,false,false,false,false,false,false,false,false,false,false,false,false,false,false,false,false,false,false,false,false,false,false,false,false,false,false,false,false,false,false,false,false],"id":108,"left_children":[1,3,5,-1,7,9,11,13,-1,15,17,19,21,-1,23,25,27,29,31,33,35,37,39,41,-1,-1,43,45,47,-1,-1,49,51,53,55,57,59,61,63,65,67,-1,69,71,73,75,77,79,81,83,85,87,89,91,93,95,97,99,101,103,105,107,109,111,113,115,117,119,121,-1,-1,-1,-1,-1,-1,-1,-1,-1,-1,-1,-1,-1,-1,-1,-1,-1,-1,-1,-1,-1,-1,-1,-1,-1,-1,-1,-1,-1,-1,-1,-1,-1,-1,-1,-1,-1,-1,-1,-1,-1,-1,-1,-1,-1,-1,-1,-1,-1,-1,-1,-1,-1,-1],"loss_changes":[4.0201086E2,6.499539E1,5.448047E1,0E0,2.4231628E1,1.3469196E1,4.980899E1,2.0930786E1,0E0,1.9376812E0,1.00303135E1,5.270499E0,1.7154907E1,0E0,1.1414856E1,5.433749E-1,1.9250298E-1,7.2256374E0,9.515605E-1,5.659403E-1,4.8017693E-1,1.4488586E1,1.246405E1,4.2378998E1,0E0,0E0,8.241401E-2,3.4162807E-1,6.5005064E-2,0E0,0E0,1.8991007E-1,6.1367035E-1,1.6562289E-1,3.861155E-1,9.5013034E-1,4.5619297E-1,1.4118927E1,1.5035263E1,4.167015E0,1.3410263E1,0E0,4.580039E0,1.6059153E-2,6.084253E-2,1.6559792E-1,3.3462164E0,9.610796E-2,6.25751E-2,1.4010325E-2,1.4389586E-2,1.0891602E0,5.1090384E-1,4.896778E-2,6.350009E-2,6.9042146E-2,2.1647635E-1,5.0935984E-1,2.959478E-1,6.406832E-1,4.261434E-1,8.480442E0,1.2851639E1,8.969387E0,3.0164948E0,6.574403E0,3.477745E0,1.26612625E1,2.4036255E0,0E0,0E0,0E0,0E0,0E0,0E0,0E0,0E0,0E0,0E0,0E0,0E0,0E0,0E0,0E0,0E0,0E0,0E0,0E0,0E0,0E0,0E0,0E0,0E0,0E0,0E0,0E0,0E0,0E0,0E0,0E0,0E0,0E0,0E0,0E0,0E0,0E0,0E0,0E0,0E0,0E0,0E0,0E0,0E0,0E0,0E0,0E0,0E0,0E0,0E0,0E0,0E0,0E0,0E0],"parents":[2147483647,0,0,1,1,2,2,4,4,5,5,6,6,7,7,9,9,10,10,11,11,12,12,14,14,15,15,16,16,17,17,18,18,19,19,20,20,21,21,22,22,23,23,26,26,27,27,28,28,31,31,32,32,33,33,34,34,35,35,36,36,37,37,38,38,39,39,40,40,42,42,43,43,44,44,45,45,46,46,47,47,48,48,49,49,50,50,51,51,52,52,53,53,54,54,55,55,56,56,57,57,58,58,59,59,60,60,61,61,62,62,63,63,64,64,65,65,66,66,67,67,68,68],"right_children":[2,4,6,-1,8,10,12,14,-1,16,18,20,22,-1,24,26,28,30,32,34,36,38,40,42,-1,-1,44,46,48,-1,-1,50,52,54,56,58,60,62,64,66,68,-1,70,72,74,76,78,80,82,84,86,88,90,92,94,96,98,100,102,104,106,108,110,112,114,116,118,120,122,-1,-1,-1,-1,-1,-1,-1,-1,-1,-1,-1,-1,-1,-1,-1,-1,-1,-1,-1,-1,-1,-1,-1,-1,-1,-1,-1,-1,-1,-1,-1,-1,-1,-1,-1,-1,-1,-1,-1,-1,-1,-1,-1,-1,-1,-1,-1,-1,-1,-1,-1,-1,-1,-1],"split_conditions":[2.7272727E-2,5.5555556E-2,5.5555556E-2,-4.2037554E-3,4.4444448E-1,7.090609E-2,7.920965E-1,5.318377E-1,-1.4224073E-3,5.719247E-1,5E-1,3.9510223E-1,8.30303E-1,6.464612E-3,2.777778E-1,5E-1,8.30303E-1,8.110852E-1,3.8609636E-1,7.241379E-2,1.6034484E-1,5.181818E-1,2.777778E-1,1.6666667E-1,1.1950834E-1,1.2719287E-2,8.513586E-2,9.9787235E-1,1.8793103E-1,3.0401873E-3,7.5536914E-2,1.7931035E-1,1.6034484E-1,1.6666667E-1,1.3484347E-1,6.636363E-1,7.008511E-1,1.6666667E-1,4.1296717E-4,9.5682657E-1,2.5344828E-1,1.06816515E-1,9.8790765E-1,8.30303E-1,3.3636364E-1,4.1296717E-4,5.0082594E-1,3.5106385E-1,3.2068965E-1,3.5106385E-1,2.6551723E-1,9.212121E-1,9.5682657E-1,1.3211198E-2,5E-1,1.2389015E-3,1.6666667E-1,1.6666667E-1,8.62069E-2,5E-1,1.724138E-1,2.6551723E-1,7.4893616E-2,3.948276E-1,9.275862E-1,6.893617E-1,5.0082594E-1,2.0172414E-1,7.1034485E-1,4.426139E-2,-3.018373E-3,-7.994721E-4,-3.271961E-5,3.5333692E-3,2.3645855E-4,-5.6659007E-3,-2.535967E-3,2.2654543E-2,-2.570921E-3,-7.934908E-3,-3.7769782E-3,-2.5969902E-3,-3.7200497E-3,2.1647788E-3,5.0809938E-3,4.3456806E-4,-6.969076E-4,3.4470027E-3,1.5092532E-2,2.7175583E-3,5.006876E-3,2.217809E-3,8.774908E-3,-0E0,3.8066886E-3,3.9935138E-4,-6.6077133E-4,-3.2879825E-4,8.9255825E-4,8.891176E-3,-1.05873456E-4,1.4983584E-5,1.1824311E-2,3.742728E-3,-5.413053E-4,-5.0712293E-3,2.1391083E-3,-1.4616E-4,6.5181404E-3,1.414227E-2,7.416698E-3,2.022388E-2,7.419593E-3,4.340086E-3,-2.3429354E-3,3.187381E-3,1.8973844E-2,1.9840463E-3,6.122916E-3,1.0768728E-2,2.2752931E-2,8.364865E-3,3.1813693E-3],"split_indices":[2,4,4,0,4,7,6,6,0,6,0,6,2,0,4,0,2,6,6,3,3,2,4,4,0,0,6,10,3,0,0,3,3,4,6,2,10,4,8,6,3,0,6,2,2,8,8,10,3,10,3,2,6,6,0,8,4,4,3,4,3,3,10,3,3,10,8,3,3,0,0,0,0,0,0,0,0,0,0,0,0,0,0,0,0,0,0,0,0,0,0,0,0,0,0,0,0,0,0,0,0,0,0,0,0,0,0,0,0,0,0,0,0,0,0,0,0,0,0,0,0,0,0],"split_type":[0,0,0,0,0,0,0,0,0,0,0,0,0,0,0,0,0,0,0,0,0,0,0,0,0,0,0,0,0,0,0,0,0,0,0,0,0,0,0,0,0,0,0,0,0,0,0,0,0,0,0,0,0,0,0,0,0,0,0,0,0,0,0,0,0,0,0,0,0,0,0,0,0,0,0,0,0,0,0,0,0,0,0,0,0,0,0,0,0,0,0,0,0,0,0,0,0,0,0,0,0,0,0,0,0,0,0,0,0,0,0,0,0,0,0,0,0,0,0,0,0,0,0],"sum_hessian":[7.913E3,2.6E1,7.887E3,3E0,2.3E1,7.91E2,7.096E3,2.2E1,1E0,5.65E2,2.26E2,1.04E3,6.056E3,1E0,2.1E1,1.4E2,4.25E2,2E0,2.24E2,6.14E2,4.26E2,4.349E3,1.707E3,1E1,1.1E1,1E0,1.39E2,3.11E2,1.14E2,1E0,1E0,3.3E1,1.91E2,1.1E1,6.03E2,2.2E1,4.04E2,1.084E3,3.265E3,9.39E2,7.68E2,7E0,3E0,6.5E1,7.4E1,2.88E2,2.3E1,1.9E1,9.5E1,5E0,2.8E1,1.4E1,1.77E2,4E0,7E0,3.54E2,2.49E2,1.3E1,9E0,1.85E2,2.19E2,3.09E2,7.75E2,9.3E1,3.172E3,4.3E1,8.96E2,1.69E2,5.99E2,1E0,2E0,5E1,1.5E1,2E0,7.2E1,7E0,2.81E2,2E0,2.1E1,3E0,1.6E1,4.8E1,4.7E1,3E0,2E0,5E0,2.3E1,9E0,5E0,1.16E2,6.1E1,1E0,3E0,3E0,4E0,2.6E1,3.28E2,9.1E1,1.58E2,3E0,1E1,1E0,8E0,1.7E2,1.5E1,3E0,2.16E2,1.37E2,1.72E2,1.39E2,6.36E2,3.6E1,5.7E1,3.145E3,2.7E1,1.9E1,2.4E1,9.1E1,8.05E2,1.18E2,5.1E1,5.6E2,3.9E1],"tree_param":{"num_deleted":"0","num_feature":"12","num_nodes":"123","size_leaf_vector":"0"}},{"base_weights":[2.4948087E-1,-5.5010248E-2,5.23118E-1,1.0147845E-1,-1.7024271E-1,9.285014E0,5.0568116E-1,-7.492924E-3,2.3208778E-1,-9.250761E-1,-1.4723068E-1,1.7624228E0,2.0387844E1,1.8251082E0,4.7859177E-1,2.9369038E-1,-1.2168911E-2,3.008909E0,2.2687797E-1,-1.8265896E0,-7.476806E-1,-1.9558275E-1,-3.178642E-2,1.2275119E1,-1.6048162E0,5.020871E0,1.4680605E0,2.5300023E-1,5.3608924E-1,-0E0,3.1731483E-1,5.797112E-2,-2.7851228E-2,1.7200159E-1,3.616846E-1,-8.102888E-1,3.3760432E-2,-2.1688043E-1,1.3489823E-1,-1.174837E-1,1.8436903E-1,3.6382413E0,8.049949E0,-1.08444445E-1,2.1920054E0,2.3383589E-1,3.880506E-1,1.0643216E0,5.183226E-1,6.264258E-1,2.703504E-1,4.5302093E-2,1.0250258E-1,-2.305881E-2,-1.2366362E-1,9.017892E-1,1.6284014E-1,1.8374754E-1,4.124244E-1,-5.9058517E-2,-8.406715E-1,-2.4395274E-1,6.8823926E-2,4.3480572E-1,-2.237989E-1,-8.357157E-2,-4.8878154E-1,-5.5067927E-1,2.6864994E-1,6.682151E0,2.6470516E0,3.384953E-2,-7.710613E-1,4.7296247E0,1.0307243E0,2.2258614E-1,4.1537282E-1,8.229216E-1,1.7990746E-1,5.01575E-1,1.579716E0,3.2057303E-1,5.465662E-1,3.660648E-1,1.371121E-1,1.179882E-1,3.4743015E-2,4.9279198E-1,5.943475E-2,-3.0324811E-2,1.1162876E-1,6.6024944E-2,-1.5076698E-1,1.2355005E0,6.494071E-1,1.8958384E-1,-3.832689E-2,1.1761061E-1,2.6184437E-1,1.1550295E0,3.912747E-1,-1.39856255E-2,-8.5773677E-1,-1.4994176E-1,-3.0020833E-1,-4.6274787E-1,2.6931924E-1,1.5623865E0,3.5024443E-1,-3.1255263E-1,2.5060024E0,-1.2595652E-1,4.9409375E-2,-6.2574394E-2,-8.837751E-1,-9.50818E-1,9.08086E-2,9.837676E-1,1.5761538E-1,-2.5689961E-2,5.029111E-1,-1.0917586E0,2.1276028E-1,7.985916E0,3.7961686E0,-6.937428E-1,1.6075193E0,2.3589523E-1,-2.4334712E-1,7.169321E-1,3.6819968E-1,3.3661896E-1,3.352223E0,2.774556E-1,-1.2287733E-1,1.2517588E0,2.8627706E-1,4.1381173E0,1.2978714E0,4.119513E-1,1.6615866E-1,6.160567E-1,4.304633E-1],"categories":[],"categories_nodes":[],"categories_segments":[],"categories_sizes":[],"default_left":[true,true,true,true,true,true,true,true,true,true,true,true,false,true,true,true,true,false,true,false,true,true,true,false,false,true,true,true,true,false,true,true,true,true,true,true,false,true,true,true,true,true,false,true,true,true,true,true,true,false,true,true,true,true,true,true,true,true,true,false,true,true,true,true,true,true,true,true,true,false,false,true,true,true,true,true,true,true,true,true,true,true,true,false,false,false,false,false,false,false,false,false,false,false,false,false,false,false,false,false,false,false,false,false,false,false,false,false,false,false,false,false,false,false,false,false,false,false,false,false,false,false,false,false,false,false,false,false,false,false,false,false,false,false,false,false,false,false,false,false,false,false,false],"id":109,"left_children":[1,3,5,7,9,11,13,15,17,19,21,23,-1,25,27,29,31,-1,33,-1,35,37,39,-1,-1,41,43,45,47,-1,49,51,53,55,57,59,-1,61,63,65,67,69,-1,71,73,75,77,79,81,-1,83,85,87,89,91,93,95,97,99,-1,101,103,105,107,109,111,113,115,117,-1,-1,119,121,123,125,127,129,131,133,135,137,139,141,-1,-1,-1,-1,-1,-1,-1,-1,-1,-1,-1,-1,-1,-1,-1,-1,-1,-1,-1,-1,-1,-1,-1,-1,-1,-1,-1,-1,-1,-1,-1,-1,-1,-1,-1,-1,-1,-1,-1,-1,-1,-1,-1,-1,-1,-1,-1,-1,-1,-1,-1,-1,-1,-1,-1,-1,-1,-1,-1,-1],"loss_changes":[6.6543823E2,6.81759E1,6.4093774E2,2.2823511E1,3.776011E1,6.8373047E2,1.4973462E2,1.2285256E0,1.0277229E1,9.796352E0,1.1791248E1,1.9551962E2,0E0,9.367731E1,5.3310303E1,9.177554E-2,9.4753957E-1,0E0,5.3596344E0,0E0,2.67844E0,1.0493557E1,1.1571381E1,0E0,0E0,2.4968018E1,8.722856E1,2.1254234E0,3.0560425E1,0E0,1.09781265E-1,8.5106075E-2,3.2036728E-1,3.401372E0,1.8652172E0,1.1194458E0,0E0,1.083149E1,9.75317E0,5.6108127E0,1.1031214E1,1.3077148E1,0E0,2.3135343E0,1.5251312E2,1.4577179E0,9.289598E0,3.0546654E1,1.7647217E1,0E0,1.2061888E-1,9.111267E-2,5.594644E-1,6.569631E-1,1.7590225E-1,2.3897743E-1,2.7609081E0,2.2879934E-1,2.3925323E0,0E0,6.65432E-1,6.7392197E0,1.2970238E1,4.4941664E0,1.0244183E1,2.3159666E0,6.2531166E0,4.746972E0,1.258353E1,0E0,0E0,5.789823E-1,1.4572465E0,3.936978E1,3.6524525E1,4.306095E0,4.9870825E-1,4.057145E1,2.0909503E0,8.149585E0,3.8030884E1,5.5753517E0,2.2288147E1,0E0,0E0,0E0,0E0,0E0,0E0,0E0,0E0,0E0,0E0,0E0,0E0,0E0,0E0,0E0,0E0,0E0,0E0,0E0,0E0,0E0,0E0,0E0,0E0,0E0,0E0,0E0,0E0,0E0,0E0,0E0,0E0,0E0,0E0,0E0,0E0,0E0,0E0,0E0,0E0,0E0,0E0,0E0,0E0,0E0,0E0,0E0,0E0,0E0,0E0,0E0,0E0,0E0,0E0,0E0,0E0,0E0,0E0,0E0,0E0],"parents":[2147483647,0,0,1,1,2,2,3,3,4,4,5,5,6,6,7,7,8,8,9,9,10,10,11,11,13,13,14,14,15,15,16,16,18,18,20,20,21,21,22,22,25,25,26,26,27,27,28,28,30,30,31,31,32,32,33,33,34,34,35,35,37,37,38,38,39,39,40,40,41,41,43,43,44,44,45,45,46,46,47,47,48,48,50,50,51,51,52,52,53,53,54,54,55,55,56,56,57,57,58,58,60,60,61,61,62,62,63,63,64,64,65,65,66,66,67,67,68,68,71,71,72,72,73,73,74,74,75,75,76,76,77,77,78,78,79,79,80,80,81,81,82,82],"right_children":[2,4,6,8,10,12,14,16,18,20,22,24,-1,26,28,30,32,-1,34,-1,36,38,40,-1,-1,42,44,46,48,-1,50,52,54,56,58,60,-1,62,64,66,68,70,-1,72,74,76,78,80,82,-1,84,86,88,90,92,94,96,98,100,-1,102,104,106,108,110,112,114,116,118,-1,-1,120,122,124,126,128,130,132,134,136,138,140,142,-1,-1,-1,-1,-1,-1,-1,-1,-1,-1,-1,-1,-1,-1,-1,-1,-1,-1,-1,-1,-1,-1,-1,-1,-1,-1,-1,-1,-1,-1,-1,-1,-1,-1,-1,-1,-1,-1,-1,-1,-1,-1,-1,-1,-1,-1,-1,-1,-1,-1,-1,-1,-1,-1,-1,-1,-1,-1,-1,-1],"split_conditions":[6.621175E-1,6.572582E-1,2.7272727E-2,3.8399246E-1,7.4137926E-2,8.7090075E-1,7.4137926E-2,7.4137926E-2,2.7272727E-2,2.7272727E-2,8.30303E-1,7.7843237E-1,4.0775687E-1,7.703592E-1,9.8790765E-1,3.6677136E-3,8.23977E-2,6.017818E-2,6.341465E-1,-3.653179E-2,9.9787235E-1,7.827586E-1,3.7586206E-1,2.4550237E-1,-3.2096323E-2,7.5787616E-1,8.2218254E-1,9.212121E-1,1.8427517E-2,-0E0,1.6878912E-2,9.9787235E-1,3.757258E-1,9.6551724E-2,9.689189E-1,2.1276595E-3,6.7520863E-4,9.533169E-1,6.965602E-1,3.3965516E-1,5.0082594E-1,7.201557E-1,1.6099897E-1,8.106056E-1,8.349742E-1,9.859468E-1,1.4619164E-1,6.818182E-1,7.554066E-1,1.2528515E-2,1.24566406E-1,2.0061906E-2,1.3390663E-1,3.6276892E-1,5.818182E-1,3.5106385E-1,6.324857E-1,6.430696E-1,3.969697E-1,-1.1811703E-3,5.0041294E-1,3.5106385E-1,2.0297873E-1,1.8085107E-1,7.5757575E-1,6.4496315E-1,9.212121E-1,9.212121E-1,4.2413795E-1,1.3364302E-1,5.294103E-2,6.724138E-2,6.545454E-1,1.8181819E-1,8.571358E-1,9.699887E-1,5.0082594E-1,3.327586E-1,8.835277E-1,6E-2,7.7025306E-1,7.290039E-1,8.349742E-1,7.321296E-3,2.7422418E-3,2.359764E-3,6.948603E-4,9.855839E-3,1.188695E-3,-6.0649624E-4,2.2325753E-3,1.3204989E-3,-3.0153396E-3,2.4710009E-2,1.2988142E-2,3.7916766E-3,-7.665378E-4,2.352212E-3,5.2368874E-3,2.310059E-2,7.825494E-3,-2.797125E-4,-1.7154735E-2,-2.9988352E-3,-6.0041663E-3,-9.254958E-3,5.3863847E-3,3.124773E-2,7.0048887E-3,-6.2510525E-3,5.012005E-2,-2.5191302E-3,9.881875E-4,-1.2514879E-3,-1.7675502E-2,-1.9016359E-2,1.8161719E-3,1.9675352E-2,3.1523076E-3,-5.137992E-4,1.0058221E-2,-2.1835173E-2,4.2552054E-3,1.5971832E-1,7.592337E-2,-1.3874856E-2,3.2150384E-2,4.7179046E-3,-4.8669423E-3,1.4338642E-2,7.363993E-3,6.732379E-3,6.704446E-2,5.549112E-3,-2.4575465E-3,2.5035176E-2,5.725541E-3,8.2762346E-2,2.5957426E-2,8.239026E-3,3.3231732E-3,1.2321133E-2,8.609266E-3],"split_indices":[1,1,2,1,3,1,3,3,2,2,2,1,0,1,6,6,1,0,1,0,10,3,3,0,0,1,1,2,11,0,6,10,1,3,6,10,0,11,11,3,8,1,0,1,1,1,11,2,1,0,1,1,11,1,2,10,1,1,2,0,8,10,10,10,2,11,2,2,3,0,0,3,2,2,1,1,8,3,1,10,1,1,1,0,0,0,0,0,0,0,0,0,0,0,0,0,0,0,0,0,0,0,0,0,0,0,0,0,0,0,0,0,0,0,0,0,0,0,0,0,0,0,0,0,0,0,0,0,0,0,0,0,0,0,0,0,0,0,0,0,0,0,0],"split_type":[0,0,0,0,0,0,0,0,0,0,0,0,0,0,0,0,0,0,0,0,0,0,0,0,0,0,0,0,0,0,0,0,0,0,0,0,0,0,0,0,0,0,0,0,0,0,0,0,0,0,0,0,0,0,0,0,0,0,0,0,0,0,0,0,0,0,0,0,0,0,0,0,0,0,0,0,0,0,0,0,0,0,0,0,0,0,0,0,0,0,0,0,0,0,0,0,0,0,0,0,0,0,0,0,0,0,0,0,0,0,0,0,0,0,0,0,0,0,0,0,0,0,0,0,0,0,0,0,0,0,0,0,0,0,0,0,0,0,0,0,0,0,0],"sum_hessian":[7.986E3,3.78E3,4.206E3,1.603E3,2.177E3,8E0,4.198E3,8.74E2,7.29E2,6.4E1,2.113E3,5E0,3E0,8.4E1,4.114E3,1.3E1,8.61E2,1E0,7.28E2,1E1,5.4E1,1.489E3,6.24E2,1E0,4E0,8E0,7.6E1,8.36E2,3.278E3,1E0,1.2E1,1.57E2,7.04E2,5.18E2,2.1E2,5E1,4E0,1.399E3,9E1,4.47E2,1.77E2,6E0,2E0,2.4E1,5.2E1,7.33E2,1.03E2,1.06E2,3.172E3,1E0,1.1E1,1.23E2,3.4E1,6.71E2,3.3E1,6E0,5.12E2,4.7E1,1.63E2,2E0,4.8E1,1.278E3,1.21E2,4.9E1,4.1E1,4.1E2,3.7E1,1.8E1,1.59E2,1E0,5E0,2E1,4E0,1.6E1,3.6E1,6.91E2,4.2E1,3.3E1,7E1,5.1E1,5.5E1,3.97E2,2.775E3,6E0,5E0,1.5E1,1.08E2,3E0,3.1E1,6.37E2,3.4E1,4E0,2.9E1,2E0,4E0,4.52E2,6E1,2.6E1,2.1E1,4E0,1.59E2,1E0,4.7E1,4.79E2,7.99E2,3.3E1,8.8E1,3E0,4.6E1,4E1,1E0,3.11E2,9.9E1,1.8E1,1.9E1,1.1E1,7E0,2.1E1,1.38E2,1.8E1,2E0,3E0,1E0,3E0,1.3E1,9E0,2.7E1,6.72E2,1.9E1,5E0,3.7E1,2.8E1,5E0,5.3E1,1.7E1,1.1E1,4E1,5E0,5E1,2.49E2,1.48E2,1.735E3,1.04E3],"tree_param":{"num_deleted":"0","num_feature":"12","num_nodes":"143","size_leaf_vector":"0"}},{"base_weights":[2.3768693E-1,4.287983E0,2.256944E-1,7.752225E-1,5.0006466E0,7.408313E-1,2.0998141E-1,2.9637804E0,-1.7352729E-1,8.254498E0,3.3289127E0,1.3777357E-1,1.0374744E0,-2.0959154E-2,2.3581102E-1,5.917615E-1,4.1030817E0,4.2290438E-2,1.4214438E0,1.2622981E0,4.9258254E-2,-9.948382E-2,1.7765686E-1,8.2280934E-2,2.7304083E-1,2.2039466E0,-4.0798253E-1,4.5507894E0,-4.5983877E-2,-2.4994868E-1,3.1887826E-1,4.528667E0,3.5263118E-1,1.560678E0,9.3249804E-1,-1.3421217E0,1.6796193E-1,7.6264716E-3,-1.3383341E-1,-1.7724365E-2,2.0189008E-1,-8.239158E-3,1.4812852E-1,4.030567E-1,2.4736135E-1,6.5095778E0,4.05354E0,3.826612E-1,-3.8418204E-1,9.8706543E-1,9.45109E-2,8.870355E-1,-1.0607847E0,3.4423026E-1,1.6366682E0,-5.937203E-1,1.0717287E0,-2.2754267E-2,8.037731E-1,-2.2973439E-2,2.9782008E-2,-1.1831658E-1,-1.7093906E-1,-6.4304076E-2,1.52736865E-2,6.2590945E-1,1.871975E-1,4.0675983E-2,-1.5762487E-2,2.332382E-1,1.250821E-1,-3.9901656E-1,4.1389865E-1,1.9709817E-1,3.0341703E-1,-2.8953564E-1,5.294723E-1,-1.3482033E-1,-4.457651E-1,1.9068898E-1,5.7064447E0,-3.2689992E-1,2.970598E-1,1.3959025E0,4.6336415E-1,-4.2551258E-3,6.4963526E-1,1.5519894E0,2.647304E0,5.128366E-1,-1.3132087E0,7.2034484E-1,1.3439653E0,-2.6501888E-1,2.4230893E-1,3.4925875E-1,1.1736012E0,9.424124E-2,-2.8129013E-2,4.5129802E-2,-2.0489601E-2,-5.019269E-2,-1.2702768E-1,-2.533159E-1,-1.4768092E-1,-1.326352E-1,-4.0885694E-2,4.5566335E-2,-3.6018398E-2,1.9076958E-2,7.358204E-1,3.072932E-1,1.529849E-1,3.5130656E-3,1.5537606E-1,-3.2717902E-2,-4.709188E-3,7.289544E-1,2.2559261E-1,2.7833748E-1,1.142031E-1,5.9311336E-1,-5.052665E-1,9.336844E-1,3.8363454E-1,1.8721129E-1,5.996756E-1,5.0346637E-1,2.7503183E-1],"categories":[],"categories_nodes":[],"categories_segments":[],"categories_sizes":[],"default_left":[true,true,true,true,true,true,true,false,false,false,true,true,true,true,true,true,true,true,true,true,true,true,true,true,true,false,false,true,false,true,true,false,true,true,true,false,true,true,true,true,true,true,true,true,true,false,false,true,true,true,true,true,false,true,true,true,true,true,true,true,true,true,true,true,true,true,true,true,true,true,true,true,true,true,true,false,false,false,false,false,false,false,false,false,false,false,false,false,false,false,false,false,false,false,false,false,false,false,false,false,false,false,false,false,false,false,false,false,false,false,false,false,false,false,false,false,false,false,false,false,false,false,false,false,false,false,false,false,false],"id":110,"left_children":[1,3,5,7,9,11,13,-1,-1,-1,15,17,19,21,23,25,27,29,31,33,35,37,39,41,43,-1,-1,45,-1,47,49,-1,51,53,55,-1,57,59,61,63,65,67,69,71,73,-1,-1,75,77,79,81,83,-1,85,87,89,91,93,95,97,99,101,103,105,107,109,111,113,115,117,119,121,123,125,127,-1,-1,-1,-1,-1,-1,-1,-1,-1,-1,-1,-1,-1,-1,-1,-1,-1,-1,-1,-1,-1,-1,-1,-1,-1,-1,-1,-1,-1,-1,-1,-1,-1,-1,-1,-1,-1,-1,-1,-1,-1,-1,-1,-1,-1,-1,-1,-1,-1,-1,-1,-1,-1,-1],"loss_changes":[3.8389206E2,5.703827E1,6.37854E1,9.209297E0,9.583731E1,4.1677277E1,4.5669617E1,0E0,0E0,0E0,2.7377213E1,9.43775E0,3.4693848E1,1.2019096E1,3.9343292E1,5.6982636E0,1.9329163E1,5.874261E0,1.7110506E1,1.200946E1,4.903197E0,2.0342836E0,1.0375671E0,8.015342E0,1.8458557E1,0E0,0E0,1.4093018E-1,0E0,3.0494707E0,5.5504746E0,0E0,3.584528E0,5.9156036E0,1.3252148E1,0E0,3.331682E0,9.139765E-2,2.2999E-1,3.8428407E-2,1.1600146E0,2.0827183E-1,1.5118408E0,7.9976654E0,1.3013397E1,0E0,0E0,6.795688E-1,4.2213535E-1,3.4631958E1,2.4503975E0,4.7645712E-1,0E0,4.713354E-1,3.90448E0,4.4822664E0,5.036545E0,1.3916765E0,9.06198E-1,3.3983797E-2,6.1098672E-2,1.711998E-1,2.1618772E-1,1.2252174E-2,2.2954457E-2,4.069779E-1,7.5157976E-1,3.1866723E-1,9.1497175E-2,5.5816746E-1,1.0063906E0,1.3987991E0,1.4040512E1,9.668419E0,1.2363358E1,0E0,0E0,0E0,0E0,0E0,0E0,0E0,0E0,0E0,0E0,0E0,0E0,0E0,0E0,0E0,0E0,0E0,0E0,0E0,0E0,0E0,0E0,0E0,0E0,0E0,0E0,0E0,0E0,0E0,0E0,0E0,0E0,0E0,0E0,0E0,0E0,0E0,0E0,0E0,0E0,0E0,0E0,0E0,0E0,0E0,0E0,0E0,0E0,0E0,0E0,0E0,0E0,0E0,0E0],"parents":[2147483647,0,0,1,1,2,2,3,3,4,4,5,5,6,6,10,10,11,11,12,12,13,13,14,14,15,15,16,16,17,17,18,18,19,19,20,20,21,21,22,22,23,23,24,24,27,27,29,29,30,30,32,32,33,33,34,34,36,36,37,37,38,38,39,39,40,40,41,41,42,42,43,43,44,44,47,47,48,48,49,49,50,50,51,51,53,53,54,54,55,55,56,56,57,57,58,58,59,59,60,60,61,61,62,62,63,63,64,64,65,65,66,66,67,67,68,68,69,69,70,70,71,71,72,72,73,73,74,74],"right_children":[2,4,6,8,10,12,14,-1,-1,-1,16,18,20,22,24,26,28,30,32,34,36,38,40,42,44,-1,-1,46,-1,48,50,-1,52,54,56,-1,58,60,62,64,66,68,70,72,74,-1,-1,76,78,80,82,84,-1,86,88,90,92,94,96,98,100,102,104,106,108,110,112,114,116,118,120,122,124,126,128,-1,-1,-1,-1,-1,-1,-1,-1,-1,-1,-1,-1,-1,-1,-1,-1,-1,-1,-1,-1,-1,-1,-1,-1,-1,-1,-1,-1,-1,-1,-1,-1,-1,-1,-1,-1,-1,-1,-1,-1,-1,-1,-1,-1,-1,-1,-1,-1,-1,-1,-1,-1,-1,-1],"split_conditions":[2.7272727E-2,5.5555556E-2,9.6551724E-2,8.231776E-1,1.6666667E-1,1.6666667E-1,5.5555556E-2,5.927561E-2,-3.4705456E-3,1.6508995E-1,2.777778E-1,1.3137093E-1,1.3989916E-1,7.090609E-2,9.5682657E-1,9.8790765E-1,4.4444448E-1,1.7374866E-2,5E-1,3.8080662E-2,7.241379E-2,5.719247E-1,3.8609636E-1,3.9510223E-1,2.6206896E-1,4.407893E-2,-8.1596505E-3,9.689189E-1,-9.196775E-4,8.231776E-1,3.871084E-2,9.057334E-2,9.5682657E-1,9.689189E-1,4.9873963E-2,-2.6842434E-2,3.888889E-1,8.513586E-2,8.30303E-1,6.0565114E-1,1.8427517E-2,1.8518186E-1,3.2508102E-1,2.1876125E-2,2.777778E-1,1.3019155E-1,8.10708E-2,1.6878912E-2,5.5555556E-2,3.3636364E-1,1.2243428E-1,6.545454E-1,-2.1215694E-2,3.3638877E-1,5.3931206E-1,9.8790765E-1,1.3161685E-1,3.8820636E-1,9.8790765E-1,1.2285012E-2,6.621622E-1,1.1307166E-1,1.3882065E-1,1.3390663E-1,7.0638824E-1,6.818182E-1,5.181818E-1,8.30303E-1,7.6129995E-2,2.5117032E-2,2.5344828E-1,9.8790765E-1,4.1771695E-2,8.5862064E-1,5.181818E-1,-5.790713E-3,1.0589446E-2,-2.6964066E-3,-8.915302E-3,3.8137797E-3,1.14128895E-1,-6.537998E-3,5.941196E-3,2.791805E-2,9.267283E-3,-8.510251E-5,1.2992705E-2,3.1039787E-2,5.294608E-2,1.0256731E-2,-2.6264174E-2,1.4406896E-2,2.6879305E-2,-5.3003775E-3,4.8461785E-3,6.985175E-3,2.3472022E-2,1.8848247E-3,-5.6258024E-4,9.0259605E-4,-4.0979203E-4,-1.0038539E-3,-2.5405535E-3,-5.066318E-3,-2.9536183E-3,-2.652704E-3,-8.1771385E-4,9.113267E-4,-7.2036794E-4,3.8153917E-4,1.4716408E-2,6.145864E-3,3.059698E-3,7.026131E-5,3.1075212E-3,-6.54358E-4,-9.418376E-5,1.45790875E-2,4.5118523E-3,5.5667493E-3,2.284062E-3,1.1862267E-2,-1.010533E-2,1.8673688E-2,7.672691E-3,3.7442257E-3,1.1993512E-2,1.0069327E-2,5.5006365E-3],"split_indices":[2,4,3,6,4,4,4,0,0,0,4,7,5,7,6,6,4,5,0,5,3,6,6,6,3,0,0,6,0,6,5,0,6,6,5,0,4,6,2,11,11,5,5,5,4,0,0,6,4,2,5,2,0,6,11,6,5,11,6,11,11,5,11,11,11,2,2,2,6,5,3,6,5,3,2,0,0,0,0,0,0,0,0,0,0,0,0,0,0,0,0,0,0,0,0,0,0,0,0,0,0,0,0,0,0,0,0,0,0,0,0,0,0,0,0,0,0,0,0,0,0,0,0,0,0,0,0,0,0],"split_type":[0,0,0,0,0,0,0,0,0,0,0,0,0,0,0,0,0,0,0,0,0,0,0,0,0,0,0,0,0,0,0,0,0,0,0,0,0,0,0,0,0,0,0,0,0,0,0,0,0,0,0,0,0,0,0,0,0,0,0,0,0,0,0,0,0,0,0,0,0,0,0,0,0,0,0,0,0,0,0,0,0,0,0,0,0,0,0,0,0,0,0,0,0,0,0,0,0,0,0,0,0,0,0,0,0,0,0,0,0,0,0,0,0,0,0,0,0,0,0,0,0,0,0,0,0,0,0,0,0],"sum_hessian":[7.911E3,2.3E1,7.888E3,4E0,1.9E1,2.33E2,7.655E3,1E0,3E0,6E0,1.3E1,7.7E1,1.56E2,7.7E2,6.885E3,3E0,1E1,7.2E1,5E0,1.27E2,2.9E1,5.52E2,2.18E2,1.344E3,5.541E3,1E0,2E0,9E0,1E0,3.5E1,3.7E1,1E0,4E0,6.6E1,6.1E1,2E0,2.7E1,1.34E2,4.18E2,2.4E1,1.94E2,5.66E2,7.78E2,9.13E2,4.628E3,1E0,8E0,6E0,2.9E1,9E0,2.8E1,3E0,1E0,4E0,6.2E1,5E0,5.6E1,2.1E1,6E0,5.6E1,7.8E1,2.96E2,1.22E2,1E1,1.4E1,6E0,1.88E2,7.5E1,4.91E2,1.65E2,6.13E2,1.2E1,9.01E2,2.441E3,2.187E3,1E0,5E0,6E0,2.3E1,8E0,1E0,9E0,1.9E1,1E0,2E0,2E0,2E0,5.8E1,4E0,2E0,3E0,2.5E1,3.1E1,1.1E1,1E1,3E0,3E0,2E0,5.4E1,6E1,1.8E1,3.4E1,2.62E2,2.6E1,9.6E1,2E0,8E0,9E0,5E0,1E0,5E0,4.1E1,1.47E2,5.7E1,1.8E1,1.93E2,2.98E2,2E0,1.63E2,4E1,5.73E2,1E0,1.1E1,4.9E1,8.52E2,2.383E3,5.8E1,2.71E2,1.916E3],"tree_param":{"num_deleted":"0","num_feature":"12","num_nodes":"129","size_leaf_vector":"0"}},{"base_weights":[2.2893634E-1,-7.5867645E-2,5.005646E-1,9.1277346E-2,-1.952158E-1,2.370368E0,4.584115E-1,-1.8610276E-3,2.2917297E-1,-1.280421E0,-1.6567114E-1,6.0533423E0,1.9040173E0,1.1643696E0,4.3852335E-1,1.7824295E0,-6.317536E-3,1.204593E0,2.2387907E-1,-1.5569295E-1,-1.5702882E0,-2.1064386E-1,-5.9128236E-2,1.050895E1,4.5617766E0,-1.16798095E-1,2.7709913E0,5.028766E-1,1.6837268E0,2.2237556E-1,4.9318224E-1,1.890876E-1,2.9193282E0,-1.9229635E-3,-4.9442774E-1,4.5121178E-1,2.0904192E-1,-1.1753768E-2,-1.6678889E-1,-2.6779432E0,-1.2404592E0,-2.2553101E-1,7.335013E-2,-1.18345596E-1,2.862939E-1,8.647794E-1,5.6814394E0,2.7412472E0,-4.0155995E-1,1.7746495E0,4.138226E0,-2.2059137E-1,7.5714993E-1,2.4034886E0,1.0902642E0,4.3879536E-1,2.0950794E-1,-5.817705E-1,4.9794528E-1,-1.3059227E-2,6.7507386E-2,4.055365E-1,1.6064566E0,1.8435784E-1,3.5919943E-1,-1.3905075E0,-7.5518835E-1,-1.7433345E-1,-3.640938E-1,2.730255E-1,-5.992188E-1,-9.7992845E-2,-1.0713699E0,7.837193E-1,-1.819371E-1,1.3749663E0,1.2763348E-1,4.0541916E0,7.8853526E0,4.460744E0,3.255285E-1,-2.4518332E0,-5.815079E-2,-4.24833E0,2.3969839E0,1.9756082E0,7.541696E0,9.73689E-3,-4.77924E-1,4.7851694E-1,1.5744115E0,1.7424958E0,9.513272E0,2.1792998E0,6.899251E-1,8.164755E-1,3.848715E-1,2.4093734E-1,1.3734868E-1,7.805124E-1,-7.0453113E-1,5.475751E-1,3.9095548E-1,3.5688102E-2,-3.4700293E-2,1.2675917E-1,-1.0928087E-1,2.0264493E-1,4.9841198E-1,3.7074172E-1,1.6015409E-1,4.6875808E-1,8.654863E-2,-9.297046E-1,-1.680987E0,1.2181317E0,-1.0424391E0,-2.0187624E-1,-5.7476718E-2,-1.17011935E-1,-4.6225682E-1,-2.7893819E-2,6.395926E-1,-7.068764E-2,-9.535896E-1,-1.1485716E-1,9.6732575E-1,-1.4230436E0,-8.075154E-2,1.3499368E0,-2.86657E-4,-1.4176332E0,-2.81187E-2,6.558652E0,2.6424954E0,-2.8105214E0,-1.200311E0,5.149923E-1,-4.4499594E-1,5.3174543E-1,-1.1561375E1,4.181092E0,1.8258655E0,4.640351E0,-2.053121E0,9.746781E0,4.244117E0,3.8217154E-1,-2.7421173E-1,-9.0914255E-1,-0E0,1.4547405E0,3.8541013E-1,2.6585574E0,9.186487E-1,3.532214E0,1.0328362E0,6.525317E-1,1.5984259E1,2.3326507E0,6.652487E-1,-1.2703885E-1,8.387816E-1,1.0235481E0,-4.9947593E-2,2.0819831E-1,4.482705E-1,1.620691E-1,3.1190017E-1,2.0215549E-1,-3.0024514E-1,-8.4119314E-1,7.249658E-1,4.574237E-1,8.412374E-1,6.119423E-1,3.6633277E-1],"categories":[],"categories_nodes":[],"categories_segments":[],"categories_sizes":[],"default_left":[true,true,true,true,true,true,true,true,true,true,true,true,true,true,true,true,true,false,true,true,true,true,true,false,true,true,true,true,true,true,true,false,false,true,false,true,true,false,false,false,true,true,true,true,true,true,true,true,true,true,true,true,true,true,true,true,true,true,true,true,true,true,false,true,true,true,true,true,true,true,true,true,true,true,true,false,false,true,false,false,false,true,true,true,true,true,true,true,true,true,true,true,true,true,true,true,true,true,true,false,true,true,true,false,false,false,false,false,false,false,false,false,false,false,false,false,false,false,false,false,false,false,false,false,false,false,false,false,false,false,false,false,false,false,false,false,false,false,false,false,false,false,false,false,false,false,false,false,false,false,false,false,false,false,false,false,false,false,false,false,false,false,false,false,false,false,false,false,false,false,false,false,false,false,false,false,false],"id":111,"left_children":[1,3,5,7,9,11,13,15,17,19,21,23,25,27,29,31,33,-1,35,37,39,41,43,-1,45,47,49,51,53,55,57,-1,-1,59,-1,61,63,-1,-1,-1,65,67,69,71,73,75,77,79,81,83,85,87,89,91,93,95,97,99,101,103,105,107,-1,109,111,113,115,117,119,121,123,125,127,129,131,-1,-1,133,-1,-1,-1,135,137,139,141,143,145,147,149,151,153,155,157,159,161,163,165,167,169,-1,171,173,175,-1,-1,-1,-1,-1,-1,-1,-1,-1,-1,-1,-1,-1,-1,-1,-1,-1,-1,-1,-1,-1,-1,-1,-1,-1,-1,-1,-1,-1,-1,-1,-1,-1,-1,-1,-1,-1,-1,-1,-1,-1,-1,-1,-1,-1,-1,-1,-1,-1,-1,-1,-1,-1,-1,-1,-1,-1,-1,-1,-1,-1,-1,-1,-1,-1,-1,-1,-1,-1,-1,-1,-1,-1,-1],"loss_changes":[6.634696E2,7.533941E1,3.3357544E2,2.0210295E1,7.055196E1,1.5634863E2,5.799414E1,7.4477234E0,3.1652565E0,1.8911835E1,1.0271412E1,5.2473083E1,1.4614557E2,3.8622314E1,4.7581055E1,3.9985924E0,2.0032167E0,0E0,2.0885944E0,1.649782E-2,1.5763672E1,6.38472E0,1.3045549E1,0E0,3.2763702E1,2.0951662E1,7.693045E1,9.322627E0,2.6129318E1,2.2278557E0,1.6568298E1,0E0,0E0,7.18073E-1,0E0,1.7767601E0,2.1693554E0,0E0,0E0,0E0,2.2648048E0,1.0139328E1,1.0166845E1,1.0506565E1,2.1794432E1,7.976222E-1,1.1882828E1,9.140316E0,1.6345345E1,1.3206183E2,1.7399991E2,7.985179E-1,8.220915E0,1.27465164E2,1.4862492E1,8.013344E-1,1.7283592E0,2.5793452E0,1.692456E1,8.4576094E-1,1.3491645E0,6.598182E-1,0E0,2.2748356E0,2.467825E0,3.1002922E0,5.7115088E0,3.3633366E0,9.343945E0,6.449272E0,3.209402E0,9.606688E0,3.8885193E0,2.014372E1,9.152962E0,0E0,0E0,9.410439E0,0E0,0E0,0E0,3.142395E-1,4.5837116E0,1.1873526E2,2.9295395E1,1.6782684E2,5.3873657E1,8.120179E-1,1.3086115E0,2.3621006E0,5.7701054E0,3.2164207E1,1.3008046E2,1.6068192E0,3.2481108E0,9.8782754E-1,4.1128492E-1,2.9724903E0,6.664319E0,0E0,2.8098192E0,5.7760742E1,5.441452E0,0E0,0E0,0E0,0E0,0E0,0E0,0E0,0E0,0E0,0E0,0E0,0E0,0E0,0E0,0E0,0E0,0E0,0E0,0E0,0E0,0E0,0E0,0E0,0E0,0E0,0E0,0E0,0E0,0E0,0E0,0E0,0E0,0E0,0E0,0E0,0E0,0E0,0E0,0E0,0E0,0E0,0E0,0E0,0E0,0E0,0E0,0E0,0E0,0E0,0E0,0E0,0E0,0E0,0E0,0E0,0E0,0E0,0E0,0E0,0E0,0E0,0E0,0E0,0E0,0E0,0E0,0E0,0E0,0E0,0E0,0E0,0E0,0E0,0E0],"parents":[2147483647,0,0,1,1,2,2,3,3,4,4,5,5,6,6,7,7,8,8,9,9,10,10,11,11,12,12,13,13,14,14,15,15,16,16,18,18,19,19,20,20,21,21,22,22,24,24,25,25,26,26,27,27,28,28,29,29,30,30,33,33,35,35,36,36,40,40,41,41,42,42,43,43,44,44,45,45,46,46,47,47,48,48,49,49,50,50,51,51,52,52,53,53,54,54,55,55,56,56,57,57,58,58,59,59,60,60,61,61,63,63,64,64,65,65,66,66,67,67,68,68,69,69,70,70,71,71,72,72,73,73,74,74,77,77,81,81,82,82,83,83,84,84,85,85,86,86,87,87,88,88,89,89,90,90,91,91,92,92,93,93,94,94,95,95,96,96,97,97,98,98,100,100,101,101,102,102],"right_children":[2,4,6,8,10,12,14,16,18,20,22,24,26,28,30,32,34,-1,36,38,40,42,44,-1,46,48,50,52,54,56,58,-1,-1,60,-1,62,64,-1,-1,-1,66,68,70,72,74,76,78,80,82,84,86,88,90,92,94,96,98,100,102,104,106,108,-1,110,112,114,116,118,120,122,124,126,128,130,132,-1,-1,134,-1,-1,-1,136,138,140,142,144,146,148,150,152,154,156,158,160,162,164,166,168,170,-1,172,174,176,-1,-1,-1,-1,-1,-1,-1,-1,-1,-1,-1,-1,-1,-1,-1,-1,-1,-1,-1,-1,-1,-1,-1,-1,-1,-1,-1,-1,-1,-1,-1,-1,-1,-1,-1,-1,-1,-1,-1,-1,-1,-1,-1,-1,-1,-1,-1,-1,-1,-1,-1,-1,-1,-1,-1,-1,-1,-1,-1,-1,-1,-1,-1,-1,-1,-1,-1,-1,-1,-1,-1,-1,-1,-1],"split_conditions":[6.621175E-1,6.572582E-1,7.4137926E-2,3.989272E-1,6.724138E-2,7.876776E-1,4.7983434E-2,2.2506302E-3,7.241379E-2,5.5555556E-2,2.777778E-1,2.2506302E-3,8.2218254E-1,8.2218254E-1,9.8790765E-1,2.4097994E-1,3.9342475E-1,2.4091858E-2,9.605689E-2,5.0041294E-1,2.2506302E-3,7.827586E-1,8.9115953E-1,2.10179E-1,9.689189E-1,9.8790765E-1,2.777778E-1,4.1296717E-4,2.3620689E-1,1.1865322E-1,5.5555556E-2,3.781752E-3,5.8386564E-2,3.6276892E-1,-9.888555E-3,6.12069E-1,6.430696E-1,-2.3507535E-4,-3.3357777E-3,-5.3558864E-2,1.3062659E-1,4.7413793E-1,9.745228E-1,8.8044655E-1,6.534483E-1,7.508172E-1,7.5787616E-1,7.998252E-1,2.2506302E-3,2.2506302E-3,8.5870504E-1,2.913793E-1,4.0862072E-1,3.970112E-2,8.349742E-1,1.5862069E-1,5.8854413E-1,7.510687E-1,8.349742E-1,1.0025515E-1,3.8835415E-1,4.4565028E-1,3.212913E-2,4.1206574E-1,6.4979887E-1,1.6666667E-1,1.3152683E-1,6.625855E-1,5.5555556E-2,1.6666667E-1,5.5555556E-2,8.71264E-1,8.880987E-1,9.260893E-1,9.099748E-1,2.7499326E-2,2.5526695E-3,7.290039E-1,1.5770705E-1,8.921488E-2,6.5105697E-3,8.0460525E-1,1.6666667E-1,8.7090075E-1,8.349742E-1,8.349742E-1,4.4444448E-1,7.958708E-1,3.586207E-1,8.275862E-2,2.4576882E-2,9.6551724E-2,8.751397E-1,4.7803383E-2,9.8790765E-1,9.699887E-1,7.436082E-2,8.147807E-1,9.345995E-1,1.5610248E-2,8.2185304E-1,8.2218254E-1,1.6034484E-1,7.13762E-4,-6.9400587E-4,2.5351834E-3,-2.1856173E-3,4.0528984E-3,9.96824E-3,7.414834E-3,3.2030817E-3,9.3751615E-3,1.7309724E-3,-1.8594092E-2,-3.361974E-2,2.4362633E-2,-2.084878E-2,-4.0375246E-3,-1.1495344E-3,-2.3402385E-3,-9.245136E-3,-5.5787637E-4,1.2791852E-2,-1.4137527E-3,-1.9071791E-2,-2.2971432E-3,1.9346515E-2,-2.8460871E-2,-1.6150307E-3,2.6998736E-2,-5.7331404E-6,-2.8352663E-2,-5.6237396E-4,1.3117303E-1,5.2849907E-2,-5.6210425E-2,-2.4006218E-2,1.0299846E-2,-8.899919E-3,1.0634908E-2,-2.3122749E-1,8.362184E-2,3.651731E-2,9.280702E-2,-4.1062422E-2,1.9493562E-1,8.4882334E-2,7.6434305E-3,-5.4842345E-3,-1.8182851E-2,-0E0,2.909481E-2,7.7082026E-3,5.3171147E-2,1.8372973E-2,7.0644274E-2,2.0656724E-2,1.30506335E-2,3.1968516E-1,4.6653014E-2,1.3304974E-2,-2.540777E-3,1.6775632E-2,2.0470962E-2,-9.989518E-4,4.163966E-3,8.965409E-3,3.2413818E-3,6.2380033E-3,4.0431097E-3,-6.0049025E-3,-1.6823862E-2,1.4499316E-2,9.148474E-3,1.6824748E-2,1.2238845E-2,7.326655E-3],"split_indices":[1,1,3,1,3,1,5,5,3,4,4,5,1,1,6,1,1,0,5,8,5,3,5,0,6,6,4,8,3,5,4,0,0,1,0,3,1,0,0,0,5,3,5,5,3,1,1,1,5,5,1,3,3,5,1,3,7,1,1,1,1,1,0,1,1,4,5,5,4,4,4,5,5,5,5,0,0,1,0,0,0,1,4,1,1,1,4,1,3,3,5,3,1,5,6,1,5,1,1,0,1,1,3,0,0,0,0,0,0,0,0,0,0,0,0,0,0,0,0,0,0,0,0,0,0,0,0,0,0,0,0,0,0,0,0,0,0,0,0,0,0,0,0,0,0,0,0,0,0,0,0,0,0,0,0,0,0,0,0,0,0,0,0,0,0,0,0,0,0,0,0,0,0,0,0,0,0],"split_type":[0,0,0,0,0,0,0,0,0,0,0,0,0,0,0,0,0,0,0,0,0,0,0,0,0,0,0,0,0,0,0,0,0,0,0,0,0,0,0,0,0,0,0,0,0,0,0,0,0,0,0,0,0,0,0,0,0,0,0,0,0,0,0,0,0,0,0,0,0,0,0,0,0,0,0,0,0,0,0,0,0,0,0,0,0,0,0,0,0,0,0,0,0,0,0,0,0,0,0,0,0,0,0,0,0,0,0,0,0,0,0,0,0,0,0,0,0,0,0,0,0,0,0,0,0,0,0,0,0,0,0,0,0,0,0,0,0,0,0,0,0,0,0,0,0,0,0,0,0,0,0,0,0,0,0,0,0,0,0,0,0,0,0,0,0,0,0,0,0,0,0,0,0,0,0,0,0],"sum_hessian":[8.013E3,3.776E3,4.237E3,1.573E3,2.203E3,9.3E1,4.144E3,9.39E2,6.34E2,5.8E1,2.145E3,1E1,8.3E1,1.13E2,4.031E3,2E0,9.37E2,3E0,6.31E2,1.2E1,4.6E1,1.508E3,6.37E2,2E0,8E0,2.5E1,5.8E1,5E1,6.3E1,8.14E2,3.217E3,1E0,1E0,9.29E2,8E0,3.8E1,5.93E2,1E0,1.1E1,1E1,3.6E1,1.433E3,7.5E1,5.44E2,9.3E1,2E0,6E0,2E0,2.3E1,3.4E1,2.4E1,1.3E1,3.7E1,2.8E1,3.5E1,4.5E1,7.69E2,1.4E1,3.203E3,8.01E2,1.28E2,3.7E1,1E0,5.1E2,8.3E1,2.7E1,9E0,1.047E3,3.86E2,5.8E1,1.7E1,5.33E2,1.1E1,4.5E1,4.8E1,1E0,1E0,4E0,2E0,1E0,1E0,3E0,2E1,3E0,3.1E1,1.5E1,9E0,7E0,6E0,2.8E1,9E0,2.6E1,2E0,9E0,2.6E1,5E0,4E1,5.35E2,2.34E2,1E0,1.3E1,2.187E3,1.016E3,2.46E2,5.55E2,9.6E1,3.2E1,1.2E1,2.5E1,5.8E1,4.52E2,5.9E1,2.4E1,1.1E1,1.6E1,1E0,8E0,8.47E2,2E2,1.1E2,2.76E2,3.2E1,2.6E1,7E0,1E1,5.25E2,8E0,8E0,3E0,2.6E1,1.9E1,5E0,4.3E1,1E0,3E0,2E0,1E0,8E0,1.2E1,2E0,1E0,7E0,2.4E1,9E0,6E0,5E0,4E0,3E0,4E0,3E0,3E0,2E0,2.6E1,3E0,6E0,7E0,1.9E1,1E0,1E0,8E0,1E0,4E0,2.2E1,4E0,1E0,1.1E1,2.9E1,2.54E2,2.81E2,2.04E2,3E1,1.2E1,1E0,1.674E3,5.13E2,1.01E2,9.15E2],"tree_param":{"num_deleted":"0","num_feature":"12","num_nodes":"177","size_leaf_vector":"0"}},{"base_weights":[2.3412783E-1,8.3682853E-1,2.1319452E-1,4.766039E-1,1.434678E0,-1.8847799E-2,2.393102E-1,3.686157E-1,2.8139594E0,5.0968957E0,8.6991435E-1,-9.363866E-2,1.6978279E-1,4.659225E-2,2.7268595E-1,-6.879177E-1,4.7933805E-1,6.328326E-1,5.363617E0,5.511649E0,-3.1405676E-3,1.3347211E0,6.186901E-1,-3.7335383E-4,-1.2393048E-1,3.0427957E-1,1.298573E-1,-8.785308E-3,1.2011797E-1,6.027033E-1,2.61249E-1,-1.0044242E0,2.8755426E0,5.0059247E-1,-1.9303935E0,-7.5568795E-2,8.571829E-1,-6.922976E-1,8.063903E0,2.3287902E0,5.4354966E-1,1.5924674E-1,9.977786E-1,-3.0741544E-2,2.1124214E-2,-9.975911E-2,-1.3961495E-1,4.2143326E-2,3.7686864E-1,-1.6770111E-2,1.5504321E-1,5.6950424E-2,-1.8698256E-2,1.0786027E-1,1.816157E-1,1.8707983E-1,8.305852E-1,3.538722E-1,2.443909E-1,-4.307065E-2,-1.3737857E0,6.170696E-1,3.6450114E-2,-0E0,2.5173578E0,2.4064589E-1,2.45017E0,-4.589846E-1,3.1198695E-1,1.1030756E0,-0E0,-1.4563246E-2,-4.7798596E-2,1.5691866E-1,1.4995233E-2,-1.16798334E-1,-3.6859754E-2,-1.2660553E-1,-1.6610649E-1,-3.5516664E-2,1.3440365E-1,2.6171E-1,5.706409E-1,-6.8749145E-2,3.5487376E-3,-6.44363E-2,1.6146243E-1,2.9497627E-2,1.18274234E-1,3.1548414E-1,-1.9594211E-2,2.8335276E-1,1.0414926E-1,1.9346228E-1,-1.952952E-1,1.2367882E-1,8.1898564E-1,1.0370789E0,4.0746698E-1,3.8560542E-1,-2.3490489E-2,2.1377458E-1,3.0860275E-1,2.678121E-1,-1.6740187E-1,-2.0568287E0,-2.6649424E-1,4.0425315E-1,9.089922E-1,2.0455465E0,-5.8030512E-2,2.953031E0,1.0413964E0,7.41313E-1,-2.0786017E-1,1.3450101E-1,-6.095803E-1,1.2206075E0,7.800128E-2,9.220177E-1,1.8235449E0,-4.8623535E-1,2.821058E-1,-4.476693E-2,-5.9161177E-3,-1.14765786E-1,-4.3260552E-2,-1.3019734E-2,3.6268093E-2,-1.3052727E-1,-2.317076E-2,2.656199E-1,-1.2589501E-1,-2.7119964E-1,-1.22547634E-1,-1.3141988E-1,-2.1060203E-1,-1.1546387E-1,1.11915454E-1,1.879113E-1,3.264534E-2,4.1052634E-1,3.10607E-2,7.2763674E-2,6.050917E-1,-2.4885176E-2,-9.390896E-2,2.9113388E-2,-5.7909332E-2,4.832062E-1,-2.8133994E-1,1.6730078E-1,-9.44435E-2,5.9190333E-2,-4.4444993E-2,1.0084026E-2,1.5470748E-1,-3.2938827E-2,-6.9346424E-5,7.29845E-2,4.2007974E-1,-2.625643E-1,1.0648019E-1,1.3098428E-1,2.7881372E-1,-2.653325E-1,-6.5721996E-2,1.8275844E-1,-9.7143686E-1,7.698308E-1,1.4261646E0,-5.018148E-2,6.8670756E-1,6.137606E-1,3.325144E-1,-7.952306E-1,1.5787128E-2,1.6493962E0,2.109621E-1,2.5151762E-1,3.824303E-1],"categories":[],"categories_nodes":[],"categories_segments":[],"categories_sizes":[],"default_left":[true,true,true,true,true,true,true,true,true,true,true,true,true,true,true,true,true,true,true,false,false,true,true,true,true,true,true,true,true,true,true,true,false,true,false,false,false,false,false,true,true,true,true,true,true,true,true,true,true,true,true,true,true,true,true,true,true,true,true,true,true,true,true,false,true,true,false,true,true,true,true,true,true,false,true,true,true,true,true,true,true,true,true,true,true,true,true,true,true,false,true,true,true,true,true,true,false,true,true,true,true,true,true,false,false,false,false,false,false,false,false,false,false,false,false,false,false,false,false,false,false,false,false,false,false,false,false,false,false,false,false,false,false,false,false,false,false,false,false,false,false,false,false,false,false,false,false,false,false,false,false,false,false,false,false,false,false,false,false,false,false,false,false,false,false,false,false,false,false,false,false,false,false,false,false,false,false,false,false,false,false],"id":112,"left_children":[1,3,5,7,9,11,13,15,17,19,21,23,25,27,29,31,33,35,37,-1,-1,39,41,43,45,47,49,51,53,55,57,59,-1,61,-1,-1,-1,-1,-1,63,65,67,69,71,73,75,77,79,81,83,85,87,89,91,93,95,97,99,101,103,105,107,109,-1,111,113,-1,115,117,119,121,123,125,-1,127,129,131,133,135,137,139,141,143,145,147,149,151,153,155,-1,157,159,161,163,165,167,-1,169,171,173,175,177,179,-1,-1,-1,-1,-1,-1,-1,-1,-1,-1,-1,-1,-1,-1,-1,-1,-1,-1,-1,-1,-1,-1,-1,-1,-1,-1,-1,-1,-1,-1,-1,-1,-1,-1,-1,-1,-1,-1,-1,-1,-1,-1,-1,-1,-1,-1,-1,-1,-1,-1,-1,-1,-1,-1,-1,-1,-1,-1,-1,-1,-1,-1,-1,-1,-1,-1,-1,-1,-1,-1,-1,-1,-1,-1,-1,-1,-1,-1],"loss_changes":[1.0045813E2,5.7317673E1,4.6674316E1,4.1844822E1,2.0595476E2,1.099893E1,4.4516388E1,1.8863096E1,3.9564938E1,2.8288055E1,9.8947525E0,1.575602E0,1.1691585E0,4.16455E0,2.2205322E1,1.8230448E1,7.745468E0,7.214693E-1,5.647805E1,0E0,0E0,2.3393559E1,9.916264E0,9.001082E-2,1.5167475E-1,9.464836E-1,6.355643E-1,3.7992993E-1,3.2051706E-1,1.8623718E1,8.868103E0,5.0496883E0,0E0,7.786129E0,0E0,0E0,0E0,0E0,0E0,5.8473816E0,9.775465E0,2.5322933E0,3.281065E0,1.4699742E-2,6.3623205E-2,1.757133E-1,7.646561E-2,8.4205985E-2,8.160343E-1,2.7767431E-2,2.1102071E-1,1.2523693E-1,1.4974256E-1,2.2385931E-1,3.3554983E-1,2.7705784E0,1.096376E1,1.0514198E1,9.458801E0,1.8101722E-1,7.5995655E0,7.023926E0,5.6360345E0,0E0,6.8483887E0,3.502159E0,0E0,5.108038E-1,4.4853125E0,3.0961647E0,5.0097203E-1,7.111083E-3,4.3969117E-3,0E0,4.6576615E-2,1.6561615E-1,9.87668E-1,8.441663E-2,1.1296511E-1,7.901107E-2,2.384825E-2,8.5900474E-1,2.215004E-1,5.6194924E-3,2.895617E-2,5.5720866E-1,2.1896386E-1,1.1818425E-1,8.910316E-2,0E0,1.3145451E-1,1.9367564E-1,3.1510353E-1,3.570354E-1,1.0638818E-2,4.210266E0,0E0,8.475731E0,5.430536E0,9.721893E0,2.0866365E0,1.3057816E1,6.5222015E0,0E0,0E0,0E0,0E0,0E0,0E0,0E0,0E0,0E0,0E0,0E0,0E0,0E0,0E0,0E0,0E0,0E0,0E0,0E0,0E0,0E0,0E0,0E0,0E0,0E0,0E0,0E0,0E0,0E0,0E0,0E0,0E0,0E0,0E0,0E0,0E0,0E0,0E0,0E0,0E0,0E0,0E0,0E0,0E0,0E0,0E0,0E0,0E0,0E0,0E0,0E0,0E0,0E0,0E0,0E0,0E0,0E0,0E0,0E0,0E0,0E0,0E0,0E0,0E0,0E0,0E0,0E0,0E0,0E0,0E0,0E0,0E0,0E0,0E0,0E0,0E0,0E0,0E0],"parents":[2147483647,0,0,1,1,2,2,3,3,4,4,5,5,6,6,7,7,8,8,9,9,10,10,11,11,12,12,13,13,14,14,15,15,16,16,17,17,18,18,21,21,22,22,23,23,24,24,25,25,26,26,27,27,28,28,29,29,30,30,31,31,33,33,39,39,40,40,41,41,42,42,43,43,44,44,45,45,46,46,47,47,48,48,49,49,50,50,51,51,52,52,53,53,54,54,55,55,56,56,57,57,58,58,59,59,60,60,61,61,62,62,64,64,65,65,67,67,68,68,69,69,70,70,71,71,72,72,74,74,75,75,76,76,77,77,78,78,79,79,80,80,81,81,82,82,83,83,84,84,85,85,86,86,87,87,88,88,90,90,91,91,92,92,93,93,94,94,95,95,97,97,98,98,99,99,100,100,101,101,102,102],"right_children":[2,4,6,8,10,12,14,16,18,20,22,24,26,28,30,32,34,36,38,-1,-1,40,42,44,46,48,50,52,54,56,58,60,-1,62,-1,-1,-1,-1,-1,64,66,68,70,72,74,76,78,80,82,84,86,88,90,92,94,96,98,100,102,104,106,108,110,-1,112,114,-1,116,118,120,122,124,126,-1,128,130,132,134,136,138,140,142,144,146,148,150,152,154,156,-1,158,160,162,164,166,168,-1,170,172,174,176,178,180,-1,-1,-1,-1,-1,-1,-1,-1,-1,-1,-1,-1,-1,-1,-1,-1,-1,-1,-1,-1,-1,-1,-1,-1,-1,-1,-1,-1,-1,-1,-1,-1,-1,-1,-1,-1,-1,-1,-1,-1,-1,-1,-1,-1,-1,-1,-1,-1,-1,-1,-1,-1,-1,-1,-1,-1,-1,-1,-1,-1,-1,-1,-1,-1,-1,-1,-1,-1,-1,-1,-1,-1,-1,-1,-1,-1,-1,-1],"split_conditions":[4.1591644E-2,2.777778E-1,5.5555556E-2,4.0691394E-2,2.7272727E-2,7.090609E-2,7.920965E-1,2.7272727E-2,1.6666667E-1,4.4444448E-1,2.1335974E-2,5.719247E-1,2.7349657E-1,3.9510223E-1,1.8427517E-2,7.090609E-2,4.042132E-2,5.719247E-1,8.231776E-1,1.1023298E-1,-6.281135E-5,3.888889E-1,5.181818E-1,8.513586E-2,4.1186532E-1,5.4792248E-2,3.8609636E-1,1.7410874E-1,9.212121E-1,6.818182E-1,5.181818E-1,5.5555556E-2,5.7510853E-2,4.127764E-1,-3.860787E-2,-1.5113759E-3,1.7143657E-2,-1.3845951E-2,1.6127805E-1,5E-1,2.0615771E-2,2.1621622E-1,5.4282683E-1,6.3728845E-1,3.3636364E-1,6.965602E-1,8.30303E-1,1.4440043E-1,8.30303E-1,3.108108E-1,1.3882065E-1,8.30303E-1,7.125307E-2,6.6528626E-2,9.9378824E-1,1.7149803E-1,1.764494E-1,8.120393E-1,8.30303E-1,5.719247E-1,1.6666667E-1,2.2776376E-2,1.7644942E-2,-0E0,5E-1,5E-1,4.90034E-2,3.3636364E-1,2.5207058E-2,7.0638824E-1,6.969697E-1,1.49982E-1,5.4848486E-1,3.1383731E-3,6.666666E-1,3.638819E-1,7.2727275E-1,3.3636364E-1,6.802305E-1,9.090909E-1,5.181818E-1,1.6627656E-1,5.581563E-2,3.9539072E-1,7.0638824E-1,4.161865E-1,9.6227944E-1,6.666666E-1,1.6878912E-2,6.3096825E-3,1.3484347E-1,5.939394E-1,7.6161325E-2,5.34398E-1,1.6666667E-1,1.6717681E-1,1.6379712E-2,1.6177529E-1,1.8617213E-1,1.5916456E-1,5.050414E-2,4.924379E-2,2.777778E-1,5.356242E-3,-3.3480371E-3,-4.1136574E-2,-5.3298846E-3,8.085063E-3,1.8179843E-2,4.091093E-2,-1.1606102E-3,5.906062E-2,2.0827927E-2,1.482626E-2,-4.1572032E-3,2.6900203E-3,-1.2191606E-2,2.441215E-2,1.5600256E-3,1.8440353E-2,3.6470897E-2,-9.724706E-3,5.642116E-3,-8.9533854E-4,-1.1832235E-4,-2.2953157E-3,-8.65211E-4,-2.6039468E-4,7.253618E-4,-2.6105454E-3,-4.634152E-4,5.312398E-3,-2.5179002E-3,-5.423993E-3,-2.4509525E-3,-2.6283977E-3,-4.2120405E-3,-2.3092772E-3,2.238309E-3,3.758226E-3,6.5290683E-4,8.210527E-3,6.21214E-4,1.4552735E-3,1.2101834E-2,-4.977035E-4,-1.8781791E-3,5.8226776E-4,-1.1581866E-3,9.664124E-3,-5.6267986E-3,3.3460155E-3,-1.8888699E-3,1.1838067E-3,-8.8889984E-4,2.0168051E-4,3.0941495E-3,-6.587765E-4,-1.3869285E-6,1.45969E-3,8.401594E-3,-5.251286E-3,2.1296036E-3,2.6196854E-3,5.5762744E-3,-5.3066495E-3,-1.3144399E-3,3.6551687E-3,-1.9428737E-2,1.5396616E-2,2.8523292E-2,-1.0036295E-3,1.3734151E-2,1.22752115E-2,6.650288E-3,-1.5904613E-2,3.1574257E-4,3.2987922E-2,4.219242E-3,5.030352E-3,7.6486054E-3],"split_indices":[5,4,4,5,2,7,6,2,4,4,5,6,5,6,11,7,5,6,6,0,0,4,2,6,5,9,6,5,2,2,2,4,0,11,0,0,0,0,0,6,5,11,7,5,2,11,2,5,2,11,11,2,11,5,5,5,5,11,2,6,4,5,5,0,0,4,0,2,5,11,2,5,2,0,2,5,11,2,5,2,2,5,5,5,11,5,5,2,6,0,6,2,5,11,4,5,0,5,5,5,5,5,4,0,0,0,0,0,0,0,0,0,0,0,0,0,0,0,0,0,0,0,0,0,0,0,0,0,0,0,0,0,0,0,0,0,0,0,0,0,0,0,0,0,0,0,0,0,0,0,0,0,0,0,0,0,0,0,0,0,0,0,0,0,0,0,0,0,0,0,0,0,0,0,0,0,0,0,0,0,0],"split_type":[0,0,0,0,0,0,0,0,0,0,0,0,0,0,0,0,0,0,0,0,0,0,0,0,0,0,0,0,0,0,0,0,0,0,0,0,0,0,0,0,0,0,0,0,0,0,0,0,0,0,0,0,0,0,0,0,0,0,0,0,0,0,0,0,0,0,0,0,0,0,0,0,0,0,0,0,0,0,0,0,0,0,0,0,0,0,0,0,0,0,0,0,0,0,0,0,0,0,0,0,0,0,0,0,0,0,0,0,0,0,0,0,0,0,0,0,0,0,0,0,0,0,0,0,0,0,0,0,0,0,0,0,0,0,0,0,0,0,0,0,0,0,0,0,0,0,0,0,0,0,0,0,0,0,0,0,0,0,0,0,0,0,0,0,0,0,0,0,0,0,0,0,0,0,0,0,0,0,0,0,0],"sum_hessian":[7.968E3,2.67E2,7.701E3,1.67E2,1E2,7.79E2,6.922E3,1.6E2,7E0,1.3E1,8.7E1,5.58E2,2.21E2,1.022E3,5.9E3,1.5E1,1.45E2,4E0,3E0,1.2E1,1E0,3E1,5.7E1,1.37E2,4.21E2,5E1,1.71E2,5.83E2,4.39E2,1.97E2,5.703E3,1.4E1,1E0,1.44E2,1E0,1E0,3E0,1E0,2E0,1.3E1,1.7E1,2.6E1,3.1E1,5.7E1,8E1,1.67E2,2.54E2,1.1E1,3.9E1,2.5E1,1.46E2,7.6E1,5.07E2,3.67E2,7.2E1,7E1,1.27E2,8.77E2,4.826E3,4E0,1E1,1.15E2,2.9E1,1E0,1.2E1,1.5E1,2E0,5E0,2.1E1,2.8E1,3E0,3E1,2.7E1,3E0,7.7E1,1.31E2,3.6E1,1.72E2,8.2E1,6E0,5E0,2.5E1,1.4E1,7E0,1.8E1,4E0,1.42E2,5.3E1,2.3E1,1E0,5.06E2,7E0,3.6E2,7E1,2E0,6.4E1,6E0,8.5E1,4.2E1,8.09E2,6.8E1,3.269E3,1.557E3,1E0,3E0,6E0,4E0,6.7E1,4.8E1,1E0,2.8E1,9E0,3E0,7E0,8E0,1E0,4E0,4E0,1.7E1,2.3E1,5E0,1E0,2E0,6E0,2.4E1,1E0,2.6E1,3.3E1,4.4E1,1.14E2,1.7E1,8E0,2.8E1,4E0,1.68E2,4.7E1,3.5E1,4E0,2E0,3E0,2E0,1.5E1,1E1,1E0,1.3E1,3E0,4E0,1.3E1,5E0,1E0,3E0,1.39E2,3E0,3.8E1,1.5E1,6E0,1.7E1,3E2,2.06E2,3E0,4E0,2E0,3.58E2,4.1E1,2.9E1,1E0,1E0,6.1E1,3E0,5.1E1,3.4E1,1.6E1,2.6E1,1.52E2,6.57E2,3E0,6.5E1,6E0,3.263E3,8.79E2,6.78E2],"tree_param":{"num_deleted":"0","num_feature":"12","num_nodes":"181","size_leaf_vector":"0"}},{"base_weights":[2.1593812E-1,-8.551979E-2,4.8945534E-1,8.161175E-2,-2.0231621E-1,7.440981E0,4.6861425E-1,-6.86147E-3,2.2485833E-1,-2.325102E0,-1.9035853E-1,2.7841833E1,2.5926168E0,1.8141211E0,4.394523E-1,-2.6333786E-3,-4.850094E-1,4.7343236E-1,1.8604158E-1,-3.0978706E0,-1.8285036E0,-6.360543E-1,-1.7514601E-1,1.1840437E1,3.686991E1,-9.802911E-2,3.6997175E0,5.9459853E-1,2.416753E0,2.3657493E-1,4.8951072E-1,2.7877304E-1,-6.6678533E-3,-2.2416967E-1,-5.084391E-1,1.0968293E0,4.2638746E-1,1.5658395E-1,3.6349696E-1,-6.8534476E-1,-2.1511562E0,-1.30449E-1,-7.9034644E-1,-1.8365464E-1,3.2923386E-1,-1.1783109E0,5.271985E-1,5.3795824E0,1.1415253E0,2.8396983E0,-1.5084729E-1,4.1894035E0,1.7705767E0,2.149612E-1,3.7972748E-1,5.465197E-1,3.6656207E-1,2.2055529E-1,7.368255E-1,5.204062E-2,-1.8581353E-2,-5.58787E-1,-3.145894E-1,3.3350214E-1,6.3703805E-1,2.7629068E-1,1.22703984E-1,4.927907E-1,8.432771E-2,-1.405068E-1,-3.9603155E-2,-9.386379E-1,-1.12898625E-1,-8.687916E-1,-1.788863E-1,-2.1975149E-1,1.1396612E0,1.2339265E0,1.4387067E1,-2.7346802E0,3.199578E0,2.1473434E0,5.407273E0,3.13276E-1,-4.7303212E-1,9.262557E0,3.1957111E0,-7.3587555E-1,2.3454218E0,5.492216E-1,2.0780309E-1,5.8125335E-1,1.5083589E-1,4.4568545E-1,8.5939634E-1,1.0725268E0,3.4711614E-1,2.787814E-1,8.83198E-2,1.0153252E-1,3.8517673E-2,4.2723946E-2,-2.950334E-2,8.493892E-1,2.7272177E-1,1.2165769E0,4.456365E-1,4.6887168E-1,2.3287272E-1,-1.1949945E-1,1.6825229E-1,2.7610636E-1,7.110403E-1,-3.422854E-1,1.09179184E-1,-9.570349E-2,-1.577167E-1,-7.6634634E-1,-1.4316992E0,-4.980428E-1,7.414144E-1,-1.8225324E0,4.2961556E-1,-2.1231927E-1,-9.42406E-2,-4.8066932E-1,1.2329522E0,-2.8166038E-1,1.5254349E0,6.17166E0,-1.7579861E0,2.5156112E0,1.2668657E-1,4.330368E-1,-1.0175669E-1,-2.7122432E-1,-1.0470188E0,2.8187537E0,5.8723717E0,3.812801E-1,-1.390773E0,3.9048657E0,6.5006506E-1,3.1584588E-1,7.028988E-1,2.3778768E-1,1.2996079E-1,2.6641428E-1,1.3253592E1,-2.834475E-1,2.2521603E-1,-8.302303E-1,4.5430878E-1,1.4465067E0,6.787839E-1,2.731476E-1,1.6044296E0,4.8190445E-1,3.156677E-1],"categories":[],"categories_nodes":[],"categories_segments":[],"categories_sizes":[],"default_left":[true,true,true,true,true,true,true,true,true,true,true,true,true,true,true,true,true,true,true,false,true,true,true,false,false,true,true,true,true,true,true,true,true,false,true,false,true,true,true,false,false,true,true,true,true,false,false,true,true,true,true,true,true,true,true,true,true,true,false,true,true,false,false,true,true,true,true,true,true,true,false,true,true,true,true,true,true,true,false,false,false,true,false,true,true,false,true,true,true,true,true,true,true,true,true,true,true,false,false,false,false,false,false,false,false,false,false,false,false,false,false,false,false,false,false,false,false,false,false,false,false,false,false,false,false,false,false,false,false,false,false,false,false,false,false,false,false,false,false,false,false,false,false,false,false,false,false,false,false,false,false,false,false,false,false,false,false,false,false],"id":113,"left_children":[1,3,5,7,9,11,13,15,17,19,21,23,25,27,29,31,33,35,37,-1,39,41,43,-1,-1,45,47,49,51,53,55,57,59,-1,61,-1,63,65,67,-1,-1,69,71,73,75,-1,-1,77,79,81,83,85,87,89,91,93,95,97,-1,99,101,-1,-1,103,105,107,109,111,113,115,-1,117,119,121,123,125,127,129,-1,-1,-1,131,-1,133,135,-1,137,139,141,143,145,147,149,151,153,155,157,-1,-1,-1,-1,-1,-1,-1,-1,-1,-1,-1,-1,-1,-1,-1,-1,-1,-1,-1,-1,-1,-1,-1,-1,-1,-1,-1,-1,-1,-1,-1,-1,-1,-1,-1,-1,-1,-1,-1,-1,-1,-1,-1,-1,-1,-1,-1,-1,-1,-1,-1,-1,-1,-1,-1,-1,-1,-1,-1,-1,-1,-1],"loss_changes":[6.501964E2,7.3234634E1,5.9769574E2,1.956304E1,5.587195E1,1.195408E3,1.614527E2,1.9219495E0,5.647604E0,2.7738342E0,1.4842766E1,1.9082373E2,3.0953835E1,6.3661224E1,4.09328E1,1.0711366E0,2.4713278E-3,2.148981E0,2.641327E0,0E0,2.5416508E0,5.5952873E0,9.134834E0,0E0,0E0,2.467941E0,2.9374138E1,4.9273705E1,6.4259186E1,2.437481E0,2.2604187E1,2.8771198E-1,6.5264046E-1,0E0,4.956722E-4,0E0,1.3697433E0,1.7607346E0,2.5887737E0,0E0,0E0,1.1413068E-2,5.5084496E0,6.7590103E0,1.5816948E1,0E0,0E0,1.556774E2,2.9517002E1,9.056721E0,3.3912973E0,6.724979E1,6.3034317E1,1.6148491E0,4.772971E0,6.958679E1,1.3945251E1,8.151519E-2,0E0,1.0199776E-1,5.2004576E-1,0E0,0E0,1.5477047E0,2.27283E0,7.590685E-1,3.784008E0,2.2534933E0,2.5651753E-1,3.1748116E-3,0E0,3.4538612E0,3.519725E0,1.803074E1,5.862053E0,8.27306E0,8.020182E0,5.2927288E1,0E0,0E0,0E0,4.5690403E0,0E0,4.8333645E-1,1.4309804E0,0E0,7.8094482E0,6.288186E0,9.250368E1,4.2549896E-1,1.5747299E0,2.1939621E2,1.6140299E0,1.8520447E1,5.6726837E1,1.1449049E1,4.17395E0,0E0,0E0,0E0,0E0,0E0,0E0,0E0,0E0,0E0,0E0,0E0,0E0,0E0,0E0,0E0,0E0,0E0,0E0,0E0,0E0,0E0,0E0,0E0,0E0,0E0,0E0,0E0,0E0,0E0,0E0,0E0,0E0,0E0,0E0,0E0,0E0,0E0,0E0,0E0,0E0,0E0,0E0,0E0,0E0,0E0,0E0,0E0,0E0,0E0,0E0,0E0,0E0,0E0,0E0,0E0,0E0,0E0,0E0,0E0,0E0,0E0,0E0],"parents":[2147483647,0,0,1,1,2,2,3,3,4,4,5,5,6,6,7,7,8,8,9,9,10,10,11,11,12,12,13,13,14,14,15,15,16,16,17,17,18,18,20,20,21,21,22,22,25,25,26,26,27,27,28,28,29,29,30,30,31,31,32,32,34,34,36,36,37,37,38,38,41,41,42,42,43,43,44,44,47,47,48,48,49,49,50,50,51,51,52,52,53,53,54,54,55,55,56,56,57,57,59,59,60,60,63,63,64,64,65,65,66,66,67,67,68,68,69,69,71,71,72,72,73,73,74,74,75,75,76,76,77,77,81,81,83,83,84,84,86,86,87,87,88,88,89,89,90,90,91,91,92,92,93,93,94,94,95,95,96,96],"right_children":[2,4,6,8,10,12,14,16,18,20,22,24,26,28,30,32,34,36,38,-1,40,42,44,-1,-1,46,48,50,52,54,56,58,60,-1,62,-1,64,66,68,-1,-1,70,72,74,76,-1,-1,78,80,82,84,86,88,90,92,94,96,98,-1,100,102,-1,-1,104,106,108,110,112,114,116,-1,118,120,122,124,126,128,130,-1,-1,-1,132,-1,134,136,-1,138,140,142,144,146,148,150,152,154,156,158,-1,-1,-1,-1,-1,-1,-1,-1,-1,-1,-1,-1,-1,-1,-1,-1,-1,-1,-1,-1,-1,-1,-1,-1,-1,-1,-1,-1,-1,-1,-1,-1,-1,-1,-1,-1,-1,-1,-1,-1,-1,-1,-1,-1,-1,-1,-1,-1,-1,-1,-1,-1,-1,-1,-1,-1,-1,-1,-1,-1,-1,-1],"split_conditions":[6.621175E-1,6.572582E-1,2.7272727E-2,3.989272E-1,2.7272727E-2,1.6666667E-1,7.4137926E-2,3.9342475E-1,2.4036731E-1,1.6666667E-1,2.9708318E-2,7.9600966E-1,2.777778E-1,8.2218254E-1,9.8790765E-1,2.4576882E-2,1.3818869E-1,7.241379E-2,6.430696E-1,-6.195741E-2,2.777778E-1,5.5555556E-2,6.1111116E-1,2.3680873E-1,7.373982E-1,8.31193E-1,8.3943033E-1,7.6935333E-1,8.349742E-1,9.212121E-1,8.349742E-1,3.7433144E-1,8.23977E-2,-4.4833934E-3,9.212121E-1,2.1936586E-2,9.689189E-1,4.3256068E-1,6.4979887E-1,-1.3706895E-2,-4.3023124E-2,4.2424244E-1,3.888889E-1,6.724138E-2,7.5757575E-1,-2.3566216E-2,1.0543969E-2,8.0838656E-1,8.7090075E-1,7.635859E-1,1.6666667E-1,1.8181819E-1,8.571358E-1,6.6854E-1,6.4566076E-1,8.2218254E-1,3.5199855E-2,1.6666667E-1,1.473651E-2,2.685066E-2,1.9634497E-1,-1.117574E-2,-6.291788E-3,3.9791144E-2,1.6666667E-1,4.044514E-1,4.4565028E-1,6.474741E-1,2.3103449E-1,2.1276595E-3,-7.920631E-4,2.349658E-2,2.6647462E-2,1.3539791E-1,2.777778E-1,8.953006E-1,5.3691036E-1,7.876776E-1,2.8774133E-1,-5.4693602E-2,6.399156E-2,7.554066E-1,1.0814545E-1,8.106056E-1,7.958708E-1,1.8525113E-1,1.3764855E-1,2.2222222E-1,2.2170213E-1,7.008511E-1,5.8854413E-1,6.2630534E-1,6.639359E-1,5.5555556E-2,2.6197338E-1,1.8965518E-1,1.6666667E-1,5.575628E-3,1.766396E-3,2.0306504E-3,7.703534E-4,8.544789E-4,-5.900668E-4,1.6987784E-2,5.454435E-3,2.4331538E-2,8.91273E-3,9.377433E-3,4.6574543E-3,-2.389989E-3,3.3650456E-3,5.522127E-3,1.4220806E-2,-6.8457075E-3,2.1835836E-3,-1.9140698E-3,-3.1543341E-3,-1.53269265E-2,-2.8633982E-2,-9.960855E-3,1.4828288E-2,-3.6450647E-2,8.592311E-3,-4.2463853E-3,-1.8848119E-3,-9.613386E-3,2.4659045E-2,-5.6332075E-3,3.0508697E-2,1.23433195E-1,-3.5159722E-2,5.031222E-2,2.5337315E-3,8.660736E-3,-2.0351338E-3,-5.4244865E-3,-2.0940375E-2,5.637507E-2,1.1744743E-1,7.6256017E-3,-2.7815461E-2,7.809731E-2,1.3001301E-2,6.3169175E-3,1.4057975E-2,4.7557536E-3,2.5992158E-3,5.3282855E-3,2.6507184E-1,-5.66895E-3,4.5043207E-3,-1.6604606E-2,9.086176E-3,2.8930133E-2,1.3575678E-2,5.462952E-3,3.2088593E-2,9.638089E-3,6.313354E-3],"split_indices":[1,1,2,1,2,4,3,1,5,4,5,1,4,1,6,5,5,3,1,0,4,4,4,0,0,1,1,1,1,2,1,1,1,0,2,0,6,1,1,0,0,2,4,3,2,0,0,1,1,1,4,2,1,1,5,1,5,4,0,1,5,0,0,5,4,1,1,1,3,10,0,5,5,5,4,5,5,1,0,0,0,1,0,1,1,0,5,4,10,10,7,5,5,4,5,3,4,0,0,0,0,0,0,0,0,0,0,0,0,0,0,0,0,0,0,0,0,0,0,0,0,0,0,0,0,0,0,0,0,0,0,0,0,0,0,0,0,0,0,0,0,0,0,0,0,0,0,0,0,0,0,0,0,0,0,0,0,0,0],"split_type":[0,0,0,0,0,0,0,0,0,0,0,0,0,0,0,0,0,0,0,0,0,0,0,0,0,0,0,0,0,0,0,0,0,0,0,0,0,0,0,0,0,0,0,0,0,0,0,0,0,0,0,0,0,0,0,0,0,0,0,0,0,0,0,0,0,0,0,0,0,0,0,0,0,0,0,0,0,0,0,0,0,0,0,0,0,0,0,0,0,0,0,0,0,0,0,0,0,0,0,0,0,0,0,0,0,0,0,0,0,0,0,0,0,0,0,0,0,0,0,0,0,0,0,0,0,0,0,0,0,0,0,0,0,0,0,0,0,0,0,0,0,0,0,0,0,0,0,0,0,0,0,0,0,0,0,0,0,0,0],"sum_hessian":[7.885E3,3.751E3,4.134E3,1.543E3,2.208E3,1.2E1,4.122E3,9.54E2,5.89E2,1.2E1,2.196E3,2E0,1E1,8.7E1,4.035E3,9.46E2,8E0,7.9E1,5.1E2,4E0,8E0,7.2E1,2.124E3,1E0,1E0,3E0,7E0,2.9E1,5.8E1,7.99E2,3.236E3,1.3E1,9.33E2,1E0,7E0,5E0,7.4E1,4.38E2,7.2E1,2E0,6E0,1.7E1,5.5E1,2.089E3,3.5E1,1E0,2E0,4E0,3E0,7E0,2.2E1,1.5E1,4.3E1,6.95E2,1.04E2,2.21E3,1.026E3,1.2E1,1E0,1.57E2,7.76E2,5E0,2E0,5.2E1,2.2E1,9.6E1,3.42E2,4.9E1,2.3E1,1.5E1,2E0,4.5E1,1E1,1.4E1,2.075E3,2.1E1,1.4E1,3E0,1E0,1E0,2E0,6E0,1E0,9E0,1.3E1,2E0,1.3E1,8E0,3.5E1,1.4E1,6.81E2,5.5E1,4.9E1,1.672E3,5.38E2,2.7E1,9.99E2,8E0,4E0,3.3E1,1.24E2,1.17E2,6.59E2,5E0,4.7E1,5E0,1.7E1,1.7E1,7.9E1,5.4E1,2.88E2,2.5E1,2.4E1,1E0,2.2E1,5E0,1E1,3.4E1,1.1E1,7E0,3E0,8E0,6E0,1.487E3,5.88E2,1.8E1,3E0,3E0,1.1E1,1E0,2E0,5E0,1E0,7E0,2E0,1E1,3E0,1.2E1,1E0,3E0,5E0,1.8E1,1.7E1,6E0,8E0,4.91E2,1.9E2,5.4E1,1E0,7E0,4.2E1,1.1E1,1.661E3,1.26E2,4.12E2,1.1E1,1.6E1,1.88E2,8.11E2],"tree_param":{"num_deleted":"0","num_feature":"12","num_nodes":"159","size_leaf_vector":"0"}},{"base_weights":[2.1603063E-1,1.0171424E0,1.9683962E-1,9.147467E-1,3.4450142E0,-1.8654626E-2,2.2144704E-1,1.8293972E0,7.6054174E-1,8.234912E0,1.1312927E0,-9.790131E-2,1.6911322E-1,-4.877052E-3,2.4226397E-1,3.464233E0,4.931765E-1,3.483652E-1,1.0576982E0,2.3866212E0,1.3509649E-1,-9.643561E-3,-1.2704368E-1,5.07906E-1,1.5319243E-1,-2.6611956E-2,2.3132076E-2,3.446419E-1,2.211956E-1,1.0533433E0,4.2882767E0,-3.1554252E-1,4.703263E0,2.8337216E-1,1.5050617E0,2.0535344E-1,1.1415489E0,6.511035E-2,-1.7028963E-2,-1.9293441E-1,-1.20043665E-1,2.9853666E-1,1.1769254E0,-1.6461762E-2,1.7848112E-1,1.1287417E-2,-3.332471E-2,1.3751921E-1,1.3641382E-2,8.209874E-1,3.1483102E-1,3.4548938E-1,2.0276378E-1,-1.0141713E-1,2.8213634E0,4.8458214E0,1.3894157E-1,-1.0031059E0,-1.4871588E-1,2.1405528E0,6.0790944E0,4.586338E-2,4.3526405E-1,3.536151E0,1.23189695E-1,7.683139E-2,8.5011345E-1,1.3617024E0,6.975332E-1,8.987446E-2,-6.4617293E-3,-3.89105E-2,1.0138171E-2,-2.5375864E-1,-7.994773E-2,1.09942175E-1,-1.2326024E-1,3.827982E-2,4.3985945E-1,-4.0071826E-2,1.1802427E-2,9.047283E-2,2.0452946E-1,3.357435E-2,-3.7930906E-2,-4.1672833E-2,-1.5254175E-2,7.5700305E-2,2.3328815E-1,8.1330225E-2,-1.9918813E-3,4.1579702E-1,1.2567556E0,2.1227455E-1,3.920441E-1,1.7481719E-1,4.0480274E-1,1.8813497E-1,2.6104596E-1,4.3426806E-1,-1.1852289E-1,1.9725895E0,3.7445533E-1,-1.091215E0,1.3174843E0,1.20341115E-1,-1.3833974E-1,1.5093163E0,5.0249213E-1,6.3292193E-1,9.2180026E-1,8.074008E-3,-4.0979147E-2,-2.2857185E-2,-5.3330436E-2,2.2804538E-2,-3.4509495E-2,-1.6765463E-1,-4.5553213E-1,-1.7761362E-1,-5.815136E-2,7.772742E-1,-1.00574225E-1,-1.1433834E-1,-1.4576116E-1,-1.7123116E-2,1.3635467E-1,2.4495411E-1,5.2801424E-1,8.733004E-2,-5.1210076E-2,2.7127545E-2,-3.2605745E-2,-1.1341951E-3,1.5712473E-1,4.0678987E-1,1.7412697E-1,3.0226865E-1,2.2061706E-2,-4.5711808E-2,5.837037E-3,-6.919082E-3,-4.5206655E-2,8.343144E-2,-2.286456E-2,-7.507617E-2,9.247154E-2,1.3736312E-1,4.130865E-1,2.4067173E-2,1.4782274E-1,-3.2738466E-2,1.4933134E-2,-3.7477843E-2,6.720169E-1,2.686519E0,6.109155E-1,6.154408E-1,1.5490812E-1,1.9125256E-1,4.3478715E-1,1.5025589E-1,9.456191E-1,4.7284374E-1,3.3507153E-1,2.7001745E-1,1.784944E-1,4.3053883E-1,1.9998552E-1],"categories":[],"categories_nodes":[],"categories_segments":[],"categories_sizes":[],"default_left":[true,true,true,true,true,true,true,true,true,false,true,true,true,true,true,true,true,true,true,false,false,true,true,true,true,true,true,true,true,true,true,true,true,true,true,true,true,true,true,true,true,true,false,true,true,true,true,true,true,true,true,true,true,false,false,false,false,false,false,false,false,true,true,false,true,true,false,true,true,false,true,true,true,true,true,true,true,true,true,true,true,true,true,true,true,true,true,true,true,true,true,true,true,true,true,true,true,true,true,false,false,false,false,false,false,false,false,false,false,false,false,false,false,false,false,false,false,false,false,false,false,false,false,false,false,false,false,false,false,false,false,false,false,false,false,false,false,false,false,false,false,false,false,false,false,false,false,false,false,false,false,false,false,false,false,false,false,false,false,false,false,false,false,false,false,false,false,false,false],"id":114,"left_children":[1,3,5,7,9,11,13,15,17,-1,19,21,23,25,27,29,31,33,35,-1,-1,37,39,41,43,45,47,49,51,53,55,57,59,61,63,65,67,69,71,73,75,77,-1,79,81,83,85,87,89,91,93,95,97,-1,-1,-1,-1,-1,-1,-1,-1,99,101,-1,103,105,-1,107,109,-1,111,113,115,117,119,121,123,125,127,129,131,133,135,137,139,141,143,145,147,149,151,153,155,157,159,161,163,165,167,-1,-1,-1,-1,-1,-1,-1,-1,-1,-1,-1,-1,-1,-1,-1,-1,-1,-1,-1,-1,-1,-1,-1,-1,-1,-1,-1,-1,-1,-1,-1,-1,-1,-1,-1,-1,-1,-1,-1,-1,-1,-1,-1,-1,-1,-1,-1,-1,-1,-1,-1,-1,-1,-1,-1,-1,-1,-1,-1,-1,-1,-1,-1,-1,-1,-1,-1,-1,-1,-1],"loss_changes":[1.2111545E2,4.4712906E1,4.083197E1,2.4510834E1,7.803287E1,1.174977E1,3.2560944E1,5.4714836E1,1.8515022E1,0E0,6.5263023E0,1.4259815E0,1.2285829E0,3.5476542E-1,1.3616333E1,2.0933472E1,4.9359756E1,4.6686788E0,6.215782E0,0E0,0E0,7.605611E-2,1.8030167E-1,1.3092189E0,9.6575546E-1,8.3970845E-2,2.733261E-1,1.5224442E1,1.1994843E1,6.9399633E0,1.8983353E1,1.3485209E0,3.7709007E0,2.1991258E0,9.158609E0,6.5555763E-1,7.506607E0,2.3243543E-2,7.5641975E-2,2.5878727E-1,2.8458738E-1,2.940719E-1,0E0,2.0135742E-2,4.374175E-1,5.4477677E-2,4.1114867E-2,1.04164004E-1,2.50215E-1,1.0984615E1,8.011673E0,6.824875E0,3.8755798E0,0E0,0E0,0E0,0E0,0E0,0E0,0E0,0E0,1.575321E0,3.2102413E0,0E0,3.8670123E0,7.395111E-2,0E0,6.48275E0,1.7933369E-1,0E0,2.2522188E-3,1.4788099E-2,3.1953387E-2,4.0577435E-1,2.3705326E-2,7.8499043E-1,6.567955E-2,2.0592188E-2,3.7482142E-2,2.4153875E-2,9.291053E-3,2.7908078E-1,8.9252615E-1,9.9356495E-2,5.8796313E-3,2.2527695E-2,6.686481E-2,3.3750974E-2,9.970781E-2,1.6516429E-1,9.9984355E-2,3.8887343E0,2.7415539E1,1.0071957E1,4.93544E0,3.256381E0,2.3190079E0,2.8638153E0,9.445713E0,0E0,0E0,0E0,0E0,0E0,0E0,0E0,0E0,0E0,0E0,0E0,0E0,0E0,0E0,0E0,0E0,0E0,0E0,0E0,0E0,0E0,0E0,0E0,0E0,0E0,0E0,0E0,0E0,0E0,0E0,0E0,0E0,0E0,0E0,0E0,0E0,0E0,0E0,0E0,0E0,0E0,0E0,0E0,0E0,0E0,0E0,0E0,0E0,0E0,0E0,0E0,0E0,0E0,0E0,0E0,0E0,0E0,0E0,0E0,0E0,0E0,0E0,0E0,0E0,0E0,0E0,0E0,0E0,0E0,0E0],"parents":[2147483647,0,0,1,1,2,2,3,3,4,4,5,5,6,6,7,7,8,8,10,10,11,11,12,12,13,13,14,14,15,15,16,16,17,17,18,18,21,21,22,22,23,23,24,24,25,25,26,26,27,27,28,28,29,29,30,30,31,31,32,32,33,33,34,34,35,35,36,36,37,37,38,38,39,39,40,40,41,41,43,43,44,44,45,45,46,46,47,47,48,48,49,49,50,50,51,51,52,52,61,61,62,62,64,64,65,65,67,67,68,68,70,70,71,71,72,72,73,73,74,74,75,75,76,76,77,77,78,78,79,79,80,80,81,81,82,82,83,83,84,84,85,85,86,86,87,87,88,88,89,89,90,90,91,91,92,92,93,93,94,94,95,95,96,96,97,97,98,98],"right_children":[2,4,6,8,10,12,14,16,18,-1,20,22,24,26,28,30,32,34,36,-1,-1,38,40,42,44,46,48,50,52,54,56,58,60,62,64,66,68,70,72,74,76,78,-1,80,82,84,86,88,90,92,94,96,98,-1,-1,-1,-1,-1,-1,-1,-1,100,102,-1,104,106,-1,108,110,-1,112,114,116,118,120,122,124,126,128,130,132,134,136,138,140,142,144,146,148,150,152,154,156,158,160,162,164,166,168,-1,-1,-1,-1,-1,-1,-1,-1,-1,-1,-1,-1,-1,-1,-1,-1,-1,-1,-1,-1,-1,-1,-1,-1,-1,-1,-1,-1,-1,-1,-1,-1,-1,-1,-1,-1,-1,-1,-1,-1,-1,-1,-1,-1,-1,-1,-1,-1,-1,-1,-1,-1,-1,-1,-1,-1,-1,-1,-1,-1,-1,-1,-1,-1,-1,-1,-1,-1,-1,-1],"split_conditions":[7.4137926E-2,5E-1,5.5555556E-2,2.7272727E-2,1.8181819E-1,7.090609E-2,4.2840246E-2,1.6666667E-1,1.6666667E-1,1.6469823E-1,6.545454E-1,5.261916E-2,1.8427517E-2,2.4990782E-2,2.6206896E-1,5.5555556E-2,1.166234E-1,1.3137093E-1,6.3859776E-2,4.7732424E-2,2.7019298E-3,5.0082594E-1,2.086207E-1,1.3137093E-1,2.7975213E-2,2.5344828E-1,5.0082594E-1,1.2389015E-3,5.181818E-1,7.090609E-2,7.090609E-2,2.777778E-1,2.777778E-1,5.5555556E-2,1.8181819E-1,6.6170216E-1,9.9787235E-1,9.9787235E-1,7.5757575E-1,3.6240786E-1,1.48936175E-2,3.704274E-2,2.3538508E-2,6.0565114E-1,2.0297873E-1,9.9787235E-1,6.103448E-1,1.2389015E-3,1.6584766E-1,7.008511E-1,6.545454E-1,1.6666667E-1,6.9482756E-1,-2.0283426E-3,5.6427266E-2,9.691642E-2,2.7788314E-3,-2.0062117E-2,-2.9743176E-3,4.2811055E-2,1.2158188E-1,5.3197986E-1,5.0082594E-1,7.072302E-2,5.8854413E-1,5.4792248E-2,1.7002268E-2,3.888889E-1,3.888889E-1,1.7974892E-3,1.6281264E-2,4.6034485E-1,1.7815007E-2,1.3390663E-1,5.0041294E-1,3.3636364E-1,8.30303E-1,2.6297873E-1,6.818182E-1,5.0082594E-1,7.0638824E-1,4.0689656E-1,5.818182E-1,5.0082594E-1,2.3620689E-1,5.0082594E-1,6.189655E-1,4.2424244E-1,6.621622E-1,8.30303E-1,1.6666667E-1,3.5106385E-1,2.086207E-1,1.48936175E-2,1.2931034E-1,4.9310344E-1,6.0565114E-1,1.4127764E-1,7.1034485E-1,8.685361E-3,-2.3704576E-3,3.945179E-2,7.4891066E-3,-2.18243E-2,2.6349684E-2,2.4068223E-3,-2.7667948E-3,3.0186325E-2,1.0049842E-2,1.2658439E-2,1.8436005E-2,1.6148016E-4,-8.195829E-4,-4.571437E-4,-1.0666087E-3,4.5609075E-4,-6.901899E-4,-3.3530926E-3,-9.110643E-3,-3.5522722E-3,-1.1630271E-3,1.5545484E-2,-2.0114845E-3,-2.2867667E-3,-2.9152231E-3,-3.4246233E-4,2.7270934E-3,4.8990822E-3,1.0560284E-2,1.7466008E-3,-1.0242015E-3,5.425509E-4,-6.5211486E-4,-2.2683902E-5,3.1424945E-3,8.135797E-3,3.4825392E-3,6.045373E-3,4.412341E-4,-9.142361E-4,1.1674074E-4,-1.3838163E-4,-9.041331E-4,1.6686288E-3,-4.5729117E-4,-1.5015234E-3,1.8494307E-3,2.7472624E-3,8.26173E-3,4.8134345E-4,2.9564546E-3,-6.547693E-4,2.986627E-4,-7.495569E-4,1.3440338E-2,5.3730376E-2,1.221831E-2,1.23088155E-2,3.0981624E-3,3.825051E-3,8.695743E-3,3.0051176E-3,1.8912382E-2,9.456875E-3,6.7014303E-3,5.400349E-3,3.5698877E-3,8.610777E-3,3.99971E-3],"split_indices":[3,4,4,2,2,7,9,4,4,0,2,7,11,9,3,4,7,7,9,0,0,8,3,7,9,3,8,8,2,7,7,4,4,4,2,10,10,10,2,11,10,9,0,11,10,10,3,8,11,10,2,4,3,0,0,0,0,0,0,0,0,9,8,0,7,9,0,4,4,0,7,3,7,11,8,2,2,10,2,8,11,3,2,8,3,8,3,2,11,2,4,10,3,10,3,3,11,11,3,0,0,0,0,0,0,0,0,0,0,0,0,0,0,0,0,0,0,0,0,0,0,0,0,0,0,0,0,0,0,0,0,0,0,0,0,0,0,0,0,0,0,0,0,0,0,0,0,0,0,0,0,0,0,0,0,0,0,0,0,0,0,0,0,0,0,0,0,0,0],"split_type":[0,0,0,0,0,0,0,0,0,0,0,0,0,0,0,0,0,0,0,0,0,0,0,0,0,0,0,0,0,0,0,0,0,0,0,0,0,0,0,0,0,0,0,0,0,0,0,0,0,0,0,0,0,0,0,0,0,0,0,0,0,0,0,0,0,0,0,0,0,0,0,0,0,0,0,0,0,0,0,0,0,0,0,0,0,0,0,0,0,0,0,0,0,0,0,0,0,0,0,0,0,0,0,0,0,0,0,0,0,0,0,0,0,0,0,0,0,0,0,0,0,0,0,0,0,0,0,0,0,0,0,0,0,0,0,0,0,0,0,0,0,0,0,0,0,0,0,0,0,0,0,0,0,0,0,0,0,0,0,0,0,0,0,0,0,0,0,0,0],"sum_hessian":[7.883E3,1.84E2,7.699E3,1.77E2,7E0,7.89E2,6.91E3,2.5E1,1.52E2,2E0,5E0,5.55E2,2.34E2,5.82E2,6.328E3,1.1E1,1.4E1,6.4E1,8.8E1,2E0,3E0,1.38E2,4.17E2,1E1,2.24E2,3.28E2,2.54E2,1.079E3,5.249E3,3E0,8E0,1.2E1,2E0,6.1E1,3E0,8E0,8E1,1.2E1,1.26E2,3.9E1,3.78E2,8E0,2E0,2.9E1,1.95E2,4.9E1,2.79E2,1.9E1,2.35E2,6.3E1,1.016E3,6.77E2,4.572E3,2E0,1E0,7E0,1E0,2E0,1E1,1E0,1E0,2.4E1,3.7E1,1E0,2E0,7E0,1E0,5.3E1,2.7E1,9E0,3E0,7E1,5.6E1,2.5E1,1.4E1,5E0,3.73E2,3E0,5E0,1.6E1,1.3E1,4.5E1,1.5E2,3.4E1,1.5E1,1.9E2,8.9E1,1.2E1,7E0,4.4E1,1.91E2,3.3E1,3E1,4.37E2,5.79E2,1.75E2,5.02E2,3.656E3,9.16E2,7E0,1.7E1,1E0,3.6E1,1E0,1E0,6E0,1E0,4.5E1,8E0,2.2E1,5E0,2E0,1E0,3.4E1,3.6E1,4.4E1,1.2E1,1.8E1,7E0,2E0,1.2E1,1E0,4E0,2.69E2,1.04E2,2E0,1E0,2E0,3E0,1E0,1.5E1,1E1,3E0,1.9E1,2.6E1,1.9E1,1.31E2,1E0,3.3E1,1.3E1,2E0,1.8E1,1.72E2,6E0,8.3E1,1E0,1.1E1,5E0,2E0,2.4E1,2E1,6.8E1,1.23E2,1.2E1,2.1E1,9E0,2.1E1,5.4E1,3.83E2,1.02E2,4.77E2,1.7E2,5E0,2.53E2,2.49E2,3.84E2,3.272E3,2.42E2,6.74E2],"tree_param":{"num_deleted":"0","num_feature":"12","num_nodes":"169","size_leaf_vector":"0"}},{"base_weights":[2.2086143E-1,4.0212092E0,2.1013832E-1,-9.967865E-2,4.428876E0,-9.380773E-3,2.3417883E-1,4.665605E0,-1.0023719E-1,-8.732363E-2,1.9331497E-1,4.9354907E-2,2.643039E-1,3.325196E0,5.724355E0,6.560531E-3,-1.1710165E-1,3.4831145E0,1.7267285E-1,8.816552E-4,1.1771147E-1,6.4584893E-1,2.544502E-1,5.0504966E0,-2.8117493E-1,3.5415906E-1,4.0001803E-4,-1.5314843E-1,-1.0401855E-1,1.2197757E-1,2.8648195E-1,-2.0762766E-2,3.147845E-2,8.063442E-2,1.9411844E-1,2.7326763E-1,7.6664567E-1,4.9912682E-1,2.4626781E-1,6.0513574E-1,3.9181486E-3,-2.7802134E-2,2.3480661E-2,-3.3513454E-1,-1.4705798E-1,-1.1385349E-1,-5.9624728E-2,7.9589465E-4,1.5333593E-1,9.9257636E-1,2.5916412E-1,1.24045536E-1,-2.3503317E-2,1.5968223E-1,1.9065596E-2,1.3144828E-1,5.0335355E-2,6.0328364E-1,1.7676857E-1,1.150966E0,1.2967111E-1,9.973324E-1,4.8764428E-1,-5.4759655E-2,8.137582E-1,3.721427E-1,2.342736E-1,-3.657466E-2,-2.5501912E-3,1.5147786E-1,1.7189516E-2,-6.669767E-1,-9.149583E-2,-3.2197803E-1,-1.4103568E-1,-1.08313665E-1,-1.538323E-1,5.8702356E-1,-9.847941E-2,1.8220067E-1,-2.0052556E-2,2.1266654E-1,9.5841095E-2,1.0532881E0,2.4085423E-1,2.0476429E-1,2.6638553E-2,1.9436896E-2,-2.7916458E-2,1.0540878E-1,3.6119127E-1,1.23496555E-1,8.468904E-3,6.1963785E-1,1.09783985E-1,-1.23625524E-1,6.2244978E-2,9.845335E-1,4.3625182E-1,1.9230379E-1,-9.059388E-2,1.890979E0,-6.454577E-2,1.7224794E-2,4.166708E-1,1.8910803E-1,1.050516E0,2.5168347E-1,7.445656E-1,-6.637205E-1,-3.3488706E-2,3.4244078E-1,9.3227816E-1,5.9540063E-1,3.1900302E-1,2.7663025E-1,2.0927301E-1],"categories":[],"categories_nodes":[],"categories_segments":[],"categories_sizes":[],"default_left":[true,true,true,false,true,true,true,true,false,true,true,true,true,true,false,true,true,false,true,true,true,true,true,false,false,true,true,true,true,true,true,true,true,true,true,true,true,true,true,false,false,true,true,true,true,true,true,true,true,false,true,true,true,true,true,true,true,true,true,true,true,true,true,true,true,true,true,false,false,false,false,false,false,false,false,false,false,false,false,false,false,false,false,false,false,false,false,false,false,false,false,false,false,false,false,false,false,false,false,false,false,false,false,false,false,false,false,false,false,false,false,false,false,false,false,false,false],"id":115,"left_children":[1,3,5,-1,7,9,11,13,-1,15,17,19,21,23,-1,25,27,-1,29,31,33,35,37,-1,-1,39,41,43,45,47,49,51,53,55,57,59,61,63,65,-1,-1,67,69,71,73,75,77,79,81,-1,83,85,87,89,91,93,95,97,99,101,103,105,107,109,111,113,115,-1,-1,-1,-1,-1,-1,-1,-1,-1,-1,-1,-1,-1,-1,-1,-1,-1,-1,-1,-1,-1,-1,-1,-1,-1,-1,-1,-1,-1,-1,-1,-1,-1,-1,-1,-1,-1,-1,-1,-1,-1,-1,-1,-1,-1,-1,-1,-1,-1,-1],"loss_changes":[3.2344284E2,3.7728058E1,4.1818146E1,0E0,2.2022095E1,1.2363957E1,3.975293E1,2.0960663E1,0E0,1.5823269E0,1.4506074E1,3.316157E0,2.3017761E1,5.861512E1,0E0,2.868378E-1,1.9349432E-1,0E0,1.2306752E0,3.8867012E-1,1.1674781E0,6.861328E0,1.1933258E1,0E0,0E0,1.9563925E-1,8.759691E-2,1.0230327E-1,1.3337612E-1,5.690367E-1,1.1758652E0,1.3579154E-1,3.836698E-1,4.2680562E-1,9.1403866E-1,4.763301E0,7.304077E0,3.3717926E1,8.708862E0,0E0,0E0,1.2776088E-2,5.6582764E-2,2.3834062E-1,9.4480276E-2,4.7919035E-2,1.4779559E0,1.2203472E-1,3.958733E-1,0E0,8.3237267E-1,4.467766E-2,6.4226985E-2,2.1396363E-1,2.4380815E-1,1.070371E0,3.6701977E-1,1.7614615E-1,5.4860497E-1,4.864183E0,1.0671573E0,2.63842E0,3.1565533E0,8.9368445E-1,6.764824E0,5.895096E0,5.575897E0,0E0,0E0,0E0,0E0,0E0,0E0,0E0,0E0,0E0,0E0,0E0,0E0,0E0,0E0,0E0,0E0,0E0,0E0,0E0,0E0,0E0,0E0,0E0,0E0,0E0,0E0,0E0,0E0,0E0,0E0,0E0,0E0,0E0,0E0,0E0,0E0,0E0,0E0,0E0,0E0,0E0,0E0,0E0,0E0,0E0,0E0,0E0,0E0,0E0,0E0],"parents":[2147483647,0,0,1,1,2,2,4,4,5,5,6,6,7,7,9,9,10,10,11,11,12,12,13,13,15,15,16,16,18,18,19,19,20,20,21,21,22,22,25,25,26,26,27,27,28,28,29,29,30,30,31,31,32,32,33,33,34,34,35,35,36,36,37,37,38,38,41,41,42,42,43,43,44,44,45,45,46,46,47,47,48,48,50,50,51,51,52,52,53,53,54,54,55,55,56,56,57,57,58,58,59,59,60,60,61,61,62,62,63,63,64,64,65,65,66,66],"right_children":[2,4,6,-1,8,10,12,14,-1,16,18,20,22,24,-1,26,28,-1,30,32,34,36,38,-1,-1,40,42,44,46,48,50,52,54,56,58,60,62,64,66,-1,-1,68,70,72,74,76,78,80,82,-1,84,86,88,90,92,94,96,98,100,102,104,106,108,110,112,114,116,-1,-1,-1,-1,-1,-1,-1,-1,-1,-1,-1,-1,-1,-1,-1,-1,-1,-1,-1,-1,-1,-1,-1,-1,-1,-1,-1,-1,-1,-1,-1,-1,-1,-1,-1,-1,-1,-1,-1,-1,-1,-1,-1,-1,-1,-1,-1,-1,-1,-1],"split_conditions":[2.7272727E-2,5.5555556E-2,5.5555556E-2,-1.993573E-3,4.4444448E-1,7.090609E-2,7.920965E-1,2.777778E-1,-2.0047438E-3,5.719247E-1,1.8181819E-1,3.9510223E-1,1.7021276E-2,1.6666667E-1,1.14487104E-1,1.8181819E-1,2.923833E-1,6.966229E-2,9.5682657E-1,1.3484347E-1,8.30303E-1,1.6666667E-1,1.8427517E-2,1.0100993E-1,-5.6234985E-3,7.559238E-2,8.513586E-2,4.1296717E-4,9.9787235E-1,3.8609636E-1,7.125307E-2,1.7021276E-2,1.3636363E-1,4.127764E-1,7.125307E-2,9.8790765E-1,2.088452E-1,6.818182E-1,5.0082594E-1,1.2102715E-2,7.836297E-5,8.30303E-1,3.3636364E-1,2.9744682E-1,2.1276595E-3,8.30303E-1,5.0082594E-1,6.5110564E-2,6.0565114E-1,1.9851526E-2,6E-2,1.6666667E-1,5.0082594E-1,7.0297873E-1,5.0082594E-1,5.0082594E-1,4.95086E-1,1.6666667E-1,5E-1,2.3587224E-1,2.923833E-1,9.8790765E-1,3.888889E-1,5.0082594E-1,3.5106385E-1,5.181818E-1,4.127764E-1,-7.3149323E-4,-5.1003823E-5,3.0295572E-3,3.437903E-4,-1.33395335E-2,-1.8299165E-3,-6.4395606E-3,-2.8207134E-3,-2.1662733E-3,-3.076646E-3,1.1740471E-2,-1.9695882E-3,3.6440133E-3,-4.010511E-4,4.2533306E-3,1.9168218E-3,2.1065762E-2,4.8170844E-3,4.0952857E-3,5.3277105E-4,3.887379E-4,-5.5832916E-4,2.1081755E-3,7.2238254E-3,2.469931E-3,1.6937807E-4,1.23927565E-2,2.1956796E-3,-2.4725103E-3,1.2448996E-3,1.969067E-2,8.725036E-3,3.8460759E-3,-1.8118776E-3,3.781958E-2,-1.2909154E-3,3.4449587E-4,8.333416E-3,3.7821606E-3,2.101032E-2,5.0336695E-3,1.48913115E-2,-1.327441E-2,-6.697741E-4,6.8488154E-3,1.8645562E-2,1.1908012E-2,6.38006E-3,5.532605E-3,4.18546E-3],"split_indices":[2,4,4,0,4,7,6,4,0,6,2,6,10,4,0,2,11,0,6,6,2,4,11,0,0,6,6,8,10,6,11,10,11,11,11,6,11,2,8,0,0,2,2,10,10,2,8,11,11,0,10,4,8,10,8,8,11,4,4,11,11,6,4,8,10,2,11,0,0,0,0,0,0,0,0,0,0,0,0,0,0,0,0,0,0,0,0,0,0,0,0,0,0,0,0,0,0,0,0,0,0,0,0,0,0,0,0,0,0,0,0,0,0,0,0,0,0],"split_type":[0,0,0,0,0,0,0,0,0,0,0,0,0,0,0,0,0,0,0,0,0,0,0,0,0,0,0,0,0,0,0,0,0,0,0,0,0,0,0,0,0,0,0,0,0,0,0,0,0,0,0,0,0,0,0,0,0,0,0,0,0,0,0,0,0,0,0,0,0,0,0,0,0,0,0,0,0,0,0,0,0,0,0,0,0,0,0,0,0,0,0,0,0,0,0,0,0,0,0,0,0,0,0,0,0,0,0,0,0,0,0,0,0,0,0,0,0],"sum_hessian":[7.945E3,2.2E1,7.923E3,2E0,2E1,7.82E2,7.141E3,1.9E1,1E0,5.65E2,2.17E2,1.001E3,6.14E3,9E0,1E1,1.36E2,4.29E2,1E0,2.16E2,5.86E2,4.15E2,1.54E2,5.986E3,6E0,3E0,2E0,1.34E2,1.13E2,3.16E2,1.5E2,6.6E1,3.43E2,2.43E2,2.8E2,1.35E2,3.8E1,1.16E2,1.93E2,5.793E3,1E0,1E0,6E1,7.4E1,3E0,1.1E2,2.58E2,5.8E1,3.1E1,1.19E2,2E0,6.4E1,6E0,3.37E2,2.1E1,2.22E2,1.04E2,1.76E2,5E0,1.3E2,5E0,3.3E1,6.3E1,5.3E1,7E1,1.23E2,5.03E2,5.29E3,4.4E1,1.6E1,3E0,7.1E1,1E0,2E0,3E0,1.07E2,2.28E2,3E1,3E0,5.5E1,3E0,2.8E1,5.8E1,6.1E1,1E0,6.3E1,3E0,3E0,3.1E1,3.06E2,1.7E1,4E0,2E1,2.02E2,4E0,1E2,1.1E1,1.65E2,1E0,4E0,1.23E2,7E0,3E0,2E0,2.4E1,9E0,4E0,5.9E1,2.8E1,2.5E1,2E0,6.8E1,2.5E1,9.8E1,9.6E1,4.07E2,1.962E3,3.328E3],"tree_param":{"num_deleted":"0","num_feature":"12","num_nodes":"117","size_leaf_vector":"0"}},{"base_weights":[2.1050431E-1,-9.8075075E-3,2.3501574E-1,-9.0795614E-2,1.8477218E-1,4.4339206E-2,2.6618987E-1,7.829596E-3,-1.2198017E-1,2.520813E0,1.5048584E-1,-3.8921589E-3,1.1235852E-1,4.5992112E-1,2.4538873E-1,8.7890916E-2,-3.8984083E-3,-1.1274951E-1,-1.459731E-1,1.6343985E0,3.4308734E0,2.742284E-1,1.0601582E-1,4.8880257E-2,-1.2936655E-2,5.472084E-1,1.0548707E-1,-3.7425065E-1,4.9087963E-1,3.4855056E-1,2.2756512E-1,2.6263008E-1,7.0957415E-2,-2.5461147E-2,4.038881E-2,-1.5444629E-1,-1.04034305E-1,-1.3073598E-1,-2.0751432E-1,2.7805424E0,6.883089E-2,2.0663793E-1,5.062444E-1,3.0157149E-2,1.566809E-1,-1.0560729E-2,7.6697774E-2,-2.6418954E-2,5.260975E-3,7.313424E-1,1.2094147E-1,-4.3149403E-1,1.0985162E-1,-2.2206106E0,3.9559504E-1,6.3130254E-1,2.8710562E-1,7.513683E-1,2.9348084E-1,2.0770279E-1,2.715458E-1,-6.4139634E-2,8.209317E-2,-7.939735E-3,-4.5731958E-2,1.445538E-1,2.9776676E-2,-1.4061512E-1,-6.37572E-1,2.9269297E-2,-1.073253E-1,-1.7308651E-1,-1.03365704E-1,-6.2490577E-1,-1.3123071E-1,5.8816224E-1,1.6656506E-1,1.7337239E-1,5.959081E-1,-1.29716685E-2,1.260461E-1,6.6594446E-1,1.4404805E-1,-3.9946493E-2,6.945215E-2,2.0931938E-1,5.0799325E-2,-3.3291522E-2,-8.7003615E-3,2.522531E-2,-3.1724058E-2,1.9847758E-1,2.4636483E-3,-5.169619E-1,-1.63328E-1,2.6152068E-1,1.04166344E-1,2.112665E0,2.2565381E-1,6.1653674E-1,4.1870103E0,2.1216586E-1,7.6751256E-1,1.8139645E0,5.654224E-1,2.7320972E-1,1.0572937E0,2.1492988E-1,1.2889E-2,5.968695E-2,2.8608546E-1,6.798493E-2,1.4486322E-1,-8.4796414E-2,2.4505714E-3,-7.490002E-2,-2.0850321E-2,4.3853085E-2,-2.4017649E-2,-2.221079E-1,-1.2575546E-1,2.5083992E-1,-8.900197E-2,-1.8683624E-1,-1.0193196E-1,-1.1299765E-1,-2.4348375E-1,8.5584715E-2,-1.21882334E-1,-8.3076084E-1,-9.770345E-2,-8.876917E-2,8.043925E-1,1.9502139E-1,-4.5700178E-2,2.676813E-1,8.859007E-2,6.733357E-1,3.616791E-1,2.4053287E-2,-1.8891975E-1,1.6555515E-1,-9.957657E-2,1.3594187E0,-1.8337084E-1,-1.684006E-3,1.6813092E-1,-9.0736285E-2,-2.0481167E-2,1.1116711E-1,-2.9705591E-2,3.2577354E-1,9.893783E-2,-1.895528E-2,8.187408E-2,-3.6508504E-2,2.7524339E-2,-3.8162477E-2,4.34721E-3,8.488629E-3,7.004595E-2,-7.991231E-2,-1.6722126E-2,-2.3815879E-1,3.0602244E-1,2.4039863E-1,9.960777E-2,-9.169732E-1,5.5634946E-1,5.0454247E-1,8.2676196E-1,-1.9775813E0,2.2638842E-1,2.6288506E-1,9.9927723E-1,8.80856E-1,3.3307948E0,-7.5083426E-3,7.2352695E-1,-8.8976824E-1,2.8207067E-1,2.7775025E0,9.037934E-1,1.9572674E-1,3.1359714E-1,-2.6698864E-1,1.2972042E-1,1.5577929E0,2.145644E-2,2.4752088E-1,3.331972E-1],"categories":[],"categories_nodes":[],"categories_segments":[],"categories_sizes":[],"default_left":[true,true,true,true,true,true,true,true,true,true,true,true,true,true,true,true,true,true,true,true,false,true,true,true,true,true,true,true,true,true,true,false,true,true,true,true,true,true,true,false,false,true,true,true,true,true,true,true,true,false,true,true,true,false,true,true,true,true,true,true,true,false,true,true,true,false,true,true,false,true,true,true,true,true,false,true,true,true,true,true,true,true,true,true,true,true,true,true,true,true,true,false,false,false,false,true,true,false,true,true,false,true,true,true,true,true,true,true,true,true,true,false,false,false,false,false,false,false,false,false,false,false,false,false,false,false,false,false,false,false,false,false,false,false,false,false,false,false,false,false,false,false,false,false,false,false,false,false,false,false,false,false,false,false,false,false,false,false,false,false,false,false,false,false,false,false,false,false,false,false,false,false,false,false,false,false,false,false,false,false,false,false,false,false,false,false,false,false,false,false,false],"id":116,"left_children":[1,3,5,7,9,11,13,15,17,19,21,23,25,27,29,31,33,35,37,39,-1,41,43,45,47,49,51,53,55,57,59,-1,61,63,65,67,69,71,73,-1,-1,75,77,79,81,83,85,87,89,-1,91,93,95,-1,97,99,101,103,105,107,109,-1,111,113,115,-1,117,119,-1,121,123,125,127,129,-1,131,133,135,137,139,141,143,145,147,149,151,153,155,157,159,161,-1,-1,-1,-1,163,165,-1,167,169,-1,171,173,175,177,179,181,183,185,187,189,-1,-1,-1,-1,-1,-1,-1,-1,-1,-1,-1,-1,-1,-1,-1,-1,-1,-1,-1,-1,-1,-1,-1,-1,-1,-1,-1,-1,-1,-1,-1,-1,-1,-1,-1,-1,-1,-1,-1,-1,-1,-1,-1,-1,-1,-1,-1,-1,-1,-1,-1,-1,-1,-1,-1,-1,-1,-1,-1,-1,-1,-1,-1,-1,-1,-1,-1,-1,-1,-1,-1,-1,-1,-1,-1,-1,-1,-1,-1,-1],"loss_changes":[4.261844E1,1.2458835E1,4.2203186E1,1.7191482E0,1.8443981E1,3.2768898E0,2.4547699E1,1.2744604E-1,8.479881E-2,7.469158E-1,1.2468653E0,2.7860048E-1,1.2094893E0,1.5333931E1,1.0100952E1,4.031606E-2,1.12178035E-1,1.0300183E-1,9.521532E-2,4.082635E0,0E0,9.0110064E-1,6.465733E-1,1.4231244E-1,1.2285756E-1,4.5546305E-1,9.6822214E-1,3.0642635E1,1.6246292E1,1.7909416E1,4.081238E0,0E0,2.658417E-2,2.729047E-2,3.8452283E-2,3.087058E-1,1.1461496E-1,9.943664E-2,6.7296803E-1,0E0,0E0,6.802361E-1,3.5253286E-1,2.8475645E-1,6.0838056E-1,6.4771846E-2,1.931014E-1,3.4293666E-2,1.569573E-1,0E0,1.840669E-2,3.8541555E-2,3.352108E-1,0E0,4.281992E0,1.678157E1,8.332096E0,1.8855705E1,1.0944977E1,4.558029E0,4.490799E0,0E0,7.258661E-3,3.5848457E-2,2.4482414E-2,0E0,2.7389757E-2,4.7886252E-2,0E0,1.757247E-1,9.6880436E-2,1.3943422E-1,2.0808911E-1,3.2146156E-1,0E0,6.6832304E-1,2.668488E-1,1.3663739E-2,9.143114E-2,3.1221947E-1,1.9660807E-1,1.4742664E0,3.5109377E-1,1.7896347E-2,3.259708E-2,1.0316974E-1,1.08350605E-1,4.083106E-2,3.180299E-2,1.0245217E-1,5.1912904E-2,0E0,0E0,0E0,0E0,3.4399992E-1,2.3019266E-1,0E0,5.58105E0,7.7605515E0,0E0,6.4257545E0,3.5589943E0,1.9248661E1,7.5606194E0,7.2507973E0,3.951376E0,5.8919983E0,3.8135219E0,5.369122E0,2.4484406E0,0E0,0E0,0E0,0E0,0E0,0E0,0E0,0E0,0E0,0E0,0E0,0E0,0E0,0E0,0E0,0E0,0E0,0E0,0E0,0E0,0E0,0E0,0E0,0E0,0E0,0E0,0E0,0E0,0E0,0E0,0E0,0E0,0E0,0E0,0E0,0E0,0E0,0E0,0E0,0E0,0E0,0E0,0E0,0E0,0E0,0E0,0E0,0E0,0E0,0E0,0E0,0E0,0E0,0E0,0E0,0E0,0E0,0E0,0E0,0E0,0E0,0E0,0E0,0E0,0E0,0E0,0E0,0E0,0E0,0E0,0E0,0E0,0E0,0E0,0E0,0E0,0E0,0E0,0E0,0E0],"parents":[2147483647,0,0,1,1,2,2,3,3,4,4,5,5,6,6,7,7,8,8,9,9,10,10,11,11,12,12,13,13,14,14,15,15,16,16,17,17,18,18,19,19,21,21,22,22,23,23,24,24,25,25,26,26,27,27,28,28,29,29,30,30,32,32,33,33,34,34,35,35,36,36,37,37,38,38,41,41,42,42,43,43,44,44,45,45,46,46,47,47,48,48,50,50,51,51,52,52,54,54,55,55,56,56,57,57,58,58,59,59,60,60,62,62,63,63,64,64,66,66,67,67,69,69,70,70,71,71,72,72,73,73,75,75,76,76,77,77,78,78,79,79,80,80,81,81,82,82,83,83,84,84,85,85,86,86,87,87,88,88,89,89,90,90,95,95,96,96,98,98,99,99,101,101,102,102,103,103,104,104,105,105,106,106,107,107,108,108,109,109,110,110],"right_children":[2,4,6,8,10,12,14,16,18,20,22,24,26,28,30,32,34,36,38,40,-1,42,44,46,48,50,52,54,56,58,60,-1,62,64,66,68,70,72,74,-1,-1,76,78,80,82,84,86,88,90,-1,92,94,96,-1,98,100,102,104,106,108,110,-1,112,114,116,-1,118,120,-1,122,124,126,128,130,-1,132,134,136,138,140,142,144,146,148,150,152,154,156,158,160,162,-1,-1,-1,-1,164,166,-1,168,170,-1,172,174,176,178,180,182,184,186,188,190,-1,-1,-1,-1,-1,-1,-1,-1,-1,-1,-1,-1,-1,-1,-1,-1,-1,-1,-1,-1,-1,-1,-1,-1,-1,-1,-1,-1,-1,-1,-1,-1,-1,-1,-1,-1,-1,-1,-1,-1,-1,-1,-1,-1,-1,-1,-1,-1,-1,-1,-1,-1,-1,-1,-1,-1,-1,-1,-1,-1,-1,-1,-1,-1,-1,-1,-1,-1,-1,-1,-1,-1,-1,-1,-1,-1,-1,-1,-1,-1],"split_conditions":[5.5555556E-2,7.090609E-2,7.920965E-1,5.719247E-1,1.8181819E-1,3.9510223E-1,1.6034484E-1,1.417897E-1,8.30303E-1,8.110852E-1,2.757472E-1,1.7410874E-1,3.871084E-2,2.7272727E-2,5.181818E-1,2.7272727E-2,8.30303E-1,1.3476774E-1,7.3172486E-1,2.7272727E-2,6.861746E-2,8.30303E-1,3.327586E-1,1.6878912E-2,1.3484347E-1,2.3103449E-1,4.384228E-2,1.6666667E-1,1.7347857E-1,1.4296003E-1,8.30303E-1,5.2526016E-3,7.1924664E-2,6.6582644E-1,2.60713E-1,1.2981635E-1,1.4232984E-1,3.4389627E-1,7.4369824E-1,5.5610847E-2,1.3766178E-3,3.3636364E-1,3.8609636E-1,9.5682657E-1,3.3636364E-1,1.281959E-1,8.62069E-2,8.30303E-1,7.4387825E-1,1.4626848E-2,4.2424244E-1,7.4242425E-1,9.002521E-2,-4.441221E-2,9.8790765E-1,1.7302845E-1,1.5E-1,2.086207E-1,4.9310344E-1,9.736226E-1,1.2389015E-3,-1.2827927E-3,1.3278718E-1,1.49982E-1,6.666666E-1,2.8910758E-3,1.7815007E-2,4.1296717E-4,-1.275144E-2,3.3636364E-1,3.3636364E-1,2.0201656E-1,3.6982355E-1,9.212121E-1,-2.6246142E-3,8.110852E-1,7.5757575E-1,1.5689655E-1,2.862069E-1,3.0172414E-1,3.2586205E-1,5.2376664E-1,3.8609636E-1,4.150162E-2,1.8965518E-1,1.6666667E-1,4.2424244E-1,8.362069E-1,1.6666667E-1,8.30303E-1,6.666666E-1,3.9695515E-3,4.9272967E-5,-1.0339237E-2,-3.2665601E-3,2.7586207E-1,3.3636364E-1,4.2253297E-2,2.777778E-1,9.212121E-1,8.3740205E-2,1.7374864E-1,1.8545192E-1,4.2424244E-1,4.1296717E-4,1.4467052E-1,2.664746E-1,8.686532E-1,9.81905E-1,3.2048974E-2,2.777778E-1,1.3596986E-3,2.8972642E-3,-1.6959283E-3,4.9011425E-5,-1.4980005E-3,-4.170064E-4,8.770617E-4,-4.8035296E-4,-4.442158E-3,-2.515109E-3,5.016798E-3,-1.7800393E-3,-3.7367248E-3,-2.038639E-3,-2.259953E-3,-4.869675E-3,1.7116943E-3,-2.4376467E-3,-1.6615216E-2,-1.954069E-3,-1.7753834E-3,1.608785E-2,3.9004278E-3,-9.140035E-4,5.353626E-3,1.7718014E-3,1.3466713E-2,7.233582E-3,4.810657E-4,-3.778395E-3,3.311103E-3,-1.9915313E-3,2.7188374E-2,-3.6674167E-3,-3.3680117E-5,3.3626184E-3,-1.8147257E-3,-4.0962335E-4,2.2233422E-3,-5.941118E-4,6.515471E-3,1.9787566E-3,-3.7910556E-4,1.6374816E-3,-7.3017005E-4,5.504868E-4,-7.632495E-4,8.6944194E-5,1.6977258E-4,1.4009189E-3,-1.5982462E-3,-3.344425E-4,-4.7631757E-3,6.1204485E-3,4.8079723E-3,1.9921553E-3,-1.8339463E-2,1.1126989E-2,1.0090849E-2,1.653524E-2,-3.9551623E-2,4.5277686E-3,5.257701E-3,1.9985544E-2,1.761712E-2,6.6615894E-2,-1.5016684E-4,1.4470539E-2,-1.7795365E-2,5.6414134E-3,5.555005E-2,1.8075867E-2,3.9145346E-3,6.2719425E-3,-5.3397724E-3,2.5944083E-3,3.1155858E-2,4.2912882E-4,4.9504177E-3,6.663944E-3],"split_indices":[4,7,6,6,2,6,3,5,2,6,5,5,5,2,2,2,2,5,5,2,0,2,3,6,6,3,5,4,5,5,2,0,6,5,5,5,5,5,5,0,0,2,6,6,2,5,3,2,5,0,2,2,5,0,6,5,3,3,3,5,8,0,5,5,2,0,7,8,0,2,2,5,5,2,0,6,2,3,3,3,3,5,6,5,3,4,2,3,4,2,2,0,0,0,0,3,2,0,4,2,0,5,5,2,8,5,5,5,5,5,4,0,0,0,0,0,0,0,0,0,0,0,0,0,0,0,0,0,0,0,0,0,0,0,0,0,0,0,0,0,0,0,0,0,0,0,0,0,0,0,0,0,0,0,0,0,0,0,0,0,0,0,0,0,0,0,0,0,0,0,0,0,0,0,0,0,0,0,0,0,0,0,0,0,0,0,0,0,0,0,0],"split_type":[0,0,0,0,0,0,0,0,0,0,0,0,0,0,0,0,0,0,0,0,0,0,0,0,0,0,0,0,0,0,0,0,0,0,0,0,0,0,0,0,0,0,0,0,0,0,0,0,0,0,0,0,0,0,0,0,0,0,0,0,0,0,0,0,0,0,0,0,0,0,0,0,0,0,0,0,0,0,0,0,0,0,0,0,0,0,0,0,0,0,0,0,0,0,0,0,0,0,0,0,0,0,0,0,0,0,0,0,0,0,0,0,0,0,0,0,0,0,0,0,0,0,0,0,0,0,0,0,0,0,0,0,0,0,0,0,0,0,0,0,0,0,0,0,0,0,0,0,0,0,0,0,0,0,0,0,0,0,0,0,0,0,0,0,0,0,0,0,0,0,0,0,0,0,0,0,0,0,0,0,0,0,0,0,0,0,0,0,0,0,0],"sum_hessian":[7.891E3,7.9E2,7.101E3,5.58E2,2.32E2,9.98E2,6.103E3,1.34E2,4.24E2,3E0,2.29E2,5.84E2,4.14E2,5.91E2,5.512E3,1.7E1,1.17E2,3.08E2,1.16E2,2E0,1E0,6E1,1.69E2,8.5E1,4.99E2,6E0,4.08E2,2.1E1,5.7E2,8.11E2,4.701E3,1E0,1.6E1,7.9E1,3.8E1,5.2E1,2.56E2,9.4E1,2.2E1,1E0,1E0,4.7E1,1.3E1,6.8E1,1.01E2,2.7E1,5.8E1,2.87E2,2.12E2,4E0,2E0,3E0,4.05E2,6E0,1.5E1,3.37E2,2.33E2,9.7E1,7.14E2,3.24E3,1.461E3,1E0,1.5E1,4.3E1,3.6E1,3E0,3.5E1,5.1E1,1E0,6E0,2.5E2,3.6E1,5.8E1,3E0,1.9E1,4E0,4.3E1,3E0,1E1,4.7E1,2.1E1,2E0,9.9E1,2E1,7E0,9E0,4.9E1,2.06E2,8.1E1,1.38E2,7.4E1,1E0,1E0,2E0,1E0,1.4E1,3.91E2,1E0,1.4E1,3.36E2,1E0,2.02E2,3.1E1,1.4E1,8.3E1,6.96E2,1.8E1,3.124E3,1.16E2,9.4E1,1.367E3,1.3E1,2E0,5E0,3.8E1,1.6E1,2E1,2.8E1,7E0,7E0,4.4E1,2E0,4E0,1.5E1,2.35E2,2E1,1.6E1,5E0,5.3E1,2E0,1E0,1E0,3E0,3.8E1,5E0,1E0,2E0,7E0,3E0,3.9E1,8E0,1.8E1,3E0,1E0,1E0,1.4E1,8.5E1,5E0,1.5E1,5E0,2E0,4E0,5E0,1.5E1,3.4E1,1.96E2,1E1,2.5E1,5.6E1,1.01E2,3.7E1,1.7E1,5.7E1,1E0,1.3E1,1.2E1,3.79E2,3E0,1.1E1,2.2E2,1.16E2,1E0,2.01E2,1E1,2.1E1,9E0,5E0,1.8E1,6.5E1,5E0,6.91E2,1E0,1.7E1,2.616E3,5.08E2,3.4E1,8.2E1,2E0,9.2E1,7.53E2,6.14E2],"tree_param":{"num_deleted":"0","num_feature":"12","num_nodes":"191","size_leaf_vector":"0"}},{"base_weights":[2.1923295E-1,4.242782E0,2.0597667E-1,3.2132607E-2,4.7830772E0,6.751437E-1,1.9267783E-1,2.5869104E-1,-9.58143E-2,6.8999934E0,3.7340887E0,5.792842E-1,2.2749639E0,-2.128156E-2,2.1618506E-1,5.622188E-2,7.9753532E0,2.7715704E-1,4.846593E0,1.5543054E-1,7.9793096E-1,2.9450338E0,1.2087089E0,-8.381193E-2,1.3097066E-1,4.2849537E-2,2.452942E-1,2.0809782E0,-4.678633E-1,5.2880855E0,-1.0707826E-1,7.6457E-2,8.3921945E-1,1.3991469E0,4.8986456E-1,6.818276E-2,1.4633604E0,-2.4599964E-3,-1.11535735E-1,8.0795325E-2,2.5245002E-1,-6.955396E-3,1.1227691E-1,6.305133E-1,2.3978785E-1,-1.13917805E-1,4.1321012E-1,1.7881081E0,4.1426517E-2,1.0456766E0,2.0261502E0,5.689795E-1,8.442854E-2,-3.401473E-2,2.207508E-2,-9.2309095E-2,-1.61626E-1,-1.0562898E-2,1.0480011E-1,1.012768E0,2.1021032E-1,-2.2743493E-2,1.412465E-2,1.9746055E-1,1.0386779E-1,1.2888893E-2,7.7485585E-1,1.6960298E-1,2.6027915E-1,2.8731096E-1,-1.8516602E-1,1.4185692E0,-4.574324E-2,6.1710155E-1,3.3794153E0,1.287018E0,-4.567062E-1,-9.676054E-3,1.1621473E0,2.759702E0,9.984633E-1,2.921248E-1,8.133198E-1,-0E0,1.7602484E-1,6.029162E-2,-3.6147475E-2,-5.13083E-3,3.3672236E-2,-3.97102E-2,-1.0450142E-1,-5.0501585E-1,-1.5374579E-1,1.327486E-2,-3.3645116E-2,1.6328381E-1,4.7369607E-2,1.0254259E0,1.9111095E-1,6.910493E-3,-2.9242191E-2,1.1368824E-1,6.2204236E-3,8.035665E-2,4.3150142E-1,1.478993E-1,8.483114E-2,-2.7320382E-1,2.3874469E-1,1.2238408E0,6.059005E-1,2.3921774E-1,1.3864787E-1,5.086485E-1,2.536687E-1],"categories":[],"categories_nodes":[],"categories_segments":[],"categories_sizes":[],"default_left":[true,true,true,true,true,true,true,false,false,true,true,true,true,true,true,false,false,true,true,true,true,false,true,true,true,true,true,false,false,false,false,true,true,true,true,false,false,true,true,true,true,true,true,true,true,true,true,true,true,true,true,true,true,true,true,true,true,true,true,false,true,true,true,true,true,true,true,true,true,false,false,false,false,false,false,false,false,false,false,false,false,false,false,false,false,false,false,false,false,false,false,false,false,false,false,false,false,false,false,false,false,false,false,false,false,false,false,false,false,false,false,false,false,false,false],"id":117,"left_children":[1,3,5,7,9,11,13,-1,-1,15,17,19,21,23,25,-1,-1,27,29,31,33,-1,35,37,39,41,43,-1,-1,-1,-1,45,47,49,51,-1,-1,53,55,57,59,61,63,65,67,69,71,73,75,77,79,81,83,85,87,89,91,93,95,-1,97,99,101,103,105,107,109,111,113,-1,-1,-1,-1,-1,-1,-1,-1,-1,-1,-1,-1,-1,-1,-1,-1,-1,-1,-1,-1,-1,-1,-1,-1,-1,-1,-1,-1,-1,-1,-1,-1,-1,-1,-1,-1,-1,-1,-1,-1,-1,-1,-1,-1,-1,-1],"loss_changes":[4.276946E2,5.9788574E1,4.9855133E1,1.07217655E-1,4.3071167E1,3.33097E1,3.9131195E1,0E0,0E0,5.3706696E1,6.2295074E1,1.925219E1,7.5655365E0,7.33686E0,3.535901E1,0E0,0E0,6.171363E0,2.7236145E1,3.8176372E0,2.5180634E1,0E0,1.4939175E0,1.230475E0,1.3558176E0,3.4884043E0,1.2666901E1,0E0,0E0,0E0,0E0,4.144341E0,5.500761E0,9.51841E0,2.9042797E0,0E0,0E0,1.0829236E-1,3.8369226E-1,3.5113716E-1,2.0097852E0,1.9570275E-1,2.9067183E-1,7.5037193E0,8.489319E0,1.1978769E0,1.0807587E1,5.4592524E0,2.8966427E0,3.7487106E0,1.1340698E1,5.068714E0,1.17925994E-1,1.2718461E-2,2.5179822E-2,1.859572E-1,2.686844E-1,1.8780524E-2,4.1873825E-1,0E0,8.87835E-1,6.520152E-2,1.9584645E-1,1.0043381E0,3.1464958E-1,1.0766581E0,4.91029E0,2.867569E0,7.46463E0,0E0,0E0,0E0,0E0,0E0,0E0,0E0,0E0,0E0,0E0,0E0,0E0,0E0,0E0,0E0,0E0,0E0,0E0,0E0,0E0,0E0,0E0,0E0,0E0,0E0,0E0,0E0,0E0,0E0,0E0,0E0,0E0,0E0,0E0,0E0,0E0,0E0,0E0,0E0,0E0,0E0,0E0,0E0,0E0,0E0,0E0],"parents":[2147483647,0,0,1,1,2,2,3,3,4,4,5,5,6,6,9,9,10,10,11,11,12,12,13,13,14,14,17,17,18,18,19,19,20,20,22,22,23,23,24,24,25,25,26,26,31,31,32,32,33,33,34,34,37,37,38,38,39,39,40,40,41,41,42,42,43,43,44,44,45,45,46,46,47,47,48,48,49,49,50,50,51,51,52,52,53,53,54,54,55,55,56,56,57,57,58,58,60,60,61,61,62,62,63,63,64,64,65,65,66,66,67,67,68,68],"right_children":[2,4,6,8,10,12,14,-1,-1,16,18,20,22,24,26,-1,-1,28,30,32,34,-1,36,38,40,42,44,-1,-1,-1,-1,46,48,50,52,-1,-1,54,56,58,60,62,64,66,68,70,72,74,76,78,80,82,84,86,88,90,92,94,96,-1,98,100,102,104,106,108,110,112,114,-1,-1,-1,-1,-1,-1,-1,-1,-1,-1,-1,-1,-1,-1,-1,-1,-1,-1,-1,-1,-1,-1,-1,-1,-1,-1,-1,-1,-1,-1,-1,-1,-1,-1,-1,-1,-1,-1,-1,-1,-1,-1,-1,-1,-1,-1],"split_conditions":[2.7272727E-2,5.5555556E-2,9.6551724E-2,5.719247E-1,1.6666667E-1,5E-1,5.5555556E-2,5.1738205E-3,-1.916286E-3,5.629188E-1,2.777778E-1,1.6666667E-1,6.893617E-1,7.090609E-2,7.920965E-1,1.1244375E-3,1.5950707E-1,9.8790765E-1,4.4444448E-1,7.090609E-2,2.2170213E-1,5.8900673E-2,5.629188E-1,5.719247E-1,9.5682657E-1,3.9510223E-1,1.48936175E-2,4.161956E-2,-9.357265E-3,1.0576171E-1,-2.141565E-3,3.5106385E-1,5.5555556E-2,2.777778E-1,3.888889E-1,1.3636552E-3,2.9267209E-2,8.513586E-2,8.30303E-1,3.8609636E-1,7.125307E-2,1.3484347E-1,1.9137931E-1,1.6666667E-1,1.6666667E-1,5.719247E-1,3.095823E-1,8.110852E-1,9.5682657E-1,9.8790765E-1,3.888889E-1,2.777778E-1,7.241379E-2,1.2285012E-2,2.2481573E-1,2.862069E-1,1.15517244E-1,7.008511E-1,6.0565114E-1,2.025536E-2,1.48936175E-2,2.862069E-1,1.3390663E-1,8.30303E-1,6.242424E-1,2.4310344E-1,1.4482759E-1,3.5106385E-1,1.8427517E-2,5.746219E-3,-3.7033202E-3,2.8371384E-2,-9.1486477E-4,1.2342031E-2,6.758831E-2,2.5740359E-2,-9.134124E-3,-1.9352107E-4,2.3242945E-2,5.519404E-2,1.9969266E-2,5.842496E-3,1.6266396E-2,-0E0,3.5204967E-3,1.2058325E-3,-7.229495E-4,-1.026166E-4,6.734447E-4,-7.94204E-4,-2.0900283E-3,-1.0100317E-2,-3.0749156E-3,2.654972E-4,-6.7290233E-4,3.265676E-3,9.4739214E-4,2.0508518E-2,3.822219E-3,1.3820986E-4,-5.848438E-4,2.2737647E-3,1.2440847E-4,1.607133E-3,8.630028E-3,2.957986E-3,1.6966228E-3,-5.464076E-3,4.7748936E-3,2.4476817E-2,1.211801E-2,4.784355E-3,2.7729573E-3,1.017297E-2,5.0733737E-3],"split_indices":[2,4,3,6,4,4,4,0,0,6,4,4,10,7,6,0,0,6,4,7,10,0,6,6,6,6,10,0,0,0,0,10,4,4,4,0,0,6,2,6,11,6,3,4,4,6,11,6,6,6,4,4,3,11,11,3,3,10,11,0,10,3,11,2,2,3,3,10,11,0,0,0,0,0,0,0,0,0,0,0,0,0,0,0,0,0,0,0,0,0,0,0,0,0,0,0,0,0,0,0,0,0,0,0,0,0,0,0,0,0,0,0,0,0,0],"split_type":[0,0,0,0,0,0,0,0,0,0,0,0,0,0,0,0,0,0,0,0,0,0,0,0,0,0,0,0,0,0,0,0,0,0,0,0,0,0,0,0,0,0,0,0,0,0,0,0,0,0,0,0,0,0,0,0,0,0,0,0,0,0,0,0,0,0,0,0,0,0,0,0,0,0,0,0,0,0,0,0,0,0,0,0,0,0,0,0,0,0,0,0,0,0,0,0,0,0,0,0,0,0,0,0,0,0,0,0,0,0,0,0,0,0,0],"sum_hessian":[8.025E3,2.6E1,7.999E3,3E0,2.3E1,2.2E2,7.779E3,1E0,2E0,7E0,1.6E1,2.08E2,1.2E1,7.7E2,7.009E3,1E0,6E0,4E0,1.2E1,7.1E1,1.37E2,7E0,5E0,5.46E2,2.24E2,1.008E3,6.001E3,1E0,3E0,1.1E1,1E0,6.4E1,7E0,4.6E1,9.1E1,1E0,4E0,1.39E2,4.07E2,1.59E2,6.5E1,5.87E2,4.21E2,8.4E1,5.917E3,4.1E1,2.3E1,3E0,4E0,3E1,1.6E1,7.6E1,1.5E1,6.1E1,7.8E1,2.95E2,1.12E2,3.3E1,1.26E2,3E0,6.2E1,3.36E2,2.51E2,3.7E1,3.84E2,1.6E1,6.8E1,1.338E3,4.579E3,6E0,3.5E1,7E0,1.6E1,2E0,1E0,1E0,3E0,3E0,2.7E1,9E0,7E0,3.6E1,4E1,8E0,7E0,1E0,6E1,2.3E1,5.5E1,5.6E1,2.39E2,2E0,1.1E2,1.6E1,1.7E1,6.2E1,6.4E1,1E0,6.1E1,6E1,2.76E2,1.8E1,2.33E2,2.5E1,1.2E1,1.15E2,2.69E2,7E0,9E0,1.8E1,5E1,4.11E2,9.27E2,1.18E2,4.461E3],"tree_param":{"num_deleted":"0","num_feature":"12","num_nodes":"115","size_leaf_vector":"0"}},{"base_weights":[1.8782523E-1,-9.397761E-2,4.4271204E-1,7.6404616E-2,-2.1326837E-1,1.5470705E0,4.1830248E-1,-6.258482E-3,2.0150411E-1,-1.095947E0,-1.8920533E-1,5.533948E0,1.1320544E0,1.9714884E-1,4.7583213E-1,-2.9796443E-4,-4.8726127E-1,1.1321557E0,1.9475178E-1,-1.2385131E-1,-1.320682E0,-2.4466965E-1,-1.1841459E-1,9.846075E0,3.6515834E0,-1.08589895E-1,1.7843375E0,2.6761726E-1,1.6428252E-1,7.110185E-1,4.345252E-1,7.267187E-2,-1.17518585E-2,4.472708E-1,1.781415E-1,-1.3545874E-1,-5.3611513E-2,-2.0540187E0,-1.079419E0,-2.0593409E-1,-4.7547764E-1,3.5662875E-1,-1.5551272E-1,7.9436195E-1,4.905839E0,2.6543057E0,-4.7127554E-1,4.242777E0,1.1117742E0,2.4245428E-1,9.4760054E-1,3.2883137E-2,1.8719625E-1,4.84008E-1,9.341654E-1,2.2364698E-1,4.6678224E-1,2.0999046E-1,5.4483827E-2,-2.7257722E-2,3.6015708E-2,1.08010635E-1,5.8707684E-1,1.5227312E-1,3.4044683E-1,-3.245273E0,-1.4936E0,-1.1677392E0,-8.398915E-2,-1.9290246E-1,-7.644122E-1,-9.3903646E-2,-5.980903E-1,-6.973475E-2,6.9128203E-1,5.781195E-1,-1.7380957E-1,1.1165989E-1,1.2677147E0,2.1599164E0,5.5092306E0,3.6342356E0,2.6502487E-1,-2.2237856E0,-2.0202214E-1,1.3999999E1,2.8453674E0,6.0063225E-1,5.544441E0,6.3120157E-1,2.2410794E-1,3.3287923E0,1.4488308E-1,1.401617E-1,-2.224782E-1,1.7526606E-1,3.848752E-1,1.0513315E0,2.995186E-1,1.8804597E0,5.668059E-1,2.809549E0,2.1388507E-1,5.378604E-1,3.1804392E-1,1.3252328E-1,9.213791E-1,2.9873848E-1,4.6595804E-2,-1.3975009E-2,-1.628843E-1,-8.0822095E-2,7.462226E-2,3.9631626E-1,-2.3842974E-1,5.283334E-1,1.5455811E0,3.1549826E-1,1.2140596E-1,4.4971186E-1,5.9116997E-2,-6.2784314E-1,-1.7316813E0,-6.854941E-1,-1.3104398E0,4.2450124E-1,-3.686781E-1,-2.012655E-1,9.535574E-1,-7.782489E-2,-9.99755E-1,-1.666295E-2,-1.0371743E-1,1.4652623E0,-6.179323E-1,6.234704E-1,-8.5903805E-1,-6.4593446E-1,8.5376287E-1,-3.5195258E-1,1.2674857E0,-9.716621E-1,-1.5815999E-1,-3.1103947E0,-1.0547233E-1,3.7037802E-1,-6.77296E-1,8.3003265E-1,-5.961445E0,-1.0882229E0,7.6473E0,8.7388855E-1,3.913463E-1,2.7088755E-1,1.677909E-1,5.779525E0,3.490625E-2,4.9649205E-2,1.7481613E-1,5.344339E-2,2.2486888E-1,-3.4040697E-2,-6.038105E-1,1.8699604E-1,-2.2070518E-1,2.2102351E-1,4.369565E-1,8.7259537E-1,3.2081485E0,1.7278254E-1,4.429347E-1,1.5579257E0,3.8275573E0,-2.61674E-2,7.611268E-1,3.3436817E-1,2.0151997E-2,4.592385E-1,6.913645E-1,3.6786002E-1,1.8011545E-1],"categories":[],"categories_nodes":[],"categories_segments":[],"categories_sizes":[],"default_left":[true,true,true,true,true,true,true,true,true,true,true,true,true,true,true,true,false,false,true,true,true,true,true,false,true,true,true,true,true,true,true,true,true,true,true,false,false,true,true,true,true,true,true,true,true,true,true,true,true,true,true,true,true,true,true,true,true,true,true,true,true,true,true,true,true,false,true,true,true,true,true,true,true,true,true,true,true,false,false,false,false,false,false,true,true,false,false,true,true,true,true,true,true,true,true,true,true,true,true,true,true,false,true,true,true,false,false,false,false,false,false,false,false,false,false,false,false,false,false,false,false,false,false,false,false,false,false,false,false,false,false,false,false,false,false,false,false,false,false,false,false,false,false,false,false,false,false,false,false,false,false,false,false,false,false,false,false,false,false,false,false,false,false,false,false,false,false,false,false,false,false,false,false,false,false,false,false,false,false,false,false],"id":118,"left_children":[1,3,5,7,9,11,13,15,17,19,21,23,25,27,29,31,-1,-1,33,35,37,39,41,-1,43,45,47,49,51,53,55,57,59,61,63,-1,-1,65,67,69,71,73,75,77,79,81,83,85,87,89,91,93,95,97,99,101,103,105,107,109,111,113,115,117,119,-1,121,123,125,127,129,131,133,135,137,139,141,-1,-1,-1,-1,-1,-1,143,145,-1,-1,147,149,151,153,155,157,159,161,163,165,167,169,171,173,-1,175,177,179,-1,-1,-1,-1,-1,-1,-1,-1,-1,-1,-1,-1,-1,-1,-1,-1,-1,-1,-1,-1,-1,-1,-1,-1,-1,-1,-1,-1,-1,-1,-1,-1,-1,-1,-1,-1,-1,-1,-1,-1,-1,-1,-1,-1,-1,-1,-1,-1,-1,-1,-1,-1,-1,-1,-1,-1,-1,-1,-1,-1,-1,-1,-1,-1,-1,-1,-1,-1,-1,-1,-1,-1,-1,-1,-1,-1],"loss_changes":[5.659743E2,7.6070404E1,1.1128589E2,1.5942307E1,4.6668663E1,1.456286E2,5.1465637E1,2.654553E0,3.7617664E0,1.266861E1,8.400658E0,5.5460663E1,6.590773E1,1.9161568E0,3.108789E1,7.6611286E-1,0E0,0E0,2.5203037E0,4.1215867E-3,7.590523E0,1.069812E1,1.6622574E1,0E0,2.1316322E1,2.8777918E1,8.653517E1,4.446371E0,1.7150087E0,2.4110428E1,1.854834E1,3.0294216E-1,5.878066E-1,1.7396894E0,2.3786716E0,0E0,0E0,5.8822594E0,3.1437492E0,7.428543E0,8.034161E0,9.775033E0,1.1764067E1,6.8720293E-1,3.1024551E0,7.4279423E0,1.1769673E1,1.410058E2,9.47177E1,1.7688208E0,1.7629847E1,2.3469174E0,1.1164589E0,2.4820946E1,8.3504456E1,8.928247E0,2.4990051E1,7.3415595E-1,2.0301017E-1,1.0764108E0,8.785037E-1,1.1657581E0,1.1808395E0,2.4715939E0,2.3918095E0,0E0,1.3214855E0,1.9658737E0,5.339521E-1,9.701885E0,3.7289858E0,2.9796332E-2,5.625847E0,1.6778894E1,8.5156555E0,1.3839994E1,1.0587418E1,0E0,0E0,0E0,0E0,0E0,0E0,6.1053734E0,6.1637807E0,0E0,0E0,5.9281914E1,6.3310028E1,5.2762604E-1,6.2491417E-1,1.868658E1,1.4808953E-2,4.352119E-1,1.8044425E0,2.1467667E0,1.9166136E-1,2.1495895E1,3.2434368E0,4.0220444E1,2.0105068E1,0E0,8.450125E0,1.9227997E1,5.242485E0,0E0,0E0,0E0,0E0,0E0,0E0,0E0,0E0,0E0,0E0,0E0,0E0,0E0,0E0,0E0,0E0,0E0,0E0,0E0,0E0,0E0,0E0,0E0,0E0,0E0,0E0,0E0,0E0,0E0,0E0,0E0,0E0,0E0,0E0,0E0,0E0,0E0,0E0,0E0,0E0,0E0,0E0,0E0,0E0,0E0,0E0,0E0,0E0,0E0,0E0,0E0,0E0,0E0,0E0,0E0,0E0,0E0,0E0,0E0,0E0,0E0,0E0,0E0,0E0,0E0,0E0,0E0,0E0,0E0,0E0,0E0,0E0,0E0,0E0,0E0,0E0],"parents":[2147483647,0,0,1,1,2,2,3,3,4,4,5,5,6,6,7,7,8,8,9,9,10,10,11,11,12,12,13,13,14,14,15,15,18,18,19,19,20,20,21,21,22,22,24,24,25,25,26,26,27,27,28,28,29,29,30,30,31,31,32,32,33,33,34,34,37,37,38,38,39,39,40,40,41,41,42,42,43,43,44,44,45,45,46,46,47,47,48,48,49,49,50,50,51,51,52,52,53,53,54,54,55,55,56,56,57,57,58,58,59,59,60,60,61,61,62,62,63,63,64,64,66,66,67,67,68,68,69,69,70,70,71,71,72,72,73,73,74,74,75,75,76,76,83,83,84,84,87,87,88,88,89,89,90,90,91,91,92,92,93,93,94,94,95,95,96,96,97,97,98,98,99,99,100,100,102,102,103,103,104,104],"right_children":[2,4,6,8,10,12,14,16,18,20,22,24,26,28,30,32,-1,-1,34,36,38,40,42,-1,44,46,48,50,52,54,56,58,60,62,64,-1,-1,66,68,70,72,74,76,78,80,82,84,86,88,90,92,94,96,98,100,102,104,106,108,110,112,114,116,118,120,-1,122,124,126,128,130,132,134,136,138,140,142,-1,-1,-1,-1,-1,-1,144,146,-1,-1,148,150,152,154,156,158,160,162,164,166,168,170,172,174,-1,176,178,180,-1,-1,-1,-1,-1,-1,-1,-1,-1,-1,-1,-1,-1,-1,-1,-1,-1,-1,-1,-1,-1,-1,-1,-1,-1,-1,-1,-1,-1,-1,-1,-1,-1,-1,-1,-1,-1,-1,-1,-1,-1,-1,-1,-1,-1,-1,-1,-1,-1,-1,-1,-1,-1,-1,-1,-1,-1,-1,-1,-1,-1,-1,-1,-1,-1,-1,-1,-1,-1,-1,-1,-1,-1,-1,-1,-1],"split_conditions":[6.621175E-1,6.572582E-1,7.4137926E-2,3.989272E-1,6.724138E-2,7.876776E-1,9.8790765E-1,3.9342475E-1,7.241379E-2,5.5555556E-2,5.8408356E-1,2.2506302E-3,8.2218254E-1,3.1551725E-1,1.7518905E-1,6.0824133E-2,-9.745225E-3,2.2643114E-2,9.605689E-2,5E-1,2.2506302E-3,7.2727275E-1,6.129816E-1,1.969215E-1,9.689189E-1,9.8790765E-1,8.349742E-1,3.1034482E-1,2.2481573E-1,8.2218254E-1,7.554066E-1,1.3636363E-1,3.279013E-1,4.4565028E-1,6.430696E-1,-2.7091748E-3,-1.0722303E-3,1.6666667E-1,5E-1,5.697695E-1,5.5555556E-2,5.984876E-1,2.6206896E-1,5E-1,1.6666667E-1,5E-1,2.2506302E-3,2.2506302E-3,5E-1,6.808764E-1,2.923833E-1,9.02244E-1,9.859468E-1,7.7943826E-1,8.349742E-1,1.8427517E-2,8.4422266E-1,5.2635435E-2,6.877926E-2,3.2117623E-1,7.559238E-2,3.8820636E-1,6.12069E-1,4.264353E-1,6.4979887E-1,-6.490546E-2,2.777778E-1,1.6666667E-1,5E-1,5.645481E-1,5.5555556E-2,1.862069E-1,2.7547713E-2,5.905653E-1,1.4619164E-1,2.5344828E-1,6.299964E-1,2.2331977E-3,2.5354294E-2,4.319833E-2,1.1018461E-1,7.268471E-2,5.300497E-3,4.4444448E-1,1.6666667E-1,2.7999997E-1,5.690735E-2,3.888889E-1,8.54249E-1,2.6551723E-1,4.2014763E-1,9.3332297E-1,6.4742017E-1,7.7832115E-1,3.327586E-1,9.699887E-1,6.0565114E-1,1.6384588E-1,4.95086E-1,1.628556E-1,8.5870504E-1,5.6190982E-2,7.290039E-1,8.2218254E-1,3.888889E-1,2.6504656E-3,1.842758E-2,5.9747696E-3,9.3191606E-4,-2.7950018E-4,-3.2576858E-3,-1.6164419E-3,1.4924451E-3,7.926325E-3,-4.7685946E-3,1.0566669E-2,3.091162E-2,6.309965E-3,2.428119E-3,8.994237E-3,1.1823399E-3,-1.2556862E-2,-3.4633625E-2,-1.3709882E-2,-2.6208796E-2,8.490025E-3,-7.3735616E-3,-4.02531E-3,1.9071147E-2,-1.5564978E-3,-1.99951E-2,-3.33259E-4,-2.0743485E-3,2.9305246E-2,-1.2358646E-2,1.2469408E-2,-1.7180761E-2,-1.2918689E-2,1.7075257E-2,-7.0390515E-3,2.5349714E-2,-1.9433241E-2,-3.1631996E-3,-6.2207893E-2,-2.1094466E-3,7.40756E-3,-1.3545919E-2,1.6600652E-2,-1.1922889E-1,-2.1764457E-2,1.52946E-1,1.7477771E-2,7.826926E-3,5.417751E-3,3.355818E-3,1.1559049E-1,6.98125E-4,9.92984E-4,3.4963225E-3,1.0688677E-3,4.4973777E-3,-6.808139E-4,-1.2076209E-2,3.7399207E-3,-4.4141035E-3,4.42047E-3,8.73913E-3,1.7451907E-2,6.416297E-2,3.4556508E-3,8.858694E-3,3.1158512E-2,7.655115E-2,-5.23348E-4,1.5222536E-2,6.687363E-3,4.0303994E-4,9.184769E-3,1.382729E-2,7.3572E-3,3.602309E-3],"split_indices":[1,1,3,1,3,1,6,1,3,4,5,5,1,3,5,1,0,0,5,0,5,11,5,0,6,6,1,3,11,1,1,11,1,1,1,0,0,4,4,5,4,5,3,0,4,0,5,5,4,1,11,1,1,1,1,11,1,1,5,1,6,11,3,1,1,0,4,4,0,5,4,3,5,5,11,3,5,0,0,0,0,0,0,4,4,0,0,4,1,3,5,1,11,1,3,1,11,5,11,5,1,0,1,1,4,0,0,0,0,0,0,0,0,0,0,0,0,0,0,0,0,0,0,0,0,0,0,0,0,0,0,0,0,0,0,0,0,0,0,0,0,0,0,0,0,0,0,0,0,0,0,0,0,0,0,0,0,0,0,0,0,0,0,0,0,0,0,0,0,0,0,0,0,0,0,0,0,0,0,0,0],"split_type":[0,0,0,0,0,0,0,0,0,0,0,0,0,0,0,0,0,0,0,0,0,0,0,0,0,0,0,0,0,0,0,0,0,0,0,0,0,0,0,0,0,0,0,0,0,0,0,0,0,0,0,0,0,0,0,0,0,0,0,0,0,0,0,0,0,0,0,0,0,0,0,0,0,0,0,0,0,0,0,0,0,0,0,0,0,0,0,0,0,0,0,0,0,0,0,0,0,0,0,0,0,0,0,0,0,0,0,0,0,0,0,0,0,0,0,0,0,0,0,0,0,0,0,0,0,0,0,0,0,0,0,0,0,0,0,0,0,0,0,0,0,0,0,0,0,0,0,0,0,0,0,0,0,0,0,0,0,0,0,0,0,0,0,0,0,0,0,0,0,0,0,0,0,0,0,0,0,0,0,0,0],"sum_hessian":[7.879E3,3.742E3,4.137E3,1.541E3,2.201E3,8.9E1,4.048E3,9.28E2,6.13E2,5.8E1,2.143E3,8E0,8.1E1,8.36E2,3.212E3,9.17E2,1.1E1,4E0,6.09E2,1.1E1,4.7E1,1.201E3,9.42E2,2E0,6E0,2.8E1,5.3E1,2.65E2,5.71E2,4.79E2,2.733E3,1.24E2,7.93E2,3.7E1,5.72E2,9E0,2E0,1.1E1,3.6E1,1.029E3,1.72E2,6.8E1,8.74E2,2E0,4E0,3E0,2.5E1,1.1E1,4.2E1,2.56E2,9E0,8.5E1,4.86E2,2.38E2,2.41E2,3.63E2,2.37E3,1.4E1,1.1E2,5.99E2,1.94E2,1.1E1,2.6E1,4.94E2,7.8E1,3E0,8E0,3.3E1,3E0,1.006E3,2.3E1,4.2E1,1.3E2,3E1,3.8E1,2.1E1,8.53E2,1E0,1E0,1E0,3E0,2E0,1E0,3E0,2.2E1,1E0,1E1,3.8E1,4E0,1.1E1,2.45E2,2E0,7E0,6E1,2.5E1,4.59E2,2.7E1,5.8E1,1.8E2,6.7E1,1.74E2,1E0,3.62E2,1.603E3,7.67E2,1.3E1,1E0,3E0,1.07E2,5.46E2,5.3E1,4.8E1,1.46E2,6E0,5E0,2.5E1,1E0,7.8E1,4.16E2,5.6E1,2.2E1,2E0,6E0,8E0,2.5E1,1E0,2E0,9.99E2,7E0,6E0,1.7E1,5E0,3.7E1,1E0,1.29E2,1.6E1,1.4E1,4E0,3.4E1,9E0,1.2E1,1.6E1,8.37E2,2E0,1E0,1E1,1.2E1,3.7E1,1E0,1E0,3E0,5E0,6E0,1.33E2,1.12E2,1E0,1E0,2E0,5E0,3E1,3E1,1.7E1,8E0,4.46E2,1.3E1,7E0,2E1,5.4E1,4E0,9.6E1,8.4E1,5.8E1,9E0,4.3E1,1.31E2,2.23E2,1.39E2,1.061E3,5.42E2,5.63E2,2.04E2],"tree_param":{"num_deleted":"0","num_feature":"12","num_nodes":"181","size_leaf_vector":"0"}},{"base_weights":[2.005144E-1,-7.971037E-2,4.58275E-1,8.6103775E-2,-1.9456369E-1,9.743556E0,4.3495336E-1,-3.1157362E-4,2.1260135E-1,-9.858296E-1,-1.6894387E-1,-2.0151863E0,1.7278324E1,1.4313881E0,4.1611174E-1,1.227661E0,-4.7698636E-3,7.5225365E-1,1.9993356E-1,-1.8472264E0,-7.795205E-1,-2.0718646E-1,-8.1458636E-2,-2.5738792E0,-1.03890345E-1,3.5872196E1,1.1546505E1,7.027346E-1,1.8725632E0,2.0704868E-1,4.6988946E-1,1.8235582E-1,2.7391562E0,-2.8560622E-4,-4.943339E-1,8.1023777E-1,-4.958738E-3,1.7144677E-1,3.867875E-1,-9.858358E-2,-2.3503282E0,-4.2629707E-1,-1.0477924E0,-9.396752E-2,-2.476849E-1,9.272977E-1,-9.899161E-2,-3.0570767E0,-1.0739545E0,-1.3096838E0,1.9395195E1,2.636224E0,5.6717925E-2,3.6692784E0,1.2273266E0,1.8338208E-1,3.51248E-1,5.122052E-1,3.77137E-1,2.5282332E-1,5.558823E-2,7.311934E-2,-1.1651296E-2,9.4327927E-1,4.580504E-1,1.4284055E-1,3.3791143E-1,1.636624E0,3.4821987E-1,-3.2697036E0,-1.5952734E0,-1.0334049E-1,-5.725417E-1,-1.3653494E0,-7.689596E-2,-6.2429793E-2,-9.757619E-2,-3.2148632E-1,-1.707343E-1,3.005339E0,5.7242144E-2,-8.5754424E-2,-5.806903E-1,5.036123E-1,-2.806154E0,1.9646058E0,5.156191E0,9.89672E-1,-5.9670156E-1,4.5387235E0,8.6355424E-1,-1.149347E0,1.6321899E0,4.6126196E-1,1.7552467E-1,6.2292665E-1,2.0044097E-1,4.1550878E-1,8.336375E-1,7.429723E-1,3.3527267E-1,1.5640944E-1,5.716194E-2,-1.9773228E-2,8.489208E-2,1.0206248E0,2.1332188E-1,2.305192E-1,6.1400974E-1,4.0464425E-1,1.3364598E-1,3.7794128E-1,6.091571E-2,4.5595592E-1,8.252722E-2,-6.1708075E-1,-1.995955E0,-1.3971125E-1,-3.0531237E-2,-4.1907662E-1,-9.973817E-1,-1.111658E0,-1.7318157E0,9.1302925E-1,-4.3982232E-1,-1.18979074E-1,9.448944E-2,-9.080546E-2,-1.07374266E-1,-1.8274103E-1,-3.7519634E-1,-5.671107E-1,-1.2323969E-1,6.2361203E-2,7.393056E0,-1.4546179E0,6.135023E-1,-9.2406884E-2,1.1784682E0,-7.561116E-1,6.4889246E-1,2.3282259E0,8.237488E-3,2.5809176E0,4.3639812E-1,-3.0226746E-1,-1.0167677E0,4.7968507E0,1.7798359E0,2.619844E0,-2.5738037E-1,3.6012095E-1,-1.5286784E0,-1.0736971E-1,1.9774985E0,5.628276E-1,2.6752856E-1,1.6630071E-1,4.2625386E-1,2.4127963E-1,3.181217E0,3.047213E-1,-6.761149E-2,-5.7264364E-1,4.2148316E-1,1.477972E0,7.687132E-1,2.2543018E0,5.360169E-1,5.251323E-1,3.079909E-1],"categories":[],"categories_nodes":[],"categories_segments":[],"categories_sizes":[],"default_left":[true,true,true,true,true,true,true,true,true,true,true,true,true,true,true,true,true,true,true,true,true,true,true,true,false,false,true,true,true,true,true,true,false,true,false,true,false,true,true,false,true,true,true,true,true,true,true,false,false,true,false,true,true,true,true,true,true,true,true,false,false,true,true,true,true,true,true,false,true,false,true,true,true,true,true,true,true,true,true,true,true,true,true,false,false,true,false,true,true,true,true,true,true,true,true,true,true,true,true,true,true,false,false,false,false,false,false,false,false,false,false,false,false,false,false,false,false,false,false,false,false,false,false,false,false,false,false,false,false,false,false,false,false,false,false,false,false,false,false,false,false,false,false,false,false,false,false,false,false,false,false,false,false,false,false,false,false,false,false,false,false,false,false,false,false,false,false,false,false,false,false],"id":119,"left_children":[1,3,5,7,9,11,13,15,17,19,21,23,25,27,29,31,33,35,37,39,41,43,45,47,-1,-1,49,51,53,55,57,59,-1,61,-1,63,-1,65,67,-1,69,71,73,75,77,79,81,-1,-1,83,-1,85,87,89,91,93,95,97,99,-1,-1,101,103,105,107,109,111,-1,113,-1,115,117,119,121,123,125,127,129,131,133,135,137,139,-1,-1,141,-1,143,145,147,149,151,153,155,157,159,161,163,165,167,169,-1,-1,-1,-1,-1,-1,-1,-1,-1,-1,-1,-1,-1,-1,-1,-1,-1,-1,-1,-1,-1,-1,-1,-1,-1,-1,-1,-1,-1,-1,-1,-1,-1,-1,-1,-1,-1,-1,-1,-1,-1,-1,-1,-1,-1,-1,-1,-1,-1,-1,-1,-1,-1,-1,-1,-1,-1,-1,-1,-1,-1,-1,-1,-1,-1,-1,-1,-1,-1,-1],"loss_changes":[5.72905E2,7.2381836E1,8.9307367E2,1.7004917E1,4.544558E1,9.273683E2,7.715082E1,5.044919E0,4.2521877E0,1.198159E1,7.2681847E0,4.5000362E0,5.362008E2,2.4062881E1,4.543927E1,5.0585556E0,2.0155296E0,6.421566E-1,3.255907E0,1.1617863E1,5.2629395E0,6.926285E0,1.1733154E1,1.2621994E0,0E0,0E0,5.468986E2,3.6551178E1,5.3302383E1,2.7977562E0,1.2550598E1,1.1759087E-2,0E0,7.613995E-1,0E0,4.606743E-1,0E0,2.531025E0,3.702178E0,0E0,5.3644753E0,1.1671457E0,9.913307E0,4.113412E-2,6.303047E0,2.0389992E1,4.1270065E0,0E0,0E0,6.836087E0,0E0,8.931976E0,1.3817248E1,2.8702469E1,3.463131E1,1.5192375E0,4.712923E0,6.85047E1,1.5359955E1,0E0,0E0,1.5656483E-1,6.201303E-1,4.3675327E-1,9.452957E-2,1.0775747E0,8.546324E-1,0E0,2.2506666E0,0E0,2.0343666E0,1.8217303E-2,9.70521E-1,1.5797157E0,3.1211286E0,3.797515E-1,1.762724E-2,4.204403E0,1.0251982E1,4.2784874E1,7.293941E0,5.3556848E0,3.9038858E0,0E0,0E0,4.465748E0,0E0,7.7985086E0,1.5278049E0,3.7059326E0,6.8211155E0,3.2541327E0,1.8318344E1,3.1836224E-1,1.571392E0,4.0051735E1,2.1160185E0,1.0104614E1,2.0937866E1,3.1877678E1,4.6287155E0,0E0,0E0,0E0,0E0,0E0,0E0,0E0,0E0,0E0,0E0,0E0,0E0,0E0,0E0,0E0,0E0,0E0,0E0,0E0,0E0,0E0,0E0,0E0,0E0,0E0,0E0,0E0,0E0,0E0,0E0,0E0,0E0,0E0,0E0,0E0,0E0,0E0,0E0,0E0,0E0,0E0,0E0,0E0,0E0,0E0,0E0,0E0,0E0,0E0,0E0,0E0,0E0,0E0,0E0,0E0,0E0,0E0,0E0,0E0,0E0,0E0,0E0,0E0,0E0,0E0,0E0,0E0,0E0,0E0,0E0],"parents":[2147483647,0,0,1,1,2,2,3,3,4,4,5,5,6,6,7,7,8,8,9,9,10,10,11,11,12,12,13,13,14,14,15,15,16,16,17,17,18,18,19,19,20,20,21,21,22,22,23,23,26,26,27,27,28,28,29,29,30,30,31,31,33,33,35,35,37,37,38,38,40,40,41,41,42,42,43,43,44,44,45,45,46,46,49,49,51,51,52,52,53,53,54,54,55,55,56,56,57,57,58,58,61,61,62,62,63,63,64,64,65,65,66,66,68,68,70,70,71,71,72,72,73,73,74,74,75,75,76,76,77,77,78,78,79,79,80,80,81,81,82,82,85,85,87,87,88,88,89,89,90,90,91,91,92,92,93,93,94,94,95,95,96,96,97,97,98,98,99,99,100,100],"right_children":[2,4,6,8,10,12,14,16,18,20,22,24,26,28,30,32,34,36,38,40,42,44,46,48,-1,-1,50,52,54,56,58,60,-1,62,-1,64,-1,66,68,-1,70,72,74,76,78,80,82,-1,-1,84,-1,86,88,90,92,94,96,98,100,-1,-1,102,104,106,108,110,112,-1,114,-1,116,118,120,122,124,126,128,130,132,134,136,138,140,-1,-1,142,-1,144,146,148,150,152,154,156,158,160,162,164,166,168,170,-1,-1,-1,-1,-1,-1,-1,-1,-1,-1,-1,-1,-1,-1,-1,-1,-1,-1,-1,-1,-1,-1,-1,-1,-1,-1,-1,-1,-1,-1,-1,-1,-1,-1,-1,-1,-1,-1,-1,-1,-1,-1,-1,-1,-1,-1,-1,-1,-1,-1,-1,-1,-1,-1,-1,-1,-1,-1,-1,-1,-1,-1,-1,-1,-1,-1,-1,-1,-1,-1],"split_conditions":[6.621175E-1,6.572582E-1,2.7272727E-2,3.989272E-1,7.4137926E-2,8.2218254E-1,7.4137926E-2,2.7272727E-2,1.15517244E-1,2.7272727E-2,2.777778E-1,4.4444448E-1,8.3943033E-1,8.2218254E-1,5.3197986E-1,2.4097994E-1,3.9342475E-1,8.6855036E-1,6.430696E-1,5.5555556E-2,1.6666667E-1,5.5555556E-2,4.1296717E-4,8.0460525E-1,-2.0778067E-3,7.174439E-1,8.7090075E-1,7.6935333E-1,8.349742E-1,9.212121E-1,8.349742E-1,6.167303E-2,5.4783124E-2,6.0824133E-2,-9.886677E-3,6.374643E-1,-9.917476E-5,9.212121E-1,3.3636364E-1,-1.9716716E-3,1.6666667E-1,5.5555556E-2,3.888889E-1,5.0082594E-1,1.6666667E-1,5.818182E-1,8.362069E-1,-6.1141532E-2,-2.1479089E-2,2.777778E-1,3.879039E-1,7.635859E-1,1.6666667E-1,3.888889E-1,8.571358E-1,6.6854E-1,1.4619164E-1,8.2218254E-1,5.0082594E-1,5.0564664E-3,1.1117646E-3,1.3390663E-1,3.8253418E-1,5.34398E-1,5.3562653E-1,4.044514E-1,3.888889E-1,3.273248E-2,6.4979887E-1,-6.539407E-2,2.777778E-1,5E-1,5E-1,2.777778E-1,6.545454E-1,6.965602E-1,7.5757575E-1,5.818182E-1,4.2424244E-1,5.181818E-1,7.2727275E-1,8.086207E-1,9.533169E-1,1.0072245E-2,-5.6123078E-2,7.554066E-1,1.03123814E-1,5.318799E-1,7.958708E-1,6.724138E-2,6.545454E-1,2.2222222E-1,1.6666667E-1,3.4655172E-1,9.998778E-1,3.327586E-1,8.9569235E-1,5.5555556E-2,4.2424244E-1,2.086207E-1,4.2424244E-1,3.1281887E-3,1.1432387E-3,-3.9546457E-4,1.6978416E-3,2.0412495E-2,4.2664376E-3,4.610384E-3,1.2280194E-2,8.092885E-3,2.6729195E-3,7.5588254E-3,1.2183142E-3,9.119119E-3,1.6505443E-3,-1.2341615E-2,-3.99191E-2,-2.7942248E-3,-6.1062473E-4,-8.3815325E-3,-1.9947633E-2,-2.2233158E-2,-3.4636315E-2,1.8260585E-2,-8.796446E-3,-2.3795813E-3,1.8897888E-3,-1.8161092E-3,-2.1474853E-3,-3.6548206E-3,-7.5039268E-3,-1.1342214E-2,-2.4647936E-3,1.247224E-3,1.4786111E-1,-2.9092357E-2,1.2270046E-2,-1.8481376E-3,2.3569364E-2,-1.5122232E-2,1.2977849E-2,4.6564516E-2,1.6474976E-4,5.1618353E-2,8.727962E-3,-6.045349E-3,-2.0335354E-2,9.593701E-2,3.5596717E-2,5.239688E-2,-5.147607E-3,7.202419E-3,-3.0573567E-2,-2.1473942E-3,3.954997E-2,1.1256551E-2,5.350571E-3,3.3260141E-3,8.525077E-3,4.8255925E-3,6.362434E-2,6.094426E-3,-1.3522299E-3,-1.1452872E-2,8.429663E-3,2.9559439E-2,1.5374263E-2,4.5086034E-2,1.0720338E-2,1.0502646E-2,6.1598183E-3],"split_indices":[1,1,2,1,3,1,3,2,3,2,4,4,1,1,9,1,1,11,1,4,4,4,8,1,0,0,1,1,1,2,1,1,0,1,0,1,0,2,2,0,4,4,4,8,4,2,3,0,0,4,0,1,4,4,1,1,11,1,8,0,0,11,1,11,11,1,4,0,1,0,4,0,0,4,2,11,2,2,2,2,2,3,11,0,0,1,0,9,1,3,2,4,4,3,1,3,1,4,2,3,2,0,0,0,0,0,0,0,0,0,0,0,0,0,0,0,0,0,0,0,0,0,0,0,0,0,0,0,0,0,0,0,0,0,0,0,0,0,0,0,0,0,0,0,0,0,0,0,0,0,0,0,0,0,0,0,0,0,0,0,0,0,0,0,0,0,0,0,0,0,0],"split_type":[0,0,0,0,0,0,0,0,0,0,0,0,0,0,0,0,0,0,0,0,0,0,0,0,0,0,0,0,0,0,0,0,0,0,0,0,0,0,0,0,0,0,0,0,0,0,0,0,0,0,0,0,0,0,0,0,0,0,0,0,0,0,0,0,0,0,0,0,0,0,0,0,0,0,0,0,0,0,0,0,0,0,0,0,0,0,0,0,0,0,0,0,0,0,0,0,0,0,0,0,0,0,0,0,0,0,0,0,0,0,0,0,0,0,0,0,0,0,0,0,0,0,0,0,0,0,0,0,0,0,0,0,0,0,0,0,0,0,0,0,0,0,0,0,0,0,0,0,0,0,0,0,0,0,0,0,0,0,0,0,0,0,0,0,0,0,0,0,0,0,0],"sum_hessian":[7.931E3,3.8E3,4.131E3,1.555E3,2.245E3,1E1,4.121E3,9.24E2,6.31E2,7E1,2.175E3,4E0,6E0,7.6E1,4.045E3,3E0,9.21E2,1.4E1,6.17E2,1.3E1,5.7E1,1.513E3,6.62E2,3E0,1E0,1E0,5E0,2.9E1,4.7E1,8.28E2,3.217E3,2E0,1E0,9.13E2,8E0,1.3E1,1E0,5.36E2,8.1E1,3E0,1E1,2.5E1,3.2E1,3.99E2,1.114E3,1.1E1,6.51E2,2E0,1E0,2E0,3E0,7E0,2.2E1,1.2E1,3.5E1,7.12E2,1.16E2,2.208E3,1.009E3,1E0,1E0,1.22E2,7.91E2,9E0,4E0,4.58E2,7.8E1,2E0,7.9E1,4E0,6E0,8E0,1.7E1,2.4E1,8E0,4.2E1,3.57E2,5.68E2,5.46E2,3E0,8E0,6.34E2,1.7E1,1E0,1E0,6E0,1E0,9E0,1.3E1,9E0,3E0,5E0,3E1,1.9E1,6.93E2,4.1E1,7.5E1,1.698E3,5.1E2,1.03E2,9.06E2,1.9E1,1.03E2,7.3E2,6.1E1,8E0,1E0,2E0,2E0,1.5E1,4.43E2,6.8E1,1E1,5.6E1,2.3E1,2E0,4E0,5E0,3E0,1.3E1,4E0,1.5E1,9E0,2E0,6E0,3.1E1,1.1E1,2.14E2,1.43E2,1.59E2,4.09E2,5.8E1,4.88E2,2E0,1E0,2E0,6E0,6.31E2,3E0,1.5E1,2E0,5E0,1E0,2E0,7E0,8E0,5E0,8E0,1E0,1E0,2E0,1E0,4E0,5E0,2.5E1,1.2E1,7E0,6.69E2,2.4E1,3.6E1,5E0,5.4E1,2.1E1,1E1,1.688E3,4.6E1,4.64E2,1.2E1,9.1E1,1.13E2,7.93E2],"tree_param":{"num_deleted":"0","num_feature":"12","num_nodes":"171","size_leaf_vector":"0"}},{"base_weights":[1.9778582E-1,-8.089874E-2,4.4770712E-1,-2.2120702E0,-7.151346E-2,3.6337833E0,4.0391585E-1,1.7971238E-1,-2.5509803E0,7.788543E-2,-1.7715967E-1,6.364672E0,2.6801846E0,4.5632806E-1,1.996536E-1,2.4903144E-1,5.4754328E-2,-2.3477867E-3,1.999031E-1,-8.580916E-1,-1.6099891E-1,1.4181681E1,1.6688315E0,1.8271481E0,5.261467E0,1.0825949E0,4.4007295E-1,3.4344825E-1,1.761516E-1,2.5888504E-3,-4.900438E-1,4.9953172E-1,1.8025118E-1,-8.9816266E-1,-3.6032793E-1,-1.579074E-1,-7.872758E-1,3.2461045E0,2.7770868E1,-1.4316635E0,4.0863304E0,5.252288E0,9.79687E-1,5.8971205E0,-4.927916E-1,3.0468017E-1,1.7149527E0,4.9067295E-1,3.3360514E-1,9.8282415E-1,3.2368034E-1,1.5792394E-1,3.0601382E-1,-7.7928426E-3,1.4809433E-1,4.5708776E-1,1.5203953E0,6.2773716E-1,1.6865094E-1,-8.3985186E-1,-1.8715374E0,8.921631E-2,-1.4047055E0,-1.8499845E-1,-9.939543E-2,-6.258528E-1,-1.2451411E0,1.13262825E1,-1.8291268E0,4.4004625E-1,-2.0414531E0,3.7100008E0,7.3597503E0,1.7434785E0,-7.3813057E-1,1.2659115E0,-1.12333804E-1,1.3249072E0,4.554705E0,3.8649878E-1,8.4526795E-1,5.4479295E-1,3.093244E-1,-4.8945412E-1,3.3973745E-1,1.3568617E-1,2.4758291E-1,5.707832E-1,9.25561E-2,4.0912505E-2,-2.7072318E-2,4.349575E-1,-5.288734E-2,5.561274E-1,2.7126753E-1,1.8702668E-1,1.1723124E0,1.4057122E-1,3.4029156E-1,-8.969137E-1,1.2138014E0,-1.698615E-1,-5.7874244E-1,8.678852E-1,-1.2199902E-1,-8.6682856E-1,1.11526296E-1,6.2355504E0,2.3243005E0,1.8643175E-1,6.756139E0,-3.5560566E-1,-1.0605628E0,1.5810875E0,6.31837E-1,-5.0157773E-1,5.051645E-1,2.6280463E0,9.221782E-1,1.5470629E1,8.4193075E-1,2.5457165E-1,4.299977E-1,1.9396906E0,7.410351E-1,1.7554209E0,3.9726785E-1,-8.8208926E-1,3.1747106E-1,2.2233997E-1,-1.0895436E0,4.2753795E-1,2.6679334E-1,1.69929E-1,-1.837694E-1,1.187631E-1,3.0301738E-1,1.3301902E-1,1.3001807E1,-5.500084E-1,1.3842724E-1],"categories":[],"categories_nodes":[],"categories_segments":[],"categories_sizes":[],"default_left":[true,true,true,true,true,true,true,true,false,true,true,true,true,true,true,false,false,true,true,true,true,true,true,true,true,true,true,true,true,true,false,true,true,true,true,true,true,true,false,true,false,true,true,false,false,true,true,true,true,false,true,true,true,true,true,true,false,true,true,true,false,false,false,true,true,true,false,false,false,false,false,true,false,true,true,true,true,true,true,true,true,true,true,true,true,true,true,true,true,false,false,false,false,false,false,false,false,false,false,false,false,false,false,false,false,false,false,false,false,false,false,false,false,false,false,false,false,false,false,false,false,false,false,false,false,false,false,false,false,false,false,false,false,false,false,false,false,false,false,false,false],"id":120,"left_children":[1,3,5,7,9,11,13,15,-1,17,19,21,23,25,27,-1,-1,29,31,33,35,37,39,41,43,45,47,49,51,53,-1,55,57,59,61,63,65,67,-1,69,-1,71,73,-1,-1,75,77,79,81,-1,83,85,87,89,91,93,-1,95,97,99,-1,-1,-1,101,103,105,-1,-1,-1,-1,-1,107,-1,109,111,113,115,117,119,121,123,125,127,129,131,133,135,137,139,-1,-1,-1,-1,-1,-1,-1,-1,-1,-1,-1,-1,-1,-1,-1,-1,-1,-1,-1,-1,-1,-1,-1,-1,-1,-1,-1,-1,-1,-1,-1,-1,-1,-1,-1,-1,-1,-1,-1,-1,-1,-1,-1,-1,-1,-1,-1,-1,-1,-1,-1,-1],"loss_changes":[5.4936383E2,7.450746E1,5.79633E2,1.3426598E1,5.8615143E1,1.4088452E2,4.387915E1,1.1332177E-2,0E0,1.506306E1,2.3877586E1,5.1802655E2,8.9908325E1,3.3050476E1,2.8055305E0,0E0,0E0,2.2424114E0,3.5540905E0,8.7807465E-1,4.060005E0,7.6207983E2,7.194728E1,9.204866E1,3.884308E1,4.029847E1,1.7077698E1,1.3582735E0,1.6847248E0,1.391125E0,0E0,1.357686E0,2.9294777E0,2.0669746E0,2.0950942E0,3.3429375E0,4.771924E-1,1.4374567E2,0E0,5.2684155E0,0E0,1.1322525E1,3.4994442E1,0E0,0E0,1.5028881E1,4.8116623E1,7.952765E1,5.1944504E0,0E0,1.5461216E0,1.2460804E0,4.96527E0,8.0615866E-1,3.5492556E0,6.065564E-1,0E0,3.347529E0,2.6729631E0,5.553747E0,0E0,0E0,0E0,8.570847E0,1.4680848E1,1.5237904E0,0E0,0E0,0E0,0E0,0E0,1.0210453E1,0E0,1.425727E2,8.8187027E-1,1.900238E0,6.41389E0,2.0308662E1,2.1158063E2,9.522064E0,5.530304E1,1.854909E1,9.027817E0,1.0898724E0,6.7150307E-1,5.5709047E0,8.769965E-1,2.1328304E2,1.4736313E0,0E0,0E0,0E0,0E0,0E0,0E0,0E0,0E0,0E0,0E0,0E0,0E0,0E0,0E0,0E0,0E0,0E0,0E0,0E0,0E0,0E0,0E0,0E0,0E0,0E0,0E0,0E0,0E0,0E0,0E0,0E0,0E0,0E0,0E0,0E0,0E0,0E0,0E0,0E0,0E0,0E0,0E0,0E0,0E0,0E0,0E0,0E0,0E0,0E0,0E0,0E0,0E0],"parents":[2147483647,0,0,1,1,2,2,3,3,4,4,5,5,6,6,7,7,9,9,10,10,11,11,12,12,13,13,14,14,17,17,18,18,19,19,20,20,21,21,22,22,23,23,24,24,25,25,26,26,27,27,28,28,29,29,31,31,32,32,33,33,34,34,35,35,36,36,37,37,39,39,41,41,42,42,45,45,46,46,47,47,48,48,50,50,51,51,52,52,53,53,54,54,55,55,57,57,58,58,59,59,63,63,64,64,65,65,71,71,73,73,74,74,75,75,76,76,77,77,78,78,79,79,80,80,81,81,82,82,83,83,84,84,85,85,86,86,87,87,88,88],"right_children":[2,4,6,8,10,12,14,16,-1,18,20,22,24,26,28,-1,-1,30,32,34,36,38,40,42,44,46,48,50,52,54,-1,56,58,60,62,64,66,68,-1,70,-1,72,74,-1,-1,76,78,80,82,-1,84,86,88,90,92,94,-1,96,98,100,-1,-1,-1,102,104,106,-1,-1,-1,-1,-1,108,-1,110,112,114,116,118,120,122,124,126,128,130,132,134,136,138,140,-1,-1,-1,-1,-1,-1,-1,-1,-1,-1,-1,-1,-1,-1,-1,-1,-1,-1,-1,-1,-1,-1,-1,-1,-1,-1,-1,-1,-1,-1,-1,-1,-1,-1,-1,-1,-1,-1,-1,-1,-1,-1,-1,-1,-1,-1,-1,-1,-1,-1,-1,-1],"split_conditions":[6.621175E-1,2.7272727E-2,1.8181819E-1,3.7807107E-1,6.572582E-1,2.7272727E-2,7.090609E-2,6.167303E-2,-5.1019605E-2,3.989272E-1,6.724138E-2,8.349742E-1,8.571358E-1,4.6813108E-2,2.2965431E-1,4.980629E-3,1.0950866E-3,3.9342475E-1,1.0010803E-1,1.389089E-1,9.9360824E-1,8.2218254E-1,8.7090075E-1,7.703592E-1,9.28372E-1,8.2218254E-1,8.349742E-1,2.4936981E-2,9.212121E-1,3.8399246E-1,-9.800876E-3,6.12069E-1,3.3636364E-1,1.3665827E-1,1.39269E-1,6.982355E-1,9.5862067E-1,7.7843237E-1,5.5541736E-1,8.4844077E-1,8.17266E-2,7.563675E-1,8.349742E-1,1.1794241E-1,-9.855832E-3,7.7943826E-1,4.0511344E-2,8.2218254E-1,1.3440764E-1,1.9656483E-2,7.4137926E-2,9.5665354E-1,6.4566076E-1,1.0025515E-1,3.8608843E-1,7.008511E-1,3.0407906E-2,5.15408E-1,9.212121E-1,1.3539791E-1,-3.743075E-2,1.784326E-3,-2.809411E-2,6.74829E-1,7.0570755E-1,9.975693E-1,-2.4902822E-2,2.2652565E-1,-3.6582537E-2,8.800925E-3,-4.0829062E-2,7.290039E-1,1.47195E-1,8.2218254E-1,8.4844077E-1,3.7000358E-2,1.2389015E-3,8.349742E-1,4.2401873E-2,7.554066E-1,1.6034484E-1,1.3234043E-1,1.3854879E-1,8.8532466E-1,2.6206896E-1,9.02244E-1,3.5106385E-1,6.270256E-1,6.57094E-1,8.1825006E-4,-5.414463E-4,8.69915E-3,-1.0577467E-3,1.1122548E-2,5.4253507E-3,3.7405335E-3,2.3446247E-2,2.8114244E-3,6.805831E-3,-1.7938273E-2,2.4276027E-2,-3.3972298E-3,-1.1574849E-2,1.7357703E-2,-2.4399804E-3,-1.7336572E-2,2.230526E-3,1.2471101E-1,4.648601E-2,3.728635E-3,1.3512278E-1,-7.1121133E-3,-2.1211257E-2,3.162175E-2,1.263674E-2,-1.0031555E-2,1.010329E-2,5.2560925E-2,1.8443564E-2,3.0941257E-1,1.6838614E-2,5.091433E-3,8.599954E-3,3.879381E-2,1.4820701E-2,3.5108417E-2,7.945357E-3,-1.7641785E-2,6.349421E-3,4.4467994E-3,-2.1790871E-2,8.5507585E-3,5.3358665E-3,3.3985798E-3,-3.675388E-3,2.3752619E-3,6.0603474E-3,2.6603802E-3,2.6003614E-1,-1.10001685E-2,2.7685447E-3],"split_indices":[1,2,2,1,1,2,7,1,0,1,3,1,1,5,5,0,0,1,5,5,5,1,1,1,1,1,1,5,2,1,0,3,2,5,5,5,3,1,0,1,0,1,1,0,0,1,5,1,5,0,3,1,5,1,1,10,0,1,2,5,0,0,0,5,5,5,0,0,0,0,0,1,0,1,1,5,8,1,5,1,3,10,5,1,3,1,10,5,5,0,0,0,0,0,0,0,0,0,0,0,0,0,0,0,0,0,0,0,0,0,0,0,0,0,0,0,0,0,0,0,0,0,0,0,0,0,0,0,0,0,0,0,0,0,0,0,0,0,0,0,0],"split_type":[0,0,0,0,0,0,0,0,0,0,0,0,0,0,0,0,0,0,0,0,0,0,0,0,0,0,0,0,0,0,0,0,0,0,0,0,0,0,0,0,0,0,0,0,0,0,0,0,0,0,0,0,0,0,0,0,0,0,0,0,0,0,0,0,0,0,0,0,0,0,0,0,0,0,0,0,0,0,0,0,0,0,0,0,0,0,0,0,0,0,0,0,0,0,0,0,0,0,0,0,0,0,0,0,0,0,0,0,0,0,0,0,0,0,0,0,0,0,0,0,0,0,0,0,0,0,0,0,0,0,0,0,0,0,0,0,0,0,0,0,0],"sum_hessian":[7.887E3,3.729E3,4.158E3,1.6E1,3.713E3,5.6E1,4.102E3,2E0,1.4E1,1.538E3,2.175E3,1.4E1,4.2E1,3.264E3,8.38E2,1E0,1E0,9.28E2,6.1E2,5E1,2.125E3,5E0,9E0,3.2E1,1E1,8.2E1,3.182E3,1.17E2,7.21E2,9.19E2,9E0,3.7E1,5.73E2,4.6E1,4E0,2.115E3,1E1,3E0,2E0,4E0,5E0,6E0,2.6E1,9E0,1E0,3.7E1,4.5E1,2.156E3,1.026E3,3E0,1.14E2,6.33E2,8.8E1,8.58E2,6.1E1,3.6E1,1E0,1.4E1,5.59E2,4.4E1,2E0,3E0,1E0,1.445E3,6.7E2,8E0,2E0,1E0,2E0,1E0,3E0,4E0,2E0,1.8E1,8E0,1.1E1,2.6E1,4E1,5E0,1.667E3,4.89E2,1.05E2,9.21E2,2E0,1.12E2,5.08E2,1.25E2,3.9E1,4.9E1,2.43E2,6.15E2,2.5E1,3.6E1,2.3E1,1.3E1,8E0,6E0,4.81E2,7.8E1,4.3E1,1E0,1.392E3,5.3E1,1.5E1,6.55E2,6E0,2E0,1E0,3E0,1.4E1,4E0,4E0,4E0,7E0,4E0,1.6E1,1E1,9E0,3.1E1,1E0,4E0,4.14E2,1.253E3,4.2E1,4.47E2,1.1E1,9.4E1,6E0,9.15E2,1E0,1E0,5E1,6.2E1,4.59E2,4.9E1,3.8E1,8.7E1,3.8E1,1E0,3E0,4.6E1],"tree_param":{"num_deleted":"0","num_feature":"12","num_nodes":"141","size_leaf_vector":"0"}},{"base_weights":[1.7775269E-1,2.0005722E0,1.7120194E-1,1.794352E0,5.71667E0,-1.2354597E-2,1.9129781E-1,1.771086E-1,1.9191341E0,-8.580035E-2,1.627657E-1,3.8666315E-2,2.173583E-1,2.452964E-1,5.3932942E-2,2.5050516E0,1.4102051E0,-6.8590143E-3,-1.125013E-1,1.6993929E0,1.3993208E-1,-2.8086572E-3,9.683677E-2,5.7298607E-1,2.0690522E-1,1.5374168E0,2.655941E0,1.3489991E-1,2.0870461E0,1.896774E-2,-2.4461636E-2,-1.0293614E-1,-1.478355E-1,5.760701E-1,3.2294433E0,9.326531E-2,2.3348923E-1,4.493281E-2,-1.15148965E-2,7.0298535E-1,8.482292E-2,2.6351217E-2,7.531566E-1,2.792891E-1,1.9307622E-1,2.736334E0,-3.527724E-2,2.038801E0,-4.5804715E-1,2.351184E0,-7.489831E-2,-0E0,4.578243E-2,-7.897516E-3,-4.441831E-2,-1.24312446E-1,-8.4223926E-2,-2.5677368E-1,-1.3060263E-1,-1.3511207E-2,1.2181612E-1,9.970767E-1,2.1855184E-1,-1.9722464E-2,7.440182E-2,-2.6683465E-2,9.119431E-3,8.001843E-1,-0E0,-7.21406E-1,8.7329365E-2,-7.326395E-1,7.516027E-1,9.513218E-1,4.2107204E-1,6.198099E-1,2.663567E-1,1.6075832E-1,2.2797821E-1,6.770732E-2,-9.993775E-3,-4.7577736E-3,6.419143E-2,-3.3058938E-2,2.896873E-3,-1.7900204E-2,-5.0960716E-2,-1.8066539E-1,-1.0844369E-1,4.148873E-2,-8.8871695E-2,-1.9209287E-1,-6.8309456E-1,-1.0329245E-1,-1.585765E-1,5.546417E-2,-2.7327113E-2,8.05728E-2,1.9159093E-1,7.617766E-1,1.998227E-1,-6.267033E-2,6.40795E-3,1.9779493E-1,6.265148E-2,-4.162622E-2,-1.6210742E-2,3.3945516E-2,-2.2620084E-2,1.1199105E0,6.07594E-1,4.3230766E-1,8.5315794E-2,2.5725892E0,-1.1196681E0,2.2920132E0,3.7304768E-1,8.630812E-1,2.9254458E0,-4.2656538E-1,5.649292E-1,2.034467E-1,1.0736283E0,-5.719547E-1,2.730649E-1,6.179168E-1,1.5673465E-1,1.0593574E0,2.2432035E-1],"categories":[],"categories_nodes":[],"categories_segments":[],"categories_sizes":[],"default_left":[true,true,true,true,false,true,true,true,true,true,true,true,true,false,false,true,true,true,true,true,true,true,true,true,true,true,false,true,true,true,true,true,true,false,false,true,true,true,true,true,true,true,true,true,true,false,false,false,false,false,false,true,true,true,true,true,true,true,true,true,true,false,true,true,true,true,true,true,false,false,true,true,true,true,true,true,true,true,true,false,false,false,false,false,false,false,false,false,false,false,false,false,false,false,false,false,false,false,false,false,false,false,false,false,false,false,false,false,false,false,false,false,false,false,false,false,false,false,false,false,false,false,false,false,false,false,false,false,false],"id":121,"left_children":[1,3,5,7,-1,9,11,13,15,17,19,21,23,-1,-1,25,27,29,31,33,35,37,39,41,43,45,-1,47,49,51,53,55,57,-1,-1,59,61,63,65,67,69,71,73,75,77,-1,-1,-1,-1,-1,-1,79,81,83,85,87,89,91,93,95,97,-1,99,101,103,105,107,109,-1,-1,111,113,115,117,119,121,123,125,127,-1,-1,-1,-1,-1,-1,-1,-1,-1,-1,-1,-1,-1,-1,-1,-1,-1,-1,-1,-1,-1,-1,-1,-1,-1,-1,-1,-1,-1,-1,-1,-1,-1,-1,-1,-1,-1,-1,-1,-1,-1,-1,-1,-1,-1,-1,-1,-1,-1,-1],"loss_changes":[9.446597E1,1.8185097E1,2.912709E1,5.372734E0,0E0,1.0027223E1,2.8299835E1,1.0919102E-2,6.3203125E0,1.15593E0,7.9761176E0,2.506534E0,2.2544983E1,0E0,0E0,2.3327637E-1,1.2246769E1,6.3576676E-2,1.3003159E-1,5.0547047E0,9.80618E-1,2.5171754E-1,3.117207E0,1.7053436E1,5.88649E0,4.4705486E0,0E0,6.3549895E0,5.4210815E0,2.8640293E-2,2.6683893E-2,1.232667E-1,1.4536655E-1,0E0,0E0,4.6649075E-1,7.692461E-1,1.7910005E-1,1.6100155E-1,5.772791E-1,8.694434E-1,2.40372E1,8.423782E0,4.099724E0,5.5761566E0,0E0,0E0,0E0,0E0,0E0,0E0,2.279555E-2,2.265894E-2,1.3046442E-2,5.1906407E-3,1.2377834E-1,1.03765726E-1,2.5627697E-1,4.8355103E-2,3.0916508E-2,3.3725917E-1,0E0,6.9180155E-1,3.3855803E-2,8.5430354E-2,4.5323595E-2,1.7166941E-1,2.0001507E-1,0E0,0E0,2.7438045E-1,2.8229988E1,1.2700176E1,1.3272095E1,6.097994E0,6.396367E0,5.178398E0,4.695709E0,7.1503296E0,0E0,0E0,0E0,0E0,0E0,0E0,0E0,0E0,0E0,0E0,0E0,0E0,0E0,0E0,0E0,0E0,0E0,0E0,0E0,0E0,0E0,0E0,0E0,0E0,0E0,0E0,0E0,0E0,0E0,0E0,0E0,0E0,0E0,0E0,0E0,0E0,0E0,0E0,0E0,0E0,0E0,0E0,0E0,0E0,0E0,0E0,0E0,0E0,0E0,0E0],"parents":[2147483647,0,0,1,1,2,2,3,3,5,5,6,6,7,7,8,8,9,9,10,10,11,11,12,12,15,15,16,16,17,17,18,18,19,19,20,20,21,21,22,22,23,23,24,24,25,25,27,27,28,28,29,29,30,30,31,31,32,32,35,35,36,36,37,37,38,38,39,39,40,40,41,41,42,42,43,43,44,44,51,51,52,52,53,53,54,54,55,55,56,56,57,57,58,58,59,59,60,60,62,62,63,63,64,64,65,65,66,66,67,67,70,70,71,71,72,72,73,73,74,74,75,75,76,76,77,77,78,78],"right_children":[2,4,6,8,-1,10,12,14,16,18,20,22,24,-1,-1,26,28,30,32,34,36,38,40,42,44,46,-1,48,50,52,54,56,58,-1,-1,60,62,64,66,68,70,72,74,76,78,-1,-1,-1,-1,-1,-1,80,82,84,86,88,90,92,94,96,98,-1,100,102,104,106,108,110,-1,-1,112,114,116,118,120,122,124,126,128,-1,-1,-1,-1,-1,-1,-1,-1,-1,-1,-1,-1,-1,-1,-1,-1,-1,-1,-1,-1,-1,-1,-1,-1,-1,-1,-1,-1,-1,-1,-1,-1,-1,-1,-1,-1,-1,-1,-1,-1,-1,-1,-1,-1,-1,-1,-1,-1,-1,-1],"split_conditions":[2.2506302E-3,5.8854413E-1,5.5555556E-2,3.9510223E-1,1.143334E-1,7.090609E-2,7.920965E-1,5.5555556E-2,1.6666667E-1,5.719247E-1,3.448276E-2,3.9510223E-1,9.6551724E-2,4.905928E-3,1.0786589E-3,5.5555556E-2,2.777778E-1,4.1420597E-1,9.9787235E-1,8.110852E-1,9.5682657E-1,1.7410874E-1,3.9791144E-2,1.6666667E-1,1.4619164E-1,8.231776E-1,5.3118818E-2,9.8790765E-1,4.4444448E-1,3.5106385E-1,6.4742017E-1,6.0565114E-1,2.267735E-1,1.1521401E-2,6.458887E-2,3.8609636E-1,1.48936175E-2,1.6878912E-2,1.3484347E-1,4.3965518E-1,4.1951746E-2,3.5106385E-1,1.3404754E-1,3.871084E-2,2.777778E-1,5.472668E-2,-7.055448E-4,4.0776018E-2,-9.160942E-3,4.7023676E-2,-1.4979661E-3,1.2068965E-1,2.3103449E-1,3.224138E-1,6.827512E-1,2.086207E-1,1.48936175E-2,2.1398991E-1,3.2068965E-1,2.660245E-1,6.4422035E-1,1.9941533E-2,7.125307E-2,2.561702E-1,3.267915E-2,3.9234042E-1,4.2413792E-1,2.838298E-1,-0E0,-1.4428119E-2,7.241379E-2,9.8790765E-1,6.409795E-2,1.3161685E-1,1.3665827E-1,2.9168166E-2,4.4652503E-2,1.48936175E-2,2.4576882E-2,1.3541464E-3,-1.9987549E-4,-9.515547E-5,1.2838286E-3,-6.611787E-4,5.793746E-5,-3.5800406E-4,-1.0192143E-3,-3.6133076E-3,-2.1688738E-3,8.297746E-4,-1.7774339E-3,-3.8418572E-3,-1.3661891E-2,-2.065849E-3,-3.17153E-3,1.1092834E-3,-5.4654223E-4,1.6114559E-3,3.8318187E-3,1.5235532E-2,3.9964537E-3,-1.2534065E-3,1.28159E-4,3.9558983E-3,1.2530296E-3,-8.325244E-4,-3.2421484E-4,6.789103E-4,-4.5240167E-4,2.239821E-2,1.215188E-2,8.646153E-3,1.7063158E-3,5.1451784E-2,-2.2393363E-2,4.5840263E-2,7.460953E-3,1.7261624E-2,5.8508914E-2,-8.531308E-3,1.1298584E-2,4.068934E-3,2.1472566E-2,-1.1439094E-2,5.461298E-3,1.2358336E-2,3.1346928E-3,2.1187147E-2,4.486407E-3],"split_indices":[5,7,4,6,0,7,6,4,4,6,3,6,3,0,0,4,4,5,10,6,6,5,5,4,11,6,0,6,4,10,11,11,5,0,0,6,10,6,6,3,5,10,5,5,4,0,0,0,0,0,0,3,3,3,5,3,10,5,3,5,5,0,11,10,5,10,3,10,0,0,3,6,5,5,5,5,5,10,5,0,0,0,0,0,0,0,0,0,0,0,0,0,0,0,0,0,0,0,0,0,0,0,0,0,0,0,0,0,0,0,0,0,0,0,0,0,0,0,0,0,0,0,0,0,0,0,0,0,0],"split_type":[0,0,0,0,0,0,0,0,0,0,0,0,0,0,0,0,0,0,0,0,0,0,0,0,0,0,0,0,0,0,0,0,0,0,0,0,0,0,0,0,0,0,0,0,0,0,0,0,0,0,0,0,0,0,0,0,0,0,0,0,0,0,0,0,0,0,0,0,0,0,0,0,0,0,0,0,0,0,0,0,0,0,0,0,0,0,0,0,0,0,0,0,0,0,0,0,0,0,0,0,0,0,0,0,0,0,0,0,0,0,0,0,0,0,0,0,0,0,0,0,0,0,0,0,0,0,0,0,0],"sum_hessian":[7.923E3,2.8E1,7.895E3,2.7E1,1E0,7.79E2,7.116E3,2E0,2.5E1,5.49E2,2.3E2,1.038E3,6.078E3,1E0,1E0,1.1E1,1.4E1,1.39E2,4.1E2,3E0,2.27E2,6.06E2,4.32E2,1.73E2,5.905E3,2E0,9E0,5E0,9E0,5.6E1,8.3E1,3.24E2,8.6E1,2E0,1E0,1.52E2,7.5E1,9.3E1,5.13E2,8E0,4.24E2,4.3E1,1.3E2,9.46E2,4.959E3,1E0,1E0,1E0,4E0,8E0,1E0,3.3E1,2.3E1,4.6E1,3.7E1,1.5E2,1.74E2,1.1E1,7.5E1,3.2E1,1.2E2,1E0,7.4E1,2.9E1,6.4E1,2.96E2,2.17E2,7E0,1E0,1E0,4.23E2,2.1E1,2.2E1,8.1E1,4.9E1,3.4E1,9.12E2,2.576E3,2.383E3,4E0,2.9E1,6E0,1.7E1,1.4E1,3.2E1,8E0,2.9E1,3.2E1,1.18E2,6E0,1.68E2,1E1,1E0,3.9E1,3.6E1,5E0,2.7E1,7.6E1,4.4E1,2E0,7.2E1,1.1E1,1.8E1,5E0,5.9E1,1.21E2,1.75E2,1.22E2,9.5E1,2E0,5E0,2E0,4.21E2,2E0,1.9E1,4E0,1.8E1,7.8E1,3E0,7E0,4.2E1,1.8E1,1.6E1,7E0,9.05E2,2.2E1,2.554E3,1E1,2.373E3],"tree_param":{"num_deleted":"0","num_feature":"12","num_nodes":"129","size_leaf_vector":"0"}},{"base_weights":[1.8656874E-1,3.649987E0,1.7541644E-1,1.7454395E-1,3.9447744E0,5.392828E-1,1.6336128E-1,5.312407E-2,2.4161732E-1,4.768651E-1,2.6009316E0,3.7957694E-2,1.8895149E-1,1.42064E0,4.219566E-1,-5.0112313E-1,3.798179E0,-3.753216E-3,9.967372E-2,2.8417102E-1,1.6897094E-1,2.7684364E0,1.1000805E0,4.5781463E-1,-6.9708496E-1,7.639447E0,7.2500473E-1,5.4889556E-2,-1.087174E-2,1.5687239E-1,8.2774505E-2,1.325993E-1,3.9848343E-1,3.3126724E-1,1.5952885E-1,4.9067855E0,-5.15404E-2,5.3338623E-1,3.2034338E0,4.3865496E-1,1.2180297E0,-1.0748786E0,2.5992057E-1,7.6056994E-2,1.9375735E-3,-2.7119434E-2,1.1251065E-2,9.901235E-2,2.718803E-1,3.090507E-1,7.963968E-2,4.6546537E-1,6.2237658E-2,1.7667192E-1,4.5940396E-1,2.7277064E-1,6.18345E-1,1.4480951E-1,1.9860111E-1,-7.3350675E-2,9.956877E-1,1.8948752E-1,5.057708E-1,7.604594E-1,2.3897274E0,-5.0803906E-1,-1.7249134E0,6.7402154E-2,4.2495078E-1,-1.9732768E-2,8.304439E-2,-3.410048E-2,-1.0241647E-2,4.2066526E-2,-1.8049527E-2,7.461099E-2,5.12297E-1,-6.490624E-2,2.908842E-1,1.9715944E-2,8.798536E-2,3.2136428E-1,1.1406294E0,-1.1478319E0,7.263501E-2,1.4063057E-1,5.656054E-1,7.188456E-1,3.9964646E-1,1.4243579E-1,3.674842E-1,9.232681E-1,1.0181219E-1,7.1494806E-1,1.429888E-1,1.6784395E-1,3.0428538E-1],"categories":[],"categories_nodes":[],"categories_segments":[],"categories_sizes":[],"default_left":[true,true,true,true,false,true,true,false,false,true,true,true,true,true,true,false,true,true,true,true,true,true,true,true,true,false,false,true,true,true,true,true,true,true,true,false,false,true,false,true,true,true,false,true,true,true,true,true,true,false,true,true,true,true,true,true,true,true,true,false,false,false,false,false,false,false,false,false,false,false,false,false,false,false,false,false,false,false,false,false,false,false,false,false,false,false,false,false,false,false,false,false,false,false,false,false,false],"id":122,"left_children":[1,3,5,7,-1,9,11,-1,-1,13,15,17,19,21,23,-1,25,27,29,31,33,35,37,39,41,-1,-1,43,45,47,49,51,53,55,57,-1,-1,59,-1,61,63,65,-1,67,69,71,73,75,77,-1,79,81,83,85,87,89,91,93,95,-1,-1,-1,-1,-1,-1,-1,-1,-1,-1,-1,-1,-1,-1,-1,-1,-1,-1,-1,-1,-1,-1,-1,-1,-1,-1,-1,-1,-1,-1,-1,-1,-1,-1,-1,-1,-1,-1],"loss_changes":[3.0484412E2,2.5666199E1,3.4501083E1,1.0519333E-2,0E0,3.2013603E1,2.4455246E1,0E0,0E0,1.2487305E1,2.7917717E1,3.3282588E0,1.2021225E1,4.6899433E0,9.425766E0,0E0,6.0994736E1,3.215643E-1,4.961791E-1,1.8987785E1,7.9950256E0,1.4224646E1,1.2885929E1,3.080284E0,2.7562113E0,0E0,0E0,9.2243284E-2,2.4774581E-1,7.731664E-1,2.7234674E-1,1.1045337E1,8.41391E0,4.756256E0,2.8302383E0,0E0,0E0,2.655507E0,0E0,3.6427765E0,2.208506E0,1.6411195E0,0E0,1.6259012E-1,4.421835E-2,4.60667E-2,2.6364404E-1,7.7893686E-1,2.6126385E-1,0E0,1.9709325E-1,7.8672867E0,4.9234543E0,1.8604636E0,7.4901733E0,2.929718E0,7.5666885E0,3.6847916E0,4.372059E0,0E0,0E0,0E0,0E0,0E0,0E0,0E0,0E0,0E0,0E0,0E0,0E0,0E0,0E0,0E0,0E0,0E0,0E0,0E0,0E0,0E0,0E0,0E0,0E0,0E0,0E0,0E0,0E0,0E0,0E0,0E0,0E0,0E0,0E0,0E0,0E0,0E0,0E0],"parents":[2147483647,0,0,1,1,2,2,3,3,5,5,6,6,9,9,10,10,11,11,12,12,13,13,14,14,16,16,17,17,18,18,19,19,20,20,21,21,22,22,23,23,24,24,27,27,28,28,29,29,30,30,31,31,32,32,33,33,34,34,37,37,39,39,40,40,41,41,43,43,44,44,45,45,46,46,47,47,48,48,50,50,51,51,52,52,53,53,54,54,55,55,56,56,57,57,58,58],"right_children":[2,4,6,8,-1,10,12,-1,-1,14,16,18,20,22,24,-1,26,28,30,32,34,36,38,40,42,-1,-1,44,46,48,50,52,54,56,58,-1,-1,60,-1,62,64,66,-1,68,70,72,74,76,78,-1,80,82,84,86,88,90,92,94,96,-1,-1,-1,-1,-1,-1,-1,-1,-1,-1,-1,-1,-1,-1,-1,-1,-1,-1,-1,-1,-1,-1,-1,-1,-1,-1,-1,-1,-1,-1,-1,-1,-1,-1,-1,-1,-1,-1],"split_conditions":[2.7272727E-2,3.9510223E-1,4.1591644E-2,1.3484347E-1,7.889549E-2,4.078142E-2,7.920965E-1,1.0624814E-3,4.8323465E-3,2.1276595E-3,8.231776E-1,3.9510223E-1,2.6206896E-1,2.0975873E-2,3.9881166E-2,-1.0022462E-2,2.5862068E-1,1.4692114E-1,2.935722E-1,6.545454E-1,4.2424244E-1,3.3636364E-1,1.4137931E-1,3.9250992E-2,9.9787235E-1,1.5278894E-1,1.4500095E-2,4.9310344E-1,1.3484347E-1,7.5757575E-1,1.3234043E-1,1.3341735E-1,3.5106385E-1,4.1896552E-1,8.30303E-1,9.813571E-2,-1.030808E-3,3.3636364E-1,6.4068675E-2,4.1296717E-4,6.515151E-1,6.969697E-1,5.198411E-3,4.7413793E-1,8.30303E-1,8.30303E-1,3.948276E-1,4.8793104E-1,5.3204898E-2,6.1810142E-3,3.696435E-1,1.264854E-1,1.3476774E-1,5.9092546E-1,1.703277E-1,2.5054014E-1,4.2933023E-1,4.924379E-2,8.3255315E-1,-1.4670135E-3,1.9913753E-2,3.7897502E-3,1.0115416E-2,1.5209188E-2,4.7794547E-2,-1.01607805E-2,-3.4498267E-2,1.3480431E-3,8.499015E-3,-3.9465533E-4,1.6608877E-3,-6.820096E-4,-2.0483293E-4,8.413305E-4,-3.6099053E-4,1.4922199E-3,1.024594E-2,-1.2981248E-3,5.817684E-3,3.9431886E-4,1.7597071E-3,6.4272857E-3,2.2812588E-2,-2.2956638E-2,1.4527001E-3,2.8126114E-3,1.1312108E-2,1.4376911E-2,7.992929E-3,2.8487158E-3,7.349684E-3,1.846536E-2,2.0362437E-3,1.4298961E-2,2.859776E-3,3.3568789E-3,6.0857073E-3],"split_indices":[2,6,5,6,0,5,6,0,0,10,6,6,3,5,5,0,3,5,5,2,2,2,3,5,10,0,0,3,6,2,10,5,10,3,2,0,0,2,0,8,2,2,0,3,2,2,3,3,5,0,5,5,5,5,5,5,5,5,5,0,0,0,0,0,0,0,0,0,0,0,0,0,0,0,0,0,0,0,0,0,0,0,0,0,0,0,0,0,0,0,0,0,0,0,0,0,0],"split_type":[0,0,0,0,0,0,0,0,0,0,0,0,0,0,0,0,0,0,0,0,0,0,0,0,0,0,0,0,0,0,0,0,0,0,0,0,0,0,0,0,0,0,0,0,0,0,0,0,0,0,0,0,0,0,0,0,0,0,0,0,0,0,0,0,0,0,0,0,0,0,0,0,0,0,0,0,0,0,0,0,0,0,0,0,0,0,0,0,0,0,0,0,0,0,0,0,0],"sum_hessian":[7.899E3,2.5E1,7.874E3,2E0,2.3E1,2.52E2,7.622E3,1E0,1E0,2.45E2,7E0,1.292E3,6.33E3,1.3E1,2.32E2,2E0,5E0,7.71E2,5.21E2,1.097E3,5.233E3,2E0,1.1E1,2.25E2,7E0,2E0,3E0,8.3E1,6.88E2,1.18E2,4.03E2,4.72E2,6.25E2,2.87E2,4.946E3,1E0,1E0,9E0,2E0,2.2E2,5E0,5E0,2E0,5.9E1,2.4E1,3.97E2,2.91E2,7.9E1,3.9E1,5E0,3.98E2,8.2E1,3.9E2,1.35E2,4.9E2,2.39E2,4.8E1,3.594E3,1.352E3,4E0,5E0,4.7E1,1.73E2,4E0,1E0,3E0,2E0,5.8E1,1E0,1.9E1,5E0,2.8E2,1.17E2,1.42E2,1.49E2,7.5E1,4E0,2E0,3.7E1,4.9E1,3.49E2,6.8E1,1.4E1,3E0,3.87E2,1.24E2,1.1E1,9.1E1,3.99E2,1.01E2,1.38E2,3E1,1.8E1,1.1E1,3.583E3,1.048E3,3.04E2],"tree_param":{"num_deleted":"0","num_feature":"12","num_nodes":"97","size_leaf_vector":"0"}},{"base_weights":[1.9166085E-1,-8.865709E-2,4.4893903E-1,7.669695E-2,-2.0927346E-1,4.0966907E0,4.0541217E-1,-3.2331771E-3,1.9536589E-1,-1.1935654E0,-1.7927016E-1,1.569662E0,5.330544E0,1.6073972E0,3.920872E-1,3.647207E-1,-1.0490575E-2,1.5178402E-1,2.871661E-1,-1.4151472E-1,-1.363571E0,-3.6889142E-1,-1.5558694E-1,5.8661294E0,4.5518452E-1,1.6502478E1,3.5586076E0,8.957675E-2,2.3064713E0,1.9266713E-1,4.439489E-1,1.9784681E-1,1.4745443E0,-7.441996E-3,-4.5308983E-1,1.8315116E-1,-6.845452E-2,5.843343E-1,2.4480942E-1,-1.4848896E0,1.751842E-1,-1.0027965E0,-3.3907992E-1,8.284926E-2,-1.7947835E-1,2.0551255E0,1.10574045E1,2.4876041E0,-2.13762E-1,3.481865E1,7.5204115E0,-1.1938381E0,5.792267E0,2.0689445E0,-1.0954902E-1,3.433717E0,1.5054089E0,2.952689E-1,1.7340562E-1,5.8729726E-1,4.0141928E-1,1.3634469E-1,3.1349236E-1,2.636128E0,-4.509312E-2,6.2740274E-2,-1.8650763E-2,1.6640963E-1,4.7612578E-1,4.098663E-1,-8.0253184E-2,1.8007475E-1,8.025379E-1,3.507644E-1,1.4682339E-1,-1.2188386E0,-1.869815E0,3.9736223E-1,6.450346E-2,-6.947991E-2,-1.3794962E0,-2.6205233E-1,-6.584714E-1,-5.7992507E-2,5.892688E-1,-3.5830414E-1,-1.5962951E-1,9.1191396E-2,3.4954324E0,4.406473E-1,-6.525174E-1,-2.4133472E-1,-1.8904334E0,1.6456186E0,1.1198189E1,-1.1494012E0,4.683271E-3,2.7895901E0,4.4048786E0,-6.288164E-1,1.7804519E0,2.127252E-1,9.573461E-1,1.6423748E-1,3.17464E-1,4.5646495E-1,7.0888E-1,2.0904317E-1,4.30313E-1,2.6756313E-1,-9.291487E-2,5.850234E-1,2.0252272E-1,-2.9772197E-4,8.147718E-2,-2.6693769E-2,7.460556E-2,9.012546E-1,1.5935923E-1,1.4927235E0,3.970586E-1,1.7757863E-1,-9.70805E-2,-9.0936534E-2,2.600657E-1,9.863904E-1,5.301063E-1,3.1619823E-1,7.684793E-1,-1.4414826E-1,1.9830799E-1,-1.3396219E0,-9.9539185E-1,-2.2087455E0,-1.3899236E0,-8.313573E-1,-1.5303885E0,-6.1378825E-1,-2.313158E-1,-6.459723E-2,-8.355587E-1,4.190715E-1,-2.8428155E-1,1.3594589E-1,1.503324E0,-5.1430637E-1,-1.227241E-1,-8.81924E-2,-1.9218458E-1,7.3289865E-1,-3.894348E-1,-3.724795E-1,-1.0732107E0,4.2925468E-1,-4.8972374E-1,-2.0772965E0,-7.9972017E-1,2.106075E0,-4.2518413E-1,1.5619085E1,3.000349E0,2.7150494E-1,-1.8763812E-1,3.0337574E0,1.7221075E0,3.8267247E-2,-1.149344E0,1.4753197E0,4.8331914E0,3.4260476E-1,1.05747476E-1,-2.0164362E-1,3.650661E0,1.7287527E-1,-2.2628064E-1,1.8670295E-1,3.8904175E-1,8.35121E-1,3.2688504E-1,1.2982762E0,4.4453767E-1,3.1735379E-1,3.646468E-2,5.0279427E-1,2.971998E-1],"categories":[],"categories_nodes":[],"categories_segments":[],"categories_sizes":[],"default_left":[true,true,true,true,true,true,true,true,true,true,true,true,true,true,true,true,true,true,true,false,true,true,true,true,true,true,true,true,true,true,true,true,true,true,false,true,true,true,true,true,true,true,true,true,true,false,false,true,true,false,false,true,true,false,true,true,true,true,true,true,true,true,true,false,false,true,true,true,true,false,true,true,true,true,true,true,true,false,false,false,true,true,true,true,true,true,true,false,false,true,true,true,true,true,true,false,true,true,false,true,true,true,true,true,true,true,true,true,true,false,false,false,false,false,false,false,false,false,false,false,false,false,false,false,false,false,false,false,false,false,false,false,false,false,false,false,false,false,false,false,false,false,false,false,false,false,false,false,false,false,false,false,false,false,false,false,false,false,false,false,false,false,false,false,false,false,false,false,false,false,false,false,false,false,false,false,false,false,false,false,false,false,false,false,false],"id":123,"left_children":[1,3,5,7,9,11,13,15,17,19,21,23,25,27,29,31,33,35,37,-1,39,41,43,45,47,49,51,53,55,57,59,61,63,65,-1,67,69,71,73,75,77,79,81,83,85,-1,-1,87,89,-1,-1,91,93,-1,95,97,99,101,103,105,107,109,111,-1,-1,113,115,117,119,-1,121,123,125,127,129,131,133,-1,-1,-1,135,137,139,141,143,145,147,-1,-1,149,151,153,155,157,159,-1,161,163,-1,165,167,169,171,173,175,177,179,181,183,-1,-1,-1,-1,-1,-1,-1,-1,-1,-1,-1,-1,-1,-1,-1,-1,-1,-1,-1,-1,-1,-1,-1,-1,-1,-1,-1,-1,-1,-1,-1,-1,-1,-1,-1,-1,-1,-1,-1,-1,-1,-1,-1,-1,-1,-1,-1,-1,-1,-1,-1,-1,-1,-1,-1,-1,-1,-1,-1,-1,-1,-1,-1,-1,-1,-1,-1,-1,-1,-1,-1,-1,-1,-1,-1,-1],"loss_changes":[5.674081E2,7.510457E1,6.507309E2,1.5068648E1,6.421008E1,1.4781427E2,6.4697266E1,2.5313115E0,2.5370655E0,1.1420509E1,9.46402E0,7.722923E1,6.202025E2,4.6937813E1,4.1438293E1,3.2742293E0,1.2489536E0,3.0063028E0,2.5250149E0,0E0,1.0435059E1,4.295826E0,1.0712105E1,5.818434E1,1.8337679E1,6.2500635E2,3.0314114E2,5.7529697E0,2.5596725E1,1.613245E0,1.9308533E1,9.550083E-2,4.1956096E0,7.276811E-1,0E0,1.8298883E0,3.1290075E-1,2.1724787E0,1.84797E0,4.4530106E0,9.1428295E-2,3.580412E0,5.44837E0,1.2239338E1,6.037239E0,0E0,0E0,7.8934555E0,3.0659094E0,0E0,0E0,6.0103006E0,4.270595E2,0E0,1.6019359E0,3.5149536E0,1.1151592E1,7.0381594E0,8.9806366E-1,1.1445129E1,1.3608734E1,3.5172728E-1,1.0996306E-1,0E0,0E0,1.5156436E-1,5.987796E-1,1.8038464E0,1.40979E0,0E0,2.3599407E-1,2.1263412E-1,6.22097E-1,1.1500492E0,1.4234734E0,3.6767197E-1,2.2321548E0,0E0,0E0,0E0,1.4858627E-1,1.901021E0,4.5264378E0,1.4539689E1,1.5378043E1,6.2297935E0,3.5679588E0,0E0,0E0,1.1513457E0,5.9222054E-1,7.9277724E-1,4.9201584E-1,1.1129215E1,2.8612708E2,0E0,6.5108335E-1,3.6203003E-1,0E0,8.407795E-1,1.2746643E1,1.5978861E0,4.5036957E1,2.2296085E0,3.5442972E-1,1.713099E1,5.841632E1,5.997486E0,2.053125E1,0E0,0E0,0E0,0E0,0E0,0E0,0E0,0E0,0E0,0E0,0E0,0E0,0E0,0E0,0E0,0E0,0E0,0E0,0E0,0E0,0E0,0E0,0E0,0E0,0E0,0E0,0E0,0E0,0E0,0E0,0E0,0E0,0E0,0E0,0E0,0E0,0E0,0E0,0E0,0E0,0E0,0E0,0E0,0E0,0E0,0E0,0E0,0E0,0E0,0E0,0E0,0E0,0E0,0E0,0E0,0E0,0E0,0E0,0E0,0E0,0E0,0E0,0E0,0E0,0E0,0E0,0E0,0E0,0E0,0E0,0E0,0E0,0E0,0E0,0E0,0E0],"parents":[2147483647,0,0,1,1,2,2,3,3,4,4,5,5,6,6,7,7,8,8,9,9,10,10,11,11,12,12,13,13,14,14,15,15,16,16,17,17,18,18,20,20,21,21,22,22,23,23,24,24,25,25,26,26,27,27,28,28,29,29,30,30,31,31,32,32,33,33,35,35,36,36,37,37,38,38,39,39,40,40,41,41,42,42,43,43,44,44,47,47,48,48,51,51,52,52,54,54,55,55,56,56,57,57,58,58,59,59,60,60,61,61,62,62,65,65,66,66,67,67,68,68,70,70,71,71,72,72,73,73,74,74,75,75,76,76,80,80,81,81,82,82,83,83,84,84,85,85,86,86,89,89,90,90,91,91,92,92,93,93,94,94,96,96,97,97,99,99,100,100,101,101,102,102,103,103,104,104,105,105,106,106,107,107,108,108],"right_children":[2,4,6,8,10,12,14,16,18,20,22,24,26,28,30,32,34,36,38,-1,40,42,44,46,48,50,52,54,56,58,60,62,64,66,-1,68,70,72,74,76,78,80,82,84,86,-1,-1,88,90,-1,-1,92,94,-1,96,98,100,102,104,106,108,110,112,-1,-1,114,116,118,120,-1,122,124,126,128,130,132,134,-1,-1,-1,136,138,140,142,144,146,148,-1,-1,150,152,154,156,158,160,-1,162,164,-1,166,168,170,172,174,176,178,180,182,184,-1,-1,-1,-1,-1,-1,-1,-1,-1,-1,-1,-1,-1,-1,-1,-1,-1,-1,-1,-1,-1,-1,-1,-1,-1,-1,-1,-1,-1,-1,-1,-1,-1,-1,-1,-1,-1,-1,-1,-1,-1,-1,-1,-1,-1,-1,-1,-1,-1,-1,-1,-1,-1,-1,-1,-1,-1,-1,-1,-1,-1,-1,-1,-1,-1,-1,-1,-1,-1,-1,-1,-1,-1,-1,-1,-1],"split_conditions":[6.621175E-1,6.572582E-1,5E-1,3.989272E-1,6.724138E-2,8.2218254E-1,7.4137926E-2,6.724138E-2,6.341465E-1,5.5555556E-2,2.086207E-1,7.6935333E-1,8.349742E-1,8.2218254E-1,9.8790765E-1,3.8608843E-1,3.9342475E-1,6.324857E-1,1.6666667E-1,-2.8302942E-3,5E-1,1.48936175E-2,2.6206896E-1,7.563675E-1,9.8790765E-1,1.6666667E-1,8.571358E-1,7.7025306E-1,8.349742E-1,1.4619164E-1,2.9137933E-1,2.4243233E-1,5E-1,6.0824133E-2,-9.061797E-3,9.689189E-1,1.5172413E-1,9.689189E-1,4.3103448E-1,2.777778E-1,5E-1,5.5555556E-2,6.621622E-1,2.5344828E-1,5.0082594E-1,4.110251E-2,2.2114809E-1,7.847458E-1,1.6666667E-1,6.96373E-1,1.5040822E-1,2.777778E-1,2.777778E-1,4.137889E-2,6E-2,9.9787235E-1,8.54249E-1,3.327586E-1,9.859468E-1,8.2218254E-1,7.554066E-1,1.24566406E-1,2.8379714E-1,5.272256E-2,-9.0186234E-4,2.0297873E-1,3.8253418E-1,7.241379E-2,1.6666667E-1,8.197326E-3,1.6666667E-1,1.6680852E-1,7.008511E-1,4.0862072E-1,3.4520882E-1,1.6666667E-1,5E-1,7.947245E-3,1.2900692E-3,-1.3895982E-3,1.6666667E-1,9.6551724E-2,5.5555556E-2,2.2481573E-1,6.4742017E-1,5.4137933E-1,3.783784E-1,1.8238279E-3,6.990865E-2,8.0460525E-1,8.0460525E-1,1.6666667E-1,3.888889E-1,9.28372E-1,3.888889E-1,-2.2988023E-2,1.6666667E-1,3.888889E-1,8.809757E-2,3.3333334E-1,5E-1,2.5344828E-1,9.2556846E-1,9.699887E-1,6.461916E-1,7.6706135E-1,8.349742E-1,7.290039E-1,8.349742E-1,5.3512626E-3,-1.8582974E-3,1.1700468E-2,4.0504546E-3,-5.954439E-6,1.6295436E-3,-5.3387537E-4,1.4921112E-3,1.802509E-2,3.1871845E-3,2.9854469E-2,7.9411715E-3,3.5515726E-3,-1.9416099E-3,-1.8187306E-3,5.201314E-3,1.9727807E-2,1.0602126E-2,6.3239643E-3,1.5369586E-2,-2.8829651E-3,3.9661597E-3,-2.6792437E-2,-1.9907836E-2,-4.417491E-2,-2.779847E-2,-1.6627146E-2,-3.060777E-2,-1.2275765E-2,-4.626316E-3,-1.2919445E-3,-1.6711174E-2,8.38143E-3,-5.6856307E-3,2.7189176E-3,3.006648E-2,-1.0286127E-2,-2.454482E-3,-1.763848E-3,-3.8436917E-3,1.4657972E-2,-7.7886963E-3,-7.4495897E-3,-2.1464214E-2,8.585094E-3,-9.794475E-3,-4.1545928E-2,-1.5994404E-2,4.21215E-2,-8.503682E-3,3.1238168E-1,6.000698E-2,5.4300986E-3,-3.7527622E-3,6.0675148E-2,3.444215E-2,7.6534494E-4,-2.298688E-2,2.9506395E-2,9.6663825E-2,6.852095E-3,2.1149495E-3,-4.032872E-3,7.3013216E-2,3.4575053E-3,-4.5256126E-3,3.734059E-3,7.780835E-3,1.670242E-2,6.5377005E-3,2.5965523E-2,8.890754E-3,6.3470756E-3,7.2929356E-4,1.0055885E-2,5.9439954E-3],"split_indices":[1,1,0,1,3,1,3,3,1,4,3,1,1,1,6,1,1,1,4,0,4,10,3,1,6,4,1,1,1,11,3,1,0,1,0,6,3,6,3,4,0,4,11,3,8,0,0,1,4,0,0,4,4,0,10,10,1,3,1,1,1,1,1,0,0,10,1,3,4,0,4,10,10,3,11,4,0,0,0,0,4,3,4,11,11,3,11,0,0,1,1,4,4,1,4,0,4,4,0,4,4,3,1,1,11,1,1,1,1,0,0,0,0,0,0,0,0,0,0,0,0,0,0,0,0,0,0,0,0,0,0,0,0,0,0,0,0,0,0,0,0,0,0,0,0,0,0,0,0,0,0,0,0,0,0,0,0,0,0,0,0,0,0,0,0,0,0,0,0,0,0,0,0,0,0,0,0,0,0,0,0,0,0,0,0],"split_type":[0,0,0,0,0,0,0,0,0,0,0,0,0,0,0,0,0,0,0,0,0,0,0,0,0,0,0,0,0,0,0,0,0,0,0,0,0,0,0,0,0,0,0,0,0,0,0,0,0,0,0,0,0,0,0,0,0,0,0,0,0,0,0,0,0,0,0,0,0,0,0,0,0,0,0,0,0,0,0,0,0,0,0,0,0,0,0,0,0,0,0,0,0,0,0,0,0,0,0,0,0,0,0,0,0,0,0,0,0,0,0,0,0,0,0,0,0,0,0,0,0,0,0,0,0,0,0,0,0,0,0,0,0,0,0,0,0,0,0,0,0,0,0,0,0,0,0,0,0,0,0,0,0,0,0,0,0,0,0,0,0,0,0,0,0,0,0,0,0,0,0,0,0,0,0,0,0,0,0,0,0,0,0,0,0],"sum_hessian":[7.867E3,3.765E3,4.102E3,1.588E3,2.177E3,4.8E1,4.054E3,9.49E2,6.39E2,6.4E1,2.113E3,1.6E1,3.2E1,4.4E1,4.01E3,1.8E1,9.31E2,4.34E2,2.05E2,9E0,5.5E1,2.34E2,1.879E3,3E0,1.3E1,4E0,2.8E1,1.4E1,3E1,8.28E2,3.182E3,1.6E1,2E0,9.25E2,6E0,3.8E2,5.4E1,2.5E1,1.8E2,5.1E1,4E0,1E1,2.24E2,1.71E2,1.708E3,2E0,1E0,3E0,1E1,1E0,3E0,9E0,1.9E1,1E0,1.3E1,1.2E1,1.8E1,1.3E2,6.98E2,7.27E2,2.455E3,1.1E1,5E0,1E0,1E0,1.27E2,7.98E2,3.6E2,2E1,1E0,5.3E1,9E0,1.6E1,8.6E1,9.4E1,3.1E1,2E1,1E0,3E0,3E0,7E0,1.81E2,4.3E1,1.34E2,3.7E1,1.7E2,1.538E3,1E0,2E0,4E0,6E0,4E0,5E0,1.1E1,8E0,1E0,1.2E1,8E0,4E0,2E0,1.6E1,1.16E2,1.4E1,6.57E2,4.1E1,3.51E2,3.76E2,3.21E2,2.134E3,7E0,4E0,1E0,4E0,2.9E1,9.8E1,7.35E2,6.3E1,3E0,3.57E2,1E0,1.9E1,3E0,5E1,2E0,7E0,9E0,7E0,8E1,6E0,1.4E1,8E1,1.9E1,1.2E1,1.1E1,9E0,2E0,5E0,1.4E1,1.67E2,1E1,3.3E1,4.3E1,9.1E1,2.5E1,1.2E1,1.02E2,6.8E1,4.82E2,1.056E3,3E0,1E0,4E0,2E0,1E0,3E0,4E0,1E0,9E0,2E0,5E0,3E0,5E0,7E0,6E0,2E0,1E0,1E0,1.5E1,1E0,5.2E1,6.4E1,1E1,4E0,6.43E2,1.4E1,1.5E1,2.6E1,8.9E1,2.62E2,1.16E2,2.6E2,1.97E2,1.24E2,1.381E3,7.53E2],"tree_param":{"num_deleted":"0","num_feature":"12","num_nodes":"185","size_leaf_vector":"0"}},{"base_weights":[1.6935875E-1,-1.046193E-1,4.1782537E-1,6.975523E-2,-2.283647E-1,1.8068327E0,3.8431725E-1,-3.4840538E-3,1.8159986E-1,-1.1353936E0,-1.9917321E-1,3.3047118E0,-8.395248E-3,1.9322641E-1,4.3476644E-1,5.715799E-1,-8.632676E-3,2.170743E-1,8.430781E-2,-1.0885067E-1,-1.3989704E0,-8.566541E-2,-2.2408563E-1,1.3226221E0,8.187108E0,-3.008585E0,6.794149E-1,1.476226E-1,2.4610591E-1,5.997781E-1,3.8702676E-1,1.7542878E-1,2.5965898E0,-4.892069E-3,-4.7879285E-1,8.576796E-1,2.1067484E-1,7.076559E-2,2.6497963E-1,-1.2977289E-1,-4.7292236E-2,-1.547019E0,4.2498508E-1,-9.5837854E-2,-7.2942354E-2,-2.7678752E-1,-1.3380796E-1,4.9092927E0,-5.320311E-4,1.4309238E1,3.7387342E0,-6.2940516E0,5.0510854E-1,1.2547632E0,-3.6624415E0,2.0820284E-1,5.843446E-2,3.0955783E-1,1.7742571E-1,1.1206383E0,5.6262416E-1,2.0557322E-1,4.168135E-1,3.2868472E-1,4.074716E-2,-1.1270541E-2,9.160281E-2,1.7451029E-1,3.030087E-1,1.2645958E-1,2.2637181E-2,5.0693357E-1,-3.6232762E-2,-6.2956005E-2,-0E0,-1.2468069E0,-2.3478465E0,1.2120591E0,6.334244E-2,-9.408081E-2,-1.3849133E-1,-3.431287E-2,-8.480607E-2,-4.6783882E-1,-2.3923644E-1,-2.4999718E-1,-2.4783487E-2,2.6993477E0,9.275669E0,2.4451134E0,-3.228951E-1,3.4296425E1,8.414704E0,4.695677E0,2.269969E0,1.2089289E-1,-8.234828E0,1.1032392E0,-1.1057446E0,-1.5333524E0,2.1929984E0,5.451114E-1,-7.3527155E0,3.098902E-1,1.2251187E-1,-8.623571E-2,1.7735514E-1,2.3973583E-1,7.5314003E-1,3.935576E-3,2.115101E-1,8.6491364E-1,2.006993E0,6.4555085E-1,3.9486822E-1,2.8091395E-1,7.440256E-2,4.692596E-1,3.120253E-1,4.6912163E-1,-0E0,2.6759347E-1,-1.8580943E-1,5.392091E-2,-2.329926E-2,3.5704476E-1,-6.470158E-2,2.0253679E-1,-1.4254329E-1,1.283359E-1,3.5980508E-1,8.613409E-2,3.6034682E-1,-1.13119304E-1,9.9974744E-2,5.779445E-1,8.544223E-2,-1.550781E-1,4.6306036E-2,-1.3085722E0,-4.8164266E-1,-2.4183018E0,-1.0983531E0,-7.4827194E-2,-9.539906E-2,-1.053861E-1,7.821519E-1,-8.996096E-2,-7.11452E-2,-6.2014157E-1,-4.060721E-1,-1.0800092E-1,-3.0777502E-1,1.2353697E-2,-3.7060073E-1,1.1491839E0,-1.092886E-1,6.090673E0,1.8409472E0,1.051186E1,4.782097E0,8.982397E-2,3.435514E0,-1.6785486E-1,-1.0580117E0,4.8627696E0,1.2280166E1,3.7693314E-2,1.5483752E0,-5.5362873E-2,-2.358564E0,4.17041E0,7.154013E-1,-7.877255E-1,1.752325E0,2.219403E-1,3.793872E-1,-1.5571831E-1,1.6422012E-1,2.113978E-1,-1.0631559E-1,4.8446544E-2,2.5752097E-1,1.9898377E-1,1.3144194E0,3.6398E0,2.0565726E-1,-3.1336662E-1,2.961843E-2,3.0552286E-1,1.5984717E-1,1.139939E0,-1.360625E-1,2.5657678E0,1.0325958E0,4.777071E-1,1.2097116E0,7.6381825E-2,5.600063E-1,4.7369358E-1,2.4759781E-1,2.0354861E-1,-4.7114804E-2,3.927995E-1,6.2064093E-1,3.673318E-1,1.856842E-1],"categories":[],"categories_nodes":[],"categories_segments":[],"categories_sizes":[],"default_left":[true,true,true,true,true,true,true,true,true,true,true,true,true,true,true,true,true,true,true,true,true,true,true,true,true,true,true,true,true,true,true,true,false,true,false,false,true,true,true,false,true,true,true,true,true,true,true,true,true,true,true,true,true,true,true,true,true,true,true,true,true,true,true,true,true,true,true,true,true,true,true,true,true,false,false,true,true,false,false,true,false,true,true,true,true,true,true,true,true,true,true,false,true,false,false,false,false,true,false,true,true,true,false,true,true,true,true,true,true,true,true,true,true,true,true,true,true,true,true,false,false,false,false,false,false,false,false,false,false,false,false,false,false,false,false,false,false,false,false,false,false,false,false,false,false,false,false,false,false,false,false,false,false,false,false,false,false,false,false,false,false,false,false,false,false,false,false,false,false,false,false,false,false,false,false,false,false,false,false,false,false,false,false,false,false,false,false,false,false,false,false,false,false,false,false,false,false,false,false,false,false,false,false,false,false,false,false],"id":124,"left_children":[1,3,5,7,9,11,13,15,17,19,21,23,25,27,29,31,33,35,37,39,41,43,45,47,49,51,53,55,57,59,61,63,-1,65,-1,-1,67,69,71,-1,73,75,77,79,81,83,85,87,89,91,93,95,97,99,101,103,105,107,109,111,113,115,117,119,121,123,125,127,129,131,133,135,137,-1,-1,139,141,-1,-1,143,-1,145,147,149,151,153,155,157,159,161,163,-1,165,-1,-1,-1,-1,167,-1,169,171,173,-1,175,177,179,181,183,185,187,189,191,193,195,197,199,201,203,205,-1,-1,-1,-1,-1,-1,-1,-1,-1,-1,-1,-1,-1,-1,-1,-1,-1,-1,-1,-1,-1,-1,-1,-1,-1,-1,-1,-1,-1,-1,-1,-1,-1,-1,-1,-1,-1,-1,-1,-1,-1,-1,-1,-1,-1,-1,-1,-1,-1,-1,-1,-1,-1,-1,-1,-1,-1,-1,-1,-1,-1,-1,-1,-1,-1,-1,-1,-1,-1,-1,-1,-1,-1,-1,-1,-1,-1,-1,-1,-1,-1,-1,-1,-1,-1,-1,-1,-1],"loss_changes":[5.369446E2,8.095402E1,1.922547E2,1.2759523E1,5.800608E1,2.647052E2,3.8903687E1,2.780703E0,2.1168003E0,1.8416893E1,6.00193E0,5.1237994E2,9.2199684E1,2.018381E0,2.508014E1,6.493752E0,1.6337585E0,1.7747631E0,3.9347863E-1,1.3888359E-2,1.490715E1,4.487419E-2,8.27623E0,1.8199072E2,3.9948682E2,9.734536E1,9.226204E1,2.4469213E0,1.6757698E0,1.3628235E1,1.3363129E1,1.4163263E-1,0E0,5.6934726E-1,0E0,0E0,1.4692974E0,4.1060376E-1,8.3881736E-1,0E0,3.520025E-3,1.1073624E1,1.1896828E0,8.17585E-3,7.6309025E-2,7.8465805E0,8.143422E0,9.119197E1,2.2570717E1,6.4933154E2,9.464569E0,5.4399323E1,4.5820694E0,8.571214E1,6.871959E1,2.336773E0,3.1777234E0,6.192259E0,1.1103234E0,1.0108898E1,9.211563E0,3.4501305E0,1.1642273E1,1.5341192E-1,2.4045962E-1,6.8168706E-1,2.3906248E0,2.8747072E0,1.2210445E0,6.5607095E-1,8.7850815E-1,1.6363418E-1,5.62641E-2,0E0,0E0,1.5286865E0,2.3787689E-1,0E0,0E0,3.7765503E-4,0E0,2.4163654E0,4.816234E-3,1.5978279E0,8.261101E0,9.857367E0,3.2996605E1,1.749636E1,1.5357971E0,7.6227303E0,2.8106153E0,0E0,5.3069885E1,0E0,0E0,0E0,0E0,1.539022E0,0E0,1.0085976E1,7.003337E1,4.2286673E0,0E0,7.171898E-1,1.7183793E0,5.040337E-1,1.0386622E0,7.5700235E0,4.2893257E1,2.5439122E-1,7.412405E-1,1.0343714E1,4.6914253E0,4.21416E1,1.1670116E1,1.3785744E0,2.0194292E0,1.6320923E1,4.9397964E0,0E0,0E0,0E0,0E0,0E0,0E0,0E0,0E0,0E0,0E0,0E0,0E0,0E0,0E0,0E0,0E0,0E0,0E0,0E0,0E0,0E0,0E0,0E0,0E0,0E0,0E0,0E0,0E0,0E0,0E0,0E0,0E0,0E0,0E0,0E0,0E0,0E0,0E0,0E0,0E0,0E0,0E0,0E0,0E0,0E0,0E0,0E0,0E0,0E0,0E0,0E0,0E0,0E0,0E0,0E0,0E0,0E0,0E0,0E0,0E0,0E0,0E0,0E0,0E0,0E0,0E0,0E0,0E0,0E0,0E0,0E0,0E0,0E0,0E0,0E0,0E0,0E0,0E0,0E0,0E0,0E0,0E0,0E0,0E0,0E0,0E0,0E0,0E0],"parents":[2147483647,0,0,1,1,2,2,3,3,4,4,5,5,6,6,7,7,8,8,9,9,10,10,11,11,12,12,13,13,14,14,15,15,16,16,17,17,18,18,19,19,20,20,21,21,22,22,23,23,24,24,25,25,26,26,27,27,28,28,29,29,30,30,31,31,33,33,36,36,37,37,38,38,40,40,41,41,42,42,43,43,44,44,45,45,46,46,47,47,48,48,49,49,50,50,51,51,52,52,53,53,54,54,55,55,56,56,57,57,58,58,59,59,60,60,61,61,62,62,63,63,64,64,65,65,66,66,67,67,68,68,69,69,70,70,71,71,72,72,75,75,76,76,79,79,81,81,82,82,83,83,84,84,85,85,86,86,87,87,88,88,89,89,90,90,92,92,97,97,99,99,100,100,101,101,103,103,104,104,105,105,106,106,107,107,108,108,109,109,110,110,111,111,112,112,113,113,114,114,115,115,116,116,117,117,118,118],"right_children":[2,4,6,8,10,12,14,16,18,20,22,24,26,28,30,32,34,36,38,40,42,44,46,48,50,52,54,56,58,60,62,64,-1,66,-1,-1,68,70,72,-1,74,76,78,80,82,84,86,88,90,92,94,96,98,100,102,104,106,108,110,112,114,116,118,120,122,124,126,128,130,132,134,136,138,-1,-1,140,142,-1,-1,144,-1,146,148,150,152,154,156,158,160,162,164,-1,166,-1,-1,-1,-1,168,-1,170,172,174,-1,176,178,180,182,184,186,188,190,192,194,196,198,200,202,204,206,-1,-1,-1,-1,-1,-1,-1,-1,-1,-1,-1,-1,-1,-1,-1,-1,-1,-1,-1,-1,-1,-1,-1,-1,-1,-1,-1,-1,-1,-1,-1,-1,-1,-1,-1,-1,-1,-1,-1,-1,-1,-1,-1,-1,-1,-1,-1,-1,-1,-1,-1,-1,-1,-1,-1,-1,-1,-1,-1,-1,-1,-1,-1,-1,-1,-1,-1,-1,-1,-1,-1,-1,-1,-1,-1,-1,-1,-1,-1,-1,-1,-1,-1,-1,-1,-1,-1,-1],"split_conditions":[6.621175E-1,6.572582E-1,7.4137926E-2,3.989272E-1,7.4137926E-2,8.349742E-1,9.8790765E-1,5E-1,3.888889E-1,5.5555556E-2,5.5555556E-2,8.2218254E-1,1.6666667E-1,8.147807E-1,2.9137933E-1,3.567353E-1,3.9342475E-1,7.241379E-2,6.474741E-1,6.724138E-2,3.888889E-1,7.008511E-1,2.777778E-1,7.703592E-1,5E-1,5E-1,3.888889E-1,9.5682657E-1,3.7931034E-1,1.48936175E-2,7.554066E-1,5.5555556E-2,5.1931795E-2,3.8253418E-1,-9.575857E-3,1.715359E-2,6.341465E-1,6.324857E-1,6.5037763E-1,-2.5954577E-3,5.5787235E-1,2.777778E-1,5E-1,7.5689656E-1,2.689655E-1,2.5344828E-1,4.0172416E-1,7.635859E-1,9.8790765E-1,1.6666667E-1,6.724138E-2,8.7090075E-1,9.28372E-1,8.7090075E-1,8.76709E-1,7.281138E-1,7.684338E-1,3.327586E-1,9.5682657E-1,8.76709E-1,8.349742E-1,7.290039E-1,8.4422266E-1,2.8972855E-1,6.7664776E-3,6.0824133E-2,3.8608843E-1,6.324857E-1,9.689189E-1,9.689189E-1,6.341465E-1,7.275862E-1,3.1206897E-1,-1.2591201E-3,-0E0,9.9787235E-1,6.724138E-2,2.4241183E-2,1.2668488E-3,7.4893616E-2,-2.7698267E-3,2.6206896E-1,6.3620687E-1,1.3793103E-1,3.5106385E-1,2.6206896E-1,4.1896552E-1,7.201557E-1,2.777778E-1,7.847458E-1,8.0966675E-1,6.8592846E-1,2.777778E-1,9.391353E-2,4.539938E-2,2.4178578E-3,-1.6469656E-1,8.664447E-1,-2.2114892E-2,2.777778E-1,2.2170213E-1,5E-1,-1.470543E-1,3.9234042E-1,7.3368084E-1,1.6034484E-1,3.189655E-1,5E-1,9.5682657E-1,7.4893616E-2,8.9225554E-1,8.349742E-1,1.4482759E-1,8.2218254E-1,8.76709E-1,1.6666667E-1,4.3103448E-1,8.2218254E-1,3.888889E-1,9.382432E-3,-0E0,5.3518694E-3,-3.7161885E-3,1.0784182E-3,-4.6598518E-4,7.140895E-3,-1.2940315E-3,4.050736E-3,-2.8508657E-3,2.5667178E-3,7.1961014E-3,1.7226818E-3,7.2069364E-3,-2.262386E-3,1.9994949E-3,1.155889E-2,1.7088446E-3,-3.101562E-3,9.2612073E-4,-2.6171442E-2,-9.632853E-3,-4.8366036E-2,-2.1967063E-2,-1.4965439E-3,-1.9079811E-3,-2.107722E-3,1.5643038E-2,-1.7992192E-3,-1.422904E-3,-1.2402831E-2,-8.121442E-3,-2.1600183E-3,-6.1555E-3,2.4707394E-4,-7.4120145E-3,2.2983678E-2,-2.185772E-3,1.21813454E-1,3.6818944E-2,2.1023719E-1,9.564193E-2,1.7964793E-3,6.8710275E-2,-3.357097E-3,-2.1160232E-2,9.725539E-2,2.4560331E-1,7.538663E-4,3.0967504E-2,-1.1072574E-3,-4.7171276E-2,8.34082E-2,1.4308025E-2,-1.575451E-2,3.50465E-2,4.438806E-3,7.587744E-3,-3.1143662E-3,3.2844024E-3,4.227956E-3,-2.1263117E-3,9.6893084E-4,5.150419E-3,3.9796755E-3,2.6288386E-2,7.2796E-2,4.113145E-3,-6.2673325E-3,5.923686E-4,6.1104572E-3,3.1969433E-3,2.2798778E-2,-2.72125E-3,5.1315352E-2,2.0651914E-2,9.554141E-3,2.4194231E-2,1.5276364E-3,1.1200126E-2,9.473871E-3,4.951956E-3,4.070972E-3,-9.4229606E-4,7.85599E-3,1.2412818E-2,7.3466357E-3,3.713684E-3],"split_indices":[1,1,3,1,3,1,6,0,4,4,4,1,4,1,3,1,1,3,1,3,4,10,4,1,0,0,4,6,3,10,1,4,0,1,0,0,1,1,1,0,10,4,4,3,3,3,3,1,6,4,3,1,1,1,1,1,1,3,6,1,1,1,1,1,9,1,1,1,6,6,1,3,3,0,0,10,3,0,0,10,0,3,3,3,10,3,3,1,4,1,1,0,4,0,0,0,0,1,0,4,10,0,0,10,1,3,3,4,6,10,1,1,3,1,1,4,3,1,4,0,0,0,0,0,0,0,0,0,0,0,0,0,0,0,0,0,0,0,0,0,0,0,0,0,0,0,0,0,0,0,0,0,0,0,0,0,0,0,0,0,0,0,0,0,0,0,0,0,0,0,0,0,0,0,0,0,0,0,0,0,0,0,0,0,0,0,0,0,0,0,0,0,0,0,0,0,0,0,0,0,0,0,0,0,0,0,0],"split_type":[0,0,0,0,0,0,0,0,0,0,0,0,0,0,0,0,0,0,0,0,0,0,0,0,0,0,0,0,0,0,0,0,0,0,0,0,0,0,0,0,0,0,0,0,0,0,0,0,0,0,0,0,0,0,0,0,0,0,0,0,0,0,0,0,0,0,0,0,0,0,0,0,0,0,0,0,0,0,0,0,0,0,0,0,0,0,0,0,0,0,0,0,0,0,0,0,0,0,0,0,0,0,0,0,0,0,0,0,0,0,0,0,0,0,0,0,0,0,0,0,0,0,0,0,0,0,0,0,0,0,0,0,0,0,0,0,0,0,0,0,0,0,0,0,0,0,0,0,0,0,0,0,0,0,0,0,0,0,0,0,0,0,0,0,0,0,0,0,0,0,0,0,0,0,0,0,0,0,0,0,0,0,0,0,0,0,0,0,0,0,0,0,0,0,0,0,0,0,0,0,0,0,0,0,0,0,0],"sum_hessian":[7.887E3,3.751E3,4.136E3,1.557E3,2.194E3,9.7E1,4.039E3,9.41E2,6.16E2,6.8E1,2.126E3,5.3E1,4.4E1,8.44E2,3.195E3,8E0,9.33E2,4.51E2,1.65E2,1.4E1,5.4E1,3.83E2,1.743E3,3.8E1,1.5E1,8E0,3.6E1,4.54E2,3.9E2,7.16E2,2.479E3,7E0,1E0,9.26E2,7E0,4E0,4.47E2,1.54E2,1.1E1,1E1,4E0,5E1,4E0,2.11E2,1.72E2,1.1E3,6.43E2,1E1,2.8E1,6E0,9E0,4E0,4E0,3.2E1,4E0,2.7E2,1.84E2,2.02E2,1.88E2,4.7E1,6.69E2,3.5E2,2.129E3,3E0,4E0,8.69E2,5.7E1,3.22E2,1.25E2,7.1E1,8.3E1,6E0,5E0,3E0,1E0,3.7E1,1.3E1,1E0,3E0,2.04E2,7E0,4.1E1,1.31E2,1.8E2,9.2E2,3.11E2,3.32E2,7E0,3E0,3E0,2.5E1,1E0,5E0,5E0,4E0,1E0,3E0,3E0,1E0,8E0,2.4E1,2E0,2E0,1.23E2,1.47E2,8.3E1,1.01E2,1.75E2,2.7E1,3.1E1,1.57E2,3.7E1,1E1,4.47E2,2.22E2,2.22E2,1.28E2,1.418E3,7.11E2,2E0,1E0,2E0,2E0,1.35E2,7.34E2,2.1E1,3.6E1,2.96E2,2.6E1,3.1E1,9.4E1,6.1E1,1E1,3E1,5.3E1,5E0,1E0,2E0,3E0,3.4E1,3E0,1.2E1,1E0,1.5E1,1.89E2,3.8E1,3E0,9.3E1,3.8E1,5.1E1,1.29E2,3.16E2,6.04E2,9.8E1,2.13E2,2.2E1,3.1E2,1E0,6E0,2E0,1E0,1E0,2E0,2.1E1,4E0,3E0,2E0,1E0,2E0,3E0,5E0,1E1,1.4E1,1E0,1E0,5.5E1,6.8E1,1.9E1,1.28E2,5E0,7.8E1,3.9E1,6.2E1,1.69E2,6E0,4E0,2.3E1,2E0,2.9E1,5.5E1,1.02E2,2.9E1,8E0,6E0,4E0,3.45E2,1.02E2,7.6E1,1.46E2,3.2E1,1.9E2,6.2E1,6.6E1,9.43E2,4.75E2,4.94E2,2.17E2],"tree_param":{"num_deleted":"0","num_feature":"12","num_nodes":"207","size_leaf_vector":"0"}},{"base_weights":[1.7042759E-1,-6.939801E-2,3.8577765E-1,-2.7179139E0,-6.1416168E-2,1.4559281E0,3.611886E-1,-1.0879706E-1,-3.2715867E0,6.909028E-2,-1.56202E-1,-2.01868E-1,2.0227804E0,1.8381329E-1,4.0822035E-1,-6.5095E-3,1.8659903E-1,-5.311673E-1,-1.2421206E-1,-8.423E0,6.5947735E-1,1.2161226E0,3.7376845E0,1.6290799E-1,3.1728107E-1,8.1824523E-1,3.9349133E-1,-1.4080994E-3,-3.016944E-1,8.016268E-1,1.7708404E-1,-3.0618975E-1,-7.269535E-1,-1.3360228E-1,2.6585612E-1,-2.2123272E0,-1.2516571E1,2.5462277E0,6.541797E-2,4.988806E0,7.420941E-1,2.1905325E1,1.5907638E0,3.4731895E-1,1.4601043E-1,1.1290455E-1,4.652392E-1,2.9032677E-1,1.360056E0,-5.1702136E-1,3.9792532E-1,-1.0994729E-2,1.323848E-1,-1.725839E-1,-4.1702065E-1,5.4072845E-1,1.2128522E0,1.446385E-1,3.6352247E-1,-9.628243E-2,-4.238701E-1,-9.990944E-1,-2.8580454E-1,-1.7757154E-1,-2.9457608E-2,1.0478466E0,-3.185911E-1,3.3253574E0,1.0632162E0,6.965961E-1,-2.6508267E0,6.1556215E0,-3.9967235E-2,-7.1494085E-1,2.0018027E0,2.2591944E0,-1.0477678E0,7.386962E-1,2.930979E-1,8.3615884E-2,1.7279327E-1,3.3806315E-1,2.0096827E-2,2.2808349E-1,1.0493635E0,1.1950967E-1,9.091836E-1,4.544411E-2,1.7630595E0,-6.762027E-1,4.603154E-1,2.379932E-1,4.2213422E-1,6.364915E-2,-2.412103E-2,3.9433494E-1,-4.1509915E-2,-3.0657423E-1,-4.9208468E-1,6.4503735E-1,2.636299E-1,1.4275486E0,5.2314603E-1,3.759203E-2,1.8197533E-1,1.5653726E0,3.3023983E-1,-1.2234277E-1,-7.5064175E-2,-5.997468E-1,-2.846588E-1,-1.0571564E0,1.6493893E0,3.2486662E-1,-6.051163E-1,-9.4195195E-2,-2.469051E-1,-1.8710421E-1,1.5578507E-1,-2.5836775E-1,1.4803314E0,-1.2396479E0,-3.949951E-2,1.0984353E0,4.116608E0,-4.016839E-1,2.2729266E0,2.0085132E0,5.469004E-1,-4.3933344E0,1.0506418E0,-1.7484391E0,-5.016071E-1,3.9932165E0,-1.1264176E0,3.9089215E0,5.173517E-1,-3.3148777E0,4.8709807E0,9.925203E-1,4.8330885E-1,2.4627979E-1,6.40095E-1,1.8148649E-1,-1.0667428E-2,1.10770896E-1,1.9678104E-1,1.2570314E-1,5.974308E-1,-1.3935986E-1,1.2758662E-1,5.4574925E-1,1.869009E-1,2.4198075E-1,3.8221478E0,-3.0632354E-2,7.0124304E-1,2.9035227E0,4.2810765E-1,2.4939005E0,-7.444889E-1,6.731747E0,1.1856565E0,7.244228E-1,-8.105091E-1,1.1007756E-1,6.847417E-1,1.223982E0,1.9179772E-1,4.8740613E-1,3.0798274E-1],"categories":[],"categories_nodes":[],"categories_segments":[],"categories_sizes":[],"default_left":[true,true,true,true,true,true,true,false,false,true,true,true,true,true,true,true,true,true,true,true,true,true,true,true,true,true,true,true,true,true,true,true,true,true,true,false,false,true,true,true,true,false,true,true,true,true,true,true,true,true,true,true,true,false,true,true,true,true,true,true,true,true,true,true,true,true,true,true,true,true,true,false,false,true,true,true,true,true,true,true,true,true,true,true,true,true,true,true,true,true,true,true,true,false,false,false,false,false,false,false,false,false,false,false,false,false,false,false,false,false,false,false,false,false,false,false,false,false,false,false,false,false,false,false,false,false,false,false,false,false,false,false,false,false,false,false,false,false,false,false,false,false,false,false,false,false,false,false,false,false,false,false,false,false,false,false,false,false,false,false,false,false,false,false,false,false,false,false,false,false,false],"id":125,"left_children":[1,3,5,7,9,11,13,-1,-1,15,17,19,21,23,25,27,29,31,33,35,37,39,41,43,45,47,49,51,53,55,57,59,61,63,65,-1,-1,67,69,71,73,-1,75,77,79,81,83,85,87,89,91,93,95,-1,97,99,101,103,105,107,109,111,113,115,117,119,121,123,125,127,129,-1,-1,131,133,135,137,139,141,143,145,147,149,151,153,155,157,159,161,163,165,167,169,-1,-1,-1,-1,-1,-1,-1,-1,-1,-1,-1,-1,-1,-1,-1,-1,-1,-1,-1,-1,-1,-1,-1,-1,-1,-1,-1,-1,-1,-1,-1,-1,-1,-1,-1,-1,-1,-1,-1,-1,-1,-1,-1,-1,-1,-1,-1,-1,-1,-1,-1,-1,-1,-1,-1,-1,-1,-1,-1,-1,-1,-1,-1,-1,-1,-1,-1,-1,-1,-1,-1,-1,-1,-1,-1,-1,-1,-1],"loss_changes":[4.1222107E2,7.9736496E1,1.1045795E2,1.6205383E1,4.658263E1,8.880971E1,3.4264404E1,0E0,0E0,1.4077616E1,2.6134007E1,1.742741E2,9.570868E1,2.3819828E0,1.9498962E1,1.4476825E0,3.568884E0,7.4578476E0,7.373455E0,4.9881607E1,2.4939491E1,8.5121315E1,8.591502E2,2.3016987E0,3.4920645E0,3.1975739E1,1.2732941E1,1.2151083E0,2.1079206E-1,7.57658E-1,3.673233E0,1.963366E0,1.0851463E1,8.985729E0,2.1754642E1,0E0,0E0,4.92099E0,3.0304996E1,3.1464249E1,8.003157E1,0E0,3.6668285E1,1.2358537E0,1.1351156E0,1.0235204E0,9.229563E0,6.0098906E0,2.9262794E1,2.492364E0,1.2046082E1,8.67396E-1,2.8954415E0,0E0,7.389307E-3,1.1339331E-1,2.167449E-1,2.0782404E0,3.4139795E0,1.0341793E-2,1.1873035E0,9.235771E0,6.959384E0,7.9667816E0,1.7045183E1,1.1631716E1,6.991746E0,4.2914658E0,4.466306E0,2.412171E0,2.3087275E1,0E0,0E0,4.1585646E0,1.4689862E2,4.6197784E1,6.3510757E1,2.943654E-1,8.337207E-1,1.9070377E0,6.9999886E-1,7.5411963E-1,6.1137587E-1,5.8784795E-1,4.2915413E1,3.976273E0,1.1371052E1,2.643259E1,1.1867743E2,2.705225E0,1.4694417E-1,1.8637032E1,2.0140442E1,0E0,0E0,0E0,0E0,0E0,0E0,0E0,0E0,0E0,0E0,0E0,0E0,0E0,0E0,0E0,0E0,0E0,0E0,0E0,0E0,0E0,0E0,0E0,0E0,0E0,0E0,0E0,0E0,0E0,0E0,0E0,0E0,0E0,0E0,0E0,0E0,0E0,0E0,0E0,0E0,0E0,0E0,0E0,0E0,0E0,0E0,0E0,0E0,0E0,0E0,0E0,0E0,0E0,0E0,0E0,0E0,0E0,0E0,0E0,0E0,0E0,0E0,0E0,0E0,0E0,0E0,0E0,0E0,0E0,0E0,0E0,0E0,0E0,0E0,0E0,0E0,0E0,0E0],"parents":[2147483647,0,0,1,1,2,2,3,3,4,4,5,5,6,6,9,9,10,10,11,11,12,12,13,13,14,14,15,15,16,16,17,17,18,18,19,19,20,20,21,21,22,22,23,23,24,24,25,25,26,26,27,27,28,28,29,29,30,30,31,31,32,32,33,33,34,34,37,37,38,38,39,39,40,40,42,42,43,43,44,44,45,45,46,46,47,47,48,48,49,49,50,50,51,51,52,52,54,54,55,55,56,56,57,57,58,58,59,59,60,60,61,61,62,62,63,63,64,64,65,65,66,66,67,67,68,68,69,69,70,70,73,73,74,74,75,75,76,76,77,77,78,78,79,79,80,80,81,81,82,82,83,83,84,84,85,85,86,86,87,87,88,88,89,89,90,90,91,91,92,92],"right_children":[2,4,6,8,10,12,14,-1,-1,16,18,20,22,24,26,28,30,32,34,36,38,40,42,44,46,48,50,52,54,56,58,60,62,64,66,-1,-1,68,70,72,74,-1,76,78,80,82,84,86,88,90,92,94,96,-1,98,100,102,104,106,108,110,112,114,116,118,120,122,124,126,128,130,-1,-1,132,134,136,138,140,142,144,146,148,150,152,154,156,158,160,162,164,166,168,170,-1,-1,-1,-1,-1,-1,-1,-1,-1,-1,-1,-1,-1,-1,-1,-1,-1,-1,-1,-1,-1,-1,-1,-1,-1,-1,-1,-1,-1,-1,-1,-1,-1,-1,-1,-1,-1,-1,-1,-1,-1,-1,-1,-1,-1,-1,-1,-1,-1,-1,-1,-1,-1,-1,-1,-1,-1,-1,-1,-1,-1,-1,-1,-1,-1,-1,-1,-1,-1,-1,-1,-1,-1,-1,-1,-1,-1,-1],"split_conditions":[6.621175E-1,2.7272727E-2,7.4137926E-2,5.5555556E-2,6.572582E-1,1.6666667E-1,5.3197986E-1,-2.1759411E-3,-6.543173E-2,3.989272E-1,1.4482759E-1,2.7272727E-2,8.5870504E-1,9.212121E-1,5.5725604E-2,3.9022523E-1,3.9791144E-2,1.6666667E-1,8.5862064E-1,8.39857E-1,5.318799E-1,7.703592E-1,2.7272727E-2,1.4575082E-1,6.893617E-1,8.2218254E-1,5.5555556E-2,3.8253418E-1,3.9342475E-1,3.888889E-1,6.430696E-1,5.5555556E-2,1.639359E-1,2.777778E-1,8.8980913E-1,-4.4246543E-2,-2.503314E-1,9.1460705E-1,8.7090075E-1,5.272727E-1,8.2218254E-1,4.3810648E-1,3.888889E-1,1.48936175E-2,5.4792248E-2,1.6666667E-1,9.345995E-1,4.0689656E-1,1.5862069E-1,8.0838656E-1,7.554066E-1,6.0824133E-2,3.8608843E-1,-3.4516777E-3,3.2413793E-1,5.3245944E-1,6.3902617E-1,2.7021277E-1,3.3636364E-1,6.724138E-2,1.2531509E-1,1.3793103E-1,1.814008E-1,3.9234042E-1,7.008511E-1,6.7987037E-1,9.277998E-1,7.6291186E-1,5.272727E-1,7.687444E-1,5.272727E-1,1.23112425E-1,-7.993447E-4,2.7272727E-2,8.349742E-1,6.545454E-1,1.8181819E-1,8.657501E-1,9.859468E-1,7.738564E-1,7.684338E-1,8.074397E-1,3.5106385E-1,1.6551724E-1,3.3103448E-1,9.9787235E-1,2.4576882E-2,8.349742E-1,2.086207E-1,7.510687E-1,8.3943033E-1,1.6034484E-1,8.349742E-1,1.2729829E-3,-4.8242058E-4,7.8866985E-3,-8.301983E-4,-6.131484E-3,-9.841694E-3,1.2900746E-2,5.272598E-3,2.8550973E-2,1.046292E-2,7.518406E-4,3.6395066E-3,3.130745E-2,6.6047963E-3,-2.4468554E-3,-1.5012835E-3,-1.19949365E-2,-5.693176E-3,-2.114313E-2,3.2987785E-2,6.4973324E-3,-1.2102325E-2,-1.8839039E-3,-4.938102E-3,-3.7420841E-3,3.1157013E-3,-5.167355E-3,2.9606627E-2,-2.4792956E-2,-7.899902E-4,2.1968706E-2,8.2332164E-2,-8.033678E-3,4.545853E-2,4.0170263E-2,1.0938007E-2,-8.786669E-2,2.1012835E-2,-3.4968782E-2,-1.00321425E-2,7.986433E-2,-2.2528352E-2,7.817843E-2,1.0347034E-2,-6.629755E-2,9.741961E-2,1.9850405E-2,9.6661765E-3,4.9255956E-3,1.28019E-2,3.6297296E-3,-2.1334857E-4,2.2154178E-3,3.9356207E-3,2.5140627E-3,1.1948616E-2,-2.7871972E-3,2.5517324E-3,1.0914985E-2,3.738018E-3,4.839615E-3,7.644296E-2,-6.126471E-4,1.402486E-2,5.8070455E-2,8.562153E-3,4.987801E-2,-1.4889778E-2,1.3463494E-1,2.371313E-2,1.4488456E-2,-1.6210182E-2,2.201551E-3,1.3694833E-2,2.4479639E-2,3.8359542E-3,9.748123E-3,6.159655E-3],"split_indices":[1,2,3,4,1,4,9,0,0,1,3,2,1,2,5,1,5,4,3,1,9,1,2,5,10,1,4,1,1,4,1,4,5,4,5,0,0,1,1,2,1,0,4,10,9,4,1,3,3,1,1,1,1,0,3,1,1,10,2,3,5,3,5,10,10,5,5,1,2,1,2,0,0,2,1,2,2,1,1,1,1,1,10,3,3,10,5,1,3,1,1,3,1,0,0,0,0,0,0,0,0,0,0,0,0,0,0,0,0,0,0,0,0,0,0,0,0,0,0,0,0,0,0,0,0,0,0,0,0,0,0,0,0,0,0,0,0,0,0,0,0,0,0,0,0,0,0,0,0,0,0,0,0,0,0,0,0,0,0,0,0,0,0,0,0,0,0,0,0,0,0],"split_type":[0,0,0,0,0,0,0,0,0,0,0,0,0,0,0,0,0,0,0,0,0,0,0,0,0,0,0,0,0,0,0,0,0,0,0,0,0,0,0,0,0,0,0,0,0,0,0,0,0,0,0,0,0,0,0,0,0,0,0,0,0,0,0,0,0,0,0,0,0,0,0,0,0,0,0,0,0,0,0,0,0,0,0,0,0,0,0,0,0,0,0,0,0,0,0,0,0,0,0,0,0,0,0,0,0,0,0,0,0,0,0,0,0,0,0,0,0,0,0,0,0,0,0,0,0,0,0,0,0,0,0,0,0,0,0,0,0,0,0,0,0,0,0,0,0,0,0,0,0,0,0,0,0,0,0,0,0,0,0,0,0,0,0,0,0,0,0,0,0,0,0],"sum_hessian":[7.981E3,3.776E3,4.205E3,1.1E1,3.765E3,9.4E1,4.111E3,2E0,9E0,1.584E3,2.181E3,2.4E1,7E1,8.62E2,3.249E3,9.64E2,6.2E2,1.71E2,2.01E3,2E0,2.2E1,4.8E1,2.2E1,7.46E2,1.16E2,1.12E2,3.137E3,9.48E2,1.6E1,9E0,6.11E2,8E1,9.1E1,1.963E3,4.7E1,1E0,1E0,5E0,1.7E1,5E0,4.3E1,2E0,2E1,6.2E1,6.84E2,4.9E1,6.7E1,5.7E1,5.5E1,1.5E1,3.122E3,8.85E2,6.3E1,8E0,8E0,6E0,3E0,5.21E2,9E1,2.9E1,5.1E1,5.6E1,3.5E1,1.38E3,5.83E2,2E1,2.7E1,3E0,2E0,1.4E1,3E0,4E0,1E0,2E1,2.3E1,1.6E1,4E0,7E0,5.5E1,2.06E2,4.78E2,1.4E1,3.5E1,4.8E1,1.9E1,4.5E1,1.2E1,1.3E1,4.2E1,1.3E1,2E0,4.11E2,2.711E3,1.32E2,7.53E2,2.5E1,3.8E1,4E0,4E0,4E0,2E0,2E0,1E0,1.35E2,3.86E2,2E0,8.8E1,1.2E1,1.7E1,2.2E1,2.9E1,5.5E1,1E0,1.2E1,2.3E1,6.27E2,7.53E2,3.15E2,2.68E2,5E0,1.5E1,6E0,2.1E1,1E0,2E0,1E0,1E0,1E0,1.3E1,2E0,1E0,3E0,1.7E1,1.4E1,9E0,8E0,8E0,3E0,1E0,3E0,4E0,4.9E1,6E0,1.01E2,1.05E2,1.34E2,3.44E2,8E0,6E0,1.4E1,2.1E1,5E0,4.3E1,1.5E1,4E0,3.6E1,9E0,2E0,1E1,3E0,1E1,4E0,3.8E1,1E0,1.2E1,1E0,1E0,1.8E1,3.93E2,1.724E3,9.87E2],"tree_param":{"num_deleted":"0","num_feature":"12","num_nodes":"171","size_leaf_vector":"0"}},{"base_weights":[1.7221852E-1,8.589683E-1,1.5855685E-1,1.017294E0,-4.111521E-1,-2.2758292E-2,1.7875417E-1,7.300614E-1,1.7797611E0,-1.1340047E0,6.241585E-1,6.402516E-2,-9.63753E-2,3.0018577E-2,2.0409454E-1,6.5830725E-1,1.9643149E0,2.086055E0,7.8483266E-1,-3.894197E-2,-2.643909E0,3.5549948E-1,9.066937E-1,-3.495937E-3,1.3741629E-1,-1.143003E-1,-7.1894474E-2,-5.9838397E-3,8.1608295E-2,2.525898E-1,1.5985967E-1,4.752924E-2,8.200607E-1,3.044598E0,1.0073195E0,5.5952725E0,1.8888849E0,-4.282367E-2,8.875751E-1,3.8608345E-1,-8.28801E-1,6.1800297E-2,1.2538248E0,-2.107976E-2,1.6354E-2,5.267501E-1,1.2934943E-1,-2.910861E-1,-1.1010679E-1,-5.214814E-3,-8.911561E-2,-2.1976534E-2,1.7711377E-2,-4.192484E-1,8.317761E-2,7.041995E-1,2.454101E-1,2.088588E-1,1.3290337E-1,4.301013E-1,-1.21626906E-1,1.3121818E-1,9.1264683E-1,1.7141069E0,3.5103223E0,2.6040288E-2,-2.545831E-2,3.9961465E-2,-3.0292192E-2,8.0109465E-1,-7.436309E-2,2.326658E-1,1.0983134E-1,-7.800147E-1,-1.14944324E-1,-8.925874E-2,-1.2166341E-1,-6.700473E-2,9.2504174E-1,-1.09624065E-1,-8.142923E-2,-2.7302463E-2,-8.607384E-3,1.06845826E-1,8.989518E-3,1.8117623E-1,7.5394556E-2,1.0384454E0,3.5880026E-1,2.0074737E-1,3.1421453E-1,8.7906575E-1,2.0431577E-1,9.5507205E-2,2.1499893E-1,2.863083E-1,8.8697284E-1,-1.2162179E-1,2.0764874E-1,1.1218271E0,4.8314366E-1,1.7971414E0,9.8204195E-1,7.418148E-2,4.680142E-3,-2.7768046E-2,6.0491815E-2,2.7995348E-2,1.3448124E-1,-1.3303361E-3,-1.3314494E-1,1.7307366E-1,3.3349508E-1,4.1054428E-2,1.4911295E-1,-1.4200726E-1,-7.345915E-2,-1.850527E-1,-1.0911905E-1,8.855829E-2,-8.8261485E-2,-8.816828E-2,-1.7904915E-1,-9.5536545E-2,-7.134562E-2,-4.2769713E-3,-3.0888854E-2,1.0969816E-2,-3.1255625E-2,4.0683087E-2,3.001108E-1,1.9480892E-2,-1.4233673E-2,-4.781518E-2,2.791974E-1,-1.2352856E-1,8.135632E-2,3.4729627E-1,2.4343953E0,1.558893E-1,6.9173527E-1,2.3239407E-1,-3.5187647E-2,1.8955033E-1,3.4974942E-1,4.5466632E-1,1.134592E0,2.0887873E-1,-3.349879E-1,1.3007183E-1,3.1291965E-2,1.8331683E-1,4.474079E-1],"categories":[],"categories_nodes":[],"categories_segments":[],"categories_sizes":[],"default_left":[true,true,true,true,true,true,true,true,true,true,true,true,true,true,true,true,true,true,true,true,false,false,true,true,true,true,true,true,true,true,true,true,true,false,false,false,true,false,false,false,false,false,false,true,true,true,true,true,true,true,true,true,true,false,true,true,true,true,true,true,false,true,true,true,false,true,true,true,true,false,false,true,true,false,false,true,true,true,false,true,true,true,true,true,true,true,true,true,true,true,true,true,true,true,true,false,false,false,false,false,false,false,false,false,false,false,false,false,false,false,false,false,false,false,false,false,false,false,false,false,false,false,false,false,false,false,false,false,false,false,false,false,false,false,false,false,false,false,false,false,false,false,false,false,false,false,false,false,false,false,false,false,false],"id":126,"left_children":[1,3,5,7,9,11,13,15,17,19,21,23,25,27,29,31,33,35,37,39,-1,-1,41,43,45,47,49,51,53,55,57,59,61,-1,-1,-1,63,-1,-1,-1,-1,-1,-1,65,67,69,71,73,75,77,79,81,83,-1,85,87,89,91,93,95,-1,97,99,101,-1,103,105,107,109,-1,-1,111,113,-1,-1,115,117,119,-1,121,123,125,127,129,131,133,135,137,139,141,143,145,147,149,151,-1,-1,-1,-1,-1,-1,-1,-1,-1,-1,-1,-1,-1,-1,-1,-1,-1,-1,-1,-1,-1,-1,-1,-1,-1,-1,-1,-1,-1,-1,-1,-1,-1,-1,-1,-1,-1,-1,-1,-1,-1,-1,-1,-1,-1,-1,-1,-1,-1,-1,-1,-1,-1,-1,-1,-1,-1,-1],"loss_changes":[7.422171E1,3.1183472E1,2.8433548E1,2.9607681E1,1.3215275E1,4.975088E0,2.6322449E1,8.417187E0,1.0790115E1,1.7013172E1,4.311602E-1,1.7728184E0,1.7949271E-1,1.8907905E0,1.2783798E1,9.393139E0,4.4333687E0,1.5973145E1,8.183999E-1,2.239232E0,0E0,0E0,9.33064E-1,6.521979E-2,5.060272E-1,1.6324449E-1,2.0442808E-1,2.2730826E-1,3.356464E-1,9.157837E0,4.109955E0,1.3377134E0,4.749737E0,0E0,0E0,0E0,5.6650314E0,0E0,0E0,0E0,0E0,0E0,0E0,2.0707E-2,9.6713066E-2,5.7996166E-1,3.2604384E-1,4.1665834E-1,5.0551414E-2,2.154376E0,1.6734838E-2,2.492389E-2,1.8564446E-1,0E0,3.1009746E-1,4.974043E0,8.583176E0,3.2962341E0,6.175915E0,3.1465685E-1,0E0,1.9001536E-1,5.7560043E0,9.117584E-1,0E0,7.328672E-3,1.8225078E-2,6.2404126E-2,8.540151E-2,0E0,0E0,1.3175464E-1,3.7978387E-1,0E0,0E0,6.539869E-2,1.09407425E-1,1.1944175E-1,0E0,4.6534896E-2,1.0330558E-2,2.0539373E-2,4.6220634E-2,2.6385725E-1,5.3850066E-2,6.886175E-1,4.6210146E-1,2.1225931E1,1.4607134E0,1.27011795E1,4.853462E0,6.0058594E-1,2.7292595E0,3.0711937E0,4.604927E0,0E0,0E0,0E0,0E0,0E0,0E0,0E0,0E0,0E0,0E0,0E0,0E0,0E0,0E0,0E0,0E0,0E0,0E0,0E0,0E0,0E0,0E0,0E0,0E0,0E0,0E0,0E0,0E0,0E0,0E0,0E0,0E0,0E0,0E0,0E0,0E0,0E0,0E0,0E0,0E0,0E0,0E0,0E0,0E0,0E0,0E0,0E0,0E0,0E0,0E0,0E0,0E0,0E0,0E0,0E0,0E0,0E0,0E0],"parents":[2147483647,0,0,1,1,2,2,3,3,4,4,5,5,6,6,7,7,8,8,9,9,10,10,11,11,12,12,13,13,14,14,15,15,16,16,17,17,18,18,19,19,22,22,23,23,24,24,25,25,26,26,27,27,28,28,29,29,30,30,31,31,32,32,36,36,43,43,44,44,45,45,46,46,47,47,48,48,49,49,50,50,51,51,52,52,54,54,55,55,56,56,57,57,58,58,59,59,61,61,62,62,63,63,65,65,66,66,67,67,68,68,71,71,72,72,75,75,76,76,77,77,79,79,80,80,81,81,82,82,83,83,84,84,85,85,86,86,87,87,88,88,89,89,90,90,91,91,92,92,93,93,94,94],"right_children":[2,4,6,8,10,12,14,16,18,20,22,24,26,28,30,32,34,36,38,40,-1,-1,42,44,46,48,50,52,54,56,58,60,62,-1,-1,-1,64,-1,-1,-1,-1,-1,-1,66,68,70,72,74,76,78,80,82,84,-1,86,88,90,92,94,96,-1,98,100,102,-1,104,106,108,110,-1,-1,112,114,-1,-1,116,118,120,-1,122,124,126,128,130,132,134,136,138,140,142,144,146,148,150,152,-1,-1,-1,-1,-1,-1,-1,-1,-1,-1,-1,-1,-1,-1,-1,-1,-1,-1,-1,-1,-1,-1,-1,-1,-1,-1,-1,-1,-1,-1,-1,-1,-1,-1,-1,-1,-1,-1,-1,-1,-1,-1,-1,-1,-1,-1,-1,-1,-1,-1,-1,-1,-1,-1,-1,-1,-1,-1],"split_conditions":[6.724138E-2,3.888889E-1,5.5555556E-2,2.777778E-1,6.893617E-1,9.8790765E-1,7.920965E-1,1.3137093E-1,6.893617E-1,5E-1,5E-1,5.4792248E-2,6.4742017E-1,3.9510223E-1,6.0565114E-1,5.5555556E-2,1.6666667E-1,9.689189E-1,7.920965E-1,5E-1,-5.287818E-2,7.1099894E-3,5.629188E-1,1.3484347E-1,1.48936175E-2,1.15517244E-1,2.689655E-1,1.3484347E-1,9.3103446E-2,9.6551724E-2,3.5106385E-1,8.231776E-1,3.9510223E-1,6.089196E-2,2.0146389E-2,1.1190545E-1,3.5106385E-1,-8.5647334E-4,1.7751502E-2,7.721669E-3,-1.657602E-2,1.2360059E-3,2.5076495E-2,1.5517241E-1,5.4137933E-1,2.775862E-1,2.3620689E-1,2.1007371E-1,3.1551725E-1,2.6206896E-1,3.948276E-1,6.103448E-1,1.3390663E-1,-8.384968E-3,1.9137931E-1,7.008511E-1,3.1941032E-1,7.4137926E-2,6.189655E-1,3.9510223E-1,-2.432538E-3,1.6878912E-2,5E-1,5E-1,7.020645E-2,1.5446809E-1,8.7068963E-1,5.4084355E-1,5.4084355E-1,1.6021892E-2,-1.4872617E-3,8.110852E-1,3.327586E-1,-1.5600294E-2,-2.2988864E-3,1.724138E-1,3.2931036E-1,1.48936175E-2,1.8500835E-2,3.7931034E-1,3.9234042E-1,2.1896552E-1,7.2727275E-1,9.9787235E-1,5.206896E-1,1.8085107E-1,1.3390663E-1,8.275862E-2,3.0221128E-1,2.923833E-1,1.6666667E-1,3.3333334E-1,9.603448E-1,4.275862E-1,5E-1,5.7261656E-3,1.7739456E-2,-2.4324358E-3,4.1529746E-3,2.2436542E-2,9.662873E-3,3.5942826E-2,1.9640839E-2,1.4836296E-3,9.360284E-5,-5.553609E-4,1.2098362E-3,5.5990694E-4,2.6896247E-3,-2.6606722E-5,-2.6628987E-3,3.4614732E-3,6.6699013E-3,8.2108856E-4,2.982259E-3,-2.8401453E-3,-1.4691829E-3,-3.7010538E-3,-2.182381E-3,1.7711656E-3,-1.7652296E-3,-1.7633656E-3,-3.5809828E-3,-1.9107308E-3,-1.4269124E-3,-8.5539425E-5,-6.1777706E-4,2.1939632E-4,-6.251125E-4,8.136617E-4,6.0022157E-3,3.896178E-4,-2.8467344E-4,-9.563036E-4,5.583948E-3,-2.470571E-3,1.6271262E-3,6.9459253E-3,4.8687905E-2,3.117786E-3,1.3834705E-2,4.6478813E-3,-7.037529E-4,3.7910065E-3,6.9949883E-3,9.0933265E-3,2.269184E-2,4.1775745E-3,-6.699758E-3,2.6014366E-3,6.258393E-4,3.6663364E-3,8.948158E-3],"split_indices":[3,4,4,4,10,6,6,7,10,4,4,9,11,6,11,4,4,6,6,0,0,0,6,6,10,3,3,6,3,3,10,6,6,0,0,0,10,0,0,0,0,0,0,3,3,3,3,11,3,3,3,3,11,0,3,10,11,3,3,6,0,6,0,0,0,10,3,6,6,0,0,6,3,0,0,3,3,10,0,3,10,3,11,10,3,10,11,3,11,11,4,4,3,3,4,0,0,0,0,0,0,0,0,0,0,0,0,0,0,0,0,0,0,0,0,0,0,0,0,0,0,0,0,0,0,0,0,0,0,0,0,0,0,0,0,0,0,0,0,0,0,0,0,0,0,0,0,0,0,0,0,0,0],"split_type":[0,0,0,0,0,0,0,0,0,0,0,0,0,0,0,0,0,0,0,0,0,0,0,0,0,0,0,0,0,0,0,0,0,0,0,0,0,0,0,0,0,0,0,0,0,0,0,0,0,0,0,0,0,0,0,0,0,0,0,0,0,0,0,0,0,0,0,0,0,0,0,0,0,0,0,0,0,0,0,0,0,0,0,0,0,0,0,0,0,0,0,0,0,0,0,0,0,0,0,0,0,0,0,0,0,0,0,0,0,0,0,0,0,0,0,0,0,0,0,0,0,0,0,0,0,0,0,0,0,0,0,0,0,0,0,0,0,0,0,0,0,0,0,0,0,0,0,0,0,0,0,0,0],"sum_hessian":[7.917E3,1.54E2,7.763E3,1.37E2,1.7E1,7.78E2,6.985E3,1E2,3.7E1,1E1,7E0,3.57E2,4.21E2,1.017E3,5.968E3,9.5E1,5E0,2.8E1,9E0,6E0,4E0,4E0,3E0,1.86E2,1.71E2,2.42E2,1.79E2,5.99E2,4.18E2,2.846E3,3.122E3,2E1,7.5E1,2E0,3E0,1E0,2.7E1,1E0,8E0,4E0,2E0,1E0,2E0,9.9E1,8.7E1,3E0,1.68E2,5E0,2.37E2,3.7E1,1.42E2,3.58E2,2.41E2,1E0,4.17E2,4.4E1,2.802E3,1.107E3,2.015E3,6E0,1.4E1,9E0,6.6E1,2.5E1,2E0,8E0,9.1E1,5.8E1,2.9E1,2E0,1E0,2.6E1,1.42E2,1E0,4E0,8.6E1,1.51E2,3.5E1,2E0,3.7E1,1.05E2,2.55E2,1.03E2,2.1E1,2.2E2,3E1,3.87E2,2.2E1,2.2E1,1.7E3,1.102E3,7E0,1.1E3,1.385E3,6.3E2,5E0,1E0,2E0,7E0,4.4E1,2.2E1,2.2E1,3E0,2E0,6E0,8.9E1,2E0,5.2E1,6E0,2.3E1,6E0,1.7E1,9E0,5.2E1,9E1,1.9E1,6.7E1,2.4E1,1.27E2,4E0,3.1E1,2.9E1,8E0,4.2E1,6.3E1,3.5E1,2.2E2,5.5E1,4.8E1,1.6E1,5E0,1.52E2,6.8E1,9E0,2.1E1,1.1E1,3.76E2,1.5E1,7E0,1.4E1,8E0,1.499E3,2.01E2,2.45E2,8.57E2,3E0,4E0,1.091E3,9E0,9E2,4.85E2,5.55E2,7.5E1],"tree_param":{"num_deleted":"0","num_feature":"12","num_nodes":"153","size_leaf_vector":"0"}},{"base_weights":[1.6293046E-1,-8.428924E-2,3.8798887E-1,6.1903626E-2,-1.8675688E-1,1.4109353E0,3.6740178E-1,-1.1673218E-2,1.700694E-1,-2.1442332E0,-1.7394735E-1,4.5683317E0,9.467544E-1,1.6268986E-1,4.1921866E-1,-8.058888E-3,-4.6032295E-1,1.2528004E-1,2.6883873E-1,-6.405634E-1,-1.6006078E-1,1.7972469E0,7.0511103E0,-4.1165423E-1,1.596303E0,2.2265941E-1,1.3538677E-1,9.7100866E-1,4.0038973E-1,6.6941656E-2,-1.4991248E-2,1.5789886E-1,-9.7653456E-2,8.6479805E-2,3.2795718E-1,-5.419982E-1,-8.718579E-1,-2.4289516E-1,-1.2735917E-1,2.2235637E0,-2.6937341E-2,9.036007E0,3.2018223E0,1.8562181E0,-5.4155487E-1,5.2561026E0,3.3893287E-1,1.9550274E-1,8.0030847E-1,-1.0202418E-2,1.5375409E-1,3.7169313E-1,1.5004907E0,2.1697311E-1,4.2728806E-1,1.1929038E-1,4.237147E-2,-2.0557709E-2,6.070619E-2,1.3913189E-1,5.0227135E-1,3.9920062E-1,-1.0951061E-1,1.2336223E-1,-3.630018E-2,1.3483183E0,3.0353475E-1,-4.3398136E-1,-1.3515225E-1,-5.748252E-2,-1.7701414E-1,8.0891356E-2,5.5113516E0,-2.0010507E0,-1.8594621E-1,9.0869E0,3.0520182E0,-1.1397016E0,7.703448E-1,4.882874E-1,1.8094108E-1,3.237516E0,1.6085741E-1,8.094435E-2,-3.904475E-1,1.8091778E-1,9.061719E-2,2.9725766E-1,6.865238E-1,3.6766827E0,1.2164354E0,3.0517393E-1,5.628119E-2,4.7901198E-1,3.381127E-1,9.6423715E-2,3.149851E-1,9.364864E-2,1.9177055E-2,-1.4010331E-2,-1.7667182E-1,3.553124E-1,-7.676285E-2,2.4630234E-1,8.743382E-2,4.2171633E-1,8.424529E-1,-1.3836792E-1,3.303618E-2,8.9857034E-2,3.683027E-1,-1.2767507E-1,1.17834024E-1,6.7805654E-1,1.5325439E0,3.3399227E-1,7.312821E-2,-1.6688195E-1,-5.800387E-1,5.2064615E-1,-1.566771E-1,-1.5070823E-1,4.6278294E-2,-3.172452E-1,-1.05314955E-1,3.167668E-2,-6.021953E-1,1.2357222E1,6.865381E0,-6.0485774E-1,-1.4000508E0,3.663244E0,3.7898314E-1,3.9936197E-1,7.680803E-1,1.5166809E-1,3.0090716E-1,5.6588497E0,-0E0,5.2002466E-1,9.523713E-2,6.4459905E-2,4.1177255E-1,1.13607734E-1,-5.5805016E-1,1.0528434E-1,2.0658487E-1,1.2253211E-1,-7.7044524E-2,8.478665E-1,2.3030865E-1,2.3652215E0,4.096652E0,-1.4605604E-1,1.9768802E0,5.182012E-1,2.4927698E-1,5.24954E-1,-8.57165E-3,3.9240265E-1,6.834467E-1,6.701987E-1,2.9602343E-1],"categories":[],"categories_nodes":[],"categories_segments":[],"categories_sizes":[],"default_left":[true,true,true,true,true,true,true,true,true,false,true,true,true,true,true,true,false,true,true,true,true,true,true,true,true,true,true,true,true,true,true,true,true,true,true,false,false,true,true,false,false,false,true,false,true,true,true,true,true,true,true,true,true,true,true,true,true,true,true,true,true,false,true,true,true,true,true,true,true,true,true,false,false,false,true,true,false,true,true,true,true,true,true,true,true,true,true,true,false,true,true,true,true,true,true,false,false,false,false,false,false,false,false,false,false,false,false,false,false,false,false,false,false,false,false,false,false,false,false,false,false,false,false,false,false,false,false,false,false,false,false,false,false,false,false,false,false,false,false,false,false,false,false,false,false,false,false,false,false,false,false,false,false,false,false,false,false,false,false,false,false,false,false],"id":127,"left_children":[1,3,5,7,9,11,13,15,17,-1,19,21,23,25,27,29,-1,31,33,35,37,39,41,43,45,47,49,51,53,55,57,59,61,63,65,-1,-1,67,69,-1,-1,-1,71,-1,73,75,77,79,81,83,85,87,89,91,93,95,97,99,101,103,105,-1,107,109,111,113,115,117,119,121,123,-1,-1,-1,125,127,-1,129,131,133,135,137,139,141,143,145,147,149,-1,151,153,155,157,159,161,-1,-1,-1,-1,-1,-1,-1,-1,-1,-1,-1,-1,-1,-1,-1,-1,-1,-1,-1,-1,-1,-1,-1,-1,-1,-1,-1,-1,-1,-1,-1,-1,-1,-1,-1,-1,-1,-1,-1,-1,-1,-1,-1,-1,-1,-1,-1,-1,-1,-1,-1,-1,-1,-1,-1,-1,-1,-1,-1,-1,-1,-1,-1,-1,-1,-1,-1,-1],"loss_changes":[4.3891324E2,5.632059E1,8.676343E1,1.2333284E1,5.5265182E1,1.1768164E2,4.2911865E1,1.4877083E0,2.7583542E0,0E0,1.41859665E1,6.674202E1,6.3177284E1,1.3247433E0,3.341266E1,4.7550365E-1,0E0,3.1498551E0,2.090478E0,1.2661037E0,5.763218E0,4.1990414E0,3.0927612E1,7.190463E0,2.2174335E2,3.939043E0,1.5089722E0,3.352977E1,1.5374115E1,9.547621E-2,3.530894E-1,2.406189E0,3.364308E-1,2.2160959E-1,3.511465E0,0E0,0E0,1.2393864E1,5.303095E0,0E0,0E0,0E0,1.659095E1,0E0,1.1436006E1,9.4715E1,2.3464653E1,1.0026903E0,1.7440792E1,2.2099726E0,8.4874725E-1,1.0974574E0,3.326178E1,5.663107E0,1.2500305E1,9.2892915E-2,6.122361E-2,7.950853E-1,2.3350303E0,1.9734058E0,3.932948E-1,0E0,2.265284E-1,2.8881615E-1,1.6477785E-1,3.3555508E-2,9.9892426E-1,8.435646E0,5.475475E0,6.159181E0,8.974863E0,0E0,0E0,0E0,1.6752429E0,2.9180603E0,0E0,8.4941196E-1,3.1557682E1,1.6304255E-1,7.977376E-1,1.8242899E1,1.9468583E-1,2.643038E-1,1.0694253E0,6.664562E-1,8.135686E-1,1.4431677E0,0E0,1.649704E-1,5.227289E1,3.0220985E0,4.3350587E0,3.0408478E1,1.3915939E1,0E0,0E0,0E0,0E0,0E0,0E0,0E0,0E0,0E0,0E0,0E0,0E0,0E0,0E0,0E0,0E0,0E0,0E0,0E0,0E0,0E0,0E0,0E0,0E0,0E0,0E0,0E0,0E0,0E0,0E0,0E0,0E0,0E0,0E0,0E0,0E0,0E0,0E0,0E0,0E0,0E0,0E0,0E0,0E0,0E0,0E0,0E0,0E0,0E0,0E0,0E0,0E0,0E0,0E0,0E0,0E0,0E0,0E0,0E0,0E0,0E0,0E0,0E0,0E0,0E0,0E0,0E0,0E0],"parents":[2147483647,0,0,1,1,2,2,3,3,4,4,5,5,6,6,7,7,8,8,10,10,11,11,12,12,13,13,14,14,15,15,17,17,18,18,19,19,20,20,21,21,22,22,23,23,24,24,25,25,26,26,27,27,28,28,29,29,30,30,31,31,32,32,33,33,34,34,37,37,38,38,42,42,44,44,45,45,46,46,47,47,48,48,49,49,50,50,51,51,52,52,53,53,54,54,55,55,56,56,57,57,58,58,59,59,60,60,62,62,63,63,64,64,65,65,66,66,67,67,68,68,69,69,70,70,74,74,75,75,77,77,78,78,79,79,80,80,81,81,82,82,83,83,84,84,85,85,86,86,87,87,89,89,90,90,91,91,92,92,93,93,94,94],"right_children":[2,4,6,8,10,12,14,16,18,-1,20,22,24,26,28,30,-1,32,34,36,38,40,42,44,46,48,50,52,54,56,58,60,62,64,66,-1,-1,68,70,-1,-1,-1,72,-1,74,76,78,80,82,84,86,88,90,92,94,96,98,100,102,104,106,-1,108,110,112,114,116,118,120,122,124,-1,-1,-1,126,128,-1,130,132,134,136,138,140,142,144,146,148,150,-1,152,154,156,158,160,162,-1,-1,-1,-1,-1,-1,-1,-1,-1,-1,-1,-1,-1,-1,-1,-1,-1,-1,-1,-1,-1,-1,-1,-1,-1,-1,-1,-1,-1,-1,-1,-1,-1,-1,-1,-1,-1,-1,-1,-1,-1,-1,-1,-1,-1,-1,-1,-1,-1,-1,-1,-1,-1,-1,-1,-1,-1,-1,-1,-1,-1,-1,-1,-1,-1,-1,-1,-1],"split_conditions":[6.621175E-1,6.572582E-1,6.724138E-2,3.989272E-1,2.7272727E-2,7.876776E-1,9.8790765E-1,3.9342475E-1,6.341465E-1,-4.2884663E-2,7.4137926E-2,7.635859E-1,8.2218254E-1,3.1551725E-1,1.8427517E-2,4.0740848E-2,-9.206459E-3,6.324857E-1,9.689189E-1,6.545454E-1,3.0172414E-1,7.554066E-1,7.703592E-1,9.8790765E-1,8.349742E-1,3.051724E-1,1.4619164E-1,6.818182E-1,7.554066E-1,2.8103447E-1,3.8253418E-1,9.689189E-1,4.2424244E-1,6.965602E-1,3.3636364E-1,-1.0839964E-2,-1.7437158E-2,6.666666E-1,4.2413792E-1,4.447127E-2,-5.387468E-4,1.8072014E-1,7.7859855E-1,3.712436E-2,2.7272727E-2,5E-1,8.571358E-1,6.808764E-1,2.923833E-1,3.327586E-1,5.8854413E-1,8.76709E-1,7.7025306E-1,7.290039E-1,8.349742E-1,2.6551723E-1,2.0061906E-2,3.757258E-1,3.8608843E-1,4.3256068E-1,5.913793E-1,7.984012E-3,9.533169E-1,6.621622E-1,6.430696E-1,6.4103043E-1,6.5037763E-1,3.1941032E-1,7.5757575E-1,3.5344827E-1,5.206896E-1,1.6178271E-3,1.10227026E-1,-4.0021013E-2,7.958708E-1,2.7272727E-2,6.104036E-2,8.4844077E-1,8.76709E-1,7.764128E-1,9.212121E-1,9.3332297E-1,4.3030304E-1,9.8606896E-1,7.738564E-1,7.684338E-1,8.7786233E-1,7.6706135E-1,1.3730476E-2,7.290039E-1,8.2218254E-1,3.0172414E-1,4.2424244E-1,8.2218254E-1,2.1896552E-1,1.9284743E-3,6.299702E-3,1.8729728E-3,3.835411E-4,-2.8020662E-4,-3.5334362E-3,7.106248E-3,-1.535257E-3,4.926047E-3,1.7486764E-3,8.434326E-3,1.6849058E-2,-2.7673584E-3,6.607236E-4,1.7971407E-3,7.3660538E-3,-2.5535014E-3,2.3566803E-3,1.35611305E-2,3.0650876E-2,6.6798455E-3,1.4625641E-3,-3.337639E-3,-1.1600775E-2,1.0412923E-2,-3.133542E-3,-3.0141645E-3,9.2556584E-4,-6.3449037E-3,-2.1062992E-3,6.335336E-4,-1.2043906E-2,2.4714443E-1,1.3730761E-1,-1.2097155E-2,-2.8001014E-2,7.326488E-2,7.579663E-3,7.987239E-3,1.5361605E-2,3.0333616E-3,6.018143E-3,1.13176994E-1,-0E0,1.0400493E-2,1.9047426E-3,1.2891981E-3,8.235451E-3,2.2721547E-3,-1.1161003E-2,2.1056868E-3,4.131697E-3,2.4506422E-3,-1.5408904E-3,1.695733E-2,4.606173E-3,4.730443E-2,8.193304E-2,-2.9211207E-3,3.95376E-2,1.0364023E-2,4.9855397E-3,1.0499081E-2,-1.71433E-4,7.848053E-3,1.3668934E-2,1.3403974E-2,5.9204684E-3],"split_indices":[1,1,3,1,2,1,6,1,1,0,3,1,1,3,11,1,0,1,6,2,3,1,1,6,1,3,11,2,1,3,1,6,2,11,2,0,0,2,3,0,0,0,1,0,2,0,1,1,11,3,7,1,1,1,1,3,1,1,1,1,3,0,11,11,1,1,1,11,2,3,3,0,0,0,1,2,0,1,1,11,2,1,2,1,1,1,1,1,0,1,1,3,2,1,3,0,0,0,0,0,0,0,0,0,0,0,0,0,0,0,0,0,0,0,0,0,0,0,0,0,0,0,0,0,0,0,0,0,0,0,0,0,0,0,0,0,0,0,0,0,0,0,0,0,0,0,0,0,0,0,0,0,0,0,0,0,0,0,0,0,0,0,0],"split_type":[0,0,0,0,0,0,0,0,0,0,0,0,0,0,0,0,0,0,0,0,0,0,0,0,0,0,0,0,0,0,0,0,0,0,0,0,0,0,0,0,0,0,0,0,0,0,0,0,0,0,0,0,0,0,0,0,0,0,0,0,0,0,0,0,0,0,0,0,0,0,0,0,0,0,0,0,0,0,0,0,0,0,0,0,0,0,0,0,0,0,0,0,0,0,0,0,0,0,0,0,0,0,0,0,0,0,0,0,0,0,0,0,0,0,0,0,0,0,0,0,0,0,0,0,0,0,0,0,0,0,0,0,0,0,0,0,0,0,0,0,0,0,0,0,0,0,0,0,0,0,0,0,0,0,0,0,0,0,0,0,0,0,0],"sum_hessian":[7.888E3,3.759E3,4.129E3,1.549E3,2.21E3,8.1E1,4.048E3,9.22E2,6.27E2,1.4E1,2.196E3,1E1,7.1E1,8.18E2,3.23E3,9.15E2,7E0,4.32E2,1.95E2,6.3E1,2.133E3,5E0,5E0,2.3E1,4.8E1,2.55E2,5.63E2,1.06E2,3.124E3,7.7E1,8.38E2,3.77E2,5.5E1,4.8E1,1.47E2,4.5E1,1.8E1,6.03E2,1.53E3,4E0,1E0,3E0,2E0,1E0,2.2E1,1.2E1,3.6E1,2.44E2,1.1E1,6.3E1,5E2,5E1,5.6E1,4E2,2.724E3,2.4E1,5.3E1,7.81E2,5.7E1,3.58E2,1.9E1,1E0,5.4E1,3.7E1,1.1E1,3E0,1.44E2,2.17E2,3.86E2,6.36E2,8.94E2,1E0,1E0,4E0,1.8E1,4E0,8E0,8E0,2.8E1,1.1E1,2.33E2,2E0,9E0,5.1E1,1.2E1,3.49E2,1.51E2,4.1E1,9E0,6E0,5E1,2.58E2,1.42E2,1.723E3,1.001E3,2.2E1,2E0,1.6E1,3.7E1,7.5E2,3.1E1,1.8E1,3.9E1,1.16E2,2.42E2,1.6E1,3E0,4.5E1,9E0,3.3E1,4E0,7E0,4E0,1E0,2E0,1.27E2,1.7E1,7.7E1,1.4E2,1.2E1,3.74E2,3.35E2,3.01E2,3.02E2,5.92E2,1.2E1,6E0,1E0,3E0,3E0,5E0,3E0,2.5E1,9E0,2E0,1.88E2,4.5E1,1E0,1E0,1E0,8E0,4.9E1,2E0,3E0,9E0,8.9E1,2.6E2,1.27E2,2.4E1,4E0,3.7E1,2E0,4E0,1.8E1,3.2E1,5.3E1,2.05E2,1.7E1,1.25E2,1.211E3,5.12E2,1.12E2,8.89E2],"tree_param":{"num_deleted":"0","num_feature":"12","num_nodes":"163","size_leaf_vector":"0"}},{"base_weights":[1.6311513E-1,5.380579E-1,1.5081082E-1,4.7878274E-1,1.202905E0,3.5461124E-2,1.7356555E-1,1.4128176E0,4.3879005E-1,4.1531925E0,8.0473655E-1,-3.1201083E-3,8.761734E-2,2.0529516E-1,1.3090125E-1,7.073049E-1,1.8950403E0,5.8418936E-1,2.7820662E-1,5.4286895E0,1.8283775E0,1.2850791E0,4.6898773E-1,-1.710558E-2,1.5705472E-2,2.2814949E-1,7.490026E-2,3.649791E-1,1.9585826E-1,2.6583338E-1,1.23020545E-1,1.3814987E0,3.6257467E-1,5.4140157E-1,1.1153333E0,-8.029017E-2,3.3300793E-1,6.9861954E-1,1.6340245E0,7.521339E-1,2.036024E-1,-2.0934831E-2,1.0670214E-2,7.2806135E-2,2.6541671E-3,1.3853736E-1,4.1148967E-1,-1.3340639E-1,7.8892365E-2,1.4645562E-1,5.469511E-1,1.5296184E-1,2.3281212E-1,3.232358E-1,-1.8001205E-1,3.201357E-1,1.1820172E-1,-2.092402E-3,5.2526313E-1,5.5557007E-1,-7.23742E-1,1.03134215E-1,1.246723E0,1.8948932E-1,-1.5853556E-1,5.7405794E-1,2.078194E-1,7.967841E-2,9.463648E-1,8.989996E-1,4.2873088E-1,-0E0,3.8661182E-1,9.795855E-2,-2.2372914E-2,1.4243376E-1,3.940121E-3,-3.4310192E-2,9.069736E-2,8.1940405E-2,-4.9754577E-3,5.959447E-1,9.873252E-2,7.279973E-1,2.1439593E-1,-5.074726E-1,-6.3691232E-3,1.8988296E-1,6.478453E-2,-2.606505E-1,3.50543E-1,1.7762198E0,3.7826926E-1,-6.614394E-2,1.7116714E-1,3.5596904E-1,1.8251124E-1,4.392853E-1,7.8501016E-2,-9.936065E-2,-6.7814237E-1,2.0385742E-1,8.8605857E-1,7.571722E-2,1.3739735E-1,5.3063005E-1,1.2763052E0,-3.042585E-1,9.697739E-2,1.1659163E0,3.872341E-1,1.6764901E0,1.7397423E-1,-4.1905525E-3,7.895988E-3,8.3803214E-2,4.9829027E-1,2.7646723E-1,1.2472078E-2,-1.1117509E-2,-2.8794028E-2,-1.7821832E-2,4.065252E-2,1.4089897E-2,-5.2588135E-2,2.1825026E-1,6.754985E-2,2.2043277E-1,4.6936586E-2,9.511663E-3,-2.7620805E-2,2.7623472E-1,3.5503447E-2,9.09328E-1,5.239576E-1,2.9936758E-1,1.756642E-1,-4.770703E-2,1.8086569E-1,6.120003E-1,1.4267495E-1,2.0601684E-1,6.0534917E-2,-5.1297754E-1,1.4077847E-1,5.016581E-1,2.947693E-2,5.605967E-1,7.4204483E0,-3.432168E-1,4.435895E-1,3.4243333E-1,-1.4178048E-1,1.6066572E-1,3.535959E-1,2.9642117E-1,5.0930154E-1,1.7392202E-1,7.289456E-1,5.6463666E-3,5.324072E-1,1.9649415E-1,-1.9082534E-1,-2.2635077E-1,1.4655244E-2,-2.355185E-2,-1.1524476E0,7.011471E-1,1.0632557E-1,-1.6971034E-1,1.1479417E0,3.526627E-2,1.1807005E-1,1.9278798E-1,1.0447731E-1],"categories":[],"categories_nodes":[],"categories_segments":[],"categories_sizes":[],"default_left":[true,true,true,true,true,true,true,true,true,true,true,true,true,true,true,true,false,true,true,false,false,true,true,true,true,true,true,true,true,true,true,false,true,true,true,true,true,true,false,true,true,true,true,true,true,true,true,true,true,true,true,true,true,true,true,true,true,false,false,true,false,false,false,false,true,true,true,false,false,false,false,true,true,true,true,false,true,true,true,true,true,false,true,true,true,false,true,true,true,true,true,true,true,true,true,true,true,true,true,true,true,true,true,true,true,false,false,false,false,false,false,false,false,false,false,false,false,false,false,false,false,false,false,false,false,false,false,false,false,false,false,false,false,false,false,false,false,false,false,false,false,false,false,false,false,false,false,false,false,false,false,false,false,false,false,false,false,false,false,false,false,false,false,false,false,false,false,false,false,false,false,false,false,false,false],"id":128,"left_children":[1,3,5,7,9,11,13,15,17,19,21,23,25,27,29,31,-1,33,35,-1,-1,37,39,41,43,45,47,49,51,53,55,-1,57,59,61,63,65,67,-1,69,71,73,75,77,79,81,83,85,87,89,91,93,95,97,99,101,103,-1,-1,105,-1,-1,-1,-1,107,109,111,-1,-1,-1,-1,113,115,117,119,-1,121,123,125,127,129,-1,131,133,135,-1,137,139,141,143,145,147,149,151,153,155,157,159,161,163,165,167,169,171,173,-1,-1,-1,-1,-1,-1,-1,-1,-1,-1,-1,-1,-1,-1,-1,-1,-1,-1,-1,-1,-1,-1,-1,-1,-1,-1,-1,-1,-1,-1,-1,-1,-1,-1,-1,-1,-1,-1,-1,-1,-1,-1,-1,-1,-1,-1,-1,-1,-1,-1,-1,-1,-1,-1,-1,-1,-1,-1,-1,-1,-1,-1,-1,-1,-1,-1,-1,-1,-1,-1],"loss_changes":[3.6479813E1,9.688744E0,2.0111938E1,8.408218E0,2.2700705E1,2.5434406E0,8.651871E0,2.6912823E0,5.1247063E0,3.5059814E0,2.7307224E0,1.9134198E-1,9.5027876E-1,5.499069E0,2.8879395E0,8.1525135E-1,0E0,2.4188538E0,2.1015568E0,0E0,0E0,1.0867872E0,7.8692985E-1,4.4608705E-2,2.2938628E-1,7.0152116E-1,4.129796E-1,8.088753E0,5.477417E0,3.8688726E0,2.4330444E0,0E0,2.055943E-1,2.0735855E0,1.0461578E0,3.121415E-1,2.735383E0,4.713726E-1,0E0,1.0585451E-1,2.357023E-1,6.2458858E-2,4.2359732E-2,1.117183E-1,1.5387644E-1,5.2275217E-1,8.286555E-1,4.351225E-1,7.50653E-1,7.7863827E0,2.2830803E1,6.4087677E0,1.1501434E1,3.7679644E0,6.628107E-1,3.960239E0,2.0488625E0,0E0,0E0,1.6777191E0,0E0,0E0,0E0,0E0,4.3478775E-1,3.291934E0,2.9250703E0,0E0,0E0,0E0,0E0,1.2411493E-4,9.0500474E-2,6.085781E-2,2.5582865E-2,0E0,3.9182488E-2,8.16847E-3,1.366657E-1,1.0100335E-1,7.5910464E-2,0E0,3.1027794E-1,1.8004417E-2,6.404817E-3,0E0,5.77383E-2,1.042838E0,2.5031734E-1,3.2032015E0,3.011784E0,8.998331E1,4.686429E0,3.8247485E0,2.813511E0,4.86261E0,6.1511497E0,3.6391048E0,1.3896645E0,2.2613752E-1,6.986606E-1,2.453377E0,2.9360008E0,1.3418674E0,3.1533585E0,0E0,0E0,0E0,0E0,0E0,0E0,0E0,0E0,0E0,0E0,0E0,0E0,0E0,0E0,0E0,0E0,0E0,0E0,0E0,0E0,0E0,0E0,0E0,0E0,0E0,0E0,0E0,0E0,0E0,0E0,0E0,0E0,0E0,0E0,0E0,0E0,0E0,0E0,0E0,0E0,0E0,0E0,0E0,0E0,0E0,0E0,0E0,0E0,0E0,0E0,0E0,0E0,0E0,0E0,0E0,0E0,0E0,0E0,0E0,0E0,0E0,0E0,0E0,0E0,0E0,0E0,0E0,0E0,0E0,0E0],"parents":[2147483647,0,0,1,1,2,2,3,3,4,4,5,5,6,6,7,7,8,8,9,9,10,10,11,11,12,12,13,13,14,14,15,15,17,17,18,18,21,21,22,22,23,23,24,24,25,25,26,26,27,27,28,28,29,29,30,30,32,32,33,33,34,34,35,35,36,36,37,37,39,39,40,40,41,41,42,42,43,43,44,44,45,45,46,46,47,47,48,48,49,49,50,50,51,51,52,52,53,53,54,54,55,55,56,56,59,59,64,64,65,65,66,66,71,71,72,72,73,73,74,74,76,76,77,77,78,78,79,79,80,80,82,82,83,83,84,84,86,86,87,87,88,88,89,89,90,90,91,91,92,92,93,93,94,94,95,95,96,96,97,97,98,98,99,99,100,100,101,101,102,102,103,103,104,104],"right_children":[2,4,6,8,10,12,14,16,18,20,22,24,26,28,30,32,-1,34,36,-1,-1,38,40,42,44,46,48,50,52,54,56,-1,58,60,62,64,66,68,-1,70,72,74,76,78,80,82,84,86,88,90,92,94,96,98,100,102,104,-1,-1,106,-1,-1,-1,-1,108,110,112,-1,-1,-1,-1,114,116,118,120,-1,122,124,126,128,130,-1,132,134,136,-1,138,140,142,144,146,148,150,152,154,156,158,160,162,164,166,168,170,172,174,-1,-1,-1,-1,-1,-1,-1,-1,-1,-1,-1,-1,-1,-1,-1,-1,-1,-1,-1,-1,-1,-1,-1,-1,-1,-1,-1,-1,-1,-1,-1,-1,-1,-1,-1,-1,-1,-1,-1,-1,-1,-1,-1,-1,-1,-1,-1,-1,-1,-1,-1,-1,-1,-1,-1,-1,-1,-1,-1,-1,-1,-1,-1,-1,-1,-1,-1,-1,-1,-1],"split_conditions":[9.6551724E-2,1.3137093E-1,7.920965E-1,1.2389015E-3,2.7272727E-2,3.9510223E-1,4.2413792E-1,3.9234042E-1,2.2170213E-1,9.5682657E-1,6.724138E-2,1.3484347E-1,1.9137931E-1,1.2389015E-3,5.181818E-1,3.5106385E-1,3.7900805E-2,6.2127657E-2,3.5106385E-1,1.0857379E-1,3.656755E-2,9.5682657E-1,9.5682657E-1,9.212121E-1,1.6584766E-1,8.30303E-1,2.086207E-1,3.783784E-1,7.5757575E-1,8.120393E-1,4.1296717E-4,2.7629973E-2,7.241379E-2,6.965602E-1,5.719247E-1,5.719247E-1,7.008511E-1,5.272727E-1,3.268049E-2,6.545454E-1,6.8723404E-1,1.15517244E-1,7.125307E-2,4.2424244E-1,5.0082594E-1,5E-1,1.4004913E-1,5E-1,5.181818E-1,3.5106385E-1,4.95086E-1,1.3793103E-1,2.6206896E-1,2.9744682E-1,7.008511E-1,9.9787235E-1,5.4137933E-1,-4.1848038E-5,1.0505263E-2,7.090609E-2,-1.447484E-2,2.0626842E-3,2.4934461E-2,3.7897862E-3,3.8820636E-1,6.818182E-1,5.0082594E-1,1.5935681E-3,1.8927297E-2,1.797999E-2,8.574617E-3,3.5106385E-1,7.4137926E-2,5.0082594E-1,6.242424E-1,2.8486752E-3,3.783784E-1,6E-2,1.6034484E-1,3.3103448E-1,6.621622E-1,1.1918894E-2,3.3636364E-1,1.4310345E-1,5.14742E-1,-1.0149451E-2,6.965602E-1,1.2389015E-3,1.3234043E-1,4.1296717E-4,2.2481573E-1,7.008511E-1,3.3636364E-1,1.48936175E-2,4.1551724E-1,2.3620689E-1,4.0172416E-1,4.586207E-1,6.4742017E-1,4.7413793E-1,9.689189E-1,1.6680852E-1,5.862069E-1,6.4742017E-1,6.3620687E-1,1.06126005E-2,2.5526103E-2,-6.08517E-3,1.9395477E-3,2.3318326E-2,7.7446816E-3,3.35298E-2,3.4794845E-3,-8.381105E-5,1.5791977E-4,1.6760642E-3,9.965805E-3,5.5293445E-3,2.4944157E-4,-2.2235017E-4,-5.758805E-4,-3.5643662E-4,8.130504E-4,2.8179793E-4,-1.0517627E-3,4.365005E-3,1.3509969E-3,4.408655E-3,9.387317E-4,1.9023324E-4,-5.524161E-4,5.524694E-3,7.100689E-4,1.818656E-2,1.0479152E-2,5.9873513E-3,3.513284E-3,-9.5414056E-4,3.6173137E-3,1.2240006E-2,2.853499E-3,4.120337E-3,1.2106983E-3,-1.0259551E-2,2.8155693E-3,1.0033161E-2,5.895386E-4,1.1211934E-2,1.4840896E-1,-6.864336E-3,8.87179E-3,6.8486664E-3,-2.8356095E-3,3.2133143E-3,7.071918E-3,5.9284233E-3,1.01860305E-2,3.4784402E-3,1.45789115E-2,1.1292733E-4,1.0648144E-2,3.929883E-3,-3.8165068E-3,-4.527015E-3,2.9310485E-4,-4.7103697E-4,-2.304895E-2,1.4022942E-2,2.1265112E-3,-3.3942068E-3,2.2958834E-2,7.0532534E-4,2.361401E-3,3.8557595E-3,2.089546E-3],"split_indices":[3,7,6,8,2,6,3,10,10,6,3,6,3,8,2,10,0,10,10,0,0,6,6,2,11,2,3,11,2,11,8,0,3,11,6,6,10,2,0,2,10,3,11,2,8,8,11,8,2,10,11,3,3,10,10,10,3,0,0,7,0,0,0,0,11,2,8,0,0,0,0,10,3,8,2,0,11,10,3,3,11,0,2,3,11,0,11,8,10,8,11,10,2,10,3,3,3,3,11,3,6,10,3,11,3,0,0,0,0,0,0,0,0,0,0,0,0,0,0,0,0,0,0,0,0,0,0,0,0,0,0,0,0,0,0,0,0,0,0,0,0,0,0,0,0,0,0,0,0,0,0,0,0,0,0,0,0,0,0,0,0,0,0,0,0,0,0,0,0,0,0,0,0,0,0],"split_type":[0,0,0,0,0,0,0,0,0,0,0,0,0,0,0,0,0,0,0,0,0,0,0,0,0,0,0,0,0,0,0,0,0,0,0,0,0,0,0,0,0,0,0,0,0,0,0,0,0,0,0,0,0,0,0,0,0,0,0,0,0,0,0,0,0,0,0,0,0,0,0,0,0,0,0,0,0,0,0,0,0,0,0,0,0,0,0,0,0,0,0,0,0,0,0,0,0,0,0,0,0,0,0,0,0,0,0,0,0,0,0,0,0,0,0,0,0,0,0,0,0,0,0,0,0,0,0,0,0,0,0,0,0,0,0,0,0,0,0,0,0,0,0,0,0,0,0,0,0,0,0,0,0,0,0,0,0,0,0,0,0,0,0,0,0,0,0,0,0,0,0,0,0,0,0],"sum_hessian":[7.915E3,2.51E2,7.664E3,2.31E2,2E1,1.263E3,6.401E3,9E0,2.22E2,2E0,1.8E1,7.26E2,5.37E2,3.67E3,2.731E3,4E0,5E0,1.16E2,1.06E2,1E0,1E0,7E0,1.1E1,4.17E2,3.09E2,4.4E1,4.93E2,2.04E2,3.466E3,1.5E2,2.581E3,1E0,3E0,1.08E2,8E0,1.4E1,9.2E1,3E0,4E0,5E0,6E0,3.67E2,5E1,5.7E1,2.52E2,3E1,1.4E1,9E0,4.84E2,9.3E1,1.11E2,1.605E3,1.861E3,1.33E2,1.7E1,6.1E1,2.52E3,1E0,2E0,1.07E2,1E0,1E0,7E0,3E0,1.1E1,3.1E1,6.1E1,1E0,2E0,3E0,2E0,3E0,3E0,4E0,3.63E2,2E0,4.8E1,8E0,4.9E1,2.2E1,2.3E2,2E0,2.8E1,5E0,9E0,2E0,7E0,5.4E1,4.3E2,3.1E1,6.2E1,1.3E1,9.8E1,1.23E2,1.482E3,5.39E2,1.322E3,9E1,4.3E1,1.5E1,2E0,5.1E1,1E1,7.85E2,1.735E3,1.04E2,3E0,7E0,4E0,7E0,2.4E1,1E0,6E1,2E0,1E0,1E0,2E0,1E0,3E0,1.33E2,2.3E2,3E1,1.8E1,2E0,6E0,7E0,4.2E1,4E0,1.8E1,1.4E2,9E1,7E0,2.1E1,2E0,3E0,2E0,7E0,6E0,1E0,5E0,4.9E1,1.2E1,4.18E2,1.9E1,1.2E1,4.2E1,2E1,1.1E1,2E0,8E0,9E1,1.9E1,1.04E2,1.402E3,8E1,3.89E2,1.5E2,1.302E3,2E1,1.6E1,7.4E1,3E1,1.3E1,7E0,8E0,1E0,1E0,8E0,4.3E1,2E0,8E0,4.02E2,3.83E2,6.46E2,1.089E3],"tree_param":{"num_deleted":"0","num_feature":"12","num_nodes":"175","size_leaf_vector":"0"}},{"base_weights":[1.7137483E-1,1.9714949E0,1.6380036E-1,1.8114997E0,5.3472676E0,6.144019E-1,1.560285E-1,1.7354909E-1,1.9171178E0,5.404511E-1,1.8685492E0,3.6154646E-2,1.7936984E-1,5.586313E-1,-1.3063993E0,6.867857E-1,2.6305256E0,-1.3484027E-3,8.7082215E-2,3.0958575E-1,1.6450183E-1,5.10149E-1,3.055948E0,7.8483336E-2,9.301425E-1,-2.0878261E-2,2.5037352E-2,2.331564E-1,8.039716E-2,4.7270155E-1,2.3342992E-1,1.4055996E-1,2.2571789E-1,5.618118E-1,-1.4494574E-1,1.4666486E0,3.870326E0,2.7213473E-2,-2.3333011E-2,4.8220135E-2,1.5597445E-3,1.4100678E-1,5.3266245E-1,-1.6946012E-1,8.397001E-2,-6.205388E-3,5.805497E-1,2.6154882E-1,-1.9390334E-1,4.6619665E-2,1.4922439E-1,7.95356E-1,2.1676202E-1,5.214261E-1,1.8622743E0,-8.102954E-1,4.0204227E-1,7.6351957E-3,2.9356864E-1,-2.1208625E-2,-4.6917297E-2,3.8671896E-2,6.667272E-1,8.486183E-2,-8.778826E-3,2.6961273E-1,5.238313E-2,1.2987994E0,2.5262976E-1,3.001957E-1,-3.6702046E-1,7.2054565E-2,1.510585E-1,8.93545E-1,-8.9090034E-2,1.0346018E0,3.9356175E-1,1.00907825E-1,3.5246864E-1,8.3573565E-2,-4.3190122E-1,7.1030945E-2,-3.3715287E-1,2.0353624E-1,1.3685752E-1,5.7532585E-1,2.1856616E0,-2.976918E-1,2.255455E-1],"categories":[],"categories_nodes":[],"categories_segments":[],"categories_sizes":[],"default_left":[true,true,true,true,false,true,true,false,false,true,true,true,true,true,false,true,false,true,true,true,true,true,true,false,false,true,true,true,true,true,true,true,true,true,true,false,false,true,true,true,true,true,true,true,true,true,true,true,true,true,true,true,true,false,false,false,false,false,false,false,false,false,false,false,false,false,false,false,false,false,false,false,false,false,false,false,false,false,false,false,false,false,false,false,false,false,false,false,false],"id":129,"left_children":[1,3,5,7,-1,9,11,-1,-1,13,15,17,19,21,-1,23,-1,25,27,29,31,33,35,-1,-1,37,39,41,43,45,47,49,51,53,55,-1,-1,57,59,61,63,65,67,69,71,73,75,77,79,81,83,85,87,-1,-1,-1,-1,-1,-1,-1,-1,-1,-1,-1,-1,-1,-1,-1,-1,-1,-1,-1,-1,-1,-1,-1,-1,-1,-1,-1,-1,-1,-1,-1,-1,-1,-1,-1,-1],"loss_changes":[1.08455215E2,1.4671326E1,2.7732635E1,5.4528275E0,0E0,1.208765E1,2.1811829E1,0E0,0E0,4.508049E0,5.953842E0,2.4294314E0,1.2611557E1,1.4725155E1,0E0,4.5473838E-1,0E0,3.774938E-1,5.159435E-1,8.25531E0,8.570328E0,4.2410507E0,1.0511436E0,0E0,0E0,4.9896166E-2,1.6871627E-1,6.0933304E-1,4.6445894E-1,1.0976261E1,5.50124E0,3.4234695E0,8.327011E0,5.6995087E0,3.511267E0,0E0,0E0,1.0099064E-1,1.8804073E-2,9.045912E-1,1.3511069E-1,1.9965366E-1,1.0127145E0,7.181332E-1,4.0034342E-1,2.9483843E0,1.4560257E1,6.2376766E0,1.888117E0,3.3424563E0,2.576027E0,7.291029E0,7.347664E0,0E0,0E0,0E0,0E0,0E0,0E0,0E0,0E0,0E0,0E0,0E0,0E0,0E0,0E0,0E0,0E0,0E0,0E0,0E0,0E0,0E0,0E0,0E0,0E0,0E0,0E0,0E0,0E0,0E0,0E0,0E0,0E0,0E0,0E0,0E0,0E0],"parents":[2147483647,0,0,1,1,2,2,3,3,5,5,6,6,9,9,10,10,11,11,12,12,13,13,15,15,17,17,18,18,19,19,20,20,21,21,22,22,25,25,26,26,27,27,28,28,29,29,30,30,31,31,32,32,33,33,34,34,37,37,38,38,39,39,40,40,41,41,42,42,43,43,44,44,45,45,46,46,47,47,48,48,49,49,50,50,51,51,52,52],"right_children":[2,4,6,8,-1,10,12,-1,-1,14,16,18,20,22,-1,24,-1,26,28,30,32,34,36,-1,-1,38,40,42,44,46,48,50,52,54,56,-1,-1,58,60,62,64,66,68,70,72,74,76,78,80,82,84,86,88,-1,-1,-1,-1,-1,-1,-1,-1,-1,-1,-1,-1,-1,-1,-1,-1,-1,-1,-1,-1,-1,-1,-1,-1,-1,-1,-1,-1,-1,-1,-1,-1,-1,-1,-1,-1],"split_conditions":[2.7272727E-2,5.8854413E-1,6.724138E-2,3.9510223E-1,1.0694535E-1,1.3137093E-1,7.920965E-1,3.4709817E-3,3.8342357E-2,1.403493E-1,9.5682657E-1,3.9510223E-1,1.3683832E-1,1.39269E-1,-2.6127987E-2,5.272727E-1,5.261051E-2,1.3484347E-1,3.3636364E-1,2.6206896E-1,8.30303E-1,1.3773857E-1,1.3989916E-1,1.5696667E-3,1.860285E-2,6.67987E-2,3.948276E-1,4.4085345E-1,4.384228E-2,2.349658E-2,1.200036E-1,2.086207E-1,1.6735685E-1,1.3692835E-1,1.389089E-1,2.9332971E-2,7.740652E-2,6.2027365E-2,9.533169E-1,8.794563E-1,1.1568239E-1,1.8965518E-1,3.7960687E-1,3.0518545E-2,9.212121E-1,9.8790765E-1,4.1591644E-2,4.127764E-1,8.120393E-1,8.2186735E-1,5.181818E-1,1.6456608E-1,6.142506E-3,1.0428522E-2,3.7245486E-2,-1.6205907E-2,8.040845E-3,1.5270391E-4,5.8713728E-3,-4.241725E-4,-9.383459E-4,7.734379E-4,1.3334543E-2,1.6972366E-3,-1.7557653E-4,5.3922543E-3,1.0476626E-3,2.5975987E-2,5.052595E-3,6.003914E-3,-7.340409E-3,1.4410913E-3,3.02117E-3,1.78709E-2,-1.7818006E-3,2.0692036E-2,7.871235E-3,2.0181565E-3,7.0493724E-3,1.6714713E-3,-8.638024E-3,1.4206188E-3,-6.743057E-3,4.070725E-3,2.7371505E-3,1.15065165E-2,4.371323E-2,-5.953836E-3,4.51091E-3],"split_indices":[2,7,3,6,0,7,6,0,0,5,6,6,5,5,0,2,0,6,2,3,2,5,5,0,0,5,3,5,5,5,5,3,5,5,5,0,0,5,11,5,5,3,11,5,2,6,5,11,11,11,2,5,11,0,0,0,0,0,0,0,0,0,0,0,0,0,0,0,0,0,0,0,0,0,0,0,0,0,0,0,0,0,0,0,0,0,0,0,0],"split_type":[0,0,0,0,0,0,0,0,0,0,0,0,0,0,0,0,0,0,0,0,0,0,0,0,0,0,0,0,0,0,0,0,0,0,0,0,0,0,0,0,0,0,0,0,0,0,0,0,0,0,0,0,0,0,0,0,0,0,0,0,0,0,0,0,0,0,0,0,0,0,0,0,0,0,0,0,0,0,0,0,0,0,0,0,0,0,0,0,0],"sum_hessian":[7.964E3,3.3E1,7.931E3,3.2E1,1E0,1.34E2,7.797E3,2E0,3E1,1.27E2,7E0,1.271E3,6.526E3,1.26E2,1E0,3E0,4E0,7.32E2,5.39E2,6.68E2,5.858E3,1.24E2,2E0,1E0,2E0,4.21E2,3.11E2,2.3E1,5.16E2,2.12E2,4.56E2,4.212E3,1.646E3,1.15E2,9E0,1E0,1E0,2E1,4.01E2,1.56E2,1.55E2,1.8E1,5E0,7E0,5.09E2,3.9E1,1.73E2,4.28E2,2.8E1,3.56E2,3.856E3,2.5E1,1.621E3,1.12E2,3E0,4E0,5E0,1.9E1,1E0,3.69E2,3.2E1,1.54E2,2E0,1.7E1,1.38E2,7E0,1.1E1,1E0,4E0,2E0,5E0,4.33E2,7.6E1,3E0,3.6E1,5E1,1.23E2,1.55E2,2.73E2,1.3E1,1.5E1,3.35E2,2.1E1,7.14E2,3.142E3,2.2E1,3E0,2.7E1,1.594E3],"tree_param":{"num_deleted":"0","num_feature":"12","num_nodes":"89","size_leaf_vector":"0"}},{"base_weights":[1.6200447E-1,-7.508949E-2,3.7439832E-1,6.4597175E-2,-1.7405958E-1,1.3469052E0,3.6290076E-1,-5.137536E-3,1.7013486E-1,-2.2176223E0,-1.6047369E-1,6.0099792E0,5.0836116E-1,1.6577257E-1,4.143542E-1,1.123437E0,-9.216738E-3,6.37294E-1,1.6043526E-1,-1.1769406E-1,-2.7687573E0,-4.8550093E-1,-1.512683E-1,3.362586E0,8.846056E0,-7.1338135E-1,1.0778222E0,1.3459514E-1,2.5184748E-1,4.629698E-1,3.114529E-1,1.7057422E-1,2.4992292E0,-4.904939E-3,-4.3067926E-1,4.209006E-1,1.4983765E0,1.3092624E-1,3.267212E-1,-1.417096E-1,-7.9075396E-1,-1.862374E-1,-6.798399E-2,5.841043E0,2.0304785E0,1.009375E1,4.4397893E0,1.7722007E0,-9.639859E-1,7.2303133E0,-3.2040063E-2,2.504213E-1,1.1884305E-1,4.5295325E-1,1.72782E-1,3.6637518E-1,7.7825683E-1,4.1477287E-1,2.1102735E-1,4.991618E-2,-1.6367767E-2,8.3523965E-1,2.8632635E-1,1.1658644E-1,2.9706365E-1,8.687817E-1,2.9808548E-1,-6.7744446E-1,-6.878722E-2,-9.786774E-1,1.8386564E-1,-9.518803E-2,-2.31654E-1,-1.5382664E0,-5.5221613E-2,-2.5815177E0,-3.503105E-1,1.2135172E1,4.5406675E0,-3.16693E0,6.35892E-1,2.70978E-1,1.7101887E-1,4.9808702E-1,1.1291622E-1,1.6776866E-1,1.4229789E0,5.0109076E-1,1.4771974E-1,4.0776032E-1,2.214762E-1,2.1451414E0,7.131834E-1,1.33841E0,3.880077E-1,4.8384893E-1,1.9020976E-1,1.3132153E-1,3.704555E-2,-2.8522631E-2,4.7406025E-2,3.5004166E-1,-1.2498498E-1,2.0619182E-1,8.074611E-2,5.6108916E-1,2.7464744E-2,1.0504645E0,5.568303E-1,1.8110348E-1,3.690681E-1,-6.4258166E-2,-9.2492723E-1,5.4259145E-1,-1.5965258E-1,-1.5773844E0,-5.13939E-1,1.8027235E0,-9.6346945E-1,-1.0401621E0,-8.672544E-2,-8.5263535E-2,-2.839255E-1,-1.2078172E0,-2.2167659E0,1.3242174E0,-6.4961195E-2,-3.0827947E0,-1.0480448E0,5.5919117E-1,-8.128125E-1,-1.0246001E0,1.2005651E0,2.3766682E-1,3.5090905E-1,1.9701704E-1,1.3646556E-1,-2.5494403E-1,6.1430913E-1,1.01258E-1,2.953174E-1,7.332199E-1,6.8156436E-2,2.6274264E-1,3.3617246E0,3.39005E-1,7.3353434E-1,2.013552E-1,2.0511977E-2,2.3876494E-1,4.842744E-1,3.9993912E-1,1.5002884E-1,-5.6037545E-2,3.0905132E0,1.9579244E0,6.197981E-1,4.470428E0,-1.6852656E-2,2.50163E-1,4.8101416E-1,-2.9125085E-2,8.6970085E-1,4.5906556E-1,1.6804393E-1],"categories":[],"categories_nodes":[],"categories_segments":[],"categories_sizes":[],"default_left":[true,true,true,true,true,true,true,true,true,true,true,true,true,true,true,true,true,true,true,false,false,true,true,true,true,true,true,true,true,true,true,false,false,true,false,true,false,true,true,true,true,true,true,false,false,false,false,false,true,true,true,true,true,true,true,true,true,true,true,true,true,false,true,true,true,true,true,true,true,true,true,true,true,true,true,true,true,false,false,false,true,true,true,true,true,true,true,true,true,true,true,true,true,true,true,true,true,false,false,false,false,false,false,false,false,false,false,false,false,false,false,false,false,false,false,false,false,false,false,false,false,false,false,false,false,false,false,false,false,false,false,false,false,false,false,false,false,false,false,false,false,false,false,false,false,false,false,false,false,false,false,false,false,false,false,false,false,false,false,false,false,false,false,false,false],"id":130,"left_children":[1,3,5,7,9,11,13,15,17,19,21,23,25,27,29,31,33,35,37,-1,-1,39,41,43,45,47,49,51,53,55,57,-1,-1,59,-1,61,-1,63,65,67,69,71,73,-1,-1,-1,-1,-1,75,77,79,81,83,85,87,89,91,93,95,97,99,-1,101,103,105,107,109,111,113,115,117,119,121,123,125,127,129,-1,-1,-1,131,133,135,137,139,141,143,145,147,149,151,153,155,157,159,161,163,-1,-1,-1,-1,-1,-1,-1,-1,-1,-1,-1,-1,-1,-1,-1,-1,-1,-1,-1,-1,-1,-1,-1,-1,-1,-1,-1,-1,-1,-1,-1,-1,-1,-1,-1,-1,-1,-1,-1,-1,-1,-1,-1,-1,-1,-1,-1,-1,-1,-1,-1,-1,-1,-1,-1,-1,-1,-1,-1,-1,-1,-1,-1,-1,-1,-1,-1,-1],"loss_changes":[3.9604022E2,5.138289E1,4.619702E1,1.1346302E1,6.0242577E1,1.8788138E2,4.1558167E1,4.261313E0,2.733696E0,1.6438911E1,6.433132E0,4.4967804E1,2.9018738E1,2.2624512E0,1.6205994E1,4.1897435E0,1.6746556E0,2.060441E0,2.9299126E0,0E0,0E0,6.1759853E0,6.114937E0,1.0239979E1,3.1747742E0,8.863564E0,1.9365271E2,1.123908E0,3.5478973E0,6.711301E1,1.0797844E1,0E0,0E0,5.756225E-1,0E0,4.8043966E-1,0E0,1.2007389E0,1.2991781E0,1.0807216E0,5.8101883E0,6.1093903E0,1.1626596E1,0E0,0E0,0E0,0E0,0E0,1.1899303E1,3.8555847E1,5.1659355E1,9.957266E-2,1.2095199E0,1.7418041E1,1.3017673E0,1.00972595E1,4.5464752E1,1.2517189E1,2.971716E0,1.6186816E-1,5.880127E-1,0E0,2.3619348E-1,1.504036E0,2.8574424E0,2.7620554E-2,6.8674994E-1,4.7193515E-1,1.430779E0,7.026911E0,1.0497412E1,3.8989925E0,7.541786E0,2.541151E-1,8.304694E0,1.4260826E0,4.081277E0,0E0,0E0,0E0,1.9478094E1,1.19112015E-1,9.5018744E-4,7.866883E-1,1.1376295E0,2.7506545E0,3.1895515E1,3.2877374E-1,1.027983E0,1.6946152E1,4.7706623E0,4.8656418E1,5.7020126E1,6.0930046E1,6.363945E0,7.4099255E0,2.9053097E0,0E0,0E0,0E0,0E0,0E0,0E0,0E0,0E0,0E0,0E0,0E0,0E0,0E0,0E0,0E0,0E0,0E0,0E0,0E0,0E0,0E0,0E0,0E0,0E0,0E0,0E0,0E0,0E0,0E0,0E0,0E0,0E0,0E0,0E0,0E0,0E0,0E0,0E0,0E0,0E0,0E0,0E0,0E0,0E0,0E0,0E0,0E0,0E0,0E0,0E0,0E0,0E0,0E0,0E0,0E0,0E0,0E0,0E0,0E0,0E0,0E0,0E0,0E0,0E0,0E0,0E0,0E0,0E0],"parents":[2147483647,0,0,1,1,2,2,3,3,4,4,5,5,6,6,7,7,8,8,9,9,10,10,11,11,12,12,13,13,14,14,15,15,16,16,17,17,18,18,21,21,22,22,23,23,24,24,25,25,26,26,27,27,28,28,29,29,30,30,33,33,35,35,37,37,38,38,39,39,40,40,41,41,42,42,48,48,49,49,50,50,51,51,52,52,53,53,54,54,55,55,56,56,57,57,58,58,59,59,60,60,62,62,63,63,64,64,65,65,66,66,67,67,68,68,69,69,70,70,71,71,72,72,73,73,74,74,75,75,76,76,80,80,81,81,82,82,83,83,84,84,85,85,86,86,87,87,88,88,89,89,90,90,91,91,92,92,93,93,94,94,95,95,96,96],"right_children":[2,4,6,8,10,12,14,16,18,20,22,24,26,28,30,32,34,36,38,-1,-1,40,42,44,46,48,50,52,54,56,58,-1,-1,60,-1,62,-1,64,66,68,70,72,74,-1,-1,-1,-1,-1,76,78,80,82,84,86,88,90,92,94,96,98,100,-1,102,104,106,108,110,112,114,116,118,120,122,124,126,128,130,-1,-1,-1,132,134,136,138,140,142,144,146,148,150,152,154,156,158,160,162,164,-1,-1,-1,-1,-1,-1,-1,-1,-1,-1,-1,-1,-1,-1,-1,-1,-1,-1,-1,-1,-1,-1,-1,-1,-1,-1,-1,-1,-1,-1,-1,-1,-1,-1,-1,-1,-1,-1,-1,-1,-1,-1,-1,-1,-1,-1,-1,-1,-1,-1,-1,-1,-1,-1,-1,-1,-1,-1,-1,-1,-1,-1,-1,-1,-1,-1,-1,-1],"split_conditions":[6.621175E-1,6.572582E-1,5E-1,3.989272E-1,2.7272727E-2,7.7943826E-1,9.8790765E-1,2.7272727E-2,3.3636364E-1,5.5555556E-2,6.142506E-3,7.563675E-1,8.2218254E-1,8.30303E-1,8.349742E-1,2.4097994E-1,3.9342475E-1,6.433126E-1,9.212121E-1,-2.353881E-3,-5.5375144E-2,1.6666667E-1,2.777778E-1,7.290039E-1,2.777778E-1,9.8790765E-1,8.349742E-1,7.920965E-1,1.4619164E-1,8.2218254E-1,2.777778E-1,3.4114842E-3,4.998458E-2,8.23977E-2,-8.6135855E-3,5E-1,2.996753E-2,6.474741E-1,6.142506E-3,6E-2,3.888889E-1,3.5106385E-1,5E-1,1.1682086E-1,4.060957E-2,2.01875E-1,8.879578E-2,3.5444014E-2,2.7272727E-2,2.7272727E-2,2.7272727E-2,7.3295593E-1,1.48936175E-2,1.4127764E-1,1.2389015E-3,7.958708E-1,1.8427517E-2,4.1296717E-4,1.3234043E-1,1.3636363E-1,3.6276892E-1,1.6704792E-2,9.689189E-1,1.6666667E-1,6.4979887E-1,2.777778E-1,6.028142E-1,5.5555556E-2,2.2170213E-1,3.9234042E-1,7.0297873E-1,7.985258E-2,5.5555556E-2,4.4444448E-1,1.48936175E-2,8.0460525E-1,1.6666667E-1,2.4270344E-1,9.0813346E-2,-6.33386E-2,8.571358E-1,7.18048E-1,3.1941032E-1,7.448486E-1,9.859468E-1,7.125307E-2,9.2213166E-1,8.21559E-1,8.9225554E-1,7.554066E-1,1.6666667E-1,6.818182E-1,4.2424244E-1,5.4848486E-1,8.76709E-1,8.76709E-1,8.4422266E-1,2.6264307E-3,7.40911E-4,-5.704526E-4,9.481205E-4,7.000833E-3,-2.4996996E-3,4.1238363E-3,1.6149221E-3,1.1221783E-2,5.4929487E-4,2.100929E-2,1.1136605E-2,3.6220695E-3,7.3813614E-3,-1.2851633E-3,-1.8498544E-2,1.0851828E-2,-3.1930516E-3,-3.1547688E-2,-1.027878E-2,3.605447E-2,-1.9269388E-2,-2.0803241E-2,-1.7345088E-3,-1.7052707E-3,-5.67851E-3,-2.4156343E-2,-4.4335317E-2,2.6484348E-2,-1.2992239E-3,-6.165589E-2,-2.0960895E-2,1.1183823E-2,-1.625625E-2,-2.0492002E-2,2.40113E-2,4.7533363E-3,7.018181E-3,3.9403406E-3,2.7293111E-3,-5.0988803E-3,1.22861825E-2,2.02516E-3,5.906348E-3,1.46643985E-2,1.3631287E-3,5.2548526E-3,6.7234494E-2,6.7800996E-3,1.4670687E-2,4.027104E-3,4.1023953E-4,4.7752988E-3,9.6854875E-3,7.998782E-3,3.0005767E-3,-1.1207509E-3,6.1810263E-2,3.9158486E-2,1.2395962E-2,8.9408554E-2,-3.3705312E-4,5.0032595E-3,9.620283E-3,-5.825017E-4,1.7394017E-2,9.181311E-3,3.3608784E-3],"split_indices":[1,1,0,1,2,1,6,2,2,4,11,1,1,2,1,1,1,1,2,0,0,4,4,1,4,6,1,6,11,1,4,0,0,1,0,0,0,1,11,10,4,10,0,0,0,0,0,0,2,2,2,1,10,11,8,1,11,8,10,11,1,0,6,4,1,4,1,4,10,10,10,11,4,4,10,1,4,0,0,0,1,1,11,1,1,11,1,1,1,1,4,2,2,2,1,1,1,0,0,0,0,0,0,0,0,0,0,0,0,0,0,0,0,0,0,0,0,0,0,0,0,0,0,0,0,0,0,0,0,0,0,0,0,0,0,0,0,0,0,0,0,0,0,0,0,0,0,0,0,0,0,0,0,0,0,0,0,0,0,0,0,0,0,0,0],"split_type":[0,0,0,0,0,0,0,0,0,0,0,0,0,0,0,0,0,0,0,0,0,0,0,0,0,0,0,0,0,0,0,0,0,0,0,0,0,0,0,0,0,0,0,0,0,0,0,0,0,0,0,0,0,0,0,0,0,0,0,0,0,0,0,0,0,0,0,0,0,0,0,0,0,0,0,0,0,0,0,0,0,0,0,0,0,0,0,0,0,0,0,0,0,0,0,0,0,0,0,0,0,0,0,0,0,0,0,0,0,0,0,0,0,0,0,0,0,0,0,0,0,0,0,0,0,0,0,0,0,0,0,0,0,0,0,0,0,0,0,0,0,0,0,0,0,0,0,0,0,0,0,0,0,0,0,0,0,0,0,0,0,0,0,0,0],"sum_hessian":[7.864E3,3.716E3,4.148E3,1.541E3,2.175E3,4.8E1,4.1E3,9.28E2,6.13E2,1.4E1,2.161E3,7E0,4.1E1,8.49E2,3.251E3,3E0,9.25E2,1.2E1,6.01E2,3E0,1.1E1,5.9E1,2.102E3,4E0,3E0,1.3E1,2.8E1,6.24E2,2.25E2,2.207E3,1.044E3,2E0,1E0,9.16E2,9E0,1E1,2E0,5.11E2,9E1,2.8E1,3.1E1,1.48E3,6.22E2,1E0,3E0,2E0,1E0,1E0,1.2E1,4E0,2.4E1,7.4E1,5.5E2,6.3E1,1.62E2,1.69E3,5.17E2,5.14E2,5.3E2,1.58E2,7.58E2,2E0,8E0,4.71E2,4E1,4E0,8.6E1,3E0,2.5E1,2.6E1,5E0,4.93E2,9.87E2,5E0,6.17E2,3E0,9E0,1E0,3E0,4E0,2E1,5.8E1,1.6E1,8E0,5.42E2,4.9E1,1.4E1,1.1E1,1.51E2,1.314E3,3.76E2,2.3E1,4.94E2,1.4E1,5E2,3.7E1,4.93E2,2.1E1,1.37E2,6.37E2,1.21E2,7E0,1E0,1.34E2,3.37E2,2E1,2E1,2E0,2E0,3.3E1,5.3E1,1E0,2E0,3E0,2.2E1,1.1E1,1.5E1,2E0,3E0,4E0,4.89E2,2.6E2,7.27E2,4E0,1E0,4E0,6.13E2,2E0,1E0,3E0,6E0,5E0,1.5E1,4.2E1,1.6E1,8E0,8E0,1E0,7E0,5.1E2,3.2E1,7E0,4.2E1,9E0,5E0,7E0,4E0,1.06E2,4.5E1,4.1E2,9.04E2,1.07E2,2.69E2,7E0,1.6E1,3.4E1,4.6E2,4E0,1E1,2.02E2,2.98E2,1.6E1,2.1E1,3.7E1,4.56E2],"tree_param":{"num_deleted":"0","num_feature":"12","num_nodes":"165","size_leaf_vector":"0"}},{"base_weights":[1.5956023E-1,5.8520174E-1,1.4561363E-1,7.9020506E-1,3.2860118E-1,5.046757E-2,1.7158481E-1,7.100467E-1,1.6662884E0,-1.4512198E0,3.8248727E-1,-4.5521124E-3,9.5389985E-2,3.1941646E-1,1.5886861E-1,8.0060333E-1,-3.3973044E-1,5.1861672E0,1.1569163E0,-1.6570095E0,-7.1748906E-1,1.2588949E0,3.4472662E-1,3.478719E-2,-1.2355241E-2,6.7457426E-1,9.2535235E-2,2.2077799E-1,4.9761543E-1,2.0489834E-1,1.2814164E-1,7.425649E-1,1.7764316E0,-4.2575214E-2,-6.129698E-1,2.917973E-1,1.4956081E0,2.4104629E0,-6.6466056E-2,4.570073E-1,-1.5606253E-1,6.5000854E-3,7.3040314E-2,-2.4427492E-2,2.8385771E-3,3.2810137E-2,1.06600285E-1,1.5444086E-1,6.952205E-1,6.5770423E-1,1.9958347E-1,1.8969385E-1,4.4429958E-1,-8.9026195E-1,1.297793E-1,1.17162704E-1,7.904669E-1,2.410428E0,1.2950469E0,2.1605283E-2,-8.752229E-2,3.684403E-1,-8.710859E-1,6.55103E-2,3.7329695E-1,4.404893E-1,1.6367573E0,4.0283453E-1,1.1092641E0,-6.731433E-1,2.2747894E-1,2.716505E-1,1.1635261E-3,4.2611793E-2,1.3108383E-1,-1.9203112E-2,-3.8558695E-2,1.9971859E-2,-2.5382105E-2,1.9504006E-1,-1.0719772E-2,1.3623774E-1,7.810879E-2,4.340026E-1,9.889985E-2,1.1978246E-1,8.7609255E-1,2.327583E0,5.3575397E-1,2.7279213E-1,-7.472742E-1,1.5616032E-2,1.9703454E-1,7.963527E-1,3.5051128E-1,7.103847E-2,1.4859721E-1,2.0971593E-1,9.3060665E-2,1.0377059E0,6.937901E-1,4.5756042E-1,1.9413482E0,1.00868165E-1,5.416755E-1,4.6642524E-1,4.3618474E-2,1.1318424E-1,1.990097E0,1.4255577E-2,-1.3120337E0,9.4591063E-1,3.820726E-2,2.4423527E-2,-3.899364E-2,6.512845E-2,-1.8498471E-2,1.5646441E-1,4.5584682E-3,-2.0677092E-2,1.349245E-1,2.5286896E-2,-4.0983975E-2,1.1537926E-2,1.626109E-1,-3.4698557E-2,1.7156968E-2,6.503358E-2,4.4510794E-1,6.9679745E-2,-3.598056E-2,1.1531351E-1,3.0246803E-1,5.3717934E-2,1.20224565E-1,2.7427816E-1,1.582134E0,-2.3574212E-3,2.771148E-1,-8.916009E-1,4.3809754E-1,1.7010816E0,7.554421E-1,3.316579E-2,7.2330475E0,-2.6453355E-1,5.779174E-1,7.102169E-2,6.465371E-1,-9.3145144E-1,-4.501927E-1,1.1643504E-1,-2.3398684E-1,1.2659541E0,1.941212E-1,4.9271765E-1,1.6000824E0,1.6797093E-1,5.4495245E-1,4.1884524E-1,5.1597975E-2,2.3842085E-2,1.5554698E-1],"categories":[],"categories_nodes":[],"categories_segments":[],"categories_sizes":[],"default_left":[true,true,true,true,true,true,true,true,true,true,true,true,true,true,true,true,true,false,true,false,false,true,true,true,true,false,true,true,true,true,true,true,true,true,true,true,true,false,false,true,true,true,true,true,true,true,true,true,true,true,true,true,true,false,true,true,true,false,true,false,false,false,false,false,true,false,false,true,true,true,true,false,true,true,true,true,true,true,true,true,true,true,true,true,true,true,true,true,true,true,true,true,true,true,true,true,true,false,false,false,false,false,false,false,false,false,false,false,false,false,false,false,false,false,false,false,false,false,false,false,false,false,false,false,false,false,false,false,false,false,false,false,false,false,false,false,false,false,false,false,false,false,false,false,false,false,false,false,false,false,false,false,false,false,false,false,false,false,false,false,false,false,false],"id":131,"left_children":[1,3,5,7,9,11,13,15,17,19,21,23,25,27,29,31,33,-1,35,-1,-1,37,39,41,43,-1,45,47,49,51,53,55,57,59,61,63,65,-1,-1,67,69,71,73,75,77,79,81,83,85,87,89,91,93,-1,95,97,99,-1,101,-1,-1,-1,-1,-1,103,-1,-1,105,107,109,111,-1,113,115,117,119,121,123,125,127,129,131,133,135,137,139,141,143,145,147,149,151,153,155,157,159,161,-1,-1,-1,-1,-1,-1,-1,-1,-1,-1,-1,-1,-1,-1,-1,-1,-1,-1,-1,-1,-1,-1,-1,-1,-1,-1,-1,-1,-1,-1,-1,-1,-1,-1,-1,-1,-1,-1,-1,-1,-1,-1,-1,-1,-1,-1,-1,-1,-1,-1,-1,-1,-1,-1,-1,-1,-1,-1,-1,-1,-1,-1,-1,-1,-1,-1],"loss_changes":[4.663994E1,1.3013374E1,1.8809402E1,9.286079E0,1.0847583E1,4.0384154E0,1.1220306E1,1.2202148E1,1.8228806E1,7.300472E-2,3.4175673E0,2.2524142E-1,1.4552231E0,8.273029E0,7.777237E0,6.169426E0,8.209677E-1,0E0,2.8567696E0,0E0,0E0,6.7007923E0,5.894637E0,1.2999845E-1,1.1283088E-1,0E0,7.489581E-1,9.561879E0,7.9754524E0,7.9865723E0,5.538616E0,3.2915E0,8.391247E-1,1.6956426E-2,1.4652581E0,4.7062784E-2,8.2211304E-1,0E0,0E0,2.8446407E0,3.8916712E0,9.552438E-2,8.632377E-2,2.420254E-2,1.3128512E-1,1.2132585E0,6.0503197E-1,4.144538E0,3.8364925E0,2.1808231E1,4.174099E0,2.6453552E0,4.226988E0,0E0,3.6403618E0,7.7627003E-3,2.205124E0,0E0,2.0151358E0,0E0,0E0,0E0,0E0,0E0,7.965362E-2,0E0,0E0,1.7981386E0,5.4517465E0,3.684581E0,1.515022E0,0E0,6.487109E-2,4.8309717E-2,5.3128064E-2,5.6398936E-2,1.4711872E-2,2.0059982E-1,4.100485E-2,1.1642874E0,2.7521154E-1,1.2148671E0,3.7578654E-1,7.958889E0,4.05236E0,3.1285923E0,2.3566074E0,8.235591E1,3.5084782E0,4.1471877E0,7.756543E-2,2.1296363E0,6.0922318E0,6.377716E0,3.6624517E0,5.404328E0,2.1623116E0,0E0,0E0,0E0,0E0,0E0,0E0,0E0,0E0,0E0,0E0,0E0,0E0,0E0,0E0,0E0,0E0,0E0,0E0,0E0,0E0,0E0,0E0,0E0,0E0,0E0,0E0,0E0,0E0,0E0,0E0,0E0,0E0,0E0,0E0,0E0,0E0,0E0,0E0,0E0,0E0,0E0,0E0,0E0,0E0,0E0,0E0,0E0,0E0,0E0,0E0,0E0,0E0,0E0,0E0,0E0,0E0,0E0,0E0,0E0,0E0,0E0,0E0,0E0,0E0,0E0,0E0],"parents":[2147483647,0,0,1,1,2,2,3,3,4,4,5,5,6,6,7,7,8,8,9,9,10,10,11,11,12,12,13,13,14,14,15,15,16,16,18,18,21,21,22,22,23,23,24,24,26,26,27,27,28,28,29,29,30,30,31,31,32,32,33,33,34,34,35,35,36,36,39,39,40,40,41,41,42,42,43,43,44,44,45,45,46,46,47,47,48,48,49,49,50,50,51,51,52,52,54,54,55,55,56,56,58,58,64,64,67,67,68,68,69,69,70,70,72,72,73,73,74,74,75,75,76,76,77,77,78,78,79,79,80,80,81,81,82,82,83,83,84,84,85,85,86,86,87,87,88,88,89,89,90,90,91,91,92,92,93,93,94,94,95,95,96,96],"right_children":[2,4,6,8,10,12,14,16,18,20,22,24,26,28,30,32,34,-1,36,-1,-1,38,40,42,44,-1,46,48,50,52,54,56,58,60,62,64,66,-1,-1,68,70,72,74,76,78,80,82,84,86,88,90,92,94,-1,96,98,100,-1,102,-1,-1,-1,-1,-1,104,-1,-1,106,108,110,112,-1,114,116,118,120,122,124,126,128,130,132,134,136,138,140,142,144,146,148,150,152,154,156,158,160,162,-1,-1,-1,-1,-1,-1,-1,-1,-1,-1,-1,-1,-1,-1,-1,-1,-1,-1,-1,-1,-1,-1,-1,-1,-1,-1,-1,-1,-1,-1,-1,-1,-1,-1,-1,-1,-1,-1,-1,-1,-1,-1,-1,-1,-1,-1,-1,-1,-1,-1,-1,-1,-1,-1,-1,-1,-1,-1,-1,-1,-1,-1,-1,-1,-1,-1],"split_conditions":[9.6551724E-2,4.564278E-2,9.5682657E-1,2.9168166E-2,4.9873963E-2,3.9510223E-1,1.0415916E-1,2.0525746E-2,3.0158445E-2,7.7586204E-2,2.2170213E-1,1.9769536E-1,2.6647462E-2,7.008511E-1,4.127764E-1,7.090609E-2,3.5106385E-1,1.0372334E-1,9.8790765E-1,-3.314019E-2,-1.4349781E-2,8.426359E-2,3.8820636E-1,1.3484347E-1,1.3484347E-1,1.3491485E-2,1.6584766E-1,8.831473E-2,1.2389015E-3,6.655172E-1,1.0469931E-1,5.719247E-1,2.2506302E-3,2.2056175E-2,8.231776E-1,7.7586204E-2,3.1058697E-2,4.8209257E-2,-1.3293211E-3,2.1840116E-1,6.609337E-1,2.4576882E-2,7.008511E-1,7.2727275E-1,4.6034485E-1,2.1768096E-1,5.920958E-1,2.7727764E-2,4.1296717E-4,2.086207E-1,4.586207E-1,1.5511343E-1,7.2884405E-1,-1.780524E-2,6.4496315E-1,2.2506302E-3,2.2506302E-3,4.820856E-2,8.110852E-1,4.3210565E-4,-1.7504458E-3,7.368806E-3,-1.7421717E-2,1.310206E-3,9.5682657E-1,8.809785E-3,3.2735143E-2,1.403493E-1,9.8790765E-1,9.8790765E-1,1.1082102E-1,5.43301E-3,6.4742017E-1,6.609337E-1,4.7241378E-1,9.78574E-1,3.4056535E-1,8.794563E-1,9.342816E-1,7.008511E-1,2.689655E-1,9.9787235E-1,8.7009364E-1,5.0082594E-1,6.256752E-2,4.6068797E-1,9.083544E-2,1.862069E-1,2.1896552E-1,3.2586205E-1,9.9787235E-1,1.4800145E-1,1.5628377E-1,6.997659E-1,8.8044655E-1,1.9148362E-1,2.086207E-1,4.194319E-3,1.8612132E-3,2.0754118E-2,1.3875801E-2,9.151208E-3,3.8826965E-2,2.0173632E-3,1.083351E-2,9.328505E-3,8.7236945E-4,2.2636848E-3,3.980194E-2,2.8511154E-4,-2.6240673E-2,1.8918213E-2,7.6414517E-4,4.8847054E-4,-7.798728E-4,1.302569E-3,-3.699694E-4,3.129288E-3,9.1169364E-5,-4.1354183E-4,2.69849E-3,5.057379E-4,-8.1967947E-4,2.3075852E-4,3.252218E-3,-6.939711E-4,3.4313934E-4,1.3006715E-3,8.902159E-3,1.3935949E-3,-7.196112E-4,2.3062702E-3,6.0493606E-3,1.0743587E-3,2.4044912E-3,5.485563E-3,3.164268E-2,-4.7148424E-5,5.542296E-3,-1.7832018E-2,8.761951E-3,3.402163E-2,1.51088415E-2,6.6331576E-4,1.4466095E-1,-5.290671E-3,1.1558347E-2,1.4204337E-3,1.2930742E-2,-1.8629028E-2,-9.003853E-3,2.3287009E-3,-4.6797367E-3,2.5319083E-2,3.8824237E-3,9.854353E-3,3.2001648E-2,3.3594184E-3,1.0899049E-2,8.376905E-3,1.0319594E-3,4.768417E-4,3.1109394E-3],"split_indices":[3,5,6,5,5,6,5,5,5,3,10,5,5,10,11,7,10,0,6,0,0,5,11,6,6,0,11,5,8,3,5,6,5,5,6,3,5,0,0,5,11,5,10,11,3,5,5,5,8,3,3,5,5,0,11,5,5,0,6,0,0,0,0,0,6,0,0,5,6,6,5,0,11,11,3,5,5,5,5,10,3,10,5,8,5,11,5,3,3,3,10,5,5,5,5,5,3,0,0,0,0,0,0,0,0,0,0,0,0,0,0,0,0,0,0,0,0,0,0,0,0,0,0,0,0,0,0,0,0,0,0,0,0,0,0,0,0,0,0,0,0,0,0,0,0,0,0,0,0,0,0,0,0,0,0,0,0,0,0,0,0,0,0],"split_type":[0,0,0,0,0,0,0,0,0,0,0,0,0,0,0,0,0,0,0,0,0,0,0,0,0,0,0,0,0,0,0,0,0,0,0,0,0,0,0,0,0,0,0,0,0,0,0,0,0,0,0,0,0,0,0,0,0,0,0,0,0,0,0,0,0,0,0,0,0,0,0,0,0,0,0,0,0,0,0,0,0,0,0,0,0,0,0,0,0,0,0,0,0,0,0,0,0,0,0,0,0,0,0,0,0,0,0,0,0,0,0,0,0,0,0,0,0,0,0,0,0,0,0,0,0,0,0,0,0,0,0,0,0,0,0,0,0,0,0,0,0,0,0,0,0,0,0,0,0,0,0,0,0,0,0,0,0,0,0,0,0,0,0],"sum_hessian":[7.863E3,2.49E2,7.614E3,1.38E2,1.11E2,1.633E3,5.981E3,1.27E2,1.1E1,3E0,1.08E2,7.34E2,8.99E2,4.73E2,5.508E3,1.17E2,1E1,1E0,1E1,2E0,1E0,4E0,1.04E2,1.21E2,6.13E2,4E0,8.95E2,3.05E2,1.68E2,2.204E3,3.304E3,1.11E2,6E0,5E0,5E0,3E0,7E0,2E0,2E0,8.5E1,1.9E1,7E1,5.1E1,3.42E2,2.71E2,1.71E2,7.24E2,2.68E2,3.7E1,1.09E2,5.9E1,2.073E3,1.31E2,5E0,3.299E3,8E0,1.03E2,2E0,4E0,2E0,3E0,1E0,4E0,1E0,2E0,1E0,6E0,7.9E1,6E0,8E0,1.1E1,1E0,6.9E1,3.4E1,1.7E1,2.51E2,9.1E1,1.69E2,1.02E2,3.6E1,1.35E2,3.54E2,3.7E2,4.4E1,2.24E2,9E0,2.8E1,7E0,1.02E2,5.5E1,4E0,8.4E1,1.989E3,2.7E1,1.04E2,8.01E2,2.498E3,1E0,7E0,2.8E1,7.5E1,2E0,2E0,1E0,1E0,6.7E1,1.2E1,3E0,3E0,4E0,4E0,2E0,9E0,4.4E1,2.5E1,2.5E1,9E0,1.4E1,3E0,2.49E2,2E0,3E0,8.8E1,1.6E2,9E0,8.4E1,1.8E1,2.4E1,1.2E1,3.2E1,1.03E2,3.15E2,3.9E1,2.35E2,1.35E2,3.9E1,5E0,1.43E2,8.1E1,2E0,7E0,3E0,2.5E1,5E0,2E0,5E0,9.7E1,3.6E1,1.9E1,2E0,2E0,6E1,2.4E1,5E0,1.984E3,2E1,7E0,5.4E1,5E1,4.2E1,7.59E2,1.32E2,2.366E3],"tree_param":{"num_deleted":"0","num_feature":"12","num_nodes":"163","size_leaf_vector":"0"}},{"base_weights":[1.5955488E-1,-8.9588426E-2,3.8429445E-1,6.637932E-2,-2.0402676E-1,5.447283E0,3.7158084E-1,9.329592E-3,2.0673606E-1,-1.9691421E0,-1.93817E-1,6.037438E0,-3.4984563E-2,1.1946608E0,3.453405E-1,1.0762132E0,6.139647E-3,5.358942E-1,1.7290433E-1,-1.342536E-1,-2.552594E0,-5.114374E-1,-1.7766859E-1,1.0411063E1,5.0942917E0,1.0812535E0,7.10906E0,1.6853417E-1,3.904309E-1,1.4519323E-1,2.425592E0,1.6306713E-2,-1.7233944E-1,8.2453793E-1,3.9811334E-1,2.1823391E-1,7.983356E-2,-1.2170818E-1,-6.2864715E-1,5.775948E-1,-1.829967E-1,-2.5820205E-1,6.800363E0,6.4496684E-1,1.7487202E0,-2.2369864E0,1.4687985E1,2.9115492E-1,1.5274055E-1,-7.77957E-1,3.9567345E-1,2.0657057E-1,3.6809348E-2,-1.0320754E-2,2.3253025E-1,-8.361118E-2,-1.9349648E-1,9.112165E-1,2.7960163E-1,5.0251514E-1,2.394663E-1,1.7571925E-1,3.7732548E-1,6.285676E-2,2.3380107E-1,-1.3909703E-1,-4.8390605E-2,-7.318384E-1,1.0767721E-2,-1.0368342E-1,7.255995E0,-9.7899914E-1,-1.784762E-1,-2.1719983E0,1.7094678E0,9.801938E0,4.6574893E0,1.09013945E-1,9.049961E-1,3.937919E0,1.4149679E0,1.9380899E-1,3.6736813E-1,1.8551846E-1,9.712126E-2,-8.450883E-1,7.714559E-2,4.5164925E-1,2.8096548E-1,-5.0105643E-3,-3.1104803E-1,-3.4544152E-1,2.4897176E-1,5.563498E-2,-1.1373747E-1,-2.031408E-1,1.9540666E-2,1.0090631E0,3.8351429E-1,5.297651E-1,3.2369323E-2,6.157651E-1,1.453835E-1,8.413834E-3,2.2473018E-1,4.9086976E-1,7.446182E-2,1.6471113E-1,2.7910862E-2,5.0120926E-1,-8.588653E-2,-1.789283E-2,-1.4460462E-1,-3.951982E-1,-1.042113E0,-1.2750025E0,7.7200633E-1,-3.5441327E-1,2.230585E0,-4.956643E-2,-1.1748612E0,-4.3518677E-1,-1.6665396E-1,5.2043343E0,1.1937598E1,-2.8264277E0,7.1895986E0,2.1882087E-1,-1.911331E0,6.479041E-2,1.1074032E0,2.9452593E0,6.9127655E0,-6.1196383E-2,2.3692465E0,3.1906873E-1,3.0084485E-2,-2.7622995E-1,4.0951642E-1,1.0717534E-1,2.3505588E-1,2.7480116E-1,6.1799653E-2,3.7021482E-1,7.224683E-1,5.125402E-1,2.4056615E-1],"categories":[],"categories_nodes":[],"categories_segments":[],"categories_sizes":[],"default_left":[true,true,true,true,true,true,true,true,true,true,true,true,false,true,true,true,true,true,true,false,false,true,true,false,true,true,true,true,true,true,false,true,true,true,true,true,true,true,true,true,true,true,true,true,true,false,false,true,true,true,true,false,false,true,true,true,true,true,false,true,true,true,true,true,true,true,false,true,true,true,false,true,true,false,false,true,true,true,true,true,true,true,true,true,true,false,false,true,true,false,false,false,false,false,false,false,false,false,false,false,false,false,false,false,false,false,false,false,false,false,false,false,false,false,false,false,false,false,false,false,false,false,false,false,false,false,false,false,false,false,false,false,false,false,false,false,false,false,false,false,false,false,false,false,false,false,false],"id":132,"left_children":[1,3,5,7,9,11,13,15,17,19,21,23,-1,25,27,29,31,33,35,-1,-1,37,39,-1,41,43,45,47,49,51,-1,53,55,57,59,61,63,65,67,69,71,73,75,77,79,-1,-1,81,83,85,87,-1,-1,89,91,93,95,97,-1,99,101,103,105,107,109,111,-1,113,115,117,-1,119,121,-1,-1,123,125,127,129,131,133,135,137,139,141,-1,-1,143,145,-1,-1,-1,-1,-1,-1,-1,-1,-1,-1,-1,-1,-1,-1,-1,-1,-1,-1,-1,-1,-1,-1,-1,-1,-1,-1,-1,-1,-1,-1,-1,-1,-1,-1,-1,-1,-1,-1,-1,-1,-1,-1,-1,-1,-1,-1,-1,-1,-1,-1,-1,-1,-1,-1,-1,-1,-1,-1],"loss_changes":[4.4052625E2,6.6605896E1,2.6549347E2,1.2642493E1,3.862996E1,3.3588837E1,8.896051E1,3.8053985E0,5.0407124E0,1.3051228E1,1.093779E1,2.0592773E1,0E0,8.272702E1,3.1853851E1,4.033724E0,2.0316782E0,1.5566797E0,1.7379532E0,0E0,0E0,4.684059E0,8.228127E0,0E0,7.677792E1,3.6087708E1,1.7642117E2,1.5539608E0,1.9614563E1,9.51577E-3,0E0,6.108824E0,1.0391188E-1,5.2785015E-1,4.3513918E-1,1.8525705E0,3.4722656E-1,2.6104033E-2,5.2474976E0,6.556802E1,7.205841E0,1.0031964E1,2.5306824E1,1.0590731E1,3.411104E1,0E0,0E0,6.5327835E-1,1.3050117E0,8.5549545E-1,2.0316376E1,0E0,0E0,1.5029957E0,1.1327906E0,5.467745E-2,1.0324836E-1,4.3627644E-1,0E0,2.0833111E-1,3.959347E-1,1.802733E0,1.9857445E0,4.3471164E-1,1.1601188E0,9.725243E-3,0E0,6.9796486E0,1.1414017E1,8.040556E0,0E0,2.026266E0,6.0744476E0,0E0,0E0,1.9499817E0,8.8958374E1,5.735505E0,8.689308E0,1.1772743E1,6.11239E1,8.3948934E-1,1.4321241E0,1.746068E0,1.6735802E0,0E0,0E0,4.6899628E1,9.6903E0,0E0,0E0,0E0,0E0,0E0,0E0,0E0,0E0,0E0,0E0,0E0,0E0,0E0,0E0,0E0,0E0,0E0,0E0,0E0,0E0,0E0,0E0,0E0,0E0,0E0,0E0,0E0,0E0,0E0,0E0,0E0,0E0,0E0,0E0,0E0,0E0,0E0,0E0,0E0,0E0,0E0,0E0,0E0,0E0,0E0,0E0,0E0,0E0,0E0,0E0,0E0,0E0,0E0,0E0,0E0,0E0,0E0,0E0],"parents":[2147483647,0,0,1,1,2,2,3,3,4,4,5,5,6,6,7,7,8,8,9,9,10,10,11,11,13,13,14,14,15,15,16,16,17,17,18,18,21,21,22,22,24,24,25,25,26,26,27,27,28,28,29,29,31,31,32,32,33,33,34,34,35,35,36,36,37,37,38,38,39,39,40,40,41,41,42,42,43,43,44,44,47,47,48,48,49,49,50,50,53,53,54,54,55,55,56,56,57,57,59,59,60,60,61,61,62,62,63,63,64,64,65,65,67,67,68,68,69,69,71,71,72,72,75,75,76,76,77,77,78,78,79,79,80,80,81,81,82,82,83,83,84,84,87,87,88,88],"right_children":[2,4,6,8,10,12,14,16,18,20,22,24,-1,26,28,30,32,34,36,-1,-1,38,40,-1,42,44,46,48,50,52,-1,54,56,58,60,62,64,66,68,70,72,74,76,78,80,-1,-1,82,84,86,88,-1,-1,90,92,94,96,98,-1,100,102,104,106,108,110,112,-1,114,116,118,-1,120,122,-1,-1,124,126,128,130,132,134,136,138,140,142,-1,-1,144,146,-1,-1,-1,-1,-1,-1,-1,-1,-1,-1,-1,-1,-1,-1,-1,-1,-1,-1,-1,-1,-1,-1,-1,-1,-1,-1,-1,-1,-1,-1,-1,-1,-1,-1,-1,-1,-1,-1,-1,-1,-1,-1,-1,-1,-1,-1,-1,-1,-1,-1,-1,-1,-1,-1,-1,-1,-1,-1],"split_conditions":[6.621175E-1,6.572582E-1,2.2506302E-3,4.4565028E-1,2.2506302E-3,4.4444448E-1,4.1591644E-2,2.2506302E-3,1.7797983E-1,5.5555556E-2,4.4382427E-2,7.753007E-1,-6.9969124E-4,4.078142E-2,9.8790765E-1,2.4097994E-1,4.3256068E-1,3.5106385E-1,3.888889E-1,-2.6850721E-3,-5.1051877E-2,5.5555556E-2,4.942384E-2,2.0822126E-1,2.777778E-1,5.0082594E-1,8.39857E-1,1.9301404E-1,5.5555556E-2,6.167303E-2,4.8511837E-2,3.989272E-1,5.5555556E-2,6.5037763E-1,9.1105506E-2,6.430696E-1,6.474741E-1,6.609337E-1,3.888889E-1,2.777778E-1,5.896651E-2,8.0442405E-1,8.3943033E-1,4.1296717E-4,7.703592E-1,-4.4739727E-2,2.937597E-1,8.224432E-1,2.777778E-1,8.0838656E-1,8.349742E-1,4.131411E-3,7.361869E-4,3.9022523E-1,4.1296717E-4,1.2045373E-1,9.698416E-1,1.4908174E-1,5.5920323E-3,7.911548E-1,1.4742015E-2,2.7021277E-1,6.4979887E-1,6.2553835E-1,6.5037763E-1,1.2285012E-2,-9.678121E-4,2.21462E-2,6.621622E-1,8.120393E-1,1.4511989E-1,5.5555556E-2,2.7027026E-2,-4.3439966E-2,3.4189355E-2,8.052548E-1,8.7090075E-1,3.9611094E-2,9.8790765E-1,7.573734E-1,8.2218254E-1,9.5682657E-1,9.5682657E-1,3.9234042E-1,3.6667266E-1,-1.6901765E-2,1.5429117E-3,8.2218254E-1,1.7221823E-1,-1.00211284E-4,-6.2209605E-3,-6.9088303E-3,4.979435E-3,1.1126995E-3,-2.2747493E-3,-4.062816E-3,3.908133E-4,2.0181263E-2,7.6702856E-3,1.0595302E-2,6.473864E-4,1.2315301E-2,2.90767E-3,1.6827667E-4,4.4946033E-3,9.817395E-3,1.4892364E-3,3.2942225E-3,5.5821723E-4,1.0024185E-2,-1.7177305E-3,-3.578566E-4,-2.8920923E-3,-7.903963E-3,-2.0842258E-2,-2.550005E-2,1.5440126E-2,-7.0882654E-3,4.46117E-2,-9.913285E-4,-2.3497224E-2,-8.703736E-3,-3.3330792E-3,1.0408668E-1,2.3875196E-1,-5.6528553E-2,1.4379197E-1,4.3764175E-3,-3.822662E-2,1.2958082E-3,2.2148063E-2,5.8905184E-2,1.3825531E-1,-1.2239276E-3,4.738493E-2,6.3813743E-3,6.016897E-4,-5.524599E-3,8.190328E-3,2.143507E-3,4.7011175E-3,5.496023E-3,1.235993E-3,7.404296E-3,1.4449366E-2,1.0250804E-2,4.811323E-3],"split_indices":[1,1,5,1,5,4,5,5,5,4,5,1,0,5,6,1,1,10,4,0,0,4,5,0,4,8,1,5,4,1,0,1,4,1,5,1,1,11,4,4,5,1,1,8,1,0,0,1,4,1,1,0,0,1,8,5,5,5,0,11,11,10,1,1,1,11,0,5,11,11,0,4,11,0,0,1,1,5,6,1,1,6,6,10,5,0,0,1,5,0,0,0,0,0,0,0,0,0,0,0,0,0,0,0,0,0,0,0,0,0,0,0,0,0,0,0,0,0,0,0,0,0,0,0,0,0,0,0,0,0,0,0,0,0,0,0,0,0,0,0,0,0,0,0,0,0,0],"split_type":[0,0,0,0,0,0,0,0,0,0,0,0,0,0,0,0,0,0,0,0,0,0,0,0,0,0,0,0,0,0,0,0,0,0,0,0,0,0,0,0,0,0,0,0,0,0,0,0,0,0,0,0,0,0,0,0,0,0,0,0,0,0,0,0,0,0,0,0,0,0,0,0,0,0,0,0,0,0,0,0,0,0,0,0,0,0,0,0,0,0,0,0,0,0,0,0,0,0,0,0,0,0,0,0,0,0,0,0,0,0,0,0,0,0,0,0,0,0,0,0,0,0,0,0,0,0,0,0,0,0,0,0,0,0,0,0,0,0,0,0,0,0,0,0,0,0,0],"sum_hessian":[7.867E3,3.731E3,4.136E3,1.579E3,2.152E3,1E1,4.126E3,1.123E3,4.56E2,1.2E1,2.14E3,9E0,1E0,1.27E2,3.999E3,3E0,1.12E3,4.2E1,4.14E2,3E0,9E0,1.03E2,2.037E3,1E0,8E0,1.25E2,2E0,8.13E2,3.186E3,2E0,1E0,1.06E3,6E1,1.3E1,2.9E1,2.78E2,1.36E2,2.4E1,7.9E1,1.4E1,2.023E3,2E0,6E0,7.6E1,4.9E1,1E0,1E0,9.2E1,7.21E2,1.4E1,3.172E3,1E0,1E0,9.44E2,1.16E2,1.2E1,4.8E1,1.1E1,2E0,1.7E1,1.2E1,2.2E2,5.8E1,1.23E2,1.3E1,1.9E1,5E0,6.8E1,1.1E1,1.3E1,1E0,1.1E1,2.012E3,1E0,1E0,2E0,4E0,2.5E1,5.1E1,6E0,4.3E1,4.1E1,5.1E1,4.53E2,2.68E2,1.3E1,1E0,2.131E3,1.041E3,9.28E2,1.6E1,3E0,1.13E2,2E0,1E1,4.6E1,2E0,9E0,2E0,1.6E1,1E0,2E0,1E1,5E1,1.7E2,4.2E1,1.6E1,3.1E1,9.2E1,7E0,6E0,1E0,1.8E1,3.3E1,3.5E1,4E0,7E0,1.2E1,1E0,2E0,9E0,8.8E1,1.924E3,1E0,1E0,1E0,3E0,2.4E1,1E0,1E1,4.1E1,5E0,1E0,1.7E1,2.6E1,2.3E1,1.8E1,3E0,4.8E1,1.76E2,2.77E2,4.4E1,2.24E2,1.639E3,4.92E2,1.54E2,8.87E2],"tree_param":{"num_deleted":"0","num_feature":"12","num_nodes":"147","size_leaf_vector":"0"}},{"base_weights":[1.5601896E-1,-9.0033464E-2,3.7790105E-1,5.6812212E-2,-1.926792E-1,7.3171606E0,3.5731047E-1,8.700923E-3,1.8067762E-1,-1.9886683E0,-1.8095468E-1,1.5121126E1,1.306834E0,2.127553E0,3.3952838E-1,1.4877126E0,5.5883923E-3,5.9906435E-1,1.7129935E-1,-6.772243E-1,-1.6503102E-1,6.1390743E0,2.5785358E1,-3.1472974E0,3.176547E0,1.2616264E0,3.4263084E0,3.8163027E-1,1.701454E-1,2.034724E-1,2.3892121E0,1.5988816E-2,-1.72825E-1,7.889567E-1,1.7406815E-1,1.4274082E-1,2.874183E-1,-7.634699E-1,-2.6382786E-1,-3.0132705E-1,-1.3582036E-1,8.795755E0,-3.44598E-2,4.0326667E0,6.78355E-1,4.006636E0,-6.2191933E-1,5.788309E-1,3.4485522E-1,2.0993905E0,1.6692282E-1,-8.443488E-3,2.1679625E-1,-2.2472139E-1,-1.2029032E-1,4.1678843E-1,1.0779209E0,-3.5053577E-2,2.748087E-1,2.4140437E-1,7.366307E-2,4.2133474E-1,7.3921494E-3,-5.963234E-1,-1.3424896E0,1.2210327E0,-4.3202913E-1,-4.3555072E-1,-1.6360623E-1,6.848143E-2,-1.6705249E-1,5.6988564E0,2.9584532E0,1.2194158E0,-1.0183539E0,3.1198114E-1,8.428344E-1,3.8514084E-1,2.4089547E-1,-1.1163687E0,1.6896085E-1,-4.764474E-3,-4.1755375E-1,3.9402053E-1,1.7536022E-1,-2.986413E-1,-1.8276832E-1,2.472748E-2,-1.4233586E-1,1.2726884E-1,4.105876E-1,2.9489648E-1,4.308675E-2,2.4278808E-1,5.9441906E-1,-2.366397E-1,3.0335722E-2,-7.309835E-2,-6.4725524E-1,-1.436278E0,-7.291949E-1,6.870449E-1,-6.9790256E-1,-3.6314076E-1,-9.479949E-1,-1.3639696E0,-1.27921E-1,6.195558E-3,6.283511E-1,-6.613576E-1,-1.573156E-1,1.7862874E0,4.2591114E0,1.4615431E-1,5.3860617E0,-6.7096376E-1,-1.3629732E0,8.743373E-1,1.403147E-1,1.445703E0,5.9618974E-1,3.246309E-1,5.532043E-1,5.0706685E-1,2.2000629E-1,1.5235542E-1,2.7507728E-1],"categories":[],"categories_nodes":[],"categories_segments":[],"categories_sizes":[],"default_left":[true,true,true,true,true,true,true,true,true,false,true,true,true,true,true,true,true,true,true,true,true,true,false,false,false,true,true,true,true,false,false,true,true,true,true,true,true,true,true,true,true,false,false,true,true,false,false,true,true,false,true,true,true,true,true,false,false,false,false,true,true,true,true,true,true,false,true,true,true,true,true,false,true,true,true,true,true,true,true,false,true,false,false,false,false,false,false,false,false,false,false,false,false,false,false,false,false,false,false,false,false,false,false,false,false,false,false,false,false,false,false,false,false,false,false,false,false,false,false,false,false,false,false,false,false,false,false],"id":133,"left_children":[1,3,5,7,9,11,13,15,17,-1,19,21,23,25,27,29,31,33,35,37,39,41,-1,-1,-1,43,45,47,49,-1,-1,51,53,55,57,59,61,63,65,67,69,-1,-1,71,73,-1,-1,75,77,-1,79,81,83,85,87,-1,-1,-1,-1,89,91,93,95,97,99,-1,101,103,105,107,109,-1,111,113,115,117,119,121,123,-1,125,-1,-1,-1,-1,-1,-1,-1,-1,-1,-1,-1,-1,-1,-1,-1,-1,-1,-1,-1,-1,-1,-1,-1,-1,-1,-1,-1,-1,-1,-1,-1,-1,-1,-1,-1,-1,-1,-1,-1,-1,-1,-1,-1,-1,-1,-1],"loss_changes":[4.3351498E2,5.6760765E1,5.956044E2,9.229755E0,4.6518585E1,5.7166974E2,1.3077985E2,5.114935E0,1.6550817E0,0E0,1.7354515E1,4.5763232E2,6.4407074E1,4.497635E1,2.9368256E1,2.502462E0,2.0664134E0,6.937113E-1,1.387352E0,2.3545132E0,8.477531E0,5.489869E1,0E0,0E0,0E0,3.9966263E1,3.9251434E1,2.3861755E1,4.957176E0,0E0,0E0,5.1714344E0,1.5328157E-1,5.0998473E-1,7.685859E-2,2.3159184E0,3.1178598E0,5.157398E0,3.245011E0,6.924362E0,1.1224758E1,0E0,0E0,2.0104828E0,2.0001583E1,0E0,0E0,3.641205E1,1.1616943E1,0E0,2.1948833E0,1.4071244E0,8.0844164E-1,6.90006E-2,1.03024215E-1,0E0,0E0,0E0,0E0,2.6847172E0,1.3528631E0,1.6808405E0,1.5249023E-1,1.1553831E0,3.2927704E-1,0E0,3.5321226E0,6.9290237E0,7.9021726E0,8.126449E0,7.295059E0,0E0,2.4588852E0,7.270024E1,3.045354E-1,2.488353E1,3.8393555E1,2.0320862E1,4.2800446E0,0E0,1.4236813E0,0E0,0E0,0E0,0E0,0E0,0E0,0E0,0E0,0E0,0E0,0E0,0E0,0E0,0E0,0E0,0E0,0E0,0E0,0E0,0E0,0E0,0E0,0E0,0E0,0E0,0E0,0E0,0E0,0E0,0E0,0E0,0E0,0E0,0E0,0E0,0E0,0E0,0E0,0E0,0E0,0E0,0E0,0E0,0E0,0E0,0E0],"parents":[2147483647,0,0,1,1,2,2,3,3,4,4,5,5,6,6,7,7,8,8,10,10,11,11,12,12,13,13,14,14,15,15,16,16,17,17,18,18,19,19,20,20,21,21,25,25,26,26,27,27,28,28,31,31,32,32,33,33,34,34,35,35,36,36,37,37,38,38,39,39,40,40,43,43,44,44,47,47,48,48,50,50,51,51,52,52,53,53,54,54,59,59,60,60,61,61,62,62,63,63,64,64,66,66,67,67,68,68,69,69,70,70,72,72,73,73,74,74,75,75,76,76,77,77,78,78,80,80],"right_children":[2,4,6,8,10,12,14,16,18,-1,20,22,24,26,28,30,32,34,36,38,40,42,-1,-1,-1,44,46,48,50,-1,-1,52,54,56,58,60,62,64,66,68,70,-1,-1,72,74,-1,-1,76,78,-1,80,82,84,86,88,-1,-1,-1,-1,90,92,94,96,98,100,-1,102,104,106,108,110,-1,112,114,116,118,120,122,124,-1,126,-1,-1,-1,-1,-1,-1,-1,-1,-1,-1,-1,-1,-1,-1,-1,-1,-1,-1,-1,-1,-1,-1,-1,-1,-1,-1,-1,-1,-1,-1,-1,-1,-1,-1,-1,-1,-1,-1,-1,-1,-1,-1,-1,-1,-1,-1],"split_conditions":[6.621175E-1,6.572582E-1,2.7272727E-2,4.4565028E-1,2.7272727E-2,8.3943033E-1,1.7554916E-2,2.7272727E-2,5.482535E-2,-3.9773367E-2,9.6551724E-2,8.0838656E-1,8.7090075E-1,8.571358E-1,7.090609E-2,2.083415E-1,4.3256068E-1,3.086207E-1,6.430696E-1,1.3539791E-1,2.1669066E-1,7.876776E-1,5.1570714E-1,-6.294595E-2,6.353094E-2,7.6935333E-1,9.28372E-1,1.7491898E-1,6.724138E-2,4.069448E-3,4.7784243E-2,3.989272E-1,3.9234042E-1,4.5757577E-1,5.934386E-1,6.2553835E-1,6.4979887E-1,3.5106385E-1,1.3701837E-1,3.0172414E-1,3.1553835E-1,1.759151E-1,-6.89196E-4,7.290039E-1,8.349742E-1,8.013272E-2,-1.2438387E-2,8.2218254E-1,8.4422266E-1,4.198781E-2,7.4137926E-2,3.9342475E-1,4.044514E-1,3.2068965E-1,4.5757577E-1,8.335768E-3,2.1558417E-2,-7.010715E-4,5.496174E-3,6.028142E-1,2.5344828E-1,6.474741E-1,2.3103449E-1,2.1276595E-3,1.3224703E-1,2.4420654E-2,3.9234042E-1,2.6206896E-1,2.6917538E-2,4.1896552E-1,3.2967234E-1,1.1397713E-1,7.563675E-1,8.2218254E-1,8.4844077E-1,7.7943826E-1,8.349742E-1,8.2218254E-1,4.2424244E-1,-2.2327373E-2,9.212121E-1,-9.528948E-5,-8.3510745E-3,7.88041E-3,3.5072044E-3,-5.972826E-3,-3.6553661E-3,4.945496E-4,-2.8467171E-3,2.5453768E-3,8.211752E-3,5.8979294E-3,8.6173497E-4,4.8557613E-3,1.1888381E-2,-4.7327937E-3,6.0671446E-4,-1.4619669E-3,-1.2945104E-2,-2.8725559E-2,-1.4583897E-2,1.3740898E-2,-1.3958051E-2,-7.2628153E-3,-1.8959897E-2,-2.727939E-2,-2.55842E-3,1.2391116E-4,1.2567022E-2,-1.3227152E-2,-3.146312E-3,3.5725746E-2,8.518223E-2,2.9230863E-3,1.0772123E-1,-1.3419275E-2,-2.7259463E-2,1.7486745E-2,2.806294E-3,2.891406E-2,1.1923795E-2,6.4926175E-3,1.1064086E-2,1.0141336E-2,4.4001257E-3,3.0471082E-3,5.5015455E-3],"split_indices":[1,1,2,1,2,1,5,2,5,0,3,1,1,1,7,1,1,3,1,5,5,1,0,0,0,1,1,5,3,0,0,1,10,2,1,1,1,10,5,3,5,0,0,1,1,0,0,1,1,0,3,1,1,3,2,0,0,0,0,1,3,1,3,10,5,0,10,3,5,3,5,0,1,1,1,1,1,1,2,0,2,0,0,0,0,0,0,0,0,0,0,0,0,0,0,0,0,0,0,0,0,0,0,0,0,0,0,0,0,0,0,0,0,0,0,0,0,0,0,0,0,0,0,0,0,0,0],"split_type":[0,0,0,0,0,0,0,0,0,0,0,0,0,0,0,0,0,0,0,0,0,0,0,0,0,0,0,0,0,0,0,0,0,0,0,0,0,0,0,0,0,0,0,0,0,0,0,0,0,0,0,0,0,0,0,0,0,0,0,0,0,0,0,0,0,0,0,0,0,0,0,0,0,0,0,0,0,0,0,0,0,0,0,0,0,0,0,0,0,0,0,0,0,0,0,0,0,0,0,0,0,0,0,0,0,0,0,0,0,0,0,0,0,0,0,0,0,0,0,0,0,0,0,0,0,0,0],"sum_hessian":[7.94E3,3.765E3,4.175E3,1.549E3,2.216E3,1.2E1,4.163E3,1.116E3,4.33E2,1.4E1,2.202E3,5E0,7E0,4.1E1,4.122E3,2E0,1.114E3,9E0,4.24E2,6.8E1,2.134E3,3E0,2E0,2E0,5E0,2.5E1,1.6E1,3.301E3,8.21E2,1E0,1E0,1.053E3,6.1E1,6E0,3E0,3.41E2,8.3E1,5.6E1,1.2E1,3.76E2,1.758E3,2E0,1E0,4E0,2.1E1,1.4E1,2E0,5.18E2,2.783E3,1E0,8.2E2,9.39E2,1.14E2,3E1,3.1E1,3E0,3E0,1E0,2E0,1.4E2,2.01E2,5.6E1,2.7E1,4.4E1,1.2E1,1E0,1.1E1,1.9E2,1.86E2,2.33E2,1.525E3,1E0,3E0,1.6E1,5E0,2.58E2,2.6E2,2.005E3,7.78E2,1E0,8.19E2,9.31E2,8E0,2.1E1,9.3E1,1E1,2E1,4E0,2.7E1,8.4E1,5.6E1,2.4E1,1.77E2,2.8E1,2.8E1,2E0,2.5E1,4E0,4E1,1E1,2E0,2E0,9E0,1.67E2,2.3E1,5E0,1.81E2,2.1E2,2.3E1,2.9E1,1.496E3,2E0,1E0,1.3E1,3E0,3E0,2E0,6E1,1.98E2,7.5E1,1.85E2,1.475E3,5.3E2,5.6E1,7.22E2,7.09E2,1.1E2],"tree_param":{"num_deleted":"0","num_feature":"12","num_nodes":"127","size_leaf_vector":"0"}},{"base_weights":[1.4317773E-1,-2.695883E-2,1.6147311E-1,6.490174E-2,-1.0047409E-1,3.1444635E-2,1.8201771E-1,3.1377852E-2,1.8250021E-1,-1.2372378E-1,-7.621874E-2,-7.1257735E-3,8.399584E-2,4.4328773E-1,1.7160021E-1,6.439368E-1,2.1125685E-2,8.5204655E-1,1.6017084E-1,-1.12379566E-1,-2.0027159E-1,4.9673473E-3,-8.731587E-2,4.3661185E-2,-1.3617197E-2,8.2314974E-1,7.785815E-2,3.7706178E-1,6.996031E0,5.2650845E-1,1.6780461E-1,2.0042054E-1,7.526576E-1,-3.6425263E-1,2.3127388E-2,2.5614148E-1,1.1975572E-1,-1.6279852E-1,-9.4771124E-2,-6.083217E-1,-1.4104155E-1,-8.607544E-2,9.207496E-1,-1.16372205E-1,-7.104439E-2,-1.9954078E-2,7.802689E-2,-2.8446581E-2,-5.27676E-3,5.4253155E-1,1.0976614E0,1.3668877E-1,6.0559124E-2,-2.0815122E-1,5.6233764E-1,5.637328E-1,-1.3066089E0,1.5510918E-1,2.4326493E-1,-2.4776708E-2,3.7277386E-2,5.7924396E-1,1.44534E-1,9.897277E-2,2.940381E-1,-1.1054975E-1,-3.2886198E-1,-2.533466E-1,-8.823109E-2,-3.8386622E-1,-8.382768E-1,-7.6872475E-2,-2.3989409E-1,-1.4525632E-2,-8.8423565E-2,-3.854803E-2,-1.3902599E-1,-6.783493E-2,-9.837377E-2,-1.5660977E-1,3.2144422E-3,1.14291E-1,-9.175459E-3,-3.193997E-2,6.585394E-2,-2.526423E-2,7.719344E-3,2.984626E-2,1.7385946E-1,-8.194172E-3,6.917296E-2,-4.9323587E0,4.9522498E-1,3.1417446E0,3.686997E-1,2.7303362E-1,8.2120484E-1,1.9383138E-1,1.2707996E-1,1.3974872E-1,2.9904848E-1,1.0825857E-2,-2.9117126E-2,1.2529759E-1,2.7797882E-2,1.9104137E-1,7.8876555E-1,2.1907908E-1,-7.545903E-2,-6.9292486E-2,1.1536731E-1,-8.8477686E-2,-1.9487447E-1,-1.8972732E-1,-6.395124E-1,-6.622869E-1,-1.0472252E-1,3.2339748E-2,-9.021265E-2,-6.105644E-1,-5.0474714E-2,-9.390888E-2,-5.709261E-2,-6.3765806E-1,-1.6493507E-1,-5.0170444E-2,4.0308014E-3,-1.2674522E-1,-2.5634193E-1,-7.071625E-2,-3.321795E-2,-1.1464908E-1,-4.356642E-2,-3.342592E-2,-3.2231036E-1,1.3843007E-1,-1.4227516E-2,2.6756325E-1,9.2899755E-2,1.4538138E-1,-2.8348884E-2,-1.19681336E-1,-3.006557E-2,2.7800485E-1,6.0201692E-3,-1.8908635E-2,-4.4700436E-2,1.9669889E-2,-2.897931E-2,8.7005496E-2,-3.3466676E-1,4.6637166E-1,1.6248044E-1,-4.335769E-2,1.0575707E-1,1.0715285E-1,3.379295E-2,-2.15937E-1,6.3495606E-1,2.210683E-1,4.0710926E0,2.3723093E-1,5.6350386E-1,2.308155E0,9.544141E-2,-1.8133337E0,9.250394E-1,-4.0312353E-1,1.9761866E-1,1.7336203E-1,8.675029E-2,3.3568722E-1,2.4452737E-2,3.4384212E-1,1.4910997E-1],"categories":[],"categories_nodes":[],"categories_segments":[],"categories_sizes":[],"default_left":[true,true,true,true,true,true,true,true,true,true,true,true,true,true,true,true,true,false,true,true,true,true,true,true,true,true,true,true,false,true,true,false,false,false,true,true,true,true,true,true,true,true,false,true,true,true,true,true,true,false,false,true,true,true,true,true,false,true,true,true,true,true,true,true,false,true,true,true,true,true,false,true,true,false,false,true,true,true,true,true,true,true,true,true,true,true,true,true,true,true,true,false,true,true,true,true,true,true,true,true,true,false,false,false,false,false,false,false,false,false,false,false,false,false,false,false,false,false,false,false,false,false,false,false,false,false,false,false,false,false,false,false,false,false,false,false,false,false,false,false,false,false,false,false,false,false,false,false,false,false,false,false,false,false,false,false,false,false,false,false,false,false,false,false,false,false,false,false,false,false,false,false,false,false,false],"id":134,"left_children":[1,3,5,7,9,11,13,15,17,19,21,23,25,27,29,31,33,-1,35,37,39,41,43,45,47,49,51,53,-1,55,57,-1,-1,-1,59,61,63,65,67,69,71,73,-1,75,77,79,81,83,85,-1,-1,87,89,91,93,95,-1,97,99,101,103,105,107,109,-1,111,113,115,117,119,-1,121,123,-1,-1,125,127,129,131,133,135,137,139,141,143,145,147,149,151,153,155,-1,157,159,161,163,165,167,169,171,173,-1,-1,-1,-1,-1,-1,-1,-1,-1,-1,-1,-1,-1,-1,-1,-1,-1,-1,-1,-1,-1,-1,-1,-1,-1,-1,-1,-1,-1,-1,-1,-1,-1,-1,-1,-1,-1,-1,-1,-1,-1,-1,-1,-1,-1,-1,-1,-1,-1,-1,-1,-1,-1,-1,-1,-1,-1,-1,-1,-1,-1,-1,-1,-1,-1,-1,-1,-1,-1,-1,-1,-1,-1,-1],"loss_changes":[2.4532593E1,5.171096E0,1.9002823E1,1.336756E0,2.3386192E-1,1.9701128E0,1.6689407E1,1.6522864E0,1.0663283E0,1.7589355E-1,1.899147E-1,1.8450026E-1,1.8318706E0,1.0114084E2,7.921036E0,1.4505923E-1,1.9953942E-1,0E0,2.6884508E-1,1.59271E-1,6.213176E-1,2.1505222E0,8.172059E-2,1.3980615E-1,6.098087E-2,3.4803867E-2,4.0999222E-1,2.534346E1,0E0,4.4884567E0,5.583481E0,0E0,0E0,0E0,1.7695151E-1,7.310567E-1,1.7424661E-1,4.009794E-1,1.3424897E-1,4.731679E-2,1.4368594E-1,2.0234138E-3,0E0,1.10863626E-1,5.8709383E-3,7.306615E-2,1.3255852E-1,5.8965743E-2,8.326512E-2,0E0,0E0,3.6205816E-1,1.8840098E-1,1.8806807E2,8.813658E1,4.500242E0,0E0,5.4208527E0,4.838085E0,9.534825E-3,1.6464496E-1,3.6958194E-1,2.7542052E-1,1.3389859E-1,0E0,5.969438E-2,4.3756855E-1,2.9009065E-1,3.43709E-2,1.5665597E-1,0E0,1.2252405E-3,2.3176664E-1,0E0,0E0,8.3136335E-3,5.6218028E-2,8.539587E-3,6.187089E-3,5.9374705E-2,4.802496E-2,8.274457E-2,3.625382E-2,2.5006443E-2,7.5786285E-2,1.441662E-2,8.4847346E-2,5.1317215E-1,1.9320893E-1,1.4221765E-1,3.7481797E-1,0E0,4.9540367E0,3.3115715E1,4.178297E0,1.0494007E1,9.391718E0,4.7744064E0,5.414196E0,6.6639814E0,3.6452065E0,0E0,0E0,0E0,0E0,0E0,0E0,0E0,0E0,0E0,0E0,0E0,0E0,0E0,0E0,0E0,0E0,0E0,0E0,0E0,0E0,0E0,0E0,0E0,0E0,0E0,0E0,0E0,0E0,0E0,0E0,0E0,0E0,0E0,0E0,0E0,0E0,0E0,0E0,0E0,0E0,0E0,0E0,0E0,0E0,0E0,0E0,0E0,0E0,0E0,0E0,0E0,0E0,0E0,0E0,0E0,0E0,0E0,0E0,0E0,0E0,0E0,0E0,0E0,0E0,0E0,0E0,0E0,0E0,0E0,0E0,0E0,0E0,0E0,0E0],"parents":[2147483647,0,0,1,1,2,2,3,3,4,4,5,5,6,6,7,7,8,8,9,9,10,10,11,11,12,12,13,13,14,14,15,15,16,16,18,18,19,19,20,20,21,21,22,22,23,23,24,24,25,25,26,26,27,27,29,29,30,30,34,34,35,35,36,36,37,37,38,38,39,39,40,40,41,41,43,43,44,44,45,45,46,46,47,47,48,48,51,51,52,52,53,53,54,54,55,55,57,57,58,58,59,59,60,60,61,61,62,62,63,63,65,65,66,66,67,67,68,68,69,69,71,71,72,72,75,75,76,76,77,77,78,78,79,79,80,80,81,81,82,82,83,83,84,84,85,85,86,86,87,87,88,88,89,89,90,90,92,92,93,93,94,94,95,95,96,96,97,97,98,98,99,99,100,100],"right_children":[2,4,6,8,10,12,14,16,18,20,22,24,26,28,30,32,34,-1,36,38,40,42,44,46,48,50,52,54,-1,56,58,-1,-1,-1,60,62,64,66,68,70,72,74,-1,76,78,80,82,84,86,-1,-1,88,90,92,94,96,-1,98,100,102,104,106,108,110,-1,112,114,116,118,120,-1,122,124,-1,-1,126,128,130,132,134,136,138,140,142,144,146,148,150,152,154,156,-1,158,160,162,164,166,168,170,172,174,-1,-1,-1,-1,-1,-1,-1,-1,-1,-1,-1,-1,-1,-1,-1,-1,-1,-1,-1,-1,-1,-1,-1,-1,-1,-1,-1,-1,-1,-1,-1,-1,-1,-1,-1,-1,-1,-1,-1,-1,-1,-1,-1,-1,-1,-1,-1,-1,-1,-1,-1,-1,-1,-1,-1,-1,-1,-1,-1,-1,-1,-1,-1,-1,-1,-1,-1,-1,-1,-1,-1,-1,-1,-1],"split_conditions":[5.5555556E-2,9.8790765E-1,7.920965E-1,7.920965E-1,6.0565114E-1,3.9510223E-1,4.096147E-2,3.2949224E-2,2.0884521E-2,7.3010445E-1,1.1379186E-1,1.493518E-1,3.9791144E-2,4.060137E-2,7.4137926E-2,2.2506302E-3,3.7630536E-2,1.704093E-2,2.7758622E-1,2.086207E-1,7.4441844E-1,1.11001074E-1,3.948276E-1,1.6878912E-2,1.6666667E-1,2.3965517E-1,2.9655173E-1,1.6666667E-1,1.399206E-1,1.403493E-1,8.6955345E-1,4.008411E-3,1.5053151E-2,-7.2850524E-3,7.6129995E-2,1.6006482E-1,9.533169E-1,1.3636363E-1,4.1296717E-4,5.672414E-1,8.696435E-1,2.2596326E-2,1.8414991E-2,2.1896552E-1,8.4482753E-1,5E-1,5.8793104E-1,8.206897E-1,7.6129995E-2,1.0850631E-2,2.1953227E-2,1.8968311E-1,3.2068965E-1,2.2506302E-3,2.2506302E-3,2.777778E-1,-2.6132178E-2,4.1348577E-1,6.1551726E-1,1.7230825E-1,1.6034484E-1,2.1206897E-1,8.2186735E-1,2.9137933E-1,5.8807614E-3,2.1398991E-1,1.4482759E-1,3.1418797E-2,4.204177E-2,4.1724136E-1,-1.6765535E-2,6.534483E-1,8.78736E-1,-2.9051263E-4,-1.7684712E-3,8.2186735E-1,3.7931034E-1,9.7344255E-1,9.62069E-1,3.6677136E-3,1.1034483E-1,2.4576882E-2,6.4742017E-1,1.3793103E-1,8.827586E-1,8.594706E-1,7.2727275E-1,1.7545912E-1,2.0273677E-1,5.8579403E-1,6.724883E-1,-9.864717E-2,2.0884521E-2,2.777778E-1,2.7277637E-2,6.670868E-2,5.50054E-2,4.4382427E-2,6.0565114E-1,9.0088224E-1,9.7560316E-1,2.1651713E-4,-5.823425E-4,2.5059518E-3,5.559576E-4,3.8208272E-3,1.577531E-2,4.3815817E-3,-1.5091806E-3,-1.3858497E-3,2.307346E-3,-1.7695536E-3,-3.8974893E-3,-3.7945462E-3,-1.2790248E-2,-1.3245737E-2,-2.0944504E-3,6.46795E-4,-1.804253E-3,-1.2211288E-2,-1.0094943E-3,-1.8781776E-3,-1.1418522E-3,-1.2753161E-2,-3.2987013E-3,-1.0034088E-3,8.0616024E-5,-2.5349045E-3,-5.1268386E-3,-1.4143249E-3,-6.64359E-4,-2.2929816E-3,-8.713284E-4,-6.6851836E-4,-6.446207E-3,2.7686015E-3,-2.845503E-4,5.351265E-3,1.857995E-3,2.9076275E-3,-5.6697766E-4,-2.3936266E-3,-6.013114E-4,5.560097E-3,1.2040338E-4,-3.781727E-4,-8.940087E-4,3.9339776E-4,-5.795862E-4,1.7401099E-3,-6.6933353E-3,9.327433E-3,3.249609E-3,-8.6715375E-4,2.1151414E-3,2.1430568E-3,6.75859E-4,-4.3187398E-3,1.2699121E-2,4.421366E-3,8.142185E-2,4.744618E-3,1.1270077E-2,4.61631E-2,1.9088282E-3,-3.6266673E-2,1.8500788E-2,-8.062471E-3,3.9523733E-3,3.4672406E-3,1.7350058E-3,6.7137443E-3,4.890547E-4,6.876842E-3,2.9821994E-3],"split_indices":[4,6,6,6,11,6,5,5,11,5,5,5,5,5,3,5,5,0,3,3,5,5,3,6,4,3,3,4,0,5,5,0,0,0,6,5,11,11,8,3,5,5,0,3,3,0,3,3,6,0,0,5,3,5,5,4,0,5,3,5,3,3,11,3,0,5,3,5,5,3,0,3,5,0,0,11,3,5,3,6,3,5,11,3,3,5,11,5,5,5,5,0,11,4,5,5,5,5,11,5,5,0,0,0,0,0,0,0,0,0,0,0,0,0,0,0,0,0,0,0,0,0,0,0,0,0,0,0,0,0,0,0,0,0,0,0,0,0,0,0,0,0,0,0,0,0,0,0,0,0,0,0,0,0,0,0,0,0,0,0,0,0,0,0,0,0,0,0,0,0,0,0,0,0,0],"split_type":[0,0,0,0,0,0,0,0,0,0,0,0,0,0,0,0,0,0,0,0,0,0,0,0,0,0,0,0,0,0,0,0,0,0,0,0,0,0,0,0,0,0,0,0,0,0,0,0,0,0,0,0,0,0,0,0,0,0,0,0,0,0,0,0,0,0,0,0,0,0,0,0,0,0,0,0,0,0,0,0,0,0,0,0,0,0,0,0,0,0,0,0,0,0,0,0,0,0,0,0,0,0,0,0,0,0,0,0,0,0,0,0,0,0,0,0,0,0,0,0,0,0,0,0,0,0,0,0,0,0,0,0,0,0,0,0,0,0,0,0,0,0,0,0,0,0,0,0,0,0,0,0,0,0,0,0,0,0,0,0,0,0,0,0,0,0,0,0,0,0,0,0,0,0,0],"sum_hessian":[7.88E3,7.65E2,7.115E3,3.4E2,4.25E2,9.71E2,6.144E3,2.65E2,7.5E1,2.16E2,2.09E2,5.6E2,4.11E2,2.35E2,5.909E3,4E0,2.61E2,2E0,7.3E1,1.89E2,2.7E1,2.5E1,1.84E2,6.3E1,4.97E2,3E0,4.08E2,2.33E2,2E0,6.2E1,5.847E3,1E0,3E0,1E0,2.6E2,2.1E1,5.2E1,4.8E1,1.41E2,3E0,2.4E1,2.3E1,2E0,6.5E1,1.19E2,2.2E1,4.1E1,1.78E2,3.19E2,2E0,1E0,9.2E1,3.16E2,5.6E1,1.77E2,6.1E1,1E0,5.006E3,8.41E2,5.9E1,2.01E2,5E0,1.6E1,4.7E1,5E0,3.7E1,1.1E1,5E0,1.36E2,2E0,1E0,1.5E1,9E0,1E0,2.2E1,1.5E1,5E1,1.08E2,1.1E1,3E0,1.9E1,2.9E1,1.2E1,1.72E2,6E0,1.26E2,1.93E2,2.4E1,6.8E1,3.5E1,2.81E2,7E0,4.9E1,1.2E1,1.65E2,2.9E1,3.2E1,2.101E3,2.905E3,2.95E2,5.46E2,6E0,5.3E1,1.9E1,1.82E2,2E0,3E0,1.2E1,4E0,4E0,4.3E1,3E1,7E0,8E0,3E0,1E0,4E0,2E0,1.34E2,1E0,1E0,7E0,8E0,1E0,8E0,1.2E1,3E0,4.6E1,4E0,9.9E1,9E0,8E0,3E0,2E0,1E0,2E0,1.7E1,3E0,2.6E1,1E0,1.1E1,3E0,1.69E2,1E0,5E0,9.6E1,3E1,1.46E2,4.7E1,2.1E1,3E0,2E0,6.6E1,2.7E1,8E0,1.35E2,1.46E2,8E0,4.1E1,3E0,9E0,9.9E1,6.6E1,2E0,2.7E1,1E0,3.1E1,1.3E1,2.088E3,1.352E3,1.553E3,1.09E2,1.86E2,4.2E2,1.26E2],"tree_param":{"num_deleted":"0","num_feature":"12","num_nodes":"175","size_leaf_vector":"0"}},{"base_weights":[1.4856946E-1,1.5709872E0,1.4325514E-1,4.277713E-1,2.9310637E0,-1.8116025E-2,1.6090146E-1,1.5344143E-1,1.4779845E0,3.1801429E0,-9.500278E-2,-7.433541E-2,1.262747E-1,2.9175894E-2,1.8344544E-1,4.5639345E-1,-3.2683608E-1,2.9192666E-2,2.088574E0,4.933296E0,2.879041E0,5.093525E-3,-1.01721354E-1,5.10028E-1,1.1450722E-1,-2.3937044E-3,7.456166E-2,4.9247542E-1,1.7615113E-1,-8.61566E-3,8.895735E-1,5.3760165E-1,-0E0,-1.1803587E-1,-7.697624E-2,1.7997712E-1,6.4521307E-1,5.695152E-4,1.4020808E-1,-1.7184295E-2,1.8757792E-2,1.1657142E-1,3.136723E-2,3.8651368E-1,7.0903164E-1,4.0670574E-1,1.6801237E-1,1.9741464E-1,-9.4450064E-2,-3.0007962E-2,1.4569902E-2,-1.7772247E-1,-1.1075805E-1,9.1801904E-2,-8.357216E-2,6.569321E-2,2.3855582E-1,4.708623E-1,9.0901244E-1,4.5470245E-2,-6.9767885E-2,5.241708E-1,1.2760526E-1,1.1101838E-2,-2.0872282E-2,7.277101E-2,5.8176434E-3,-1.08722225E-1,1.2438378E-1,5.133263E-3,8.335926E-2,4.3175855E-1,-5.830904E-1,1.3353717E-1,8.307766E-1,9.0070784E-2,5.643004E-1,2.5067544E-1,1.5328126E-1,3.3448756E-2,-3.498768E-2,2.6254313E-2,-2.1749297E-2,-2.3010468E-1,-7.2563834E-2,-9.646236E-2,-1.316818E-1,-5.8185186E-2,3.6333534E-1,-7.6983266E-2,-1.01575546E-1,-3.6827698E-3,1.417015E-1,-3.452182E-2,-2.5508094E-1,3.301684E-1,1.012853E0,5.5331953E-2,1.5156344E-1,-5.8841567E-2,7.212284E-2,-5.138578E-3,-2.8837241E-2,2.3476567E-2,1.2048199E-1,-3.0988913E-2,1.4152951E-2,3.9948615E-1,-2.1224992E-1,9.205717E-2,1.7745811E-1,1.9433178E-1,-3.693511E-3,1.0552161E-1,-1.4389606E-1,3.5554758E-1,1.4215618E0,-1.7863987E-1,-6.822709E-1,-7.05105E-2,2.5539407E-1,6.061227E-1,1.0287431E0,-2.4983926E-1,1.6554949E-1,5.750234E-1,-6.383128E-1,1.22101665E-1,2.9952228E-1,1.2279689E-1,2.1548365E-1],"categories":[],"categories_nodes":[],"categories_segments":[],"categories_sizes":[],"default_left":[true,true,true,true,true,true,true,true,true,true,false,true,true,true,true,true,false,false,false,false,false,true,true,true,true,true,true,true,true,true,false,false,true,true,true,true,true,true,true,true,true,true,true,true,true,true,true,false,false,true,true,true,true,true,true,false,false,false,false,true,true,true,true,true,true,true,true,true,true,true,true,true,true,true,true,true,true,true,true,false,false,false,false,false,false,false,false,false,false,false,false,false,false,false,false,false,false,false,false,false,false,false,false,false,false,false,false,false,false,false,false,false,false,false,false,false,false,false,false,false,false,false,false,false,false,false,false,false,false,false,false],"id":135,"left_children":[1,3,5,7,9,11,13,15,17,19,-1,21,23,25,27,29,-1,-1,-1,-1,-1,31,33,35,37,39,41,43,45,47,-1,-1,49,51,53,55,57,59,61,63,65,67,69,71,73,75,77,-1,-1,79,81,83,85,87,89,-1,-1,-1,-1,91,93,95,97,99,101,103,105,107,109,111,113,115,117,119,121,123,125,127,129,-1,-1,-1,-1,-1,-1,-1,-1,-1,-1,-1,-1,-1,-1,-1,-1,-1,-1,-1,-1,-1,-1,-1,-1,-1,-1,-1,-1,-1,-1,-1,-1,-1,-1,-1,-1,-1,-1,-1,-1,-1,-1,-1,-1,-1,-1,-1,-1,-1,-1,-1,-1],"loss_changes":[5.9560074E1,4.5143448E1,2.2394684E1,4.6068554E0,1.0194588E1,6.2962036E0,2.104483E1,1.9916246E0,2.8983054E0,1.6627808E0,0E0,1.2160587E0,9.53053E-1,1.4859583E0,1.3604446E1,1.6937554E0,0E0,0E0,0E0,0E0,0E0,3.8167536E-1,1.6186047E-1,2.3209202E-1,6.1681247E-1,1.9133653E-1,7.6847553E-1,3.090229E0,1.1064972E1,8.138438E-2,0E0,0E0,6.217213E-2,9.762859E-2,1.8761128E-1,6.055832E-3,3.6896944E-2,1.2493431E-1,8.0232215E-1,3.7806228E-2,1.7440462E-1,3.837359E-1,2.8548092E-1,4.2201653E0,3.125471E0,1.0020256E1,6.937439E0,0E0,0E0,1.5053429E-2,4.1135564E-2,1.3517106E-1,5.9313297E-2,2.693427E-1,1.3864517E-2,0E0,0E0,0E0,0E0,1.1724143E-1,9.3084015E-2,3.749689E-1,2.839961E-1,1.7801659E-1,3.9484277E-2,1.10678166E-1,6.2287588E-2,4.1144526E-1,3.4814858E-1,2.3731728E-1,3.5875154E-1,6.620306E0,1.2090719E-1,2.1585093E-1,1.4291153E0,1.7400959E0,1.8538132E0,5.4038887E0,9.181656E0,0E0,0E0,0E0,0E0,0E0,0E0,0E0,0E0,0E0,0E0,0E0,0E0,0E0,0E0,0E0,0E0,0E0,0E0,0E0,0E0,0E0,0E0,0E0,0E0,0E0,0E0,0E0,0E0,0E0,0E0,0E0,0E0,0E0,0E0,0E0,0E0,0E0,0E0,0E0,0E0,0E0,0E0,0E0,0E0,0E0,0E0,0E0,0E0,0E0,0E0,0E0,0E0],"parents":[2147483647,0,0,1,1,2,2,3,3,4,4,5,5,6,6,7,7,8,8,9,9,11,11,12,12,13,13,14,14,15,15,21,21,22,22,23,23,24,24,25,25,26,26,27,27,28,28,29,29,32,32,33,33,34,34,35,35,36,36,37,37,38,38,39,39,40,40,41,41,42,42,43,43,44,44,45,45,46,46,49,49,50,50,51,51,52,52,53,53,54,54,59,59,60,60,61,61,62,62,63,63,64,64,65,65,66,66,67,67,68,68,69,69,70,70,71,71,72,72,73,73,74,74,75,75,76,76,77,77,78,78],"right_children":[2,4,6,8,10,12,14,16,18,20,-1,22,24,26,28,30,-1,-1,-1,-1,-1,32,34,36,38,40,42,44,46,48,-1,-1,50,52,54,56,58,60,62,64,66,68,70,72,74,76,78,-1,-1,80,82,84,86,88,90,-1,-1,-1,-1,92,94,96,98,100,102,104,106,108,110,112,114,116,118,120,122,124,126,128,130,-1,-1,-1,-1,-1,-1,-1,-1,-1,-1,-1,-1,-1,-1,-1,-1,-1,-1,-1,-1,-1,-1,-1,-1,-1,-1,-1,-1,-1,-1,-1,-1,-1,-1,-1,-1,-1,-1,-1,-1,-1,-1,-1,-1,-1,-1,-1,-1,-1,-1,-1,-1],"split_conditions":[2.7272727E-2,2.777778E-1,5.5555556E-2,7.090609E-2,4.4444448E-1,7.090609E-2,7.920965E-1,1.6666667E-1,3.8609636E-1,9.689189E-1,-1.9000556E-3,5.719247E-1,1.7021276E-2,3.9510223E-1,1.7021276E-2,5.5555556E-2,-6.5367213E-3,5.838533E-4,4.177148E-2,9.866592E-2,5.7580817E-2,5E-1,6.4742017E-1,5.4792248E-2,5.4792248E-2,1.3484347E-1,7.008511E-1,3.3636364E-1,1.8427517E-2,5.719247E-1,1.779147E-2,1.07520325E-2,1.6878912E-2,3.3636364E-1,1.48936175E-2,5.318377E-1,8.110852E-1,6.0565114E-1,1.8427517E-2,1.3882065E-1,1.6584766E-1,1.2285012E-2,8.30303E-1,6.965602E-1,1.6666667E-1,6.818182E-1,5.181818E-1,3.9482927E-3,-1.8890012E-3,1.4127764E-1,6.965602E-1,3.6977887E-1,8.30303E-1,6.965602E-1,7.5757575E-1,1.3138641E-3,4.771116E-3,9.417246E-3,1.818025E-2,5.318377E-1,9.212121E-1,8.110852E-1,3.1941032E-1,1.6878912E-2,6.242424E-1,8.30303E-1,2.0297873E-1,1.6666667E-1,3.5106385E-1,3.969697E-1,3.888889E-1,6.4496315E-1,1.6666667E-1,2.014742E-1,3.5257986E-1,2.6297873E-1,6.1111116E-1,1.6666667E-1,8.30303E-1,6.689751E-4,-6.997536E-4,5.2508625E-4,-4.3498594E-4,-4.6020937E-3,-1.4512767E-3,-1.9292472E-3,-2.633636E-3,-1.1637037E-3,7.266707E-3,-1.5396653E-3,-2.031511E-3,-7.365539E-5,2.83403E-3,-6.9043634E-4,-5.101619E-3,6.6033676E-3,2.025706E-2,1.106639E-3,3.0312687E-3,-1.1768313E-3,1.4424569E-3,-1.02771555E-4,-5.767448E-4,4.6953134E-4,2.4096398E-3,-6.1977823E-4,2.83059E-4,7.989723E-3,-4.244998E-3,1.8411434E-3,3.549162E-3,3.8866354E-3,-7.387022E-5,2.1104321E-3,-2.877921E-3,7.1109515E-3,2.8431237E-2,-3.5727974E-3,-1.3645417E-2,-1.4102099E-3,5.1078815E-3,1.2122453E-2,2.0574862E-2,-4.996785E-3,3.3109896E-3,1.1500468E-2,-1.2766256E-2,2.4420333E-3,5.9904456E-3,2.455938E-3,4.309673E-3],"split_indices":[2,4,4,7,4,7,6,4,6,6,0,6,10,6,10,4,0,0,0,0,0,0,11,9,9,6,10,2,11,6,0,0,6,2,10,6,6,11,11,11,11,11,2,11,4,2,2,0,0,11,11,11,2,11,2,0,0,0,0,6,2,6,11,6,2,2,10,4,10,2,4,11,4,11,11,10,4,4,2,0,0,0,0,0,0,0,0,0,0,0,0,0,0,0,0,0,0,0,0,0,0,0,0,0,0,0,0,0,0,0,0,0,0,0,0,0,0,0,0,0,0,0,0,0,0,0,0,0,0,0,0],"split_type":[0,0,0,0,0,0,0,0,0,0,0,0,0,0,0,0,0,0,0,0,0,0,0,0,0,0,0,0,0,0,0,0,0,0,0,0,0,0,0,0,0,0,0,0,0,0,0,0,0,0,0,0,0,0,0,0,0,0,0,0,0,0,0,0,0,0,0,0,0,0,0,0,0,0,0,0,0,0,0,0,0,0,0,0,0,0,0,0,0,0,0,0,0,0,0,0,0,0,0,0,0,0,0,0,0,0,0,0,0,0,0,0,0,0,0,0,0,0,0,0,0,0,0,0,0,0,0,0,0,0,0],"sum_hessian":[7.892E3,2.9E1,7.863E3,1.6E1,1.3E1,7.75E2,7.088E3,1.3E1,3E0,1.2E1,1E0,5.58E2,2.17E2,1.036E3,6.052E3,8E0,5E0,1E0,2E0,1E0,1.1E1,1.43E2,4.15E2,6E0,2.11E2,6.11E2,4.25E2,1.39E2,5.913E3,4E0,4E0,1E0,1.42E2,2.49E2,1.66E2,2E0,4E0,3.9E1,1.72E2,3.6E2,2.51E2,2.15E2,2.1E2,9.4E1,4.5E1,2.01E2,5.712E3,1E0,3E0,4.6E1,9.6E1,2.6E1,2.23E2,6E0,1.6E2,1E0,1E0,3E0,1E0,2.4E1,1.5E1,5E0,1.67E2,4.1E1,3.19E2,4.8E1,2.03E2,7E0,2.08E2,1.4E2,7E1,9E1,4E0,8E0,3.7E1,6.7E1,1.34E2,8.63E2,4.849E3,3E0,4.3E1,7.3E1,2.3E1,1.7E1,9E0,1.34E2,8.9E1,4E0,2E0,1.19E2,4.1E1,1.6E1,8E0,1.3E1,2E0,4E0,1E0,4.2E1,1.25E2,1.9E1,2.2E1,1.08E2,2.11E2,2.4E1,2.4E1,3.7E1,1.66E2,1E0,6E0,1.3E2,7.8E1,6E0,1.34E2,6.4E1,6E0,8.4E1,6E0,1E0,3E0,3E0,5E0,1.8E1,1.9E1,1.2E1,5.5E1,1.33E2,1E0,2.38E2,6.25E2,3.255E3,1.594E3],"tree_param":{"num_deleted":"0","num_feature":"12","num_nodes":"131","size_leaf_vector":"0"}},{"base_weights":[1.4481582E-1,-9.283193E-2,3.6172143E-1,5.8776636E-2,-1.9930175E-1,3.010158E0,3.307835E-1,5.979533E-3,1.916537E-1,-1.063968E0,-1.7405856E-1,6.0751553E0,2.0260758E0,1.2259464E-1,3.845682E-1,4.6388066E-1,1.6487642E-3,5.4394567E-1,1.6902004E-1,-1.0313328E-1,-1.3161739E0,-1.9098997E-1,1.5319747E-1,7.492692E-1,1.0238008E1,-1.4572027E-1,3.3903062E0,2.057847E0,1.1942794E-1,1.3672508E0,3.7175995E-1,7.287078E-2,1.78788E0,1.2375041E-2,-1.73142E-1,6.804629E-1,3.092273E-1,2.439532E-1,1.1834142E-1,-1.1726506E-1,-1.3645099E-2,-1.4190041E0,-3.7645E-1,-7.8035116E-2,-2.1914609E-1,-1.082175E0,2.184997E-1,-2.383093E-1,3.7819903E0,3.3027016E1,3.8975134E0,1.070099E0,-6.5571733E0,1.7247323E0,6.1176953E0,4.484591E-1,1.1400741E-1,6.7992836E-2,1.8371904E0,-5.2722305E-1,3.757923E-1,2.9072064E-1,-8.977342E-3,2.3190463E0,7.989076E-1,-9.237188E-3,1.8972383E-1,3.8512908E-2,-1.878677E-1,7.551084E-1,1.1859281E-1,1.3878435E-1,4.0731364E-1,2.5967482E-1,2.0040656E-2,2.3503238E-1,7.710038E-2,-0E0,-2.0400437E-2,-1.3080331E0,-1.5995047E0,-9.612947E-1,6.632858E-2,-8.844721E-2,-6.8869166E-2,-4.0782157E-1,-1.9746675E-1,6.4027786E-1,1.7651157E-2,1.0796598E0,1.2069502E1,5.604491E0,5.038476E-1,4.5934625E0,-2.1384518E0,7.9038043E0,2.6436887E0,6.845033E-1,3.5646105E-1,2.1748623E-1,9.7669154E-2,1.8983651E0,-1.6901939E-1,2.927372E0,9.624193E-1,6.8909323E-1,-6.367499E-1,4.1968966E-1,2.853355E-1,3.664959E-2,-9.854063E-2,-5.527619E-3,-4.1371796E-1,-6.022694E-1,2.0602977E-1,-2.1176359E-2,9.881119E-2,-1.9396155E-1,1.1499568E-1,8.1806684E-1,-5.2556396E-2,1.7680274E-1,2.0028507E-2,2.4953423E-1,-1.6208306E-1,2.869162E-1,5.665816E-1,2.2170685E-1,5.22196E-1,-3.6573136E-1,7.055583E-2,2.6684245E-1,-6.8072155E-2,4.428617E-2,2.8061035E-1,-1.5602714E0,-1.1025677E0,-2.0167396E0,-8.981669E-1,-5.538572E-2,-9.091448E-2,-1.0158068E-1,-6.4390235E-2,-5.1049614E-1,-1.7221014E-1,-5.453378E-1,-1.8422662E-1,1.2775269E0,-9.308427E-2,-1.4658803E0,1.9516946E-1,2.9741398E-1,2.7544568E0,-1.840049E-1,1.2918408E0,1.9242876E0,1.117554E1,-2.3420594E0,-7.7860945E-1,4.234464E0,1.3507168E0,8.38792E-2,9.237986E-1,1.4122736E-1,6.4030796E-1,2.5190973E-1,-1.257202E-1,-6.5205926E-3,1.3672166E-1,1.1943005E-1,-7.909646E-1,3.2581048E0,1.6050036E0,1.8615661E0,2.9187298E-1,-7.8720886E-1,1.7890011E-1,3.4394255E-1,6.697617E-1,5.8557844E-1,2.501803E-1],"categories":[],"categories_nodes":[],"categories_segments":[],"categories_sizes":[],"default_left":[true,true,true,true,true,true,true,true,true,true,true,true,true,true,true,true,true,true,true,true,true,true,true,true,true,true,true,false,true,true,true,true,true,true,true,true,true,true,true,false,true,true,true,true,true,false,true,false,false,false,true,true,false,true,true,true,true,true,true,true,true,false,true,false,false,true,true,true,true,true,true,true,true,true,true,true,true,false,false,true,true,false,false,true,true,true,true,true,true,true,false,false,true,true,true,false,true,true,true,true,true,false,true,true,true,false,true,true,true,false,false,false,false,false,false,false,false,false,false,false,false,false,false,false,false,false,false,false,false,false,false,false,false,false,false,false,false,false,false,false,false,false,false,false,false,false,false,false,false,false,false,false,false,false,false,false,false,false,false,false,false,false,false,false,false,false,false,false,false,false,false,false,false,false,false,false,false,false,false,false,false],"id":136,"left_children":[1,3,5,7,9,11,13,15,17,19,21,23,25,27,29,31,33,35,37,39,41,43,45,47,49,51,53,-1,55,57,59,61,63,65,67,69,71,73,75,-1,77,79,81,83,85,-1,87,-1,-1,-1,89,91,-1,93,95,97,99,101,103,105,107,-1,109,-1,-1,111,113,115,117,119,121,123,125,127,129,131,133,-1,-1,135,137,-1,-1,139,141,143,145,147,149,151,-1,-1,153,155,157,-1,159,161,163,165,167,-1,169,171,173,-1,175,177,179,-1,-1,-1,-1,-1,-1,-1,-1,-1,-1,-1,-1,-1,-1,-1,-1,-1,-1,-1,-1,-1,-1,-1,-1,-1,-1,-1,-1,-1,-1,-1,-1,-1,-1,-1,-1,-1,-1,-1,-1,-1,-1,-1,-1,-1,-1,-1,-1,-1,-1,-1,-1,-1,-1,-1,-1,-1,-1,-1,-1,-1,-1,-1,-1,-1,-1,-1,-1,-1,-1,-1,-1],"loss_changes":[4.0457407E2,6.0462097E1,3.3583582E2,1.0838122E1,4.794713E1,1.3854745E2,4.539737E1,2.1870344E0,3.462265E0,1.503965E1,1.1858612E1,2.4855823E2,1.0786093E2,4.9939575E0,4.037607E1,5.2796173E0,2.0538867E0,7.59521E-1,1.554843E0,1.4460981E-2,4.5634384E0,6.45681E0,8.564056E0,1.6325115E1,8.7169366E2,1.1415001E2,9.782309E1,0E0,1.4594126E0,2.5168259E1,1.1599915E1,1.5347995E-1,5.634942E-1,3.9638255E0,2.0193875E-1,6.4271784E-1,1.4611584E-1,5.7981205E-1,1.1797862E0,0E0,1.2049521E-4,1.4884949E-1,1.4151666E0,3.4503937E-2,6.6208878E0,0E0,8.486448E0,0E0,0E0,0E0,1.1828334E2,3.0638706E1,0E0,1.6216042E2,4.4590424E1,1.9332933E-1,1.3736391E0,5.048359E0,2.7932816E1,2.0550692E0,1.2530884E1,0E0,2.796886E-2,0E0,0E0,1.3756714E0,1.486423E0,1.7402023E-2,1.180706E-1,7.541046E-1,9.399641E-3,1.5913048E-1,5.5063248E-2,1.4990511E0,2.2525388E-1,6.291816E-1,1.2155261E0,0E0,0E0,9.085884E-1,3.8413048E0,0E0,0E0,1.159668E-2,2.7440071E-2,4.008959E0,6.6821823E0,1.5167089E1,1.8073172E1,5.3605776E0,0E0,0E0,6.238074E0,1.3905028E2,1.100956E0,0E0,4.869398E0,4.3889475E-1,5.900037E-1,1.3276954E0,2.8842711E0,0E0,1.8949022E0,4.018219E0,1.0238783E1,0E0,1.6919484E0,4.0299896E1,1.0877838E1,0E0,0E0,0E0,0E0,0E0,0E0,0E0,0E0,0E0,0E0,0E0,0E0,0E0,0E0,0E0,0E0,0E0,0E0,0E0,0E0,0E0,0E0,0E0,0E0,0E0,0E0,0E0,0E0,0E0,0E0,0E0,0E0,0E0,0E0,0E0,0E0,0E0,0E0,0E0,0E0,0E0,0E0,0E0,0E0,0E0,0E0,0E0,0E0,0E0,0E0,0E0,0E0,0E0,0E0,0E0,0E0,0E0,0E0,0E0,0E0,0E0,0E0,0E0,0E0,0E0,0E0,0E0,0E0,0E0,0E0,0E0,0E0],"parents":[2147483647,0,0,1,1,2,2,3,3,4,4,5,5,6,6,7,7,8,8,9,9,10,10,11,11,12,12,13,13,14,14,15,15,16,16,17,17,18,18,19,19,20,20,21,21,22,22,23,23,24,24,25,25,26,26,28,28,29,29,30,30,31,31,32,32,33,33,34,34,35,35,36,36,37,37,38,38,40,40,41,41,42,42,43,43,44,44,46,46,50,50,51,51,53,53,54,54,55,55,56,56,57,57,58,58,59,59,60,60,62,62,65,65,66,66,67,67,68,68,69,69,70,70,71,71,72,72,73,73,74,74,75,75,76,76,79,79,80,80,83,83,84,84,85,85,86,86,87,87,88,88,89,89,92,92,93,93,94,94,96,96,97,97,98,98,99,99,100,100,102,102,103,103,104,104,106,106,107,107,108,108],"right_children":[2,4,6,8,10,12,14,16,18,20,22,24,26,28,30,32,34,36,38,40,42,44,46,48,50,52,54,-1,56,58,60,62,64,66,68,70,72,74,76,-1,78,80,82,84,86,-1,88,-1,-1,-1,90,92,-1,94,96,98,100,102,104,106,108,-1,110,-1,-1,112,114,116,118,120,122,124,126,128,130,132,134,-1,-1,136,138,-1,-1,140,142,144,146,148,150,152,-1,-1,154,156,158,-1,160,162,164,166,168,-1,170,172,174,-1,176,178,180,-1,-1,-1,-1,-1,-1,-1,-1,-1,-1,-1,-1,-1,-1,-1,-1,-1,-1,-1,-1,-1,-1,-1,-1,-1,-1,-1,-1,-1,-1,-1,-1,-1,-1,-1,-1,-1,-1,-1,-1,-1,-1,-1,-1,-1,-1,-1,-1,-1,-1,-1,-1,-1,-1,-1,-1,-1,-1,-1,-1,-1,-1,-1,-1,-1,-1,-1,-1,-1,-1,-1,-1],"split_conditions":[6.621175E-1,6.572582E-1,5E-1,4.4565028E-1,6.724138E-2,1.6666667E-1,9.8790765E-1,5E-1,5.0082594E-1,5.5555556E-2,5E-1,8.1140214E-1,2.777778E-1,6.724138E-2,7.4137926E-2,3.7589142E-1,4.3256068E-1,7.008511E-1,2.777778E-1,5E-1,5E-1,5.5555556E-2,1.3234043E-1,7.938249E-1,8.349742E-1,8.7090075E-1,8.5870504E-1,4.115694E-2,1.48936175E-2,8.2218254E-1,5.5555556E-2,5.798222E-2,3.9780295E-1,3.989272E-1,5.0082594E-1,6.5037763E-1,6.237868E-1,6.4979887E-1,3.0172414E-1,-2.3453012E-3,5.0041294E-1,2.777778E-1,5E-1,3.9234042E-1,5.0082594E-1,-2.16435E-2,3.3965516E-1,-4.766186E-3,7.563981E-2,6.605403E-1,8.751397E-1,7.290039E-1,-1.3114347E-1,8.349742E-1,4.4444448E-1,1.4482759E-1,7.2128004E-1,7.554066E-1,8.349742E-1,7.510687E-1,8.349742E-1,5.8144126E-3,1.6666667E-1,4.6380926E-2,1.5978152E-2,3.9342475E-1,4.1296717E-4,4.4827586E-1,9.206897E-1,5E-1,4.6206897E-1,5.585604E-1,9.9787235E-1,6.4150774E-1,2.5172415E-1,6.4979887E-1,6.474741E-1,-0E0,-4.0800872E-4,1.6666667E-1,5E-1,-1.9225894E-2,1.3265716E-3,1.5E-1,5.0082594E-1,2.777778E-1,7.4893616E-2,9.9787235E-1,3.6551723E-1,8.571358E-1,2.4139003E-1,1.1208982E-1,8.2218254E-1,8.0838656E-1,3.888889E-1,1.5807608E-1,8.76709E-1,7.1752775E-1,2.1206897E-1,9.5682657E-1,5.4792248E-2,3.7967302E-2,7.958708E-1,3.888889E-1,6.8723404E-1,1.3781864E-2,8.0838656E-1,8.2218254E-1,5.0082594E-1,7.329917E-4,-1.9708124E-3,-1.1055238E-4,-8.274359E-3,-1.2045388E-2,4.1205953E-3,-4.2352718E-4,1.9762237E-3,-3.879231E-3,2.2999137E-3,1.6361337E-2,-1.0511279E-3,3.5360546E-3,4.0057013E-4,4.990685E-3,-3.241661E-3,5.738324E-3,1.1331632E-2,4.434137E-3,1.0443919E-2,-7.314627E-3,1.4111166E-3,5.336849E-3,-1.3614431E-3,8.8572333E-4,5.612207E-3,-3.1205427E-2,-2.2051353E-2,-4.033479E-2,-1.7963337E-2,-1.1077144E-3,-1.8182895E-3,-2.0316136E-3,-1.2878047E-3,-1.0209923E-2,-3.4442027E-3,-1.0906756E-2,-3.6845324E-3,2.5550537E-2,-1.8616853E-3,-2.9317604E-2,3.9033892E-3,5.9482795E-3,5.5089135E-2,-3.6800979E-3,2.5836816E-2,3.848575E-2,2.235108E-1,-4.6841186E-2,-1.5572188E-2,8.468928E-2,2.7014336E-2,1.677584E-3,1.8475972E-2,2.8245472E-3,1.28061585E-2,5.0381944E-3,-2.514404E-3,-1.3041185E-4,2.7344332E-3,2.388601E-3,-1.5819293E-2,6.516209E-2,3.210007E-2,3.723132E-2,5.8374596E-3,-1.5744178E-2,3.578002E-3,6.878851E-3,1.3395234E-2,1.1711569E-2,5.003606E-3],"split_indices":[1,1,0,1,3,4,6,0,8,4,4,1,4,3,3,1,1,10,4,0,4,4,10,1,1,1,1,0,10,1,4,1,1,1,8,1,1,1,3,0,8,4,0,10,8,0,3,0,0,0,1,1,0,1,4,3,1,1,1,1,1,0,4,0,0,1,8,3,3,4,3,1,10,1,3,1,1,0,0,4,0,0,0,3,8,4,10,10,3,1,0,0,1,1,4,0,1,1,3,6,9,0,1,4,10,0,1,1,8,0,0,0,0,0,0,0,0,0,0,0,0,0,0,0,0,0,0,0,0,0,0,0,0,0,0,0,0,0,0,0,0,0,0,0,0,0,0,0,0,0,0,0,0,0,0,0,0,0,0,0,0,0,0,0,0,0,0,0,0,0,0,0,0,0,0,0,0,0,0,0,0],"split_type":[0,0,0,0,0,0,0,0,0,0,0,0,0,0,0,0,0,0,0,0,0,0,0,0,0,0,0,0,0,0,0,0,0,0,0,0,0,0,0,0,0,0,0,0,0,0,0,0,0,0,0,0,0,0,0,0,0,0,0,0,0,0,0,0,0,0,0,0,0,0,0,0,0,0,0,0,0,0,0,0,0,0,0,0,0,0,0,0,0,0,0,0,0,0,0,0,0,0,0,0,0,0,0,0,0,0,0,0,0,0,0,0,0,0,0,0,0,0,0,0,0,0,0,0,0,0,0,0,0,0,0,0,0,0,0,0,0,0,0,0,0,0,0,0,0,0,0,0,0,0,0,0,0,0,0,0,0,0,0,0,0,0,0,0,0,0,0,0,0,0,0,0,0,0,0,0,0,0,0,0,0],"sum_hessian":[7.848E3,3.745E3,4.103E3,1.545E3,2.2E3,4.7E1,4.056E3,1.106E3,4.39E2,6.2E1,2.138E3,1.1E1,3.6E1,8.33E2,3.223E3,1E1,1.096E3,2.6E1,4.13E2,1.3E1,4.9E1,2.033E3,1.05E2,5E0,6E0,1.4E1,2.2E1,1E0,8.32E2,4.1E1,3.182E3,8E0,2E0,1.033E3,6.3E1,1.6E1,1E1,1.66E2,2.47E2,1.1E1,2E0,4.4E1,5E0,4.06E2,1.627E3,5E0,1E2,4E0,1E0,1E0,5E0,1.2E1,2E0,1.4E1,8E0,1.3E1,8.19E2,1.1E1,3E1,1.4E1,3.168E3,2E0,6E0,1E0,1E0,9.21E2,1.12E2,4E0,5.9E1,1.4E1,2E0,4E0,6E0,1.55E2,1.1E1,6.4E1,1.83E2,1E0,1E0,2.9E1,1.5E1,2E0,3E0,1.88E2,2.18E2,1.67E2,1.46E3,3.2E1,6.8E1,4E0,1E0,1E0,1.1E1,8E0,6E0,5E0,3E0,3E0,1E1,1.11E2,7.08E2,1E0,1E1,1.3E1,1.7E1,1E0,1.3E1,2.132E3,1.036E3,4E0,2E0,9.13E2,8E0,2E0,1.1E2,2E0,2E0,5.8E1,1E0,1.3E1,1E0,1E0,1E0,3E0,1E0,4E0,2E0,1.36E2,1.9E1,1E0,1E1,5.8E1,6E0,1.58E2,2.5E1,1.2E1,1.7E1,9E0,6E0,1.4E1,1.74E2,2.5E1,1.93E2,1.16E2,5.1E1,5.3E1,1.407E3,1.7E1,1.5E1,7E0,6.1E1,3E0,1E0,6E0,5E0,6E0,2E0,5E0,1E0,1E0,2E0,1E0,2E0,6E0,4E0,1.01E2,1E1,1.93E2,5.15E2,7E0,3E0,1E1,3E0,7E0,1E1,1.1E1,2E0,1.637E3,4.95E2,1.08E2,9.28E2],"tree_param":{"num_deleted":"0","num_feature":"12","num_nodes":"181","size_leaf_vector":"0"}},{"base_weights":[1.3757883E-1,-9.8535195E-2,3.536965E-1,5.4758217E-2,-2.0617697E-1,6.1338043E0,3.2933083E-1,-7.227555E-3,1.51891E-1,-9.5367134E-1,-1.8600133E-1,1.6814424E0,9.094238E0,1.5234618E0,3.0794826E-1,-2.8024937E-3,-4.0957385E-1,7.8269446E-1,1.4620708E-1,-1.8879857E0,-7.229401E-1,-4.5889696E-1,-1.7933968E-1,8.588005E0,-1.4427363E0,2.4939575E1,4.291729E0,4.1848826E0,1.2167315E0,3.507816E-1,1.3939634E-1,5.1357836E-2,-1.3738896E-2,1.2718262E-1,2.626143E-1,-0E0,-7.3844296E-1,2.4823031E-1,-6.115229E-1,-4.266947E-1,-1.7339538E-1,-2.1682787E0,1.265207E0,-1.4246752E0,9.681165E0,3.0244741E0,6.23299E0,-1.5233047E-1,1.6996084E0,5.233721E-1,3.1867266E-1,1.2147579E-1,2.6600897E-1,1.14019416E-1,3.8077526E-2,-2.7820693E-2,2.7633715E-2,2.1206401E-1,9.149972E-2,1.4429325E0,2.2792517E-1,-6.7678666E-1,-9.300219E-1,-3.9641476E-1,1.0258245E0,-7.619507E-1,-2.2386357E-1,1.2760265E-1,-5.517891E-1,-1.8105152E-1,-3.3034977E-2,3.974654E-1,-2.015335E0,5.520433E0,2.020399E0,1.238174E-1,-5.3646404E-1,3.7255847E0,1.0690114E0,3.397133E-1,6.984798E-1,1.5138343E-1,3.4506294E-1,2.4639851E-1,1.03230074E-1,1.2773651E-1,7.2579443E-1,2.4041794E-1,9.455519E-2,2.8573725E-1,3.340071E-2,-1.3524873E-2,-1.593968E-1,6.2092997E-2,-8.9568235E-2,1.7903978E-1,3.615908E-1,2.8466484E-1,6.815157E-2,3.0937654E-1,3.8438155E-3,-7.0417684E-1,-3.3091217E-1,-1.7877676E0,-7.727192E-1,-7.7913105E-1,-8.457325E-2,2.0868702E0,-1.7570668E-1,-5.545448E-1,-1.0484974E0,1.6304635E0,-4.3671137E-1,6.6173387E-1,-8.9571273E-1,-2.221541E-1,-6.8828046E-1,-1.0406093E-1,-1.9889584E-1,3.8512552E-1,-1.8966466E-1,2.6150444E-1,-8.3651945E-2,-9.814499E-1,-1.4959003E-1,6.395845E0,2.5066597E0,-8.289547E-1,1.516585E0,3.3733837E-2,5.806257E-1,1.4255549E0,3.9273587E-1,2.4620807E-1,-6.9931187E-3,3.9829832E-1,2.3575215E-1,4.9451137E-1,2.0293513E-1,1.3409603E-1,1.5720313E-2,1.9662607E-2,2.145462E-1,-3.014145E-2,2.7586803E0],"categories":[],"categories_nodes":[],"categories_segments":[],"categories_sizes":[],"default_left":[true,true,true,true,true,true,true,true,true,true,true,true,true,true,true,true,false,false,true,false,true,true,true,false,true,false,true,true,true,true,true,true,true,true,true,false,true,true,true,true,true,false,false,true,false,true,false,true,true,true,true,true,true,true,true,true,true,true,true,false,true,true,true,true,true,true,true,true,true,true,true,false,false,false,false,true,true,true,true,true,true,true,true,true,true,true,true,false,false,false,false,false,false,false,false,false,false,false,false,false,false,false,false,false,false,false,false,false,false,false,false,false,false,false,false,false,false,false,false,false,false,false,false,false,false,false,false,false,false,false,false,false,false,false,false,false,false,false,false,false,false,false,false,false,false],"id":137,"left_children":[1,3,5,7,9,11,13,15,17,19,21,23,25,27,29,31,-1,-1,33,-1,35,37,39,-1,41,-1,43,45,47,49,51,53,55,57,59,-1,61,63,65,67,69,-1,-1,71,-1,73,-1,75,77,79,81,83,85,87,89,91,93,95,97,-1,99,101,103,105,107,109,111,113,115,117,119,-1,-1,-1,-1,121,123,125,127,129,131,133,135,137,139,141,143,-1,-1,-1,-1,-1,-1,-1,-1,-1,-1,-1,-1,-1,-1,-1,-1,-1,-1,-1,-1,-1,-1,-1,-1,-1,-1,-1,-1,-1,-1,-1,-1,-1,-1,-1,-1,-1,-1,-1,-1,-1,-1,-1,-1,-1,-1,-1,-1,-1,-1,-1,-1,-1,-1,-1,-1,-1,-1],"loss_changes":[4.0407526E2,6.245036E1,5.8149774E2,9.402984E0,3.3455048E1,2.232182E2,1.04947845E2,1.6910565E0,2.1297235E0,1.2082874E1,3.8999023E0,1.6247049E2,7.502403E2,5.727353E1,2.9182587E1,5.5845314E-1,0E0,0E0,1.3194351E0,0E0,5.270729E-1,5.596019E0,3.0755768E0,0E0,1.1406523E1,0E0,2.614564E2,1.1010529E1,4.3299614E1,1.7806183E1,1.845007E0,1.2814227E-1,4.5779485E-1,1.5621634E0,3.3194628E0,0E0,3.1447792E-1,4.8231955E0,2.3977222E0,3.4502878E0,2.2144012E0,0E0,0E0,4.9541626E0,0E0,9.53944E0,0E0,1.8667303E0,6.0353134E1,1.6157623E1,1.19852295E1,1.6261101E0,6.399252E0,5.4888338E-2,1.4438337E-1,1.0997009E0,8.0650973E-1,7.2786236E-1,1.6406796E0,0E0,1.4978638E0,2.517376E-1,8.970566E-1,6.0223925E-1,5.674191E0,1.5860043E0,5.0883083E0,5.2958517E0,1.750721E0,2.6792145E0,7.0515203E0,0E0,0E0,0E0,0E0,3.05016E-1,1.1973906E0,3.1415436E1,3.214306E1,1.8216705E1,5.7214577E1,5.5806723E0,1.363092E1,9.415107E-1,1.694334E0,7.3016644E-1,3.5923927E1,0E0,0E0,0E0,0E0,0E0,0E0,0E0,0E0,0E0,0E0,0E0,0E0,0E0,0E0,0E0,0E0,0E0,0E0,0E0,0E0,0E0,0E0,0E0,0E0,0E0,0E0,0E0,0E0,0E0,0E0,0E0,0E0,0E0,0E0,0E0,0E0,0E0,0E0,0E0,0E0,0E0,0E0,0E0,0E0,0E0,0E0,0E0,0E0,0E0,0E0,0E0,0E0,0E0,0E0,0E0,0E0,0E0,0E0],"parents":[2147483647,0,0,1,1,2,2,3,3,4,4,5,5,6,6,7,7,8,8,9,9,10,10,11,11,12,12,13,13,14,14,15,15,18,18,20,20,21,21,22,22,24,24,26,26,27,27,28,28,29,29,30,30,31,31,32,32,33,33,34,34,36,36,37,37,38,38,39,39,40,40,43,43,45,45,47,47,48,48,49,49,50,50,51,51,52,52,53,53,54,54,55,55,56,56,57,57,58,58,60,60,61,61,62,62,63,63,64,64,65,65,66,66,67,67,68,68,69,69,70,70,75,75,76,76,77,77,78,78,79,79,80,80,81,81,82,82,83,83,84,84,85,85,86,86],"right_children":[2,4,6,8,10,12,14,16,18,20,22,24,26,28,30,32,-1,-1,34,-1,36,38,40,-1,42,-1,44,46,48,50,52,54,56,58,60,-1,62,64,66,68,70,-1,-1,72,-1,74,-1,76,78,80,82,84,86,88,90,92,94,96,98,-1,100,102,104,106,108,110,112,114,116,118,120,-1,-1,-1,-1,122,124,126,128,130,132,134,136,138,140,142,144,-1,-1,-1,-1,-1,-1,-1,-1,-1,-1,-1,-1,-1,-1,-1,-1,-1,-1,-1,-1,-1,-1,-1,-1,-1,-1,-1,-1,-1,-1,-1,-1,-1,-1,-1,-1,-1,-1,-1,-1,-1,-1,-1,-1,-1,-1,-1,-1,-1,-1,-1,-1,-1,-1,-1,-1,-1,-1],"split_conditions":[6.621175E-1,6.572582E-1,2.7272727E-2,3.989272E-1,6.724138E-2,8.2218254E-1,6.724138E-2,3.9342475E-1,7.241379E-2,2.7272727E-2,4.1296717E-4,7.876776E-1,8.349742E-1,7.7943826E-1,7.090609E-2,8.23977E-2,-8.191477E-3,1.565389E-2,6.430696E-1,-3.7759714E-2,5.0041294E-1,2.2481573E-1,1.15517244E-1,1.717601E-1,1.166234E-1,4.987915E-1,8.7090075E-1,7.5787616E-1,8.2218254E-1,2.5344828E-1,9.212121E-1,2.685066E-2,3.279013E-1,3.086207E-1,3.3636364E-1,-0E0,3.5106385E-1,1.4127764E-1,5.3103447E-1,1.4619164E-1,7.827586E-1,-4.336557E-2,2.530414E-2,8.4844077E-1,1.9362329E-1,7.290039E-1,1.2465979E-1,7.958708E-1,8.349742E-1,8.2218254E-1,7.554066E-1,7.2128004E-1,9.345995E-1,5.0082594E-1,5E-1,3.2117623E-1,3.8608843E-1,6.341465E-1,4.1206574E-1,2.8858649E-2,6.4979887E-1,5E-1,6.893617E-1,1.3390663E-1,3.6206895E-1,3.9234042E-1,1.8085107E-1,9.9787235E-1,1.5446809E-1,5.181818E-1,6.621622E-1,7.949308E-3,-4.0306702E-2,1.1040866E-1,4.040798E-2,5E-1,5E-1,5E-1,8.571358E-1,5.181818E-1,8.349742E-1,7.290039E-1,8.4422266E-1,2.5689656E-1,5.8854413E-1,7.7778685E-1,3.3103448E-1,4.808359E-3,1.8911038E-3,5.714745E-3,6.680142E-4,-2.7049746E-4,-3.1879358E-3,1.2418599E-3,-1.7913646E-3,3.5807954E-3,7.2318157E-3,5.6932964E-3,1.3630313E-3,6.1875307E-3,7.6876306E-5,-1.4083536E-2,-6.618243E-3,-3.575535E-2,-1.5454384E-2,-1.5582621E-2,-1.6914649E-3,4.1737404E-2,-3.5141336E-3,-1.1090896E-2,-2.0969948E-2,3.260927E-2,-8.734227E-3,1.3234677E-2,-1.7914254E-2,-4.443082E-3,-1.3765609E-2,-2.0812186E-3,-3.9779167E-3,7.7025103E-3,-3.7932931E-3,5.2300887E-3,-1.6730388E-3,-1.9628998E-2,-2.9918004E-3,1.279169E-1,5.0133195E-2,-1.6579093E-2,3.03317E-2,6.7467673E-4,1.1612514E-2,2.8511098E-2,7.854717E-3,4.9241614E-3,-1.3986237E-4,7.965966E-3,4.715043E-3,9.890227E-3,4.0587024E-3,2.6819205E-3,3.1440626E-4,3.9325215E-4,4.290924E-3,-6.02829E-4,5.5173606E-2],"split_indices":[1,1,2,1,3,1,3,1,3,2,8,1,1,1,7,1,0,0,1,0,8,11,3,0,7,0,1,1,1,3,2,1,1,3,2,0,10,11,3,11,3,0,0,1,0,1,0,1,1,1,1,1,1,8,0,1,1,1,1,0,1,0,10,11,3,10,10,10,10,2,11,0,0,0,0,0,0,0,1,2,1,1,1,3,7,1,3,0,0,0,0,0,0,0,0,0,0,0,0,0,0,0,0,0,0,0,0,0,0,0,0,0,0,0,0,0,0,0,0,0,0,0,0,0,0,0,0,0,0,0,0,0,0,0,0,0,0,0,0,0,0,0,0,0,0],"split_type":[0,0,0,0,0,0,0,0,0,0,0,0,0,0,0,0,0,0,0,0,0,0,0,0,0,0,0,0,0,0,0,0,0,0,0,0,0,0,0,0,0,0,0,0,0,0,0,0,0,0,0,0,0,0,0,0,0,0,0,0,0,0,0,0,0,0,0,0,0,0,0,0,0,0,0,0,0,0,0,0,0,0,0,0,0,0,0,0,0,0,0,0,0,0,0,0,0,0,0,0,0,0,0,0,0,0,0,0,0,0,0,0,0,0,0,0,0,0,0,0,0,0,0,0,0,0,0,0,0,0,0,0,0,0,0,0,0,0,0,0,0,0,0,0,0],"sum_hessian":[7.918E3,3.784E3,4.134E3,1.561E3,2.223E3,1.7E1,4.117E3,9.53E2,6.08E2,5.8E1,2.165E3,7E0,1E1,7.2E1,4.045E3,9.43E2,1E1,5E0,6.03E2,1.1E1,4.7E1,5.1E1,2.114E3,2E0,5E0,2E0,8E0,7E0,6.5E1,3.225E3,8.2E2,1.58E2,7.85E2,5.19E2,8.4E1,1E0,4.6E1,9E0,4.2E1,4.9E1,2.065E3,4E0,1E0,4E0,4E0,5E0,2E0,1.7E1,4.8E1,5.05E2,2.72E3,7.19E2,1.01E2,2.7E1,1.31E2,5.86E2,1.99E2,1.53E2,3.66E2,2E0,8.2E1,3.6E1,1E1,5E0,4E0,3E1,1.2E1,9E0,4E1,1.958E3,1.07E2,1E0,3E0,1E0,4E0,1E1,7E0,1.1E1,3.7E1,2.47E2,2.58E2,3.71E2,2.349E3,9.1E1,6.28E2,7.8E1,2.3E1,3E0,2.4E1,2E0,1.29E2,5.29E2,5.7E1,1.54E2,4.5E1,1.26E2,2.7E1,3.9E1,3.27E2,6E1,2.2E1,3.3E1,3E0,1E0,9E0,2E0,3E0,2E0,2E0,1.8E1,1.2E1,1E0,1.1E1,6E0,3E0,1.2E1,2.8E1,3.69E2,1.589E3,2.9E1,7.8E1,6E0,4E0,3E0,4E0,3E0,8E0,7E0,3E1,1.09E2,1.38E2,7.6E1,1.82E2,2.32E2,1.39E2,1.579E3,7.7E2,1.3E1,7.8E1,4.64E2,1.64E2,3.5E1,4.3E1,1.7E1,6E0],"tree_param":{"num_deleted":"0","num_feature":"12","num_nodes":"145","size_leaf_vector":"0"}},{"base_weights":[1.3082649E-1,-7.238212E-2,3.13938E-1,5.3513672E-2,-1.6059023E-1,-3.1732917E0,3.2258412E-1,-7.78948E-3,1.4248495E-1,-2.5564156E0,-1.5039206E-1,-1.835705E0,-7.490582E0,1.3678762E-1,3.7003446E-1,1.0085497E0,-1.1511673E-2,1.0935919E-1,2.340364E-1,-3.5112453E-1,-1.3542493E-1,-2.1282504E0,-1.398606E0,8.31396E-1,1.33971E-1,5.891234E-1,3.4028792E-1,1.2852743E-1,2.2856073E0,-7.915819E-3,-3.999866E-1,4.0604922E-1,9.636493E-2,6.558085E-1,2.141693E-1,-4.9837583E-1,-2.774143E-1,-4.256464E-1,-1.2400389E-1,3.9150402E-1,-1.9790606E0,1.4269226E0,-4.0794602E-1,3.8364854E-1,1.2742205E-1,4.3633625E-1,1.0887771E0,9.31957E-1,3.2133216E-1,1.8580796E-1,2.8408112E-2,2.5118786E-1,-1.004393E-2,-1.6019015E-1,-4.2345616E-1,2.8915063E-1,1.2102537E0,2.8694117E-1,7.8316204E-2,6.969686E-1,2.856137E-1,1.900685E-1,3.9660436E-1,-5.4864985E-1,-2.3573579E-1,3.2047108E-1,-4.5738825E-1,-6.459549E-2,-1.5055425E-1,-1.8269745E-1,2.690398E0,4.0631628E-1,1.349008E-1,1.5390432E-1,5.6100614E-2,5.676135E-1,-1.0647133E-1,2.8954895E0,9.5186484E-1,3.1742482E0,7.880013E-1,3.618112E-1,2.2028473E-1,1.22441396E-1,5.0344616E-1,-1.603929E-2,7.022121E-2,-1.8640165E-1,-4.488184E-1,4.2333657E-1,8.497804E-2,-9.203122E-2,3.090392E-1,-5.4287788E-2,1.1032051E-1,8.045596E-1,3.9144722E-1,2.103819E-1,1.0893816E-1,6.192238E-1,3.257877E-2,-2.5107062E-1,-9.766347E-1,-2.755047E-1,1.6012453E-1,-4.9300678E-2,4.9209356E-1,-4.1406718E-1,-5.814039E-1,-9.898122E-2,2.1247035E-1,-2.1639957E-1,-1.1000767E-1,7.520423E-2,4.2223087E-1,3.4346312E-1,-9.6700266E-2,4.842374E-2,1.912744E-1,1.0725365E-1,-3.832729E-1,3.0956402E-1,1.4678302E0,-8.362454E-1,-3.2573305E-3,6.073636E-1,1.1939551E0,-9.739567E-2,1.2688793E0,1.659481E-1,4.0359688E-1,5.54651E-1,1.942078E-1],"categories":[],"categories_nodes":[],"categories_segments":[],"categories_sizes":[],"default_left":[true,true,true,true,true,true,true,true,true,false,true,true,false,true,true,true,true,true,true,true,true,false,true,true,true,true,true,true,false,true,true,true,true,true,true,false,true,true,true,false,false,true,false,true,true,true,true,true,true,false,false,true,true,false,true,true,false,true,true,true,false,true,true,true,true,true,true,true,true,false,false,true,true,true,true,true,true,false,true,false,true,true,true,false,false,false,false,false,false,false,false,false,false,false,false,false,false,false,false,false,false,false,false,false,false,false,false,false,false,false,false,false,false,false,false,false,false,false,false,false,false,false,false,false,false,false,false,false,false,false,false,false,false],"id":138,"left_children":[1,3,5,7,9,11,13,15,17,-1,19,21,-1,23,25,27,29,31,33,35,37,-1,39,41,43,45,47,49,-1,51,53,55,57,59,61,-1,63,65,67,-1,-1,69,-1,71,73,75,77,79,81,-1,-1,83,85,-1,87,89,-1,91,93,95,-1,97,99,101,103,105,107,109,111,-1,-1,113,115,117,119,121,123,-1,125,-1,127,129,131,-1,-1,-1,-1,-1,-1,-1,-1,-1,-1,-1,-1,-1,-1,-1,-1,-1,-1,-1,-1,-1,-1,-1,-1,-1,-1,-1,-1,-1,-1,-1,-1,-1,-1,-1,-1,-1,-1,-1,-1,-1,-1,-1,-1,-1,-1,-1,-1,-1,-1],"loss_changes":[2.9479974E2,4.170748E1,1.2594986E2,8.441789E0,5.378948E1,5.495479E1,3.662741E1,3.4561496E0,1.9012203E0,0E0,6.584854E0,2.2699356E-2,0E0,1.6048841E0,2.1500336E1,3.613889E0,1.2689607E0,1.7699151E0,1.342905E0,1.5962467E0,6.7607117E0,0E0,4.7838364E0,2.6689568E0,1.3553658E0,2.9999847E1,3.2590485E1,8.566391E-3,0E0,4.966039E-1,1.5954494E-2,1.6794624E0,1.5190907E0,3.1344652E-2,6.71453E-1,0E0,1.10253E0,1.8823347E0,3.1015244E0,0E0,0E0,4.9452977E0,0E0,9.429121E-2,1.5473108E0,2.164175E1,2.1865723E1,2.8268166E1,1.1525665E1,0E0,0E0,2.0868805E-1,4.3189725E-1,0E0,7.131219E-3,4.556396E-1,0E0,3.336053E-1,1.7314782E0,8.610511E-2,0E0,2.2237253E-1,1.4697046E0,1.5988622E0,1.4227281E0,2.2595218E-1,3.0487633E-1,5.810581E0,3.6218948E0,0E0,0E0,8.419371E-2,1.273097E-1,2.3559551E0,5.029255E0,5.6581886E1,4.4562864E0,0E0,6.932724E0,0E0,3.6390182E1,1.647998E1,7.010174E0,0E0,0E0,0E0,0E0,0E0,0E0,0E0,0E0,0E0,0E0,0E0,0E0,0E0,0E0,0E0,0E0,0E0,0E0,0E0,0E0,0E0,0E0,0E0,0E0,0E0,0E0,0E0,0E0,0E0,0E0,0E0,0E0,0E0,0E0,0E0,0E0,0E0,0E0,0E0,0E0,0E0,0E0,0E0,0E0,0E0,0E0,0E0,0E0,0E0,0E0],"parents":[2147483647,0,0,1,1,2,2,3,3,4,4,5,5,6,6,7,7,8,8,10,10,11,11,13,13,14,14,15,15,16,16,17,17,18,18,19,19,20,20,22,22,23,23,24,24,25,25,26,26,27,27,29,29,30,30,31,31,32,32,33,33,34,34,36,36,37,37,38,38,41,41,43,43,44,44,45,45,46,46,47,47,48,48,51,51,52,52,54,54,55,55,57,57,58,58,59,59,61,61,62,62,63,63,64,64,65,65,66,66,67,67,68,68,71,71,72,72,73,73,74,74,75,75,76,76,78,78,80,80,81,81,82,82],"right_children":[2,4,6,8,10,12,14,16,18,-1,20,22,-1,24,26,28,30,32,34,36,38,-1,40,42,44,46,48,50,-1,52,54,56,58,60,62,-1,64,66,68,-1,-1,70,-1,72,74,76,78,80,82,-1,-1,84,86,-1,88,90,-1,92,94,96,-1,98,100,102,104,106,108,110,112,-1,-1,114,116,118,120,122,124,-1,126,-1,128,130,132,-1,-1,-1,-1,-1,-1,-1,-1,-1,-1,-1,-1,-1,-1,-1,-1,-1,-1,-1,-1,-1,-1,-1,-1,-1,-1,-1,-1,-1,-1,-1,-1,-1,-1,-1,-1,-1,-1,-1,-1,-1,-1,-1,-1,-1,-1,-1,-1,-1,-1],"split_conditions":[6.621175E-1,6.572582E-1,2.7272727E-2,3.989272E-1,2.7272727E-2,8.7090075E-1,9.8790765E-1,2.7272727E-2,8.30303E-1,-5.112831E-2,3.3636364E-1,8.31193E-1,-1.4981164E-1,5E-1,4.2424244E-1,2.4097994E-1,3.9342475E-1,3.3636364E-1,7.125307E-2,2.088452E-1,1.8427517E-2,-4.2565007E-2,8.4844077E-1,9.1460705E-1,6.6854E-1,8.76709E-1,1.8427517E-2,6.167303E-2,4.5712147E-2,5E-1,5.0041294E-1,9.689189E-1,4.1206574E-1,6.1172086E-1,6.474741E-1,-9.967516E-3,5.0082594E-1,5.0082594E-1,3.4520882E-1,7.830081E-3,-3.9581213E-2,8.170129E-1,-8.15892E-3,9.212121E-1,5.8854413E-1,8.349742E-1,5E-1,7.7025306E-1,8.4422266E-1,3.7161591E-3,5.6816224E-4,1.7815007E-2,3.8399246E-1,-3.203803E-3,1.4004913E-1,4.95086E-1,2.4205074E-2,5.0041294E-1,4.4565028E-1,6.142506E-3,5.7122735E-3,8.2186735E-1,6.4979887E-1,1.2389015E-3,8.120393E-1,6.818182E-1,6.142506E-3,3.1941032E-1,6.4742017E-1,-3.653949E-3,5.380796E-2,1.4742015E-2,8.2186735E-1,7.684338E-1,9.345995E-1,8.2218254E-1,5E-1,5.7909787E-2,3.6977887E-1,6.348496E-2,8.2218254E-1,7.554066E-1,5.181818E-1,2.448828E-3,1.0068923E-2,-3.207858E-4,1.4044241E-3,-3.7280328E-3,-8.976367E-3,8.466731E-3,1.6995607E-3,-1.8406244E-3,6.180784E-3,-1.0857558E-3,2.20641E-3,1.6091192E-2,7.828944E-3,4.2076376E-3,2.178763E-3,1.2384475E-2,6.515754E-4,-5.0214124E-3,-1.9532694E-2,-5.510094E-3,3.2024905E-3,-9.860136E-4,9.841871E-3,-8.281344E-3,-1.1628078E-2,-1.9796244E-3,4.249407E-3,-4.327991E-3,-2.2001534E-3,1.5040846E-3,8.4446175E-3,6.869262E-3,-1.9340053E-3,9.684748E-4,3.825488E-3,2.145073E-3,-7.6654577E-3,6.19128E-3,2.9356603E-2,-1.6724909E-2,-6.514661E-5,1.2147271E-2,2.3879101E-2,-1.9479134E-3,2.5377585E-2,3.3189617E-3,8.071938E-3,1.109302E-2,3.884156E-3],"split_indices":[1,1,2,1,2,1,6,2,2,0,2,1,0,0,2,1,1,2,11,11,11,0,1,1,1,1,11,1,0,0,8,6,1,1,1,0,8,8,11,0,0,1,0,2,7,1,0,1,1,0,0,7,1,0,11,11,0,8,1,11,0,11,1,8,11,2,11,11,11,0,0,11,11,1,1,1,0,0,11,0,1,1,2,0,0,0,0,0,0,0,0,0,0,0,0,0,0,0,0,0,0,0,0,0,0,0,0,0,0,0,0,0,0,0,0,0,0,0,0,0,0,0,0,0,0,0,0,0,0,0,0,0,0],"split_type":[0,0,0,0,0,0,0,0,0,0,0,0,0,0,0,0,0,0,0,0,0,0,0,0,0,0,0,0,0,0,0,0,0,0,0,0,0,0,0,0,0,0,0,0,0,0,0,0,0,0,0,0,0,0,0,0,0,0,0,0,0,0,0,0,0,0,0,0,0,0,0,0,0,0,0,0,0,0,0,0,0,0,0,0,0,0,0,0,0,0,0,0,0,0,0,0,0,0,0,0,0,0,0,0,0,0,0,0,0,0,0,0,0,0,0,0,0,0,0,0,0,0,0,0,0,0,0,0,0,0,0,0,0],"sum_hessian":[7.922E3,3.755E3,4.167E3,1.547E3,2.208E3,1E1,4.157E3,9.16E2,6.31E2,9E0,2.199E3,8E0,2E0,8.46E2,3.311E3,3E0,9.13E2,4.64E2,1.67E2,1.52E2,2.047E3,4E0,4E0,3E0,8.43E2,3.95E2,2.916E3,2E0,1E0,9.05E2,8E0,1.9E1,4.45E2,7E0,1.6E2,5E1,1.02E2,7.7E1,1.97E3,1E0,3E0,2E0,1E0,2.1E1,8.22E2,3.03E2,9.2E1,9E1,2.826E3,1E0,1E0,7E0,8.98E2,1E0,7E0,1.7E1,2E0,3.8E1,4.07E2,6E0,1E0,1.42E2,1.8E1,1.3E1,8.9E1,3E0,7.4E1,6.09E2,1.361E3,1E0,1E0,1.9E1,2E0,5.99E2,2.23E2,2.44E2,5.9E1,6E0,8.6E1,5E0,8.5E1,2.017E3,8.09E2,5E0,2E0,8.36E2,6.2E1,1E0,6E0,1E1,7E0,2E0,3.6E1,7.9E1,3.28E2,4E0,2E0,1.13E2,2.9E1,1.1E1,7E0,8E0,5E0,8.1E1,8E0,1E0,2E0,5.6E1,1.8E1,5.42E2,6.7E1,5.18E2,8.43E2,1E0,1.8E1,1E0,1E0,1.57E2,4.42E2,2E2,2.3E1,1.9E2,5.4E1,7E0,5.2E1,3.6E1,5E1,3E1,5.5E1,3.55E2,1.662E3,5.8E1,7.51E2],"tree_param":{"num_deleted":"0","num_feature":"12","num_nodes":"133","size_leaf_vector":"0"}},{"base_weights":[1.3658595E-1,2.7903748E0,1.271576E-1,7.447228E-1,3.115852E0,-1.2062722E-2,1.4301479E-1,6.326465E-2,2.2513266E0,4.940226E0,2.1205537E0,-6.2226348E-2,1.1034406E-1,2.3450376E-2,1.6315198E-1,1.8302107E-1,-8.098836E-3,2.7981862E-2,5.6068473E0,-3.682652E-2,3.0746698E0,5.5687656E-3,-8.616374E-2,1.9598466E0,9.1788165E-2,-9.0647675E-3,7.091048E-2,4.2910826E-1,1.5663932E-1,1.2781518E0,-4.4192198E-1,3.3810792E0,-5.7997856E-2,5.2164096E-1,8.839226E-4,-7.207697E-2,-1.19913615E-1,7.688363E-1,2.650046E0,3.8788837E-1,7.80103E-2,1.2299734E-1,-1.2467907E-2,2.1348651E-1,6.319875E-2,2.424085E-1,1.0844252E0,1.2801503E-1,2.2729878E-1,-1.1602824E-2,3.114838E-2,-7.966806E-2,-0E0,-1.946621E-1,-9.955151E-2,2.0756824E-1,9.703163E-1,4.6858422E-2,1.4767076E-1,-0E0,1.8323533E-1,2.4148015E-2,-1.6067466E-2,1.0648711E0,1.534499E-1,-1.9033225E-1,6.7263804E-2,-1.2425718E-1,4.2567012E-1,2.0780904E0,7.286777E-1,3.3884656E-1,1.15178116E-1,4.9915814E-1,2.0558438E-1,6.83966E-2,-1.5916005E-2,3.9428588E-2,-1.8355627E-2,-1.694303E-1,-7.600456E-2,5.712317E-1,-7.260443E-2,-3.7581366E-1,-1.6538905E-1,-1.06732406E-1,-6.92002E-2,6.1586265E-2,4.1609216E-1,1.1001004E-1,2.8221719E-2,8.808951E-1,1.324331E-1,-3.0752795E-2,9.432935E-2,2.1234865E-1,1.2329348E-1,-4.8191864E-3,8.522582E-2,-2.265259E-2,1.3499211E-3,6.913888E-2,4.5613018E-1,-3.1829414E-1,3.5837644E-1,2.133905E-1,6.1244447E-2,8.4448844E-1,-2.7844468E-1,5.0329643E-1,-2.2617817E-1,3.516007E-1,9.4142663E-1,-8.679975E-2,4.4584247E-1,1.9284633E-1,9.455817E-2,7.8851885E-1,2.8911376E-1,1.587762E-1,2.652041E-1],"categories":[],"categories_nodes":[],"categories_segments":[],"categories_sizes":[],"default_left":[true,true,true,true,true,true,true,true,false,true,true,true,true,true,true,false,false,false,false,true,true,true,true,true,true,true,true,true,true,false,false,false,false,false,true,true,true,false,false,true,true,true,true,true,true,true,true,true,true,true,true,true,true,true,true,true,false,true,true,true,true,true,true,false,true,true,true,true,true,false,true,true,true,true,true,false,false,false,false,false,false,false,false,false,false,false,false,false,false,false,false,false,false,false,false,false,false,false,false,false,false,false,false,false,false,false,false,false,false,false,false,false,false,false,false,false,false,false,false,false,false],"id":139,"left_children":[1,3,5,7,9,11,13,15,-1,17,19,21,23,25,27,-1,-1,-1,-1,29,31,33,35,37,39,41,43,45,47,-1,-1,-1,-1,-1,49,51,53,-1,-1,55,57,59,61,63,65,67,69,71,73,75,77,79,81,83,85,87,-1,89,91,93,95,97,99,-1,101,103,105,107,109,-1,111,113,115,117,119,-1,-1,-1,-1,-1,-1,-1,-1,-1,-1,-1,-1,-1,-1,-1,-1,-1,-1,-1,-1,-1,-1,-1,-1,-1,-1,-1,-1,-1,-1,-1,-1,-1,-1,-1,-1,-1,-1,-1,-1,-1,-1,-1,-1,-1,-1],"loss_changes":[2.0024052E2,1.803595E1,1.762239E1,4.3686085E0,4.0590454E1,5.0141916E0,1.724797E1,3.147803E-2,0E0,2.7156143E1,3.3701767E1,9.4147396E-1,8.055835E0,1.5957081E0,1.0590942E1,0E0,0E0,0E0,0E0,3.0175276E0,1.0991547E1,3.5827443E-1,1.9802022E-1,1.1899948E0,9.4333756E-1,2.7458256E-1,4.5371413E-1,1.7796946E1,1.2093063E1,0E0,0E0,0E0,0E0,0E0,5.7211027E-2,1.6534984E-1,1.8010318E-1,0E0,0E0,1.0012923E0,4.8390353E-1,1.1497818E-1,7.88752E-2,1.0185754E0,4.1407347E-1,7.704661E0,1.0884689E1,1.1513496E1,1.0140823E1,3.6305E-2,1.8714383E-2,8.2417846E-2,1.2265451E0,1.1119586E-1,1.66772E-2,2.3831797E-1,0E0,1.8098775E-1,7.212795E-1,1.5963579E-2,4.514724E-3,9.5644295E-2,6.286144E-2,0E0,5.008867E-1,4.8216426E-1,3.3769596E-1,5.796152E0,3.9044294E0,0E0,1.8232727E0,1.1145563E1,6.4236336E0,7.6477585E0,4.4403687E0,0E0,0E0,0E0,0E0,0E0,0E0,0E0,0E0,0E0,0E0,0E0,0E0,0E0,0E0,0E0,0E0,0E0,0E0,0E0,0E0,0E0,0E0,0E0,0E0,0E0,0E0,0E0,0E0,0E0,0E0,0E0,0E0,0E0,0E0,0E0,0E0,0E0,0E0,0E0,0E0,0E0,0E0,0E0,0E0,0E0,0E0],"parents":[2147483647,0,0,1,1,2,2,3,3,4,4,5,5,6,6,7,7,9,9,10,10,11,11,12,12,13,13,14,14,19,19,20,20,21,21,22,22,23,23,24,24,25,25,26,26,27,27,28,28,34,34,35,35,36,36,39,39,40,40,41,41,42,42,43,43,44,44,45,45,46,46,47,47,48,48,49,49,50,50,51,51,52,52,53,53,54,54,55,55,57,57,58,58,59,59,60,60,61,61,62,62,64,64,65,65,66,66,67,67,68,68,70,70,71,71,72,72,73,73,74,74],"right_children":[2,4,6,8,10,12,14,16,-1,18,20,22,24,26,28,-1,-1,-1,-1,30,32,34,36,38,40,42,44,46,48,-1,-1,-1,-1,-1,50,52,54,-1,-1,56,58,60,62,64,66,68,70,72,74,76,78,80,82,84,86,88,-1,90,92,94,96,98,100,-1,102,104,106,108,110,-1,112,114,116,118,120,-1,-1,-1,-1,-1,-1,-1,-1,-1,-1,-1,-1,-1,-1,-1,-1,-1,-1,-1,-1,-1,-1,-1,-1,-1,-1,-1,-1,-1,-1,-1,-1,-1,-1,-1,-1,-1,-1,-1,-1,-1,-1,-1,-1,-1,-1],"split_conditions":[2.7272727E-2,5.5555556E-2,5.5555556E-2,7.090609E-2,1.6666667E-1,7.090609E-2,7.920965E-1,5.719247E-1,4.502653E-2,5.629188E-1,2.777778E-1,5.719247E-1,5E-1,3.9510223E-1,1.7021276E-2,3.6604214E-3,-1.6197671E-4,5.5963726E-4,1.12136945E-1,9.8790765E-1,4.4444448E-1,5E-1,8.30303E-1,8.110852E-1,1.8427517E-2,1.8427517E-2,1.2389015E-3,3.888889E-1,8.30303E-1,2.5563035E-2,-8.838439E-3,6.762158E-2,-1.1599571E-3,1.0432819E-2,8.30303E-1,9.9787235E-1,1.3882065E-1,1.5376726E-2,5.300092E-2,8.110852E-1,9.5682657E-1,6.818182E-1,5.0082594E-1,2.561702E-1,6.142506E-3,1.6666667E-1,5E-1,1.2389015E-3,7.125307E-2,1.2389015E-3,1.7815007E-2,2.1276595E-3,5.0082594E-1,3.5106385E-1,7.0638824E-1,6.142506E-3,1.9406326E-2,5.181818E-1,1.48936175E-2,2.777778E-1,3.5106385E-1,1.2389015E-3,8.30303E-1,2.1297421E-2,4.1296717E-4,6.818182E-1,3.3636364E-1,9.8790765E-1,6.4496315E-1,4.156181E-2,6.216216E-1,3.783784E-1,5.181818E-1,6.893617E-1,2.777778E-1,1.367932E-3,-3.183201E-4,7.885717E-4,-3.6711252E-4,-3.388606E-3,-1.5200911E-3,1.1424635E-2,-1.4520886E-3,-7.5162733E-3,-3.307781E-3,-2.1346482E-3,-1.384004E-3,1.2317252E-3,8.321843E-3,2.200201E-3,5.644344E-4,1.7617902E-2,2.648662E-3,-6.150559E-4,1.886587E-3,4.246973E-3,2.4658695E-3,-9.638372E-5,1.7045164E-3,-4.530518E-4,2.6998421E-5,1.3827775E-3,9.122604E-3,-6.3658827E-3,7.167529E-3,4.26781E-3,1.224889E-3,1.6889768E-2,-5.5688936E-3,1.0065928E-2,-4.523563E-3,7.032014E-3,1.8828532E-2,-1.7359949E-3,8.916849E-3,3.8569265E-3,1.8911634E-3,1.5770376E-2,5.782275E-3,3.1755238E-3,5.304082E-3],"split_indices":[2,4,4,7,4,7,6,6,0,6,4,6,0,6,10,0,0,0,0,6,4,0,2,6,11,11,8,4,2,0,0,0,0,0,2,10,11,0,0,6,6,2,8,10,11,4,0,8,11,8,7,10,8,10,11,11,0,2,10,4,10,8,2,0,8,2,2,6,11,0,11,11,2,10,4,0,0,0,0,0,0,0,0,0,0,0,0,0,0,0,0,0,0,0,0,0,0,0,0,0,0,0,0,0,0,0,0,0,0,0,0,0,0,0,0,0,0,0,0,0,0],"split_type":[0,0,0,0,0,0,0,0,0,0,0,0,0,0,0,0,0,0,0,0,0,0,0,0,0,0,0,0,0,0,0,0,0,0,0,0,0,0,0,0,0,0,0,0,0,0,0,0,0,0,0,0,0,0,0,0,0,0,0,0,0,0,0,0,0,0,0,0,0,0,0,0,0,0,0,0,0,0,0,0,0,0,0,0,0,0,0,0,0,0,0,0,0,0,0,0,0,0,0,0,0,0,0,0,0,0,0,0,0,0,0,0,0,0,0,0,0,0,0,0,0],"sum_hessian":[8.009E3,2.8E1,7.981E3,4E0,2.4E1,8.16E2,7.165E3,3E0,1E0,8E0,1.6E1,5.79E2,2.37E2,1.033E3,6.132E3,1E0,2E0,1E0,7E0,5E0,1.1E1,1.51E2,4.28E2,2E0,2.35E2,6.13E2,4.2E2,1.46E2,5.986E3,1E0,4E0,1E1,1E0,1E0,1.5E2,3.03E2,1.25E2,1E0,1E0,1E1,2.25E2,1.5E1,5.98E2,2.1E1,3.99E2,1.14E2,3.2E1,4.261E3,1.725E3,1.06E2,4.4E1,2.74E2,2.9E1,2.6E1,9.9E1,8E0,2E0,1.56E2,6.9E1,5E0,1E1,5.3E1,5.45E2,1E0,2E1,6E0,3.93E2,3.8E1,7.6E1,8E0,2.4E1,2.44E2,4.017E3,1.27E2,1.598E3,5E0,1.01E2,3.8E1,6E0,1E1,2.64E2,3E0,2.6E1,3E0,2.3E1,7.9E1,2E1,5E0,3E0,3.5E1,1.21E2,1E0,6.8E1,4E0,1E0,6E0,4E0,3.6E1,1.7E1,3.96E2,1.49E2,1.6E1,4E0,5E0,1E0,1.5E1,3.78E2,5E0,3.3E1,6.8E1,8E0,9E0,1.5E1,4.9E1,1.95E2,8.42E2,3.175E3,5.3E1,7.4E1,8.96E2,7.02E2],"tree_param":{"num_deleted":"0","num_feature":"12","num_nodes":"121","size_leaf_vector":"0"}},{"base_weights":[1.3655269E-1,-7.363363E-2,3.2670802E-1,5.8759287E-2,-1.6820107E-1,2.2243526E0,3.0135298E-1,-1.2759416E-3,1.4878748E-1,-1.0063548E0,-1.385466E-1,-8.530033E-3,3.2415662E0,8.598331E-1,2.8965515E-1,3.7445834E-1,-5.907902E-3,1.05667666E-1,2.3739906E-1,-7.114286E-2,-1.1857858E0,-1.8756771E-1,-2.6677059E-2,1.0742058E0,-2.5144608E0,1.2551607E0,6.3988266E0,2.2711727E-1,1.2728708E0,1.4530581E-1,3.2693723E-1,1.2315276E-1,2.21756E0,-2.1391686E-3,-3.7296066E-1,3.1047553E-1,6.980232E-2,4.7867113E-1,2.0566261E-1,-0E0,-7.643442E-2,-1.464787E0,-8.332428E-1,-1.9898517E-1,3.0345914E-1,-8.646779E-1,1.2026365E-2,3.6293366E0,4.6116814E-1,-2.842324E0,-8.09474E-1,2.6540587E0,-1.3673068E0,8.876149E0,-0E0,9.9662644E-1,4.552067E-2,2.6142445E0,6.219602E-1,1.2314318E-1,2.269859E-1,-5.460282E-1,3.3115074E-1,1.6983895E-1,-5.5063218E-2,-8.534532E-3,8.2082085E-2,7.763589E-1,2.7384663E-1,-3.5868723E-2,1.213546E-1,1.9428273E-1,6.2189084E-1,1.3568123E-1,3.1684154E-1,-1.1501402E0,-2.1570733E0,-9.4317544E-1,8.129189E-2,-6.506227E-2,-2.4521711E-1,-1.616559E-1,1.5067555E0,-1.071927E0,3.6232248E-1,-1.5395613E-1,1.7642714E-1,1.7585564E0,2.5780535E-1,1.316206E0,7.3341794E0,1.0814863E-1,-2.2066655E0,2.7836354E0,1.4411013E1,-6.271746E0,2.5076458E0,2.2438574E-1,1.6648883E0,-1.4215094E-1,1.5734959E-1,2.2749653E0,4.318576E0,2.7753148E0,4.5969924E-1,1.393194E-1,-1.4115961E-1,1.5664217E-1,4.517243E-1,-7.1612036E-1,4.9779832E-1,1.9150445E-1,3.519268E-1,2.796805E-1,4.3636285E-2,-3.1937493E-3,-1.3486631E-1,3.7645015E-1,-8.4410995E-2,3.638843E-1,2.1956824E-1,1.386998E-1,-2.0179524E-1,1.8174471E-1,-1.0189296E-1,5.2085564E-2,2.683355E-1,7.990814E-1,3.9031443E-1,7.5666773E-1,1.1602386E-1,4.5569614E-1,1.7184075E-2,-1.5571468E0,-8.6768425E-1,-4.005275E-2,-6.846809E-2,-1.2317316E-1,-3.0408895E-1,4.4163746E-1,-5.9382415E-1,2.0872335E0,9.38231E-1,-9.037682E-1,-1.500004E0,-1.4043933E0,2.0833724E0,3.6286947E-1,-2.149574E-1,1.7972344E0,1.3673942E-1,4.756469E-1,-2.6852934E-2,4.546447E0,-1.0909828E0,4.352479E0,1.0707111E1,-1.6464151E-1,5.6916153E-1,-2.4746866E0,-7.73124E-1,3.555255E0,-4.0937638E-1,4.1295815E0,1.2163091E0,4.6969146E-1,-2.5029713E-1,9.890505E-2,-2.472054E-1,2.8869972E-1,-8.372839E-2,3.4211886E0,1.7194862E0,1.0730197E0,-2.7390422E-2,1.16574764E-1,2.2743137E-1,-3.2955822E-1,2.105619E-2,-3.328344E-1,1.9734499E-1,1.4375893E0,2.0030797E-1,6.761502E-1,-8.484441E-1,6.424344E-1,2.17977E-1,1.1706226E0,1.4280793E-1,4.074678E-1,2.542774E-1],"categories":[],"categories_nodes":[],"categories_segments":[],"categories_sizes":[],"default_left":[true,true,true,true,true,true,true,true,true,true,true,true,true,true,true,true,true,true,true,true,true,true,true,true,true,true,true,true,true,true,true,true,false,true,false,true,true,true,true,false,false,true,true,true,true,true,true,false,true,false,false,true,true,true,true,true,true,true,true,true,true,true,true,true,false,true,true,false,true,true,true,true,true,true,true,false,false,true,false,true,true,true,true,true,true,true,true,false,true,true,true,true,true,true,false,false,true,true,false,true,true,true,false,false,true,true,true,true,true,true,true,true,true,false,false,false,false,false,false,false,false,false,false,false,false,false,false,false,false,false,false,false,false,false,false,false,false,false,false,false,false,false,false,false,false,false,false,false,false,false,false,false,false,false,false,false,false,false,false,false,false,false,false,false,false,false,false,false,false,false,false,false,false,false,false,false,false,false,false,false,false,false,false,false,false,false,false,false,false,false,false],"id":140,"left_children":[1,3,5,7,9,11,13,15,17,19,21,23,25,27,29,31,33,35,37,39,41,43,45,47,49,51,53,55,57,59,61,63,-1,65,-1,67,69,71,73,-1,-1,75,77,79,81,83,85,-1,87,-1,-1,89,91,93,95,97,99,101,103,105,107,109,111,113,-1,115,117,-1,119,121,123,125,127,129,131,-1,-1,133,-1,135,137,139,141,143,145,147,149,-1,151,153,155,157,159,161,-1,-1,163,165,-1,167,169,171,-1,-1,173,175,177,179,181,183,185,187,189,-1,-1,-1,-1,-1,-1,-1,-1,-1,-1,-1,-1,-1,-1,-1,-1,-1,-1,-1,-1,-1,-1,-1,-1,-1,-1,-1,-1,-1,-1,-1,-1,-1,-1,-1,-1,-1,-1,-1,-1,-1,-1,-1,-1,-1,-1,-1,-1,-1,-1,-1,-1,-1,-1,-1,-1,-1,-1,-1,-1,-1,-1,-1,-1,-1,-1,-1,-1,-1,-1,-1,-1,-1,-1,-1,-1,-1,-1],"loss_changes":[3.1405396E2,4.6733894E1,1.9823029E2,8.408531E0,5.4054806E1,1.2346396E2,2.6498596E1,1.6198416E0,2.364625E0,1.2427544E1,1.1529892E1,4.7951496E1,2.3135312E2,2.166019E1,2.1441223E1,5.1249976E0,1.2702695E0,3.0675645E0,1.5143585E0,3.789153E-3,5.6913223E0,8.216888E0,2.081632E1,1.8702553E1,2.1620903E0,8.682884E1,2.2724927E2,4.628034E0,4.3358505E1,1.4688816E0,1.1714844E1,9.073256E-2,0E0,4.9112925E-1,0E0,9.778309E-1,1.9492748E0,8.9844036E-1,1.3822865E0,0E0,0E0,6.6042175E0,2.8864288E0,8.839996E0,1.8756199E1,7.3446884E0,1.6745808E1,0E0,2.5464425E0,0E0,0E0,9.266517E1,1.0429989E1,3.3483484E2,7.3413666E1,3.116919E0,5.8132637E-1,6.0744476E0,1.1524713E1,2.765604E0,2.723754E0,2.8443985E0,9.121429E0,1.0683948E-1,0E0,5.709414E-1,3.1677616E0,0E0,2.5011587E-1,3.4088616E0,3.2474768E0,7.852098E-2,5.082073E-1,1.3173189E0,2.8755274E0,0E0,0E0,6.8904686E-1,0E0,2.8826237E-2,7.6142235E0,6.4339514E0,2.3840008E0,1.2652817E0,1.4161762E1,9.650154E0,1.9724373E1,0E0,5.894333E-1,9.7605934E1,1.7769547E1,4.562356E-1,1.3648834E0,1.3670776E1,0E0,0E0,5.23061E0,4.3049067E-1,0E0,2.7195364E-1,5.5985975E-1,7.091133E0,0E0,0E0,9.684084E0,1.2053986E0,1.1476715E0,2.6763835E0,1.012563E1,2.6501937E0,3.546989E-2,1.9442392E1,1.4845459E1,0E0,0E0,0E0,0E0,0E0,0E0,0E0,0E0,0E0,0E0,0E0,0E0,0E0,0E0,0E0,0E0,0E0,0E0,0E0,0E0,0E0,0E0,0E0,0E0,0E0,0E0,0E0,0E0,0E0,0E0,0E0,0E0,0E0,0E0,0E0,0E0,0E0,0E0,0E0,0E0,0E0,0E0,0E0,0E0,0E0,0E0,0E0,0E0,0E0,0E0,0E0,0E0,0E0,0E0,0E0,0E0,0E0,0E0,0E0,0E0,0E0,0E0,0E0,0E0,0E0,0E0,0E0,0E0,0E0,0E0,0E0,0E0,0E0,0E0,0E0,0E0,0E0,0E0],"parents":[2147483647,0,0,1,1,2,2,3,3,4,4,5,5,6,6,7,7,8,8,9,9,10,10,11,11,12,12,13,13,14,14,15,15,16,16,17,17,18,18,19,19,20,20,21,21,22,22,23,23,24,24,25,25,26,26,27,27,28,28,29,29,30,30,31,31,33,33,35,35,36,36,37,37,38,38,41,41,42,42,43,43,44,44,45,45,46,46,48,48,51,51,52,52,53,53,54,54,55,55,56,56,57,57,58,58,59,59,60,60,61,61,62,62,63,63,65,65,66,66,68,68,69,69,70,70,71,71,72,72,73,73,74,74,77,77,79,79,80,80,81,81,82,82,83,83,84,84,85,85,86,86,88,88,89,89,90,90,91,91,92,92,93,93,96,96,97,97,99,99,100,100,101,101,104,104,105,105,106,106,107,107,108,108,109,109,110,110,111,111,112,112],"right_children":[2,4,6,8,10,12,14,16,18,20,22,24,26,28,30,32,34,36,38,40,42,44,46,48,50,52,54,56,58,60,62,64,-1,66,-1,68,70,72,74,-1,-1,76,78,80,82,84,86,-1,88,-1,-1,90,92,94,96,98,100,102,104,106,108,110,112,114,-1,116,118,-1,120,122,124,126,128,130,132,-1,-1,134,-1,136,138,140,142,144,146,148,150,-1,152,154,156,158,160,162,-1,-1,164,166,-1,168,170,172,-1,-1,174,176,178,180,182,184,186,188,190,-1,-1,-1,-1,-1,-1,-1,-1,-1,-1,-1,-1,-1,-1,-1,-1,-1,-1,-1,-1,-1,-1,-1,-1,-1,-1,-1,-1,-1,-1,-1,-1,-1,-1,-1,-1,-1,-1,-1,-1,-1,-1,-1,-1,-1,-1,-1,-1,-1,-1,-1,-1,-1,-1,-1,-1,-1,-1,-1,-1,-1,-1,-1,-1,-1,-1,-1,-1,-1,-1,-1,-1,-1,-1,-1,-1,-1,-1],"split_conditions":[6.621175E-1,6.572582E-1,3.275862E-2,3.989272E-1,8.275862E-2,1.6666667E-1,9.6551724E-2,3.275862E-2,6.341465E-1,5.5555556E-2,2.777778E-1,8.751397E-1,8.5870504E-1,8.2218254E-1,9.8790765E-1,3.7589142E-1,3.9342475E-1,4.1206574E-1,1.6666667E-1,5.0041294E-1,2.2170213E-1,8.4482753E-1,1.5E-1,9.8790765E-1,9.28372E-1,8.349742E-1,3.888889E-1,7.759628E-1,8.349742E-1,9.345995E-1,5.5555556E-2,1.6666667E-1,4.43512E-2,3.8399246E-1,-7.459213E-3,1.4310345E-1,4.4565028E-1,9.689189E-1,6.450739E-1,-0E0,-1.5286884E-3,2.777778E-1,5E-1,5.5555556E-2,1.6666667E-1,5E-1,7.008511E-1,7.258673E-2,7.687444E-1,-5.684648E-2,-1.618948E-2,8.2218254E-1,2.777778E-1,2.777778E-1,5E-1,6.8723404E-1,6.724138E-2,8.275862E-2,2.2170213E-1,9.02244E-1,9.9787235E-1,8.2185304E-1,7.554066E-1,4.0821142E-2,-1.1012644E-3,3.757258E-1,3.8608843E-1,1.5527178E-2,4.044514E-1,4.3256068E-1,6.324857E-1,2.838298E-1,7.008511E-1,4.1296717E-4,6.4979887E-1,-2.3002803E-2,-4.3141466E-2,5.0082594E-1,1.6258378E-3,5.0082594E-1,3.5106385E-1,8.810345E-1,2.7021277E-1,1.3793103E-1,1.2931034E-1,2.7758622E-1,4.1296717E-4,3.5171125E-2,8.0460525E-1,7.876776E-1,2.777778E-1,8.4844077E-1,3.888889E-1,9.28372E-1,2.8822026E-1,-1.2543492E-1,8.76709E-1,7.4974746E-1,3.3297766E-2,1.6666667E-1,7.958708E-1,6.724138E-2,8.637152E-2,5.5506296E-2,6.724138E-2,8.224432E-1,9.0605086E-1,9.4889903E-1,9.532107E-1,7.510687E-1,8.7090075E-1,1.6034484E-1,8.349742E-1,5.5936095E-3,8.727257E-4,-6.3874984E-5,-2.6973262E-3,7.529003E-3,-1.6882198E-3,7.2776857E-3,4.3913648E-3,2.773996E-3,-4.0359045E-3,3.634894E-3,-2.0378593E-3,1.0417112E-3,5.3667095E-3,1.5981628E-2,7.8062885E-3,1.5133354E-2,2.3204773E-3,9.113923E-3,3.436815E-4,-3.1142935E-2,-1.7353684E-2,-8.01055E-4,-1.3693616E-3,-2.4634632E-3,-6.081779E-3,8.832749E-3,-1.18764825E-2,4.174467E-2,1.8764619E-2,-1.8075364E-2,-3.0000081E-2,-2.8087866E-2,4.1667446E-2,7.2573894E-3,-4.299148E-3,3.594469E-2,2.7347882E-3,9.512938E-3,-5.370587E-4,9.0928935E-2,-2.1819655E-2,8.704958E-2,2.1414222E-1,-3.2928302E-3,1.1383231E-2,-4.949373E-2,-1.546248E-2,7.11051E-2,-8.187528E-3,8.259163E-2,2.4326181E-2,9.393829E-3,-5.0059427E-3,1.978101E-3,-4.944108E-3,5.773994E-3,-1.6745677E-3,6.842377E-2,3.4389723E-2,2.1460395E-2,-5.478084E-4,2.3314953E-3,4.5486274E-3,-6.5911645E-3,4.2112378E-4,-6.6566877E-3,3.9469E-3,2.8751785E-2,4.006159E-3,1.3523004E-2,-1.6968882E-2,1.2848688E-2,4.35954E-3,2.3412451E-2,2.8561587E-3,8.149356E-3,5.085548E-3],"split_indices":[1,1,3,1,3,4,3,3,1,4,4,1,1,1,6,1,1,1,4,8,10,3,3,6,1,1,4,1,1,1,4,4,0,1,0,3,1,6,1,0,0,4,4,4,4,4,10,0,1,0,0,1,4,4,4,10,3,3,10,1,10,1,1,7,0,1,1,0,1,1,1,10,10,8,1,0,0,8,0,8,10,3,10,3,3,3,8,0,1,1,4,1,4,1,0,0,1,1,0,4,1,3,0,0,3,1,1,1,1,1,1,3,1,0,0,0,0,0,0,0,0,0,0,0,0,0,0,0,0,0,0,0,0,0,0,0,0,0,0,0,0,0,0,0,0,0,0,0,0,0,0,0,0,0,0,0,0,0,0,0,0,0,0,0,0,0,0,0,0,0,0,0,0,0,0,0,0,0,0,0,0,0,0,0,0,0,0,0,0,0,0],"split_type":[0,0,0,0,0,0,0,0,0,0,0,0,0,0,0,0,0,0,0,0,0,0,0,0,0,0,0,0,0,0,0,0,0,0,0,0,0,0,0,0,0,0,0,0,0,0,0,0,0,0,0,0,0,0,0,0,0,0,0,0,0,0,0,0,0,0,0,0,0,0,0,0,0,0,0,0,0,0,0,0,0,0,0,0,0,0,0,0,0,0,0,0,0,0,0,0,0,0,0,0,0,0,0,0,0,0,0,0,0,0,0,0,0,0,0,0,0,0,0,0,0,0,0,0,0,0,0,0,0,0,0,0,0,0,0,0,0,0,0,0,0,0,0,0,0,0,0,0,0,0,0,0,0,0,0,0,0,0,0,0,0,0,0,0,0,0,0,0,0,0,0,0,0,0,0,0,0,0,0,0,0,0,0,0,0,0,0,0,0,0,0],"sum_hessian":[7.857E3,3.732E3,4.125E3,1.555E3,2.177E3,5.4E1,4.071E3,9.33E2,6.22E2,7.4E1,2.103E3,1.7E1,3.7E1,8.3E1,3.988E3,1.1E1,9.22E2,4.19E2,2.03E2,1.2E1,6.2E1,1.462E3,6.41E2,1.2E1,5E0,2.3E1,1.4E1,3.3E1,5E1,8.19E2,3.169E3,1E1,1E0,9.13E2,9E0,6.2E1,3.57E2,2.3E1,1.8E2,1E0,1.1E1,3.4E1,2.8E1,1.429E3,3.3E1,2.8E1,6.13E2,2E0,1E1,4E0,1E0,1.5E1,8E0,1E1,4E0,6E0,2.7E1,1.6E1,3.4E1,6.45E2,1.74E2,1.5E1,3.154E3,8E0,2E0,8.49E2,6.4E1,4E0,5.8E1,1.17E2,2.4E2,8E0,1.5E1,1.11E2,6.9E1,2.4E1,1E1,2.5E1,3E0,3.67E2,1.062E3,2.4E1,9E0,2.4E1,4E0,3.05E2,3.08E2,1E0,9E0,1.2E1,3E0,3E0,5E0,5E0,5E0,1E0,3E0,3E0,3E0,1E1,1.7E1,1.4E1,2E0,2E0,3.2E1,6.08E2,3.7E1,1.33E2,4.1E1,1.3E1,2E0,4.09E2,2.745E3,4E0,4E0,8.15E2,3.4E1,2.3E1,4.1E1,2.1E1,3.7E1,5.7E1,6E1,1.89E2,5.1E1,3E0,5E0,8E0,7E0,3E0,1.08E2,4.7E1,2.2E1,2E0,2.3E1,4.5E1,3.22E2,3.46E2,7.16E2,1E1,1.4E1,4E0,5E0,1.8E1,6E0,2E0,2E0,3.2E1,2.73E2,7E0,3.01E2,5E0,4E0,5E0,7E0,2E0,1E0,2E0,1E0,4E0,1E0,4E0,1E0,1E0,2E0,2E0,1E0,3E0,7E0,1.1E1,6E0,4E0,1E1,1.4E1,1.8E1,4.84E2,1.24E2,1.7E1,2E1,1E1,1.23E2,8E0,3.3E1,1E0,1.2E1,1E0,1E0,1.9E1,3.9E2,1.749E3,9.96E2],"tree_param":{"num_deleted":"0","num_feature":"12","num_nodes":"191","size_leaf_vector":"0"}},{"base_weights":[1.2671322E-1,2.4012296E-1,1.0540707E-1,-5.551907E-1,2.564988E-1,2.373452E-2,1.2171014E-1,3.3719769E0,-9.4060516E-1,4.778245E-1,2.1138301E-1,-3.6930172E-3,6.3606404E-2,1.0391791E-2,1.2887435E-1,4.6146555E0,1.2753447E0,4.9994406E-1,-1.5307539E0,1.9958022E-1,1.2539942E0,-1.680456E-2,1.39088435E-2,6.668795E-1,6.0401674E-2,3.3233324E-1,-1.5770176E-2,2.119228E-1,1.15154065E-1,6.167292E-1,3.116899E-1,1.0475827E-1,2.5660613E-1,3.8177488E0,8.8130933E-1,-1.0310723E-2,-2.8693367E-2,5.5080783E-2,4.166571E-3,8.484907E-1,3.0779952E-1,-4.4913167E-1,6.304057E-2,1.8177202E0,2.4579364E-1,9.343382E-2,-1.2715527E-1,1.9806607E-1,1.8029405E0,-1.9318041E-1,1.1949954E-1,4.5982486E-1,1.3021629E0,4.7494134E-1,-1.6909128E-1,-6.8037635E-1,1.3106343E-1,3.337337E-1,9.787996E-2,1.1002905E0,-2.0566383E-2,-1.2516113E-2,1.46767E-1,-2.3811527E-2,-4.1466918E-2,8.138429E-2,-1.0945254E-2,-2.2086187E-3,3.1582687E-2,1.4480238E-1,4.644766E-2,-6.800759E-1,3.3950004E-1,1.6509224E-1,-1.8485649E-1,-3.4846798E-1,-7.920314E-2,1.3467056E0,1.9271335E-1,4.4513533E-1,2.3920538E0,-1.24747075E-1,-7.8944165E-1,3.0915928E-1,1.1521414E-1,5.0189084E-1,-8.4803116E-1,3.6228855E0,1.0272973E0,1.8679453E-1,6.684963E-1,5.2958876E-2,-1.8956293E0,-4.6058932E-1,-1.2234217E0,8.0313146E-1,1.1339638E-1,1.0678425E-1,3.9659932E-1,3.688396E-2,2.3210041E-1,7.0943254E-1,1.4031868E0,-3.9274483E-3,-2.9017454E-2,2.7482626E-1,4.6500057E-2,-3.550827E-2,-1.48351295E-2,-4.781749E-2,2.000054E-2,5.319042E-2,5.026354E-1,-6.327195E-2,1.5035248E-2,4.609939E-3,-7.839082E-2,1.170783E0,-4.213081E-3,1.21270895E-1,2.728576E-1,3.277824E-2,1.2292106E-1,1.0685834E-1,-1.3076352E0,2.2284609E-1,9.7782797E-1,9.521761E-2,5.7039297E-1,-1.0264984E0,-8.662406E-2,-2.3645307E-1,-2.4627037E0,8.861674E-3,-1.9410442E-1,7.9508317E-1,1.9645237E0,1.6301495E-1,3.742959E-1,-2.3516479E-1,2.3615807E-1,-1.0917139E0,-1.09163806E-1,4.1509676E-1,-3.1294903E-1,9.695427E-2,1.5547143E-1],"categories":[],"categories_nodes":[],"categories_segments":[],"categories_sizes":[],"default_left":[true,true,true,true,true,true,true,true,false,true,true,true,true,true,true,false,false,true,false,true,true,true,true,true,true,true,true,true,true,true,true,true,true,false,true,true,true,true,true,false,false,false,true,false,true,true,true,true,true,true,true,true,true,true,true,true,true,true,true,true,false,true,true,true,true,true,true,true,true,true,true,true,true,true,true,true,true,true,true,false,false,true,true,true,true,false,false,false,false,false,false,false,false,false,false,false,false,false,false,false,false,false,false,false,false,false,false,false,false,false,false,false,false,false,false,false,false,false,false,false,false,false,false,false,false,false,false,false,false,false,false,false,false,false,false,false,false,false,false,false,false,false,false,false,false,false,false],"id":141,"left_children":[1,3,5,7,9,11,13,15,-1,17,19,21,23,25,27,-1,-1,29,-1,31,33,35,37,39,41,43,45,47,49,51,53,55,57,-1,59,61,63,65,67,-1,-1,-1,69,-1,71,73,75,77,79,81,83,85,87,89,91,93,95,97,99,101,-1,103,105,107,109,111,113,115,117,119,121,123,125,127,129,131,133,135,137,-1,-1,139,141,143,145,-1,-1,-1,-1,-1,-1,-1,-1,-1,-1,-1,-1,-1,-1,-1,-1,-1,-1,-1,-1,-1,-1,-1,-1,-1,-1,-1,-1,-1,-1,-1,-1,-1,-1,-1,-1,-1,-1,-1,-1,-1,-1,-1,-1,-1,-1,-1,-1,-1,-1,-1,-1,-1,-1,-1,-1,-1,-1,-1,-1,-1,-1],"loss_changes":[1.9110222E1,1.6340515E1,8.869278E0,3.936741E1,1.2201775E1,1.2140863E0,4.4272003E0,4.0331326E0,0E0,9.452087E0,1.2439453E1,1.5182362E-1,8.507012E-1,2.8390727E0,5.9332123E0,0E0,0E0,4.4369698E0,0E0,5.4382515E0,9.63979E0,2.8476626E-2,1.11522436E-1,4.8588037E-2,6.094543E-1,3.078062E0,3.7914093E0,1.6151936E1,6.0083275E0,1.3362053E1,6.257887E0,7.8563104E0,7.687359E0,0E0,2.0637445E0,8.368546E-2,6.9916993E-3,9.392689E-2,4.0176265E-2,0E0,0E0,0E0,6.03268E-1,0E0,2.183305E0,3.1474147E0,1.6225469E0,4.400284E0,4.6706047E0,2.4975839E0,3.5723305E0,5.822016E0,1.3576675E1,3.2553205E0,7.855168E0,1.2601228E0,4.3180785E0,6.018528E0,1.6825421E0,6.245012E-1,0E0,3.3836655E-2,3.395714E-2,9.325732E-3,1.4508251E-2,4.3843117E-1,2.1850739E-2,9.692545E-2,1.785361E0,2.1034813E-1,3.866986E-1,1.2161046E0,1.573236E0,3.5218687E0,2.6276894E0,6.2405887E0,1.2916727E0,5.7582235E-1,3.9104671E0,0E0,0E0,2.2634125E0,1.2454753E0,6.4594994E0,3.1672173E0,0E0,0E0,0E0,0E0,0E0,0E0,0E0,0E0,0E0,0E0,0E0,0E0,0E0,0E0,0E0,0E0,0E0,0E0,0E0,0E0,0E0,0E0,0E0,0E0,0E0,0E0,0E0,0E0,0E0,0E0,0E0,0E0,0E0,0E0,0E0,0E0,0E0,0E0,0E0,0E0,0E0,0E0,0E0,0E0,0E0,0E0,0E0,0E0,0E0,0E0,0E0,0E0,0E0,0E0,0E0,0E0,0E0,0E0,0E0,0E0,0E0,0E0],"parents":[2147483647,0,0,1,1,2,2,3,3,4,4,5,5,6,6,7,7,9,9,10,10,11,11,12,12,13,13,14,14,17,17,19,19,20,20,21,21,22,22,23,23,24,24,25,25,26,26,27,27,28,28,29,29,30,30,31,31,32,32,34,34,35,35,36,36,37,37,38,38,42,42,44,44,45,45,46,46,47,47,48,48,49,49,50,50,51,51,52,52,53,53,54,54,55,55,56,56,57,57,58,58,59,59,61,61,62,62,63,63,64,64,65,65,66,66,67,67,68,68,69,69,70,70,71,71,72,72,73,73,74,74,75,75,76,76,77,77,78,78,81,81,82,82,83,83,84,84],"right_children":[2,4,6,8,10,12,14,16,-1,18,20,22,24,26,28,-1,-1,30,-1,32,34,36,38,40,42,44,46,48,50,52,54,56,58,-1,60,62,64,66,68,-1,-1,-1,70,-1,72,74,76,78,80,82,84,86,88,90,92,94,96,98,100,102,-1,104,106,108,110,112,114,116,118,120,122,124,126,128,130,132,134,136,138,-1,-1,140,142,144,146,-1,-1,-1,-1,-1,-1,-1,-1,-1,-1,-1,-1,-1,-1,-1,-1,-1,-1,-1,-1,-1,-1,-1,-1,-1,-1,-1,-1,-1,-1,-1,-1,-1,-1,-1,-1,-1,-1,-1,-1,-1,-1,-1,-1,-1,-1,-1,-1,-1,-1,-1,-1,-1,-1,-1,-1,-1,-1,-1,-1,-1,-1],"split_conditions":[1.7455888E-1,2.7272727E-2,7.920965E-1,9.8790765E-1,9.6551724E-2,3.9510223E-1,2.2695354E-1,9.5682657E-1,-1.8812103E-2,1.3989916E-1,1.7329854E-1,1.3484347E-1,1.8427517E-2,9.3103446E-2,3.42906E-1,9.2293106E-2,2.5506893E-2,7.175009E-2,-3.0615076E-2,3.1941032E-1,1.7347857E-1,6.965602E-1,1.6584766E-1,1.4310345E-1,1.15517244E-1,2.051597E-1,5.181818E-1,3.421858E-1,3.5352898E-1,2.088452E-1,3.095823E-1,2.4486855E-2,5.6379306E-1,7.635497E-2,1.6034484E-1,8.4482753E-1,9.533169E-1,3.2586205E-1,8.817969E-1,1.6969813E-2,6.15599E-3,-8.982633E-3,3.339935E-1,3.6354404E-2,3.4520882E-1,2.1597049E-1,1.4137931E-1,2.2731364E-1,5.7575756E-1,3.5226864E-1,4.2424244E-1,1.4619164E-1,3.4275186E-1,1.3170686E-1,1.3368744E-1,4.2424244E-1,2.7727764E-2,9.8790765E-1,6.189655E-1,1.7383868E-1,-4.1132767E-4,7.0840836E-1,8.827586E-1,6.7041767E-1,9.212121E-1,5.722002E-1,3.2931036E-1,8.4551674E-1,8.842276E-1,8.30303E-1,9.212121E-1,1.9949585E-1,2.2245228E-1,2.121894E-1,2.1768095E-1,8.120393E-1,3.6977887E-1,3.3636364E-1,4.1896552E-1,8.902706E-3,4.7841076E-2,6.621622E-1,3.5307884E-1,5.434822E-1,8.30303E-1,1.0037816E-2,-1.6960623E-2,7.245771E-2,2.0545945E-2,3.7358906E-3,1.3369926E-2,1.0591774E-3,-3.7912585E-2,-9.211786E-3,-2.4468433E-2,1.6062628E-2,2.2679274E-3,2.135685E-3,7.931986E-3,7.376792E-4,4.6420083E-3,1.418865E-2,2.8063735E-2,-7.854896E-5,-5.8034906E-4,5.496525E-3,9.3000114E-4,-7.101654E-4,-2.9670258E-4,-9.563498E-4,4.000108E-4,1.0638084E-3,1.0052708E-2,-1.265439E-3,3.0070497E-4,9.219878E-5,-1.5678164E-3,2.341566E-2,-8.426162E-5,2.4254178E-3,5.457152E-3,6.555648E-4,2.458421E-3,2.137167E-3,-2.6152704E-2,4.456922E-3,1.955656E-2,1.9043521E-3,1.1407859E-2,-2.0529969E-2,-1.7324812E-3,-4.7290614E-3,-4.9254075E-2,1.7723348E-4,-3.8820882E-3,1.5901662E-2,3.9290473E-2,3.2602989E-3,7.485918E-3,-4.703296E-3,4.7231615E-3,-2.1834278E-2,-2.183276E-3,8.301935E-3,-6.2589804E-3,1.9390854E-3,3.1094286E-3],"split_indices":[5,2,6,6,3,6,5,6,0,5,5,6,11,3,5,0,0,5,0,11,5,11,11,3,3,11,2,5,5,11,11,5,3,0,3,3,11,3,5,0,0,0,5,0,11,5,3,5,2,5,2,11,11,5,5,2,5,6,3,5,0,5,3,5,2,5,3,5,5,2,2,5,5,5,5,11,11,2,3,0,0,11,5,5,2,0,0,0,0,0,0,0,0,0,0,0,0,0,0,0,0,0,0,0,0,0,0,0,0,0,0,0,0,0,0,0,0,0,0,0,0,0,0,0,0,0,0,0,0,0,0,0,0,0,0,0,0,0,0,0,0,0,0,0,0,0,0],"split_type":[0,0,0,0,0,0,0,0,0,0,0,0,0,0,0,0,0,0,0,0,0,0,0,0,0,0,0,0,0,0,0,0,0,0,0,0,0,0,0,0,0,0,0,0,0,0,0,0,0,0,0,0,0,0,0,0,0,0,0,0,0,0,0,0,0,0,0,0,0,0,0,0,0,0,0,0,0,0,0,0,0,0,0,0,0,0,0,0,0,0,0,0,0,0,0,0,0,0,0,0,0,0,0,0,0,0,0,0,0,0,0,0,0,0,0,0,0,0,0,0,0,0,0,0,0,0,0,0,0,0,0,0,0,0,0,0,0,0,0,0,0,0,0,0,0,0,0],"sum_hessian":[7.914E3,1.251E3,6.663E3,2.5E1,1.226E3,1.109E3,5.554E3,2E0,2.3E1,2.07E2,1.019E3,6.57E2,4.52E2,3.36E2,5.218E3,1E0,1E0,2.05E2,2E0,1.008E3,1.1E1,3.77E2,2.8E2,2E0,4.5E2,2.5E1,3.11E2,7.39E2,4.479E3,1.26E2,7.9E1,3.79E2,6.29E2,1E0,1E1,2.45E2,1.32E2,5.3E1,2.27E2,1E0,1E0,2E0,4.48E2,1E0,2.4E1,1.57E2,1.54E2,7.33E2,6E0,6.2E1,4.417E3,1.03E2,2.3E1,5.9E1,2E1,1.2E1,3.67E2,4.23E2,2.06E2,8E0,2E0,2.42E2,3E0,9.7E1,3.5E1,3.8E1,1.5E1,1.84E2,4.3E1,7.5E1,3.73E2,2E0,2.2E1,1.25E2,3.2E1,2.7E1,1.27E2,3E0,7.3E2,2E0,4E0,5.6E1,6E0,9.7E1,4.32E3,1E2,3E0,2E0,2.1E1,2.4E1,3.5E1,1.8E1,2E0,9E0,3E0,9E0,3.58E2,9.2E1,3.31E2,1.42E2,6.4E1,4E0,4E0,1.6E2,8.2E1,1E0,2E0,4.1E1,5.6E1,3.2E1,3E0,3.6E1,2E0,5E0,1E1,1.69E2,1.5E1,1E0,4.2E1,6.4E1,1.1E1,3.17E2,5.6E1,1E0,1E0,1.9E1,3E0,1.07E2,1.8E1,3E0,2.9E1,2.6E1,1E0,7.2E1,5.5E1,2E0,1E0,6.28E2,1.02E2,4.3E1,1.3E1,4E0,2E0,8.3E1,1.4E1,2.973E3,1.347E3],"tree_param":{"num_deleted":"0","num_feature":"12","num_nodes":"147","size_leaf_vector":"0"}},{"base_weights":[1.2882398E-1,2.1129594E0,1.2164182E-1,3.9364176E0,1.045975E0,3.8756365E-1,1.1048422E-1,4.5102973E-2,5.524293E0,4.545443E0,7.558134E-1,3.592432E-1,4.128872E0,-2.2510353E-2,1.251766E-1,1.06868714E-1,-0E0,-1.9089963E-1,1.0456686E0,-3.1989865E-2,4.2665586E-1,8.826514E-2,7.126242E0,-6.809486E-2,9.036101E-2,9.518539E-2,1.9924985E-1,1.1344903E0,-2.6657168E-2,1.63938E-1,-1.1046939E-1,3.9704326E-1,1.0270172E0,-4.207418E-3,-8.864782E-2,4.2646363E-1,7.323032E-2,2.266867E-1,8.333293E-2,4.3461236E-1,1.8138993E-1,3.5401943E-1,-5.73333E-3,-2.2762671E-1,-4.872791E-2,7.336265E-1,3.626086E-1,-2.8404804E-2,8.496747E-3,-7.731397E-2,-1.17651686E-1,2.206161E-1,8.3237666E-1,3.9028153E-2,1.5693076E-1,2.1710683E-1,1.8152918E0,-1.3456912E-2,9.206868E-2,5.286274E-1,1.1048171E-1,4.033302E-2,2.0646363E-1,9.1778375E-3,5.0917417E-1,-3.41399E-1,6.298862E-2,-4.3165982E-1,-9.476429E-2,1.23951405E-1,-7.839854E-2,2.7699437E0,6.004507E-1,3.0566177E-1,6.2294614E-1,2.0088514E-2,-3.360486E-2,1.3025628E-1,4.8821145E-3,-5.3219464E-2,-8.3688304E-2,-2.0588943E-1,-9.400556E-2,6.35922E-2,3.983963E-1,4.0823674E-1,9.4968706E-1,7.88585E-2,-7.882108E-3,5.8662206E-2,2.227216E-1,-1.0883358E0,2.2802256E-1,-3.024453E-2,8.570306E-3,-7.383618E-1,9.31576E-2,4.2544082E-1,1.0494387E0,-3.7316024E-1,5.6313086E-1,8.397344E-3,8.167067E-2,2.2736606E-1,1.4225152E-1],"categories":[],"categories_nodes":[],"categories_segments":[],"categories_sizes":[],"default_left":[true,true,true,true,true,true,true,true,false,false,true,true,true,true,true,false,false,false,true,true,true,false,false,true,true,true,true,false,false,true,true,true,false,true,true,true,true,true,true,true,true,true,true,true,true,true,true,true,true,true,true,true,true,true,true,true,false,true,true,true,true,true,true,false,false,false,false,false,false,false,false,false,false,false,false,false,false,false,false,false,false,false,false,false,false,false,false,false,false,false,false,false,false,false,false,false,false,false,false,false,false,false,false,false,false],"id":142,"left_children":[1,3,5,7,9,11,13,15,-1,-1,17,19,21,23,25,-1,-1,-1,27,29,31,-1,-1,33,35,37,39,-1,-1,41,43,45,-1,47,49,51,53,55,57,59,61,63,65,67,69,71,73,75,77,79,81,83,85,87,89,91,-1,93,95,97,99,101,103,-1,-1,-1,-1,-1,-1,-1,-1,-1,-1,-1,-1,-1,-1,-1,-1,-1,-1,-1,-1,-1,-1,-1,-1,-1,-1,-1,-1,-1,-1,-1,-1,-1,-1,-1,-1,-1,-1,-1,-1,-1,-1],"loss_changes":[1.1193799E2,5.368154E1,2.322644E1,6.368718E1,1.7394753E1,3.2852665E1,1.4697189E1,8.448267E-3,0E0,0E0,4.8352327E0,8.2740555E0,2.7948467E1,3.8520482E0,1.5034523E1,0E0,0E0,0E0,1.2958431E0,7.177151E-1,4.596428E0,0E0,0E0,6.9885874E-1,1.2222769E0,7.5038757E0,8.167465E0,0E0,0E0,4.356675E-1,2.3347583E-1,2.8550034E0,0E0,4.0429953E-2,1.2677169E-1,7.871684E-1,5.82978E-1,5.9016724E0,3.7416E0,4.156391E0,6.410671E0,3.2991266E-1,1.8030791E-1,2.860816E-1,1.1701641E-1,5.725052E0,3.367693E0,1.184956E-2,3.5416942E-2,4.1306734E-2,2.2364962E-1,1.89681E-1,1.7204762E-2,2.7463675E-1,3.7523043E-1,5.7181797E0,0E0,1.3586003E-1,3.6826477E0,5.544512E0,6.9323115E0,3.606468E-1,2.051361E0,0E0,0E0,0E0,0E0,0E0,0E0,0E0,0E0,0E0,0E0,0E0,0E0,0E0,0E0,0E0,0E0,0E0,0E0,0E0,0E0,0E0,0E0,0E0,0E0,0E0,0E0,0E0,0E0,0E0,0E0,0E0,0E0,0E0,0E0,0E0,0E0,0E0,0E0,0E0,0E0,0E0,0E0],"parents":[2147483647,0,0,1,1,2,2,3,3,4,4,5,5,6,6,7,7,10,10,11,11,12,12,13,13,14,14,18,18,19,19,20,20,23,23,24,24,25,25,26,26,29,29,30,30,31,31,33,33,34,34,35,35,36,36,37,37,38,38,39,39,40,40,41,41,42,42,43,43,44,44,45,45,46,46,47,47,48,48,49,49,50,50,51,51,52,52,53,53,54,54,55,55,57,57,58,58,59,59,60,60,61,61,62,62],"right_children":[2,4,6,8,10,12,14,16,-1,-1,18,20,22,24,26,-1,-1,-1,28,30,32,-1,-1,34,36,38,40,-1,-1,42,44,46,-1,48,50,52,54,56,58,60,62,64,66,68,70,72,74,76,78,80,82,84,86,88,90,92,-1,94,96,98,100,102,104,-1,-1,-1,-1,-1,-1,-1,-1,-1,-1,-1,-1,-1,-1,-1,-1,-1,-1,-1,-1,-1,-1,-1,-1,-1,-1,-1,-1,-1,-1,-1,-1,-1,-1,-1,-1,-1,-1,-1,-1,-1,-1],"split_conditions":[2.7272727E-2,1.6666667E-1,4.924379E-2,5.5555556E-2,9.689189E-1,4.8973713E-2,5.5555556E-2,5.719247E-1,1.1048586E-1,9.090886E-2,2.777778E-1,5.5555556E-2,5.036677E-1,7.090609E-2,8.30303E-1,2.1373741E-3,-0E0,-3.8179925E-3,4.4444448E-1,8.110852E-1,5E-1,1.7653028E-3,1.4252484E-1,5.719247E-1,1.8427517E-2,1.4296003E-1,7.125307E-2,2.2689804E-2,-5.3314335E-4,3.2949224E-2,1.2389015E-3,7.985258E-2,2.0540344E-2,1.6878912E-2,8.30303E-1,8.110852E-1,9.5682657E-1,1.4205977E-1,3.9510223E-1,1.8095067E-1,7.920965E-1,2.607362E-2,3.7450485E-2,5.181818E-1,9.8790765E-1,1.8275118E-2,4.0691394E-2,1.4004913E-1,3.3636364E-1,2.1407995E-1,1.3882065E-1,1.8383147E-1,6.142506E-3,7.5757575E-1,3.4520882E-1,4.9783938E-2,3.6305834E-2,1.3484347E-1,1.4422038E-1,6.142506E-3,1.9274397E-1,3.9510223E-1,6.621622E-1,1.8355675E-4,1.0183483E-2,-6.8279803E-3,1.2597723E-3,-8.633196E-3,-1.8952858E-3,2.479028E-3,-1.5679707E-3,5.5398874E-2,1.2009013E-2,6.1132354E-3,1.2458922E-2,4.017703E-4,-6.720972E-4,2.6051255E-3,9.764229E-5,-1.0643892E-3,-1.6737661E-3,-4.1177887E-3,-1.8801112E-3,1.271844E-3,7.967926E-3,8.164735E-3,1.899374E-2,1.57717E-3,-1.5764215E-4,1.1732441E-3,4.454432E-3,-2.1766715E-2,4.560451E-3,-6.048906E-4,1.7140612E-4,-1.4767235E-2,1.8631519E-3,8.508816E-3,2.0988774E-2,-7.4632047E-3,1.1262617E-2,1.6794687E-4,1.6334134E-3,4.5473212E-3,2.8450303E-3],"split_indices":[2,4,5,4,6,5,4,6,0,0,4,4,6,7,2,0,0,0,4,6,4,0,0,6,11,5,11,0,0,5,8,11,0,6,2,6,6,5,6,5,6,7,5,2,6,5,5,11,2,5,11,5,11,2,11,5,0,6,5,11,5,6,11,0,0,0,0,0,0,0,0,0,0,0,0,0,0,0,0,0,0,0,0,0,0,0,0,0,0,0,0,0,0,0,0,0,0,0,0,0,0,0,0,0,0],"split_type":[0,0,0,0,0,0,0,0,0,0,0,0,0,0,0,0,0,0,0,0,0,0,0,0,0,0,0,0,0,0,0,0,0,0,0,0,0,0,0,0,0,0,0,0,0,0,0,0,0,0,0,0,0,0,0,0,0,0,0,0,0,0,0,0,0,0,0,0,0,0,0,0,0,0,0,0,0,0,0,0,0,0,0,0,0,0,0,0,0,0,0,0,0,0,0,0,0,0,0,0,0,0,0,0,0],"sum_hessian":[7.863E3,2.8E1,7.835E3,1E1,1.8E1,3.15E2,7.52E3,3E0,7E0,1E0,1.7E1,3.13E2,2E0,7.48E2,6.772E3,1E0,2E0,4E0,1.3E1,4.6E1,2.67E2,1E0,1E0,5.33E2,2.15E2,4.821E3,1.951E3,1.2E1,1E0,1.3E1,3.3E1,2.55E2,1.2E1,1.3E2,4.03E2,1E1,2.05E2,3.98E2,4.423E3,1.37E2,1.814E3,6E0,7E0,1.1E1,2.2E1,2.3E1,2.32E2,4.5E1,8.5E1,2.91E2,1.12E2,7E0,3E0,1.46E2,5.9E1,3.96E2,2E0,3.66E2,4.057E3,1.06E2,3.1E1,2.74E2,1.54E3,2E0,4E0,1E0,6E0,4E0,7E0,3E0,1.9E1,1E0,2.2E1,1.91E2,4.1E1,4E0,4.1E1,2E0,8.3E1,6.2E1,2.29E2,2.3E1,8.9E1,4E0,3E0,1E0,2E0,7.9E1,6.7E1,2.4E1,3.5E1,3E0,3.93E2,2.08E2,1.58E2,5E0,4.052E3,8.9E1,1.7E1,1.5E1,1.6E1,1.55E2,1.19E2,1.161E3,3.79E2],"tree_param":{"num_deleted":"0","num_feature":"12","num_nodes":"105","size_leaf_vector":"0"}},{"base_weights":[1.16061E-1,-1.1091535E0,1.203353E-1,-1.6020579E0,2.5955973E0,-1.7517043E-2,1.353528E-1,-3.5578506E0,-5.7061476E-1,-1.0376715E-1,3.773341E0,-6.003945E-2,9.626459E-2,2.4170199E-1,1.1390877E-1,4.446177E-2,-5.5895534E0,-4.0709223E-3,-7.691076E-2,1.8787535E0,7.597963E-2,6.8119574E-1,2.1967563E-1,3.319435E-1,1.00913435E-1,1.0526581E-1,-0E0,1.0214447E-1,-9.585275E-3,-6.4862214E-2,-1.1111063E-1,7.304965E-1,2.5464792E0,4.2105442E-1,5.770892E-2,7.972399E-2,1.1953939E0,1.3192616E-2,2.3562706E-1,4.5881963E-1,2.2676818E-1,2.5108974E-2,1.1989648E-1,-2.4700044E-2,4.877433E-3,-8.027179E-2,-4.613083E-2,-1.4332236E-1,-7.9689324E-2,6.866528E-2,6.3774353E-1,3.4338236E-2,1.2367766E-1,2.7283988E0,-6.0180016E-2,3.0324383E0,7.002832E-1,8.513079E-2,-7.4759447E-3,2.8623557E-1,1.744957E-1,3.7362087E-1,7.511444E-1,1.0077428E0,2.116659E-1,-4.9368613E-3,4.7727637E-2,9.726023E-2,1.7842977E-1,8.018814E-3,-3.3002E-2,-4.5177314E-2,1.8388147E-2,-1.5515174E-1,-7.068775E-2,1.1428047E-1,-7.0670545E-2,-1.1789543E-1,-2.1749102E-1,-2.532351E-2,-8.334096E-2,-1.2296882E-2,1.4592744E-1,3.8887843E-1,8.1853145E-1,1.00871295E-1,3.3573243E-3,2.3746872E-1,1.09381124E-1,-5.156623E-1,3.615768E-1,8.076117E0,7.989219E-2,1.2965906E-1,8.4488314E-1,2.222613E-2,2.0089352E-1,-3.6311023E-2,2.1903727E-2,2.0448394E-1,4.5786572E-1,6.0134643E-1,1.5330707E-1,5.2728516E-1,2.3745053E-1,5.236642E-1,1.4109071E0,2.9291517E-1,1.2661066E0,1.9592727E-2,2.3997201E-1,-1.8656855E-2,1.5175722E-2,-3.0021988E-2,6.2151335E-2,3.3709523E-1,9.372141E-2,1.5157214E-1,3.1455648E-1],"categories":[],"categories_nodes":[],"categories_segments":[],"categories_sizes":[],"default_left":[true,true,true,true,true,true,true,true,false,false,false,true,true,true,true,true,false,true,true,true,true,true,true,true,true,false,false,false,true,true,true,false,false,true,true,true,true,true,true,true,true,true,true,true,true,true,true,true,true,true,true,true,true,false,true,true,true,true,true,true,true,true,true,true,true,true,true,true,true,false,false,false,false,false,false,false,false,false,false,false,false,false,false,false,false,false,false,false,false,false,false,false,false,false,false,false,false,false,false,false,false,false,false,false,false,false,false,false,false,false,false,false,false,false,false,false,false,false,false],"id":143,"left_children":[1,3,5,7,9,11,13,15,-1,-1,-1,17,19,21,23,25,-1,27,29,31,33,35,37,39,41,-1,-1,-1,43,45,47,-1,-1,49,51,53,55,57,59,61,63,65,67,69,71,73,75,77,79,81,83,85,87,-1,89,91,93,95,97,99,101,103,105,107,109,111,113,115,117,-1,-1,-1,-1,-1,-1,-1,-1,-1,-1,-1,-1,-1,-1,-1,-1,-1,-1,-1,-1,-1,-1,-1,-1,-1,-1,-1,-1,-1,-1,-1,-1,-1,-1,-1,-1,-1,-1,-1,-1,-1,-1,-1,-1,-1,-1,-1,-1,-1,-1],"loss_changes":[4.1173523E1,5.128582E1,1.6210732E1,4.835176E1,1.0780554E1,3.723653E0,1.6087234E1,6.1153214E1,0E0,0E0,0E0,5.2784204E-1,7.4935384E0,1.140213E1,1.663285E1,8.186284E-3,0E0,7.534374E-2,1.7240906E-1,1.122055E0,1.2922556E0,1.7372606E1,3.7118034E0,4.363575E0,7.978096E0,0E0,0E0,0E0,2.7502283E-2,8.913541E-2,1.0569477E-1,0E0,0E0,7.643733E-1,3.0056566E-1,9.85095E0,2.6828125E1,1.22251265E-1,3.21698E0,3.6096249E0,2.050212E0,7.559474E-1,5.866989E0,1.710466E-2,4.272577E-2,1.1823213E-1,5.7416886E-1,8.913195E-2,9.128302E-3,2.9611733E-2,1.6158438E-1,3.000309E-1,6.990099E-2,0E0,4.931004E0,9.398461E1,1.9573774E0,1.2883307E-1,5.412464E-2,7.989765E0,4.2575903E0,2.3815613E0,4.7288074E0,4.6973443E-1,9.6430063E-1,1.3186163E-1,7.124456E-1,2.6987E0,4.4975357E0,0E0,0E0,0E0,0E0,0E0,0E0,0E0,0E0,0E0,0E0,0E0,0E0,0E0,0E0,0E0,0E0,0E0,0E0,0E0,0E0,0E0,0E0,0E0,0E0,0E0,0E0,0E0,0E0,0E0,0E0,0E0,0E0,0E0,0E0,0E0,0E0,0E0,0E0,0E0,0E0,0E0,0E0,0E0,0E0,0E0,0E0,0E0,0E0,0E0,0E0],"parents":[2147483647,0,0,1,1,2,2,3,3,4,4,5,5,6,6,7,7,11,11,12,12,13,13,14,14,15,15,17,17,18,18,19,19,20,20,21,21,22,22,23,23,24,24,28,28,29,29,30,30,33,33,34,34,35,35,36,36,37,37,38,38,39,39,40,40,41,41,42,42,43,43,44,44,45,45,46,46,47,47,48,48,49,49,50,50,51,51,52,52,54,54,55,55,56,56,57,57,58,58,59,59,60,60,61,61,62,62,63,63,64,64,65,65,66,66,67,67,68,68],"right_children":[2,4,6,8,10,12,14,16,-1,-1,-1,18,20,22,24,26,-1,28,30,32,34,36,38,40,42,-1,-1,-1,44,46,48,-1,-1,50,52,54,56,58,60,62,64,66,68,70,72,74,76,78,80,82,84,86,88,-1,90,92,94,96,98,100,102,104,106,108,110,112,114,116,118,-1,-1,-1,-1,-1,-1,-1,-1,-1,-1,-1,-1,-1,-1,-1,-1,-1,-1,-1,-1,-1,-1,-1,-1,-1,-1,-1,-1,-1,-1,-1,-1,-1,-1,-1,-1,-1,-1,-1,-1,-1,-1,-1,-1,-1,-1,-1,-1,-1,-1],"split_conditions":[2.7272727E-2,7.090609E-2,5.5555556E-2,1.6666667E-1,3.8609636E-1,7.090609E-2,2.5344828E-1,5.5555556E-2,-1.1412295E-2,-2.075343E-3,7.546682E-2,5.719247E-1,5E-1,1.2389015E-3,4.2424244E-1,5.719247E-1,-1.1179107E-1,1.2389015E-3,8.30303E-1,8.110852E-1,1.8427517E-2,4.2424244E-1,3.9510223E-1,4.127764E-1,9.5682657E-1,2.1053161E-3,-0E0,2.0428894E-3,8.513586E-2,6.4742017E-1,9.212121E-1,1.460993E-2,5.0929584E-2,3.8609636E-1,4.9310344E-1,1.1034483E-1,5.181818E-1,1.3267812E-1,3.1941032E-1,3.6977887E-1,4.1296717E-4,3.9510223E-1,8.30303E-1,2.7518427E-1,1.3882065E-1,3.3636364E-1,2.689655E-1,4.95086E-1,9.3103446E-2,6.818182E-1,8.110852E-1,2.7758622E-1,5.206896E-1,5.4567974E-2,4.1296717E-4,2.777778E-1,1.3390663E-1,1.3484347E-1,1.9137931E-1,9.212121E-1,7.4137926E-2,3.2068965E-1,4.1896552E-1,3.9482757E-1,7.920965E-1,1.3484347E-1,1.6584766E-1,2.6206896E-1,6.189655E-1,1.6037628E-4,-6.6004E-4,-9.035463E-4,3.6776293E-4,-3.1030348E-3,-1.4137549E-3,2.2856093E-3,-1.4134109E-3,-2.3579085E-3,-4.3498203E-3,-5.064702E-4,-1.6668191E-3,-2.4593764E-4,2.9185489E-3,7.7775684E-3,1.6370628E-2,2.0174258E-3,6.714649E-5,4.7493745E-3,2.1876225E-3,-1.0313246E-2,7.231536E-3,1.6152233E-1,1.5978437E-3,2.593181E-3,1.6897662E-2,4.445226E-4,4.0178704E-3,-7.2622043E-4,4.3807452E-4,4.0896786E-3,9.157314E-3,1.2026928E-2,3.0661412E-3,1.0545703E-2,4.7490103E-3,1.0473283E-2,2.8218143E-2,5.858303E-3,2.5322132E-2,3.9185453E-4,4.79944E-3,-3.731371E-4,3.0351442E-4,-6.0043973E-4,1.2430267E-3,6.7419047E-3,1.8744282E-3,3.0314426E-3,6.2911296E-3],"split_indices":[2,7,4,4,6,7,3,4,0,0,0,6,0,8,2,6,0,8,2,6,11,2,6,11,6,0,0,0,6,11,2,0,0,6,3,3,2,11,11,11,8,6,2,11,11,2,3,11,3,2,6,3,3,0,8,4,11,6,3,2,3,3,3,3,6,6,11,3,3,0,0,0,0,0,0,0,0,0,0,0,0,0,0,0,0,0,0,0,0,0,0,0,0,0,0,0,0,0,0,0,0,0,0,0,0,0,0,0,0,0,0,0,0,0,0,0,0,0,0],"split_type":[0,0,0,0,0,0,0,0,0,0,0,0,0,0,0,0,0,0,0,0,0,0,0,0,0,0,0,0,0,0,0,0,0,0,0,0,0,0,0,0,0,0,0,0,0,0,0,0,0,0,0,0,0,0,0,0,0,0,0,0,0,0,0,0,0,0,0,0,0,0,0,0,0,0,0,0,0,0,0,0,0,0,0,0,0,0,0,0,0,0,0,0,0,0,0,0,0,0,0,0,0,0,0,0,0,0,0,0,0,0,0,0,0,0,0,0,0,0,0],"sum_hessian":[7.856E3,2.7E1,7.829E3,2.4E1,3E0,7.69E2,7.06E3,8E0,1.6E1,1E0,2E0,5.6E2,2.09E2,1.184E3,5.876E3,3E0,5E0,1.3E2,4.3E2,2E0,2.07E2,5.6E1,1.128E3,3.3E2,5.546E3,1E0,2E0,6E0,1.24E2,3.19E2,1.11E2,1E0,1E0,1E1,1.97E2,2.6E1,3E1,8.1E1,1.047E3,1.49E2,1.81E2,1.111E3,4.435E3,6.1E1,6.3E1,1.74E2,1.45E2,5.4E1,5.7E1,4E0,6E0,1.46E2,5.1E1,1E0,2.5E1,6E0,2.4E1,1.8E1,6.3E1,5.72E2,4.75E2,1.16E2,3.3E1,3E0,1.78E2,4.77E2,6.34E2,3.199E3,1.236E3,1.2E1,4.9E1,1.3E1,5E1,1.9E1,1.55E2,1.9E1,1.26E2,4.1E1,1.3E1,4E0,5.3E1,2E0,2E0,3E0,3E0,4.6E1,1E2,5E0,4.6E1,1.2E1,1.3E1,2E0,4E0,5E0,1.9E1,1.2E1,6E0,3.2E1,3.1E1,3.88E2,1.84E2,2.2E1,4.53E2,5.4E1,6.2E1,2.5E1,8E0,1E0,2E0,2.3E1,1.55E2,2.84E2,1.93E2,9.9E1,5.35E2,4.6E1,3.153E3,1.033E3,2.03E2],"tree_param":{"num_deleted":"0","num_feature":"12","num_nodes":"119","size_leaf_vector":"0"}},{"base_weights":[1.152418E-1,-9.902901E-2,3.119859E-1,4.1868363E-2,-2.0113522E-1,1.6562598E0,2.8217515E-1,-1.0814899E-2,1.236265E-1,-8.3924997E-1,-1.7903756E-1,2.9592726E0,3.6949182E-1,1.3729057E-1,3.186325E-1,-7.2448365E-3,-4.1964924E-1,8.242321E-1,1.1977222E-1,-7.3355687E-1,-1.1210692E0,-4.4873738E-1,-1.6989031E-1,7.325298E-1,7.1538215E0,-1.023828E0,8.817553E-1,1.929123E-1,9.9958874E-2,4.7059608E-1,2.9031757E-1,5.944873E-2,-1.7554617E-2,-1.8154895E-1,-4.419163E-1,9.808615E-2,2.4814886E-1,-7.7997047E-1,1.2955503E0,-3.4069952E-3,-1.181192E0,-1.0540093E0,-4.0608186E-1,-8.394065E-2,-1.9798791E-1,3.238931E0,-2.5732484E-1,1.7259083E1,3.0782192E0,-3.1985408E-1,-1.6716429E0,1.4724842E0,-1.6272564E-1,1.11249916E-1,2.4562216E-1,8.589841E-2,3.0991396E-1,1.4629633E0,4.3921408E-1,1.5178055E-1,3.1193146E-1,8.3628325E-3,7.419138E-2,-2.5317773E-2,8.71462E-2,3.567193E-1,8.770958E-2,3.5807896E-1,-5.0502657E-3,-7.0651054E-2,-8.068694E-1,-1.5038195E0,-1.0551755E0,-5.611815E-1,-3.3321306E-1,1.6672504E-1,-1.7071582E-1,-2.6104903E-1,-1.4598246E-1,1.3176847E0,5.984584E0,1.2024848E0,-3.4954068E-1,3.6581142E0,1.8567024E0,-1.3737658E0,-3.3682536E-2,1.034062E0,3.1095283E0,-4.0867665E-1,1.9576637E0,1.8777388E-1,-6.9675766E-2,3.0861205E-1,1.3981606E-1,9.7478606E-2,-3.00218E-1,5.4358727E-1,2.6699412E-1,-1.0681172E-1,3.1822152E0,7.4752575E-1,3.9314428E-1,2.5463563E-1,-4.2637054E-2,3.602956E-1,2.1126778E-1,-1.883471E-1,3.3699494E-2,2.0342855E-1,5.8805503E-2,-1.9463988E-2,-1.7328234E-1,3.6279374E-1,-8.7503016E-2,2.5845888E-1,7.4566334E-2,2.3761371E-1,5.303298E-1,2.7399005E-2,-1.4328758E-1,-1.0332073E0,-5.1820755E-1,-5.578754E-1,-3.125607E-1,2.7182597E-1,-2.9424825E-1,-2.188391E-1,5.099867E-2,-3.1541908E-1,-1.8239984E-1,-5.2335817E-2,-2.222613E-1,1.7080742E0,-2.698173E-1,-9.471586E-2,-9.055862E-1,3.199653E0,5.0536734E-1,4.5342135E0,2.2242708E0,-2.1077345E-1,-1.8293899E0,2.1874964E-1,-4.4049814E-1,2.9630372E-1,-1.0394954E-1,2.1301284E-1,1.4671317E0,6.21747E-2,2.2005542E-1,2.2186798E-1,8.179815E-2,-1.7135371E-1,-3.6896673E-1,3.0288273E-1,1.5829387E-1,-4.3679345E-1,4.2755693E-1,7.813193E-1,8.208918E0,5.506117E-1,2.0233924E0,2.2090076E-1,5.1694417E-1,5.7242984E-1,2.2327319E-1,5.0300306E-1,-7.1119234E-2,2.8967097E-1,5.060176E-1,3.7744746E-1,1.902377E-1],"categories":[],"categories_nodes":[],"categories_segments":[],"categories_sizes":[],"default_left":[true,true,true,true,true,true,true,true,true,true,true,true,true,true,true,true,true,false,true,true,true,true,true,true,true,true,true,true,true,true,true,true,true,false,false,true,true,true,false,false,true,false,true,true,true,true,true,false,true,true,false,true,true,true,true,true,true,true,true,true,true,true,true,true,true,false,true,true,true,false,false,false,false,true,true,true,true,true,true,true,false,false,true,false,false,false,false,true,true,true,false,true,true,true,true,true,true,false,true,true,true,true,true,true,true,true,true,false,false,false,false,false,false,false,false,false,false,false,false,false,false,false,false,false,false,false,false,false,false,false,false,false,false,false,false,false,false,false,false,false,false,false,false,false,false,false,false,false,false,false,false,false,false,false,false,false,false,false,false,false,false,false,false,false,false,false,false,false,false,false,false,false,false],"id":144,"left_children":[1,3,5,7,9,11,13,15,17,19,21,23,25,27,29,31,33,-1,35,37,39,41,43,45,47,49,51,53,55,57,59,61,63,-1,-1,65,67,69,-1,-1,71,-1,73,75,77,79,81,-1,83,85,-1,87,89,91,93,95,97,99,101,103,105,107,109,111,113,-1,115,117,119,-1,-1,-1,-1,121,123,125,127,129,131,133,-1,-1,135,-1,-1,-1,-1,137,139,141,-1,143,145,147,149,151,153,-1,155,157,159,161,163,165,167,169,171,-1,-1,-1,-1,-1,-1,-1,-1,-1,-1,-1,-1,-1,-1,-1,-1,-1,-1,-1,-1,-1,-1,-1,-1,-1,-1,-1,-1,-1,-1,-1,-1,-1,-1,-1,-1,-1,-1,-1,-1,-1,-1,-1,-1,-1,-1,-1,-1,-1,-1,-1,-1,-1,-1,-1,-1,-1,-1,-1,-1,-1,-1,-1,-1,-1,-1],"loss_changes":[3.332747E2,5.4448376E1,1.6497415E2,6.8520746E0,3.087732E1,1.493711E2,2.1278137E1,1.4047818E0,1.6368208E0,1.8836441E0,5.1991043E0,4.122227E2,3.2655643E1,1.6740885E0,1.3804443E1,6.593843E-1,8.5350275E-3,0E0,1.7139435E0,5.4466476E0,1.2809143E0,1.6265078E0,4.946785E0,7.309601E1,6.1350287E2,5.4179087E0,2.066551E1,1.3861656E0,1.4211655E0,1.5495911E1,8.111191E0,9.5268756E-2,6.7556894E-1,0E0,0E0,1.4091787E0,2.4921646E0,9.860687E-1,0E0,0E0,1.7971992E-1,0E0,6.632786E-1,1.102309E1,5.052723E0,4.1225853E1,2.999858E0,0E0,5.684471E0,1.8746657E0,0E0,1.4180019E1,6.676751E0,1.7828437E0,1.2943869E0,2.0472736E0,2.4426055E-1,4.1539783E1,6.850357E0,7.352152E0,1.1404221E1,1.4610794E-1,1.8978763E-1,6.6681683E-1,2.7746396E0,0E0,1.136358E0,1.240459E0,1.2557198E-1,0E0,0E0,0E0,0E0,2.1178484E-1,1.3977528E-1,6.3408422E0,4.021454E0,2.9599E0,6.0520687E0,3.4795895E0,0E0,0E0,2.8382633E0,0E0,0E0,0E0,0E0,1.9253647E1,2.0058594E0,3.0288775E0,0E0,1.7869687E0,4.883632E-1,1.3531439E1,4.5450127E-1,8.5433054E-1,8.933413E-2,0E0,8.016312E-2,1.5318658E0,8.62376E1,1.5503418E1,9.063736E0,2.3413858E0,1.984661E0,1.626561E1,2.6356354E0,0E0,0E0,0E0,0E0,0E0,0E0,0E0,0E0,0E0,0E0,0E0,0E0,0E0,0E0,0E0,0E0,0E0,0E0,0E0,0E0,0E0,0E0,0E0,0E0,0E0,0E0,0E0,0E0,0E0,0E0,0E0,0E0,0E0,0E0,0E0,0E0,0E0,0E0,0E0,0E0,0E0,0E0,0E0,0E0,0E0,0E0,0E0,0E0,0E0,0E0,0E0,0E0,0E0,0E0,0E0,0E0,0E0,0E0,0E0,0E0,0E0,0E0,0E0,0E0,0E0,0E0],"parents":[2147483647,0,0,1,1,2,2,3,3,4,4,5,5,6,6,7,7,8,8,9,9,10,10,11,11,12,12,13,13,14,14,15,15,16,16,18,18,19,19,20,20,21,21,22,22,23,23,24,24,25,25,26,26,27,27,28,28,29,29,30,30,31,31,32,32,35,35,36,36,37,37,40,40,42,42,43,43,44,44,45,45,46,46,48,48,49,49,51,51,52,52,53,53,54,54,55,55,56,56,57,57,58,58,59,59,60,60,61,61,62,62,63,63,64,64,66,66,67,67,68,68,73,73,74,74,75,75,76,76,77,77,78,78,79,79,82,82,87,87,88,88,89,89,91,91,92,92,93,93,94,94,95,95,96,96,98,98,99,99,100,100,101,101,102,102,103,103,104,104,105,105,106,106],"right_children":[2,4,6,8,10,12,14,16,18,20,22,24,26,28,30,32,34,-1,36,38,40,42,44,46,48,50,52,54,56,58,60,62,64,-1,-1,66,68,70,-1,-1,72,-1,74,76,78,80,82,-1,84,86,-1,88,90,92,94,96,98,100,102,104,106,108,110,112,114,-1,116,118,120,-1,-1,-1,-1,122,124,126,128,130,132,134,-1,-1,136,-1,-1,-1,-1,138,140,142,-1,144,146,148,150,152,154,-1,156,158,160,162,164,166,168,170,172,-1,-1,-1,-1,-1,-1,-1,-1,-1,-1,-1,-1,-1,-1,-1,-1,-1,-1,-1,-1,-1,-1,-1,-1,-1,-1,-1,-1,-1,-1,-1,-1,-1,-1,-1,-1,-1,-1,-1,-1,-1,-1,-1,-1,-1,-1,-1,-1,-1,-1,-1,-1,-1,-1,-1,-1,-1,-1,-1,-1,-1,-1,-1,-1,-1,-1],"split_conditions":[6.621175E-1,6.572582E-1,7.4137926E-2,3.989272E-1,7.4137926E-2,8.349742E-1,9.8790765E-1,3.9342475E-1,7.241379E-2,3.5106385E-1,1.8427517E-2,8.2218254E-1,8.571358E-1,4.127764E-1,2.5344828E-1,6.0824133E-2,1.4004913E-1,1.6484642E-2,6.430696E-1,2.2170213E-1,5.0041294E-1,6E-2,2.923833E-1,7.876776E-1,3.275862E-2,8.4844077E-1,6.8723404E-1,7.810464E-1,9.859468E-1,4.1296717E-4,7.554066E-1,2.0297873E-1,3.8253418E-1,-3.630979E-3,-8.838326E-3,4.044514E-1,6.4979887E-1,2.1276595E-3,2.5911007E-2,-6.81399E-5,6.8723404E-1,-2.1080187E-2,3.9234042E-1,3.5106385E-1,6.4742017E-1,7.635859E-1,9.8790765E-1,3.4518164E-1,6.724138E-2,2.1276595E-3,-3.3432856E-2,6.724138E-2,9.28372E-1,9.5682657E-1,3.3965516E-1,9.699887E-1,5.0082594E-1,8.2218254E-1,7.6706135E-1,7.290039E-1,8.4422266E-1,6.5110564E-2,1.3390663E-1,3.757258E-1,3.8608843E-1,7.1343854E-3,5.0082594E-1,6.474741E-1,7.1034485E-1,-1.413021E-3,-1.6137388E-2,-3.0076388E-2,-2.110351E-2,5.0082594E-1,5.0082594E-1,4.1896552E-1,3.7586206E-1,4.6034485E-1,7.2727275E-1,7.554066E-1,1.1969168E-1,2.4049696E-2,7.958708E-1,7.316228E-2,3.7134048E-2,-2.7475316E-2,-6.736507E-4,8.76709E-1,6E-2,6.724138E-2,3.915327E-2,7.738564E-1,1.8427517E-2,3.327586E-1,3.9234042E-1,7.920965E-1,2.913793E-1,1.0871745E-2,9.533169E-1,2.086207E-1,6.8723404E-1,7.635859E-1,8.2218254E-1,5.0082594E-1,1.2389015E-3,8.2218254E-1,5.0082594E-1,-3.7669418E-3,6.739899E-4,4.068571E-3,1.17611E-3,-3.8927974E-4,-3.4656466E-3,7.2558746E-3,-1.7500602E-3,5.1691774E-3,1.4913266E-3,4.752274E-3,1.0606596E-2,5.479801E-4,-2.8657515E-3,-2.0664146E-2,-1.0364151E-2,-1.1157508E-2,-6.251214E-3,5.436519E-3,-5.884965E-3,-4.3767816E-3,1.0199733E-3,-6.3083814E-3,-3.6479968E-3,-1.0467164E-3,-4.445226E-3,3.4161482E-2,-5.3963456E-3,-1.8943172E-3,-1.8111723E-2,6.399306E-2,1.0107347E-2,9.068427E-2,4.4485416E-2,-4.215469E-3,-3.6587797E-2,4.3749926E-3,-8.809962E-3,5.9260745E-3,-2.0789907E-3,4.260257E-3,2.9342635E-2,1.243494E-3,4.4011083E-3,4.4373595E-3,1.635963E-3,-3.4270743E-3,-7.3793344E-3,6.0576545E-3,3.1658774E-3,-8.735869E-3,8.551138E-3,1.5626386E-2,1.6417834E-1,1.1012233E-2,4.0467847E-2,4.418015E-3,1.0338883E-2,1.1448597E-2,4.4654636E-3,1.0060061E-2,-1.4223846E-3,5.793419E-3,1.0120353E-2,7.5489487E-3,3.804754E-3],"split_indices":[1,1,3,1,3,1,6,1,3,10,11,1,1,11,3,1,11,0,1,10,8,10,11,1,3,1,10,1,1,8,1,10,1,0,0,1,1,10,0,0,10,0,10,10,11,1,6,0,3,10,0,3,1,6,3,1,8,1,1,1,1,11,11,1,1,0,8,1,3,0,0,0,0,8,8,3,3,3,11,1,0,0,1,0,0,0,0,1,10,3,0,1,11,3,10,6,3,0,11,3,10,1,1,8,8,1,8,0,0,0,0,0,0,0,0,0,0,0,0,0,0,0,0,0,0,0,0,0,0,0,0,0,0,0,0,0,0,0,0,0,0,0,0,0,0,0,0,0,0,0,0,0,0,0,0,0,0,0,0,0,0,0,0,0,0,0,0,0,0,0,0,0,0],"split_type":[0,0,0,0,0,0,0,0,0,0,0,0,0,0,0,0,0,0,0,0,0,0,0,0,0,0,0,0,0,0,0,0,0,0,0,0,0,0,0,0,0,0,0,0,0,0,0,0,0,0,0,0,0,0,0,0,0,0,0,0,0,0,0,0,0,0,0,0,0,0,0,0,0,0,0,0,0,0,0,0,0,0,0,0,0,0,0,0,0,0,0,0,0,0,0,0,0,0,0,0,0,0,0,0,0,0,0,0,0,0,0,0,0,0,0,0,0,0,0,0,0,0,0,0,0,0,0,0,0,0,0,0,0,0,0,0,0,0,0,0,0,0,0,0,0,0,0,0,0,0,0,0,0,0,0,0,0,0,0,0,0,0,0,0,0,0,0,0,0,0,0,0,0],"sum_hessian":[7.905E3,3.784E3,4.121E3,1.59E3,2.194E3,8.9E1,4.032E3,9.67E2,6.23E2,7.3E1,2.121E3,4.4E1,4.5E1,8.11E2,3.221E3,9.59E2,8E0,3E0,6.2E2,5.4E1,1.9E1,6.9E1,2.052E3,2.9E1,1.5E1,1.2E1,3.3E1,3.25E2,4.86E2,5.05E2,2.716E3,1.28E2,8.31E2,1E0,7E0,5.31E2,8.9E1,5.3E1,1E0,1E0,1.8E1,4E0,6.5E1,5.06E2,1.546E3,8E0,2.1E1,4E0,1.1E1,6E0,6E0,2.1E1,1.2E1,1.28E2,1.97E2,4.56E2,3E1,1.5E1,4.9E2,3.67E2,2.349E3,2.9E1,9.9E1,7.74E2,5.7E1,2E1,5.11E2,6.2E1,2.7E1,2E0,5.1E1,4E0,1.4E1,2E1,4.5E1,1.3E2,3.76E2,6.98E2,8.48E2,5E0,3E0,1E0,2E1,7E0,4E0,1E0,5E0,1.7E1,4E0,1.1E1,1E0,9E1,3.8E1,1.23E2,7.4E1,4.43E2,1.3E1,4E0,2.6E1,8E0,7E0,6.3E1,4.27E2,2.4E2,1.27E2,1.586E3,7.63E2,3E0,2.6E1,1E1,8.9E1,7.45E2,2.9E1,2.2E1,3.5E1,3.6E1,4.75E2,3.7E1,2.5E1,2.2E1,5E0,1E0,1.9E1,3E0,4.2E1,1.06E2,2.4E1,3.09E2,6.7E1,4.12E2,2.86E2,3.81E2,4.67E2,4E0,1E0,1.4E1,6E0,3E0,1.4E1,1E0,3E0,1E1,1E0,8.6E1,4E0,3E0,3.5E1,1.14E2,9E0,3.8E1,3.6E1,4.9E1,3.94E2,5E0,8E0,1.9E1,7E0,5E0,3E0,5E0,2E0,5.5E1,8E0,1.79E2,2.48E2,2.1E1,2.19E2,6E0,1.21E2,1.069E3,5.17E2,8.5E1,6.78E2],"tree_param":{"num_deleted":"0","num_feature":"12","num_nodes":"173","size_leaf_vector":"0"}},{"base_weights":[1.0907771E-1,-1.1036845E-1,3.076332E-1,5.008253E-2,-2.2402416E-1,4.730402E0,2.922789E-1,-4.2433757E-3,1.3021512E-1,-8.9755225E-1,-2.0008625E-1,9.865735E0,-6.1808974E-1,1.0865926E0,2.6146758E-1,1.2421602E0,-7.3969876E-3,4.0480793E-1,1.108255E-1,-9.707748E-1,1.5257502E0,-3.395278E-1,-1.6345784E-1,3.020278E0,2.4095968E1,-1.3366761E0,3.7361667E-1,6.907467E-1,1.699269E0,9.840391E-2,3.0393043E-1,1.0318159E-1,2.0598052E0,-8.26333E-4,-1.4426076E-1,6.268894E-1,3.063439E-1,9.050677E-2,3.0574256E-1,-1.7241304E0,-8.137728E-1,-2.8542966E-1,-5.927463E-1,8.354674E-2,-1.833108E-1,8.141382E0,-8.6241996E-1,4.2076388E-1,-1.9102575E0,1.0219818E0,-1.0371144E0,2.9539819E0,1.1839756E0,2.622826E-1,8.968543E-2,6.7689234E-1,2.8746036E-1,-9.2436485E-3,2.7300292E-1,-1.0852912E-1,-3.826825E-1,6.6292524E-1,1.5314472E-1,2.526665E-1,8.852107E-1,1.9903447E-1,6.402964E-2,5.155335E-1,4.9958084E-2,-6.140653E-1,-1.2362876E0,-3.002753E-1,5.672786E-1,-1.3747925E-3,-7.5913143E-1,-1.4381963E-1,4.7255638E-1,-4.546863E-1,-1.6908307E-1,9.905172E0,4.330916E0,-1.9149778E0,1.1844494E0,5.313542E-1,2.7658596E0,-1.1223279E0,-3.958791E-1,3.4495065E0,-7.181932E-1,7.381343E-1,3.0252292E0,9.5440485E-2,3.372066E-1,1.9455281E-1,7.729381E-2,1.8289717E-1,9.723858E-1,1.1570619E-1,3.1277364E-1,-3.9089797E-3,-1.5434864E-1,3.770304E-1,-1.1717201E-2,-2.4166025E-1,-5.6352723E-2,-1.4752276E-1,-4.2230454E-1,8.6297303E-1,5.1262367E-1,1.447149E-1,3.3307207E-1,1.3644681E0,1.7388481E-1,3.5684174E-1,1.6894194E-1,-1.9920826E-1,1.0784376E-1,5.5987096E-1,9.61279E-2,2.949464E-2,4.0018898E-1,-6.63717E-1,3.2579386E-1,-1.478531E0,-6.589617E-1,4.6866104E-1,-3.1608108E-1,1.354195E0,-2.7210772E-1,7.18498E-1,-4.0487865E-1,-6.048282E-1,-1.0751884E0,3.9104295E-1,-3.146544E-1,3.8348106E-1,2.0912478E0,-1.9652294E-1,-8.5206515E-1,2.4869215E-1,-1.8345301E-1,1.8951442E0,4.645891E-2,1.5848824E0,4.7312865E0,-5.765946E-1,-1.2004086E0,-1.7104445E-1,-5.110162E-1,8.239867E-1,3.8216524E0,2.6472443E-1,1.2238325E0,1.4056293E1,8.7990123E-1,-2.2212403E-1,2.965762E-1,5.4030734E-1,1.7608649E-1,-5.2820668E-2,2.0110829E-1,1.1932938E-1,4.7453765E-2,1.1623474E0,-3.940204E-2,1.9494984E0,4.65938E-1,4.1671747E-1,8.271288E-2,3.7717465E-1,1.973577E-1],"categories":[],"categories_nodes":[],"categories_segments":[],"categories_sizes":[],"default_left":[true,true,true,true,true,true,true,true,true,true,true,true,true,true,true,true,true,true,true,true,false,true,true,true,false,true,false,true,true,true,true,false,false,true,true,true,true,true,true,false,true,true,true,true,true,true,true,false,false,true,true,true,true,true,true,true,true,true,true,true,true,true,false,true,true,true,true,true,true,true,true,true,true,true,true,true,true,true,true,false,false,false,false,true,true,true,true,true,false,true,true,true,true,true,true,true,true,true,true,false,false,false,false,false,false,false,false,false,false,false,false,false,false,false,false,false,false,false,false,false,false,false,false,false,false,false,false,false,false,false,false,false,false,false,false,false,false,false,false,false,false,false,false,false,false,false,false,false,false,false,false,false,false,false,false,false,false,false,false,false,false,false,false,false,false,false,false,false,false,false,false],"id":145,"left_children":[1,3,5,7,9,11,13,15,17,19,21,23,25,27,29,31,33,35,37,39,-1,41,43,45,-1,47,-1,49,51,53,55,-1,-1,57,59,61,63,65,67,-1,69,71,73,75,77,79,81,-1,-1,83,85,87,89,91,93,95,97,99,101,103,105,107,-1,109,111,113,115,117,119,121,123,125,127,129,131,133,135,137,139,-1,-1,-1,-1,141,143,145,147,149,-1,151,153,155,157,159,161,163,165,167,169,-1,-1,-1,-1,-1,-1,-1,-1,-1,-1,-1,-1,-1,-1,-1,-1,-1,-1,-1,-1,-1,-1,-1,-1,-1,-1,-1,-1,-1,-1,-1,-1,-1,-1,-1,-1,-1,-1,-1,-1,-1,-1,-1,-1,-1,-1,-1,-1,-1,-1,-1,-1,-1,-1,-1,-1,-1,-1,-1,-1,-1,-1,-1,-1,-1,-1,-1,-1,-1,-1,-1,-1],"loss_changes":[3.4446722E2,6.848913E1,2.813102E2,6.7814827E0,3.5367867E1,3.9585266E2,1.0111801E2,3.6344268E0,3.328413E0,1.3853207E1,1.081929E1,6.897158E2,5.4063025E0,3.7004288E1,2.7558563E1,2.071389E0,8.309282E-1,8.2648706E-1,2.315196E0,8.169685E0,0E0,5.9767265E0,8.256317E0,1.0849438E2,0E0,4.65757E0,0E0,5.434294E1,3.778299E1,1.1634912E0,1.9328217E1,0E0,0E0,2.0353858E0,3.3979082E-1,1.6505909E-1,8.2063556E-1,1.5245328E0,2.9526095E0,0E0,4.895729E0,4.6650887E0,7.5980644E0,1.1112812E1,5.978424E0,1.1744537E0,7.9485903E0,0E0,0E0,6.734017E1,6.680298E-1,3.2406006E1,3.477441E1,4.997847E-1,1.0077319E0,1.9387215E1,1.3139282E1,6.619662E-1,7.866478E-1,2.5053746E-1,2.079153E-2,1.7362595E-1,0E0,2.1436334E-1,6.94437E-1,4.6785736E-1,4.9575944E0,5.3675747E-1,1.7149809E-1,2.0524445E0,2.348463E0,4.4022827E0,4.321743E0,5.1274133E0,2.701561E0,7.288889E0,6.377884E0,7.8627415E0,8.901329E0,0E0,0E0,0E0,0E0,4.1163773E1,3.76425E1,3.1199646E-1,2.1529585E-2,1.3865616E1,0E0,7.9951057E0,1.9287619E2,8.7468636E-1,8.852279E-1,1.3917398E-1,8.741913E-1,1.0990449E1,4.0900757E1,3.8479924E0,1.9570038E1,0E0,0E0,0E0,0E0,0E0,0E0,0E0,0E0,0E0,0E0,0E0,0E0,0E0,0E0,0E0,0E0,0E0,0E0,0E0,0E0,0E0,0E0,0E0,0E0,0E0,0E0,0E0,0E0,0E0,0E0,0E0,0E0,0E0,0E0,0E0,0E0,0E0,0E0,0E0,0E0,0E0,0E0,0E0,0E0,0E0,0E0,0E0,0E0,0E0,0E0,0E0,0E0,0E0,0E0,0E0,0E0,0E0,0E0,0E0,0E0,0E0,0E0,0E0,0E0,0E0,0E0,0E0,0E0,0E0,0E0,0E0,0E0],"parents":[2147483647,0,0,1,1,2,2,3,3,4,4,5,5,6,6,7,7,8,8,9,9,10,10,11,11,12,12,13,13,14,14,15,15,16,16,17,17,18,18,19,19,21,21,22,22,23,23,25,25,27,27,28,28,29,29,30,30,33,33,34,34,35,35,36,36,37,37,38,38,40,40,41,41,42,42,43,43,44,44,45,45,46,46,49,49,50,50,51,51,52,52,53,53,54,54,55,55,56,56,57,57,58,58,59,59,60,60,61,61,63,63,64,64,65,65,66,66,67,67,68,68,69,69,70,70,71,71,72,72,73,73,74,74,75,75,76,76,77,77,78,78,83,83,84,84,85,85,86,86,87,87,89,89,90,90,91,91,92,92,93,93,94,94,95,95,96,96,97,97,98,98],"right_children":[2,4,6,8,10,12,14,16,18,20,22,24,26,28,30,32,34,36,38,40,-1,42,44,46,-1,48,-1,50,52,54,56,-1,-1,58,60,62,64,66,68,-1,70,72,74,76,78,80,82,-1,-1,84,86,88,90,92,94,96,98,100,102,104,106,108,-1,110,112,114,116,118,120,122,124,126,128,130,132,134,136,138,140,-1,-1,-1,-1,142,144,146,148,150,-1,152,154,156,158,160,162,164,166,168,170,-1,-1,-1,-1,-1,-1,-1,-1,-1,-1,-1,-1,-1,-1,-1,-1,-1,-1,-1,-1,-1,-1,-1,-1,-1,-1,-1,-1,-1,-1,-1,-1,-1,-1,-1,-1,-1,-1,-1,-1,-1,-1,-1,-1,-1,-1,-1,-1,-1,-1,-1,-1,-1,-1,-1,-1,-1,-1,-1,-1,-1,-1,-1,-1,-1,-1,-1,-1,-1,-1,-1,-1],"split_conditions":[6.621175E-1,6.572582E-1,2.2506302E-3,3.989272E-1,2.9708318E-2,8.349742E-1,4.6813108E-2,2.2506302E-3,1.0415916E-1,8.2186735E-1,2.3883688E-1,8.2200134E-1,8.7090075E-1,8.571358E-1,9.8790765E-1,2.083415E-1,3.8835415E-1,4.132157E-2,6.474741E-1,2.2506302E-3,3.0515002E-2,2.0525748E-1,2.9087144E-1,7.876776E-1,4.8191935E-1,8.4844077E-1,7.472333E-3,8.349742E-1,1.7021276E-2,1.2009363E-1,1.8427517E-2,2.0636318E-3,4.11961E-2,3.8399246E-1,3.9342475E-1,6.47778E-1,9.533169E-1,4.3256068E-1,6.4979887E-1,-3.4482606E-2,2.2056177E-2,2.0309687E-1,1.3390663E-1,2.710659E-1,3.293122E-1,7.753007E-1,8.0442405E-1,8.415277E-3,-3.8205147E-2,8.2218254E-1,3.3129275E-2,9.28372E-1,4.0511344E-2,4.1296717E-4,7.920965E-1,8.2218254E-1,7.554066E-1,3.757258E-1,3.8608843E-1,3.4520882E-1,1.764494E-1,2.2866402E-2,3.0628943E-3,7.6161325E-2,6.2911546E-1,4.044514E-1,4.4565028E-1,8.9413035E-1,9.494058E-1,2.1335974E-2,6.621622E-1,3.195895E-2,2.0408714E-1,5.9234047E-1,3.5106385E-1,2.4531868E-1,2.8943104E-1,3.1526828E-1,3.4533668E-1,1.9810344E-1,8.661832E-2,-3.8299553E-2,2.3688989E-2,7.6906526E-1,5.0082594E-1,4.1296717E-4,8.4844077E-1,1.3267812E-1,-1.43638635E-2,3.5106385E-1,4.1141517E-2,6.081081E-1,8.2463086E-2,2.1056896E-1,5.24937E-1,7.554066E-1,8.349742E-1,2.3487577E-1,8.349742E-1,-7.817959E-5,-3.0869727E-3,7.540608E-3,-2.3434401E-4,-4.833205E-3,-1.1270544E-3,-2.9504553E-3,-8.446091E-3,1.725946E-2,1.0252473E-2,2.8942982E-3,6.661441E-3,2.728936E-2,3.477696E-3,7.136835E-3,3.3788388E-3,-3.984165E-3,2.156875E-3,1.1197419E-2,1.922558E-3,5.898928E-4,8.00378E-3,-1.3274339E-2,6.5158773E-3,-2.9570619E-2,-1.3179234E-2,9.373221E-3,-6.3216216E-3,2.70839E-2,-5.442154E-3,1.436996E-2,-8.097573E-3,-1.2096563E-2,-2.1503767E-2,7.820859E-3,-6.293088E-3,7.669621E-3,4.1824955E-2,-3.930459E-3,-1.7041303E-2,4.9738428E-3,-3.66906E-3,3.7902884E-2,9.291782E-4,3.1697646E-2,9.462573E-2,-1.1531891E-2,-2.4008172E-2,-3.420889E-3,-1.0220324E-2,1.6479734E-2,7.643305E-2,5.2944887E-3,2.447665E-2,2.8112584E-1,1.7598024E-2,-4.4424804E-3,5.931524E-3,1.0806147E-2,3.5217297E-3,-1.0564133E-3,4.0221657E-3,2.3865874E-3,9.490753E-4,2.3246948E-2,-7.880408E-4,3.898997E-2,9.31876E-3,8.334349E-3,1.6542575E-3,7.5434926E-3,3.9471537E-3],"split_indices":[1,1,5,1,5,1,5,5,5,11,5,1,1,1,6,1,1,5,1,5,0,5,5,1,0,1,0,1,10,5,11,0,0,1,1,1,11,1,1,0,5,5,11,5,5,1,1,0,0,1,5,1,5,8,6,1,1,1,1,11,5,5,0,5,1,1,1,5,5,5,11,5,5,10,10,5,5,5,5,0,0,0,0,1,8,8,1,11,0,10,5,11,5,5,5,1,1,5,1,0,0,0,0,0,0,0,0,0,0,0,0,0,0,0,0,0,0,0,0,0,0,0,0,0,0,0,0,0,0,0,0,0,0,0,0,0,0,0,0,0,0,0,0,0,0,0,0,0,0,0,0,0,0,0,0,0,0,0,0,0,0,0,0,0,0,0,0,0,0,0,0],"split_type":[0,0,0,0,0,0,0,0,0,0,0,0,0,0,0,0,0,0,0,0,0,0,0,0,0,0,0,0,0,0,0,0,0,0,0,0,0,0,0,0,0,0,0,0,0,0,0,0,0,0,0,0,0,0,0,0,0,0,0,0,0,0,0,0,0,0,0,0,0,0,0,0,0,0,0,0,0,0,0,0,0,0,0,0,0,0,0,0,0,0,0,0,0,0,0,0,0,0,0,0,0,0,0,0,0,0,0,0,0,0,0,0,0,0,0,0,0,0,0,0,0,0,0,0,0,0,0,0,0,0,0,0,0,0,0,0,0,0,0,0,0,0,0,0,0,0,0,0,0,0,0,0,0,0,0,0,0,0,0,0,0,0,0,0,0,0,0,0,0,0,0],"sum_hessian":[7.905E3,3.755E3,4.15E3,1.557E3,2.198E3,1.4E1,4.136E3,9.28E2,6.29E2,7.5E1,2.123E3,7E0,7E0,1.54E2,3.982E3,2E0,9.26E2,4.1E1,5.88E2,7.3E1,2E0,4.41E2,1.682E3,5E0,2E0,4E0,3E0,9.4E1,6E1,8.23E2,3.159E3,1E0,1E0,8.84E2,4.2E1,1.2E1,2.9E1,5.33E2,5.5E1,1.2E1,6.1E1,3.64E2,7.7E1,1.25E2,1.557E3,2E0,3E0,1E0,3E0,7.9E1,1.5E1,1.7E1,4.3E1,4.1E1,7.82E2,1.33E2,3.026E3,8.58E2,2.6E1,3.7E1,5E0,1.1E1,1E0,2.7E1,2E0,1.04E2,4.29E2,3E1,2.5E1,4.2E1,1.9E1,3.58E2,6E0,1.7E1,6E1,7.9E1,4.6E1,7.7E1,1.48E3,1E0,1E0,2E0,1E0,6.2E1,1.7E1,1.3E1,2E0,1.5E1,2E0,3.5E1,8E0,1.3E1,2.8E1,8.2E1,7E2,5E1,8.3E1,3.89E2,2.637E3,8.28E2,3E1,1.9E1,7E0,1E1,2.7E1,1E0,4E0,4E0,7E0,1.2E1,1.5E1,1E0,1E0,1.6E1,8.8E1,6.1E1,3.68E2,2.7E1,3E0,2.4E1,1E0,4E1,2E0,1.3E1,6E0,7E0,3.51E2,3E0,3E0,6E0,1.1E1,4.1E1,1.9E1,1.9E1,6E1,4.4E1,2E0,4.7E1,3E1,4.9E1,1.431E3,1.6E1,4.6E1,1.1E1,6E0,2E0,1.1E1,1E0,1E0,2E0,1.3E1,1.8E1,1.7E1,1E0,7E0,5E0,8E0,1.2E1,1.6E1,2E0,8E1,2.9E2,4.1E2,9E0,4.1E1,2.8E1,5.5E1,3.8E1,3.51E2,1.692E3,9.45E2],"tree_param":{"num_deleted":"0","num_feature":"12","num_nodes":"171","size_leaf_vector":"0"}},{"base_weights":[1.0379104E-1,3.576939E-2,1.3618146E-1,-1.5859716E0,4.226489E-2,4.9828905E-1,1.2797713E-1,8.4433866E-1,-2.6205099E0,-1.236392E-2,6.56831E-2,4.217991E-1,1.3913611E0,5.1411796E-1,1.22493096E-1,2.0289116E0,4.063431E-2,6.524471E-2,-7.815186E-2,1.00393124E-1,8.300734E-3,2.3387478E-1,9.205754E-1,1.7059168E0,1.978483E-1,6.546445E-1,1.5409794E-1,2.103517E0,1.21600784E-1,1.0561173E-2,1.1045702E-1,-4.1980267E-2,-8.297221E-2,-2.4029279E-1,1.1045075E-1,-1.2302118E-3,3.3541012E-1,1.6268162E-1,1.8791722E0,1.0141026E0,-1.3563379E0,2.2330751E0,2.5112194E-1,1.2977763E0,-9.408603E-1,1.6383606E-1,7.3973763E-1,-1.826115E-1,5.950564E-1,1.3408786E-2,1.3634805E-1,1.7180511E-1,3.8722102E-3,2.1761638E-1,6.534845E-2,2.0684015E-3,-5.3272143E-2,-2.572101E-1,-8.0790676E-2,-3.8064948E-1,1.6124715E0,-1.3629889E-2,1.2548184E-1,7.340957E-2,-4.1293263E-2,9.1917014E-1,4.8662502E-2,2.0251286E-1,-1.1574299E0,2.4057224E-1,4.265959E0,1.7053325E0,7.7134794E-1,2.7096495E-1,-1.4423214E-1,6.6087216E-1,1.188324E0,-7.3075384E-2,-1.0572194E0,3.5361874E-1,1.0472477E-2,1.1588233E-1,2.0156235E-1,4.9822858E-1,7.677645E-2,-1.5392822E-2,2.5125956E-2,5.198755E-1,1.8515296E-1,7.026934E-3,1.1173707E-1,-4.334286E-2,7.157047E-2,-4.0854696E-2,-7.169904E-2,-7.5487174E-2,-6.364697E-1,-1.4547071E-1,-7.5855E-2,2.1995266E-1,-4.497742E-1,3.3331405E-2,-3.0589929E-2,5.464363E-1,1.2091759E-1,3.447668E-2,4.5544523E-1,-1.3337237E0,-3.1169575E-2,2.4226055E0,3.5581842E-2,2.954776E-1,-3.1147517E-2,1.5080434E-1,1.3155174E0,-3.613305E-1,7.930102E-1,9.4526297E-1,2.5185375E0,8.255053E-2,1.436191E0,1.0336572E-2,3.8716412E-1,9.286434E-1,3.6711392E-1,9.879932E-1,1.6817144E0,-1.035895E0,5.2148476E-2,1.15755305E-1,1.0274903E0,-6.5463835E-1,1.2983654E-2,-6.981567E-2,1.2710619E-1,3.7503943E-1,1.5859179E-1],"categories":[],"categories_nodes":[],"categories_segments":[],"categories_sizes":[],"default_left":[true,true,true,true,true,true,true,true,false,true,true,true,true,true,true,false,false,true,true,true,true,true,true,true,true,true,true,false,true,true,true,true,true,true,true,true,true,true,true,true,false,false,false,false,false,true,true,true,false,true,true,true,true,true,true,true,true,true,true,true,false,true,true,true,true,true,true,true,false,true,false,true,true,true,false,true,true,true,false,true,true,true,true,false,false,false,false,false,false,false,false,false,false,false,false,false,false,false,false,false,false,false,false,false,false,false,false,false,false,false,false,false,false,false,false,false,false,false,false,false,false,false,false,false,false,false,false,false,false,false,false,false,false,false,false,false,false],"id":146,"left_children":[1,3,5,7,9,11,13,15,-1,17,19,21,23,25,27,-1,-1,29,31,33,35,37,39,41,43,45,47,-1,49,51,53,55,57,59,61,63,65,67,69,71,-1,-1,-1,-1,-1,73,75,77,-1,79,81,83,85,87,89,91,93,95,97,99,-1,101,103,105,107,109,111,113,-1,115,-1,117,119,121,-1,123,125,127,-1,129,131,133,135,-1,-1,-1,-1,-1,-1,-1,-1,-1,-1,-1,-1,-1,-1,-1,-1,-1,-1,-1,-1,-1,-1,-1,-1,-1,-1,-1,-1,-1,-1,-1,-1,-1,-1,-1,-1,-1,-1,-1,-1,-1,-1,-1,-1,-1,-1,-1,-1,-1,-1,-1,-1,-1,-1],"loss_changes":[1.768435E1,2.7286945E1,1.6126266E1,2.6744097E1,3.302074E0,7.998537E0,1.1232086E1,3.1166065E0,0E0,3.9554086E0,3.5959249E0,1.0347267E1,3.3643246E0,3.7155285E0,9.153275E0,0E0,0E0,8.7640023E-1,7.017088E-2,3.8629456E0,2.1290715E0,9.395838E0,6.913412E0,5.4016533E0,3.334936E0,2.174141E0,3.209604E0,0E0,8.361588E0,1.7127925E-1,9.305918E-1,2.580259E-2,1.2863517E-1,8.59536E0,2.0413065E0,1.9811268E0,3.2075434E0,4.183449E0,1.2630654E1,4.4481583E0,0E0,0E0,0E0,0E0,0E0,2.8987002E-1,1.3155441E0,1.1396754E0,0E0,6.2225145E-1,6.1448975E0,1.755037E-1,6.386974E-2,5.2042174E-1,3.6959362E-1,3.4051355E-2,6.646611E-3,2.7248645E-1,1.0979223E-1,1.2956061E0,0E0,9.4549425E-2,1.8423977E0,3.4285724E0,5.6103044E0,8.349688E0,2.6948643E-1,4.306058E0,0E0,8.7762177E-1,0E0,3.6894665E0,1.0166238E1,1.848034E-1,0E0,2.9618015E0,3.3857346E-2,1.3985003E0,0E0,7.9892945E-1,1.0364501E0,7.3243484E0,8.182343E0,0E0,0E0,0E0,0E0,0E0,0E0,0E0,0E0,0E0,0E0,0E0,0E0,0E0,0E0,0E0,0E0,0E0,0E0,0E0,0E0,0E0,0E0,0E0,0E0,0E0,0E0,0E0,0E0,0E0,0E0,0E0,0E0,0E0,0E0,0E0,0E0,0E0,0E0,0E0,0E0,0E0,0E0,0E0,0E0,0E0,0E0,0E0,0E0,0E0,0E0,0E0,0E0,0E0,0E0],"parents":[2147483647,0,0,1,1,2,2,3,3,4,4,5,5,6,6,7,7,9,9,10,10,11,11,12,12,13,13,14,14,17,17,18,18,19,19,20,20,21,21,22,22,23,23,24,24,25,25,26,26,28,28,29,29,30,30,31,31,32,32,33,33,34,34,35,35,36,36,37,37,38,38,39,39,45,45,46,46,47,47,49,49,50,50,51,51,52,52,53,53,54,54,55,55,56,56,57,57,58,58,59,59,61,61,62,62,63,63,64,64,65,65,66,66,67,67,69,69,71,71,72,72,73,73,75,75,76,76,77,77,79,79,80,80,81,81,82,82],"right_children":[2,4,6,8,10,12,14,16,-1,18,20,22,24,26,28,-1,-1,30,32,34,36,38,40,42,44,46,48,-1,50,52,54,56,58,60,62,64,66,68,70,72,-1,-1,-1,-1,-1,74,76,78,-1,80,82,84,86,88,90,92,94,96,98,100,-1,102,104,106,108,110,112,114,-1,116,-1,118,120,122,-1,124,126,128,-1,130,132,134,136,-1,-1,-1,-1,-1,-1,-1,-1,-1,-1,-1,-1,-1,-1,-1,-1,-1,-1,-1,-1,-1,-1,-1,-1,-1,-1,-1,-1,-1,-1,-1,-1,-1,-1,-1,-1,-1,-1,-1,-1,-1,-1,-1,-1,-1,-1,-1,-1,-1,-1,-1,-1,-1,-1],"split_conditions":[1.6666667E-1,2.2506302E-3,7.4137926E-2,5.5555556E-2,5.5555556E-2,6.724138E-2,1.48936175E-2,8.231776E-1,-5.2410197E-2,9.8790765E-1,4.413793E-1,6.893617E-1,5.5787235E-1,1.489917E-1,1.8275118E-2,4.057823E-2,8.126862E-4,3.9510223E-1,1.3234043E-1,1.9895572E-2,9.902773E-1,5.8854413E-1,1.403493E-1,6.9859564E-2,2.777778E-1,9.5682657E-1,3.888889E-1,4.207034E-2,7.920965E-1,8.793104E-2,2.757472E-1,2.1276595E-3,3.0878644E-2,1.166234E-1,3.9510223E-1,6.229744E-1,7.862069E-1,1.3296723E-1,2.777778E-1,1.3422757E-1,-2.7126757E-2,4.4661503E-2,5.0224387E-3,2.5955526E-2,-1.8817205E-2,3.888889E-1,1.4701116E-1,1.5790421E-1,1.1901128E-2,3.9791144E-2,9.9787235E-1,6.658651E-2,1.3484347E-1,1.7021276E-2,3.327586E-1,1.4169967E-1,2.1407995E-1,3E-1,1.6034484E-1,5.719247E-1,3.224943E-2,2.1425998E-1,2.4666905E-2,5.823731E-1,6.281959E-1,9.930681E-1,9.206897E-1,1.3170686E-1,-2.3148598E-2,5E-1,8.531918E-2,1.317969E-1,1.3809867E-1,1.4482759E-1,-2.8846427E-3,1.4482759E-1,3.888889E-1,1.5088224E-1,-2.1144386E-2,3.888889E-1,4.2761974E-2,1.5E-1,2.5344828E-1,9.964571E-3,1.535529E-3,-3.0785645E-4,5.0251913E-4,1.0397511E-2,3.7030592E-3,1.4053867E-4,2.2347413E-3,-8.668571E-4,1.4314094E-3,-8.170939E-4,-1.4339808E-3,-1.5097434E-3,-1.2729394E-2,-2.909414E-3,-1.5171E-3,4.3990533E-3,-8.995484E-3,6.6662807E-4,-6.1179855E-4,1.0928726E-2,2.4183518E-3,6.8953354E-4,9.108905E-3,-2.6674472E-2,-6.233915E-4,4.845211E-2,7.1163685E-4,5.909552E-3,-6.229503E-4,3.0160868E-3,2.6310347E-2,-7.22661E-3,1.5860204E-2,1.890526E-2,5.037075E-2,1.6510106E-3,2.872382E-2,2.0673143E-4,7.7432822E-3,1.8572867E-2,7.342278E-3,1.9759864E-2,3.3634286E-2,-2.07179E-2,1.0429695E-3,2.315106E-3,2.0549804E-2,-1.30927665E-2,2.5967308E-4,-1.3963134E-3,2.5421237E-3,7.500788E-3,3.1718358E-3],"split_indices":[4,5,3,4,4,3,10,6,0,6,3,10,10,5,5,0,0,6,10,5,5,7,5,5,4,6,4,0,6,3,5,10,5,7,6,5,3,5,4,5,0,0,0,0,0,4,5,5,0,5,10,6,6,10,3,5,5,3,3,6,0,5,5,5,5,5,3,5,0,0,0,5,5,3,0,3,4,5,0,4,5,3,3,0,0,0,0,0,0,0,0,0,0,0,0,0,0,0,0,0,0,0,0,0,0,0,0,0,0,0,0,0,0,0,0,0,0,0,0,0,0,0,0,0,0,0,0,0,0,0,0,0,0,0,0,0,0],"split_type":[0,0,0,0,0,0,0,0,0,0,0,0,0,0,0,0,0,0,0,0,0,0,0,0,0,0,0,0,0,0,0,0,0,0,0,0,0,0,0,0,0,0,0,0,0,0,0,0,0,0,0,0,0,0,0,0,0,0,0,0,0,0,0,0,0,0,0,0,0,0,0,0,0,0,0,0,0,0,0,0,0,0,0,0,0,0,0,0,0,0,0,0,0,0,0,0,0,0,0,0,0,0,0,0,0,0,0,0,0,0,0,0,0,0,0,0,0,0,0,0,0,0,0,0,0,0,0,0,0,0,0,0,0,0,0,0,0],"sum_hessian":[8.028E3,2.59E3,5.438E3,1E1,2.58E3,1.2E2,5.318E3,3E0,7E0,7.74E2,1.806E3,1.11E2,9E0,7.4E1,5.244E3,1E0,2E0,3.55E2,4.19E2,1.125E3,6.81E2,8.1E1,3E1,7E0,2E0,5.3E1,2.1E1,2E0,5.242E3,1.61E2,1.94E2,5E1,3.69E2,3.2E1,1.093E3,6.62E2,1.9E1,7.8E1,3E0,2.9E1,1E0,5E0,2E0,1E0,1E0,8E0,4.5E1,1.2E1,9E0,6.29E2,4.613E3,6E0,1.55E2,5.7E1,1.37E2,1E1,4E1,4E0,3.65E2,3E1,2E0,1.18E2,9.75E2,2.31E2,4.31E2,6E0,1.3E1,7.6E1,2E0,2E0,1E0,7E0,2.2E1,6E0,2E0,3.9E1,6E0,1.1E1,1E0,5E0,6.24E2,3.512E3,1.101E3,1E0,5E0,8.1E1,7.4E1,5E0,5.2E1,6.1E1,7.6E1,6E0,4E0,2.5E1,1.5E1,3E0,1E0,2.5E1,3.4E2,3E0,2.7E1,3.1E1,8.7E1,1E1,9.65E2,2.1E2,2.1E1,3E0,4.28E2,2E0,4E0,3E0,1E1,7.3E1,3E0,1E0,1E0,4E0,3E0,1.1E1,1.1E1,2E0,4E0,2E1,1.9E1,5E0,1E0,1E0,1E1,4E0,1E0,2E0,6.22E2,2E2,3.312E3,2.18E2,8.83E2],"tree_param":{"num_deleted":"0","num_feature":"12","num_nodes":"137","size_leaf_vector":"0"}},{"base_weights":[1.21001706E-1,-7.665945E-2,3.007278E-1,-1.7160866E0,-6.9075696E-2,5.788841E0,2.8299204E-1,6.0719226E-2,-2.0903804E0,4.253086E-2,-1.501747E-1,1.2315647E1,1.378288E0,1.6358925E0,2.7096564E-1,-6.416326E-2,-2.2396705E0,-9.005669E-3,1.1637002E-1,-6.203922E-1,-1.3256504E-1,3.107294E0,2.3704088E1,-1.258291E1,3.8561738E0,3.9324448E-1,3.7685332E0,3.113584E-1,1.16634436E-1,-2.9139624E0,-1.7167857E0,-5.020409E-3,-2.6257715E-1,9.1504805E-2,2.6218694E-1,-1.7931782E-1,-8.3810896E-1,-1.7499742E-1,-3.1785123E-2,9.795915E0,-1.1528885E0,3.1539965E1,9.929649E0,-6.240689E-1,7.0090966E0,1.0114574E0,-9.9960697E-1,1.6508135E0,8.036407E0,3.563921E-1,2.1283995E-1,9.766236E-2,2.3835398E-1,-2.1314202E-1,-1.9101869E0,4.282505E-2,-1.564354E-2,-1.5124048E-1,-3.6002865E-1,6.9456704E-2,2.1419904E-1,6.503549E-1,2.3787378E-1,-1.1521939E0,-3.715653E-2,-6.378143E-2,-1.0433196E0,-5.140865E-2,-2.2177613E-1,-1.7571068E-1,1.1166637E-1,-2.0169497E0,-0E0,6.060291E-1,-2.6312761E0,3.1619236E-1,5.1315017E0,3.890724E-1,-1.241605E0,2.3323886E0,-7.209948E-1,3.934075E0,8.869224E0,2.6798102E-1,6.412122E-1,8.511906E-2,2.8742087E-1,1.9060756E-1,7.7044345E-2,4.6526238E-1,1.09181575E-1,1.01570986E-1,3.4005336E-2,-2.1966778E-2,8.736204E-2,2.4984685E-1,5.0187428E-2,1.4059801E0,1.9410028E-1,9.2623633E-1,3.878957E-1,1.4747603E-1,3.0355552E-1,2.312773E-1,-3.294407E-1,-0E0,-6.957101E-2,-1.2667525E0,-8.6927754E-1,-6.5059856E-2,-3.8831063E-2,-8.5497394E-2,-2.9322258E-1,-9.142065E-1,-1.4750607E-1,1.7415853E0,7.2221264E-2,1.5642555E0,-4.0676332E-1,1.5155535E0,7.453479E0,4.3724284E0,1.2913359E0,3.1466162E-1,1.1806199E-1,2.0663638E0,5.74824E-1,2.2616701E-1,3.7840955E-2,5.267431E-1,2.316176E-1,3.63258E-1,1.6591036E-1,1.15016915E-1,-2.2864005E-2,7.698157E-2,1.6262246E0,1.9027786E-1,-1.556575E-1],"categories":[],"categories_nodes":[],"categories_segments":[],"categories_sizes":[],"default_left":[true,true,true,true,true,true,true,false,true,true,true,true,true,true,true,false,true,true,true,true,true,true,true,false,true,true,true,true,true,false,true,true,true,true,true,true,true,true,true,false,true,false,false,true,false,true,true,true,true,true,true,true,true,false,false,true,true,false,false,true,true,true,true,false,true,true,true,true,true,true,true,false,false,false,false,true,true,false,false,true,false,false,false,true,true,true,true,true,true,true,true,false,false,false,false,false,false,false,false,false,false,false,false,false,false,false,false,false,false,false,false,false,false,false,false,false,false,false,false,false,false,false,false,false,false,false,false,false,false,false,false,false,false,false,false,false,false,false,false],"id":147,"left_children":[1,3,5,7,9,11,13,-1,15,17,19,21,23,25,27,-1,29,31,33,35,37,39,41,-1,43,45,47,49,51,-1,53,55,57,59,61,63,65,67,69,-1,71,-1,-1,73,-1,75,77,79,81,83,85,87,89,-1,-1,91,93,-1,-1,95,97,99,101,-1,103,105,107,109,111,113,115,-1,-1,-1,-1,117,119,-1,-1,121,-1,-1,-1,123,125,127,129,131,133,135,137,-1,-1,-1,-1,-1,-1,-1,-1,-1,-1,-1,-1,-1,-1,-1,-1,-1,-1,-1,-1,-1,-1,-1,-1,-1,-1,-1,-1,-1,-1,-1,-1,-1,-1,-1,-1,-1,-1,-1,-1,-1,-1,-1,-1,-1,-1,-1,-1],"loss_changes":[2.8116656E2,4.6799206E1,4.0285706E2,1.1598858E1,3.3966717E1,3.779725E2,6.70603E1,0E0,4.2550163E0,6.011899E0,1.795784E1,5.343702E2,3.0434644E2,9.573458E1,2.5517761E1,0E0,2.9667816E0,9.358901E-1,2.3412876E0,7.457678E0,8.955536E0,9.887579E1,1.4683435E2,0E0,1.0514133E2,2.0429287E1,1.15947845E2,1.4369446E1,1.9510965E0,0E0,2.257372E0,4.655792E-1,1.3006651E-1,1.493267E0,8.2602215E-1,3.6108172E0,8.277817E0,8.5159E0,1.2835715E1,0E0,2.3231392E0,0E0,0E0,8.791199E0,0E0,4.6168827E1,2.6377225E0,1.5671932E1,2.9870605E0,5.6016785E1,9.696228E0,1.4023538E0,3.326015E0,0E0,0E0,8.309543E-2,4.8842084E-1,0E0,0E0,1.629888E0,1.9062386E0,2.4762845E-1,5.090537E-1,0E0,1.8575281E0,3.9099343E-3,1.209652E0,6.7270994E-2,1.0397945E1,6.4038153E0,1.9948534E1,0E0,0E0,0E0,0E0,1.3161702E1,1.5697292E1,0E0,0E0,1.3611084E1,0E0,0E0,0E0,1.18808975E1,4.9459015E1,2.5029523E0,8.540195E0,5.4088545E-1,2.291104E0,1.8566238E1,1.585388E0,0E0,0E0,0E0,0E0,0E0,0E0,0E0,0E0,0E0,0E0,0E0,0E0,0E0,0E0,0E0,0E0,0E0,0E0,0E0,0E0,0E0,0E0,0E0,0E0,0E0,0E0,0E0,0E0,0E0,0E0,0E0,0E0,0E0,0E0,0E0,0E0,0E0,0E0,0E0,0E0,0E0,0E0,0E0,0E0,0E0,0E0,0E0,0E0],"parents":[2147483647,0,0,1,1,2,2,3,3,4,4,5,5,6,6,8,8,9,9,10,10,11,11,12,12,13,13,14,14,16,16,17,17,18,18,19,19,20,20,21,21,22,22,24,24,25,25,26,26,27,27,28,28,30,30,31,31,32,32,33,33,34,34,35,35,36,36,37,37,38,38,40,40,43,43,45,45,46,46,47,47,48,48,49,49,50,50,51,51,52,52,55,55,56,56,59,59,60,60,61,61,62,62,64,64,65,65,66,66,67,67,68,68,69,69,70,70,75,75,76,76,79,79,83,83,84,84,85,85,86,86,87,87,88,88,89,89,90,90],"right_children":[2,4,6,8,10,12,14,-1,16,18,20,22,24,26,28,-1,30,32,34,36,38,40,42,-1,44,46,48,50,52,-1,54,56,58,60,62,64,66,68,70,-1,72,-1,-1,74,-1,76,78,80,82,84,86,88,90,-1,-1,92,94,-1,-1,96,98,100,102,-1,104,106,108,110,112,114,116,-1,-1,-1,-1,118,120,-1,-1,122,-1,-1,-1,124,126,128,130,132,134,136,138,-1,-1,-1,-1,-1,-1,-1,-1,-1,-1,-1,-1,-1,-1,-1,-1,-1,-1,-1,-1,-1,-1,-1,-1,-1,-1,-1,-1,-1,-1,-1,-1,-1,-1,-1,-1,-1,-1,-1,-1,-1,-1,-1,-1,-1,-1,-1,-1],"split_conditions":[6.621175E-1,2.7272727E-2,2.7272727E-2,5.5555556E-2,6.572582E-1,8.349742E-1,5E-1,1.2143845E-3,3.7807107E-1,3.989272E-1,1.8427517E-2,8.0838656E-1,1.6666667E-1,8.5870504E-1,7.090609E-2,-1.2832652E-3,1.6666667E-1,3.9022523E-1,9.212121E-1,6.818182E-1,2.777778E-1,7.7843237E-1,2.2222222E-1,-2.5165817E-1,8.7090075E-1,8.349742E-1,2.777778E-1,8.349742E-1,9.212121E-1,-5.8279246E-2,2.777778E-1,8.23977E-2,3.9342475E-1,6.430696E-1,6.142506E-3,6E-2,5.5555556E-2,5.5555556E-2,7.008511E-1,1.9591829E-1,3.3333334E-1,6.307993E-1,1.9859298E-1,2.777778E-1,1.4018193E-1,8.2218254E-1,1.6666667E-1,9.28372E-1,8.76709E-1,8.2218254E-1,8.76709E-1,7.281138E-1,1.4619164E-1,-4.2628404E-3,-3.820374E-2,2.0061906E-2,3.8399246E-1,-3.0248095E-3,-7.200573E-3,4.1206574E-1,3.3636364E-1,2.777778E-1,6.028142E-1,-2.3043878E-2,1.6666667E-1,5.0041294E-1,6.893617E-1,3.9234042E-1,3.5106385E-1,3.3636364E-1,4.1296717E-4,-4.0338993E-2,-0E0,1.2120581E-2,-5.2625522E-2,1.6666667E-1,3.3333334E-1,7.7814474E-3,-2.48321E-2,1.6666667E-1,-1.4419895E-2,7.86815E-2,1.7738447E-1,7.958708E-1,1.8427517E-2,1.6666667E-1,5.181818E-1,6.6854E-1,5.8854413E-1,5.8854413E-1,8.960625E-1,2.0314197E-3,6.801067E-4,-4.3933553E-4,1.7472408E-3,4.996937E-3,1.0037485E-3,2.8119601E-2,3.8820053E-3,1.8524727E-2,7.757914E-3,2.9495205E-3,6.0711103E-3,4.625546E-3,-6.5888143E-3,-0E0,-1.3914201E-3,-2.533505E-2,-1.738555E-2,-1.3011971E-3,-7.766212E-4,-1.7099478E-3,-5.864451E-3,-1.8284129E-2,-2.9501214E-3,3.4831703E-2,1.4444252E-3,3.1285107E-2,-8.135266E-3,3.0311069E-2,1.4906958E-1,8.744857E-2,2.5826719E-2,6.293232E-3,2.3612396E-3,4.1327275E-2,1.149648E-2,4.52334E-3,7.568191E-4,1.0534862E-2,4.632352E-3,7.26516E-3,3.318207E-3,2.3003384E-3,-4.5728008E-4,1.5396313E-3,3.2524493E-2,3.805557E-3,-3.11315E-3],"split_indices":[1,2,2,4,1,1,0,0,1,1,11,1,4,1,7,0,4,1,2,2,4,1,4,0,1,1,4,1,2,0,4,1,1,1,11,10,4,4,10,0,4,0,0,4,0,1,4,1,1,1,1,1,11,0,0,1,1,0,0,1,2,4,1,0,4,8,10,10,10,2,8,0,0,0,0,4,4,0,0,4,0,0,0,1,11,4,2,1,7,7,1,0,0,0,0,0,0,0,0,0,0,0,0,0,0,0,0,0,0,0,0,0,0,0,0,0,0,0,0,0,0,0,0,0,0,0,0,0,0,0,0,0,0,0,0,0,0,0,0],"split_type":[0,0,0,0,0,0,0,0,0,0,0,0,0,0,0,0,0,0,0,0,0,0,0,0,0,0,0,0,0,0,0,0,0,0,0,0,0,0,0,0,0,0,0,0,0,0,0,0,0,0,0,0,0,0,0,0,0,0,0,0,0,0,0,0,0,0,0,0,0,0,0,0,0,0,0,0,0,0,0,0,0,0,0,0,0,0,0,0,0,0,0,0,0,0,0,0,0,0,0,0,0,0,0,0,0,0,0,0,0,0,0,0,0,0,0,0,0,0,0,0,0,0,0,0,0,0,0,0,0,0,0,0,0,0,0,0,0,0,0],"sum_hessian":[7.914E3,3.769E3,4.145E3,1.7E1,3.752E3,1.3E1,4.132E3,3E0,1.4E1,1.579E3,2.173E3,5E0,8E0,3.6E1,4.096E3,1E0,1.3E1,9.3E2,6.49E2,7.8E1,2.095E3,3E0,2E0,1E0,7E0,2.3E1,1.3E1,3.246E3,8.5E2,5E0,8E0,9.16E2,1.4E1,5.55E2,9.4E1,2.6E1,5.2E1,1.474E3,6.21E2,1E0,2E0,1E0,1E0,3E0,4E0,1.6E1,7E0,9E0,4E0,2.227E3,1.019E3,7.36E2,1.14E2,1E0,7E0,1.66E2,7.5E2,7E0,7E0,4.71E2,8.4E1,5E0,8.9E1,3E0,2.3E1,1.1E1,4.1E1,4.05E2,1.069E3,3.1E2,3.11E2,1E0,1E0,2E0,1E0,1.4E1,2E0,1E0,6E0,7E0,2E0,1E0,3E0,1.7E3,5.27E2,3.76E2,6.43E2,1.33E2,6.03E2,4.1E1,7.3E1,2.1E1,1.45E2,7.07E2,4.3E1,4.5E1,4.26E2,1E0,8.3E1,2E0,3E0,3.8E1,5.1E1,1.2E1,1.1E1,1E0,1E1,1.7E1,2.4E1,1.93E2,2.12E2,3.68E2,7.01E2,1.1E1,2.99E2,7E0,3.04E2,5E0,9E0,1E0,1E0,2E0,5E0,1.296E3,4.04E2,2.3E1,5.04E2,9.4E1,2.82E2,1.21E2,5.22E2,1.6E1,1.17E2,4.37E2,1.66E2,3.1E1,1E1,5.6E1,1.7E1],"tree_param":{"num_deleted":"0","num_feature":"12","num_nodes":"139","size_leaf_vector":"0"}},{"base_weights":[1.06715955E-1,-8.7784104E-2,2.8160372E-1,3.8038094E-2,-1.7484711E-1,4.9033012E0,2.678567E-1,-8.987054E-3,1.1147331E-1,-1.8410494E0,-1.6396011E-1,9.338573E0,1.4527154E0,8.338524E-2,3.1321043E-1,8.0191505E-1,-1.190157E-2,7.6780386E-2,2.0763123E-1,4.2982027E-2,-2.3422809E0,-5.8644927E-1,-1.5683578E-1,-1.3985856E0,2.3348656E1,-1.2394186E1,4.2938547E0,1.20058715E-1,-5.226583E-3,1.0397216E0,3.0717027E-1,-0E0,1.9975709E0,-8.743484E-3,-4.0747023E-1,4.079369E-1,6.635449E-2,2.4784125E-1,1.9718673E-2,-2.859327E0,-1.7812933E0,-4.3933183E-1,-1.4114039E0,-5.090346E-2,-1.8068735E-1,-1.9976493E0,-0E0,3.1066916E1,9.78072E0,-1.1158141E0,6.8797016E0,1.8478317E0,1.1299357E-1,-2.80899E-1,1.1082932E-1,-9.5609164E-1,1.616654E0,-7.3009694E-1,3.110257E-1,7.029308E-2,-6.320098E-2,3.1508334E-2,-2.2267591E-2,1.2858145E-1,7.0766914E-1,4.772422E-2,2.350738E-1,1.6139914E-1,3.3821267E-1,2.5578725E-1,-6.107051E-2,-2.0994525E-1,-2.0601122E0,-6.77756E-2,-5.874118E-1,-1.0775062E0,-2.1328359E0,-2.5923744E-2,-5.434171E-2,-1.950475E-1,8.02113E-2,6.285261E-1,-2.591811E0,-3.4981036E-1,3.5940692E0,8.32754E-2,1.9224763E-1,-5.3660685E-1,-1.7750907E-1,-4.469011E-1,1.394975E-1,-3.778621E-2,-4.3792334E0,2.485389E0,6.1029756E-1,-8.17478E-1,1.8445823E-1,4.387192E-1,2.8271434E-1,2.6603205E-2,3.6153626E-1,-3.3538714E-2,5.989778E-3,-6.475037E-2,3.713265E-1,1.1293682E0,2.1089779E-1,1.05345085E-1,-3.953754E-3,4.4502676E-1,2.0777712E-2,2.8613943E-1,3.0874094E-2,5.9868515E-1,2.7315614E-1,1.2033647E-1,5.227119E-1,2.8143609E-2,-1.7830648E-1,-4.6230125E-1,-6.939801E-1,-7.0443824E-2,7.339555E-2,-4.6421565E-2,-6.551709E-2,-6.3642126E-1,-1.8327458E-1,9.958896E-1,-1.1588471E-1,1.2764268E-1,1.284534E-2,-7.1639106E-2,2.3317502E-1,1.4320943E-1,-6.1415094E-1,-2.0656786E-3,-2.2498637E-1,-6.6391677E-1,-5.0695665E-2,9.064926E-2,2.898781E-1,-2.7359688E-1,2.9836732E-1,1.0024741E0,5.9396734E0,-1.1913354E0,1.8131248E0,-1.4908785E-2,4.560988E-1,1.18420295E-1,3.0814764E-1],"categories":[],"categories_nodes":[],"categories_segments":[],"categories_sizes":[],"default_left":[true,true,true,true,true,true,true,true,true,true,true,true,true,true,true,true,true,true,true,false,true,true,true,true,true,false,true,true,true,true,true,true,false,true,false,true,true,true,true,false,true,true,true,true,true,false,false,false,false,true,false,true,true,true,true,true,true,true,true,false,false,true,true,true,true,true,true,true,true,true,true,false,false,false,true,false,false,true,true,true,true,false,false,false,false,true,true,true,true,true,true,true,false,true,true,false,false,true,true,false,false,false,false,false,false,false,false,false,false,false,false,false,false,false,false,false,false,false,false,false,false,false,false,false,false,false,false,false,false,false,false,false,false,false,false,false,false,false,false,false,false,false,false,false,false,false,false,false,false,false,false],"id":148,"left_children":[1,3,5,7,9,11,13,15,17,19,21,23,25,27,29,31,33,35,37,-1,39,41,43,45,47,-1,49,51,53,55,57,59,-1,61,-1,63,65,67,69,-1,71,73,75,77,79,-1,-1,-1,-1,81,-1,83,85,87,89,91,93,95,97,-1,-1,99,101,103,105,107,109,111,113,115,117,-1,-1,-1,119,-1,-1,121,123,125,127,-1,-1,-1,-1,129,131,133,135,137,139,141,-1,143,145,-1,-1,147,149,-1,-1,-1,-1,-1,-1,-1,-1,-1,-1,-1,-1,-1,-1,-1,-1,-1,-1,-1,-1,-1,-1,-1,-1,-1,-1,-1,-1,-1,-1,-1,-1,-1,-1,-1,-1,-1,-1,-1,-1,-1,-1,-1,-1,-1,-1,-1,-1,-1,-1,-1,-1],"loss_changes":[2.6915442E2,4.1043224E1,2.6419467E2,5.2934055E0,4.0038635E1,1.8407712E2,3.4742737E1,2.2001054E0,1.9866672E0,1.3601978E1,6.5816307E0,8.1350867E2,3.0613733E2,2.6676874E0,1.4506134E1,3.177289E0,1.1563339E0,1.5045049E0,1.190917E0,0E0,1.5226822E0,4.176443E0,5.4621468E0,2.7915487E0,1.4245288E2,0E0,9.123834E1,6.986516E0,7.701895E0,3.199797E1,1.3296143E1,1.191521E-2,0E0,5.032815E-1,0E0,1.0741639E0,1.3354565E0,9.928217E-1,5.483566E-1,0E0,2.598219E0,1.7013474E0,4.7259235E-1,3.2596827E-2,6.6245003E0,0E0,0E0,0E0,0E0,6.5790873E0,0E0,9.420473E0,1.3528719E0,1.8439364E0,2.7238965E0,1.9791018E1,1.8100964E1,1.044941E0,1.1861572E1,0E0,0E0,3.6736438E-1,2.209628E-1,3.565532E-1,1.2282419E0,1.1490041E0,1.894944E0,1.0888376E0,1.0062428E0,2.349945E-1,2.2694436E-1,0E0,0E0,0E0,1.7428732E-1,0E0,0E0,2.1981996E-1,2.8308868E-2,8.649685E0,1.6630516E1,0E0,0E0,0E0,0E0,1.3140275E0,1.7071071E0,1.1079412E0,4.2419255E-1,6.951177E-1,1.1709373E0,4.496455E-1,0E0,5.5970055E1,2.3122364E1,0E0,0E0,4.7178574E0,1.1256836E1,0E0,0E0,0E0,0E0,0E0,0E0,0E0,0E0,0E0,0E0,0E0,0E0,0E0,0E0,0E0,0E0,0E0,0E0,0E0,0E0,0E0,0E0,0E0,0E0,0E0,0E0,0E0,0E0,0E0,0E0,0E0,0E0,0E0,0E0,0E0,0E0,0E0,0E0,0E0,0E0,0E0,0E0,0E0,0E0,0E0,0E0,0E0,0E0,0E0,0E0,0E0,0E0],"parents":[2147483647,0,0,1,1,2,2,3,3,4,4,5,5,6,6,7,7,8,8,9,9,10,10,11,11,12,12,13,13,14,14,15,15,16,16,17,17,18,18,20,20,21,21,22,22,23,23,24,24,26,26,27,27,28,28,29,29,30,30,31,31,33,33,35,35,36,36,37,37,38,38,40,40,41,41,42,42,43,43,44,44,49,49,51,51,52,52,53,53,54,54,55,55,56,56,57,57,58,58,61,61,62,62,63,63,64,64,65,65,66,66,67,67,68,68,69,69,70,70,74,74,77,77,78,78,79,79,80,80,85,85,86,86,87,87,88,88,89,89,90,90,91,91,93,93,94,94,97,97,98,98],"right_children":[2,4,6,8,10,12,14,16,18,20,22,24,26,28,30,32,34,36,38,-1,40,42,44,46,48,-1,50,52,54,56,58,60,-1,62,-1,64,66,68,70,-1,72,74,76,78,80,-1,-1,-1,-1,82,-1,84,86,88,90,92,94,96,98,-1,-1,100,102,104,106,108,110,112,114,116,118,-1,-1,-1,120,-1,-1,122,124,126,128,-1,-1,-1,-1,130,132,134,136,138,140,142,-1,144,146,-1,-1,148,150,-1,-1,-1,-1,-1,-1,-1,-1,-1,-1,-1,-1,-1,-1,-1,-1,-1,-1,-1,-1,-1,-1,-1,-1,-1,-1,-1,-1,-1,-1,-1,-1,-1,-1,-1,-1,-1,-1,-1,-1,-1,-1,-1,-1,-1,-1,-1,-1,-1,-1,-1,-1],"split_conditions":[6.621175E-1,6.572582E-1,2.7272727E-2,3.989272E-1,2.7272727E-2,8.3943033E-1,9.8790765E-1,2.7272727E-2,8.30303E-1,5.5555556E-2,1.8181819E-1,8.2218254E-1,1.6666667E-1,9.02244E-1,1.8181819E-1,2.4097994E-1,3.9342475E-1,3.3636364E-1,3.888889E-1,8.5964054E-4,1.6666667E-1,2.777778E-1,5.5555556E-2,3.888889E-1,2.2222222E-1,-2.4788372E-1,8.7090075E-1,1.8181819E-1,9.5665354E-1,1.6666667E-1,5.5555556E-2,6.167303E-2,3.9951418E-2,1.0025515E-1,-8.149404E-3,5.15408E-1,6.474741E-1,7.920965E-1,2.2481573E-1,-5.718654E-2,2.777778E-1,5.5555556E-2,4.4444448E-1,5.0082594E-1,5E-1,-3.9952986E-2,-0E0,6.213383E-1,1.956144E-1,2.777778E-1,1.3759403E-1,7.847458E-1,8.147807E-1,2.3218673E-1,3.3636364E-1,8.7090075E-1,8.349742E-1,8.39857E-1,1.6666667E-1,1.4058615E-3,-1.2640196E-3,9.780176E-2,3.279013E-1,2.777778E-1,5.4282683E-1,6.242424E-1,6.4979887E-1,4.3256068E-1,1.6666667E-1,6.416258E-1,9.689189E-1,-4.1989046E-3,-4.1202243E-2,-1.355512E-3,1.6666667E-1,-2.1550123E-2,-4.2656716E-2,6.965602E-1,7.5757575E-1,6.142506E-3,1.4619164E-1,1.2570522E-2,-5.183622E-2,-6.996207E-3,7.188138E-2,9.5682657E-1,9.5682657E-1,5.909091E-1,5.5555556E-2,1.6666667E-1,9.859468E-1,8.31193E-1,-8.758467E-2,8.13448E-1,8.5870504E-1,-1.634956E-2,3.6891645E-3,4.1296717E-4,7.554066E-1,5.3206406E-4,7.230725E-3,-6.7077426E-4,1.1979556E-4,-1.2950074E-3,7.42653E-3,2.2587363E-2,4.2179557E-3,2.1069017E-3,-7.907508E-5,8.900535E-3,4.155542E-4,5.7227886E-3,6.174819E-4,1.1973702E-2,5.4631224E-3,2.4067294E-3,1.0454237E-2,5.6287216E-4,-3.5661294E-3,-9.246025E-3,-1.3879602E-2,-1.4088765E-3,1.467911E-3,-9.284313E-4,-1.3103418E-3,-1.2728425E-2,-3.6654915E-3,1.9917792E-2,-2.317694E-3,2.5528534E-3,2.569068E-4,-1.432782E-3,4.6635005E-3,2.8641885E-3,-1.2283019E-2,-4.131357E-5,-4.4997274E-3,-1.3278335E-2,-1.0139133E-3,1.8129852E-3,5.7975617E-3,-5.4719374E-3,5.9673465E-3,2.004948E-2,1.18793465E-1,-2.3826709E-2,3.6262494E-2,-2.981757E-4,9.121976E-3,2.368406E-3,6.1629526E-3],"split_indices":[1,1,2,1,2,1,6,2,2,4,2,1,4,1,2,1,1,2,4,0,4,4,4,4,4,0,1,2,1,4,4,1,0,1,0,1,1,6,11,0,4,4,4,8,4,0,0,0,0,4,0,1,1,11,2,1,1,1,4,0,0,1,1,4,7,2,1,1,4,1,6,0,0,0,4,0,0,11,2,11,11,0,0,0,0,6,6,2,4,4,1,1,0,1,1,0,0,8,1,0,0,0,0,0,0,0,0,0,0,0,0,0,0,0,0,0,0,0,0,0,0,0,0,0,0,0,0,0,0,0,0,0,0,0,0,0,0,0,0,0,0,0,0,0,0,0,0,0,0,0,0],"split_type":[0,0,0,0,0,0,0,0,0,0,0,0,0,0,0,0,0,0,0,0,0,0,0,0,0,0,0,0,0,0,0,0,0,0,0,0,0,0,0,0,0,0,0,0,0,0,0,0,0,0,0,0,0,0,0,0,0,0,0,0,0,0,0,0,0,0,0,0,0,0,0,0,0,0,0,0,0,0,0,0,0,0,0,0,0,0,0,0,0,0,0,0,0,0,0,0,0,0,0,0,0,0,0,0,0,0,0,0,0,0,0,0,0,0,0,0,0,0,0,0,0,0,0,0,0,0,0,0,0,0,0,0,0,0,0,0,0,0,0,0,0,0,0,0,0,0,0,0,0,0,0],"sum_hessian":[7.912E3,3.746E3,4.166E3,1.532E3,2.214E3,1.2E1,4.154E3,9.34E2,5.98E2,1.4E1,2.2E3,5E0,7E0,8.2E2,3.334E3,3E0,9.31E2,4.4E2,1.58E2,3E0,1.1E1,3.6E1,2.164E3,3E0,2E0,1E0,6E0,5.8E2,2.4E2,2.7E1,3.307E3,2E0,1E0,9.24E2,7E0,1.3E1,4.27E2,1.3E2,2.8E1,5E0,6E0,3.1E1,5E0,3.98E2,1.766E3,2E0,1E0,1E0,1E0,2E0,4E0,2E0,5.78E2,7.1E1,1.69E2,6E0,2.1E1,1.2E1,3.295E3,1E0,1E0,2.32E2,6.92E2,7E0,6E0,3.85E2,4.2E1,6.7E1,6.3E1,7E0,2.1E1,1E0,5E0,9E0,2.2E1,4E0,1E0,4.9E1,3.49E2,1.674E3,9.2E1,1E0,1E0,1E0,1E0,4.21E2,1.57E2,2E1,5.1E1,8E0,1.61E2,5E0,1E0,1.1E1,1E1,1.1E1,1E0,5.97E2,2.698E3,2.29E2,3E0,4.95E2,1.97E2,4E0,3E0,3E0,3E0,1.82E2,2.03E2,2.1E1,2.1E1,3.4E1,3.3E1,1.2E1,5.1E1,5E0,2E0,1.2E1,9E0,1.1E1,1.1E1,3.4E1,1.5E1,2.06E2,1.43E2,4.3E1,1.631E3,1.6E1,7.6E1,2.58E2,1.63E2,2.1E1,1.36E2,2E0,1.8E1,1.1E1,4E1,5E0,3E0,1.22E2,3.9E1,3E0,2E0,8E0,3E0,4E0,6E0,2.2E1,5.75E2,3.62E2,2.336E3],"tree_param":{"num_deleted":"0","num_feature":"12","num_nodes":"151","size_leaf_vector":"0"}},{"base_weights":[1.07674405E-1,-9.720363E-2,2.8952685E-1,3.9852183E-2,-1.9436212E-1,3.3247268E0,2.6044065E-1,3.7018107E-3,1.3724573E-1,-6.762105E-1,-1.6330001E-1,5.544797E0,2.3970582E0,7.230567E-1,2.4717346E-1,1.52462125E-2,-1.7854936E-1,3.993822E-1,1.1411353E-1,-1.722577E0,-5.651254E-1,-3.3767244E-1,-1.4010729E-1,8.27161E0,1.9573609E0,1.4106772E0,3.637375E0,2.8866655E-1,1.0357224E0,2.7780175E-1,1.2926172E-1,-5.9840195E-3,1.8383925E-1,-1.1893408E-1,-2.0497566E-1,6.343441E-1,3.031996E-1,8.752413E-2,2.8757763E-1,-6.044823E-1,5.612589E-2,-1.8994717E-1,-5.4935634E-1,-1.3295706E-1,-5.9836566E-1,2.1689873E0,3.060096E1,-6.3604456E-1,5.3885503E0,4.5255675E0,5.955794E-1,4.0073333E0,-4.0591064E-1,1.4488581E-1,1.0839831E0,7.778619E-1,2.0401828E0,3.2746837E-1,1.7287405E-1,1.9221842E0,1.262882E-1,8.8690553E-4,-1.9747356E-1,3.831136E-1,1.5978883E-1,-1.8264353E-1,9.050957E-3,-2.2335474E-1,-7.7789426E-2,8.92564E-1,2.6443097E-1,7.631274E-1,2.7197093E-1,6.851463E-2,2.3135832E-1,3.4608632E-1,7.479974E-2,-7.005725E-1,-3.907829E-1,8.5769993E-1,-9.87246E-1,-7.6959795E-1,-1.0785294E-1,-3.7887907E-1,-8.445151E-1,-1.4178526E-1,1.396644E-1,2.5395256E-1,-6.695595E-1,7.955546E0,-2.0943763E0,3.9367494E-1,-1.1396989E0,1.0321221E0,5.8690586E0,-5.0467455E-1,1.5206641E0,-1.1651556E-1,3.9243793E-1,6.585758E-1,2.8227255E0,2.0672665E0,3.8649642E-1,1.383104E1,7.090588E-1,2.621342E-1,5.336301E-1,4.0536386E-1,1.5047237E-1,1.0831011E-1,2.5246227E-1,-9.256011E-3,2.4228106E-1,-1.3170566E-1,-3.533081E-1,5.0636566E-1,-0E0,-8.404147E-1,1.721983E-1,-2.0905344E-1,1.16409145E-1,4.669341E-2,-3.6510155E-2,-3.1018788E-1,-1.8092689E-1,-1.5284075E-1,6.6591695E-2,4.0547065E-2,3.232581E-1,1.6696893E-1,4.219778E-1,1.38447E-1,2.4112485E-2,4.9421632E-1,-8.737764E-3,3.994202E-1,1.5885952E-1,1.4479895E-1,-2.0976137E-1,-6.161548E-1,-1.2830197E0,5.265448E-3,-5.7047576E-1,-5.172787E-1,2.1162193E0,-1.109232E0,-1.1906439E-1,3.3303526E-1,-1.7005573E-1,-6.929359E-1,5.8695424E-2,-6.0575163E-1,-1.0100149E0,-1.20531246E-1,-4.212848E-1,2.2038121E0,8.7885626E-2,-7.5664294E-1,-2.9302183E-1,9.678952E0,4.2319374E0,-3.6409923E-1,-9.300273E-1,4.332826E0,-7.5628555E-1,4.7775663E-2,-9.634245E-1,4.8377246E-1,-0E0,9.498854E-1,1.7358346E-2,3.1550238E0,1.1802156E0,-7.2689015E-1,7.0434475E-1,3.6244994E-1,1.3177487E0,2.8631833E-1,4.064888E-2,1.245543E0,4.3929106E-1,2.925538E-1,2.16111E0,-4.4558275E-1,1.5778142E-1,2.6108176E-1,9.847644E-2,1.114768E-1,6.3742876E-1],"categories":[],"categories_nodes":[],"categories_segments":[],"categories_sizes":[],"default_left":[true,true,true,true,true,true,true,true,true,true,true,true,true,true,true,true,true,true,true,false,true,true,true,true,true,true,true,true,true,true,true,true,true,true,true,true,true,true,true,true,true,true,true,true,true,true,false,true,false,true,true,false,false,true,true,true,true,true,true,false,true,true,true,true,true,true,true,true,true,false,true,false,true,true,true,true,true,true,true,true,false,true,true,true,true,true,true,false,true,true,false,false,false,false,false,true,true,true,true,true,false,true,true,false,true,true,true,true,true,true,true,false,false,false,false,false,false,false,false,false,false,false,false,false,false,false,false,false,false,false,false,false,false,false,false,false,false,false,false,false,false,false,false,false,false,false,false,false,false,false,false,false,false,false,false,false,false,false,false,false,false,false,false,false,false,false,false,false,false,false,false,false,false,false,false,false,false,false,false,false,false,false,false,false,false,false,false,false,false],"id":149,"left_children":[1,3,5,7,9,11,13,15,17,19,21,23,25,27,29,31,33,35,37,-1,39,41,43,45,47,49,51,53,55,57,59,61,63,65,67,69,71,73,75,77,79,81,83,85,87,89,-1,91,-1,93,95,-1,-1,97,99,101,103,105,107,-1,109,111,113,115,117,119,121,123,125,-1,127,-1,129,131,133,135,137,139,141,143,-1,145,147,149,151,153,155,-1,157,159,-1,-1,-1,-1,-1,161,163,165,167,169,-1,171,173,-1,175,177,179,181,183,185,187,-1,-1,-1,-1,-1,-1,-1,-1,-1,-1,-1,-1,-1,-1,-1,-1,-1,-1,-1,-1,-1,-1,-1,-1,-1,-1,-1,-1,-1,-1,-1,-1,-1,-1,-1,-1,-1,-1,-1,-1,-1,-1,-1,-1,-1,-1,-1,-1,-1,-1,-1,-1,-1,-1,-1,-1,-1,-1,-1,-1,-1,-1,-1,-1,-1,-1,-1,-1,-1,-1,-1,-1,-1,-1,-1,-1,-1,-1],"loss_changes":[2.9167682E2,4.9025917E1,3.6579666E2,5.375276E0,3.2195595E1,7.6461334E1,2.5141968E1,2.3431146E0,2.4838467E0,1.479216E1,8.164162E0,1.0532205E2,3.2880783E1,1.5410053E1,1.4407486E1,3.7551718E0,9.175277E-2,6.758013E-1,1.7404704E0,0E0,2.912449E0,7.3763275E0,5.819504E0,8.404459E2,4.8670433E1,4.0497837E1,1.9042786E1,5.4570894E0,1.6611664E1,1.649585E1,4.28456E0,1.2282275E0,5.3417754E-1,1.7697746E-1,9.588051E-2,7.963128E-1,2.6552367E-1,8.9364004E-1,6.119828E-1,2.1793098E0,6.413797E0,6.63771E0,4.7734623E0,4.243326E0,1.7212191E0,1.372177E2,0E0,1.8890741E0,0E0,1.3526886E1,1.3841595E1,0E0,0E0,2.693892E0,4.7548027E0,2.6612144E1,2.0579231E2,2.8919205E1,5.2805862E0,0E0,1.8533592E0,2.2060366E0,3.089472E-1,5.829017E-1,1.3461254E0,1.2264192E-1,1.32908905E-2,1.1918998E-1,7.3253766E-2,0E0,4.7513545E-2,0E0,3.3562982E-1,9.0430653E-1,2.4276357E0,3.6364317E-1,2.3495403E-1,3.4625168E0,2.523643E0,7.88665E0,0E0,3.7681532E0,3.3989177E0,8.588678E0,1.1691399E0,1.0105846E1,5.8167114E0,0E0,7.417822E-1,1.1168976E0,0E0,0E0,0E0,0E0,0E0,2.4732387E-1,4.810108E1,2.8576033E0,7.7113724E-1,1.1637518E0,0E0,1.0596966E1,1.4797833E1,0E0,2.4188442E0,8.745659E0,3.4538223E1,1.7448074E1,4.0724297E0,1.0699615E0,5.5197377E0,0E0,0E0,0E0,0E0,0E0,0E0,0E0,0E0,0E0,0E0,0E0,0E0,0E0,0E0,0E0,0E0,0E0,0E0,0E0,0E0,0E0,0E0,0E0,0E0,0E0,0E0,0E0,0E0,0E0,0E0,0E0,0E0,0E0,0E0,0E0,0E0,0E0,0E0,0E0,0E0,0E0,0E0,0E0,0E0,0E0,0E0,0E0,0E0,0E0,0E0,0E0,0E0,0E0,0E0,0E0,0E0,0E0,0E0,0E0,0E0,0E0,0E0,0E0,0E0,0E0,0E0,0E0,0E0,0E0,0E0,0E0,0E0,0E0,0E0,0E0,0E0,0E0,0E0],"parents":[2147483647,0,0,1,1,2,2,3,3,4,4,5,5,6,6,7,7,8,8,9,9,10,10,11,11,12,12,13,13,14,14,15,15,16,16,17,17,18,18,20,20,21,21,22,22,23,23,24,24,25,25,26,26,27,27,28,28,29,29,30,30,31,31,32,32,33,33,34,34,35,35,36,36,37,37,38,38,39,39,40,40,41,41,42,42,43,43,44,44,45,45,47,47,49,49,50,50,53,53,54,54,55,55,56,56,57,57,58,58,60,60,61,61,62,62,63,63,64,64,65,65,66,66,67,67,68,68,70,70,72,72,73,73,74,74,75,75,76,76,77,77,78,78,79,79,81,81,82,82,83,83,84,84,85,85,86,86,88,88,89,89,95,95,96,96,97,97,98,98,99,99,101,101,102,102,104,104,105,105,106,106,107,107,108,108,109,109,110,110],"right_children":[2,4,6,8,10,12,14,16,18,20,22,24,26,28,30,32,34,36,38,-1,40,42,44,46,48,50,52,54,56,58,60,62,64,66,68,70,72,74,76,78,80,82,84,86,88,90,-1,92,-1,94,96,-1,-1,98,100,102,104,106,108,-1,110,112,114,116,118,120,122,124,126,-1,128,-1,130,132,134,136,138,140,142,144,-1,146,148,150,152,154,156,-1,158,160,-1,-1,-1,-1,-1,162,164,166,168,170,-1,172,174,-1,176,178,180,182,184,186,188,-1,-1,-1,-1,-1,-1,-1,-1,-1,-1,-1,-1,-1,-1,-1,-1,-1,-1,-1,-1,-1,-1,-1,-1,-1,-1,-1,-1,-1,-1,-1,-1,-1,-1,-1,-1,-1,-1,-1,-1,-1,-1,-1,-1,-1,-1,-1,-1,-1,-1,-1,-1,-1,-1,-1,-1,-1,-1,-1,-1,-1,-1,-1,-1,-1,-1,-1,-1,-1,-1,-1,-1,-1,-1,-1,-1,-1,-1],"split_conditions":[6.621175E-1,6.572582E-1,1.7554916E-2,4.4565028E-1,6.265754E-2,2.7272727E-2,4.7983434E-2,4.3256068E-1,1.7797983E-1,2.7272727E-2,2.086207E-1,8.349742E-1,8.571358E-1,8.2174015E-1,7.090609E-2,3.989272E-1,3.2688153E-1,5.482535E-2,9.212121E-1,-3.445154E-2,8.2186735E-1,1.5E-1,9.866763E-1,8.0838656E-1,8.7090075E-1,7.703592E-1,9.28372E-1,4.0862072E-1,4.078142E-2,8.349742E-1,7.241379E-2,3.893812E-1,1.6034484E-1,3.2068965E-1,9.212121E-1,6.3902617E-1,9.9999994E-2,6.474741E-1,8.2186735E-1,6.242424E-1,4.8703637E-2,7.4137926E-2,2.6800504E-1,9.6426E-1,6.621622E-1,7.876776E-1,6.120192E-1,8.4844077E-1,1.07771E-1,7.563675E-1,8.2218254E-1,8.014666E-2,-8.118212E-3,3.0518545E-2,8.0966675E-1,8.349742E-1,4.1141517E-2,8.2218254E-1,1.3440764E-1,3.8443685E-2,9.212121E-1,3.8399246E-1,3.9342475E-1,4.264353E-1,6.274757E-2,3.0302483E-1,6.4742017E-1,6.308066E-1,3.3965516E-1,1.785128E-2,3.3636364E-1,1.5262547E-2,6.341465E-1,6.2553835E-1,6.4979887E-1,4.2413795E-1,4.3275863E-1,5.181818E-1,3.790061E-2,3.086207E-1,-1.974492E-2,1.3539791E-1,1.4196974E-1,2.175009E-1,6.4496315E-1,9.163666E-1,9.649802E-1,5.079051E-3,9.9783945E-1,7.753007E-1,-4.1887525E-2,7.873499E-3,-2.2793977E-2,2.0642443E-2,1.1738117E-1,8.0460525E-1,8.349742E-1,2.8275862E-1,8.0966675E-1,7.090609E-2,5.645451E-2,4.2424244E-1,8.5870504E-1,2.766208E-1,3.1551725E-1,8.0966675E-1,1.7338854E-1,1.3089666E-1,1.4611092E-1,1.4575082E-1,9.345995E-1,-1.8512021E-4,4.845621E-3,-2.6341132E-3,-7.0661623E-3,1.01273125E-2,-0E0,-1.6808294E-2,3.443966E-3,-4.181069E-3,2.3281828E-3,9.3386817E-4,-7.3020306E-4,-6.2037576E-3,-3.6185377E-3,-3.056815E-3,1.3318339E-3,8.109413E-4,6.4651617E-3,3.3393784E-3,8.439556E-3,2.76894E-3,4.8224968E-4,9.884326E-3,-1.7475529E-4,7.988404E-3,3.1771904E-3,2.895979E-3,-4.1952273E-3,-1.2323095E-2,-2.5660392E-2,1.0530895E-4,-1.1409515E-2,-1.0345574E-2,4.2324387E-2,-2.2184638E-2,-2.3812877E-3,6.660705E-3,-3.4011146E-3,-1.3858717E-2,1.1739085E-3,-1.2115032E-2,-2.0200297E-2,-2.4106249E-3,-8.425696E-3,4.407624E-2,1.7577125E-3,-1.5132858E-2,-5.8604362E-3,1.9357903E-1,8.4638745E-2,-7.2819847E-3,-1.8600546E-2,8.665652E-2,-1.51257105E-2,9.555133E-4,-1.926849E-2,9.675449E-3,-0E0,1.8997708E-2,3.471669E-4,6.310047E-2,2.3604311E-2,-1.4537803E-2,1.4086895E-2,7.2489986E-3,2.6354972E-2,5.7263663E-3,8.129776E-4,2.491086E-2,8.785821E-3,5.851076E-3,4.3222196E-2,-8.911654E-3,3.1556285E-3,5.221635E-3,1.9695289E-3,2.229536E-3,1.2748575E-2],"split_indices":[1,1,5,1,5,2,5,1,5,2,3,1,1,1,7,1,5,5,2,0,11,3,5,1,1,1,1,3,5,1,3,1,3,3,2,1,3,1,11,2,5,3,5,5,11,1,0,1,0,1,1,0,0,5,1,1,5,1,5,0,2,1,1,1,5,5,11,5,3,0,2,0,1,1,1,3,3,2,5,3,0,5,5,5,11,5,5,0,5,1,0,0,0,0,0,1,1,3,1,7,0,2,1,0,3,1,5,5,5,5,1,0,0,0,0,0,0,0,0,0,0,0,0,0,0,0,0,0,0,0,0,0,0,0,0,0,0,0,0,0,0,0,0,0,0,0,0,0,0,0,0,0,0,0,0,0,0,0,0,0,0,0,0,0,0,0,0,0,0,0,0,0,0,0,0,0,0,0,0,0,0,0,0,0,0,0,0,0,0],"split_type":[0,0,0,0,0,0,0,0,0,0,0,0,0,0,0,0,0,0,0,0,0,0,0,0,0,0,0,0,0,0,0,0,0,0,0,0,0,0,0,0,0,0,0,0,0,0,0,0,0,0,0,0,0,0,0,0,0,0,0,0,0,0,0,0,0,0,0,0,0,0,0,0,0,0,0,0,0,0,0,0,0,0,0,0,0,0,0,0,0,0,0,0,0,0,0,0,0,0,0,0,0,0,0,0,0,0,0,0,0,0,0,0,0,0,0,0,0,0,0,0,0,0,0,0,0,0,0,0,0,0,0,0,0,0,0,0,0,0,0,0,0,0,0,0,0,0,0,0,0,0,0,0,0,0,0,0,0,0,0,0,0,0,0,0,0,0,0,0,0,0,0,0,0,0,0,0,0,0,0,0,0,0,0,0,0,0,0,0,0],"sum_hessian":[7.828E3,3.681E3,4.147E3,1.527E3,2.154E3,3.9E1,4.108E3,1.114E3,4.13E2,1.3E2,2.024E3,1.1E1,2.8E1,1.14E2,3.994E3,1.048E3,6.6E1,3.3E1,3.8E2,1.2E1,1.18E2,2.37E2,1.787E3,6E0,5E0,1.6E1,1.2E1,4.8E1,6.6E1,3.17E3,8.24E2,9.31E2,1.17E2,2.1E1,4.5E1,9E0,2.4E1,3.3E2,5E1,1.11E2,7E0,1.4E2,9.7E1,1.76E3,2.7E1,5E0,1E0,3E0,2E0,3E0,1.3E1,1.1E1,1E0,4.1E1,7E0,5.3E1,1.3E1,2.151E3,1.019E3,1E0,8.23E2,8.99E2,3.2E1,1.2E1,1.05E2,1.4E1,7E0,3.9E1,6E0,5E0,4E0,1E0,2.3E1,2.92E2,3.8E1,3.9E1,1.1E1,7.6E1,3.5E1,4E0,3E0,1.7E1,1.23E2,6.2E1,3.5E1,1.705E3,5.5E1,2E0,2.5E1,2E0,3E0,1E0,2E0,1E0,2E0,6E0,7E0,2E1,2.1E1,6E0,1E0,1.2E1,4.1E1,1E0,1.2E1,1.634E3,5.17E2,8.9E1,9.3E2,7.21E2,1.02E2,8.63E2,3.6E1,2.3E1,9E0,9E0,3E0,1E0,1.04E2,1.3E1,1E0,4E0,3E0,1.2E1,2.7E1,4E0,2E0,1E0,3E0,1.4E1,9E0,1.13E2,1.79E2,1.8E1,2E1,3E1,9E0,9E0,2E0,6.7E1,9E0,1.1E1,2.4E1,2E0,2E0,1.1E1,6E0,1.5E1,1.08E2,3.6E1,2.6E1,1.5E1,2E1,1.585E3,1.2E2,1E0,5.4E1,2E1,5E0,1E0,1E0,5E0,1E0,3E0,4E0,1.7E1,3E0,1.7E1,4E0,4E0,2E0,5E0,7E0,9E0,3.2E1,8E0,4E0,1.473E3,1.61E2,6E1,4.57E2,8.4E1,5E0,1.1E1,9.19E2,4.3E1,6.78E2,7.5E1,2.7E1],"tree_param":{"num_deleted":"0","num_feature":"12","num_nodes":"189","size_leaf_vector":"0"}},{"base_weights":[1.07000105E-1,-8.538558E-2,2.7745578E-1,-1.6915739E0,-7.87201E-2,1.5562633E0,2.4928412E-1,-0E0,-1.9460337E0,3.6582872E-2,-1.6052358E-1,2.6386585E0,5.972016E-1,8.4781386E-2,2.8587297E-1,6.937747E-2,-6.211426E-2,-1.0315522E-3,1.3205262E-1,-7.015224E-1,-1.4498775E-1,7.6161176E-1,6.286698E0,-1.002794E0,1.1957449E0,4.442117E-1,8.06725E-2,7.8580004E-1,2.731161E-1,1.0156814E-2,-1.7888811E-1,3.3606723E-1,1.04580246E-1,-6.254048E-1,-1.0109547E0,1.9127369E-1,-1.5104079E-1,3.1157663E0,-3.8728413E-1,3.0141993E1,3.7426448E0,-1.8028075E0,-7.109763E-1,4.3523097E0,1.0611181E0,1.8491885E-1,5.758237E-1,7.229782E-2,2.6260546E-1,5.745233E-1,1.3623596E1,6.4500093E-1,2.6193187E-1,-1.1571522E-2,1.7282325E-1,-2.3196524E-1,-1.3400237E-1,7.0116377E-1,2.9997292E-1,6.821346E-2,2.3708275E-1,-6.745174E-1,-6.020845E-2,-1.3239187E0,-5.7342786E-1,6.837265E-1,-2.7826896E-1,-6.5795064E-1,-1.4447314E-1,2.1280692E0,5.768451E0,-1.8317136E0,-1.84558E-1,4.5371184E0,1.7402024E0,-1.362937E0,-5.9090036E-1,3.0170746E0,8.4128165E-1,2.5942323E-1,-0E0,7.438467E-1,3.9632267E-1,8.471627E-2,-1.4479515E-1,5.398817E-1,2.2762398E-1,1.8890457E0,4.044113E-1,1.4403051E0,5.245425E-1,2.92568E-1,1.7974779E-1,-8.303093E-3,-2.4948984E-1,-1.781311E-1,1.8840651E-1,1.1466321E-1,-2.460521E-1,-9.41903E-3,-1.63139E-1,1.1052542E0,1.9075876E-1,4.9949208E-1,2.6086238E-1,1.3012113E-1,-5.927135E-3,3.4514078E-1,2.377309E-3,-2.7929422E-2,-7.038157E-1,-9.724801E-2,3.6744535E-2,-9.833312E-1,-1.7611098E0,-3.108408E-1,-1.2726761E0,-2.503193E-1,9.512068E-1,-7.09109E-1,4.545567E-2,-1.8261872E-1,-1.1157573E0,2.04345E-1,-1.5290989E-1,5.2613554E0,1.3540761E0,-2.4338007E-1,2.2222957E-1,-1.4398184E-1,-9.1440374E-1,2.9509208E0,5.826748E-1,8.002714E-1,1.0273408E-1,6.832421E-2,1.9798455E-1,-2.6336244E-1,1.4416105E-1,-1.0649092E-1,2.41173E-1,2.4510154E-1,2.652582E0,3.0919984E-1,1.5963187E0,5.854192E-1,2.9701645E0,3.424806E-2,7.998509E-1,2.3417245E-1,4.6304783E-1,7.060555E-2,2.2638328E-1],"categories":[],"categories_nodes":[],"categories_segments":[],"categories_sizes":[],"default_left":[true,true,true,true,true,true,true,true,false,true,true,true,true,true,true,false,false,true,true,true,true,true,true,true,true,true,true,true,true,true,true,true,true,true,true,true,true,true,true,false,true,false,true,false,true,true,true,true,true,true,false,true,true,true,true,true,true,true,true,true,true,true,true,true,true,true,true,true,true,true,false,false,true,false,false,false,true,false,true,false,false,false,true,true,true,false,true,true,true,true,true,true,true,false,false,false,false,false,false,false,false,false,false,false,false,false,false,false,false,false,false,false,false,false,false,false,false,false,false,false,false,false,false,false,false,false,false,false,false,false,false,false,false,false,false,false,false,false,false,false,false,false,false,false,false,false,false,false,false,false,false,false,false],"id":150,"left_children":[1,3,5,7,9,11,13,15,-1,17,19,21,23,25,27,-1,-1,29,31,33,35,37,39,41,43,45,47,49,51,53,55,57,59,61,63,65,67,69,71,-1,73,-1,75,-1,77,79,81,83,85,87,-1,89,91,93,95,97,99,101,103,105,107,109,111,113,115,117,119,121,123,125,-1,-1,127,-1,-1,-1,129,-1,131,-1,-1,-1,133,135,137,-1,139,141,143,145,147,149,151,-1,-1,-1,-1,-1,-1,-1,-1,-1,-1,-1,-1,-1,-1,-1,-1,-1,-1,-1,-1,-1,-1,-1,-1,-1,-1,-1,-1,-1,-1,-1,-1,-1,-1,-1,-1,-1,-1,-1,-1,-1,-1,-1,-1,-1,-1,-1,-1,-1,-1,-1,-1,-1,-1,-1,-1,-1,-1,-1,-1],"loss_changes":[2.5941605E2,3.97175E1,1.509505E2,6.61895E0,3.4915386E1,9.320207E1,2.469046E1,1.1563085E-2,0E0,5.5189486E0,1.8153362E1,2.881829E2,4.6689964E1,1.0842686E0,2.1324768E1,0E0,0E0,2.1965728E0,2.4163308E0,1.1868687E0,4.2942696E0,7.707425E1,8.3178345E2,2.6495209E0,1.3397938E1,2.3802912E-1,1.1153622E0,2.2321498E2,1.3549469E1,3.669392E0,1.400652E-1,5.9204865E-1,1.8374176E0,1.3453865E0,1.2716684E0,8.701758E0,6.842762E0,2.0247932E1,5.519803E0,0E0,1.8489594E1,0E0,5.1251936E-1,0E0,1.3861614E1,4.3055594E-2,4.628718E-2,1.9101746E0,2.6169133E-1,1.812362E1,0E0,8.853081E0,7.980667E0,7.0741284E-1,6.803813E-1,1.5451491E-1,1.2891442E-1,8.049829E-1,3.150611E-1,1.3851106E0,2.0828953E0,8.418026E-1,1.7616544E-2,3.2642746E-1,8.247889E-1,4.669813E0,2.716723E0,5.643964E0,6.020046E0,1.5314606E1,0E0,0E0,4.3309474E-1,0E0,0E0,0E0,1.2904294E0,0E0,1.6470728E1,0E0,0E0,0E0,3.550353E-1,1.2344422E0,1.3276948E0,0E0,1.432761E-1,1.1457333E1,8.1303425E0,1.5499842E1,1.1227499E1,2.3003647E1,4.3898067E0,0E0,0E0,0E0,0E0,0E0,0E0,0E0,0E0,0E0,0E0,0E0,0E0,0E0,0E0,0E0,0E0,0E0,0E0,0E0,0E0,0E0,0E0,0E0,0E0,0E0,0E0,0E0,0E0,0E0,0E0,0E0,0E0,0E0,0E0,0E0,0E0,0E0,0E0,0E0,0E0,0E0,0E0,0E0,0E0,0E0,0E0,0E0,0E0,0E0,0E0,0E0,0E0,0E0,0E0,0E0,0E0,0E0,0E0,0E0,0E0],"parents":[2147483647,0,0,1,1,2,2,3,3,4,4,5,5,6,6,7,7,9,9,10,10,11,11,12,12,13,13,14,14,17,17,18,18,19,19,20,20,21,21,22,22,23,23,24,24,25,25,26,26,27,27,28,28,29,29,30,30,31,31,32,32,33,33,34,34,35,35,36,36,37,37,38,38,40,40,42,42,44,44,45,45,46,46,47,47,48,48,49,49,51,51,52,52,53,53,54,54,55,55,56,56,57,57,58,58,59,59,60,60,61,61,62,62,63,63,64,64,65,65,66,66,67,67,68,68,69,69,72,72,76,76,78,78,82,82,83,83,84,84,86,86,87,87,88,88,89,89,90,90,91,91,92,92],"right_children":[2,4,6,8,10,12,14,16,-1,18,20,22,24,26,28,-1,-1,30,32,34,36,38,40,42,44,46,48,50,52,54,56,58,60,62,64,66,68,70,72,-1,74,-1,76,-1,78,80,82,84,86,88,-1,90,92,94,96,98,100,102,104,106,108,110,112,114,116,118,120,122,124,126,-1,-1,128,-1,-1,-1,130,-1,132,-1,-1,-1,134,136,138,-1,140,142,144,146,148,150,152,-1,-1,-1,-1,-1,-1,-1,-1,-1,-1,-1,-1,-1,-1,-1,-1,-1,-1,-1,-1,-1,-1,-1,-1,-1,-1,-1,-1,-1,-1,-1,-1,-1,-1,-1,-1,-1,-1,-1,-1,-1,-1,-1,-1,-1,-1,-1,-1,-1,-1,-1,-1,-1,-1,-1,-1,-1,-1,-1,-1],"split_conditions":[6.621175E-1,2.2506302E-3,7.4137926E-2,3.7807107E-1,6.572582E-1,8.349742E-1,6.3859776E-2,6.167303E-2,-3.8920674E-2,4.4565028E-1,7.4137926E-2,8.2218254E-1,8.571358E-1,1.48936175E-2,4.1141517E-2,1.3875493E-3,-1.2422852E-3,4.3256068E-1,2.1696076E-1,1.3341735E-1,1.15517244E-1,7.7943826E-1,2.2506302E-3,2.2506302E-3,2.1276595E-3,9.5682657E-1,9.998778E-1,4.0511344E-2,1.8427517E-2,3.989272E-1,3.3965516E-1,1.2068965E-1,6.430696E-1,1.2603529E-1,1.389089E-1,4.95086E-1,2.9618293E-2,7.635859E-1,2.2506302E-3,6.028398E-1,6.724138E-2,-3.605615E-2,2.1276595E-3,8.704619E-2,2.2506302E-3,2.2931035E-1,8.964592E-1,9.699887E-1,1.2389015E-3,9.6551724E-2,2.724719E-1,7.7843237E-1,8.4422266E-1,3.9022523E-1,1.2389015E-3,1.2931034E-1,4.1492617E-1,6.374643E-1,5.482535E-2,6.324857E-1,6.4979887E-1,2.1276595E-3,1.3197696E-1,1.3665827E-1,1.3989916E-1,2.1516025E-2,1.9103348E-1,2.421678E-2,5.2664746E-2,7.201557E-1,1.1536902E-1,-3.663427E-2,6.724138E-2,9.0742365E-2,3.4804046E-2,-2.7258739E-2,8.4844077E-1,6.034149E-2,8.76709E-1,5.188464E-3,-0E0,1.4876934E-2,1.4137931E-1,9.644023E-1,9.859468E-1,1.0797634E-2,6.256752E-2,8.0838656E-1,5.0082594E-1,1.4310345E-1,8.2218254E-1,8.2218254E-1,8.76709E-1,-1.6606186E-4,-4.989797E-3,-3.562622E-3,3.7681302E-3,2.2932643E-3,-4.921042E-3,-1.8838058E-4,-3.26278E-3,2.2105083E-2,3.8151753E-3,9.989841E-3,5.2172476E-3,2.6024224E-3,-1.18542695E-4,6.902816E-3,4.754618E-5,-5.585884E-4,-1.4076314E-2,-1.9449602E-3,7.348907E-4,-1.9666623E-2,-3.5222195E-2,-6.2168157E-3,-2.5453521E-2,-5.006386E-3,1.9024136E-2,-1.418218E-2,9.0911344E-4,-3.6523743E-3,-2.2315146E-2,4.0869E-3,-3.0581977E-3,1.05227105E-1,2.7081523E-2,-4.867601E-3,4.4445912E-3,-2.8796368E-3,-1.8288074E-2,5.9018414E-2,1.1653496E-2,1.6005427E-2,2.0546815E-3,1.3664841E-3,3.9596907E-3,-5.2672485E-3,2.8832208E-3,-2.1298183E-3,4.82346E-3,4.902031E-3,5.3051636E-2,6.183997E-3,3.1926375E-2,1.1708383E-2,5.940329E-2,6.849612E-4,1.5997017E-2,4.683449E-3,9.260956E-3,1.412111E-3,4.5276657E-3],"split_indices":[1,5,3,1,1,1,9,1,0,1,3,1,1,10,5,0,0,1,5,5,3,1,5,5,10,6,1,5,11,1,3,3,1,5,5,11,5,1,5,0,3,0,10,0,5,3,1,1,8,3,0,1,1,1,8,3,5,1,5,1,1,10,5,5,5,5,5,5,5,1,0,0,3,0,0,0,1,0,1,0,0,0,3,1,1,0,5,1,8,3,1,1,1,0,0,0,0,0,0,0,0,0,0,0,0,0,0,0,0,0,0,0,0,0,0,0,0,0,0,0,0,0,0,0,0,0,0,0,0,0,0,0,0,0,0,0,0,0,0,0,0,0,0,0,0,0,0,0,0,0,0,0,0],"split_type":[0,0,0,0,0,0,0,0,0,0,0,0,0,0,0,0,0,0,0,0,0,0,0,0,0,0,0,0,0,0,0,0,0,0,0,0,0,0,0,0,0,0,0,0,0,0,0,0,0,0,0,0,0,0,0,0,0,0,0,0,0,0,0,0,0,0,0,0,0,0,0,0,0,0,0,0,0,0,0,0,0,0,0,0,0,0,0,0,0,0,0,0,0,0,0,0,0,0,0,0,0,0,0,0,0,0,0,0,0,0,0,0,0,0,0,0,0,0,0,0,0,0,0,0,0,0,0,0,0,0,0,0,0,0,0,0,0,0,0,0,0,0,0,0,0,0,0,0,0,0,0,0,0],"sum_hessian":[7.91E3,3.716E3,4.194E3,1.5E1,3.701E3,9E1,4.104E3,2E0,1.3E1,1.536E3,2.165E3,4.2E1,4.8E1,7.47E2,3.357E3,1E0,1E0,1.102E3,4.34E2,6E1,2.105E3,2.8E1,1.4E1,1.3E1,3.5E1,8E0,7.39E2,8.3E1,3.274E3,1.037E3,6.5E1,5.1E1,3.83E2,4.9E1,1.1E1,3.7E1,2.068E3,9E0,1.9E1,1E0,1.3E1,3E0,1E1,1E0,3.4E1,3E0,5E0,7.07E2,3.2E1,8.2E1,1E0,9.5E1,3.179E3,9.15E2,1.22E2,2.9E1,3.6E1,4E0,4.7E1,3.01E2,8.2E1,4.5E1,4E0,6E0,5E0,1.8E1,1.9E1,2.6E1,2.042E3,7E0,2E0,2E0,1.7E1,9E0,4E0,1E0,9E0,3E0,3.1E1,2E0,1E0,2E0,3E0,6.69E2,3.8E1,3E0,2.9E1,9E0,7.3E1,1.2E1,8.3E1,2.315E3,8.64E2,9.03E2,1.2E1,5E0,1.17E2,1E0,2.8E1,7E0,2.9E1,2E0,2E0,7E0,4E1,1.64E2,1.37E2,5.6E1,2.6E1,2E0,4.3E1,3E0,1E0,4E0,2E0,4E0,1E0,4E0,1.4E1,8E0,1.1E1,1.3E1,1.3E1,4.8E1,1.994E3,1E0,6E0,1.5E1,2E0,4E0,5E0,3E0,2.8E1,1E0,2E0,5.85E2,8.4E1,2.7E1,1.1E1,1E0,2.8E1,3E0,6E0,6.8E1,5E0,8E0,4E0,3E1,5.3E1,1.725E3,5.9E2,2.59E2,6.05E2],"tree_param":{"num_deleted":"0","num_feature":"12","num_nodes":"153","size_leaf_vector":"0"}},{"base_weights":[1.0448489E-1,-8.565506E-2,2.7850682E-1,3.7618645E-2,-1.736665E-1,1.4397686E0,2.6440224E-1,2.940944E-4,1.298393E-1,-1.8715962E0,-1.6249686E-1,5.989855E0,8.8122576E-1,4.602197E-1,2.3062082E-1,1.057963E-2,-1.7678826E-1,3.5257983E-1,1.0611858E-1,-2.2540517E-1,-2.5842752E-2,3.2973242E0,8.974149E0,-6.1911005E-1,1.382956E0,2.0674142E-1,6.859235E-1,2.6231846E-1,9.502504E-2,-9.812934E-3,1.7410114E-1,-2.4000092E-1,-1.3640086E-1,3.2089356E-1,8.573493E-1,8.578446E-2,2.3543286E-1,-6.2025714E-1,-2.0645228E-1,2.659177E-1,-1.00386545E-1,5.182444E0,1.7427384E0,-2.0237095E0,-3.077034E-2,3.1971076E0,8.596878E-1,1.8688115E-1,2.5570118E0,1.5099993E0,3.7598887E-1,2.9714623E-1,1.6641039E-1,-0E0,1.3922307E-1,-2.697556E-3,-1.9163074E-1,5.574342E-1,1.5880571E-1,-2.899402E-1,-0E0,-7.99691E-2,-1.9572972E-1,5.2420485E-1,2.5845444E-1,1.3273374E0,1.6226025E-1,1.3328947E-1,3.5839587E-2,4.5876098E-1,5.400864E-4,-7.3404837E-1,5.300719E-1,-1.4514089E-1,-3.377537E-1,1.4363674E0,1.8195356E-1,-2.3088625E-1,7.530383E-2,-4.2562032E-1,4.04808E-2,8.706639E-1,4.7373796E0,2.7889774E0,-3.212897E-2,4.2681754E-1,8.516848E-2,3.6499736E0,8.139013E-1,1.0581585E0,2.2174091E0,-3.0034548E-1,5.40824E-1,1.3365385E-1,3.4480605E-1,-2.979614E-1,1.7539386E-1,-1.3870214E-1,8.4431864E-2,2.9404536E-1,9.2854425E-2,-1.0346605E-2,1.7994975E-1,-1.3355052E-1,-3.264553E-1,-6.320456E-1,1.7503385E-1,-2.4311188E-1,-4.8610756E-1,-3.467331E-2,9.079966E-2,-1.212648E-2,-1.5796375E-1,-2.2527914E-1,-7.9638004E-2,7.0994544E-1,2.5197193E-1,4.0669736E-1,1.8536614E-1,1.104716E-1,4.1695896E-1,-1.508298E-1,1.14188544E-1,4.9907327E-1,1.9380337E-1,-1.7123714E-2,1.983438E-1,-5.680376E-1,-1.1891143E0,8.594885E-1,-9.093541E-1,-1.267281E-1,-6.05753E-1,-5.6923825E-1,-2.831517E-1,1.3033886E-1,2.0458841E0,1.1045855E-1,1.0141809E0,-3.2900742E-1,-6.648773E-2,-3.100001E-1,1.6750263E-1,3.5492752E0,-7.783512E-1,5.673112E0,1.2027853E0,-1.2308927E0,6.5975204E0,-2.284708E-1,2.5174084E0,2.2633918E-1,6.598198E-1,-1.3490121E-1,1.4326294E-1,1.2400018E0,-3.54317E-1,2.9304109E0,9.2300415E-1,-1.3776507E0,-2.1281222E-1,1.0083051E0,4.2578062E-1,2.9889686E0,1.1917798E-1,7.5559026E-1,3.2125488E-1,-6.128788E-1,-2.5794488E-1,9.421677E-1,1.6864476E-1,-1.662741E-1,1.8559669E-1,1.3396113E-1,-2.4021253E-1,1.6207218E-1,1.1087329E0,1.2624042E-1,-3.3996895E-2],"categories":[],"categories_nodes":[],"categories_segments":[],"categories_sizes":[],"default_left":[true,true,true,true,true,true,true,true,true,false,true,true,true,true,true,true,true,true,true,true,true,true,false,true,true,true,true,true,true,true,true,true,true,true,true,true,true,true,true,true,true,false,false,false,true,true,true,true,true,true,true,true,true,true,true,true,true,false,true,true,true,true,true,true,true,false,false,true,true,true,true,true,true,true,true,true,true,true,true,false,false,true,true,true,true,true,true,false,false,true,true,true,true,true,true,true,true,true,true,true,true,false,false,false,false,false,false,false,false,false,false,false,false,false,false,false,false,false,false,false,false,false,false,false,false,false,false,false,false,false,false,false,false,false,false,false,false,false,false,false,false,false,false,false,false,false,false,false,false,false,false,false,false,false,false,false,false,false,false,false,false,false,false,false,false,false,false,false,false,false,false,false,false,false,false,false,false,false,false],"id":151,"left_children":[1,3,5,7,9,11,13,15,17,-1,19,21,23,25,27,29,31,33,35,37,39,41,-1,43,45,47,49,51,53,55,57,59,61,63,65,67,69,71,73,75,77,-1,-1,-1,79,81,83,85,87,89,91,93,95,97,99,101,103,-1,105,107,109,111,113,115,117,-1,-1,119,121,123,125,127,129,131,133,135,137,139,141,-1,-1,143,145,147,149,151,153,-1,-1,155,157,159,161,163,165,167,169,171,173,175,177,-1,-1,-1,-1,-1,-1,-1,-1,-1,-1,-1,-1,-1,-1,-1,-1,-1,-1,-1,-1,-1,-1,-1,-1,-1,-1,-1,-1,-1,-1,-1,-1,-1,-1,-1,-1,-1,-1,-1,-1,-1,-1,-1,-1,-1,-1,-1,-1,-1,-1,-1,-1,-1,-1,-1,-1,-1,-1,-1,-1,-1,-1,-1,-1,-1,-1,-1,-1,-1,-1,-1,-1,-1,-1,-1,-1,-1,-1],"loss_changes":[2.609909E2,4.089949E1,6.7303345E1,5.403367E0,4.158053E1,1.23518776E2,2.6873383E1,2.0351706E0,2.3709145E0,0E0,1.8781086E1,3.281337E1,3.3669056E1,3.4171234E1,1.4906616E1,3.528722E0,1.4029837E-1,5.8453655E-1,1.065022E0,1.114344E1,1.4998805E1,6.658432E0,0E0,9.315702E0,3.0668644E1,1.2979984E1,8.0578384E1,9.374176E0,2.7648673E0,1.2135675E0,6.4821815E-1,2.8125632E-1,1.191895E-1,4.683671E-1,6.6923785E-1,8.366971E-1,2.896058E0,9.077335E0,1.1475239E1,1.3681143E1,1.2602882E1,0E0,0E0,0E0,2.4568899E-1,2.482299E1,4.537787E1,6.821993E0,3.3912973E0,2.6766174E1,2.573602E1,1.6055344E1,3.1458225E0,2.4553533E0,3.2110968E0,1.2630234E0,2.555833E-1,0E0,1.4849007E0,1.277901E-1,1.5001538E-2,1.0452679E-1,5.2559853E-2,3.9856982E-1,3.1674242E-1,0E0,0E0,1.1508398E0,2.540284E0,2.6049376E-1,9.921973E-2,4.458725E0,3.2630703E0,8.227421E0,5.676655E0,7.30991E0,7.760957E0,5.0737E0,8.339876E0,0E0,0E0,1.5684946E1,1.1959129E1,1.303688E2,9.336533E0,3.830224E0,2.5294387E0,0E0,0E0,1.38578E1,2.9806961E1,4.154495E0,9.803726E0,1.9111912E1,1.535701E1,1.15489244E-1,3.7417202E0,7.1938E-1,2.104899E0,1.1032043E1,1.4694893E0,0E0,0E0,0E0,0E0,0E0,0E0,0E0,0E0,0E0,0E0,0E0,0E0,0E0,0E0,0E0,0E0,0E0,0E0,0E0,0E0,0E0,0E0,0E0,0E0,0E0,0E0,0E0,0E0,0E0,0E0,0E0,0E0,0E0,0E0,0E0,0E0,0E0,0E0,0E0,0E0,0E0,0E0,0E0,0E0,0E0,0E0,0E0,0E0,0E0,0E0,0E0,0E0,0E0,0E0,0E0,0E0,0E0,0E0,0E0,0E0,0E0,0E0,0E0,0E0,0E0,0E0,0E0,0E0,0E0,0E0,0E0,0E0,0E0,0E0,0E0,0E0,0E0,0E0],"parents":[2147483647,0,0,1,1,2,2,3,3,4,4,5,5,6,6,7,7,8,8,10,10,11,11,12,12,13,13,14,14,15,15,16,16,17,17,18,18,19,19,20,20,21,21,23,23,24,24,25,25,26,26,27,27,28,28,29,29,30,30,31,31,32,32,33,33,34,34,35,35,36,36,37,37,38,38,39,39,40,40,44,44,45,45,46,46,47,47,48,48,49,49,50,50,51,51,52,52,53,53,54,54,55,55,56,56,58,58,59,59,60,60,61,61,62,62,63,63,64,64,67,67,68,68,69,69,70,70,71,71,72,72,73,73,74,74,75,75,76,76,77,77,78,78,81,81,82,82,83,83,84,84,85,85,86,86,89,89,90,90,91,91,92,92,93,93,94,94,95,95,96,96,97,97,98,98,99,99,100,100],"right_children":[2,4,6,8,10,12,14,16,18,-1,20,22,24,26,28,30,32,34,36,38,40,42,-1,44,46,48,50,52,54,56,58,60,62,64,66,68,70,72,74,76,78,-1,-1,-1,80,82,84,86,88,90,92,94,96,98,100,102,104,-1,106,108,110,112,114,116,118,-1,-1,120,122,124,126,128,130,132,134,136,138,140,142,-1,-1,144,146,148,150,152,154,-1,-1,156,158,160,162,164,166,168,170,172,174,176,178,-1,-1,-1,-1,-1,-1,-1,-1,-1,-1,-1,-1,-1,-1,-1,-1,-1,-1,-1,-1,-1,-1,-1,-1,-1,-1,-1,-1,-1,-1,-1,-1,-1,-1,-1,-1,-1,-1,-1,-1,-1,-1,-1,-1,-1,-1,-1,-1,-1,-1,-1,-1,-1,-1,-1,-1,-1,-1,-1,-1,-1,-1,-1,-1,-1,-1,-1,-1,-1,-1,-1,-1,-1,-1,-1,-1,-1,-1],"split_conditions":[6.621175E-1,6.572582E-1,1.8095067E-2,4.4565028E-1,2.7272727E-2,7.703592E-1,1.7365862E-1,4.3256068E-1,1.8230104E-1,-3.743192E-2,6.9940585E-1,7.563675E-1,7.938249E-1,8.2174015E-1,1.3137093E-1,3.989272E-1,3.095823E-1,9.533169E-1,6.474741E-1,2.9618293E-2,7.6557434E-1,7.290039E-1,1.7948297E-1,2.7272727E-2,8.349742E-1,1.7329854E-1,8.3047175E-1,8.4422266E-1,7.7778685E-1,3.893812E-1,3.682031E-2,7.265935E-1,6.636658E-1,5.482535E-2,6.2911546E-1,6.324857E-1,6.4979887E-1,9.090909E-1,8.30303E-1,5.818182E-1,7.2727275E-1,1.0364888E-1,3.4854766E-2,-4.047419E-2,7.8173023E-1,8.2218254E-1,2.7272727E-2,7.7033323E-1,7.7025306E-1,8.30303E-1,8.571358E-1,7.635859E-1,1.864422E-1,5.8854413E-1,2.923833E-1,3.8399246E-1,3.9342475E-1,1.1148684E-2,5.3745046E-2,6.051494E-1,8.003241E-1,6.965602E-1,8.935902E-1,6.3902617E-1,1.6216215E-1,2.6546746E-2,3.245205E-3,6.294689E-1,6.341465E-1,8.9683115E-1,9.506662E-1,2.3226503E-2,2.4846956E-2,6.7410874E-1,1.7329852E-1,6.621622E-1,7.614332E-1,7.5757575E-1,8.310227E-1,-8.512407E-3,8.09616E-4,7.9888636E-1,5E-1,8.7090075E-1,5E-1,7.4818814E-1,4.1296717E-4,7.299947E-2,1.6278027E-2,1.5898451E-1,1.6216215E-1,2.25063E-2,4.1141517E-2,1.8427517E-2,7.6706135E-1,1.739287E-1,1.8427517E-2,7.684338E-1,7.738564E-1,6.385488E-1,5.8854413E-1,-2.069321E-4,3.5989948E-3,-2.6710103E-3,-6.529106E-3,-1.2640912E-2,3.500677E-3,-4.8622373E-3,-9.722151E-3,-6.934662E-4,1.8159931E-3,-2.425296E-4,-3.159275E-3,-4.5055826E-3,-1.5927601E-3,1.4198909E-2,5.0394386E-3,8.133947E-3,3.7073228E-3,2.209432E-3,8.339179E-3,-3.016596E-3,2.2837708E-3,9.9814655E-3,3.8760672E-3,-3.4247426E-4,3.966876E-3,-1.1360752E-2,-2.3782287E-2,1.718977E-2,-1.8187081E-2,-2.534562E-3,-1.2115059E-2,-1.1384765E-2,-5.6630336E-3,2.6067772E-3,4.0917683E-2,2.209171E-3,2.0283617E-2,-6.5801484E-3,-1.3297546E-3,-6.2000016E-3,3.3500525E-3,7.09855E-2,-1.5567023E-2,1.1346223E-1,2.4055704E-2,-2.4617853E-2,1.3195041E-1,-4.569416E-3,5.0348166E-2,4.5267832E-3,1.3196396E-2,-2.6980243E-3,2.8652586E-3,2.4800036E-2,-7.08634E-3,5.8608215E-2,1.8460082E-2,-2.7553014E-2,-4.2562443E-3,2.0166101E-2,8.515612E-3,5.9779372E-2,2.3835595E-3,1.5111805E-2,6.4250976E-3,-1.2257576E-2,-5.1588975E-3,1.8843353E-2,3.372895E-3,-3.325482E-3,3.7119337E-3,2.6792225E-3,-4.8042503E-3,3.2414435E-3,2.2174658E-2,2.5248083E-3,-6.799379E-4],"split_indices":[1,1,5,1,2,1,5,1,5,0,5,1,1,1,7,1,11,11,1,5,5,1,0,2,1,5,1,1,1,1,5,5,5,5,1,1,1,2,2,2,11,0,0,0,1,1,2,1,1,2,1,1,5,7,11,1,1,0,5,5,5,11,5,1,11,0,0,1,1,5,5,5,5,5,5,11,5,2,5,0,0,1,0,1,0,1,8,0,0,5,11,5,5,11,1,5,11,1,1,5,7,0,0,0,0,0,0,0,0,0,0,0,0,0,0,0,0,0,0,0,0,0,0,0,0,0,0,0,0,0,0,0,0,0,0,0,0,0,0,0,0,0,0,0,0,0,0,0,0,0,0,0,0,0,0,0,0,0,0,0,0,0,0,0,0,0,0,0,0,0,0,0,0,0,0,0,0,0,0],"split_type":[0,0,0,0,0,0,0,0,0,0,0,0,0,0,0,0,0,0,0,0,0,0,0,0,0,0,0,0,0,0,0,0,0,0,0,0,0,0,0,0,0,0,0,0,0,0,0,0,0,0,0,0,0,0,0,0,0,0,0,0,0,0,0,0,0,0,0,0,0,0,0,0,0,0,0,0,0,0,0,0,0,0,0,0,0,0,0,0,0,0,0,0,0,0,0,0,0,0,0,0,0,0,0,0,0,0,0,0,0,0,0,0,0,0,0,0,0,0,0,0,0,0,0,0,0,0,0,0,0,0,0,0,0,0,0,0,0,0,0,0,0,0,0,0,0,0,0,0,0,0,0,0,0,0,0,0,0,0,0,0,0,0,0,0,0,0,0,0,0,0,0,0,0,0,0,0,0,0,0],"sum_hessian":[7.887E3,3.769E3,4.118E3,1.57E3,2.199E3,4.9E1,4.069E3,1.118E3,4.52E2,1.4E1,2.185E3,5E0,4.4E1,5.98E2,3.471E3,1.057E3,6.1E1,4.3E1,4.09E2,1.496E3,6.89E2,3E0,2E0,1.1E1,3.3E1,2.82E2,3.16E2,2.813E3,6.58E2,9.4E2,1.17E2,2.3E1,3.8E1,4.1E1,2E0,3.54E2,5.5E1,6.8E1,1.428E3,1.4E2,5.49E2,1E0,2E0,3E0,8E0,7E0,2.6E1,2.8E2,2E0,8.6E1,2.3E2,2.063E3,7.5E2,2.09E2,4.49E2,9.05E2,3.5E1,4E0,1.13E2,1.9E1,4E0,2E1,1.8E1,9E0,3.2E1,1E0,1E0,1.81E2,1.73E2,2.8E1,2.7E1,6.2E1,6E0,9.74E2,4.54E2,9E0,1.31E2,3.15E2,2.34E2,1E0,7E0,3E0,4E0,8E0,1.8E1,8.3E1,1.97E2,1E0,1E0,5.3E1,3.3E1,4.5E1,1.85E2,4.66E2,1.597E3,1.4E1,7.36E2,7.9E1,1.3E2,1.03E2,3.46E2,8.69E2,3.6E1,2.5E1,1E1,2E0,1.11E2,1.6E1,3E0,3E0,1E0,1.1E1,9E0,1.4E1,4E0,5E0,4E0,1E1,2.2E1,1.68E2,1.3E1,5.1E1,1.22E2,2.4E1,4E0,2.5E1,2E0,4.6E1,1.6E1,5E0,1E0,9.37E2,3.7E1,8.6E1,3.68E2,3E0,6E0,1.21E2,1E1,1.97E2,1.18E2,4.5E1,1.89E2,1E0,2E0,3E0,1E0,4E0,4E0,1.7E1,1E0,4.5E1,3.8E1,4.1E1,1.56E2,4.7E1,6E0,2.1E1,1.2E1,3E0,4.2E1,3.6E1,1.49E2,2E0,4.64E2,8.6E1,1.511E3,1E0,1.3E1,6E0,7.3E2,7.3E1,6E0,1.13E2,1.7E1,8.9E1,1.4E1,2.74E2,7.2E1],"tree_param":{"num_deleted":"0","num_feature":"12","num_nodes":"179","size_leaf_vector":"0"}},{"base_weights":[9.944461E-2,-9.500719E-2,2.7385077E-1,3.4521252E-2,-1.855326E-1,5.101956E0,2.582013E-1,-9.855281E-3,8.951832E-2,-7.5677556E-1,-1.6140273E-1,8.096094E0,1.3641883E0,1.2737224E0,2.3824126E-1,3.435955E-2,-2.6549865E-2,1.9904648E0,8.572757E-2,6.5614684E-3,-9.258514E-1,-2.0637894E-1,-5.9832424E-2,1.5652802E0,2.1860062E1,-1.2433316E1,4.731212E0,5.050217E0,1.0506562E0,7.422401E-1,2.2967888E-1,2.8880725E-2,4.0192726E-1,-7.724406E-3,-7.3108725E-2,5.8427596E-1,8.0234095E-2,1.3312948E-1,-1.3201145E-2,-1.8149313E0,-7.3875046E-1,-4.8707467E-2,-2.6469553E-1,-6.705324E-1,-2.852666E-2,9.312666E0,-9.3586266E-1,2.9604824E1,8.637888E0,-5.7012653E-1,1.1634404E1,5.9073753E0,1.6338123E0,-4.3197513E-1,1.705282E0,1.752637E-1,1.1199822E0,2.575158E-1,1.0589565E-1,9.9431565E-3,5.7616524E-2,1.4675584E-1,7.372474E-1,-3.350947E-2,1.3398612E-2,-1.0197805E-1,3.7534572E-3,3.2678285E-1,7.171724E-2,-2.9605638E-2,3.9614063E-2,-2.70184E0,-1.0854276E0,-4.9851424E-1,-1.1119584E0,-3.9811686E-2,-6.2247332E-2,-1.2154055E-1,-3.707362E-1,-1.007253E0,7.093812E-1,1.0729326E0,-5.1163357E-2,6.2563515E-1,-1.4711585E0,6.432638E-1,-2.5615861E0,-2.3751748E-1,-1.2630007E0,3.296832E0,1.1509497E0,1.0033411E0,-2.446829E-2,2.1707413E0,5.333231E-1,2.9308972E-1,1.6491772E-1,1.888179E-2,1.43856E-1,3.772767E-2,-5.2779946E-3,9.031697E-2,1.4088575E-2,2.2769788E-1,1.8416489E-2,-2.1770203E-2,-8.0118135E-2,2.4830574E-1,1.102009E-2,-5.3751368E-2,-1.691931E-1,2.2505762E-1,-1.4166285E-1,4.7251394E-1,2.8561452E-1,-1.20255634E-1,8.63953E-2,-3.1912778E-2,-0E0,-0E0,5.129117E-2,-1.4749268E-1,-1.4252479E0,-5.533183E-1,1.1087178E0,-1.2558742E0,3.5656852E-1,7.7397604E-3,-4.3540087E-2,-8.495234E-2,-4.9602862E-2,5.9157156E-4,-4.1293383E-1,-3.791951E-1,8.341517E-1,-1.2247547E0,1.3771574E-1,-3.5263923E-1,1.7047161E0,1.5678822E0,3.2262287E-1,-1.3547866E-1,1.7652237E-1,-2.1523182E0,7.802527E-2,2.3940194E-1,-4.5918626E-1,1.441517E0,4.0389237E0,8.189471E-1,4.650225E0,2.7972566E-2,1.2229748E0,3.531247E-1,-3.4132564E-1,3.3558805E0,1.4144257E0,-7.402108E-1,7.731084E-1,2.3798946E-1,4.50434E-1,3.132128E-1,1.3177246E-1,8.973633E-2,-8.678201E-2,1.1294619E-1,3.4212476E-1],"categories":[],"categories_nodes":[],"categories_segments":[],"categories_sizes":[],"default_left":[true,true,true,true,true,true,true,true,true,true,true,true,true,true,true,true,true,false,true,true,true,true,true,true,true,false,true,true,true,true,true,true,true,true,true,false,true,false,true,true,true,true,true,true,true,false,true,false,false,true,false,false,false,true,true,true,true,true,true,true,true,true,false,true,true,true,true,true,true,true,true,false,true,true,true,true,true,true,true,true,true,true,true,false,true,false,false,true,false,true,true,true,true,true,true,true,true,true,true,false,false,false,false,false,false,false,false,false,false,false,false,false,false,false,false,false,false,false,false,false,false,false,false,false,false,false,false,false,false,false,false,false,false,false,false,false,false,false,false,false,false,false,false,false,false,false,false,false,false,false,false,false,false,false,false,false,false,false,false,false,false,false,false,false,false,false,false],"id":152,"left_children":[1,3,5,7,9,11,13,15,17,19,21,23,25,27,29,31,33,-1,35,37,39,41,43,45,47,-1,49,51,53,55,57,59,61,63,65,-1,67,-1,69,71,73,75,77,79,81,-1,83,-1,-1,85,-1,-1,-1,87,89,91,93,95,97,99,101,103,-1,105,107,109,111,113,115,117,119,-1,121,123,125,127,129,131,133,135,137,139,141,-1,143,-1,-1,145,-1,147,149,151,153,155,157,159,161,163,165,-1,-1,-1,-1,-1,-1,-1,-1,-1,-1,-1,-1,-1,-1,-1,-1,-1,-1,-1,-1,-1,-1,-1,-1,-1,-1,-1,-1,-1,-1,-1,-1,-1,-1,-1,-1,-1,-1,-1,-1,-1,-1,-1,-1,-1,-1,-1,-1,-1,-1,-1,-1,-1,-1,-1,-1,-1,-1,-1,-1,-1,-1,-1,-1,-1,-1,-1,-1],"loss_changes":[2.659051E2,4.347506E1,3.1178748E2,3.7241278E0,3.0027504E1,1.454021E2,8.339575E1,6.23436E-1,4.8231797E0,1.1415619E1,9.559521E0,6.474605E2,3.1373758E2,6.497473E1,1.7369354E1,4.5585224E-1,5.362406E-1,0E0,1.8381615E0,4.315188E-2,1.1548969E1,1.3336044E1,1.22831745E1,1.063742E2,1.5313159E2,0E0,1.9755434E2,9.364052E0,7.338012E1,1.4336937E1,1.3680252E1,1.2310119E-1,2.3653597E-1,2.3863393E-1,3.9280552E-1,0E0,1.4003787E0,0E0,1.2666951E-2,6.947815E0,5.201557E0,4.4973493E-2,1.6058899E1,1.4801479E1,1.5271287E1,0E0,3.9411805E0,0E0,0E0,8.631911E0,0E0,0E0,0E0,3.6492324E0,4.484227E1,4.542929E0,2.4438423E1,1.0664429E1,2.4091206E0,5.9032194E-2,1.2666562E-1,1.9331254E-2,0E0,1.0593633E-1,1.2967038E-1,4.0978765E-1,1.5672522E0,7.817149E-2,1.8383019E0,5.901521E-4,9.0772985E-4,0E0,2.2448578E0,3.4850922E0,5.0935516E0,4.2877376E-2,4.098344E-2,1.6068233E1,6.299118E0,6.3806133E0,6.91465E0,4.3845787E0,1.1532226E1,0E0,3.6032066E0,0E0,0E0,2.0836923E0,0E0,1.6338013E1,4.434843E1,1.1133051E0,2.7120714E0,1.1196739E1,8.23288E0,2.0270462E1,4.4101944E0,1.6671962E0,3.0959187E0,0E0,0E0,0E0,0E0,0E0,0E0,0E0,0E0,0E0,0E0,0E0,0E0,0E0,0E0,0E0,0E0,0E0,0E0,0E0,0E0,0E0,0E0,0E0,0E0,0E0,0E0,0E0,0E0,0E0,0E0,0E0,0E0,0E0,0E0,0E0,0E0,0E0,0E0,0E0,0E0,0E0,0E0,0E0,0E0,0E0,0E0,0E0,0E0,0E0,0E0,0E0,0E0,0E0,0E0,0E0,0E0,0E0,0E0,0E0,0E0,0E0,0E0,0E0,0E0,0E0,0E0,0E0,0E0],"parents":[2147483647,0,0,1,1,2,2,3,3,4,4,5,5,6,6,7,7,8,8,9,9,10,10,11,11,12,12,13,13,14,14,15,15,16,16,18,18,19,19,20,20,21,21,22,22,23,23,24,24,26,26,27,27,28,28,29,29,30,30,31,31,32,32,33,33,34,34,36,36,38,38,39,39,40,40,41,41,42,42,43,43,44,44,46,46,49,49,53,53,54,54,55,55,56,56,57,57,58,58,59,59,60,60,61,61,63,63,64,64,65,65,66,66,67,67,68,68,69,69,70,70,72,72,73,73,74,74,75,75,76,76,77,77,78,78,79,79,80,80,81,81,82,82,84,84,87,87,89,89,90,90,91,91,92,92,93,93,94,94,95,95,96,96,97,97,98,98],"right_children":[2,4,6,8,10,12,14,16,18,20,22,24,26,28,30,32,34,-1,36,38,40,42,44,46,48,-1,50,52,54,56,58,60,62,64,66,-1,68,-1,70,72,74,76,78,80,82,-1,84,-1,-1,86,-1,-1,-1,88,90,92,94,96,98,100,102,104,-1,106,108,110,112,114,116,118,120,-1,122,124,126,128,130,132,134,136,138,140,142,-1,144,-1,-1,146,-1,148,150,152,154,156,158,160,162,164,166,-1,-1,-1,-1,-1,-1,-1,-1,-1,-1,-1,-1,-1,-1,-1,-1,-1,-1,-1,-1,-1,-1,-1,-1,-1,-1,-1,-1,-1,-1,-1,-1,-1,-1,-1,-1,-1,-1,-1,-1,-1,-1,-1,-1,-1,-1,-1,-1,-1,-1,-1,-1,-1,-1,-1,-1,-1,-1,-1,-1,-1,-1,-1,-1,-1,-1,-1,-1],"split_conditions":[6.621175E-1,6.572582E-1,2.7272727E-2,3.8399246E-1,9.6551724E-2,8.349742E-1,7.4137926E-2,1.0025515E-1,2.7272727E-2,5.5555556E-2,2.777778E-1,8.2218254E-1,1.6666667E-1,7.703592E-1,3.5019808E-2,9.780176E-2,6.736668E-2,3.9809294E-2,3.2949224E-2,2.7272727E-2,2.7272727E-2,5.5555556E-2,1.6034484E-1,7.7843237E-1,2.2222222E-1,-2.4866632E-1,8.7090075E-1,5.272727E-1,8.2218254E-1,8.2218254E-1,1.3137093E-1,7.5757575E-1,2.9137933E-1,2.3312274E-1,3.443045E-1,1.1685519E-2,3.8608843E-1,2.6625895E-3,3.0158445E-2,1.6666667E-1,3.5106385E-1,7.5757575E-1,3.9234042E-1,2.3271516E-1,1.7758621E-1,1.8625331E-1,9.8790765E-1,5.9209645E-1,1.7275776E-1,2.777778E-1,2.3268808E-1,1.1814751E-1,3.2676246E-2,8.0966675E-1,8.349742E-1,7.6906526E-1,4.2424244E-1,8.4422266E-1,7.7778685E-1,4.0740848E-2,5.8633417E-1,6.545454E-1,1.4744948E-2,8.513586E-2,1.8181819E-1,3.1986278E-1,3.7000573E-1,1.3719842E-1,3.989272E-1,6.545454E-1,5.5787235E-1,-5.4036796E-2,2.777778E-1,3.888889E-1,2.1840116E-1,1.7758621E-1,2.689655E-1,8.30303E-1,9.908174E-1,5E-1,6.8723404E-1,2.9402232E-1,8.30303E-1,1.25127025E-2,3.888889E-1,1.2865276E-2,-5.1231723E-2,1.6666667E-1,-2.5260014E-2,2.777778E-1,5E-1,6.959973E-1,2.777778E-1,8.349742E-1,2.4486857E-2,8.2218254E-1,1.6666667E-1,9.5682657E-1,9.212121E-1,7.5455336E-4,-1.0555989E-4,1.8063395E-3,2.817715E-4,4.5539574E-3,3.6832975E-4,-4.3540407E-4,-1.6023626E-3,4.9661146E-3,2.2040181E-4,-1.0750274E-3,-3.383862E-3,4.5011523E-3,-2.833257E-3,9.450278E-3,5.7122903E-3,-2.4051126E-3,1.7279059E-3,-6.3825556E-4,-0E0,-0E0,1.0258234E-3,-2.9498534E-3,-2.8504958E-2,-1.1066366E-2,2.2174355E-2,-2.5117483E-2,7.1313703E-3,1.5479521E-4,-8.7080174E-4,-1.6990467E-3,-9.920573E-4,1.1831431E-5,-8.258676E-3,-7.5839018E-3,1.6683033E-2,-2.4495093E-2,2.7543148E-3,-7.0527843E-3,3.4094322E-2,3.1357642E-2,6.452457E-3,-2.7095731E-3,3.5304474E-3,-4.3046363E-2,1.5605052E-3,4.788039E-3,-9.183725E-3,2.883034E-2,8.077847E-2,1.6378941E-2,9.30045E-2,5.594513E-4,2.4459494E-2,7.062494E-3,-6.8265125E-3,6.711761E-2,2.8288513E-2,-1.4804215E-2,1.54621685E-2,4.759789E-3,9.00868E-3,6.2642563E-3,2.6354492E-3,1.7947265E-3,-1.7356401E-3,2.2589238E-3,6.842495E-3],"split_indices":[1,1,2,1,3,1,3,1,2,4,4,1,4,1,5,1,7,0,5,2,2,4,3,1,4,0,1,2,1,1,7,2,3,1,1,0,1,0,5,4,10,2,10,5,3,0,6,0,0,4,0,0,0,1,1,1,2,1,1,1,5,2,0,6,2,1,1,5,1,2,10,0,4,4,5,3,3,2,5,4,10,5,2,0,4,0,0,4,0,4,4,1,4,1,5,1,4,6,2,0,0,0,0,0,0,0,0,0,0,0,0,0,0,0,0,0,0,0,0,0,0,0,0,0,0,0,0,0,0,0,0,0,0,0,0,0,0,0,0,0,0,0,0,0,0,0,0,0,0,0,0,0,0,0,0,0,0,0,0,0,0,0,0,0,0,0,0],"split_type":[0,0,0,0,0,0,0,0,0,0,0,0,0,0,0,0,0,0,0,0,0,0,0,0,0,0,0,0,0,0,0,0,0,0,0,0,0,0,0,0,0,0,0,0,0,0,0,0,0,0,0,0,0,0,0,0,0,0,0,0,0,0,0,0,0,0,0,0,0,0,0,0,0,0,0,0,0,0,0,0,0,0,0,0,0,0,0,0,0,0,0,0,0,0,0,0,0,0,0,0,0,0,0,0,0,0,0,0,0,0,0,0,0,0,0,0,0,0,0,0,0,0,0,0,0,0,0,0,0,0,0,0,0,0,0,0,0,0,0,0,0,0,0,0,0,0,0,0,0,0,0,0,0,0,0,0,0,0,0,0,0,0,0,0,0,0,0],"sum_hessian":[7.84E3,3.707E3,4.133E3,1.525E3,2.182E3,1.3E1,4.12E3,8.44E2,6.81E2,8.8E1,2.094E3,7E0,6E0,7.9E1,4.041E3,2.31E2,6.13E2,1E0,6.8E2,1.6E1,7.2E1,1.451E3,6.43E2,5E0,2E0,1E0,5E0,4E0,7.5E1,6.7E1,3.974E3,2.28E2,3E0,4.37E2,1.76E2,7E0,6.73E2,2E0,1.4E1,1.2E1,6E1,3.92E2,1.059E3,3.1E1,6.12E2,1E0,4E0,1E0,1E0,3E0,2E0,3E0,1E0,2.3E1,5.2E1,2.7E1,4E1,3.244E3,7.3E2,1.38E2,9E1,2E0,1E0,1.97E2,2.4E2,1.28E2,4.8E1,2.2E1,6.51E2,1.1E1,3E0,5E0,7E0,3.7E1,2.3E1,2.38E2,1.54E2,4.51E2,6.08E2,2.5E1,6E0,1.2E1,6E2,1E0,3E0,2E0,1E0,1.9E1,4E0,1.3E1,3.9E1,5E0,2.2E1,1.4E1,2.6E1,2.343E3,9.01E2,2.22E2,5.08E2,4.9E1,8.9E1,5.1E1,3.9E1,1E0,1E0,1.58E2,3.9E1,2E0,2.38E2,7.5E1,5.3E1,1.9E1,2.9E1,4E0,1.8E1,4.6E1,6.05E2,1E1,1E0,1E0,2E0,2E0,5E0,3.6E1,1E0,2.1E1,2E0,1.7E1,2.21E2,5.4E1,1E2,3.18E2,1.33E2,6.04E2,4E0,2.1E1,4E0,3E0,3E0,7E0,5E0,4.38E2,1.62E2,2E0,1E0,6E0,1.3E1,4E0,9E0,3.6E1,3E0,1E0,4E0,1E1,1.2E1,5E0,9E0,4E0,2.2E1,1.736E3,6.07E2,1.64E2,7.37E2,1.33E2,8.9E1,4.4E2,6.8E1],"tree_param":{"num_deleted":"0","num_feature":"12","num_nodes":"167","size_leaf_vector":"0"}},{"base_weights":[9.899738E-2,-8.126375E-2,2.611644E-1,4.0996972E-2,-1.6828117E-1,2.489245E0,2.371722E-1,-7.830605E-3,1.1686602E-1,-1.6504993E0,-1.5848234E-1,4.915911E0,2.3439093E-1,6.101634E-1,2.2602779E-1,-4.6382844E-3,-3.6602116E-1,6.0099596E-1,1.051402E-1,-1.3159424E-1,-2.9197598E-1,1.46135E1,2.396058E0,-1.8569198E0,1.1694443E0,1.6385731E-1,8.992063E-1,2.0225562E-1,3.6274356E-1,5.3702824E-2,-1.4037522E-2,8.604131E-1,1.06769696E-1,7.089293E-2,1.9127603E-1,-2.1764244E-1,-6.0804896E-2,-3.914765E-1,-3.2304116E-2,1.8746572E1,6.1625123E-1,1.6889939E0,4.3839192E0,4.2362317E-1,-2.2415545E0,-3.4209675E-1,2.059522E0,6.567678E-1,-1.4558913E-1,2.871094E-1,1.3063004E0,2.2810653E-1,9.0071306E-2,7.9987144E-1,2.9195556E-1,4.5900945E-2,2.310102E-1,-1.9159524E-2,5.999928E-2,6.2242854E-1,1.4792618E0,-1.736224E-1,2.9664573E-1,5.3073276E-2,2.4586007E-1,3.7800524E-1,1.5006414E-1,-1.0681832E-1,-3.0477098E-1,2.607824E-2,-2.0232812E-1,-3.0794817E-1,-8.247697E-1,1.4360146E-1,-4.6618912E-1,9.172991E0,2.1532286E1,3.6935062E0,3.3679572E-1,5.2294827E0,1.1631248E0,-2.8491478E0,-1.738595E0,2.3413465E0,-4.174186E-1,1.0018702E0,9.162133E-2,-4.2332834E-1,3.0671796E-1,-9.804471E-1,6.2767404E-1,8.9566475E-1,2.7686365E0,1.0902515E-1,2.4911726E-1,3.4156105E-1,8.0054104E-2,2.4118817E-1,1.1531785E0,4.340805E-1,2.2540078E-1,1.9186911E-1,3.5281707E-2,8.806297E-1,1.0044492E-2,-8.81188E-3,-8.175988E-2,2.5174937E-1,-8.136894E-2,7.5087094E-1,2.3379284E-1,5.877238E-1,4.696177E-2,4.874234E-1,3.3754613E-2,6.3332355E-1,2.5972518E-1,6.966734E-2,2.1403523E-1,-6.124546E-1,-1.890983E-2,-3.345188E-1,1.3259105E-1,-4.810824E-2,3.6285457E-1,-5.8606225E-1,-1.1145148E-1,-3.279381E-1,2.8835073E-1,-6.341555E-1,-1.0619862E0,5.8509726E-2,1.4710505E0,-9.814688E-1,-3.516061E-2,2.6892016E0,6.022901E0,-2.0084113E-1,1.7540232E0,4.6467227E-1,1.3992463E0,-1.3738102E-1,6.0805726E-1,-2.3964456E-1,-2.694427E0,8.7802164E-2,5.4482764E-1,-1.2639605E0,3.8800928E-1,1.436202E0,1.7367242E-1,4.6046867E0,7.3790085E-1,1.3402164E1,9.5462245E-1,1.7950617E-1,-4.5986198E-2,3.023327E-1,1.525056E-1,5.8390766E-1,1.2595382E-1,-1.207355E0,8.282832E-2,2.029969E0,-1.10270165E-1,2.601218E0,5.1349354E-1,3.4614766E-1,2.0434895E0,2.531045E-1,-2.2493865E-1],"categories":[],"categories_nodes":[],"categories_segments":[],"categories_sizes":[],"default_left":[true,true,true,true,true,true,true,true,true,false,true,true,true,true,true,true,false,true,true,true,true,true,true,true,true,true,true,true,true,true,true,true,true,true,true,true,true,true,true,true,false,true,true,false,true,false,true,true,true,true,true,true,true,true,true,true,true,true,true,true,false,false,false,true,true,true,true,true,true,true,true,true,true,true,true,false,false,true,true,false,false,false,false,false,false,true,true,true,true,true,true,true,true,true,true,true,true,true,true,true,true,false,false,false,false,false,false,false,false,false,false,false,false,false,false,false,false,false,false,false,false,false,false,false,false,false,false,false,false,false,false,false,false,false,false,false,false,false,false,false,false,false,false,false,false,false,false,false,false,false,false,false,false,false,false,false,false,false,false,false,false,false,false,false,false,false,false,false,false,false,false],"id":153,"left_children":[1,3,5,7,9,11,13,15,17,-1,19,21,23,25,27,29,-1,31,33,35,37,39,41,43,45,47,49,51,53,55,57,59,61,63,65,67,69,71,73,75,-1,77,79,-1,81,-1,83,85,87,89,91,93,95,97,99,101,103,105,107,109,-1,-1,-1,111,113,115,117,119,121,123,125,127,129,131,133,-1,-1,135,137,-1,-1,-1,-1,-1,-1,139,141,143,145,147,149,151,153,155,157,159,161,163,165,167,169,-1,-1,-1,-1,-1,-1,-1,-1,-1,-1,-1,-1,-1,-1,-1,-1,-1,-1,-1,-1,-1,-1,-1,-1,-1,-1,-1,-1,-1,-1,-1,-1,-1,-1,-1,-1,-1,-1,-1,-1,-1,-1,-1,-1,-1,-1,-1,-1,-1,-1,-1,-1,-1,-1,-1,-1,-1,-1,-1,-1,-1,-1,-1,-1,-1,-1,-1,-1,-1,-1],"loss_changes":[2.3130626E2,3.98713E1,2.2242871E2,5.774709E0,3.1684841E1,2.4212521E2,1.7073517E1,1.0785273E0,3.43361E0,0E0,7.7892685E0,5.0939624E2,4.634265E1,1.532991E1,1.2975174E1,5.1532865E-1,0E0,1.7932749E0,1.7508721E0,1.1024982E1,9.4032E0,2.465697E2,2.1807205E1,6.7753353E0,2.2234314E1,7.2589235E0,1.7876343E1,9.878799E0,1.8235367E1,1.7280841E-1,3.0709276E-1,1.0375824E0,3.028827E-1,1.3237481E0,1.2766514E0,7.8754005E0,1.2230579E1,9.429775E0,7.760979E0,2.2597534E1,0E0,3.566803E1,9.682175E0,0E0,2.181797E-1,0E0,7.566765E0,3.5294309E0,3.7299328E0,1.2863005E1,2.5141998E1,6.9196777E0,1.5954919E0,1.61389E1,4.7852592E0,1.8877825E-1,7.4993163E-1,4.8969066E-1,1.427884E0,2.9348135E-1,0E0,0E0,0E0,1.2506297E0,2.0024045E0,8.4845114E-1,7.075825E-1,1.6003855E1,5.9678345E0,1.5408941E1,1.316169E1,2.6703892E0,1.665411E0,8.119904E0,6.4889617E0,0E0,0E0,6.9517975E0,6.4893494E0,0E0,0E0,0E0,0E0,0E0,0E0,2.1759453E0,9.018638E-1,7.390888E0,5.6579196E-1,2.6332717E0,8.458948E0,1.8880943E1,1.7556555E2,4.55325E0,1.2087448E1,1.236814E0,2.2150006E0,2.0429497E1,4.613349E1,2.2703453E1,4.365225E0,0E0,0E0,0E0,0E0,0E0,0E0,0E0,0E0,0E0,0E0,0E0,0E0,0E0,0E0,0E0,0E0,0E0,0E0,0E0,0E0,0E0,0E0,0E0,0E0,0E0,0E0,0E0,0E0,0E0,0E0,0E0,0E0,0E0,0E0,0E0,0E0,0E0,0E0,0E0,0E0,0E0,0E0,0E0,0E0,0E0,0E0,0E0,0E0,0E0,0E0,0E0,0E0,0E0,0E0,0E0,0E0,0E0,0E0,0E0,0E0,0E0,0E0,0E0,0E0,0E0,0E0,0E0,0E0,0E0,0E0],"parents":[2147483647,0,0,1,1,2,2,3,3,4,4,5,5,6,6,7,7,8,8,10,10,11,11,12,12,13,13,14,14,15,15,17,17,18,18,19,19,20,20,21,21,22,22,23,23,24,24,25,25,26,26,27,27,28,28,29,29,30,30,31,31,32,32,33,33,34,34,35,35,36,36,37,37,38,38,39,39,41,41,42,42,44,44,46,46,47,47,48,48,49,49,50,50,51,51,52,52,53,53,54,54,55,55,56,56,57,57,58,58,59,59,63,63,64,64,65,65,66,66,67,67,68,68,69,69,70,70,71,71,72,72,73,73,74,74,77,77,78,78,85,85,86,86,87,87,88,88,89,89,90,90,91,91,92,92,93,93,94,94,95,95,96,96,97,97,98,98,99,99,100,100],"right_children":[2,4,6,8,10,12,14,16,18,-1,20,22,24,26,28,30,-1,32,34,36,38,40,42,44,46,48,50,52,54,56,58,60,62,64,66,68,70,72,74,76,-1,78,80,-1,82,-1,84,86,88,90,92,94,96,98,100,102,104,106,108,110,-1,-1,-1,112,114,116,118,120,122,124,126,128,130,132,134,-1,-1,136,138,-1,-1,-1,-1,-1,-1,140,142,144,146,148,150,152,154,156,158,160,162,164,166,168,170,-1,-1,-1,-1,-1,-1,-1,-1,-1,-1,-1,-1,-1,-1,-1,-1,-1,-1,-1,-1,-1,-1,-1,-1,-1,-1,-1,-1,-1,-1,-1,-1,-1,-1,-1,-1,-1,-1,-1,-1,-1,-1,-1,-1,-1,-1,-1,-1,-1,-1,-1,-1,-1,-1,-1,-1,-1,-1,-1,-1,-1,-1,-1,-1,-1,-1,-1,-1,-1,-1],"split_conditions":[6.621175E-1,6.572582E-1,1.7734967E-2,3.989272E-1,2.7272727E-2,8.349742E-1,4.7983434E-2,3.9342475E-1,3.3636364E-1,-3.3009987E-2,9.212121E-1,2.7272727E-2,2.7272727E-2,8.106056E-1,9.212121E-1,5.888164E-2,-7.320423E-3,6.0565114E-1,8.30303E-1,6.242424E-1,6.9886565E-1,1.166234E-1,8.2218254E-1,8.4844077E-1,8.7090075E-1,7.7943826E-1,2.162162E-1,1.3137093E-1,7.125307E-2,5.6810714E-2,3.8253418E-1,4.9666905E-1,6.4496315E-1,6.474741E-1,3.1544834E-1,6.0565114E-1,7.651242E-1,5.972272E-1,8.9854157E-1,7.9600966E-1,1.2325024E-2,7.703592E-1,5E-1,8.472463E-3,8.7090075E-1,-6.8419348E-3,9.28372E-1,3.7630536E-2,4.95086E-1,2.349658E-2,4.078142E-2,7.554066E-1,1.0830033E-1,8.2552147E-1,1.4619164E-1,8.525387E-2,1.4004913E-1,5.1907774E-2,3.8608843E-1,5.4282683E-1,2.9585235E-2,-3.4724479E-3,5.9329146E-3,3.9791144E-2,6.4979887E-1,7.090609E-2,6.028142E-1,4.8973713E-2,8.7477493E-1,6.656464E-1,8.158984E-1,5.8588403E-1,6.519625E-1,8.953007E-1,9.454447E-1,1.8345982E-1,4.306457E-1,7.573734E-1,1.166234E-1,1.0458965E-1,2.3262495E-2,-5.6982953E-2,-3.47719E-2,4.682693E-2,-8.348372E-3,7.0994973E-1,6.848485E-1,3.8800865E-2,5.181818E-1,9.443301E-1,2.8628016E-2,2.923833E-1,4.1141517E-2,7.4267364E-1,8.349742E-1,6.242424E-1,1.11181125E-1,7.554066E-1,8.486788E-1,5.8854413E-1,8.9729273E-1,3.8373822E-3,7.056341E-4,1.7612593E-2,2.0088983E-4,-1.7623759E-4,-1.6351976E-3,5.0349873E-3,-1.6273787E-3,1.5017418E-2,4.675857E-3,1.17544755E-2,9.392354E-4,9.748467E-3,6.750923E-4,1.266647E-2,5.1945033E-3,1.3933467E-3,4.2807045E-3,-1.2249092E-2,-3.781966E-4,-6.6903755E-3,2.6518211E-3,-9.621648E-4,7.2570913E-3,-1.1721245E-2,-2.2290295E-3,-6.558762E-3,5.7670143E-3,-1.268311E-2,-2.1239724E-2,1.1701945E-3,2.942101E-2,-1.9629376E-2,-7.0321216E-4,5.378403E-2,1.2045802E-1,-4.0168227E-3,3.5080463E-2,9.293445E-3,2.7984926E-2,-2.7476202E-3,1.2161145E-2,-4.792891E-3,-5.388854E-2,1.7560433E-3,1.0896552E-2,-2.5279209E-2,7.7601853E-3,2.872404E-2,3.4734483E-3,9.2093736E-2,1.4758017E-2,2.6804328E-1,1.9092448E-2,3.5901233E-3,-9.1972394E-4,6.0466537E-3,3.0501122E-3,1.1678153E-2,2.5190765E-3,-2.41471E-2,1.6565664E-3,4.059938E-2,-2.2054033E-3,5.2024357E-2,1.0269871E-2,6.922953E-3,4.0869787E-2,5.0620902E-3,-4.498773E-3],"split_indices":[1,1,5,1,2,1,5,1,2,0,2,2,2,1,2,1,0,11,2,2,5,7,1,1,1,1,11,7,11,1,1,5,11,1,5,11,5,5,5,1,0,1,0,0,1,0,1,5,11,5,5,1,5,1,11,5,11,9,1,7,0,0,0,5,1,7,1,5,5,5,5,5,5,5,5,0,0,1,7,0,0,0,0,0,0,1,2,5,2,1,5,11,5,1,1,2,5,1,1,7,1,0,0,0,0,0,0,0,0,0,0,0,0,0,0,0,0,0,0,0,0,0,0,0,0,0,0,0,0,0,0,0,0,0,0,0,0,0,0,0,0,0,0,0,0,0,0,0,0,0,0,0,0,0,0,0,0,0,0,0,0,0,0,0,0,0,0,0,0,0,0],"split_type":[0,0,0,0,0,0,0,0,0,0,0,0,0,0,0,0,0,0,0,0,0,0,0,0,0,0,0,0,0,0,0,0,0,0,0,0,0,0,0,0,0,0,0,0,0,0,0,0,0,0,0,0,0,0,0,0,0,0,0,0,0,0,0,0,0,0,0,0,0,0,0,0,0,0,0,0,0,0,0,0,0,0,0,0,0,0,0,0,0,0,0,0,0,0,0,0,0,0,0,0,0,0,0,0,0,0,0,0,0,0,0,0,0,0,0,0,0,0,0,0,0,0,0,0,0,0,0,0,0,0,0,0,0,0,0,0,0,0,0,0,0,0,0,0,0,0,0,0,0,0,0,0,0,0,0,0,0,0,0,0,0,0,0,0,0,0,0,0,0,0,0],"sum_hessian":[7.912E3,3.747E3,4.165E3,1.558E3,2.189E3,4.4E1,4.121E3,9.48E2,6.1E2,1.4E1,2.175E3,2.1E1,2.3E1,1.19E2,4.002E3,9.4E2,8E0,1.4E1,5.96E2,1.811E3,3.64E2,4E0,1.7E1,7E0,1.6E1,4.7E1,7.2E1,3.41E3,5.92E2,1.3E2,8.1E2,9E0,5E0,4.27E2,1.69E2,8.17E2,9.94E2,2.63E2,1.01E2,3E0,1E0,1.3E1,4E0,1E0,6E0,6E0,1E1,1.8E1,2.9E1,2.9E1,4.3E1,2.771E3,6.39E2,8.2E1,5.1E2,1.25E2,5E0,7.58E2,5.2E1,7E0,2E0,2E0,3E0,3.88E2,3.9E1,3E1,1.39E2,3.6E2,4.57E2,6.16E2,3.78E2,2.21E2,4.2E1,7.2E1,2.9E1,1E0,2E0,5E0,8E0,3E0,1E0,2E0,4E0,9E0,1E0,1.1E1,7E0,1.8E1,1.1E1,6E0,2.3E1,3.4E1,9E0,4.16E2,2.355E3,2.4E1,6.15E2,3.2E1,5E1,1.62E2,3.48E2,8E0,1.17E2,1E0,4E0,6.51E2,1.07E2,2.2E1,3E1,5E0,2E0,4E0,3.84E2,1.8E1,2.1E1,9E0,2.1E1,6.2E1,7.7E1,5.3E1,3.07E2,4.28E2,2.9E1,5.05E2,1.11E2,7.2E1,3.06E2,2.14E2,7E0,2.4E1,1.8E1,6.8E1,4E0,1.3E1,1.6E1,4E0,1E0,6E0,2E0,5E0,6E0,5E0,2E0,1.7E1,1E0,6E0,5E0,5E0,1E0,8E0,1.5E1,1E0,3.3E1,1E0,8E0,2.86E2,1.3E2,1.518E3,8.37E2,1.1E1,1.3E1,1E0,6.14E2,5E0,2.7E1,1.5E1,3.5E1,1.54E2,8E0,3.28E2,2E1],"tree_param":{"num_deleted":"0","num_feature":"12","num_nodes":"171","size_leaf_vector":"0"}},{"base_weights":[8.4494956E-2,-8.668319E-2,2.419565E-1,3.7609555E-2,-1.7671429E-1,7.2233313E-1,2.2210158E-1,2.1111901E-4,1.290118E-1,-1.7010753E0,-1.68026E-1,2.0008428E0,5.3789526E-1,5.655522E-1,2.1151625E-1,1.0802296E0,-2.0237193E-3,4.7104082E-1,1.09762095E-1,1.5913999E-1,-2.0676281E0,-3.3644546E-2,-1.9993536E-1,5.5722556E0,7.1414673E-1,-1.6433313E-1,9.9419403E-1,-2.4541631E-2,9.890203E-1,8.756032E-2,2.3445089E-1,-6.0816206E-2,1.9618311E0,9.3676625E-3,-1.8059619E-1,4.1651618E-1,1.2966348E0,1.5412895E-1,1.7969552E-2,-2.6202357E0,-1.3830692E0,1.8774146E-2,-4.0998165E-2,-4.0975937E-1,-1.662823E-1,2.919349E0,8.559623E0,1.091642E0,2.507566E-1,-1.7224104E0,-1.105797E-3,2.232686E0,6.3345003E-1,1.6796818E-1,-7.579021E-1,1.3786249E0,1.0845977E-1,1.610552E-1,-6.01223E-2,2.9135162E-1,1.4762937E-1,-8.747832E-3,1.6610213E-1,-7.9541326E-2,-2.0878147E-1,5.474781E-1,2.6048502E-1,3.4631772E-3,1.9780278E-1,1.0353634E-1,-6.037897E-3,-9.673481E-2,-1.6691705E0,-3.724989E-2,2.13947E0,-3.0036026E-3,-4.573949E-2,-3.0922952E-1,-7.1784157E-1,6.900108E-1,-1.7501783E-1,4.9757805E0,1.3208818E0,6.0065216E-1,1.4953357E0,-1.4056645E-2,5.742045E-1,-2.1044827E0,-3.9331615E-2,-5.905435E-1,1.8336605E-1,1.4115273E0,4.9631553E0,3.8146955E-1,3.5361214E0,5.4472697E-1,1.07394375E-1,-3.264475E-1,-9.1761345E-1,2.9663146E-1,2.9397845E0,1.660893E0,-2.8092152E-1,1.19375445E-1,2.7073228E-1,4.2149007E-1,-1.0905299E-1,2.3873962E-1,4.4845507E-1,-1.8374064E0,1.4967908E-1,-3.4770167E-3,-1.4018993E-1,-2.108715E-1,1.8122058E-1,-1.2841588E-1,1.7450767E-2,-2.6121825E-1,-1.4889367E-1,3.5502756E-1,7.751905E-1,3.1751317E-1,-0E0,9.5188044E-2,-1.5557384E-1,6.199848E-1,1.8338697E-1,-1.4805419E-2,1.8849811E-1,1.0806926E-2,-1.7240937E-1,-4.856701E-3,-4.929446E-2,1.0969239E-2,-3.3690404E-2,-1.4046225E-1,-4.3768384E-2,-4.6180934E-1,1.8694383E-1,-7.9469335E-1,1.2668822E0,8.4449595E-1,-1.132408E0,-2.3401332E-1,-4.8245978E-2,2.1159947E-1,8.9775413E-1,4.2403474E-1,1.7700143E0,8.9224465E-2,-2.7942505E-1,-3.0099752E0,-8.921299E-1,-1.3797022E0,-1.5483187E-1,-6.6808695E-3,6.543431E-1,1.7980461E0,1.0131948E0,3.689402E0,6.895468E0,-5.320243E-1,1.2349658E0,2.86647E-1,1.3201153E1,-2.1759905E-2,1.2822466E0,-5.7301945E-3,4.1213512E-1,-2.0578296E0,-6.2698174E-1,2.0478551E0,-1.8717393E-2,3.4714167E0,1.3245641E0,4.8999202E-1,1.9588522E0,-4.9900025E-1,1.1861285E0,4.1816038E-1,1.0476298E-1,8.411471E-1,1.906962E-1,5.0252783E-1,-1.998669E-1,8.505499E-2,-1.4056794E-1,5.027162E-1,2.0420243E-1,1.0170082E0,4.036811E-1,2.0019385E-1,9.045434E-2],"categories":[],"categories_nodes":[],"categories_segments":[],"categories_sizes":[],"default_left":[true,true,true,true,true,true,true,true,true,true,true,true,true,true,true,true,true,true,true,false,true,true,true,true,true,true,true,true,true,true,true,false,false,true,true,true,false,true,true,false,true,true,true,true,true,true,false,true,true,true,true,true,true,true,true,true,true,true,true,true,true,true,true,true,true,true,true,true,true,true,true,false,false,true,false,true,true,true,true,true,true,false,false,true,true,true,false,true,false,true,true,true,true,true,true,true,true,false,true,true,true,true,true,true,true,true,true,true,true,false,true,false,false,false,false,false,false,false,false,false,false,false,false,false,false,false,false,false,false,false,false,false,false,false,false,false,false,false,false,false,false,false,false,false,false,false,false,false,false,false,false,false,false,false,false,false,false,false,false,false,false,false,false,false,false,false,false,false,false,false,false,false,false,false,false,false,false,false,false,false,false,false,false,false,false,false,false,false,false,false,false,false,false],"id":154,"left_children":[1,3,5,7,9,11,13,15,17,19,21,23,25,27,29,31,33,35,37,-1,39,41,43,45,47,49,51,53,55,57,59,-1,-1,61,63,65,-1,67,69,-1,71,73,75,77,79,81,-1,83,85,87,89,91,93,95,97,99,101,103,105,107,109,111,113,115,117,119,121,123,125,127,129,-1,-1,131,-1,133,135,137,139,141,143,-1,-1,145,147,149,-1,151,-1,153,155,157,159,161,163,165,167,-1,169,171,173,175,177,179,181,183,185,187,189,-1,191,-1,-1,-1,-1,-1,-1,-1,-1,-1,-1,-1,-1,-1,-1,-1,-1,-1,-1,-1,-1,-1,-1,-1,-1,-1,-1,-1,-1,-1,-1,-1,-1,-1,-1,-1,-1,-1,-1,-1,-1,-1,-1,-1,-1,-1,-1,-1,-1,-1,-1,-1,-1,-1,-1,-1,-1,-1,-1,-1,-1,-1,-1,-1,-1,-1,-1,-1,-1,-1,-1,-1,-1,-1,-1,-1,-1,-1,-1,-1,-1,-1,-1],"loss_changes":[2.1187643E2,4.2150265E1,3.8984116E1,5.4070396E0,2.8807526E1,3.7884026E1,1.4245163E1,2.7274613E0,2.9987059E0,8.546738E0,9.309452E0,9.202218E1,4.567366E1,2.9341839E1,1.0835129E1,2.4142532E0,2.2840085E0,8.9084196E-1,1.769537E0,0E0,2.6434822E0,1.6144213E-1,1.2363869E1,3.3772156E1,2.5718164E0,1.4301554E1,3.8059433E1,7.0157213E0,2.3372116E1,6.477222E0,1.588356E1,0E0,0E0,2.9963217E0,1.8213248E-1,4.177184E-1,0E0,1.9270787E0,2.9398638E-1,0E0,1.8838005E0,6.155489E0,6.525183E-2,7.416748E0,1.1352943E1,8.67605E0,0E0,1.32236E0,6.3881767E-1,3.3715477E0,5.623646E0,4.092141E1,4.8743103E1,8.68847E-1,5.944233E-1,7.9617065E1,1.3071113E1,1.8045654E0,4.684724E0,1.6025436E1,5.256666E0,6.527219E-1,6.354399E-1,7.50176E-2,1.4552426E-1,4.3259645E-1,1.719464E-1,9.717264E-1,1.3341999E0,3.184514E-1,3.1493828E-1,0E0,0E0,1.8785961E-2,0E0,1.8170374E-2,5.6064665E-2,1.3912163E1,9.379108E0,4.6317315E0,1.1198196E1,0E0,0E0,4.2172706E-1,9.9359894E-1,1.297968E-1,0E0,3.806057E0,0E0,4.147685E0,3.5313463E0,1.7131805E0,2.0313797E0,4.8828262E1,1.6605019E2,2.2555828E0,1.1901852E0,0E0,1.9616389E0,1.5688784E1,1.49999695E1,1.1568604E0,5.7331123E0,1.241158E0,4.923278E0,9.609628E-1,1.1079335E0,1.324221E1,1.2248581E1,0E0,3.8022728E0,0E0,0E0,0E0,0E0,0E0,0E0,0E0,0E0,0E0,0E0,0E0,0E0,0E0,0E0,0E0,0E0,0E0,0E0,0E0,0E0,0E0,0E0,0E0,0E0,0E0,0E0,0E0,0E0,0E0,0E0,0E0,0E0,0E0,0E0,0E0,0E0,0E0,0E0,0E0,0E0,0E0,0E0,0E0,0E0,0E0,0E0,0E0,0E0,0E0,0E0,0E0,0E0,0E0,0E0,0E0,0E0,0E0,0E0,0E0,0E0,0E0,0E0,0E0,0E0,0E0,0E0,0E0,0E0,0E0,0E0,0E0,0E0,0E0,0E0,0E0,0E0,0E0,0E0,0E0,0E0,0E0,0E0],"parents":[2147483647,0,0,1,1,2,2,3,3,4,4,5,5,6,6,7,7,8,8,9,9,10,10,11,11,12,12,13,13,14,14,15,15,16,16,17,17,18,18,20,20,21,21,22,22,23,23,24,24,25,25,26,26,27,27,28,28,29,29,30,30,33,33,34,34,35,35,37,37,38,38,40,40,41,41,42,42,43,43,44,44,45,45,47,47,48,48,49,49,50,50,51,51,52,52,53,53,54,54,55,55,56,56,57,57,58,58,59,59,60,60,61,61,62,62,63,63,64,64,65,65,66,66,67,67,68,68,69,69,70,70,73,73,75,75,76,76,77,77,78,78,79,79,80,80,83,83,84,84,85,85,87,87,89,89,90,90,91,91,92,92,93,93,94,94,95,95,96,96,98,98,99,99,100,100,101,101,102,102,103,103,104,104,105,105,106,106,107,107,108,108,110,110],"right_children":[2,4,6,8,10,12,14,16,18,20,22,24,26,28,30,32,34,36,38,-1,40,42,44,46,48,50,52,54,56,58,60,-1,-1,62,64,66,-1,68,70,-1,72,74,76,78,80,82,-1,84,86,88,90,92,94,96,98,100,102,104,106,108,110,112,114,116,118,120,122,124,126,128,130,-1,-1,132,-1,134,136,138,140,142,144,-1,-1,146,148,150,-1,152,-1,154,156,158,160,162,164,166,168,-1,170,172,174,176,178,180,182,184,186,188,190,-1,192,-1,-1,-1,-1,-1,-1,-1,-1,-1,-1,-1,-1,-1,-1,-1,-1,-1,-1,-1,-1,-1,-1,-1,-1,-1,-1,-1,-1,-1,-1,-1,-1,-1,-1,-1,-1,-1,-1,-1,-1,-1,-1,-1,-1,-1,-1,-1,-1,-1,-1,-1,-1,-1,-1,-1,-1,-1,-1,-1,-1,-1,-1,-1,-1,-1,-1,-1,-1,-1,-1,-1,-1,-1,-1,-1,-1,-1,-1,-1,-1,-1,-1],"split_conditions":[6.621175E-1,6.572582E-1,4.7983434E-2,4.4565028E-1,2.7272727E-2,7.6906526E-1,1.8427517E-2,2.7272727E-2,9.434642E-2,5.5555556E-2,5.5555556E-2,2.0909092E-1,8.2174015E-1,6.818182E-1,7.568615E-1,2.4097994E-1,4.3256068E-1,6.12069E-1,3.888889E-1,3.1827998E-3,1.6666667E-1,1.1307166E-1,1.5331292E-1,7.563675E-1,3.7630536E-2,2.7272727E-2,8.307456E-1,1.6213539E-1,8.349742E-1,7.281138E-1,8.3047175E-1,-1.216324E-3,3.923662E-2,3.989272E-1,5.5555556E-2,6.242424E-1,2.5932696E-2,2.7021277E-1,6.2553835E-1,-5.2404713E-2,2.777778E-1,1.09200574E-1,2.086207E-1,8.30303E-1,1.5979475E-1,7.290039E-1,1.7119245E-1,7.0994973E-1,7.339886E-1,4.4444448E-1,4.1296717E-4,5.0082594E-1,4.078142E-2,6.328772E-2,1.64296E-1,8.2552147E-1,1.3773857E-1,8.30303E-1,4.2424244E-1,8.2552147E-1,5.014404E-2,3.8835415E-1,8.2593434E-4,8.30303E-1,3.5344827E-1,3.888889E-1,2.777778E-1,6.242424E-1,3.3636364E-1,5.990199E-1,9.1951746E-1,-1.9346961E-3,-3.338341E-2,2.781779E-2,4.27894E-2,9.9787235E-1,1.4314008E-1,5.4137933E-1,5E-1,2.777778E-1,8.30303E-1,9.951561E-2,2.6417635E-2,6.848485E-1,4.1296717E-4,7.1917176E-1,1.148409E-2,8.0442405E-1,-7.866323E-4,1.4004913E-1,4.3488944E-1,5.181818E-1,3.3333334E-1,2.777778E-1,3.969697E-1,8.5365295E-1,1.5034209E-1,-6.5289494E-3,1.6528627E-1,7.554066E-1,3.888889E-1,1.2729564E-1,2.0255671E-1,3.3636364E-1,3.4344617E-1,7.4976736E-1,1.6666667E-1,7.664299E-1,4.2424244E-1,-3.6748126E-2,2.777778E-1,-6.9540336E-5,-2.8037985E-3,-4.21743E-3,3.6244115E-3,-2.5683176E-3,3.4901532E-4,-5.224365E-3,-2.9778734E-3,7.100551E-3,1.5503809E-2,6.350263E-3,-0E0,1.9037608E-3,-3.1114768E-3,1.2399696E-2,3.6677392E-3,-2.9610837E-4,3.7699621E-3,2.161385E-4,-3.4481874E-3,-9.713402E-5,-9.858892E-4,2.1938478E-4,-6.7380804E-4,-2.809245E-3,-8.7536767E-4,-9.236187E-3,3.7388764E-3,-1.5893867E-2,2.5337644E-2,1.6889919E-2,-2.264816E-2,-4.680266E-3,-9.649195E-4,4.2319894E-3,1.7955082E-2,8.480695E-3,3.5400286E-2,1.7844893E-3,-5.5885008E-3,-6.0199503E-2,-1.7842598E-2,-2.7594043E-2,-3.0966373E-3,-1.3361739E-4,1.3086862E-2,3.596092E-2,2.0263895E-2,7.378804E-2,1.3790937E-1,-1.0640486E-2,2.4699315E-2,5.7329396E-3,2.6402304E-1,-4.3519808E-4,2.5644932E-2,-1.14603885E-4,8.242702E-3,-4.115659E-2,-1.25396345E-2,4.09571E-2,-3.7434784E-4,6.942833E-2,2.649128E-2,9.79984E-3,3.917704E-2,-9.980005E-3,2.3722569E-2,8.363208E-3,2.0952595E-3,1.6822942E-2,3.8139238E-3,1.0050557E-2,-3.997338E-3,1.7010998E-3,-2.8113588E-3,1.0054324E-2,4.0840483E-3,2.0340163E-2,8.073621E-3,4.003877E-3,1.8090868E-3],"split_indices":[1,1,5,1,2,1,11,2,5,4,4,2,1,2,1,1,1,3,4,0,4,5,5,1,5,2,1,5,1,1,1,0,0,1,4,2,0,10,1,0,4,5,3,2,5,1,0,1,1,4,8,8,5,5,5,1,5,2,2,1,5,1,8,2,3,4,4,2,2,1,5,0,0,5,0,10,5,3,4,4,2,0,0,2,8,1,0,1,0,11,11,2,4,4,2,1,5,0,5,1,4,5,5,2,5,1,4,1,2,0,4,0,0,0,0,0,0,0,0,0,0,0,0,0,0,0,0,0,0,0,0,0,0,0,0,0,0,0,0,0,0,0,0,0,0,0,0,0,0,0,0,0,0,0,0,0,0,0,0,0,0,0,0,0,0,0,0,0,0,0,0,0,0,0,0,0,0,0,0,0,0,0,0,0,0,0,0,0,0,0,0,0,0],"split_type":[0,0,0,0,0,0,0,0,0,0,0,0,0,0,0,0,0,0,0,0,0,0,0,0,0,0,0,0,0,0,0,0,0,0,0,0,0,0,0,0,0,0,0,0,0,0,0,0,0,0,0,0,0,0,0,0,0,0,0,0,0,0,0,0,0,0,0,0,0,0,0,0,0,0,0,0,0,0,0,0,0,0,0,0,0,0,0,0,0,0,0,0,0,0,0,0,0,0,0,0,0,0,0,0,0,0,0,0,0,0,0,0,0,0,0,0,0,0,0,0,0,0,0,0,0,0,0,0,0,0,0,0,0,0,0,0,0,0,0,0,0,0,0,0,0,0,0,0,0,0,0,0,0,0,0,0,0,0,0,0,0,0,0,0,0,0,0,0,0,0,0,0,0,0,0,0,0,0,0,0,0,0,0,0,0,0,0,0,0,0,0,0,0],"sum_hessian":[7.86E3,3.766E3,4.094E3,1.582E3,2.184E3,1.62E2,3.932E3,1.123E3,4.59E2,1.2E1,2.172E3,2E1,1.42E2,1.17E2,3.815E3,2E0,1.121E3,2.4E1,4.35E2,2E0,1E1,4.17E2,1.755E3,5E0,1.5E1,5.6E1,8.6E1,4.9E1,6.8E1,5.96E2,3.219E3,1E0,1E0,1.054E3,6.7E1,2.3E1,1E0,2.93E2,1.42E2,5E0,5E0,5.1E1,3.66E2,2.42E2,1.513E3,3E0,2E0,8E0,7E0,5E0,5.1E1,1.9E1,6.7E1,3.9E1,1E1,4.7E1,2.1E1,3.98E2,1.98E2,1.944E3,1.275E3,9.45E2,1.09E2,1.5E1,5.2E1,1.2E1,1.1E1,6.6E1,2.27E2,3.1E1,1.11E2,1E0,4E0,5E1,1E0,4.1E1,3.25E2,1.83E2,5.9E1,1.5E1,1.498E3,1E0,2E0,4E0,4E0,4E0,3E0,4E0,1E0,1.2E1,3.9E1,1.5E1,4E0,6.2E1,5E0,5E0,3.4E1,3E0,7E0,2.8E1,1.9E1,4E0,1.7E1,2.89E2,1.09E2,1.8E1,1.8E2,1.457E3,4.87E2,1E0,1.274E3,9.09E2,3.6E1,4E0,1.05E2,1E1,5E0,2.7E1,2.5E1,7E0,5E0,9E0,2E0,4.2E1,2.4E1,7E0,2.2E2,1.3E1,1.8E1,1.01E2,1E1,1.4E1,3.6E1,2.8E1,1.3E1,6E0,3.19E2,1.4E2,4.3E1,5.7E1,2E0,1.4E1,1E0,1.022E3,4.76E2,2E0,2E0,1E0,3E0,3E0,1E0,2E0,2E0,4E0,8E0,2.8E1,1.1E1,7E0,8E0,3E0,1E0,3E1,3.2E1,4E0,1E0,3E0,2E0,2.5E1,9E0,1E0,6E0,4E0,2.4E1,1.4E1,5E0,1E0,3E0,1.5E1,2E0,1.3E1,2.76E2,1.3E1,9.6E1,1.6E1,2E0,2.5E1,1.55E2,1.68E2,1.289E3,3.5E1,4.52E2,6.87E2,5.87E2],"tree_param":{"num_deleted":"0","num_feature":"12","num_nodes":"193","size_leaf_vector":"0"}},{"base_weights":[9.666042E-2,1.6410664E0,9.130919E-2,4.0027103E0,-3.0262856E-2,3.4590855E-2,1.18587434E-1,6.089655E-1,6.6476083E0,4.2528095E0,-4.030113E-1,2.2267586E-2,1.2816118E-1,9.896775E-2,2.2370501E-1,1.5157072E-1,1.9324063E0,-5.9903994E-2,7.9116545E0,6.2038857E-1,-4.8983923E-1,-3.1096748E-1,2.7090797E-2,3.2301574E0,1.0354222E-1,2.0403886E-1,7.307291E-2,4.593585E-1,1.9010255E-1,-5.216325E-1,-3.8741592E-2,2.4030556E-1,-4.401581E-1,-2.7034206E-2,5.2665487E-2,4.911033E-1,9.217163E-2,-1.00717716E-1,2.2855662E-1,1.6784887E-1,6.372788E-2,3.0414012E-1,5.9471995E-1,1.8707438E-1,1.797183E0,-3.0203435E-1,-6.3959134E-1,1.0879269E-1,3.4349984E-1,-1.6927477E-2,-5.923659E-1,2.6031924E-2,-6.0863238E-2,6.7292936E-2,-9.216284E-2,-5.123395E-3,6.50325E-1,1.1516855E-1,1.287107E-2,1.7735952E-1,-1.7651032E-1,5.0664777E-1,2.1372947E-1,1.1325699E-2,2.244905E-1,8.473379E-2,2.6016884E-2,8.0525446E-1,7.241878E-3,1.5897575E-1,7.5510496E-1,1.7299278E-1,4.4766736E-1,-5.0334148E-2,1.9029182E-1,3.711986E-3,5.67165E-2,-4.3964185E-2,-1.0427879E-1,6.0569186E-2,4.4028637E-1,-1.4170153E-1,3.1060234E-1,4.6455958E-1,8.96259E-1,8.511014E-2,1.6712314E-1,-8.621076E-2,1.0358574E-1,1.2284652E-1,4.3402693E-1,-2.4277824E-1,1.3593684E-1,6.487476E-1,-2.1952188E-3,5.0708447E-2,2.3202205E-1,9.298145E-2,-7.394006E-2,1.4218956E-1,5.005522E-1,7.1450666E-2,2.3564136E-1,1.10553004E-1,-2.0845033E-2,4.4346118E-1,1.2199421E0,-7.696589E-2,5.476035E-2,-3.6569375E-1,6.1603606E-1,3.5531666E-2,8.33605E-1,1.4785887E-1,3.2887596E-1,1.1701487E0,4.5064177E-2],"categories":[],"categories_nodes":[],"categories_segments":[],"categories_sizes":[],"default_left":[true,true,true,true,true,true,true,true,true,false,true,true,true,true,true,false,false,false,false,false,true,true,true,false,true,true,true,true,true,true,false,true,true,true,true,true,true,true,true,true,true,true,true,true,false,false,false,true,false,false,false,true,true,true,true,false,true,true,true,true,true,true,true,true,true,true,true,true,true,true,true,true,true,false,false,false,false,false,false,false,false,false,false,false,false,false,false,false,false,false,false,false,false,false,false,false,false,false,false,false,false,false,false,false,false,false,false,false,false,false,false,false,false,false,false,false,false],"id":155,"left_children":[1,3,5,7,9,11,13,15,17,-1,19,21,23,25,27,-1,-1,-1,-1,-1,29,31,33,-1,35,37,39,41,43,45,-1,47,49,51,53,55,57,59,61,63,65,67,69,71,-1,-1,-1,73,-1,-1,-1,75,77,79,81,-1,83,85,87,89,91,93,95,97,99,101,103,105,107,109,111,113,115,-1,-1,-1,-1,-1,-1,-1,-1,-1,-1,-1,-1,-1,-1,-1,-1,-1,-1,-1,-1,-1,-1,-1,-1,-1,-1,-1,-1,-1,-1,-1,-1,-1,-1,-1,-1,-1,-1,-1,-1,-1,-1,-1,-1],"loss_changes":[6.541579E1,1.0798457E2,1.2215012E1,1.0027704E2,2.6593157E1,2.9549694E0,1.0985275E1,3.1011386E0,5.3969055E1,0E0,1.4620044E0,3.6429613E0,2.2624023E1,1.2219254E1,6.599991E0,0E0,0E0,0E0,0E0,0E0,1.9083643E-1,2.3408902E0,3.0950565E0,0E0,1.2824667E0,6.6470833E0,3.1872044E0,2.118969E0,3.433218E0,2.675333E-1,0E0,6.704044E-2,1.6843414E0,1.2887647E0,3.2182565E0,6.687424E-1,5.23504E-1,1.4084847E0,3.344345E0,2.8623743E0,2.5985909E0,7.326298E0,3.8140106E0,2.6563377E0,0E0,0E0,0E0,4.8421204E-2,0E0,0E0,0E0,1.9037716E-1,3.1795382E-1,3.4432158E0,2.792314E0,0E0,1.3109422E-1,3.404324E-1,5.904545E-1,1.7482623E-1,1.0961057E0,2.9983768E0,2.3220406E0,6.036558E-1,5.3593464E0,4.2162113E0,4.6581607E0,2.5464592E0,1.2646726E-1,3.755748E0,2.2560234E0,2.705185E0,1.082439E1,0E0,0E0,0E0,0E0,0E0,0E0,0E0,0E0,0E0,0E0,0E0,0E0,0E0,0E0,0E0,0E0,0E0,0E0,0E0,0E0,0E0,0E0,0E0,0E0,0E0,0E0,0E0,0E0,0E0,0E0,0E0,0E0,0E0,0E0,0E0,0E0,0E0,0E0,0E0,0E0,0E0,0E0,0E0,0E0],"parents":[2147483647,0,0,1,1,2,2,3,3,4,4,5,5,6,6,7,7,8,8,10,10,11,11,12,12,13,13,14,14,20,20,21,21,22,22,24,24,25,25,26,26,27,27,28,28,29,29,31,31,32,32,33,33,34,34,35,35,36,36,37,37,38,38,39,39,40,40,41,41,42,42,43,43,47,47,51,51,52,52,53,53,54,54,56,56,57,57,58,58,59,59,60,60,61,61,62,62,63,63,64,64,65,65,66,66,67,67,68,68,69,69,70,70,71,71,72,72],"right_children":[2,4,6,8,10,12,14,16,18,-1,20,22,24,26,28,-1,-1,-1,-1,-1,30,32,34,-1,36,38,40,42,44,46,-1,48,50,52,54,56,58,60,62,64,66,68,70,72,-1,-1,-1,74,-1,-1,-1,76,78,80,82,-1,84,86,88,90,92,94,96,98,100,102,104,106,108,110,112,114,116,-1,-1,-1,-1,-1,-1,-1,-1,-1,-1,-1,-1,-1,-1,-1,-1,-1,-1,-1,-1,-1,-1,-1,-1,-1,-1,-1,-1,-1,-1,-1,-1,-1,-1,-1,-1,-1,-1,-1,-1,-1,-1,-1,-1],"split_conditions":[2.7272727E-2,1.6666667E-1,1.6666667E-1,5.5555556E-2,9.5682657E-1,1.3137093E-1,9.212121E-1,7.090609E-2,5.629188E-1,8.5056186E-2,9.8790765E-1,1.8181819E-1,1.8181819E-1,5.181818E-1,7.125307E-2,3.0314145E-3,3.8648125E-2,-1.1980799E-3,1.5823309E-1,1.2407771E-2,4.4444448E-1,8.231776E-1,5.5555556E-2,6.460314E-2,2.0884521E-2,1.4742015E-2,2.6206896E-1,2.777778E-1,9.5862067E-1,2.777778E-1,-7.748318E-4,1.7815007E-2,5.5555556E-2,8.231776E-1,7.224138E-1,9.5682657E-1,9.9787235E-1,6E-2,7.985258E-2,7.5757575E-1,6.965602E-1,6.893617E-1,6.893617E-1,5.8854413E-1,3.594366E-2,-6.0406867E-3,-1.2791826E-2,5.5555556E-2,6.8699964E-3,-3.3854952E-4,-1.1847318E-2,3.9510223E-1,8.30303E-1,7.1034485E-1,9.9787235E-1,-1.024679E-4,1.4310345E-1,6.666666E-1,3.4520882E-1,1.166234E-1,5E-1,3.888889E-1,7.920965E-1,6.621622E-1,6.4496315E-1,6.621622E-1,2.777778E-1,3.5106385E-1,9.9999994E-2,3.888889E-1,7.920965E-1,6.189655E-1,2.777778E-1,-1.006683E-3,3.8058364E-3,7.423972E-5,1.13433E-3,-8.792837E-4,-2.0855756E-3,1.2113837E-3,8.805728E-3,-2.8340307E-3,6.212047E-3,9.291192E-3,1.792518E-2,1.7022028E-3,3.3424627E-3,-1.7242151E-3,2.0717147E-3,2.4569305E-3,8.680538E-3,-4.855565E-3,2.7187367E-3,1.2974952E-2,-4.3904376E-5,1.014169E-3,4.640441E-3,1.859629E-3,-1.4788011E-3,2.8437912E-3,1.0011043E-2,1.4290133E-3,4.712827E-3,2.2110601E-3,-4.1690064E-4,8.869223E-3,2.4398841E-2,-1.5393178E-3,1.0952071E-3,-7.313875E-3,1.2320721E-2,7.106333E-4,1.6672099E-2,2.9571773E-3,6.5775192E-3,2.3402974E-2,9.012835E-4],"split_indices":[2,4,4,4,6,7,2,7,6,0,6,2,2,2,11,0,0,0,0,0,4,6,4,0,11,11,3,4,3,4,0,7,4,6,3,6,10,10,11,2,11,10,10,7,0,0,0,4,0,0,0,6,2,3,10,0,3,2,11,7,4,4,6,11,11,11,4,10,3,4,6,3,4,0,0,0,0,0,0,0,0,0,0,0,0,0,0,0,0,0,0,0,0,0,0,0,0,0,0,0,0,0,0,0,0,0,0,0,0,0,0,0,0,0,0,0,0],"split_type":[0,0,0,0,0,0,0,0,0,0,0,0,0,0,0,0,0,0,0,0,0,0,0,0,0,0,0,0,0,0,0,0,0,0,0,0,0,0,0,0,0,0,0,0,0,0,0,0,0,0,0,0,0,0,0,0,0,0,0,0,0,0,0,0,0,0,0,0,0,0,0,0,0,0,0,0,0,0,0,0,0,0,0,0,0,0,0,0,0,0,0,0,0,0,0,0,0,0,0,0,0,0,0,0,0,0,0,0,0,0,0,0,0,0,0,0,0],"sum_hessian":[7.924E3,2.7E1,7.897E3,1.1E1,1.6E1,2.565E3,5.332E3,5E0,6E0,1E0,1.5E1,2.267E3,2.98E2,4.494E3,8.38E2,4E0,1E0,1E0,5E0,1E0,1.4E1,3.2E1,2.235E3,2E0,2.96E2,8.88E2,3.606E3,1.04E2,7.34E2,1.3E1,1E0,6E0,2.6E1,7.17E2,1.518E3,8E0,2.88E2,6.6E1,8.22E2,3.23E2,3.283E3,4.9E1,5.5E1,7.33E2,1E0,5E0,8E0,3E0,3E0,7E0,1.9E1,2.79E2,4.38E2,1.379E3,1.39E2,2E0,6E0,2.23E2,6.5E1,1.4E1,5.2E1,4.1E1,7.81E2,8.6E1,2.37E2,2.108E3,1.175E3,1.8E1,3.1E1,1.5E1,4E1,6.96E2,3.7E1,1E0,2E0,1.62E2,1.17E2,3.16E2,1.22E2,1.355E3,2.4E1,1.24E2,1.5E1,4E0,2E0,1.42E2,8.1E1,3.1E1,3.4E1,1.2E1,2E0,4.3E1,9E0,3.2E1,9E0,7.9E1,7.02E2,4.4E1,4.2E1,1.83E2,5.4E1,1.938E3,1.7E2,4.19E2,7.56E2,1E1,8E0,1.1E1,2E1,7E0,8E0,4E0,3.6E1,6E2,9.6E1,1.3E1,2.4E1],"tree_param":{"num_deleted":"0","num_feature":"12","num_nodes":"117","size_leaf_vector":"0"}},{"base_weights":[8.681135E-2,1.7328356E-1,6.644518E-2,1.1387059E-1,2.3260076E-1,1.4671713E-1,5.4416124E-2,2.705017E-1,7.272093E-2,4.9601993E-1,1.6560568E-1,5.593394E-2,2.0451549E-1,3.8390987E-2,9.24031E-2,5.169708E-1,-2.3671882E-1,9.309E-2,-1.8127461E-1,9.863389E-2,5.42311E-1,3.39547E-2,2.6208425E-1,3.7855208E-2,3.7458235E-1,5.099259E-1,1.8632853E-1,8.171257E-4,4.9078092E-2,7.2413325E-2,1.7420112E-1,4.312086E-1,3.0937703E0,-3.6048537E-1,2.407628E0,5.113926E-3,1.6685466E-1,1.9545706E-1,-3.5776895E-1,-5.678947E-3,7.313982E-1,6.134927E-1,2.8635257E-1,1.0758222E-1,-3.6260754E-2,1.3899478E-1,5.5908686E-1,6.951507E-2,-1.1309171E-1,5.363514E-4,7.768122E-1,7.784091E-1,1.3942419E-1,2.6816896E-1,1.0209722E-1,2.756181E-2,-1.2423351E-2,4.035067E-2,1.2266522E-1,6.3119434E-2,2.4827772E-1,1.531315E-1,1.0731845E0,1.404065E0,2.3174362E-1,4.47938E0,1.8537207E0,-1.4820244E0,1.286373E-2,4.189024E0,1.3441328E-2,5.6775875E-2,-4.384383E-1,7.475155E-1,1.3540567E-1,3.8142208E-2,9.9289334E-1,-2.7670833E-1,-9.823726E-1,2.0227051E-1,-9.408228E-2,3.5228416E-1,9.169089E-1,1.0114789E-1,6.382992E-1,1.2178436E-1,5.5740106E-1,-1.4533849E-1,1.8517753E-1,-7.5236714E-1,-2.303451E-2,-1.18035935E-1,1.6080867E-1,4.4421518E-1,1.3050525E0,1.6391829E-2,1.7828703E-1,-5.979756E-1,-4.711355E-2,-1.0112617E-1,3.2607037E-1,8.475559E-1,1.8279472E-1,4.7548586E-1,1.3707683E0,3.7505797E-1,-3.211482E-1,2.1384808E-1,4.7475812E-1,2.4919662E-1,4.9525812E-2,2.9544756E-1,1.9485895E-2,-3.5343643E-2,-4.1367505E-3,1.285637E-1,3.4450483E-2,3.6230558E-1,1.02061786E-1,7.089064E-2,-1.4053142E-1,6.3956606E-1,6.2000416E-2,2.2639783E-1,-1.2346595E-2,5.4873997E-1,1.6433183E0,2.4632172E-1,1.6396552E0,-2.820541E-2,6.5857583E-1,4.2703494E-1,2.8061352E0,-1.0459565E-1,7.26816E-1,-2.941159E-2,1.3425733E-1,1.0744924E-1,-6.793744E-1,1.9592139E0,-9.98935E-2,1.14180215E-1,8.3464754E-1,5.8274317E-1,-1.5619783E-1,-4.6086317E-1,9.337988E-2,-1.4293466E0,3.476965E-2,5.028981E-2,3.192323E-1,3.0447867E-2,-1.2689908E-1,1.6253397E-1,-0E0,5.820401E-1,7.631132E-1,-1.4632477E-1,3.1659955E-1,1.271409E-1,6.4352745E-1,2.1312453E-1,-2.2250175E-1,-1.0849621E-2,2.4775586E-1,-0E0,-1.3148924E0,1.9230751E-2,-1.6638398E-1,-4.848495E-1,2.0206036E-2,6.163295E-1,1.4311115E-1,2.3896018E-2,5.3688145E-1,3.2979255E0,8.55078E-1,1.7256263E-1,-2.9960329E-2,7.9195917E-1,1.3556302E-1,-8.782635E-3,-7.0522285E-1,-2.4774778E-1,5.751898E-2,-2.8552847E-2,-1.0882932E-1,4.0393493E-1,8.940795E-1,-1.6697973E-1,5.444281E-1,1.5984751E0,2.772786E-1,1.2307042E0,2.0047283E-1,9.5572203E-1,-8.040803E-1,2.7869746E-1,1.2511767E-1,5.299408E-2,6.207664E-1,-2.7652154E-2,4.479542E-1,-2.9429642E-2,2.1674038E-1,3.8904855E-1,-2.825021E-1,-6.838863E-3,4.6825625E-2,2.691868E-2,-4.8834316E-2,-3.0012792E-2,6.70495E-3,5.356368E-1,5.721255E-2,1.2869486E-2,6.61357E-2,2.691976E-1,9.455839E-1,-1.0624551E-1,1.4539072E-1,-2.8940039E-2,8.156632E-2,1.4436166E-1,-2.3099035E-1,-1.4879232E-2,2.19257E0,-6.275746E-1,1.5302698E-1,1.8603042E-1,5.1935613E-1,7.108133E-2,-1.3118982E-1],"categories":[],"categories_nodes":[],"categories_segments":[],"categories_sizes":[],"default_left":[true,true,true,true,true,true,true,true,true,true,true,true,true,true,true,true,true,true,true,true,true,true,true,true,true,true,true,true,true,true,true,true,true,true,true,true,true,true,true,true,true,true,true,true,true,true,true,true,true,true,true,true,true,true,true,true,true,true,true,true,true,true,true,true,true,false,true,false,true,false,false,true,true,true,true,true,false,true,true,true,true,false,false,true,true,true,true,true,true,true,true,true,true,true,true,true,true,true,true,true,false,true,false,true,true,true,true,true,true,true,true,true,true,true,true,true,true,true,true,true,true,true,true,true,true,false,false,false,false,false,false,false,false,false,false,false,false,false,false,false,false,false,false,false,false,false,false,false,false,false,false,false,false,false,false,false,false,false,false,false,false,false,false,false,false,false,false,false,false,false,false,false,false,false,false,false,false,false,false,false,false,false,false,false,false,false,false,false,false,false,false,false,false,false,false,false,false,false,false,false,false,false,false,false,false,false,false,false,false,false,false,false,false,false,false,false,false,false,false,false,false,false,false,false,false,false,false,false,false,false,false,false,false],"id":156,"left_children":[1,3,5,7,9,11,13,15,17,19,21,23,25,27,29,31,33,35,37,39,41,43,45,47,49,51,53,55,57,59,61,63,65,67,69,71,73,75,77,79,81,83,85,87,89,91,93,95,97,99,101,103,105,107,109,111,113,115,117,119,121,123,125,127,129,-1,131,-1,133,-1,-1,135,137,139,141,143,-1,145,147,149,151,-1,-1,153,155,157,159,161,163,165,167,169,171,173,175,177,179,181,183,185,-1,187,-1,189,191,193,195,197,199,201,203,205,207,209,211,213,215,217,219,221,223,225,227,229,231,-1,-1,-1,-1,-1,-1,-1,-1,-1,-1,-1,-1,-1,-1,-1,-1,-1,-1,-1,-1,-1,-1,-1,-1,-1,-1,-1,-1,-1,-1,-1,-1,-1,-1,-1,-1,-1,-1,-1,-1,-1,-1,-1,-1,-1,-1,-1,-1,-1,-1,-1,-1,-1,-1,-1,-1,-1,-1,-1,-1,-1,-1,-1,-1,-1,-1,-1,-1,-1,-1,-1,-1,-1,-1,-1,-1,-1,-1,-1,-1,-1,-1,-1,-1,-1,-1,-1,-1,-1,-1,-1,-1,-1,-1,-1,-1,-1,-1,-1,-1,-1,-1,-1,-1,-1,-1,-1,-1],"loss_changes":[1.3893749E1,5.287815E0,6.1639805E0,4.837573E0,1.3240192E1,4.359823E0,3.3799572E0,1.958871E1,3.089591E0,2.775257E0,7.6179447E0,1.8577955E0,2.7819138E0,1.5690904E0,2.6875057E0,2.278271E1,1.706073E1,3.5816455E0,2.973412E0,1.0898349E0,2.4125175E0,1.3171687E0,1.2625351E1,1.4707342E0,2.5966368E0,2.769146E0,3.2967796E0,3.0710953E-1,1.9505324E0,2.1565433E0,6.05204E0,1.9726055E1,2.868332E0,2.0684502E1,9.87352E0,5.7850213E0,5.438102E0,1.7707778E0,1.4271991E0,2.683011E-1,3.8293004E-2,1.3193665E0,1.320729E0,2.449645E0,1.2176006E0,1.3824844E0,8.465029E0,1.4658685E0,1.6876345E0,3.230922E-1,2.838359E-1,2.6871824E0,1.3794427E0,2.6870346E0,1.8269758E0,6.1521167E-1,1.0942165E-1,1.41258E0,1.5725398E0,1.9953661E0,4.8116927E0,3.839203E0,1.8607569E0,4.566166E0,9.483329E0,0E0,2.72499E0,0E0,3.165026E0,0E0,0E0,1.5142512E0,3.4959846E0,1.5836257E1,4.189528E0,1.3417852E0,0E0,1.8824658E0,1.5519817E0,6.640704E-2,4.4893846E-2,0E0,0E0,3.3495106E-2,5.442505E-1,1.0276979E0,3.817048E-1,8.273161E-1,1.1737359E0,9.846189E-1,7.807004E-1,9.902763E-1,1.7843599E0,3.428259E0,1.0957066E1,1.2440162E0,2.1358502E0,3.879578E-1,1.0011308E0,1.1038706E-3,0E0,1.2405872E-2,0E0,5.376928E-1,1.15345E0,1.1421905E0,2.9263015E0,1.0950747E0,3.0790062E0,3.440075E0,2.3196397E0,4.889837E-1,2.0171675E-1,1.2954506E-1,1.2000329E-1,4.9286833E0,1.7431874E0,1.2735941E0,2.6893616E0,1.2946606E0,1.2064214E0,2.1724344E1,2.8708227E0,2.5515509E0,9.690132E-1,0E0,0E0,0E0,0E0,0E0,0E0,0E0,0E0,0E0,0E0,0E0,0E0,0E0,0E0,0E0,0E0,0E0,0E0,0E0,0E0,0E0,0E0,0E0,0E0,0E0,0E0,0E0,0E0,0E0,0E0,0E0,0E0,0E0,0E0,0E0,0E0,0E0,0E0,0E0,0E0,0E0,0E0,0E0,0E0,0E0,0E0,0E0,0E0,0E0,0E0,0E0,0E0,0E0,0E0,0E0,0E0,0E0,0E0,0E0,0E0,0E0,0E0,0E0,0E0,0E0,0E0,0E0,0E0,0E0,0E0,0E0,0E0,0E0,0E0,0E0,0E0,0E0,0E0,0E0,0E0,0E0,0E0,0E0,0E0,0E0,0E0,0E0,0E0,0E0,0E0,0E0,0E0,0E0,0E0,0E0,0E0,0E0,0E0,0E0,0E0,0E0,0E0,0E0,0E0,0E0,0E0,0E0,0E0],"parents":[2147483647,0,0,1,1,2,2,3,3,4,4,5,5,6,6,7,7,8,8,9,9,10,10,11,11,12,12,13,13,14,14,15,15,16,16,17,17,18,18,19,19,20,20,21,21,22,22,23,23,24,24,25,25,26,26,27,27,28,28,29,29,30,30,31,31,32,32,33,33,34,34,35,35,36,36,37,37,38,38,39,39,40,40,41,41,42,42,43,43,44,44,45,45,46,46,47,47,48,48,49,49,50,50,51,51,52,52,53,53,54,54,55,55,56,56,57,57,58,58,59,59,60,60,61,61,62,62,63,63,64,64,66,66,68,68,71,71,72,72,73,73,74,74,75,75,77,77,78,78,79,79,80,80,83,83,84,84,85,85,86,86,87,87,88,88,89,89,90,90,91,91,92,92,93,93,94,94,95,95,96,96,97,97,98,98,99,99,101,101,103,103,104,104,105,105,106,106,107,107,108,108,109,109,110,110,111,111,112,112,113,113,114,114,115,115,116,116,117,117,118,118,119,119,120,120,121,121,122,122,123,123,124,124],"right_children":[2,4,6,8,10,12,14,16,18,20,22,24,26,28,30,32,34,36,38,40,42,44,46,48,50,52,54,56,58,60,62,64,66,68,70,72,74,76,78,80,82,84,86,88,90,92,94,96,98,100,102,104,106,108,110,112,114,116,118,120,122,124,126,128,130,-1,132,-1,134,-1,-1,136,138,140,142,144,-1,146,148,150,152,-1,-1,154,156,158,160,162,164,166,168,170,172,174,176,178,180,182,184,186,-1,188,-1,190,192,194,196,198,200,202,204,206,208,210,212,214,216,218,220,222,224,226,228,230,232,-1,-1,-1,-1,-1,-1,-1,-1,-1,-1,-1,-1,-1,-1,-1,-1,-1,-1,-1,-1,-1,-1,-1,-1,-1,-1,-1,-1,-1,-1,-1,-1,-1,-1,-1,-1,-1,-1,-1,-1,-1,-1,-1,-1,-1,-1,-1,-1,-1,-1,-1,-1,-1,-1,-1,-1,-1,-1,-1,-1,-1,-1,-1,-1,-1,-1,-1,-1,-1,-1,-1,-1,-1,-1,-1,-1,-1,-1,-1,-1,-1,-1,-1,-1,-1,-1,-1,-1,-1,-1,-1,-1,-1,-1,-1,-1,-1,-1,-1,-1,-1,-1,-1,-1,-1,-1,-1,-1],"split_conditions":[2.6206896E-1,7.5757575E-1,5.181818E-1,9.6551724E-2,1.8427517E-2,1.6666667E-1,8.30303E-1,2.777778E-1,8.2186735E-1,5.5555556E-2,2.0172414E-1,4.9310344E-1,1.2389015E-3,9.5682657E-1,6.034483E-1,3.3636364E-1,5.8854413E-1,3.6977887E-1,5.0082594E-1,1.3137093E-1,3.888889E-1,1.4619164E-1,2.777778E-1,4.2413792E-1,5.5555556E-2,6.621622E-1,6.0565114E-1,6.242424E-1,5E-1,5.8854413E-1,6.1111116E-1,2.7272727E-2,3.095823E-1,2.7272727E-2,1.5454546E-1,3.1941032E-1,4.1296717E-4,3.888889E-1,6.545454E-1,8.231776E-1,1.4310345E-1,3.9510223E-1,5E-1,1.6666667E-1,4.1296717E-4,1.3390663E-1,8.2186735E-1,4.0172416E-1,4.3793103E-1,7.090609E-2,6.5970516E-1,6.068796E-1,3.888889E-1,4.95086E-1,3.4655172E-1,3.0689657E-1,6.666666E-1,1.2389015E-3,2.7518427E-1,5.4310346E-1,1.4619164E-1,7.1034485E-1,9.212121E-1,6.3859776E-2,1.6666667E-1,8.95876E-2,1.6666667E-1,-2.9640488E-2,3.3636364E-1,8.3780475E-2,2.6882655E-4,1.3793103E-1,9.8790765E-1,4.95086E-1,5E-1,1.6666667E-1,1.9857867E-2,2.3103449E-1,2.777778E-1,1.4310345E-1,9.9999994E-2,7.045683E-3,1.8338177E-2,1.4310345E-1,1.4310345E-1,9.9999994E-2,9.689189E-1,5.0082594E-1,9.8790765E-1,9.212121E-1,1.362069E-1,8.30303E-1,5.0041294E-1,7.920965E-1,2.3620689E-1,2.063882E-1,1.2389015E-3,5.5555556E-2,4.127764E-1,2.607362E-2,6.521407E-3,9.689189E-1,3.6558944E-3,3E-1,4.2413792E-1,3.7241378E-1,8.231776E-1,4.2424244E-1,9.8790765E-1,6.830467E-1,4.586207E-1,7.764128E-1,5.818182E-1,5.5555556E-2,1.3484347E-1,3.7931034E-1,5.672414E-1,4.2068964E-1,3.6551723E-1,5.5555556E-2,9.8790765E-1,3.327586E-1,2.9137933E-1,9.533169E-1,2.777778E-1,1.0974799E-2,3.2866366E-2,4.9264343E-3,3.2793105E-2,-5.641082E-4,1.3171516E-2,8.540698E-3,5.61227E-2,-2.091913E-3,1.4536319E-2,-5.882318E-4,2.6851466E-3,2.1489847E-3,-1.3587488E-2,3.9184276E-2,-1.99787E-3,2.2836043E-3,1.669295E-2,1.1654863E-2,-3.1239565E-3,-9.217263E-3,1.8675975E-3,-2.858693E-2,6.95393E-4,1.0057961E-3,6.384646E-3,6.089573E-4,-2.5379816E-3,3.2506792E-3,-0E0,1.1640801E-2,1.5262264E-2,-2.9264954E-3,6.331991E-3,2.5428177E-3,1.2870548E-2,4.2624907E-3,-4.450035E-3,-2.1699241E-4,4.955117E-3,-0E0,-2.6297847E-2,3.84615E-4,-3.3276796E-3,-9.69699E-3,4.041207E-4,1.232659E-2,2.862223E-3,4.7792034E-4,1.0737629E-2,6.595851E-2,1.710156E-2,3.4512526E-3,-5.9920654E-4,1.5839184E-2,2.7112602E-3,-1.756527E-4,-1.4104457E-2,-4.9549555E-3,1.1503797E-3,-5.710569E-4,-2.1765863E-3,8.078698E-3,1.7881589E-2,-3.3395945E-3,1.0888562E-2,3.1969503E-2,5.545572E-3,2.4614083E-2,4.0094564E-3,1.911444E-2,-1.6081605E-2,5.5739493E-3,2.5023534E-3,1.0598815E-3,1.2415328E-2,-5.5304304E-4,8.959084E-3,-5.8859284E-4,4.3348074E-3,7.7809705E-3,-5.650042E-3,-1.3677725E-4,9.365125E-4,5.383736E-4,-9.766862E-4,-6.0025585E-4,1.34099E-4,1.0712735E-2,1.144251E-3,2.573897E-4,1.3227139E-3,5.383952E-3,1.8911676E-2,-2.1249102E-3,2.9078142E-3,-5.7880074E-4,1.6313264E-3,2.8872332E-3,-4.619807E-3,-2.9758463E-4,4.3851398E-2,-1.2551492E-2,3.0605395E-3,3.7206083E-3,1.0387123E-2,1.4216267E-3,-2.6237965E-3],"split_indices":[3,2,2,3,11,4,2,4,11,4,3,3,8,6,3,2,7,11,8,7,4,11,4,3,4,11,11,2,4,7,4,2,11,2,2,11,8,4,2,6,3,6,4,4,8,11,11,3,3,7,11,11,4,11,3,3,2,8,11,3,11,3,2,9,4,0,4,0,2,0,0,3,6,11,4,4,0,3,4,3,3,0,0,3,3,3,6,8,6,2,3,2,8,6,3,11,8,4,11,7,0,6,0,3,3,3,6,2,6,11,3,11,2,4,6,3,3,3,3,4,6,3,3,11,4,0,0,0,0,0,0,0,0,0,0,0,0,0,0,0,0,0,0,0,0,0,0,0,0,0,0,0,0,0,0,0,0,0,0,0,0,0,0,0,0,0,0,0,0,0,0,0,0,0,0,0,0,0,0,0,0,0,0,0,0,0,0,0,0,0,0,0,0,0,0,0,0,0,0,0,0,0,0,0,0,0,0,0,0,0,0,0,0,0,0,0,0,0,0,0,0,0,0,0,0,0,0,0,0,0,0,0,0],"split_type":[0,0,0,0,0,0,0,0,0,0,0,0,0,0,0,0,0,0,0,0,0,0,0,0,0,0,0,0,0,0,0,0,0,0,0,0,0,0,0,0,0,0,0,0,0,0,0,0,0,0,0,0,0,0,0,0,0,0,0,0,0,0,0,0,0,0,0,0,0,0,0,0,0,0,0,0,0,0,0,0,0,0,0,0,0,0,0,0,0,0,0,0,0,0,0,0,0,0,0,0,0,0,0,0,0,0,0,0,0,0,0,0,0,0,0,0,0,0,0,0,0,0,0,0,0,0,0,0,0,0,0,0,0,0,0,0,0,0,0,0,0,0,0,0,0,0,0,0,0,0,0,0,0,0,0,0,0,0,0,0,0,0,0,0,0,0,0,0,0,0,0,0,0,0,0,0,0,0,0,0,0,0,0,0,0,0,0,0,0,0,0,0,0,0,0,0,0,0,0,0,0,0,0,0,0,0,0,0,0,0,0,0,0,0,0,0,0,0,0,0,0,0,0,0,0,0,0,0,0,0,0,0,0],"sum_hessian":[7.893E3,1.504E3,6.389E3,7.52E2,7.52E2,8.32E2,5.557E3,1.56E2,5.96E2,1.52E2,6E2,3.24E2,5.08E2,3.909E3,1.648E3,1.05E2,5.1E1,5.52E2,4.4E1,1.6E1,1.36E2,2.54E2,3.46E2,3.07E2,1.7E1,2.8E1,4.8E2,8.66E2,3.043E3,1.325E3,3.23E2,1.02E2,3E0,4.9E1,2E0,2.52E2,3E2,1.4E1,3E1,1.4E1,2E0,1.06E2,3E1,1.24E2,1.3E2,2.45E2,1.01E2,2.54E2,5.3E1,9E0,8E0,1.6E1,1.2E1,2.43E2,2.37E2,2.87E2,5.79E2,2.721E3,3.22E2,1.259E3,6.6E1,3.16E2,7E0,1.7E1,8.5E1,1E0,2E0,1.2E1,3.7E1,1E0,1E0,2.26E2,2.6E1,1.5E1,2.85E2,1.2E1,2E0,2.7E1,3E0,4E0,1E1,1E0,1E0,5E0,1.01E2,1.9E1,1.1E1,2.9E1,9.5E1,2E0,1.28E2,1.9E1,2.26E2,8.8E1,1.3E1,1.71E2,8.3E1,6E0,4.7E1,7E0,2E0,7E0,1E0,1.1E1,5E0,8E0,4E0,1.93E2,5E1,6.2E1,1.75E2,8E0,2.79E2,1.53E2,4.26E2,1.7E2,2.551E3,2.5E1,2.97E2,1.213E3,4.6E1,2.1E1,4.5E1,2.19E2,9.7E1,4E0,3E0,3E0,1.4E1,5.3E1,3.2E1,1E0,1E0,3.2E1,5E0,1.07E2,1.19E2,8E0,1.8E1,6E0,9E0,2.77E2,8E0,3E0,9E0,1.8E1,9E0,2E0,1E0,2E0,2E0,2E0,8E0,3E0,2E0,7.1E1,3E1,8E0,1.1E1,2E0,9E0,5E0,2.4E1,2.3E1,7.2E1,1E0,1E0,9.9E1,2.9E1,5E0,1.4E1,8E0,2.18E2,1.6E1,7.2E1,2E0,1.1E1,3.9E1,1.32E2,5E0,7.8E1,1E0,5E0,1.6E1,3.1E1,1E0,6E0,1E0,6E0,1E0,1E1,4E0,1E0,1E0,7E0,1E0,3E0,1.11E2,8.2E1,1.3E1,3.7E1,2.6E1,3.6E1,1.19E2,5.6E1,7E0,1E0,1.42E2,1.37E2,2.7E1,1.26E2,1.26E2,3E2,2.5E1,1.45E2,1.518E3,1.033E3,2.2E1,3E0,5.1E1,2.46E2,1.17E2,1.096E3,1.1E1,3.5E1,1.5E1,6E0,5E0,4E1,1.93E2,2.6E1,5.7E1,4E1],"tree_param":{"num_deleted":"0","num_feature":"12","num_nodes":"233","size_leaf_vector":"0"}},{"base_weights":[8.69795E-2,-8.780197E-2,2.4748805E-1,3.5441566E-2,-1.7354994E-1,4.68293E0,2.3082906E-1,-6.753373E-4,1.3191149E-1,-9.3946004E-1,-1.492225E-1,8.555107E0,1.0863032E0,8.7697655E-2,2.635518E-1,9.759572E-3,-1.8198356E-1,6.0087824E-1,1.2115479E-1,1.1255927E-2,-1.163146E0,-1.3863249E-1,-5.157682E-1,2.1380222E1,2.4063554E0,-1.2356035E1,3.4831202E0,-7.344653E-1,9.020448E-2,6.752403E-1,2.4913695E-1,-1.0409088E-2,1.6665594E-1,-1.3523816E-1,-2.3795821E-1,3.054802E-1,1.4372514E0,9.733536E-2,2.8775355E-1,1.2570713E-1,-1.1381277E-2,-1.8876843E0,-9.4764954E-1,-1.5707749E-1,2.8067392E-1,-6.355207E-1,1.5976213E-1,8.763774E0,2.8639254E1,4.6163103E-1,8.113783E0,-5.351769E-1,6.3094044E0,1.813167E0,8.71163E-2,5.631687E-1,5.8717093E0,2.909741E-1,1.5625262E-1,-5.3182924E-3,-1.5807122E-1,3.6423802E-1,1.3750747E-1,-1.7621872E-1,-3.2991633E-2,-3.1376442E-1,-1.361224E-1,4.8150267E-2,8.4387493E-1,2.723533E-1,7.5833455E-2,5.117034E-1,3.1664018E-2,-2.0391706E-2,5.05925E-2,-2.7072048E0,-1.3842782E0,-8.2985073E-1,-1.9406542E0,-1.4427339E-1,-6.24777E-1,-1.7440802E-1,5.5338645E-1,-5.856666E-3,-8.7120944E-1,9.544105E-1,-1.3617432E0,4.126195E0,-1.046187E0,6.3921654E-1,-2.4671352E0,2.148453E-2,1.1493975E-1,2.0794702E0,3.881318E-1,-2.6845577E0,1.2970289E1,2.1967009E-1,5.1975733E-1,2.4783224E-1,6.7249864E-2,-1.3712865E-2,1.8582447E-1,-1.0718294E-1,-3.1779262E-1,4.5621422E-1,-8.221963E-3,-8.4464145E-1,1.496411E-1,-1.0192584E-1,-2.0343754E-1,3.134398E-2,-9.793891E-2,-3.2683524E-1,-8.410386E-2,-1.6307342E-1,1.1628444E-1,-6.732803E-2,2.1234809E-1,2.0466053E-1,5.142648E-1,1.3923036E-1,1.3746968E-2,5.443317E-1,7.8232095E-2,7.78166E-2,-1.8403769E-1,-0E0,-2.2830173E-2,-1.3794285E-1,-1.7683339E0,-8.967188E-1,1.2892437E0,-1.5352984E-1,2.4612787E-1,-7.688028E-1,3.1165475E-1,1.28339995E-2,-6.578672E-1,-1.2762299E0,7.04522E-1,4.313017E-3,-6.488397E-2,-9.359915E-1,2.281121E-1,1.241994E0,2.778358E-1,-1.8477343E0,6.0738945E-1,1.5350594E-1,-3.909769E-2,-6.763367E-1,1.18375994E-1,3.6385014E0,6.548554E-1,-2.1639001E-1,7.971302E-1,2.4428082E-1,-7.7402433E-3,9.3372685E-1,3.8865215E-1,1.2419593E0,2.1997674E-1,-8.765097E-1,8.6842656E-2],"categories":[],"categories_nodes":[],"categories_segments":[],"categories_sizes":[],"default_left":[true,true,true,true,true,true,true,true,true,true,true,true,true,true,true,true,true,true,true,true,true,true,true,true,true,false,true,false,true,true,true,true,true,true,true,true,false,true,true,false,true,true,true,true,true,true,true,false,false,true,false,true,false,false,true,true,true,true,true,true,true,true,true,true,true,true,true,true,false,true,true,true,true,true,false,false,true,true,false,true,true,true,true,true,true,true,false,false,true,false,false,true,true,true,true,false,false,true,true,true,true,false,false,false,false,false,false,false,false,false,false,false,false,false,false,false,false,false,false,false,false,false,false,false,false,false,false,false,false,false,false,false,false,false,false,false,false,false,false,false,false,false,false,false,false,false,false,false,false,false,false,false,false,false,false,false,false,false,false,false,false,false,false,false,false],"id":157,"left_children":[1,3,5,7,9,11,13,15,17,19,21,23,25,27,29,31,33,35,37,39,41,43,45,47,49,-1,51,-1,53,55,57,59,61,63,65,67,-1,69,71,-1,73,75,77,79,81,83,85,-1,-1,87,-1,89,-1,-1,91,93,95,97,99,101,103,105,107,109,111,113,115,117,-1,119,121,123,125,127,-1,-1,129,131,-1,133,135,137,139,141,143,145,-1,-1,147,-1,-1,149,151,153,155,-1,-1,157,159,161,163,-1,-1,-1,-1,-1,-1,-1,-1,-1,-1,-1,-1,-1,-1,-1,-1,-1,-1,-1,-1,-1,-1,-1,-1,-1,-1,-1,-1,-1,-1,-1,-1,-1,-1,-1,-1,-1,-1,-1,-1,-1,-1,-1,-1,-1,-1,-1,-1,-1,-1,-1,-1,-1,-1,-1,-1,-1,-1,-1,-1,-1,-1,-1,-1],"loss_changes":[2.208313E2,3.982733E1,3.027647E2,5.389628E0,4.1345657E1,2.1030911E2,1.9135605E1,2.1321065E0,2.0908527E0,1.4552715E1,8.329342E0,5.6081024E2,2.827199E2,1.5820236E0,1.9676544E1,3.3707728E0,1.4442778E-1,2.1346862E0,1.6214252E0,3.665295E-2,8.002541E0,1.621074E1,4.9214096E0,1.2947595E2,5.7826828E1,0E0,8.449352E1,0E0,3.9604888E0,6.422589E1,1.2473282E1,7.065095E-1,6.74927E-1,1.3893849E-1,1.9034863E-1,9.897426E-1,0E0,1.3479235E0,2.9308825E0,0E0,6.2419735E-3,3.78014E0,4.492363E0,1.1973846E1,1.1000353E1,7.603918E0,1.1712333E1,0E0,0E0,2.5428034E1,0E0,8.115212E0,0E0,0E0,1.3820252E0,2.8979118E1,1.5348691E2,3.6106796E1,8.135353E0,1.4622903E0,2.3725629E-1,5.3292656E-1,1.2994139E0,3.7935853E-2,4.515122E-2,3.1000733E-2,9.0890884E-2,1.07965685E-1,0E0,5.987587E-1,1.2659136E0,3.635087E-1,2.4550492E-1,5.678809E-4,0E0,0E0,3.8803825E0,5.9534664E0,0E0,7.0701027E0,7.279522E0,3.029491E0,1.5592501E1,9.561532E-3,2.7400494E0,1.0955648E0,0E0,0E0,4.810195E0,0E0,0E0,1.8138824E0,1.4661651E0,2.4316051E1,2.462585E1,0E0,0E0,9.464348E0,2.8426102E1,1.3521694E1,9.3951645E0,0E0,0E0,0E0,0E0,0E0,0E0,0E0,0E0,0E0,0E0,0E0,0E0,0E0,0E0,0E0,0E0,0E0,0E0,0E0,0E0,0E0,0E0,0E0,0E0,0E0,0E0,0E0,0E0,0E0,0E0,0E0,0E0,0E0,0E0,0E0,0E0,0E0,0E0,0E0,0E0,0E0,0E0,0E0,0E0,0E0,0E0,0E0,0E0,0E0,0E0,0E0,0E0,0E0,0E0,0E0,0E0,0E0,0E0,0E0,0E0,0E0,0E0,0E0,0E0],"parents":[2147483647,0,0,1,1,2,2,3,3,4,4,5,5,6,6,7,7,8,8,9,9,10,10,11,11,12,12,13,13,14,14,15,15,16,16,17,17,18,18,19,19,20,20,21,21,22,22,23,23,24,24,26,26,28,28,29,29,30,30,31,31,32,32,33,33,34,34,35,35,37,37,38,38,40,40,41,41,42,42,43,43,44,44,45,45,46,46,49,49,51,51,54,54,55,55,56,56,57,57,58,58,59,59,60,60,61,61,62,62,63,63,64,64,65,65,66,66,67,67,69,69,70,70,71,71,72,72,73,73,76,76,77,77,79,79,80,80,81,81,82,82,83,83,84,84,85,85,88,88,91,91,92,92,93,93,94,94,97,97,98,98,99,99,100,100],"right_children":[2,4,6,8,10,12,14,16,18,20,22,24,26,28,30,32,34,36,38,40,42,44,46,48,50,-1,52,-1,54,56,58,60,62,64,66,68,-1,70,72,-1,74,76,78,80,82,84,86,-1,-1,88,-1,90,-1,-1,92,94,96,98,100,102,104,106,108,110,112,114,116,118,-1,120,122,124,126,128,-1,-1,130,132,-1,134,136,138,140,142,144,146,-1,-1,148,-1,-1,150,152,154,156,-1,-1,158,160,162,164,-1,-1,-1,-1,-1,-1,-1,-1,-1,-1,-1,-1,-1,-1,-1,-1,-1,-1,-1,-1,-1,-1,-1,-1,-1,-1,-1,-1,-1,-1,-1,-1,-1,-1,-1,-1,-1,-1,-1,-1,-1,-1,-1,-1,-1,-1,-1,-1,-1,-1,-1,-1,-1,-1,-1,-1,-1,-1,-1,-1,-1,-1,-1,-1],"split_conditions":[6.621175E-1,6.572582E-1,2.7272727E-2,4.4565028E-1,6.724138E-2,8.349742E-1,6.3859776E-2,4.3256068E-1,3.3636364E-1,5.5555556E-2,9.7344255E-1,1.6666667E-1,1.6666667E-1,5E-1,4.1141517E-2,3.989272E-1,1.6666667E-1,4.1551724E-1,6.474741E-1,2.7272727E-2,2.7272727E-2,7.827586E-1,3.888889E-1,7.9600966E-1,8.2200134E-1,-2.471207E-1,8.7090075E-1,-1.4689306E-2,6.724138E-2,4.0691394E-2,8.349742E-1,3.893812E-1,1.724138E-1,8.30303E-1,3.6724138E-1,5.3197986E-1,2.874503E-2,2.1696076E-1,6.4979887E-1,2.5141425E-3,1.3098668E-1,1.6666667E-1,1.3665827E-1,7.224138E-1,1.6666667E-1,5.5555556E-2,8.30303E-1,1.7527547E-1,5.727851E-1,7.876776E-1,1.6227566E-1,2.777778E-1,1.2618808E-1,3.626334E-2,7.7778685E-1,7.7943826E-1,8.39857E-1,8.2218254E-1,2.777778E-1,3.8399246E-1,3.9342475E-1,4.264353E-1,4.1296717E-4,5.181818E-1,6.173929E-1,7.524307E-1,9.206897E-1,5.990199E-1,1.6877498E-2,8.30303E-1,6.324857E-1,7.034483E-1,5E-1,5.0041294E-1,1.01185E-3,-5.4144096E-2,2.777778E-1,1.3539791E-1,-3.881308E-2,9.460749E-1,3.888889E-1,8.810345E-1,6.824811E-1,9.960389E-1,9.981995E-1,7.5757575E-1,-2.7234863E-2,8.25239E-2,8.0442405E-1,1.278433E-2,-4.9342703E-2,7.2128004E-1,7.4137926E-2,2.4126757E-2,8.2218254E-1,-5.3691152E-2,2.594058E-1,8.0966675E-1,2.8132877E-1,7.4137926E-2,9.6551724E-2,-2.742573E-4,3.7164893E-3,-2.1436587E-3,-6.3558524E-3,9.124285E-3,-1.6443926E-4,-1.6892828E-2,2.9928219E-3,-2.0385168E-3,-4.0687504E-3,6.268796E-4,-1.9587781E-3,-6.536705E-3,-1.6820772E-3,-3.2614684E-3,2.3256887E-3,-1.3465605E-3,4.246962E-3,4.0932107E-3,1.02852965E-2,2.784607E-3,2.7493935E-4,1.0886635E-2,1.5646418E-3,1.5563319E-3,-3.6807535E-3,-0E0,-4.5660345E-4,-2.7588569E-3,-3.5366677E-2,-1.7934376E-2,2.5784872E-2,-3.0705966E-3,4.922557E-3,-1.5376057E-2,6.2330947E-3,2.5667998E-4,-1.31573435E-2,-2.5524596E-2,1.409044E-2,8.6260334E-5,-1.2976794E-3,-1.871983E-2,4.562242E-3,2.483988E-2,5.5567157E-3,-3.6954686E-2,1.2147789E-2,3.0701186E-3,-7.8195374E-4,-1.3526734E-2,2.3675198E-3,7.277003E-2,1.3097107E-2,-4.3278E-3,1.5942603E-2,4.8856162E-3,-1.5480486E-4,1.8674536E-2,7.7730427E-3,2.4839187E-2,4.399535E-3,-1.7530194E-2,1.736853E-3],"split_indices":[1,1,2,1,3,1,9,1,2,4,5,4,4,0,5,1,4,3,1,2,2,3,4,1,1,0,1,0,3,5,1,1,3,2,3,9,0,5,1,0,5,4,5,3,4,4,2,0,0,1,0,4,0,0,1,1,1,1,4,1,1,1,8,2,5,5,3,1,0,2,1,3,4,8,0,0,4,5,0,5,4,3,5,5,5,2,0,0,1,0,0,1,3,5,1,0,0,1,5,3,3,0,0,0,0,0,0,0,0,0,0,0,0,0,0,0,0,0,0,0,0,0,0,0,0,0,0,0,0,0,0,0,0,0,0,0,0,0,0,0,0,0,0,0,0,0,0,0,0,0,0,0,0,0,0,0,0,0,0,0,0,0,0,0,0],"split_type":[0,0,0,0,0,0,0,0,0,0,0,0,0,0,0,0,0,0,0,0,0,0,0,0,0,0,0,0,0,0,0,0,0,0,0,0,0,0,0,0,0,0,0,0,0,0,0,0,0,0,0,0,0,0,0,0,0,0,0,0,0,0,0,0,0,0,0,0,0,0,0,0,0,0,0,0,0,0,0,0,0,0,0,0,0,0,0,0,0,0,0,0,0,0,0,0,0,0,0,0,0,0,0,0,0,0,0,0,0,0,0,0,0,0,0,0,0,0,0,0,0,0,0,0,0,0,0,0,0,0,0,0,0,0,0,0,0,0,0,0,0,0,0,0,0,0,0,0,0,0,0,0,0,0,0,0,0,0,0,0,0,0,0,0,0],"sum_hessian":[7.871E3,3.768E3,4.103E3,1.546E3,2.222E3,1.5E1,4.088E3,1.125E3,4.21E2,6.8E1,2.154E3,7E0,8E0,7.61E2,3.327E3,1.064E3,6.1E1,9E0,4.12E2,1.3E1,5.5E1,2.094E3,6E1,2E0,5E0,1E0,7E0,2E0,7.59E2,1.12E2,3.215E3,9.43E2,1.21E2,3.4E1,2.7E1,7E0,2E0,3.61E2,5.1E1,2E0,1.1E1,1.2E1,4.3E1,2.006E3,8.8E1,5.1E1,9E0,1E0,1E0,4E0,1E0,3E0,4E0,1E0,7.58E2,1.1E2,2E0,2.216E3,9.99E2,9.12E2,3.1E1,1.5E1,1.06E2,2.4E1,1E1,1.5E1,1.2E1,5E0,2E0,3.9E1,3.22E2,2.7E1,2.4E1,1E1,1E0,4E0,8E0,3.9E1,4E0,1.953E3,5.3E1,3.3E1,5.5E1,1.4E1,3.7E1,6E0,3E0,1E0,3E0,2E0,1E0,2.26E2,5.32E2,1.1E1,9.9E1,1E0,1E0,1.69E3,5.26E2,4.92E2,5.07E2,8.74E2,3.8E1,2.4E1,7E0,1.2E1,3E0,1E0,1.05E2,7E0,1.7E1,5E0,5E0,1.4E1,1E0,1.1E1,1E0,3E0,2E0,3.1E1,8E0,1.59E2,1.63E2,2.5E1,2E0,2E1,4E0,1E0,9E0,2E0,6E0,3.8E1,1E0,1.908E3,4.5E1,4.6E1,7E0,2.4E1,9E0,4E0,5.1E1,1.2E1,2E0,3.5E1,2E0,4E0,2E0,2E0,1E0,7.1E1,1.55E2,2E0,5.3E2,5E0,6E0,4E1,5.9E1,1.525E3,1.65E2,1.26E2,4E2,1.3E1,4.79E2,1E1,4.97E2],"tree_param":{"num_deleted":"0","num_feature":"12","num_nodes":"165","size_leaf_vector":"0"}},{"base_weights":[8.713851E-2,-8.550044E-2,2.4436317E-1,3.9679483E-2,-1.6713728E-1,2.3698945E0,2.1835577E-1,-1.1434131E-2,9.9853955E-2,-1.703371E0,-1.5542923E-1,6.38694E-1,3.5038486E0,9.255913E-2,2.4863194E-1,1.1314484E-3,-1.047191E-1,1.8760443E0,9.633883E-2,-2.589485E-1,-1.2441048E-1,3.6066191E0,-6.8659496E-1,9.192733E0,1.9745524E0,1.17056355E-1,2.7126268E-2,2.8490502E-1,1.6998412E-1,5.8278482E-2,-5.9825885E-3,-1.6691792E-1,-3.320316E-2,3.3947495E-1,7.910698E-2,-1.1916772E-1,-3.304273E-1,1.7395397E-1,-1.5355833E-1,2.52519E0,5.0934052E0,-2.3375106E0,2.651404E-2,2.820971E1,3.8606756E0,-8.17121E-1,3.6318295E0,2.7198229E-2,1.4741507E-1,9.0652466E-2,-4.1736427E-1,2.0752877E-1,5.367532E-1,4.384436E-1,1.2978941E-1,2.4605161E-1,4.4352308E-2,-1.6510941E-2,1.9926792E-2,-1.3170662E-2,-1.9487141E-1,1.2701496E-1,-1.7379963E-1,4.3520442E-1,1.756406E-1,5.8260705E-2,2.1296974E-1,-1.7472307E-1,3.9939034E-1,-2.1337156E-1,-4.2879772E-1,1.1472638E-1,9.270752E-1,-2.0432922E-1,-9.571188E-2,4.833222E0,1.3450276E0,1.7015837E0,-4.418748E-1,4.407865E0,1.1062715E0,4.3040023E0,-7.218751E-1,1.6949952E-1,-1.0571398E-1,1.6636758E-1,4.3078963E-2,3.8029784E-1,5.023907E-2,-2.5994998E-1,-7.101285E-1,2.3062854E-1,3.8062616E-3,1.2188216E0,4.3785554E-1,-2.9550233E-1,6.6463256E-1,-6.283549E-1,1.3759063E-1,6.0198467E-2,2.810154E-1,8.424305E-2,2.6773632E-2,9.6206395E-3,-3.843479E-2,-2.6783146E-2,4.639879E-2,6.748936E-3,-7.146674E-2,-2.0587286E-1,-1.175093E-1,-5.2420348E-2,1.9929844E-1,-5.0443735E-2,-2.732358E-1,4.947495E-1,1.4481471E-1,4.9583527E-1,1.2216279E-1,2.8315806E-1,5.0106104E-2,1.2567304E0,1.8307805E-1,-1.4252442E-1,-9.529691E-1,6.868764E-1,-5.126056E-1,-1.2571824E-1,-5.559201E-1,-5.987022E-1,-2.677512E-1,8.836812E-1,6.1698027E-2,1.8327553E0,6.6599375E-1,-1.746757E-1,-4.4438082E-1,-1.5113667E-1,9.54712E-2,-4.4089875E-1,3.429235E0,-8.990233E-2,-9.56539E-1,6.0874186E0,3.5884159E0,6.581391E-2,1.988264E-1,1.4196126E-1,-1.3160811E-1,2.3652898E-1,1.306664E-1,-3.058708E-1,2.3902582E-1,2.0482136E-1,4.1233242E-1,7.9367965E-1,3.9622962E-2,-1.6564687E-1,-4.7677648E-1,-8.485089E-1,-1.6764046E-1,1.408322E-1,2.7192518E-1,-5.231766E-1,2.9817607E-2,8.178247E-1,1.7606505E0,3.4338707E-1,6.4771724E-1,-1.137629E0,-8.8678434E-2,2.468382E0,5.2630764E-1,-2.935759E-1,-9.88743E-1,6.259423E-2,1.8049024E-1],"categories":[],"categories_nodes":[],"categories_segments":[],"categories_sizes":[],"default_left":[true,true,true,true,true,true,true,true,true,false,true,true,true,true,true,true,true,false,true,true,true,true,true,true,true,true,true,true,true,true,true,true,true,true,true,true,true,true,true,true,false,false,true,false,true,false,true,true,true,true,true,true,true,true,true,true,true,true,true,true,true,true,true,true,true,true,true,true,true,true,true,true,true,true,true,false,false,true,true,false,false,true,false,true,true,true,true,true,true,true,true,true,true,true,true,true,true,true,true,false,false,false,false,false,false,false,false,false,false,false,false,false,false,false,false,false,false,false,false,false,false,false,false,false,false,false,false,false,false,false,false,false,false,false,false,false,false,false,false,false,false,false,false,false,false,false,false,false,false,false,false,false,false,false,false,false,false,false,false,false,false,false,false,false,false,false,false,false,false,false,false,false,false,false,false,false,false],"id":158,"left_children":[1,3,5,7,9,11,13,15,17,-1,19,21,23,25,27,29,31,-1,33,35,37,39,41,43,45,47,49,51,53,55,57,59,61,63,65,67,69,71,73,75,-1,-1,77,-1,79,-1,81,83,85,87,89,91,93,95,97,99,101,103,105,107,109,111,113,115,117,119,121,123,125,127,129,131,133,135,137,-1,-1,139,141,-1,-1,143,-1,145,147,149,151,153,155,157,159,161,163,165,167,169,171,173,175,-1,-1,-1,-1,-1,-1,-1,-1,-1,-1,-1,-1,-1,-1,-1,-1,-1,-1,-1,-1,-1,-1,-1,-1,-1,-1,-1,-1,-1,-1,-1,-1,-1,-1,-1,-1,-1,-1,-1,-1,-1,-1,-1,-1,-1,-1,-1,-1,-1,-1,-1,-1,-1,-1,-1,-1,-1,-1,-1,-1,-1,-1,-1,-1,-1,-1,-1,-1,-1,-1,-1,-1,-1,-1,-1,-1,-1,-1],"loss_changes":[2.1613165E2,3.8789658E1,2.3015878E2,4.610118E0,4.120574E1,9.8004395E1,1.5668884E1,9.5137346E-1,4.209224E0,0E0,7.3060265E0,8.084625E1,2.5768857E2,1.2781549E0,9.443893E0,2.912717E-1,4.2380857E-1,0E0,2.8647847E0,5.229252E0,1.5274193E1,5.785576E0,1.692818E1,6.054363E2,1.1361045E2,1.5820365E0,6.172993E0,4.419438E1,1.1285116E1,1.9967249E-1,1.7336921E-1,2.1679616E-1,1.0292152E0,6.7679644E-1,1.7844505E0,5.1576166E0,3.959816E0,6.9230123E0,4.686306E0,9.547775E0,0E0,0E0,8.376178E0,0E0,6.333748E0,0E0,4.5959686E1,2.7934883E0,8.53487E-1,2.2271512E0,1.1842752E0,8.172157E0,3.57744E1,2.2703539E1,5.41778E0,2.4149239E-2,4.9788907E-2,2.596783E-1,2.2738704E-1,1.0761095E-2,2.4200797E-2,2.8227857E-1,2.89262E-1,4.569068E-1,2.6779193E-1,1.0108017E0,2.596321E0,3.981851E0,4.6644964E0,4.751042E0,5.0874634E0,5.8945107E0,2.2371922E0,6.0253906E0,7.9351587E0,0E0,0E0,9.184073E0,1.4659852E0,0E0,0E0,9.593567E0,0E0,2.0877051E-1,4.9563497E-1,9.045687E-1,4.6273947E0,9.4198465E-2,1.30619E0,3.3937216E-1,6.3873196E-1,5.7675095E0,2.4289694E0,1.4112709E1,9.1568985E0,5.5804486E0,2.5555622E1,1.0109982E0,2.8990746E0,0E0,0E0,0E0,0E0,0E0,0E0,0E0,0E0,0E0,0E0,0E0,0E0,0E0,0E0,0E0,0E0,0E0,0E0,0E0,0E0,0E0,0E0,0E0,0E0,0E0,0E0,0E0,0E0,0E0,0E0,0E0,0E0,0E0,0E0,0E0,0E0,0E0,0E0,0E0,0E0,0E0,0E0,0E0,0E0,0E0,0E0,0E0,0E0,0E0,0E0,0E0,0E0,0E0,0E0,0E0,0E0,0E0,0E0,0E0,0E0,0E0,0E0,0E0,0E0,0E0,0E0,0E0,0E0,0E0,0E0,0E0,0E0,0E0,0E0,0E0,0E0,0E0,0E0],"parents":[2147483647,0,0,1,1,2,2,3,3,4,4,5,5,6,6,7,7,8,8,10,10,11,11,12,12,13,13,14,14,15,15,16,16,18,18,19,19,20,20,21,21,22,22,23,23,24,24,25,25,26,26,27,27,28,28,29,29,30,30,31,31,32,32,33,33,34,34,35,35,36,36,37,37,38,38,39,39,42,42,44,44,46,46,47,47,48,48,49,49,50,50,51,51,52,52,53,53,54,54,55,55,56,56,57,57,58,58,59,59,60,60,61,61,62,62,63,63,64,64,65,65,66,66,67,67,68,68,69,69,70,70,71,71,72,72,73,73,74,74,77,77,78,78,81,81,83,83,84,84,85,85,86,86,87,87,88,88,89,89,90,90,91,91,92,92,93,93,94,94,95,95,96,96,97,97,98,98],"right_children":[2,4,6,8,10,12,14,16,18,-1,20,22,24,26,28,30,32,-1,34,36,38,40,42,44,46,48,50,52,54,56,58,60,62,64,66,68,70,72,74,76,-1,-1,78,-1,80,-1,82,84,86,88,90,92,94,96,98,100,102,104,106,108,110,112,114,116,118,120,122,124,126,128,130,132,134,136,138,-1,-1,140,142,-1,-1,144,-1,146,148,150,152,154,156,158,160,162,164,166,168,170,172,174,176,-1,-1,-1,-1,-1,-1,-1,-1,-1,-1,-1,-1,-1,-1,-1,-1,-1,-1,-1,-1,-1,-1,-1,-1,-1,-1,-1,-1,-1,-1,-1,-1,-1,-1,-1,-1,-1,-1,-1,-1,-1,-1,-1,-1,-1,-1,-1,-1,-1,-1,-1,-1,-1,-1,-1,-1,-1,-1,-1,-1,-1,-1,-1,-1,-1,-1,-1,-1,-1,-1,-1,-1,-1,-1,-1,-1,-1,-1],"split_conditions":[6.8848956E-1,6.572582E-1,1.7734967E-2,3.8399246E-1,2.7272727E-2,8.2218254E-1,9.8790765E-1,3.9510223E-1,2.7272727E-2,-3.406742E-2,2.4207777E-1,7.703592E-1,8.349742E-1,5.8854413E-1,8.349742E-1,3.854565E-2,3.230865E-1,3.7520885E-2,1.0415916E-1,7.976233E-2,3.0626574E-1,7.563675E-1,2.7272727E-2,2.7272727E-2,8.571358E-1,7.684338E-1,9.345995E-1,8.2218254E-1,1.3530788E-1,6.877926E-2,2.686302E-1,3.0341724E-1,3.7000573E-1,7.008511E-1,6.430696E-1,7.4990995E-2,5.181818E-1,3.016745E-1,7.5757575E-1,7.290039E-1,1.018681E-1,-4.675021E-2,9.8790765E-1,5.6419414E-1,5E-1,-1.634242E-2,9.28372E-1,8.110852E-1,9.699887E-1,7.251228E-1,8.30303E-1,8.0966675E-1,1.6483617E-1,8.5870504E-1,1.4611092E-1,2.7272727E-2,3.2382065E-1,1.2968774E-1,1.3484347E-1,8.336334E-1,9.212121E-1,3.443045E-1,5.487937E-1,9.212121E-1,3.8980916E-2,3.8608843E-1,3.3636364E-1,7.2020166E-2,8.30303E-1,2.1615052E-1,7.008511E-1,2.4540871E-1,3.0221462E-1,9.398632E-1,8.3282316E-1,9.6664436E-2,2.690055E-2,7.847458E-1,7.958708E-1,8.8157296E-2,2.212543E-2,2.7272727E-2,-1.4437501E-2,3.3138278E-1,1.8167087E-1,4.1969752E-1,9.859468E-1,2.7021277E-1,2.5117032E-2,9.9787235E-1,7.2353256E-1,7.635859E-1,1.48936175E-2,5.0082594E-1,8.30303E-1,3.3129275E-2,1.48936175E-2,1.3809867E-1,8.76709E-1,1.2039694E-3,5.6203078E-3,1.684861E-3,5.3547265E-4,1.9241279E-4,-7.686958E-4,-5.356629E-4,9.2797575E-4,1.3497872E-4,-1.4293347E-3,-4.117457E-3,-2.350186E-3,-1.0484069E-3,3.985969E-3,-1.0088746E-3,-5.464716E-3,9.894989E-3,2.8962942E-3,9.916705E-3,2.4432556E-3,5.663161E-3,1.0021221E-3,2.5134608E-2,3.6615608E-3,-2.8504883E-3,-1.905938E-2,1.3737528E-2,-1.0252112E-2,-2.5143647E-3,-1.1118402E-2,-1.1974043E-2,-5.355024E-3,1.7673623E-2,1.2339605E-3,3.6655106E-2,1.3319875E-2,-3.493514E-3,-8.887616E-3,-3.0227334E-3,1.909424E-3,-8.8179745E-3,6.8584695E-2,-1.7980465E-3,-1.913078E-2,1.21748365E-1,7.176831E-2,1.3162781E-3,3.976528E-3,2.839225E-3,-2.6321623E-3,4.7305794E-3,2.613328E-3,-6.117416E-3,4.780516E-3,4.096427E-3,8.246648E-3,1.5873592E-2,7.9245924E-4,-3.3129372E-3,-9.53553E-3,-1.6970178E-2,-3.3528092E-3,2.816644E-3,5.4385033E-3,-1.0463532E-2,5.9635215E-4,1.6356494E-2,3.521301E-2,6.8677412E-3,1.2954344E-2,-2.275258E-2,-1.7735687E-3,4.9367636E-2,1.0526152E-2,-5.871518E-3,-1.977486E-2,1.2518845E-3,3.6098047E-3],"split_indices":[1,1,5,1,2,1,6,6,2,0,5,1,1,7,1,1,1,0,5,5,5,1,2,2,1,1,1,1,5,5,1,1,1,10,1,5,2,5,2,1,0,0,6,0,0,0,1,6,1,1,2,1,5,1,5,2,5,1,6,5,2,1,5,2,5,1,2,5,2,5,10,5,5,5,5,0,0,1,1,0,0,2,0,5,5,5,1,10,5,10,5,1,10,8,2,5,10,5,1,0,0,0,0,0,0,0,0,0,0,0,0,0,0,0,0,0,0,0,0,0,0,0,0,0,0,0,0,0,0,0,0,0,0,0,0,0,0,0,0,0,0,0,0,0,0,0,0,0,0,0,0,0,0,0,0,0,0,0,0,0,0,0,0,0,0,0,0,0,0,0,0,0,0,0,0,0,0],"split_type":[0,0,0,0,0,0,0,0,0,0,0,0,0,0,0,0,0,0,0,0,0,0,0,0,0,0,0,0,0,0,0,0,0,0,0,0,0,0,0,0,0,0,0,0,0,0,0,0,0,0,0,0,0,0,0,0,0,0,0,0,0,0,0,0,0,0,0,0,0,0,0,0,0,0,0,0,0,0,0,0,0,0,0,0,0,0,0,0,0,0,0,0,0,0,0,0,0,0,0,0,0,0,0,0,0,0,0,0,0,0,0,0,0,0,0,0,0,0,0,0,0,0,0,0,0,0,0,0,0,0,0,0,0,0,0,0,0,0,0,0,0,0,0,0,0,0,0,0,0,0,0,0,0,0,0,0,0,0,0,0,0,0,0,0,0,0,0,0,0,0,0,0,0,0,0,0,0],"sum_hessian":[7.962E3,3.795E3,4.167E3,1.498E3,2.297E3,5E1,4.117E3,8.1E2,6.88E2,1.7E1,2.28E3,2E1,3E1,7.99E2,3.318E3,7.14E2,9.6E1,1E0,6.87E2,5.25E2,1.755E3,6E0,1.4E1,6E0,2.4E1,5.81E2,2.18E2,2.27E3,1.048E3,7.9E1,6.35E2,5.1E1,4.5E1,4.5E1,6.42E2,1.78E2,3.47E2,1.56E2,1.599E3,4E0,2E0,4E0,1E1,1E0,5E0,9E0,1.5E1,1.47E2,4.34E2,1.91E2,2.7E1,1.737E3,5.33E2,1.36E2,9.12E2,5E0,7.4E1,4.52E2,1.83E2,8E0,4.3E1,2.1E1,2.4E1,2.8E1,1.7E1,5.56E2,8.6E1,1.61E2,1.7E1,1.59E2,1.88E2,1.45E2,1.1E1,8.51E2,7.48E2,1E0,3E0,2E0,8E0,4E0,1E0,1.3E1,2E0,7.1E1,7.6E1,3.67E2,6.7E1,2.3E1,1.68E2,1.8E1,9E0,1.56E3,1.77E2,6.7E1,4.66E2,3.2E1,1.04E2,9E0,9.03E2,1E0,4E0,2.2E1,5.2E1,2.06E2,2.46E2,6.6E1,1.17E2,6E0,2E0,3.7E1,6E0,6E0,1.5E1,1.1E1,1.3E1,2.3E1,5E0,2E0,1.5E1,1.9E1,5.37E2,2E0,8.4E1,1.55E2,6E0,1.3E1,4E0,1.27E2,3.2E1,9.1E1,9.7E1,9E0,1.36E2,2E0,9E0,7.58E2,9.3E1,5.8E2,1.68E2,1E0,1E0,5E0,3E0,3E0,1E1,1.6E1,5.5E1,7E0,6.9E1,1.23E2,2.44E2,2.4E1,4.3E1,4E0,1.9E1,2E0,1.66E2,1.3E1,5E0,7E0,2E0,4.92E2,1.068E3,8E0,1.69E2,3.9E1,2.8E1,3.22E2,1.44E2,6E0,2.6E1,7E0,9.7E1,5E0,4E0,3.29E2,5.74E2],"tree_param":{"num_deleted":"0","num_feature":"12","num_nodes":"177","size_leaf_vector":"0"}},{"base_weights":[8.018498E-2,-8.286162E-2,2.306753E-1,3.5313353E-2,-1.6560462E-1,1.0484153E0,2.0890515E-1,1.847907E0,3.3746608E-2,-1.3258739E0,-1.5858991E-1,1.8396423E0,4.890855E-2,8.712005E-2,2.3627579E-1,-8.421859E-3,9.811986E-2,-2.9604813E-1,-1.2541963E-1,6.8816E-1,5.7939343E0,-3.9153972E0,6.5630424E-1,1.7824249E0,8.397829E-2,3.80292E-1,2.1325743E-1,-5.531993E-3,-3.303796E-1,5.850082E-1,8.9758344E-2,-3.198058E-1,1.8754007E-1,1.021678E0,-1.3143137E-1,2.9163027E0,-3.0623478E-1,2.7786608E1,3.2583153E0,-1.1202632E0,-8.540565E0,-9.220141E-1,1.1702886E0,-3.4007467E-2,1.156441E-1,2.1028541E-1,5.519505E-1,2.4644408E-1,1.3836098E-1,-1.08515415E-2,6.172763E-2,7.4237627E-1,3.8838843E-1,6.881879E-2,2.0765157E-1,-2.5646366E-2,-3.6242944E-1,8.347142E-1,-6.034844E-1,3.147378E-1,1.3377131E0,-7.217311E-2,-2.0315744E-1,7.238038E0,2.0186303E0,2.2982953E0,-5.036978E-1,1.6350827E0,4.707738E0,4.0785503E-1,-1.6237595E0,6.2592036E-1,-1.1117533E0,1.0450934E0,3.7148352E0,7.84741E-2,-1.5399341E-1,-6.6879755E-1,1.18778E-1,6.3685924E-1,5.5048667E-2,1.2177477E0,3.1584233E-1,1.9532685E-1,4.131466E-1,-3.4549913E-1,1.4416933E-1,-3.0855087E-4,-7.869854E-2,2.8656018E-1,-7.8278415E-2,1.151837E0,3.772043E-1,4.609493E-1,4.4758234E-2,1.7398983E-1,3.850247E-2,2.9294556E-1,3.8439669E-3,1.651804E0,-1.0352684E-1,-3.431319E-1,-8.5209614E-1,1.2208993E0,3.2125688E-1,-1.0147021E-1,-9.7096646E-1,-0E0,4.5470783E-1,2.1749284E0,7.8066057E-1,-8.027282E-2,1.1664722E0,-8.681296E-2,-2.8376344E-1,2.9819362E0,5.6520635E-1,3.377802E0,6.333391E-1,-2.294358E0,-2.0210418E-1,1.9688747E0,-9.8182656E-2,5.383501E0,2.773898E0,-7.659613E-1,-1.3205249E0,1.2021686E0,-3.4314474E-1,2.3649324E-1,9.499339E-3,4.4149265E-1,-1.7243603E-1,5.465802E-3,-1.1865065E0,5.4788303E-1,1.1391839E-1,1.608463E0,4.778124E-1,9.648651E-2,-1.7629139E-1,1.017118E0,3.1451857E0,1.1490071E0,2.3006704E-1,2.1694212E-1,-2.0247415E-2,8.8133293E-1,3.663E-1,-4.489965E-1,6.738037E-2,2.9408032E-1,1.2394838E-1],"categories":[],"categories_nodes":[],"categories_segments":[],"categories_sizes":[],"default_left":[true,true,true,true,true,true,true,false,true,false,true,true,true,true,true,true,true,true,true,true,true,true,true,false,true,true,true,true,false,true,true,true,true,true,true,true,true,false,true,true,false,true,true,true,true,true,true,true,true,true,true,true,true,true,true,true,true,true,true,true,true,true,true,false,true,true,true,true,true,false,false,false,true,true,false,true,true,true,true,true,true,true,true,true,true,true,true,false,false,false,false,false,false,false,false,false,false,false,false,false,false,false,false,false,false,false,false,false,false,false,false,false,false,false,false,false,false,false,false,false,false,false,false,false,false,false,false,false,false,false,false,false,false,false,false,false,false,false,false,false,false,false,false,false,false,false,false,false,false,false,false,false,false],"id":159,"left_children":[1,3,5,7,9,11,13,-1,15,-1,17,19,21,23,25,27,29,31,33,35,37,39,41,-1,43,45,47,49,-1,51,53,55,57,59,61,63,65,-1,67,69,-1,71,73,75,77,79,81,83,85,87,89,91,93,95,97,99,101,103,105,107,109,111,113,-1,115,117,119,121,123,-1,-1,-1,125,127,-1,129,131,133,135,137,139,141,143,145,147,149,151,-1,-1,-1,-1,-1,-1,-1,-1,-1,-1,-1,-1,-1,-1,-1,-1,-1,-1,-1,-1,-1,-1,-1,-1,-1,-1,-1,-1,-1,-1,-1,-1,-1,-1,-1,-1,-1,-1,-1,-1,-1,-1,-1,-1,-1,-1,-1,-1,-1,-1,-1,-1,-1,-1,-1,-1,-1,-1,-1,-1,-1,-1,-1,-1,-1,-1],"loss_changes":[1.9366214E2,3.7046707E1,7.297571E1,4.383519E0,1.804499E1,8.403546E1,1.3316315E1,0E0,4.2343993E0,0E0,1.0082485E1,2.6874084E2,1.14784805E2,3.8346977E0,1.0785797E1,8.7135994E-1,2.4861073E0,4.965954E0,1.2343817E1,1.0299396E2,7.1290704E2,7.8550514E1,3.3894356E1,0E0,2.7422938E0,1.30633545E1,6.980835E0,3.3379364E-1,0E0,2.0745587E-1,1.4905739E0,5.1361847E0,1.05806055E1,1.9212933E0,7.5412426E0,5.0602364E1,1.6989498E1,0E0,2.6360199E1,3.5723686E0,0E0,3.273962E0,8.61919E0,2.1015196E0,1.4403982E0,1.4966226E1,3.495793E1,1.6583931E1,2.4456997E0,6.1856216E-1,2.1614466E0,6.307833E-1,1.18891954E-1,1.6410122E0,1.5830925E0,6.8718185E0,3.271469E0,2.0945168E0,1.673698E0,1.5225348E-1,2.3454065E0,9.780863E0,7.5202103E0,0E0,1.6655354E1,3.4234123E0,1.6191402E1,3.7553768E0,3.1805115E0,0E0,0E0,0E0,3.067398E-1,6.764263E0,0E0,8.713232E-1,8.4888566E-1,8.335589E-1,1.171565E0,9.037313E0,1.5990453E0,2.1431488E1,1.1707722E1,6.9627457E0,9.905212E0,4.5710158E-1,2.5746899E0,0E0,0E0,0E0,0E0,0E0,0E0,0E0,0E0,0E0,0E0,0E0,0E0,0E0,0E0,0E0,0E0,0E0,0E0,0E0,0E0,0E0,0E0,0E0,0E0,0E0,0E0,0E0,0E0,0E0,0E0,0E0,0E0,0E0,0E0,0E0,0E0,0E0,0E0,0E0,0E0,0E0,0E0,0E0,0E0,0E0,0E0,0E0,0E0,0E0,0E0,0E0,0E0,0E0,0E0,0E0,0E0,0E0,0E0,0E0,0E0,0E0,0E0,0E0,0E0,0E0,0E0],"parents":[2147483647,0,0,1,1,2,2,3,3,4,4,5,5,6,6,8,8,10,10,11,11,12,12,13,13,14,14,15,15,16,16,17,17,18,18,19,19,20,20,21,21,22,22,24,24,25,25,26,26,27,27,29,29,30,30,31,31,32,32,33,33,34,34,35,35,36,36,38,38,39,39,41,41,42,42,43,43,44,44,45,45,46,46,47,47,48,48,49,49,50,50,51,51,52,52,53,53,54,54,55,55,56,56,57,57,58,58,59,59,60,60,61,61,62,62,64,64,65,65,66,66,67,67,68,68,72,72,73,73,75,75,76,76,77,77,78,78,79,79,80,80,81,81,82,82,83,83,84,84,85,85,86,86],"right_children":[2,4,6,8,10,12,14,-1,16,-1,18,20,22,24,26,28,30,32,34,36,38,40,42,-1,44,46,48,50,-1,52,54,56,58,60,62,64,66,-1,68,70,-1,72,74,76,78,80,82,84,86,88,90,92,94,96,98,100,102,104,106,108,110,112,114,-1,116,118,120,122,124,-1,-1,-1,126,128,-1,130,132,134,136,138,140,142,144,146,148,150,152,-1,-1,-1,-1,-1,-1,-1,-1,-1,-1,-1,-1,-1,-1,-1,-1,-1,-1,-1,-1,-1,-1,-1,-1,-1,-1,-1,-1,-1,-1,-1,-1,-1,-1,-1,-1,-1,-1,-1,-1,-1,-1,-1,-1,-1,-1,-1,-1,-1,-1,-1,-1,-1,-1,-1,-1,-1,-1,-1,-1,-1,-1,-1,-1,-1,-1],"split_conditions":[6.621175E-1,6.572582E-1,2.9798344E-2,2.2506302E-3,2.2506302E-3,8.307456E-1,6.3859776E-2,3.695814E-2,3.989272E-1,-2.6517477E-2,2.0228663E-1,8.2218254E-1,2.2506302E-3,6.724138E-2,1.7410874E-1,3.9342475E-1,4.132157E-2,6.2586206E-1,2.0408714E-1,7.876776E-1,2.2506302E-3,8.7090075E-1,8.5870504E-1,3.56485E-2,7.684338E-1,8.2218254E-1,8.349742E-1,3.8399246E-1,-6.607592E-3,4.1296717E-4,6.430696E-1,4.1296717E-4,1.13521785E-1,2.028268E-1,4.1551724E-1,2.2506302E-3,5.318799E-1,5.5573213E-1,5.0082594E-1,8.4844077E-1,-1.7081128E-1,8.39756E-1,2.8988115E-2,5.4792248E-2,7.4137926E-2,7.7943826E-1,8.349742E-1,8.2218254E-1,1.85722E-1,5.1907774E-2,3.8608843E-1,2.561702E-1,3.3489376E-2,4.3256068E-1,6.4979887E-1,1.6680852E-1,1.9661506E-1,3.9234042E-1,1.189233E-1,2.6724136E-1,2.0309687E-1,9.274397E-1,3.9234042E-1,1.4476076E-1,5E-1,8.074397E-1,2.2506302E-3,2.8628016E-2,1.1034483E-1,8.1571005E-3,-3.247519E-2,1.2518407E-2,5E-1,9.28372E-1,7.42967E-2,3.1034482E-1,1.8427517E-2,8.8532466E-1,1.48936175E-2,2.0884521E-2,7.2727275E-1,1.6303566E-1,4.1141517E-2,8.0966675E-1,2.3620689E-1,2.3275861E-1,2.8574002E-1,-6.171017E-6,-1.5739708E-3,5.7312036E-3,-1.5655683E-3,2.3036739E-2,7.544086E-3,9.218986E-3,8.951647E-4,3.4797965E-3,7.700494E-4,5.858911E-3,7.687933E-5,3.303608E-2,-2.0705366E-3,-6.862638E-3,-1.7041922E-2,2.4417987E-2,6.425137E-3,-2.029404E-3,-1.941933E-2,-0E0,9.094156E-3,4.349857E-2,1.5613211E-2,-1.6054565E-3,2.3329444E-2,-1.7362591E-3,-5.675269E-3,5.9638724E-2,1.1304127E-2,6.755604E-2,1.2666781E-2,-4.588716E-2,-4.0420834E-3,3.9377492E-2,-1.9636531E-3,1.0767002E-1,5.547796E-2,-1.5319225E-2,-2.6410498E-2,2.4043372E-2,-6.8628946E-3,4.7298647E-3,1.8998678E-4,8.829853E-3,-3.4487206E-3,1.0931603E-4,-2.3730129E-2,1.095766E-2,2.2783678E-3,3.216926E-2,9.556248E-3,1.9297302E-3,-3.5258278E-3,2.034236E-2,6.290371E-2,2.298014E-2,4.6013407E-3,4.3388424E-3,-4.0494828E-4,1.7626658E-2,7.3259994E-3,-8.979931E-3,1.3476074E-3,5.881606E-3,2.4789677E-3],"split_indices":[1,1,5,5,5,1,9,0,1,0,5,1,5,3,5,1,5,3,5,1,5,1,1,0,1,1,1,1,0,8,1,8,5,5,3,5,9,0,8,1,0,1,5,9,3,1,1,1,5,9,1,10,5,1,1,10,5,10,5,3,5,5,10,0,0,1,5,5,3,0,0,0,0,1,0,3,11,1,10,11,11,5,5,1,3,3,5,0,0,0,0,0,0,0,0,0,0,0,0,0,0,0,0,0,0,0,0,0,0,0,0,0,0,0,0,0,0,0,0,0,0,0,0,0,0,0,0,0,0,0,0,0,0,0,0,0,0,0,0,0,0,0,0,0,0,0,0,0,0,0,0,0,0],"split_type":[0,0,0,0,0,0,0,0,0,0,0,0,0,0,0,0,0,0,0,0,0,0,0,0,0,0,0,0,0,0,0,0,0,0,0,0,0,0,0,0,0,0,0,0,0,0,0,0,0,0,0,0,0,0,0,0,0,0,0,0,0,0,0,0,0,0,0,0,0,0,0,0,0,0,0,0,0,0,0,0,0,0,0,0,0,0,0,0,0,0,0,0,0,0,0,0,0,0,0,0,0,0,0,0,0,0,0,0,0,0,0,0,0,0,0,0,0,0,0,0,0,0,0,0,0,0,0,0,0,0,0,0,0,0,0,0,0,0,0,0,0,0,0,0,0,0,0,0,0,0,0,0,0],"sum_hessian":[7.892E3,3.788E3,4.104E3,1.56E3,2.228E3,1.06E2,3.998E3,1E0,1.559E3,1.3E1,2.215E3,5.9E1,4.7E1,7.34E2,3.264E3,9.42E2,6.17E2,4.3E2,1.785E3,4.6E1,1.3E1,6E0,4.1E1,1E0,7.33E2,4.49E2,2.815E3,9.34E2,8E0,1E1,6.07E2,4.1E2,2E1,9E0,1.776E3,1.4E1,3.2E1,1E0,1.2E1,4E0,2E0,1E1,3.1E1,1.55E2,5.78E2,2.26E2,2.23E2,1.95E3,8.65E2,8.66E2,6.8E1,5E0,5E0,5.16E2,9.1E1,5.2E1,3.58E2,1.1E1,9E0,3E0,6E0,9.73E2,8.03E2,2E0,1.2E1,2E0,3E1,6E0,6E0,1E0,3E0,1E0,9E0,3E1,1E0,8E1,7.5E1,2E0,5.76E2,6E1,1.66E2,5.8E1,1.65E2,1.493E3,4.57E2,1E1,8.55E2,7.5E2,1.16E2,2.6E1,4.2E1,2E0,3E0,4E0,1E0,1.15E2,4.01E2,6.4E1,2.7E1,2E0,5E1,3.45E2,1.3E1,6E0,5E0,4E0,5E0,1E0,2E0,2E0,4E0,9.67E2,6E0,3.29E2,4.74E2,7E0,5E0,1E0,1E0,4E0,2.6E1,5E0,1E0,4E0,2E0,4E0,5E0,2.7E1,3E0,2.4E1,5.6E1,2E0,7.3E1,1E0,1E0,6E0,5.7E2,8E0,5.2E1,1.41E2,2.5E1,5.3E1,5E0,1.5E1,1.5E2,1.357E3,1.36E2,4.1E1,4.16E2,8E0,2E0,1.01E2,7.54E2],"tree_param":{"num_deleted":"0","num_feature":"12","num_nodes":"153","size_leaf_vector":"0"}},{"base_weights":[8.737565E-2,-6.8839185E-2,2.2784328E-1,3.0762661E-2,-1.3998373E-1,7.649871E-1,2.0942558E-1,-4.700921E-3,1.1943056E-1,-2.205972E0,-1.3301967E-1,1.1313785E-1,1.1817596E0,8.435788E-2,2.4156153E-1,6.7959013E-3,-1.9025181E-1,2.3904994E-1,9.1921724E-2,-9.0504265E-1,-3.0336497E0,-5.466047E-1,-1.1923401E-1,3.80763E-1,-4.6042446E-2,3.4435475E0,1.0245557E0,2.6431727E0,7.706311E-2,3.7183058E-1,2.115386E-1,-1.08151985E-2,1.4609925E-1,-2.6688275E-1,-1.5659904E-1,1.2787913E-1,4.9132484E-1,4.7206885E-1,7.848715E-2,-2.1053855E0,-8.365141E-2,1.4962188E-3,-6.8308085E-1,-2.4888102E-2,-1.4150639E-1,-7.324167E-2,4.943155E-1,5.3410643E-1,-2.9236415E-1,-1.703305E-1,1.4559319E0,3.9908097E0,6.2384003E-1,9.182913E-1,7.1538344E-2,-2.1005764E0,3.8127366E-1,1.5499765E0,2.0619127E-1,7.0461065E-1,-1.3384568E-2,-4.0042418E-1,1.6651224E-1,-2.2541156E-1,-7.596185E-1,-4.629684E-2,-1.788437E-1,1.1612341E0,1.028526E-1,6.9548434E-1,2.5617108E-1,7.47417E-1,3.082837E-1,5.725807E-2,2.1797033E-1,-4.309355E-3,6.986931E-2,-7.5243646E-1,-3.054193E-1,-3.8102612E-2,-1.4271093E-2,-1.452829E-1,5.504148E-1,1.5153503E-1,-2.9366437E-1,1.2735709E0,2.860629E-1,-1.4410293E-2,1.0519029E0,-4.2976182E-2,-3.91428E-1,2.4425901E-1,-2.4339281E-1,2.8629675E0,5.7729954E-1,1.9660641E0,-7.0361876E-1,9.7444616E-2,7.0510455E-3,8.447379E0,-1.2133922E1,-4.9393165E-1,4.0251258E-1,-3.6525995E-1,5.6126246E0,5.2611537E-2,2.2988516E-1,-2.7474118E-2,1.8201915E0,-9.778129E-3,-3.3347175E-1,-5.9592545E-1,1.7773892E-1,3.0230606E-1,1.399445E-1,-1.2150452E-1,-2.6026765E-1,-1.404846E-1,1.0475359E-1,-1.8805988E-1,1.1321139E-1,2.2851661E-1,7.758141E-2,3.9679685E-1,9.1987205E-1,4.4509888E-2,3.54274E-1,1.1320924E0,2.4981698E-1,-1.0454134E-1,3.7127575E-1,1.336814E-1,-8.100775E-3,3.892028E-1,-4.984766E-2,-0E0,-3.2528464E-2,-1.1870184E0,-6.397063E-1,-5.2166945E-1,1.1117079E0,-2.124839E-3,-4.059321E-2,4.0734265E-2,-2.0060454E-2,-1.0289078E-1,-2.0551232E-1,-1.06581435E-1,1.3199565E0,-0E0,2.676403E-1,-2.022156E-1,4.3572536E-1,2.648853E-1,-2.1275817E-1,-3.6283344E-1,1.4095827E0,1.872914E-1,-2.2009127E-1,-6.851935E-1,-2.5265244E-1,3.8881192E-3,5.931087E-1,-1.1285553E-1,-5.518385E-1,3.1948473E0,1.6026975E0,9.812647E-1,6.174532E-2,-4.7901076E-1,3.0884585E0,3.190013E-1,8.732622E-2,-2.3864575E-1,9.93765E-2,-7.0408607E-1,2.65705E-1,3.0882578E-2,4.1766894E-1,-2.0700905E0,9.709768E-1,3.339231E0,3.037562E-2,5.6434506E-1,2.056072E-1],"categories":[],"categories_nodes":[],"categories_segments":[],"categories_sizes":[],"default_left":[true,true,true,true,true,true,true,true,true,true,true,true,true,true,true,true,true,true,true,true,false,true,true,true,true,false,true,true,true,true,true,true,true,true,true,true,true,true,true,false,false,true,true,true,true,true,true,true,true,true,true,false,false,true,true,true,true,true,true,true,true,true,true,true,false,true,true,false,true,true,true,true,true,true,true,true,false,true,true,true,true,true,true,true,false,false,true,true,true,true,true,true,true,true,true,true,false,true,true,false,false,true,true,true,false,true,true,false,false,false,false,false,false,false,false,false,false,false,false,false,false,false,false,false,false,false,false,false,false,false,false,false,false,false,false,false,false,false,false,false,false,false,false,false,false,false,false,false,false,false,false,false,false,false,false,false,false,false,false,false,false,false,false,false,false,false,false,false,false,false,false,false,false,false,false,false,false,false,false,false,false,false,false,false,false],"id":160,"left_children":[1,3,5,7,9,11,13,15,17,19,21,23,25,27,29,31,33,35,37,39,-1,41,43,45,47,-1,49,51,53,55,57,59,61,63,65,67,69,71,73,-1,-1,75,77,79,81,83,85,87,89,91,93,-1,-1,95,97,99,101,103,105,107,109,111,113,115,-1,117,119,-1,121,123,125,127,129,131,133,135,-1,137,139,141,143,145,147,149,-1,-1,151,153,155,157,159,161,163,165,167,169,-1,171,173,-1,-1,175,177,179,-1,181,183,-1,-1,-1,-1,-1,-1,-1,-1,-1,-1,-1,-1,-1,-1,-1,-1,-1,-1,-1,-1,-1,-1,-1,-1,-1,-1,-1,-1,-1,-1,-1,-1,-1,-1,-1,-1,-1,-1,-1,-1,-1,-1,-1,-1,-1,-1,-1,-1,-1,-1,-1,-1,-1,-1,-1,-1,-1,-1,-1,-1,-1,-1,-1,-1,-1,-1,-1,-1,-1,-1,-1,-1,-1,-1,-1,-1,-1,-1],"loss_changes":[1.7408966E2,2.6620853E1,4.125885E1,4.923985E0,3.1396912E1,3.7518387E1,1.6223328E1,2.388728E0,1.4599428E0,6.9245605E0,1.2422844E1,2.3252616E0,2.8745499E1,1.5317569E1,1.25329895E1,2.586584E0,1.4850712E-1,2.307353E0,1.8404844E0,3.1966853E0,0E0,5.2711983E0,4.439314E0,1.0663383E0,4.954989E0,0E0,4.099312E1,5.4540977E0,3.7951393E0,1.4281975E1,1.8564995E1,1.7126089E0,1.339047E0,3.239169E-1,1.07712984E-1,1.4507189E0,1.1432452E0,4.6431828E-1,1.0352068E0,0E0,0E0,6.7251576E-3,1.3838158E0,5.5799007E-2,4.4900703E0,2.3157269E-1,2.50689E0,2.9547668E0,5.893605E-1,6.6602236E-1,7.151551E1,0E0,0E0,9.542984E0,1.3670797E0,2.8118765E2,1.1205658E1,8.116253E1,9.461578E0,2.7646928E0,1.0702788E0,5.3110534E-1,3.9206862E-1,5.040878E-2,0E0,1.2397828E-1,1.1134708E-1,0E0,1.7179441E-1,7.5313425E-1,2.4515271E-1,7.1546626E-1,2.3345739E-1,1.53227E0,2.1361232E0,1.1633376E-3,0E0,2.0396156E0,3.045258E0,1.5431285E-2,7.173412E-2,4.332485E0,4.783094E0,4.1935135E-2,0E0,0E0,1.0070827E0,3.1351173E-1,2.8843398E0,3.1330127E-1,6.35535E-1,2.7023804E-1,7.0792365E-1,7.5652313E0,7.5319424E0,9.678736E0,0E0,1.2948723E0,5.3442426E0,0E0,0E0,2.3568482E0,3.286232E0,1.7392029E1,0E0,2.5374668E1,1.8255516E1,0E0,0E0,0E0,0E0,0E0,0E0,0E0,0E0,0E0,0E0,0E0,0E0,0E0,0E0,0E0,0E0,0E0,0E0,0E0,0E0,0E0,0E0,0E0,0E0,0E0,0E0,0E0,0E0,0E0,0E0,0E0,0E0,0E0,0E0,0E0,0E0,0E0,0E0,0E0,0E0,0E0,0E0,0E0,0E0,0E0,0E0,0E0,0E0,0E0,0E0,0E0,0E0,0E0,0E0,0E0,0E0,0E0,0E0,0E0,0E0,0E0,0E0,0E0,0E0,0E0,0E0,0E0,0E0,0E0,0E0,0E0,0E0,0E0,0E0,0E0,0E0,0E0,0E0],"parents":[2147483647,0,0,1,1,2,2,3,3,4,4,5,5,6,6,7,7,8,8,9,9,10,10,11,11,12,12,13,13,14,14,15,15,16,16,17,17,18,18,19,19,21,21,22,22,23,23,24,24,26,26,27,27,28,28,29,29,30,30,31,31,32,32,33,33,34,34,35,35,36,36,37,37,38,38,41,41,42,42,43,43,44,44,45,45,46,46,47,47,48,48,49,49,50,50,53,53,54,54,55,55,56,56,57,57,58,58,59,59,60,60,61,61,62,62,63,63,65,65,66,66,68,68,69,69,70,70,71,71,72,72,73,73,74,74,75,75,77,77,78,78,79,79,80,80,81,81,82,82,83,83,86,86,87,87,88,88,89,89,90,90,91,91,92,92,93,93,94,94,95,95,97,97,98,98,101,101,102,102,103,103,105,105,106,106],"right_children":[2,4,6,8,10,12,14,16,18,20,22,24,26,28,30,32,34,36,38,40,-1,42,44,46,48,-1,50,52,54,56,58,60,62,64,66,68,70,72,74,-1,-1,76,78,80,82,84,86,88,90,92,94,-1,-1,96,98,100,102,104,106,108,110,112,114,116,-1,118,120,-1,122,124,126,128,130,132,134,136,-1,138,140,142,144,146,148,150,-1,-1,152,154,156,158,160,162,164,166,168,170,-1,172,174,-1,-1,176,178,180,-1,182,184,-1,-1,-1,-1,-1,-1,-1,-1,-1,-1,-1,-1,-1,-1,-1,-1,-1,-1,-1,-1,-1,-1,-1,-1,-1,-1,-1,-1,-1,-1,-1,-1,-1,-1,-1,-1,-1,-1,-1,-1,-1,-1,-1,-1,-1,-1,-1,-1,-1,-1,-1,-1,-1,-1,-1,-1,-1,-1,-1,-1,-1,-1,-1,-1,-1,-1,-1,-1,-1,-1,-1,-1,-1,-1,-1,-1,-1,-1],"split_conditions":[6.621175E-1,6.572582E-1,1.8427517E-2,4.4565028E-1,2.7272727E-2,6.818182E-1,9.8790765E-1,4.3256068E-1,1.6666667E-1,2.777778E-1,9.6551724E-2,7.9132783E-1,7.554066E-1,2.7272727E-2,1.6666667E-1,3.989272E-1,2.7518427E-1,9.689189E-1,1.2389015E-3,1.6666667E-1,-6.067299E-2,5.5555556E-2,5.5555556E-2,7.5787616E-1,6E-2,6.887095E-2,8.2552147E-1,8.012924E-1,1.8181819E-1,2.7272727E-2,2.7272727E-2,2.7272727E-2,4.1296717E-4,2.088452E-1,5.181818E-1,3.3636364E-1,7.008511E-1,5.939394E-1,6.474741E-1,-4.210771E-2,-1.6730281E-3,9.9787235E-1,3.888889E-1,3.9234042E-1,7.222222E-1,7.067104E-1,7.6706135E-1,2.777778E-1,8.2218254E-1,9.8790765E-1,8.349742E-1,7.981619E-2,1.24768E-2,9.1460705E-1,8.9225554E-1,8.274801E-1,5.5555556E-2,8.7090075E-1,7.554066E-1,2.4097994E-1,3.9342475E-1,7.5757575E-1,4.044514E-1,1.6666667E-1,-1.519237E-2,2.862069E-1,9.206897E-1,2.3224682E-2,4.7627014E-1,3.4827584E-1,3.7931037E-1,6.3902617E-1,6.666666E-1,6.324857E-1,6.4979887E-1,6.8723404E-1,1.3973862E-3,1.4742015E-2,6.724138E-2,1.6034484E-1,5.0082594E-1,4.2413792E-1,6.8723404E-1,6.822485E-1,-5.873287E-3,2.5471417E-2,7.856606E-1,8.3943033E-1,8.2218254E-1,2.2222222E-1,8.349742E-1,1.4310345E-1,7.958708E-1,3.888889E-1,2.777778E-1,7.847458E-1,-1.4072375E-2,3.3636364E-1,9.5665354E-1,1.6894758E-1,-2.4267843E-1,8.0838656E-1,4.1296717E-4,8.2218254E-1,1.1225249E-1,1.8181819E-1,7.6706135E-1,-5.4948236E-4,3.640383E-2,-1.9556258E-4,-6.6694347E-3,-1.1918508E-2,3.5547784E-3,6.046121E-3,2.7988898E-3,-2.4300904E-3,-5.205353E-3,-2.809692E-3,2.0950718E-3,-3.7611974E-3,2.2642277E-3,4.570332E-3,1.5516282E-3,7.935937E-3,1.8397441E-2,8.9019776E-4,7.08548E-3,2.2641847E-2,4.99634E-3,-2.0908266E-3,7.425515E-3,2.673628E-3,-1.620155E-4,7.784056E-3,-9.969531E-4,-0E0,-6.505693E-4,-2.3740368E-2,-1.2794126E-2,-1.0433389E-2,2.2234159E-2,-4.249678E-5,-8.118642E-4,8.146853E-4,-4.0120905E-4,-2.0578157E-3,-4.1102464E-3,-2.1316286E-3,2.639913E-2,-0E0,5.352806E-3,-4.044312E-3,8.714507E-3,5.297706E-3,-4.2551635E-3,-7.2566685E-3,2.8191654E-2,3.7458278E-3,-4.4018254E-3,-1.370387E-2,-5.0530485E-3,7.7762386E-5,1.1862174E-2,-2.2571106E-3,-1.103677E-2,6.389695E-2,3.2053947E-2,1.9625293E-2,1.2349064E-3,-9.580215E-3,6.176917E-2,6.3800258E-3,1.7465244E-3,-4.772915E-3,1.98753E-3,-1.4081721E-2,5.3140996E-3,6.1765156E-4,8.353379E-3,-4.140181E-2,1.9419536E-2,6.678462E-2,6.0751237E-4,1.1286901E-2,4.112144E-3],"split_indices":[1,1,11,1,2,2,6,1,4,4,3,1,1,2,4,1,11,6,8,4,0,4,4,1,10,0,1,1,2,2,2,2,8,11,2,2,10,2,1,0,0,10,4,10,4,1,1,4,1,6,1,0,0,1,1,1,4,1,1,1,1,2,1,4,0,3,3,0,1,3,3,1,2,1,1,10,0,11,3,3,8,3,10,1,0,0,1,1,1,4,1,3,1,4,4,1,0,2,1,0,0,1,8,1,0,2,1,0,0,0,0,0,0,0,0,0,0,0,0,0,0,0,0,0,0,0,0,0,0,0,0,0,0,0,0,0,0,0,0,0,0,0,0,0,0,0,0,0,0,0,0,0,0,0,0,0,0,0,0,0,0,0,0,0,0,0,0,0,0,0,0,0,0,0,0,0,0,0,0,0,0,0,0,0,0],"split_type":[0,0,0,0,0,0,0,0,0,0,0,0,0,0,0,0,0,0,0,0,0,0,0,0,0,0,0,0,0,0,0,0,0,0,0,0,0,0,0,0,0,0,0,0,0,0,0,0,0,0,0,0,0,0,0,0,0,0,0,0,0,0,0,0,0,0,0,0,0,0,0,0,0,0,0,0,0,0,0,0,0,0,0,0,0,0,0,0,0,0,0,0,0,0,0,0,0,0,0,0,0,0,0,0,0,0,0,0,0,0,0,0,0,0,0,0,0,0,0,0,0,0,0,0,0,0,0,0,0,0,0,0,0,0,0,0,0,0,0,0,0,0,0,0,0,0,0,0,0,0,0,0,0,0,0,0,0,0,0,0,0,0,0,0,0,0,0,0,0,0,0,0,0,0,0,0,0,0,0,0,0,0,0,0,0],"sum_hessian":[7.933E3,3.756E3,4.177E3,1.565E3,2.191E3,1.38E2,4.039E3,1.118E3,4.47E2,7E0,2.184E3,5.4E1,8.4E1,8.26E2,3.213E3,1.053E3,6.5E1,8.3E1,3.64E2,3E0,4E0,7E1,2.114E3,2E1,3.4E1,5E0,7.9E1,2E0,8.24E2,6.01E2,2.612E3,9.35E2,1.18E2,1.9E1,4.6E1,5.8E1,2.5E1,1.2E1,3.52E2,1E0,2E0,1.4E1,5.6E1,4.04E2,1.71E3,4E0,1.6E1,1E1,2.4E1,2.1E1,5.8E1,1E0,1E0,5E0,8.19E2,2E0,5.99E2,1E1,2.602E3,3E0,9.32E2,4E0,1.14E2,1.8E1,1E0,8E0,3.8E1,1E0,5.7E1,1.3E1,1.2E1,4E0,8E0,3.06E2,4.6E1,1.3E1,1E0,4.7E1,9E0,1.79E2,2.25E2,1.701E3,9E0,2E0,2E0,3E0,1.3E1,5E0,5E0,7E0,1.7E1,3E0,1.8E1,2.2E1,3.6E1,3E0,2E0,5.84E2,2.35E2,1E0,1E0,1.4E1,5.85E2,7E0,3E0,3.48E2,2.254E3,2E0,1E0,9.22E2,1E1,3E0,1E0,1.8E1,9.6E1,5E0,1.3E1,5E0,3E0,3.7E1,1E0,9E0,4.8E1,6E0,7E0,4E0,8E0,2E0,2E0,1E0,7E0,1.41E2,1.65E2,2.8E1,1.8E1,1.2E1,1E0,9E0,3.8E1,8E0,1E0,1.2E1,1.67E2,2.1E1,2.04E2,9.99E2,7.02E2,5E0,4E0,1E0,1E0,3E0,1E1,2E0,3E0,1E0,4E0,3E0,4E0,5E0,1.2E1,2E0,1E0,1.3E1,5E0,1.7E1,5E0,2E1,1.6E1,1E0,2E0,2.5E1,5.59E2,6.4E1,1.71E2,1.1E1,3E0,2.3E1,5.62E2,3E0,4E0,2E0,3.46E2,1.52E2,2.102E3],"tree_param":{"num_deleted":"0","num_feature":"12","num_nodes":"185","size_leaf_vector":"0"}},{"base_weights":[7.04913E-2,-3.868789E-1,7.215506E-2,1.2704073E0,-2.9114165E0,-6.977402E-3,8.08079E-2,2.0030322E0,-1.0523035E-1,3.9309533E0,-3.7018087E0,3.9245686E-1,-1.2443264E-2,1.18365265E-1,5.863072E-2,-2.7003203E-2,2.4405262E0,6.144833E-1,-2.8126773E-1,-4.1129413E0,9.090586E-2,1.4432228E-1,2.020403E0,3.0004492E-2,-5.2415743E-2,3.8374066E-1,1.04703434E-1,1.7500499E-1,5.4940768E-2,3.1991888E-2,-8.9942336E-2,1.133396E0,2.7435262E0,4.1974953E-1,-5.989003E-3,1.5608609E-1,2.2936942E-2,-6.5613836E-2,-3.2216005E-2,9.7804934E-1,1.9706619E-1,9.335106E-2,2.5349292E-1,7.7771746E-2,3.609086E-1,4.7621287E-2,1.1328479E-1,1.7928916E0,1.7976643E-1,-4.949524E-2,6.340286E-1,2.6672402E-2,3.64692E-1,7.678702E-4,4.5754466E-2,-1.5260112E-3,-7.182411E-2,6.516537E-2,-4.1363202E-2,5.7733035E-1,2.8175995E0,-3.913752E-2,5.0458926E-1,5.959756E-2,1.4159368E-1,-2.5200272E-2,3.6176696E-1,-1.7823464E-1,3.0648872E-1,8.0581117E-1,2.6067764E-1,3.605627E-2,8.884305E-2,7.7331826E-2,2.9826522E-1,-2.5527798E-2,9.945394E-2,1.4014985E-1,4.3745592E-1,1.2296876E-2,-2.3815138E-2,6.2411106E-3,7.783409E-2,-8.151603E-2,7.416989E-3,-2.1194579E-1,-6.4550914E-2,1.263405E-2,1.4049594E-1,-6.430422E-2,-2.5620896E-2,4.594539E-1,1.667414E0,7.1210394E0,-4.7244817E-1,-3.7991005E-1,5.7824377E-2,1.1325206E0,6.774581E-2,2.7205533E-1,4.6365008E-2,2.4306841E-1,9.623364E-2,6.9028325E-2,-6.745385E-2,-1.5684344E-2,4.5048013E-1,-1.0167722E0,-1.052957E-1,6.52275E-1,2.0765936E-1,9.740737E-1,2.2784604E-1,2.0874605E-1,7.807754E-1,9.898401E-2,2.888748E-2,7.4064255E-2,3.570308E-1,1.1010466E-2,1.3565592E-1,3.793817E-1,2.9540978E-2],"categories":[],"categories_nodes":[],"categories_segments":[],"categories_sizes":[],"default_left":[true,true,true,true,true,true,true,true,true,false,true,true,true,true,true,true,true,false,false,false,false,true,false,true,true,true,true,true,true,false,false,true,false,true,false,true,true,true,true,true,true,true,true,true,true,true,true,false,false,false,false,true,true,true,true,true,true,true,true,true,true,true,true,true,true,true,true,true,true,true,true,true,true,true,true,false,false,false,false,false,false,false,false,false,false,false,false,false,false,false,false,false,false,false,false,false,false,false,false,false,false,false,false,false,false,false,false,false,false,false,false,false,false,false,false,false,false,false,false,false,false,false,false],"id":161,"left_children":[1,3,5,7,9,11,13,15,17,-1,19,21,23,25,27,29,31,-1,-1,-1,-1,33,-1,35,37,39,41,43,45,-1,-1,47,-1,49,-1,51,53,55,57,59,61,63,65,67,69,71,73,-1,-1,-1,-1,75,77,79,81,83,85,87,89,91,93,95,97,99,101,103,105,107,109,111,113,115,117,119,121,-1,-1,-1,-1,-1,-1,-1,-1,-1,-1,-1,-1,-1,-1,-1,-1,-1,-1,-1,-1,-1,-1,-1,-1,-1,-1,-1,-1,-1,-1,-1,-1,-1,-1,-1,-1,-1,-1,-1,-1,-1,-1,-1,-1,-1,-1,-1,-1],"loss_changes":[5.9489098E0,1.198007E2,5.3306465E0,1.7566486E1,6.614246E1,1.6714908E0,5.839184E0,1.0121983E1,8.5531116E-1,0E0,1.629512E1,4.0460887E0,1.2858436E0,9.421677E0,1.888238E0,1.04505615E-2,2.6043892E0,0E0,0E0,0E0,0E0,3.9314425E-1,0E0,3.23579E-1,1.0196185E-1,1.4045631E1,4.1716614E0,2.4306717E0,1.8225336E0,0E0,0E0,1.3319371E0,0E0,3.5398096E-1,0E0,5.131091E-1,1.7552681E-1,9.2580795E-2,1.3892525E-1,2.176922E1,7.0833416E0,3.7433357E0,5.2985706E0,5.2507887E0,1.9808884E0,1.8093605E0,3.1548514E0,0E0,0E0,0E0,0E0,4.875858E-2,9.113437E-2,5.0192796E-2,2.1581659E-1,1.6519489E-2,2.0992804E-1,4.9987227E-2,4.957086E-2,2.9694176E0,7.673082E1,1.8402457E0,1.1569693E1,3.80158E0,4.3478394E0,1.9795123E-1,4.238821E0,2.5374937E0,1.5601311E0,7.192745E-1,9.66903E-1,1.3367352E0,3.28398E0,1.5420849E0,1.6761413E0,0E0,0E0,0E0,0E0,0E0,0E0,0E0,0E0,0E0,0E0,0E0,0E0,0E0,0E0,0E0,0E0,0E0,0E0,0E0,0E0,0E0,0E0,0E0,0E0,0E0,0E0,0E0,0E0,0E0,0E0,0E0,0E0,0E0,0E0,0E0,0E0,0E0,0E0,0E0,0E0,0E0,0E0,0E0,0E0,0E0,0E0,0E0,0E0],"parents":[2147483647,0,0,1,1,2,2,3,3,4,4,5,5,6,6,7,7,8,8,10,10,11,11,12,12,13,13,14,14,15,15,16,16,21,21,23,23,24,24,25,25,26,26,27,27,28,28,31,31,33,33,35,35,36,36,37,37,38,38,39,39,40,40,41,41,42,42,43,43,44,44,45,45,46,46,51,51,52,52,53,53,54,54,55,55,56,56,57,57,58,58,59,59,60,60,61,61,62,62,63,63,64,64,65,65,66,66,67,67,68,68,69,69,70,70,71,71,72,72,73,73,74,74],"right_children":[2,4,6,8,10,12,14,16,18,-1,20,22,24,26,28,30,32,-1,-1,-1,-1,34,-1,36,38,40,42,44,46,-1,-1,48,-1,50,-1,52,54,56,58,60,62,64,66,68,70,72,74,-1,-1,-1,-1,76,78,80,82,84,86,88,90,92,94,96,98,100,102,104,106,108,110,112,114,116,118,120,122,-1,-1,-1,-1,-1,-1,-1,-1,-1,-1,-1,-1,-1,-1,-1,-1,-1,-1,-1,-1,-1,-1,-1,-1,-1,-1,-1,-1,-1,-1,-1,-1,-1,-1,-1,-1,-1,-1,-1,-1,-1,-1,-1,-1,-1,-1,-1,-1],"split_conditions":[2.7272727E-2,2.777778E-1,5.5555556E-2,1.6666667E-1,9.689189E-1,1.8181819E-1,3.2586205E-1,3.9510223E-1,9.8790765E-1,7.861906E-2,4.4444448E-1,1.3137093E-1,9.8790765E-1,1.2389015E-3,4.2424244E-1,5.5555556E-2,5.5555556E-2,1.2289666E-2,-5.6253546E-3,-8.225882E-2,1.8181171E-3,8.231776E-1,4.0408056E-2,1.8427517E-2,6.4742017E-1,2.086207E-1,3.2068965E-1,2.777778E-1,9.533169E-1,6.3983776E-4,-1.7988466E-3,8.231776E-1,5.4870524E-2,2.607362E-2,-1.1978006E-4,3.9510223E-1,5.4792248E-2,7.985258E-2,3.3636364E-1,1.8965518E-1,4.1296717E-4,8.30303E-1,9.8790765E-1,3.3636364E-1,5.0082594E-1,8.30303E-1,7.258621E-1,3.585783E-2,3.5953287E-3,-9.899047E-4,1.26805715E-2,6.818182E-1,6.818182E-1,6.965602E-1,3.327586E-1,5.0041294E-1,1.6379312E-1,2.3103449E-1,3.948276E-1,7.0638824E-1,5.4914004E-1,2.5344828E-1,2.6206896E-1,7.7586204E-2,1.3882065E-1,1.6666667E-1,1.6666667E-1,5.0082594E-1,2.923833E-1,3.3636364E-1,6.965602E-1,2.923833E-1,5.8854413E-1,2.777778E-1,9.212121E-1,-5.105559E-4,1.9890787E-3,2.802997E-3,8.749118E-3,2.4593752E-4,-4.7630275E-4,1.2482221E-4,1.5566818E-3,-1.6303206E-3,1.4833978E-4,-4.2389156E-3,-1.2910182E-3,2.52681E-4,2.8099187E-3,-1.2860843E-3,-5.1241793E-4,9.189078E-3,3.3348277E-2,1.4242078E-1,-9.448963E-3,-7.598201E-3,1.1564875E-3,2.2650411E-2,1.3549163E-3,5.4411064E-3,9.2730013E-4,4.8613683E-3,1.9246729E-3,1.3805665E-3,-1.3490769E-3,-3.1368688E-4,9.0096025E-3,-2.0335443E-2,-2.105914E-3,1.30455E-2,4.1531874E-3,1.9481475E-2,4.556921E-3,4.1749207E-3,1.5615508E-2,1.9796803E-3,5.7774957E-4,1.4812851E-3,7.140616E-3,2.2020932E-4,2.7131184E-3,7.5876336E-3,5.908196E-4],"split_indices":[2,4,4,4,6,2,3,6,6,0,4,7,6,8,2,4,4,0,0,0,0,6,0,11,11,3,3,4,11,0,0,6,0,7,0,6,9,11,2,3,8,2,6,2,8,2,3,0,0,0,0,2,2,11,3,8,3,3,3,11,11,3,3,3,11,4,4,8,11,2,11,11,7,4,2,0,0,0,0,0,0,0,0,0,0,0,0,0,0,0,0,0,0,0,0,0,0,0,0,0,0,0,0,0,0,0,0,0,0,0,0,0,0,0,0,0,0,0,0,0,0,0,0],"split_type":[0,0,0,0,0,0,0,0,0,0,0,0,0,0,0,0,0,0,0,0,0,0,0,0,0,0,0,0,0,0,0,0,0,0,0,0,0,0,0,0,0,0,0,0,0,0,0,0,0,0,0,0,0,0,0,0,0,0,0,0,0,0,0,0,0,0,0,0,0,0,0,0,0,0,0,0,0,0,0,0,0,0,0,0,0,0,0,0,0,0,0,0,0,0,0,0,0,0,0,0,0,0,0,0,0,0,0,0,0,0,0,0,0,0,0,0,0,0,0,0,0,0,0],"sum_hessian":[7.811E3,2.8E1,7.783E3,1.7E1,1.1E1,7.67E2,7.016E3,1.1E1,6E0,1E0,1E1,1E1,7.57E2,2.604E3,4.412E3,2E0,9E0,1E0,5E0,9E0,1E0,9E0,1E0,3.67E2,3.9E2,1.27E2,2.477E3,1.35E2,4.277E3,1E0,1E0,2E0,7E0,3E0,6E0,1.9E1,3.48E2,2.35E2,1.55E2,3E1,9.7E1,2.302E3,1.75E2,8.9E1,4.6E1,3.801E3,4.76E2,1E0,1E0,1E0,2E0,1.2E1,7E0,1.77E2,1.71E2,2.1E1,2.14E2,1.3E1,1.42E2,2.5E1,5E0,5.5E1,4.2E1,1.355E3,9.47E2,4.9E1,1.26E2,4.2E1,4.7E1,8E0,3.8E1,2.969E3,8.32E2,3.99E2,7.7E1,7E0,5E0,2E0,5E0,1.21E2,5.6E1,7.7E1,9.4E1,2E0,1.9E1,1E1,2.04E2,8E0,5E0,5.7E1,8.5E1,2.3E1,2E0,2E0,3E0,1.2E1,4.3E1,1.7E1,2.5E1,7.9E1,1.276E3,2.92E2,6.55E2,1.5E1,3.4E1,2.4E1,1.02E2,3E0,3.9E1,1E1,3.7E1,6E0,2E0,3.5E1,3E0,3.03E2,2.666E3,7.89E2,4.3E1,1.87E2,2.12E2,5.9E1,1.8E1],"tree_param":{"num_deleted":"0","num_feature":"12","num_nodes":"123","size_leaf_vector":"0"}},{"base_weights":[8.649546E-2,-6.1214183E-2,2.2292717E-1,3.207833E-2,-1.260468E-1,7.608693E-1,2.021595E-1,-1.0616621E-2,9.294172E-2,-1.6646003E0,-1.1948597E-1,1.4522904E0,-1.2178312E-1,2.313201E-1,6.5314494E-2,-7.38136E-3,-3.1801856E-1,4.9810308E-1,8.481334E-2,1.7707023E-1,-1.8943944E0,-5.25979E-1,-1.0973874E-1,6.8628607E0,8.550767E-1,-1.062022E1,6.084991E-1,9.1455825E-2,2.5490847E-1,3.8633708E-2,1.5848976E-1,-1.5674375E-2,4.1034758E-2,3.2919773E-1,9.1691756E-1,-7.602699E-1,8.797985E-2,-3.8099083E-1,-1.257148E0,-1.231185E-1,1.3506274E-1,1.782544E0,1.9664906E1,4.338631E-1,2.3926475E0,-8.829452E-1,-1.883367E1,9.698158E-1,-1.0446831E0,1.5205276E-1,-3.535479E-2,3.0857608E-1,1.6036533E-1,7.2960414E-2,-2.3064627E-1,2.2723828E-1,3.9734438E-2,-6.2468275E-3,-1.16000496E-1,2.482018E-1,3.5608574E-4,5.3961486E-1,1.3497551E-1,1.1085007E0,3.4166425E-1,1.1511696E-1,9.474139E-3,-4.4873524E-1,1.8542584E0,4.494454E-2,-1.4386915E0,-1.12196214E-1,-5.2039397E-1,-2.876691E-1,2.9956305E-1,6.950152E0,-1.1339699E0,2.7202005E1,7.1993546E0,1.5195943E0,6.312213E-2,1.2750576E0,4.61522E0,7.193733E-1,-2.2751558E0,6.734973E-1,2.4701316E0,-5.914645E0,9.434425E-1,1.15894124E-1,3.4521022E-1,5.2232105E-1,-8.5093684E-2,2.4163778E-1,4.670131E-1,-1.2620935E0,1.650994E-1,3.4750283E-2,1.5330781E-1,-3.6467963E-1,-1.608149E-1,-3.191964E-1,2.4609551E-1,-2.6090652E-1,2.3532695E-1,9.57204E-2,-1.0740443E-2,4.761581E-2,-1.4611438E-1,1.5307277E-1,2.6638666E-1,5.295419E-2,-8.296965E-2,-2.0685134E-2,3.4416762E-1,2.1761541E-1,9.228029E-2,-9.323949E-3,1.7511559E-1,-3.7900463E-1,-1.2223558E0,-1.1933006E-1,3.6339682E-1,3.8423836E-3,-7.0274514E-1,1.2683586E0,-4.0866673E-1,3.5344794E-1,-9.762055E-1,-1.7205476E0,6.0526675E-1,3.4310114E0,4.8262492E-1,6.6946936E-1,-2.4360812E-1,1.5525119E0,8.6318535E-1,3.638596E0,6.62416E0,2.1606177E-1,1.5031776E0,1.264074E1,5.065048E-1,-6.9387937E-1,-8.04671E0,4.0964894E0,3.2526687E-1,2.080729E-1,8.677925E-2,7.988907E-1,2.5061098E-1,-1.7189242E-1,1.1912854E0,3.2728475E-1,-1.2524097E-1,3.1821665E-1,6.2167116E-2,1.0439688E0,3.6136848E-1,-1.8171225E0,-7.5844413E-1,7.404187E-2,2.156787E-1,-3.420337E-2,1.10466845E-1,1.7785494E-1,-2.8565098E-2,-4.0272498E-1,-2.5712466E-1,-1.007879E-2,-3.082121E-1,-1.1742815E0,2.0894827E-1,6.9418186E-1,2.1249703E-1,-1.0618046E-2,-3.5175836E-1,5.174553E-1,2.0235245E-1],"categories":[],"categories_nodes":[],"categories_segments":[],"categories_sizes":[],"default_left":[true,true,true,true,true,true,true,true,true,true,true,true,true,true,true,true,false,true,true,false,false,true,true,true,true,true,true,true,true,true,true,true,true,true,true,false,true,true,true,true,true,true,true,true,true,true,false,true,true,true,true,true,true,true,true,true,true,true,true,true,true,false,true,false,false,true,true,true,false,false,false,true,true,true,true,false,true,false,false,true,true,true,true,false,false,true,true,true,true,true,true,true,true,true,true,true,true,true,true,true,true,true,true,true,true,false,false,false,false,false,false,false,false,false,false,false,false,false,false,false,false,false,false,false,false,false,false,false,false,false,false,false,false,false,false,false,false,false,false,false,false,false,false,false,false,false,false,false,false,false,false,false,false,false,false,false,false,false,false,false,false,false,false,false,false,false,false,false,false,false,false,false,false,false,false,false,false,false,false],"id":162,"left_children":[1,3,5,7,9,11,13,15,17,19,21,23,25,27,29,31,-1,33,35,-1,-1,37,39,41,43,45,47,49,51,53,55,57,59,61,63,-1,65,67,69,71,73,75,77,79,81,83,-1,85,87,89,91,93,95,97,99,101,103,105,107,109,111,-1,113,-1,-1,115,117,119,-1,-1,-1,121,123,125,127,-1,129,-1,-1,131,133,135,137,-1,-1,139,141,143,145,147,149,151,153,155,157,159,161,163,165,167,169,171,173,175,177,-1,-1,-1,-1,-1,-1,-1,-1,-1,-1,-1,-1,-1,-1,-1,-1,-1,-1,-1,-1,-1,-1,-1,-1,-1,-1,-1,-1,-1,-1,-1,-1,-1,-1,-1,-1,-1,-1,-1,-1,-1,-1,-1,-1,-1,-1,-1,-1,-1,-1,-1,-1,-1,-1,-1,-1,-1,-1,-1,-1,-1,-1,-1,-1,-1,-1,-1,-1,-1,-1,-1,-1,-1,-1],"loss_changes":[1.5693938E2,2.261967E1,4.5162155E1,3.985961E0,2.2179382E1,9.182414E1,1.5546967E1,8.9097476E-1,2.0600643E0,4.0863285E0,8.677916E0,2.7043695E2,5.1086478E2,1.0588608E1,1.698878E0,3.5813856E-1,0E0,7.540376E-1,1.6727061E0,0E0,0E0,5.2588186E0,7.0354424E0,5.3000073E2,4.9050552E1,3.407498E2,3.756996E1,3.5715513E0,1.3926666E1,4.9332266E0,1.2368696E0,7.1905196E-1,1.0947818E0,3.4752667E-1,2.2039533E-1,0E0,1.3151684E0,6.8192215E0,2.011363E0,8.803129E0,7.770982E0,9.816543E1,1.5344244E2,2.423117E1,3.852472E1,5.773406E0,0E0,2.2221779E1,1.1166348E2,2.1754837E0,4.1785617E0,1.8547241E1,6.763172E0,1.4487147E0,5.3765297E-1,1.0177965E0,3.3326936E0,3.1864995E-1,3.2563102E-1,1.732397E-2,4.802211E-1,0E0,1.8066195E-1,0E0,0E0,1.0640554E0,4.9903274E-1,2.106348E0,0E0,0E0,0E0,6.733261E0,5.2048845E0,6.0599184E0,5.6286745E0,0E0,4.784179E0,0E0,0E0,2.9784164E1,8.491807E0,8.137951E-1,2.28022E0,0E0,0E0,1.631332E1,1.6410748E2,3.511831E1,1.573567E1,7.0186806E-1,2.0355515E0,5.81054E0,2.3010182E0,1.69385E1,3.1569656E1,4.3551445E-1,4.565466E0,1.6800085E0,6.839099E-1,3.9260626E-2,8.9055634E-1,1.601016E0,1.3430138E0,5.0143003E-1,2.7422094E-1,0E0,0E0,0E0,0E0,0E0,0E0,0E0,0E0,0E0,0E0,0E0,0E0,0E0,0E0,0E0,0E0,0E0,0E0,0E0,0E0,0E0,0E0,0E0,0E0,0E0,0E0,0E0,0E0,0E0,0E0,0E0,0E0,0E0,0E0,0E0,0E0,0E0,0E0,0E0,0E0,0E0,0E0,0E0,0E0,0E0,0E0,0E0,0E0,0E0,0E0,0E0,0E0,0E0,0E0,0E0,0E0,0E0,0E0,0E0,0E0,0E0,0E0,0E0,0E0,0E0,0E0,0E0,0E0,0E0,0E0,0E0,0E0,0E0,0E0],"parents":[2147483647,0,0,1,1,2,2,3,3,4,4,5,5,6,6,7,7,8,8,9,9,10,10,11,11,12,12,13,13,14,14,15,15,17,17,18,18,21,21,22,22,23,23,24,24,25,25,26,26,27,27,28,28,29,29,30,30,31,31,32,32,33,33,34,34,36,36,37,37,38,38,39,39,40,40,41,41,42,42,43,43,44,44,45,45,47,47,48,48,49,49,50,50,51,51,52,52,53,53,54,54,55,55,56,56,57,57,58,58,59,59,60,60,62,62,65,65,66,66,67,67,71,71,72,72,73,73,74,74,76,76,79,79,80,80,81,81,82,82,85,85,86,86,87,87,88,88,89,89,90,90,91,91,92,92,93,93,94,94,95,95,96,96,97,97,98,98,99,99,100,100,101,101,102,102,103,103,104,104],"right_children":[2,4,6,8,10,12,14,16,18,20,22,24,26,28,30,32,-1,34,36,-1,-1,38,40,42,44,46,48,50,52,54,56,58,60,62,64,-1,66,68,70,72,74,76,78,80,82,84,-1,86,88,90,92,94,96,98,100,102,104,106,108,110,112,-1,114,-1,-1,116,118,120,-1,-1,-1,122,124,126,128,-1,130,-1,-1,132,134,136,138,-1,-1,140,142,144,146,148,150,152,154,156,158,160,162,164,166,168,170,172,174,176,178,-1,-1,-1,-1,-1,-1,-1,-1,-1,-1,-1,-1,-1,-1,-1,-1,-1,-1,-1,-1,-1,-1,-1,-1,-1,-1,-1,-1,-1,-1,-1,-1,-1,-1,-1,-1,-1,-1,-1,-1,-1,-1,-1,-1,-1,-1,-1,-1,-1,-1,-1,-1,-1,-1,-1,-1,-1,-1,-1,-1,-1,-1,-1,-1,-1,-1,-1,-1,-1,-1,-1,-1,-1,-1],"split_conditions":[6.8848956E-1,6.572582E-1,4.6813108E-2,3.989272E-1,2.7272727E-2,8.349742E-1,1.3137093E-1,3.9342475E-1,3.9791144E-2,5.5555556E-2,2.6917538E-2,2.7272727E-2,2.7272727E-2,7.554066E-1,9.5665354E-1,3.6276892E-1,-6.360371E-3,3.888889E-1,4.5462728E-2,3.5414046E-3,-3.7887886E-2,2.421678E-2,5E-1,8.2218254E-1,8.2218254E-1,8.7090075E-1,3.888889E-1,7.4267364E-1,8.349742E-1,9.02244E-1,9.699887E-1,5.1907774E-2,3.6839437E-1,4.819641E-1,6.3902617E-1,-1.5205397E-2,3.888889E-1,2.385668E-2,5.5555556E-2,9.7560316E-1,4.577782E-1,7.876776E-1,2.2222222E-1,7.6906526E-1,5.0082594E-1,2.777778E-1,-3.7667337E-1,4.078142E-2,5E-1,9.212121E-1,1.768095E-1,8.2218254E-1,5.014404E-2,8.147807E-1,9.0605086E-1,3.3636364E-1,9.859468E-1,2.685066E-2,3.0341724E-1,2.868203E-1,3.8608843E-1,1.0792297E-2,7.7575755E-1,2.2170015E-2,6.833285E-3,2.768275E-1,6.474741E-1,2.3136478E-2,3.7085168E-2,8.988908E-4,-2.877383E-2,9.6371984E-1,5.5555556E-2,1.5340295E-1,9.9243784E-1,1.3900304E-1,1.166234E-1,5.440401E-1,1.4398709E-1,2.4216782E-2,1.6666667E-1,5.181818E-1,3.888889E-1,1.4387465E-2,-4.5503113E-2,5.0082594E-1,4.1141517E-2,8.7090075E-1,3.3636364E-1,7.026703E-1,2.917717E-1,7.4818814E-1,4.2424244E-1,7.958708E-1,1.9850558E-1,6.545454E-1,8.76709E-1,5.8854413E-1,5.8854413E-1,6.7842996E-1,9.345995E-1,1.2279438E-1,1.3683832E-1,3.7864602E-1,2.185812E-1,1.914408E-3,-2.1480885E-4,9.523162E-4,-2.9222874E-3,3.0614554E-3,5.3277332E-3,1.0590837E-3,-1.659393E-3,-4.1370268E-4,6.883352E-3,4.3523083E-3,1.8456058E-3,-1.8647898E-4,3.5023117E-3,-7.580092E-3,-2.4447117E-2,-2.3866012E-3,7.267936E-3,7.684767E-5,-1.4054903E-2,2.536717E-2,-8.173334E-3,7.0689586E-3,-1.952411E-2,-3.441095E-2,1.2105335E-2,6.862023E-2,9.652498E-3,1.3389387E-2,-4.8721624E-3,3.1050239E-2,1.7263707E-2,7.277192E-2,1.324832E-1,4.321235E-3,3.0063553E-2,2.528148E-1,1.0130095E-2,-1.3877587E-2,-1.609342E-1,8.192979E-2,6.505337E-3,4.161458E-3,1.735585E-3,1.5977813E-2,5.0122193E-3,-3.4378483E-3,2.3825707E-2,6.545695E-3,-2.5048193E-3,6.364333E-3,1.2433423E-3,2.0879375E-2,7.2273696E-3,-3.634245E-2,-1.5168882E-2,1.4808375E-3,4.313574E-3,-6.840674E-4,2.209337E-3,3.5570988E-3,-5.7130196E-4,-8.0544995E-3,-5.142493E-3,-2.015758E-4,-6.164242E-3,-2.3485629E-2,4.1789655E-3,1.3883637E-2,4.2499406E-3,-2.1236092E-4,-7.035167E-3,1.0349105E-2,4.0470487E-3],"split_indices":[1,1,5,1,2,1,7,1,5,4,5,2,2,1,1,1,0,4,5,0,0,5,4,1,1,1,4,1,1,1,1,9,1,1,1,0,4,5,4,5,5,1,4,1,8,4,0,5,0,2,5,1,5,1,1,2,1,1,1,5,1,0,2,0,0,5,1,5,0,0,0,5,4,5,5,0,7,0,0,5,4,2,4,0,0,8,5,1,2,1,5,1,2,1,5,2,1,7,7,5,1,5,5,5,5,0,0,0,0,0,0,0,0,0,0,0,0,0,0,0,0,0,0,0,0,0,0,0,0,0,0,0,0,0,0,0,0,0,0,0,0,0,0,0,0,0,0,0,0,0,0,0,0,0,0,0,0,0,0,0,0,0,0,0,0,0,0,0,0,0,0,0,0,0,0,0,0,0,0],"split_type":[0,0,0,0,0,0,0,0,0,0,0,0,0,0,0,0,0,0,0,0,0,0,0,0,0,0,0,0,0,0,0,0,0,0,0,0,0,0,0,0,0,0,0,0,0,0,0,0,0,0,0,0,0,0,0,0,0,0,0,0,0,0,0,0,0,0,0,0,0,0,0,0,0,0,0,0,0,0,0,0,0,0,0,0,0,0,0,0,0,0,0,0,0,0,0,0,0,0,0,0,0,0,0,0,0,0,0,0,0,0,0,0,0,0,0,0,0,0,0,0,0,0,0,0,0,0,0,0,0,0,0,0,0,0,0,0,0,0,0,0,0,0,0,0,0,0,0,0,0,0,0,0,0,0,0,0,0,0,0,0,0,0,0,0,0,0,0,0,0,0,0,0,0,0,0,0,0,0,0],"sum_hessian":[7.787E3,3.739E3,4.048E3,1.533E3,2.206E3,1.5E2,3.898E3,9.01E2,6.32E2,9E0,2.197E3,8.4E1,6.6E1,3.213E3,6.85E2,8.92E2,9E0,1.2E1,6.2E2,1E0,8E0,5.1E1,2.146E3,8E0,7.6E1,4E0,6.2E1,4.64E2,2.749E3,5.33E2,1.52E2,7.62E2,1.3E2,9E0,3E0,2E0,6.18E2,4.3E1,8E0,2.035E3,1.11E2,6E0,2E0,6E1,1.6E1,2E0,2E0,5.1E1,1.1E1,3.14E2,1.5E2,1.753E3,9.96E2,4.73E2,6E1,9.6E1,5.6E1,6.97E2,6.5E1,2.1E1,1.09E2,4E0,5E0,2E0,1E0,4.59E2,1.59E2,4.2E1,1E0,1E0,7E0,1.981E3,5.4E1,3.1E1,8E1,2E0,4E0,1E0,1E0,1.5E1,4.5E1,1.1E1,5E0,1E0,1E0,4.3E1,8E0,3E0,8E0,2.65E2,4.9E1,1.2E1,1.38E2,1.233E3,5.2E2,3E0,9.93E2,3.21E2,1.52E2,2E1,4E1,3E0,9.3E1,2.2E1,3.4E1,2.9E1,6.68E2,1E1,5.5E1,4E0,1.7E1,6.7E1,4.2E1,3E0,2E0,8.3E1,3.76E2,1.43E2,1.6E1,3.9E1,3E0,1.952E3,2.9E1,1.4E1,4E1,2E0,2.9E1,7.7E1,3E0,3E0,1E0,5E0,1E1,1.5E1,3E1,6E0,5E0,4E0,1E0,2.8E1,1.5E1,1E0,7E0,1E0,2E0,1E0,7E0,6.3E1,2.02E2,8E0,4.1E1,6E0,6E0,1.2E1,1.26E2,8.64E2,3.69E2,8E1,4.4E2,1E0,2E0,3.55E2,6.38E2,1.68E2,1.53E2,1.34E2,1.8E1,1.4E1,6E0,2E1,2E1,1E0,2E0,6E0,8.7E1,6E0,1.6E1,3E0,3.1E1],"tree_param":{"num_deleted":"0","num_feature":"12","num_nodes":"179","size_leaf_vector":"0"}},{"base_weights":[6.4996794E-2,-8.928004E-2,2.0458E-1,3.0046145E-2,-1.7444837E-1,7.788875E-1,1.8918468E-1,-1.4518272E-2,9.624525E-2,-1.3829776E0,-1.6920325E-1,3.1669362E0,4.6706703E-1,2.1635833E-1,7.046009E-2,6.842368E-1,-1.7048422E-2,1.2678917E-1,4.447259E-3,1.7441444E-1,-1.5785526E0,-2.0118149E-2,-2.0330259E-1,6.831013E0,2.2359455E0,-2.4723114E-1,1.4025996E0,3.0413702E-1,1.9563594E-1,1.0411692E-1,1.3895505E-2,-2.6322626E-2,1.7672452E0,-9.586148E-3,-1.5807858E-1,2.1802317E-1,9.0344585E-2,1.0894989E0,-1.1875553E-2,-2.5125663E0,-8.934126E-1,2.2432167E-2,-2.6063707E-2,-2.5231043E-1,-7.854866E-2,2.742577E0,1.009767E-1,-3.0220506E0,1.1778341E-1,-1.1034473E0,2.0155153E0,-1.07939154E-1,3.2509235E-1,2.2862503E-1,1.1424898E-1,7.2661765E-2,2.578674E-1,-9.035559E-2,4.8968595E-2,3.1673092E-2,-8.843259E-2,-1.6670033E-2,1.9514632E-1,-1.15393825E-1,-3.0168056E-1,1.0818076E0,1.9526333E-1,2.475184E-1,5.9832077E-2,2.3063995E-1,-2.0606037E-2,-4.4922605E-2,-1.3937125E0,-3.5990212E-2,2.2063412E-1,9.489969E-3,-3.2236427E-2,-2.5973484E-1,2.562212E-1,-8.748763E-1,-4.2798724E-2,1.8066151E0,4.884901E0,6.596506E-1,-4.722523E-1,-6.5811664E-1,-1.1710607E1,-4.4052035E-1,5.903321E-1,-2.134235E0,-6.6331816E-1,4.33492E0,1.3435314E0,2.2796947E-1,-5.4298955E-1,-9.870018E-1,3.301193E-1,1.6363339E-1,4.08956E-1,3.3432448E-1,7.851447E-2,2.4240252E-1,6.0753398E-2,6.608372E-2,8.125654E-1,8.893367E-2,-1.279908E-1,6.942816E-2,-1.2273902E-1,-1.1940341E-2,-1.2841094E-1,2.830323E-1,-3.5936847E-2,-2.5996986E-1,-7.74512E-2,-1.0221485E-1,-3.178713E-1,5.4447955E-1,1.2281542E0,4.8352095E-1,1.3510488E-1,6.3251054E-1,2.1244916E-1,-3.124912E-1,7.68606E-2,-1.6114259E-1,3.3674034E-1,-3.2845978E-2,8.614352E-2,-7.5171545E-2,-1.4331553E-2,1.2163647E0,-3.466427E-2,2.3575269E-2,-4.1738353E-3,-6.379567E-2,-2.770164E-2,-2.6305792E-1,1.0014279E0,-1.1185037E0,5.504421E-1,4.4911254E-2,-1.0269808E0,2.2908929E-1,-1.0724282E-1,4.610383E0,9.8998684E-1,-1.4972306E0,6.285335E-1,4.5000803E-1,-1.9563024E0,-1.443964E-1,8.59581E-1,-2.9910367E0,-7.330114E-1,1.1534791E-1,-8.1920075E-1,1.0067332E0,6.5582137E0,3.0906126E0,2.0992605E-1,1.6575606E-1,4.6839413E-1,-7.852948E-1,2.5817567E-1,-2.1414218E0,4.035484E-1,-3.297761E-2,3.455512E-1,2.0250419E-1,7.901187E-3,1.4901721E0,3.92478E-1,4.8900294E0,1.8614341E-1,1.1904095E-1,2.313238E-3,3.73134E-1,-9.350005E-2,-1.445328E-1,7.476915E-2,1.3095409E-1,-2.4436888E-1,2.5585046E-2,4.8191605E0,2.2148132E-2,2.6275247E-1,-6.633456E-1,-1.14546195E-1,3.2270765E-1,5.5962414E-2,-2.941186E-1,-3.717448E-2],"categories":[],"categories_nodes":[],"categories_segments":[],"categories_sizes":[],"default_left":[true,true,true,true,true,true,true,true,true,true,true,true,true,true,true,true,true,true,true,false,true,true,true,false,true,true,true,true,true,true,true,true,false,true,true,true,true,false,true,false,true,true,true,true,true,true,true,true,true,true,true,true,true,true,true,true,true,true,true,false,false,true,true,true,true,true,true,true,true,true,true,false,false,true,true,true,true,true,true,true,true,true,false,false,false,true,false,true,true,true,true,true,true,true,true,true,true,true,true,true,true,true,true,true,true,true,true,true,true,false,false,false,false,false,false,false,false,false,false,false,false,false,false,false,false,false,false,false,false,false,false,false,false,false,false,false,false,false,false,false,false,false,false,false,false,false,false,false,false,false,false,false,false,false,false,false,false,false,false,false,false,false,false,false,false,false,false,false,false,false,false,false,false,false,false,false,false,false,false,false,false,false,false,false,false,false,false,false,false,false,false,false,false],"id":163,"left_children":[1,3,5,7,9,11,13,15,17,19,21,23,25,27,29,31,33,35,37,-1,39,41,43,-1,45,47,49,51,53,55,57,59,-1,61,63,65,67,-1,69,-1,71,73,75,77,79,81,83,85,87,89,91,93,95,97,99,101,103,105,107,-1,-1,109,111,113,115,117,119,121,123,125,127,-1,-1,129,131,133,135,137,139,141,143,145,-1,-1,-1,147,-1,149,151,153,155,157,159,161,163,165,167,169,171,173,175,177,179,181,183,185,187,189,191,-1,-1,-1,-1,-1,-1,-1,-1,-1,-1,-1,-1,-1,-1,-1,-1,-1,-1,-1,-1,-1,-1,-1,-1,-1,-1,-1,-1,-1,-1,-1,-1,-1,-1,-1,-1,-1,-1,-1,-1,-1,-1,-1,-1,-1,-1,-1,-1,-1,-1,-1,-1,-1,-1,-1,-1,-1,-1,-1,-1,-1,-1,-1,-1,-1,-1,-1,-1,-1,-1,-1,-1,-1,-1,-1,-1,-1,-1,-1,-1,-1,-1,-1,-1],"loss_changes":[1.6884503E2,3.7853508E1,3.6332184E1,4.578259E0,1.3676353E1,7.9379974E1,1.2925659E1,1.6338577E0,1.7484903E0,2.9546967E0,1.0998283E1,3.6849503E1,6.383863E1,5.9071655E0,1.4205959E0,2.605591E0,9.698771E-1,1.5462351E0,2.7885227E0,0E0,4.535692E0,1.0228421E-1,1.0757324E1,0E0,1.1044212E1,5.5191753E1,6.424269E1,5.3887672E0,7.0753784E0,2.2540126E0,1.0222423E0,1.0149078E-2,0E0,1.2723873E0,2.6644838E-1,2.5326252E0,1.5988591E0,0E0,3.253557E-1,0E0,2.2226572E0,5.765352E-1,7.818951E-2,4.7957916E0,1.4132842E1,1.3671345E1,8.5384643E-1,1.27337776E2,1.284047E1,3.268734E0,4.9930466E1,4.47862E0,4.006233E0,2.198359E1,5.980569E0,7.7773833E-1,8.409215E0,4.7893417E-1,7.374829E-1,0E0,0E0,4.4635952E-1,6.026491E-1,1.8778321E-1,1.6544878E-2,1.3852119E-2,2.2295208E0,6.767137E-1,1.7883347E0,2.4230328E-1,1.953037E-1,0E0,0E0,3.0894428E-2,2.9119804E0,1.0381592E-2,4.137382E-2,5.3006287E0,7.6125956E0,3.0140228E0,8.352569E0,1.2899424E1,0E0,0E0,0E0,6.084469E0,0E0,3.0461826E1,5.2610064E0,2.0172539E0,8.1031036E-1,5.195468E1,5.1890022E1,2.2433174E-1,2.6635082E0,4.058837E0,3.3160553E0,8.358276E0,8.638733E0,7.14065E1,2.025045E0,1.1280923E0,1.0508833E0,1.2039808E0,6.400348E1,1.3716966E-1,3.8342863E-1,6.274954E-1,3.1912673E-1,0E0,0E0,0E0,0E0,0E0,0E0,0E0,0E0,0E0,0E0,0E0,0E0,0E0,0E0,0E0,0E0,0E0,0E0,0E0,0E0,0E0,0E0,0E0,0E0,0E0,0E0,0E0,0E0,0E0,0E0,0E0,0E0,0E0,0E0,0E0,0E0,0E0,0E0,0E0,0E0,0E0,0E0,0E0,0E0,0E0,0E0,0E0,0E0,0E0,0E0,0E0,0E0,0E0,0E0,0E0,0E0,0E0,0E0,0E0,0E0,0E0,0E0,0E0,0E0,0E0,0E0,0E0,0E0,0E0,0E0,0E0,0E0,0E0,0E0,0E0,0E0,0E0,0E0,0E0,0E0,0E0,0E0,0E0,0E0],"parents":[2147483647,0,0,1,1,2,2,3,3,4,4,5,5,6,6,7,7,8,8,9,9,10,10,11,11,12,12,13,13,14,14,15,15,16,16,17,17,18,18,20,20,21,21,22,22,24,24,25,25,26,26,27,27,28,28,29,29,30,30,31,31,33,33,34,34,35,35,36,36,38,38,40,40,41,41,42,42,43,43,44,44,45,45,46,46,47,47,48,48,49,49,50,50,51,51,52,52,53,53,54,54,55,55,56,56,57,57,58,58,61,61,62,62,63,63,64,64,65,65,66,66,67,67,68,68,69,69,70,70,73,73,74,74,75,75,76,76,77,77,78,78,79,79,80,80,81,81,85,85,87,87,88,88,89,89,90,90,91,91,92,92,93,93,94,94,95,95,96,96,97,97,98,98,99,99,100,100,101,101,102,102,103,103,104,104,105,105,106,106,107,107,108,108],"right_children":[2,4,6,8,10,12,14,16,18,20,22,24,26,28,30,32,34,36,38,-1,40,42,44,-1,46,48,50,52,54,56,58,60,-1,62,64,66,68,-1,70,-1,72,74,76,78,80,82,84,86,88,90,92,94,96,98,100,102,104,106,108,-1,-1,110,112,114,116,118,120,122,124,126,128,-1,-1,130,132,134,136,138,140,142,144,146,-1,-1,-1,148,-1,150,152,154,156,158,160,162,164,166,168,170,172,174,176,178,180,182,184,186,188,190,192,-1,-1,-1,-1,-1,-1,-1,-1,-1,-1,-1,-1,-1,-1,-1,-1,-1,-1,-1,-1,-1,-1,-1,-1,-1,-1,-1,-1,-1,-1,-1,-1,-1,-1,-1,-1,-1,-1,-1,-1,-1,-1,-1,-1,-1,-1,-1,-1,-1,-1,-1,-1,-1,-1,-1,-1,-1,-1,-1,-1,-1,-1,-1,-1,-1,-1,-1,-1,-1,-1,-1,-1,-1,-1,-1,-1,-1,-1,-1,-1,-1,-1,-1,-1],"split_conditions":[6.621175E-1,6.572582E-1,7.4137926E-2,3.989272E-1,2.7272727E-2,7.876776E-1,1.3137093E-1,2.7272727E-2,3.888889E-1,5.5555556E-2,5.5555556E-2,2.7272727E-2,2.777778E-1,1.6666667E-1,2.777778E-1,2.4097994E-1,3.8835415E-1,7.090609E-2,4.1296717E-4,3.4882887E-3,1.6666667E-1,5.0082594E-1,6.965602E-1,1.3662027E-1,5.280793E-1,2.7272727E-2,8.2218254E-1,5.5555556E-2,8.4422266E-1,9.212121E-1,2.7518427E-1,6.167303E-2,3.5344902E-2,3.8399246E-1,3.9342475E-1,3.3636364E-1,4.1206574E-1,2.1789977E-2,4.2424244E-1,-5.0251324E-2,2.777778E-1,6.965602E-1,2.086207E-1,8.5862064E-1,2.086207E-1,7.635859E-1,7.508172E-1,8.7090075E-1,1.8181819E-1,3.888889E-1,2.7272727E-2,7.807063E-1,9.6551724E-2,8.2218254E-1,2.1896552E-1,7.2128004E-1,3.327586E-1,7.2128004E-1,7.258621E-1,6.334618E-4,-1.7686518E-3,3.757258E-1,3.8608843E-1,2.088452E-1,5.0041294E-1,6.4103043E-1,1.6666667E-1,1.4310345E-1,4.1965395E-1,5.152396E-1,6.474741E-1,-8.9845207E-4,-2.787425E-2,2.7068967E-1,3.275862E-1,4.2424244E-1,2.689655E-1,7.222222E-1,6.4496315E-1,1.15517244E-1,7.2727275E-1,7.290039E-1,9.769802E-2,1.3193012E-2,-9.445046E-3,8.31193E-1,-2.3421213E-1,8.751397E-1,8.2218254E-1,7.958708E-1,2.7272727E-2,8.7090075E-1,8.349742E-1,6.830467E-1,8.0838656E-1,7.958708E-1,4.1296717E-4,7.958708E-1,6.142506E-3,4.1296717E-4,3.888889E-1,5.5344826E-1,7.5122225E-1,5.8854413E-1,9.2556846E-1,3.275862E-1,8.2593434E-4,4.2424244E-1,6.4742017E-1,-2.3880682E-4,-2.5682186E-3,5.6606457E-3,-7.187369E-4,-5.199397E-3,-1.5490239E-3,-2.044297E-3,-6.357426E-3,1.0889591E-2,2.4563083E-2,9.670419E-3,2.7020976E-3,1.265021E-2,4.248983E-3,-6.249824E-3,1.5372119E-3,-3.2228518E-3,6.7348066E-3,-6.5691955E-4,1.7228704E-3,-1.5034309E-3,-2.8663105E-4,2.4327295E-2,-6.932854E-4,4.7150537E-4,-8.3476705E-5,-1.2759134E-3,-5.540328E-4,-5.261158E-3,2.0028558E-2,-2.2370074E-2,1.1008842E-2,8.9822506E-4,-2.0539615E-2,4.5817858E-3,-2.1448564E-3,9.2207655E-2,1.9799735E-2,-2.9944612E-2,1.2570669E-2,9.000161E-3,-3.9126046E-2,-2.887928E-3,1.7191619E-2,-5.982073E-2,-1.4660228E-2,2.3069582E-3,-1.6384015E-2,2.0134663E-2,1.3116427E-1,6.181225E-2,4.198521E-3,3.3151212E-3,9.367882E-3,-1.5705895E-2,5.163513E-3,-4.2828433E-2,8.070967E-3,-6.595522E-4,6.9110235E-3,4.0500835E-3,1.5802374E-4,2.9803442E-2,7.849559E-3,9.780059E-2,3.7228682E-3,2.380819E-3,4.6264762E-5,7.4626794E-3,-1.870001E-3,-2.890656E-3,1.4953829E-3,2.6190816E-3,-4.8873774E-3,5.117009E-4,9.638321E-2,4.4296263E-4,5.2550496E-3,-1.3266911E-2,-2.2909238E-3,6.454153E-3,1.1192482E-3,-5.882372E-3,-7.4348954E-4],"split_indices":[1,1,3,1,2,1,7,2,4,4,4,2,4,4,4,1,1,7,8,0,4,8,11,0,7,2,1,4,1,2,11,1,0,1,1,2,1,0,2,0,4,11,3,3,3,1,1,1,2,4,2,1,3,1,3,1,3,1,3,0,0,1,1,11,8,1,4,3,1,1,1,0,0,3,3,2,3,4,11,3,11,1,0,0,0,1,0,1,1,1,2,1,1,11,1,1,8,1,11,8,4,3,1,7,1,3,8,2,11,0,0,0,0,0,0,0,0,0,0,0,0,0,0,0,0,0,0,0,0,0,0,0,0,0,0,0,0,0,0,0,0,0,0,0,0,0,0,0,0,0,0,0,0,0,0,0,0,0,0,0,0,0,0,0,0,0,0,0,0,0,0,0,0,0,0,0,0,0,0,0,0,0,0,0,0,0,0,0,0,0,0,0,0],"split_type":[0,0,0,0,0,0,0,0,0,0,0,0,0,0,0,0,0,0,0,0,0,0,0,0,0,0,0,0,0,0,0,0,0,0,0,0,0,0,0,0,0,0,0,0,0,0,0,0,0,0,0,0,0,0,0,0,0,0,0,0,0,0,0,0,0,0,0,0,0,0,0,0,0,0,0,0,0,0,0,0,0,0,0,0,0,0,0,0,0,0,0,0,0,0,0,0,0,0,0,0,0,0,0,0,0,0,0,0,0,0,0,0,0,0,0,0,0,0,0,0,0,0,0,0,0,0,0,0,0,0,0,0,0,0,0,0,0,0,0,0,0,0,0,0,0,0,0,0,0,0,0,0,0,0,0,0,0,0,0,0,0,0,0,0,0,0,0,0,0,0,0,0,0,0,0,0,0,0,0,0,0,0,0,0,0,0,0,0,0,0,0,0,0],"sum_hessian":[7.84E3,3.724E3,4.116E3,1.551E3,2.173E3,1.07E2,4.009E3,9.27E2,6.24E2,9E0,2.164E3,1.2E1,9.5E1,3.262E3,7.47E2,3E0,9.24E2,4.68E2,1.56E2,1E0,8E0,4.03E2,1.761E3,2E0,1E1,5.4E1,4.1E1,6.22E2,2.64E3,4.68E2,2.79E2,2E0,1E0,8.78E2,4.6E1,1.33E2,3.35E2,2E0,1.54E2,3E0,5E0,4.9E1,3.54E2,1.264E3,4.97E2,8E0,2E0,6E0,4.8E1,8E0,3.3E1,3E1,5.92E2,1.878E3,7.62E2,3.89E2,7.9E1,7E1,2.09E2,1E0,1E0,8.49E2,2.9E1,3.6E1,1E1,3E0,1.3E2,5.4E1,2.81E2,5E0,1.49E2,2E0,3E0,3.8E1,1.1E1,5.2E1,3.02E2,1.246E3,1.8E1,2.1E1,4.76E2,6E0,2E0,1E0,1E0,5E0,1E0,2.2E1,2.6E1,2E0,6E0,7E0,2.6E1,1.7E1,1.3E1,2E0,5.9E2,1.381E3,4.97E2,1.06E2,6.56E2,2.5E1,3.64E2,5.9E1,2E1,1.2E1,5.8E1,1.87E2,2.2E1,8.15E2,3.4E1,2.1E1,8E0,7E0,2.9E1,1E0,9E0,1E0,2E0,2.2E1,1.08E2,4E0,5E1,1.2E1,2.69E2,1E0,4E0,1.34E2,1.5E1,1.3E1,2.5E1,2E0,9E0,2.6E1,2.6E1,3.7E1,2.65E2,1.243E3,3E0,3E0,1.5E1,3E0,1.8E1,9.1E1,3.85E2,1E0,5E0,3E0,2E0,1.4E1,8E0,7E0,1.9E1,1E0,1E0,1E0,5E0,3E0,4E0,1E1,1.6E1,1.4E1,3E0,1E1,3E0,1E0,1E0,2.4E1,5.66E2,1.105E3,2.76E2,7E0,4.9E2,3E0,1.03E2,4.28E2,2.28E2,1.8E1,7E0,2.3E1,3.41E2,4.9E1,1E1,1.7E1,3E0,9E0,3E0,1E0,5.7E1,9E0,1.78E2,7E0,1.5E1],"tree_param":{"num_deleted":"0","num_feature":"12","num_nodes":"193","size_leaf_vector":"0"}},{"base_weights":[9.104384E-2,-5.950416E-2,2.2551413E-1,3.1116601E-2,-1.23951614E-1,2.4913416E0,1.9583698E-1,-9.390107E-3,8.305295E-2,-3.1922695E-1,-6.64375E-2,4.484808E-1,3.9856534E0,2.2522476E-1,6.40172E-2,2.9532742E-2,-2.4939772E-2,7.5286955E-1,7.373359E-2,-1.3766159E0,-2.9443938E-1,2.2346663E-1,-1.0005638E-1,3.8748326E0,-8.11278E-1,8.741846E0,2.7435584E0,6.1244047E-1,2.1437113E-1,1.0813993E-1,2.638276E-2,2.4020651E-2,2.7856153E-1,-9.191182E-3,-6.4493686E-2,1.7407391E0,5.629582E-1,3.8361426E-2,1.6372535E-1,-2.3398483E-1,-4.7260362E-1,5.172103E-1,1.4412276E-1,-3.6386952E-1,-8.5115805E-2,8.072837E0,2.5803041E0,-1.627135E0,-4.3537796E-1,2.6816473E1,3.6735852E0,3.0481794E0,-6.8845296E-1,2.1757127E-1,1.457548E0,1.8805924E-1,3.571767E-1,3.2302395E-2,1.6404133E-1,6.920872E-2,-5.7578485E-2,8.6486034E-2,1.3767056E-2,7.25306E-1,1.1636421E-1,-3.6690265E-2,1.40805105E-2,-8.7116905E-2,6.3273325E-3,6.243765E-1,7.370593E-2,2.7602304E-2,1.6684178E-1,3.1701243E-1,1.2841405E-1,-1.6255705E-1,-5.080407E-1,-6.1243933E-1,-1.3175535E-1,2.6732767E-1,8.321541E-1,-6.981618E-2,3.21184E-1,-9.6367764E-1,-5.9629034E-2,1.8604252E-2,-1.167204E-1,4.541235E0,1.775045E0,6.1864495E-1,-2.1962733E0,-1.2302052E-1,-9.992611E-1,-8.836263E-1,6.5004735E0,1.6505399E0,4.248925E0,3.7548736E-1,-8.379714E-1,1.0199845E0,2.990603E0,8.1153184E-2,2.1003877E-1,7.1700686E-1,2.7591103E-1,5.636429E-1,2.3658412E-2,3.5827136E-1,1.11674644E-1,1.7736307E-1,5.128041E-2,-3.555281E-1,7.340587E-2,-4.54067E-2,1.0484782E-1,-1.3591361E-1,1.6942183E-2,2.2397876E-1,5.73959E-2,-2.4132311E-1,-3.3205166E-2,-4.4061597E-3,3.374162E-2,-4.3720648E-2,-1.6463317E-1,1.8707007E-1,-1.6577828E-1,5.101817E-1,9.9991757E-1,7.081581E-2,-1.3704827E-2,4.1383916E-1,-2.4205318E-2,2.4033433E-1,5.541164E-1,1.0790786E-1,4.1129562E-1,-5.357627E-1,-6.653956E-2,-9.2846614E-1,-4.1516268E-1,-3.426978E-1,-1.0057778E0,8.467878E-1,-2.973725E-1,5.72258E-1,-6.8054515E-1,2.3763866E0,5.6039953E-1,1.557961E-1,-8.457077E-1,1.8716949E-1,7.729214E-1,-1.1994007E0,-7.2098494E-1,1.217228E-2,-1.1636403E0,2.8374864E-2,-1.377848E0,2.5192067E-1,-1.3176268E-1,1.140097E0,2.90772E0,-4.5199513E-1,-1.1139387E0,3.6010559E0,-7.6659106E-2,5.780736E-2,1.3736534E0,-1.3374239E0,6.312747E-1,3.8352087E0,6.9544077E-1,1.2377807E1,4.5395976E-1,3.6490887E-1,5.050553E-2,2.548141E-1,1.2126389E-1,1.4686146E-1,1.2141544E0,-2.795371E-1,3.054639E-1,-3.6688405E-1,3.8441334E-2,2.2296212E0,1.4323267E-1,-4.324715E-2,1.4517714E-1,2.6902753E-1,-7.8316115E-2,-1.22973055E-1,8.127984E-2,-4.7407907E-1,-1.3553667E-1,2.928765E-1,3.7825346E-2],"categories":[],"categories_nodes":[],"categories_segments":[],"categories_sizes":[],"default_left":[true,true,true,true,true,true,true,true,true,true,true,true,true,true,true,true,true,true,true,false,true,true,true,true,true,true,true,true,true,true,true,true,true,true,true,false,true,true,true,true,true,true,true,true,true,false,true,true,true,false,true,true,false,true,true,true,true,true,true,true,true,true,true,false,true,true,true,true,true,true,false,true,true,true,true,true,true,true,true,true,true,true,true,true,true,true,true,false,true,false,false,false,true,false,false,true,false,true,true,true,true,true,true,true,true,false,true,true,true,true,true,true,true,false,false,false,false,false,false,false,false,false,false,false,false,false,false,false,false,false,false,false,false,false,false,false,false,false,false,false,false,false,false,false,false,false,false,false,false,false,false,false,false,false,false,false,false,false,false,false,false,false,false,false,false,false,false,false,false,false,false,false,false,false,false,false,false,false,false,false,false,false,false,false,false,false,false,false,false,false,false,false,false,false,false,false,false],"id":164,"left_children":[1,3,5,7,9,11,13,15,17,19,21,23,25,27,29,31,33,35,37,-1,39,41,43,45,47,49,51,53,55,57,59,61,63,65,67,-1,69,71,73,75,77,79,81,83,85,-1,87,89,91,-1,93,95,-1,97,99,101,103,105,107,109,111,113,115,-1,117,119,121,123,125,127,-1,129,131,133,135,137,139,141,143,145,147,149,151,153,155,157,159,-1,161,-1,-1,-1,163,-1,-1,165,-1,167,169,171,173,175,177,179,181,-1,183,185,187,189,191,193,195,-1,-1,-1,-1,-1,-1,-1,-1,-1,-1,-1,-1,-1,-1,-1,-1,-1,-1,-1,-1,-1,-1,-1,-1,-1,-1,-1,-1,-1,-1,-1,-1,-1,-1,-1,-1,-1,-1,-1,-1,-1,-1,-1,-1,-1,-1,-1,-1,-1,-1,-1,-1,-1,-1,-1,-1,-1,-1,-1,-1,-1,-1,-1,-1,-1,-1,-1,-1,-1,-1,-1,-1,-1,-1,-1,-1,-1,-1,-1,-1,-1,-1,-1,-1],"loss_changes":[1.6117792E2,2.1940638E1,2.8257944E2,3.2859979E0,2.4643406E1,1.6520285E2,1.6072876E1,5.3117496E-1,4.241485E0,1.2928585E1,1.6538591E1,1.01808044E2,1.7694525E2,1.4209793E1,1.254708E0,3.3707765E-1,3.8952884E-1,1.3913803E0,2.1447468E0,0E0,5.2128067E0,4.07547E0,5.975692E0,2.7320557E1,5.0501842E0,5.469038E2,2.7218658E1,3.068267E1,1.2378296E1,1.4721656E0,1.4733437E0,1.5530771E-1,3.4631678E-1,2.8804582E-1,2.87062E-1,0E0,2.2510886E-1,6.665844E-1,1.0103011E0,7.1143723E0,5.840891E0,2.84824E0,5.2890573E0,1.4808455E1,4.7203026E0,0E0,5.6436806E0,7.2926226E0,2.1153305E0,0E0,7.070524E1,3.6735657E1,0E0,1.0655205E1,1.8602737E1,6.54438E0,1.4930679E1,6.6845644E-1,2.017583E0,5.1982796E-1,5.4114313E0,8.5583806E-2,9.950817E-2,0E0,1.919907E-2,1.4056188E-1,8.891206E-2,4.498781E-1,1.3586128E0,1.22837305E-1,0E0,8.01425E-1,1.7705951E0,5.866451E-1,8.788557E-1,1.03834095E1,2.7939358E0,9.131882E0,5.964465E0,6.294449E0,6.368395E0,1.1140344E1,4.5592437E0,1.2479382E0,4.328133E0,4.5827866E0,6.1275635E0,0E0,1.9533634E0,0E0,0E0,0E0,8.172703E-2,0E0,0E0,3.832399E1,0E0,1.74992E1,6.4068737E0,2.036489E1,1.4875574E2,4.1303377E0,9.179657E0,2.6659607E1,6.912237E0,0E0,8.448539E-1,1.689518E1,8.253404E-1,9.0815616E-1,1.2224901E0,1.0739422E0,7.4384516E-1,0E0,0E0,0E0,0E0,0E0,0E0,0E0,0E0,0E0,0E0,0E0,0E0,0E0,0E0,0E0,0E0,0E0,0E0,0E0,0E0,0E0,0E0,0E0,0E0,0E0,0E0,0E0,0E0,0E0,0E0,0E0,0E0,0E0,0E0,0E0,0E0,0E0,0E0,0E0,0E0,0E0,0E0,0E0,0E0,0E0,0E0,0E0,0E0,0E0,0E0,0E0,0E0,0E0,0E0,0E0,0E0,0E0,0E0,0E0,0E0,0E0,0E0,0E0,0E0,0E0,0E0,0E0,0E0,0E0,0E0,0E0,0E0,0E0,0E0,0E0,0E0,0E0,0E0,0E0,0E0,0E0,0E0,0E0,0E0],"parents":[2147483647,0,0,1,1,2,2,3,3,4,4,5,5,6,6,7,7,8,8,9,9,10,10,11,11,12,12,13,13,14,14,15,15,16,16,17,17,18,18,20,20,21,21,22,22,23,23,24,24,25,25,26,26,27,27,28,28,29,29,30,30,31,31,32,32,33,33,34,34,36,36,37,37,38,38,39,39,40,40,41,41,42,42,43,43,44,44,46,46,47,47,48,48,50,50,51,51,53,53,54,54,55,55,56,56,57,57,58,58,59,59,60,60,61,61,62,62,64,64,65,65,66,66,67,67,68,68,69,69,71,71,72,72,73,73,74,74,75,75,76,76,77,77,78,78,79,79,80,80,81,81,82,82,83,83,84,84,85,85,86,86,88,88,92,92,95,95,97,97,98,98,99,99,100,100,101,101,102,102,103,103,104,104,106,106,107,107,108,108,109,109,110,110,111,111,112,112],"right_children":[2,4,6,8,10,12,14,16,18,20,22,24,26,28,30,32,34,36,38,-1,40,42,44,46,48,50,52,54,56,58,60,62,64,66,68,-1,70,72,74,76,78,80,82,84,86,-1,88,90,92,-1,94,96,-1,98,100,102,104,106,108,110,112,114,116,-1,118,120,122,124,126,128,-1,130,132,134,136,138,140,142,144,146,148,150,152,154,156,158,160,-1,162,-1,-1,-1,164,-1,-1,166,-1,168,170,172,174,176,178,180,182,-1,184,186,188,190,192,194,196,-1,-1,-1,-1,-1,-1,-1,-1,-1,-1,-1,-1,-1,-1,-1,-1,-1,-1,-1,-1,-1,-1,-1,-1,-1,-1,-1,-1,-1,-1,-1,-1,-1,-1,-1,-1,-1,-1,-1,-1,-1,-1,-1,-1,-1,-1,-1,-1,-1,-1,-1,-1,-1,-1,-1,-1,-1,-1,-1,-1,-1,-1,-1,-1,-1,-1,-1,-1,-1,-1,-1,-1,-1,-1,-1,-1,-1,-1,-1,-1,-1,-1,-1,-1],"split_conditions":[6.621175E-1,6.572582E-1,1.8095067E-2,3.8399246E-1,2.3811668E-1,8.2218254E-1,1.3137093E-1,1.0025515E-1,3.2949224E-2,2.7272727E-2,3.0626574E-1,7.7843237E-1,2.7272727E-2,4.7803383E-2,6.666666E-1,9.780176E-2,6.736668E-2,2.7272727E-2,8.30303E-1,-2.7532317E-2,8.30303E-1,1.3234043E-1,1.6680852E-1,2.7272727E-2,2.7272727E-2,8.3943033E-1,9.28372E-1,8.76709E-1,9.212121E-1,2.0297873E-1,9.02244E-1,1.417897E-1,2.6170212E-1,2.3312274E-1,3.443045E-1,3.4814782E-2,6.47778E-1,6.474741E-1,3.139179E-1,1.9490457E-1,1.768095E-1,2.6872525E-1,3.5106385E-1,3.6811307E-1,3.5106385E-1,1.6145673E-1,7.290039E-1,9.8790765E-1,7.958708E-1,5.3632945E-1,8.7090075E-1,8.62944E-1,-1.37690585E-2,8.349742E-1,3.970112E-2,7.635859E-1,1.7491898E-1,2.4936981E-2,3.7090385E-1,7.2128004E-1,9.4889903E-1,2.1276595E-3,1.4305004E-1,1.4506119E-2,5.030303E-1,5E-1,7.559238E-2,3.1986278E-1,3.7000573E-1,9.689189E-1,1.4741184E-3,6.242424E-1,6.4979887E-1,9.689189E-1,6.474741E-1,2.9618293E-2,2.024667E-1,1.1955348E-1,1.814008E-1,2.5774217E-1,4.2424244E-1,7.2727275E-1,2.873605E-1,3.35704E-1,6.841016E-1,8.899892E-1,3.4560677E-1,9.08247E-2,7.563675E-1,1.2372899E-2,-4.3925464E-2,-2.4604104E-3,8.0966675E-1,-1.7672526E-2,1.3000947E-1,8.349742E-1,8.4978506E-2,8.2218254E-1,8.5870504E-1,1.48936175E-2,4.2401873E-2,4.2424244E-1,8.4422266E-1,1.3161685E-1,1.9616494E-1,1.1272858E-2,3.9250992E-2,3.1148937E-1,7.684338E-1,9.212121E-1,7.5122225E-1,6.685272E-1,3.5289884E-1,-9.08134E-4,2.0969564E-3,-2.7182722E-3,3.3884365E-4,4.479575E-3,1.147918E-3,-4.8264624E-3,-6.641033E-4,-8.812319E-5,6.748324E-4,-8.7441294E-4,-3.2926633E-3,3.7414012E-3,-3.3155654E-3,1.0203634E-2,1.9998351E-2,1.4163161E-3,-2.7409653E-4,8.276783E-3,-4.8410633E-4,4.8066867E-3,1.1082328E-2,2.1581573E-3,8.225912E-3,-1.0715255E-2,-1.3307913E-3,-1.8569322E-2,-8.303254E-3,-6.853956E-3,-2.0115556E-2,1.6935756E-2,-5.9474497E-3,1.144516E-2,-1.3610903E-2,4.752773E-2,1.120799E-2,3.1159217E-3,-1.6914153E-2,3.7433899E-3,1.5458427E-2,-2.3988012E-2,-1.4419698E-2,2.434456E-4,-2.3272805E-2,5.674973E-4,-2.755696E-2,5.038413E-3,-2.6352536E-3,2.280194E-2,5.81544E-2,-9.039902E-3,-2.2278773E-2,7.202112E-2,-1.5331821E-3,1.1561472E-3,2.7473068E-2,-2.6748478E-2,1.2625494E-2,7.6704174E-2,1.3908815E-2,2.4755614E-1,9.079195E-3,7.298177E-3,1.0101106E-3,5.096282E-3,2.4252778E-3,2.9372291E-3,2.4283087E-2,-5.590742E-3,6.109278E-3,-7.337681E-3,7.6882663E-4,4.459242E-2,2.8646535E-3,-8.6494297E-4,2.9035427E-3,5.3805504E-3,-1.5663223E-3,-2.459461E-3,1.6255967E-3,-9.481581E-3,-2.7107333E-3,5.85753E-3,7.565069E-4],"split_indices":[1,1,5,1,5,1,7,1,5,2,5,1,2,5,2,1,7,2,2,0,2,10,10,2,2,1,1,1,2,10,1,5,10,1,1,0,1,1,5,5,5,5,10,5,10,0,1,6,1,0,1,1,0,1,5,1,5,5,5,1,1,10,5,0,2,0,6,1,1,6,0,2,1,6,1,5,5,5,5,5,2,2,5,5,5,5,5,0,1,0,0,0,1,0,0,1,0,1,1,10,5,2,1,5,5,0,5,10,1,2,1,5,5,0,0,0,0,0,0,0,0,0,0,0,0,0,0,0,0,0,0,0,0,0,0,0,0,0,0,0,0,0,0,0,0,0,0,0,0,0,0,0,0,0,0,0,0,0,0,0,0,0,0,0,0,0,0,0,0,0,0,0,0,0,0,0,0,0,0,0,0,0,0,0,0,0,0,0,0,0,0,0,0,0,0,0,0],"split_type":[0,0,0,0,0,0,0,0,0,0,0,0,0,0,0,0,0,0,0,0,0,0,0,0,0,0,0,0,0,0,0,0,0,0,0,0,0,0,0,0,0,0,0,0,0,0,0,0,0,0,0,0,0,0,0,0,0,0,0,0,0,0,0,0,0,0,0,0,0,0,0,0,0,0,0,0,0,0,0,0,0,0,0,0,0,0,0,0,0,0,0,0,0,0,0,0,0,0,0,0,0,0,0,0,0,0,0,0,0,0,0,0,0,0,0,0,0,0,0,0,0,0,0,0,0,0,0,0,0,0,0,0,0,0,0,0,0,0,0,0,0,0,0,0,0,0,0,0,0,0,0,0,0,0,0,0,0,0,0,0,0,0,0,0,0,0,0,0,0,0,0,0,0,0,0,0,0,0,0,0,0,0,0,0,0,0,0,0,0,0,0,0,0,0,0,0,0],"sum_hessian":[7.961E3,3.756E3,4.205E3,1.561E3,2.195E3,5.4E1,4.151E3,8.77E2,6.84E2,4.99E2,1.696E3,2.3E1,3.1E1,3.394E3,7.57E2,2.5E2,6.27E2,9E0,6.75E2,1.1E1,4.88E2,1.76E2,1.52E3,6E0,1.7E1,6E0,2.5E1,9.2E1,3.302E3,3.48E2,4.09E2,2.45E2,5E0,4.49E2,1.78E2,1E0,8E0,4.85E2,1.9E2,3.65E2,1.23E2,3.7E1,1.39E2,8.1E1,1.439E3,1E0,5E0,5E0,1.2E1,1E0,5E0,2.3E1,2E0,6.3E1,2.9E1,2.789E3,5.13E2,1.48E2,2E2,2.71E2,1.38E2,3.4E1,2.11E2,1E0,4E0,2.06E2,2.43E2,1.35E2,4.3E1,7E0,1E0,4.48E2,3.7E1,3.5E1,1.55E2,2.9E2,7.5E1,8.7E1,3.6E1,2.1E1,1.6E1,6.3E1,7.6E1,2.7E1,5.4E1,3.36E2,1.103E3,1E0,4E0,1E0,4E0,8E0,4E0,2E0,3E0,1.1E1,1.2E1,5.5E1,8E0,2.3E1,6E0,4.76E2,2.313E3,9.4E1,4.19E2,2E0,1.46E2,4.2E1,1.58E2,3.8E1,2.33E2,4.2E1,9.6E1,4E0,3E1,4E0,2.07E2,1E0,3E0,3E0,2.03E2,1.25E2,1.18E2,8.7E1,4.8E1,2.1E1,2.2E1,6E0,1E0,2.19E2,2.29E2,1.6E1,2.1E1,2.7E1,8E0,1.45E2,1E1,5.9E1,2.31E2,1.3E1,6.2E1,5.2E1,3.5E1,5E0,3.1E1,1.6E1,5E0,2E0,1.4E1,4.9E1,1.4E1,5.9E1,1.7E1,1.3E1,1.4E1,5.1E1,3E0,3.34E2,2E0,4.3E1,1.06E3,3E0,1E0,1E0,3E0,5E0,6E0,4.2E1,1.3E1,6E0,2E0,2E0,2.1E1,1E0,5E0,4.6E1,4.3E2,1.537E3,7.76E2,4.4E1,5E1,2.1E1,3.98E2,5E0,1.41E2,4E0,3.8E1,2.8E1,1.3E2,2.8E1,1E1,3.4E1,1.99E2,2.7E1,1.5E1,1.3E1,8.3E1],"tree_param":{"num_deleted":"0","num_feature":"12","num_nodes":"197","size_leaf_vector":"0"}},{"base_weights":[6.955617E-2,7.417203E-1,6.687163E-2,6.0498214E-1,3.6560218E0,1.4992109E-2,7.7084474E-2,-8.867896E-2,6.30124E-1,1.7603606E-1,1.1889676E-2,1.2475354E-1,6.610848E-2,1.7146307E0,5.711636E-1,2.6417893E-1,-1.5180795E-1,-9.30175E-1,1.28882425E-2,1.20032944E-1,1.4455711E0,2.1994829E-1,6.1796345E-2,1.793236E-1,6.492496E-1,-2.7603468E-1,-4.5382205E-2,-4.200431E-3,3.7483994E-2,1.4633286E-1,-1.45708835E-2,1.997268E0,1.0759885E0,-8.041578E-1,2.2900048E-1,5.326624E-2,1.3385054E-1,2.1556494E-1,-6.280461E-2,2.3669876E-1,7.8610766E-1,3.4603775E-2,-9.0717845E-2,-1.5562974E-2,1.1203497E-2,1.0693278E-1,2.3038406E-2,-2.4578167E-2,1.703298E-1,3.5737923E-1,-6.356498E-2,2.6315635E-1,-2.5494961E-2,5.8402628E-2,-1.0354513E-1,5.9495896E-1,1.0396822E-1,1.0325247E-1,3.1613004E-1,-8.651103E-2,-1.2695215E-2,7.1441405E-2,-1.7930467E-2,7.29228E-2,5.330928E-3,-1.2282171E-1,1.2120937E-1,1.2903247E-2,7.568773E-2,3.4247655E-2,-1.3639702E0,9.1722417E-1,1.4415671E-1,9.533887E-3,6.662019E-1,-2.9199837E-2,-5.213637E-1,2.0246021E-1,4.9284625E-1,2.6690307E-1,-1.8940386E-1,5.2206542E-2,1.661254E-1,-5.532521E-2,-4.2109987E-1,3.0457404E-1,4.403063E0,-9.7466254E-1,1.1305177E-1],"categories":[],"categories_nodes":[],"categories_segments":[],"categories_sizes":[],"default_left":[true,true,true,true,false,true,true,false,true,true,true,true,true,false,false,true,true,false,true,true,true,true,true,true,true,false,true,true,true,true,true,false,false,false,true,true,true,true,true,false,false,false,false,true,true,true,true,true,true,true,true,true,true,true,true,true,true,false,false,false,false,false,false,false,false,false,false,false,false,false,false,false,false,false,false,false,false,false,false,false,false,false,false,false,false,false,false,false,false],"id":165,"left_children":[1,3,5,7,-1,9,11,-1,13,15,17,19,21,-1,-1,23,25,-1,27,29,31,33,35,37,39,-1,41,43,45,47,49,-1,-1,-1,51,53,55,57,59,-1,-1,-1,-1,61,63,65,67,69,71,73,75,77,79,81,83,85,87,-1,-1,-1,-1,-1,-1,-1,-1,-1,-1,-1,-1,-1,-1,-1,-1,-1,-1,-1,-1,-1,-1,-1,-1,-1,-1,-1,-1,-1,-1,-1,-1],"loss_changes":[1.4209652E1,1.1687914E1,4.162472E0,5.5537033E-1,0E0,6.4280725E-1,3.4301338E0,0E0,1.5164824E0,7.1814364E-1,1.184994E0,7.5785294E0,3.5327835E0,0E0,0E0,5.8108354E-1,6.1751276E-2,0E0,5.336189E-1,4.336817E0,1.2310505E-1,1.400506E0,3.1869335E0,1.5002072E-1,1.11572266E-1,0E0,1.3935128E-2,1.3109949E-1,5.1933795E-1,4.2046165E0,3.654133E0,0E0,0E0,0E0,1.2602482E0,3.7421255E0,7.538664E0,1.4502549E-1,9.906357E-4,0E0,0E0,0E0,0E0,8.851086E-2,1.1377194E-1,2.9796517E-1,2.2857422E-1,9.988464E0,1.7501863E1,2.4947836E0,2.7769363E0,1.7320004E0,8.4648746E-1,2.995782E0,2.2414732E0,3.634633E1,5.083387E0,0E0,0E0,0E0,0E0,0E0,0E0,0E0,0E0,0E0,0E0,0E0,0E0,0E0,0E0,0E0,0E0,0E0,0E0,0E0,0E0,0E0,0E0,0E0,0E0,0E0,0E0,0E0,0E0,0E0,0E0,0E0,0E0],"parents":[2147483647,0,0,1,1,2,2,3,3,5,5,6,6,8,8,9,9,10,10,11,11,12,12,15,15,16,16,18,18,19,19,20,20,21,21,22,22,23,23,24,24,26,26,27,27,28,28,29,29,30,30,34,34,35,35,36,36,37,37,38,38,43,43,44,44,45,45,46,46,47,47,48,48,49,49,50,50,51,51,52,52,53,53,54,54,55,55,56,56],"right_children":[2,4,6,8,-1,10,12,-1,14,16,18,20,22,-1,-1,24,26,-1,28,30,32,34,36,38,40,-1,42,44,46,48,50,-1,-1,-1,52,54,56,58,60,-1,-1,-1,-1,62,64,66,68,70,72,74,76,78,80,82,84,86,88,-1,-1,-1,-1,-1,-1,-1,-1,-1,-1,-1,-1,-1,-1,-1,-1,-1,-1,-1,-1,-1,-1,-1,-1,-1,-1,-1,-1,-1,-1,-1,-1],"split_conditions":[2.7272727E-2,5.8854413E-1,7.920965E-1,3.8609636E-1,7.312044E-2,3.9791144E-2,2.6206896E-1,-1.7735793E-3,8.110852E-1,4.3448275E-1,4.132157E-2,7.927619E-1,3.3636364E-1,3.4292612E-2,1.1423272E-2,6.216216E-1,4.9310344E-1,-1.86035E-2,3.9510223E-1,6.965602E-1,9.090909E-1,4.924379E-2,9.207778E-1,2.2604424E-1,1.6034482E-1,-5.5206935E-3,3.6677136E-3,1.3484347E-1,2.5344828E-1,2.817789E-2,5.0082594E-1,3.9945357E-2,2.151977E-2,-1.6083155E-2,5.191754E-1,9.0232265E-1,9.247389E-1,4.0821142E-2,3.3636364E-1,4.733975E-3,1.5722154E-2,6.9207547E-4,-1.8143569E-3,2.0884521E-2,5.0082594E-1,1.15517244E-1,9.212121E-1,2.664746E-2,4.1771695E-2,6.0406916E-2,7.004862E-1,4.1551724E-1,4.1551724E-1,8.6802304E-1,7.724138E-1,9.244689E-1,3.4520882E-1,2.0650493E-3,6.322601E-3,-1.7302206E-3,-2.539043E-4,1.4288281E-3,-3.5860934E-4,1.458456E-3,1.0661856E-4,-2.456434E-3,2.4241873E-3,2.5806495E-4,1.5137546E-3,6.849531E-4,-2.7279403E-2,1.8344482E-2,2.8831342E-3,1.9067773E-4,1.3324037E-2,-5.839967E-4,-1.0427273E-2,4.0492043E-3,9.856924E-3,5.338061E-3,-3.788077E-3,1.0441308E-3,3.322508E-3,-1.1065042E-3,-8.421998E-3,6.0914806E-3,8.806125E-2,-1.949325E-2,2.2610354E-3],"split_indices":[2,7,6,6,0,5,3,0,6,3,5,5,2,0,0,11,3,0,6,11,2,5,5,11,3,0,6,6,3,5,8,0,0,0,5,5,5,7,2,0,0,0,0,11,8,3,2,5,5,5,5,3,3,5,3,5,11,0,0,0,0,0,0,0,0,0,0,0,0,0,0,0,0,0,0,0,0,0,0,0,0,0,0,0,0,0,0,0,0],"split_type":[0,0,0,0,0,0,0,0,0,0,0,0,0,0,0,0,0,0,0,0,0,0,0,0,0,0,0,0,0,0,0,0,0,0,0,0,0,0,0,0,0,0,0,0,0,0,0,0,0,0,0,0,0,0,0,0,0,0,0,0,0,0,0,0,0,0,0,0,0,0,0,0,0,0,0,0,0,0,0,0,0,0,0,0,0,0,0,0,0],"sum_hessian":[7.89E3,3.1E1,7.859E3,3E1,1E0,1.293E3,6.566E3,1E0,2.9E1,2.4E1,1.269E3,1.228E3,5.338E3,1E0,2.8E1,1.9E1,5E0,1E0,1.268E3,1.224E3,4E0,1.45E2,5.193E3,1.6E1,3E0,2E0,3E0,7.48E2,5.2E2,1.024E3,2E2,1E0,3E0,1E0,1.44E2,4.644E3,5.49E2,1.4E1,2E0,1E0,2E0,1E0,2E0,4.31E2,3.17E2,8.9E1,4.31E2,1.26E2,8.98E2,2.3E1,1.77E2,1.27E2,1.7E1,4.497E3,1.47E2,3.3E1,5.16E2,7E0,7E0,1E0,1E0,1.1E1,4.2E2,2.7E1,2.9E2,5E0,8.4E1,3.62E2,6.9E1,1.21E2,5E0,3E1,8.68E2,1.1E1,1.2E1,1.65E2,1.2E1,1.01E2,2.6E1,6E0,1.1E1,4.253E3,2.44E2,1.28E2,1.9E1,3.1E1,2E0,4E0,5.12E2],"tree_param":{"num_deleted":"0","num_feature":"12","num_nodes":"89","size_leaf_vector":"0"}},{"base_weights":[7.786008E-2,-5.4887246E-2,1.9689634E-1,-6.7166895E-1,-4.4212222E-2,2.9984384E0,1.8989171E-1,-2.0338759E-1,-1.2854235E0,3.0860368E-2,-9.894234E-2,1.5189534E1,-2.677496E0,1.0356774E0,1.8176928E-1,2.8020692E-1,-5.4846144E-1,-8.454602E-2,-1.3294139E0,-5.565911E-4,1.2909442E-1,-2.9943615E-1,-8.015182E-2,6.6031933E0,2.6405703E1,-1.1641027E1,-6.470538E-1,3.2854571E0,5.974229E-1,2.0387454E-1,9.448266E-2,1.16070956E-1,8.551814E-1,-2.0694737E0,-3.9724678E-2,-1.0237682E0,-1.4675945E0,-1.6625838E-2,3.1532105E-2,7.1167046E-1,1.1892146E-1,-1.8000819E-2,-3.921817E-1,-1.3250518E-1,3.877644E-2,6.231155E-1,-1.284509E0,2.2403245E0,4.750734E0,5.5251185E-2,1.9880557E0,-5.393726E-1,2.0666711E-1,7.553759E-2,2.2887228E-1,4.7082713E-1,6.965731E-2,-1.2574218E-1,1.2996347E0,-8.734909E-2,-2.5168593E0,3.3050573E-1,-1.0006869E-1,-3.0345624E-2,-1.2913716E0,-1.5362605E0,-8.0053943E-1,-7.185885E-3,-1.1633889E-1,7.174015E-2,-4.9683984E-2,3.906989E-1,1.199928E0,2.6918796E-1,8.3935656E-2,-5.0982878E-2,-1.0095797E-2,-1.7451482E-1,-6.0147774E-1,-1.8637837E-1,1.8302538E-2,-1.032959E-1,1.7800546E-1,-2.6200185E0,2.2845428E-1,4.4726105E0,1.1189594E0,8.392774E-1,-7.291123E-1,-8.2053345E-1,2.7932768E0,6.084642E-1,-6.598129E-1,3.0035838E-1,1.8504095E-1,6.820488E-2,2.6224E-1,6.612942E-1,6.282864E-2,1.8914695E-1,-2.173561E-3,1.6889142E0,5.7464844E-1,4.907659E-2,-1.13551676E-1,2.1243952E-2,-2.0672008E-2,-1.1117864E-2,-1.6041866E-1,4.5538194E-2,1.7835598E-1,-1.5789896E-1,5.052946E-2,4.6125668E-1,1.0591341E-1,3.2594642E-1,1.5202382E-1,-3.467075E-2,1.4815259E-1,-7.1055605E-3,-2.6884103E-1,-2.7373372E-2,4.0967115E-3,-8.368517E-1,3.7085775E-2,-7.565702E-1,-3.3810446E-1,-2.7549298E-2,-2.4519321E-1,3.2111076E-1,-4.6236522E-2,4.40386E-1,-1.8484037E-1,2.7558962E-1,-2.180245E-1,1.2712256E0,5.6198186E-1,4.7607073E-1,1.7679908E0,-3.8327372E-1,-1.1563754E0,6.4239306E0,1.8795416E0,-8.003177E-1,5.833084E-1,2.607889E-1,4.3122914E-1,3.332399E-1,1.6735673E-1,7.768792E-2,-1.0568064E-1,4.8381645E-2,2.7792352E-1,8.569409E-2,2.6539395E0,1.315534E-1,-2.2691913E-1],"categories":[],"categories_nodes":[],"categories_segments":[],"categories_sizes":[],"default_left":[true,true,true,true,true,true,true,true,true,true,true,true,true,true,true,true,true,false,true,true,true,true,true,false,false,false,true,true,true,true,true,true,true,true,true,true,true,true,true,true,true,true,true,true,true,false,true,true,false,true,true,true,true,true,true,false,true,false,true,false,false,false,true,false,false,false,false,true,true,true,true,true,false,true,true,true,true,true,true,true,true,true,true,false,false,false,true,true,true,false,true,false,true,true,true,true,true,true,true,false,false,false,false,false,false,false,false,false,false,false,false,false,false,false,false,false,false,false,false,false,false,false,false,false,false,false,false,false,false,false,false,false,false,false,false,false,false,false,false,false,false,false,false,false,false,false,false,false,false,false,false,false,false,false,false,false,false],"id":166,"left_children":[1,3,5,7,9,11,13,15,17,19,21,23,25,27,29,31,33,-1,35,37,39,41,43,-1,-1,-1,45,47,49,51,53,55,57,59,61,63,65,67,69,71,73,75,77,79,81,-1,83,85,-1,87,89,91,93,95,97,-1,99,-1,101,-1,-1,-1,103,-1,-1,-1,-1,105,107,109,111,113,-1,115,117,119,121,123,125,127,129,131,133,-1,-1,-1,135,137,139,-1,141,-1,143,145,147,149,151,153,155,-1,-1,-1,-1,-1,-1,-1,-1,-1,-1,-1,-1,-1,-1,-1,-1,-1,-1,-1,-1,-1,-1,-1,-1,-1,-1,-1,-1,-1,-1,-1,-1,-1,-1,-1,-1,-1,-1,-1,-1,-1,-1,-1,-1,-1,-1,-1,-1,-1,-1,-1,-1,-1,-1,-1,-1,-1,-1],"loss_changes":[1.2451285E2,2.4508076E1,8.128848E1,1.8094242E1,1.5049534E1,7.2877423E2,2.8390747E1,6.1182528E0,1.3862991E0,4.7680025E0,7.9671535E0,2.624171E2,1.3078157E2,3.8071945E1,7.9105377E0,1.4001257E0,1.6450232E1,0E0,5.756073E-1,6.034343E-1,2.1784258E0,4.7249393E0,1.2065458E1,0E0,0E0,0E0,5.4044037E0,6.050209E0,2.5066387E1,6.830612E0,2.103939E0,1.8443087E-1,1.5245492E0,4.6191235E0,3.726512E-1,2.449319E0,3.5049438E-1,7.3247653E-1,1.2761528E0,8.135376E-1,1.9238286E0,1.0776646E-2,6.1648464E0,1.0933685E1,1.1723904E1,0E0,8.989826E0,9.098904E0,0E0,1.5169782E1,2.1900425E1,1.8396628E0,6.5866547E0,9.8643637E-1,7.3234525E0,0E0,1.00079805E-1,0E0,3.0262542E-1,0E0,0E0,0E0,3.1601533E-2,0E0,0E0,0E0,0E0,2.7363628E-1,3.0925912E-1,7.241442E-1,1.4067613E0,6.269473E-2,0E0,4.3772984E-1,2.2832172E0,7.508677E-2,9.524036E-3,9.458602E0,2.731161E0,9.254406E0,6.933596E0,1.3028219E1,1.1588974E1,0E0,0E0,0E0,1.8324375E-2,3.8475742E0,1.6526852E0,0E0,2.0183674E1,0E0,2.1383257E0,3.1184082E0,6.925453E0,1.1588116E0,8.253956E-2,3.2382637E1,1.4887856E0,0E0,0E0,0E0,0E0,0E0,0E0,0E0,0E0,0E0,0E0,0E0,0E0,0E0,0E0,0E0,0E0,0E0,0E0,0E0,0E0,0E0,0E0,0E0,0E0,0E0,0E0,0E0,0E0,0E0,0E0,0E0,0E0,0E0,0E0,0E0,0E0,0E0,0E0,0E0,0E0,0E0,0E0,0E0,0E0,0E0,0E0,0E0,0E0,0E0,0E0,0E0,0E0,0E0,0E0,0E0,0E0,0E0,0E0],"parents":[2147483647,0,0,1,1,2,2,3,3,4,4,5,5,6,6,7,7,8,8,9,9,10,10,11,11,12,12,13,13,14,14,15,15,16,16,18,18,19,19,20,20,21,21,22,22,26,26,27,27,28,28,29,29,30,30,31,31,32,32,33,33,34,34,35,35,36,36,37,37,38,38,39,39,40,40,41,41,42,42,43,43,44,44,46,46,47,47,49,49,50,50,51,51,52,52,53,53,54,54,56,56,58,58,62,62,67,67,68,68,69,69,70,70,71,71,73,73,74,74,75,75,76,76,77,77,78,78,79,79,80,80,81,81,82,82,86,86,87,87,88,88,90,90,92,92,93,93,94,94,95,95,96,96,97,97,98,98],"right_children":[2,4,6,8,10,12,14,16,18,20,22,24,26,28,30,32,34,-1,36,38,40,42,44,-1,-1,-1,46,48,50,52,54,56,58,60,62,64,66,68,70,72,74,76,78,80,82,-1,84,86,-1,88,90,92,94,96,98,-1,100,-1,102,-1,-1,-1,104,-1,-1,-1,-1,106,108,110,112,114,-1,116,118,120,122,124,126,128,130,132,134,-1,-1,-1,136,138,140,-1,142,-1,144,146,148,150,152,154,156,-1,-1,-1,-1,-1,-1,-1,-1,-1,-1,-1,-1,-1,-1,-1,-1,-1,-1,-1,-1,-1,-1,-1,-1,-1,-1,-1,-1,-1,-1,-1,-1,-1,-1,-1,-1,-1,-1,-1,-1,-1,-1,-1,-1,-1,-1,-1,-1,-1,-1,-1,-1,-1,-1,-1,-1,-1,-1],"split_conditions":[6.621175E-1,5E-1,2.7272727E-2,1.6666667E-1,6.572582E-1,8.349742E-1,5E-1,5.5555556E-2,3.9563707E-1,5.988887E-1,1.3234043E-1,8.052548E-1,1.6666667E-1,7.703592E-1,7.090609E-2,7.090609E-2,2.7272727E-2,-1.6909204E-3,2.7272727E-2,3.6276892E-1,3.3636364E-1,5.5555556E-2,2.777778E-1,1.3206387E-1,5.28114E-1,-2.3282054E-1,2.777778E-1,7.563675E-1,2.777778E-1,5.5555556E-2,9.212121E-1,2.3846036E-2,3.7589142E-1,3.7807107E-1,1.24946564E-1,2.777778E-1,4.4444448E-1,5.1907774E-2,4.3256068E-1,6.433126E-1,6.2553835E-1,1.48936175E-2,6.0565114E-1,6.965602E-1,7.008511E-1,1.246231E-2,8.7090075E-1,7.290039E-1,9.501468E-2,1.6666667E-1,8.0838656E-1,7.510687E-1,1.6666667E-1,9.998778E-1,1.4619164E-1,9.416542E-3,2.7272727E-2,-2.5148436E-3,3.9780295E-1,-1.7469818E-3,-5.0337184E-2,6.6101146E-3,3.9601722E-1,-6.069125E-4,-2.582743E-2,-3.0725209E-2,-1.601079E-2,1.0025515E-1,3.1986278E-1,4.1965395E-1,4.4565028E-1,6.374643E-1,2.399856E-2,7.008511E-1,6.341465E-1,6.965602E-1,6.621622E-1,3.3636364E-1,7.2727275E-1,5.5555556E-2,7.2727275E-1,5.181818E-1,9.212121E-1,-5.240037E-2,4.5690853E-3,8.945221E-2,2.777778E-1,1.166234E-1,8.349742E-1,-1.641067E-2,8.3943033E-1,1.2169284E-2,8.2185304E-1,9.9787235E-1,4.2424244E-1,9.699887E-1,1.6680852E-1,1.4127764E-1,9.345995E-1,3.782939E-3,-4.3471216E-5,3.3778284E-2,1.1492969E-2,9.815318E-4,-2.2710336E-3,4.2487902E-4,-4.1344017E-4,-2.2235728E-4,-3.2083732E-3,9.1076386E-4,3.5671194E-3,-3.157979E-3,1.0105892E-3,9.225134E-3,2.118268E-3,6.5189283E-3,3.0404765E-3,-6.93415E-4,2.9630517E-3,-1.4211121E-4,-5.3768205E-3,-5.4746744E-4,8.193423E-5,-1.6737035E-2,7.417155E-4,-1.5131404E-2,-6.762089E-3,-5.50986E-4,-4.903864E-3,6.422215E-3,-9.2473044E-4,8.80772E-3,-3.6968072E-3,5.5117924E-3,-4.36049E-3,2.542451E-2,1.1239637E-2,9.5214145E-3,3.5359815E-2,-7.6654744E-3,-2.3127507E-2,1.2847862E-1,3.759083E-2,-1.6006354E-2,1.16661675E-2,5.2157775E-3,8.624583E-3,6.664798E-3,3.3471345E-3,1.5537584E-3,-2.1136126E-3,9.6763286E-4,5.5584703E-3,1.7138817E-3,5.307879E-2,2.6310678E-3,-4.5383824E-3],"split_indices":[1,0,2,4,1,1,0,4,1,1,10,1,4,1,7,7,2,0,2,1,2,4,4,0,0,0,4,1,4,4,2,9,1,1,1,4,4,9,1,1,1,10,11,11,10,0,1,1,0,4,1,1,4,1,11,0,2,0,1,0,0,0,1,0,0,0,0,1,1,1,1,1,0,10,1,11,11,2,11,4,11,2,2,0,0,0,4,7,1,0,1,0,1,10,2,1,10,11,1,0,0,0,0,0,0,0,0,0,0,0,0,0,0,0,0,0,0,0,0,0,0,0,0,0,0,0,0,0,0,0,0,0,0,0,0,0,0,0,0,0,0,0,0,0,0,0,0,0,0,0,0,0,0,0,0,0,0],"split_type":[0,0,0,0,0,0,0,0,0,0,0,0,0,0,0,0,0,0,0,0,0,0,0,0,0,0,0,0,0,0,0,0,0,0,0,0,0,0,0,0,0,0,0,0,0,0,0,0,0,0,0,0,0,0,0,0,0,0,0,0,0,0,0,0,0,0,0,0,0,0,0,0,0,0,0,0,0,0,0,0,0,0,0,0,0,0,0,0,0,0,0,0,0,0,0,0,0,0,0,0,0,0,0,0,0,0,0,0,0,0,0,0,0,0,0,0,0,0,0,0,0,0,0,0,0,0,0,0,0,0,0,0,0,0,0,0,0,0,0,0,0,0,0,0,0,0,0,0,0,0,0,0,0,0,0,0,0],"sum_hessian":[7.879E3,3.725E3,4.154E3,6.3E1,3.662E3,1E1,4.144E3,3.6E1,2.7E1,1.544E3,2.118E3,3E0,7E0,3.9E1,4.105E3,1.5E1,2.1E1,1E0,2.6E1,1.17E3,3.74E2,1.81E2,1.937E3,2E0,1E0,1E0,6E0,6E0,3.3E1,3.275E3,8.3E2,1.2E1,3E0,5E0,1.6E1,9E0,1.7E1,7.8E2,3.9E2,6E0,3.68E2,4.5E1,1.36E2,1.345E3,5.92E2,2E0,4E0,4E0,2E0,2.4E1,9E0,1.2E1,3.263E3,7.28E2,1.02E2,1E0,1.1E1,1E0,2E0,1E0,4E0,2E0,1.4E1,2E0,7E0,1.5E1,2E0,7.13E2,6.7E1,2.61E2,1.29E2,4E0,2E0,6.9E1,2.99E2,8E0,3.7E1,6.7E1,6.9E1,9.91E2,3.54E2,2.93E2,2.99E2,2E0,2E0,1E0,3E0,1.2E1,1.2E1,2E0,7E0,1E0,1.1E1,6.11E2,2.652E3,7.01E2,2.7E1,2.8E1,7.4E1,4E0,7E0,1E0,1E0,1E0,1.3E1,2.29E2,4.84E2,2E1,4.7E1,2.1E2,5.1E1,6.2E1,6.7E1,3E0,1E0,4.6E1,2.3E1,1.05E2,1.94E2,7E0,1E0,1.7E1,2E1,1.6E1,5.1E1,4.3E1,2.6E1,2.68E2,7.23E2,6.2E1,2.92E2,3.8E1,2.55E2,2.4E2,5.9E1,2E0,1E0,9E0,3E0,7E0,5E0,1E0,6E0,1E1,1E0,4.7E2,1.41E2,2.82E2,2.37E3,6.65E2,3.6E1,2E0,2.5E1,2.2E1,6E0,6E1,1.4E1],"tree_param":{"num_deleted":"0","num_feature":"12","num_nodes":"157","size_leaf_vector":"0"}},{"base_weights":[7.367369E-2,-6.883647E-2,2.0279314E-1,2.3593856E-2,-1.3427661E-1,7.4241656E-1,1.8165772E-1,-6.8959324E-3,9.990114E-2,-8.9134336E-1,-1.1941396E-1,2.0071484E-1,1.1170121E0,5.648332E-1,1.6861571E-1,9.728425E-1,-8.962E-3,4.2640498E-1,7.762024E-2,-1.400859E0,-6.7390704E-1,-3.1399164E-1,-1.06794715E-1,9.626561E-1,-1.7561135E-1,2.339929E0,8.1019115E-1,9.4043896E-2,9.141943E-1,5.2055504E-2,1.9475143E-1,2.8118642E-2,1.6635832E0,1.879995E-3,-1.6979936E-1,5.908997E-1,3.251552E-1,4.629575E-2,1.6451061E-1,-1.5519133E-1,-6.349539E-1,8.494337E-1,-1.1167742E-1,2.190363E0,4.3368718E-1,-1.5673624E0,-2.0426994E-2,1.1022391E0,4.6246867E0,-7.5172335E-1,1.3139663E0,4.2233217E-1,-3.932385E-2,2.4828434E0,7.153123E-1,-3.3247445E-2,7.821218E-2,2.2738832E-1,1.0754756E-1,-1.1399114E-2,1.2143769E-1,-1.7727123E-1,-0E0,8.28814E-1,3.1336537E-1,2.1217136E-1,8.0805725E-1,2.2478659E-2,1.5679789E-1,2.7007228E-1,7.201694E-2,3.8284775E-2,-4.0825573E-1,-4.8400432E-1,-1.1000127E0,-4.042042E-1,2.6195807E0,-5.67707E-1,-1.0585877E-1,9.7488207E-1,3.182447E0,1.5873665E-1,1.1161095E0,-2.1237376E0,2.0475437E-1,1.8434834E0,-1.3712749E-1,1.620575E0,7.868816E-1,-1.5667151E-1,-1.2059662E0,-1.4673767E0,1.5361753E0,-1.3431068E-1,1.1135244E0,2.3487188E-1,-2.4306184E-1,-1.7962646E-1,2.8560138E0,-1.7245191E-1,1.2754792E0,1.9340565E-2,-1.5485485E-1,5.255963E-1,6.160741E-2,1.7334588E-1,3.7857595E-1,3.3201568E-2,1.4169194E-1,-5.15778E-3,-1.8579005E-1,2.934227E-1,8.428127E-2,-2.2726159E-1,-1.5424617E-1,2.8280623E-2,-5.4206498E-2,1.00936E0,4.46339E-1,4.0241608E-1,-4.3697443E-2,3.217231E-1,1.0556374E-1,1.4034261E-1,1.0680349E0,1.09553404E-1,-3.2600224E-2,5.536409E-1,1.1254592E-1,1.7356573E-1,5.693888E-1,9.655433E-2,-1.3614947E-1,2.7677885E-1,-2.642149E-1,-6.53202E-1,3.7462577E-1,-2.5486884E-1,-8.202599E-1,-7.504137E-1,-1.2069594E0,-1.1632802E0,-1.864734E-1,-1.1563394E0,-3.6434653E-1,8.8466305E-1,-1.1100634E-1,3.6031244E0,1.639738E0,-1.4079586E-1,3.3046234E-1,1.3629962E0,2.091202E-1,3.239696E0,-3.0463424E-3,-3.5121968E-1,5.161599E-1,2.2037554E0,7.9968864E-1,1.1949577E0,4.7995645E-1,-6.043707E-1,5.710301E-1,-1.5205112E0,-1.0062046E0,-1.8325542E-1,2.0496085E0,1.6350047E-1,-2.8623688E-1,5.65387E-1,1.2810457E0,-2.992616E-1,4.0366462E-1,-5.3897556E-2,-3.595892E-1,1.8335255E0,3.4194815E0,5.1522887E-1,-2.6884222E-1,2.5946867E0,3.1770182E-1,9.680378E-2,-7.573554E-2,-5.2375245E-1,6.2913997E-3,1.7519727E-1,1.7217038E0,-6.414888E-2,8.07846E-2,1.9172727E-1,5.359028E-3,6.605453E-1,3.1535718E-1,8.639461E-2,-1.3817899E-1,3.884836E-1,1.1854597E-1],"categories":[],"categories_nodes":[],"categories_segments":[],"categories_sizes":[],"default_left":[true,true,true,true,true,true,true,true,true,true,true,true,true,true,true,true,true,true,true,false,false,true,true,true,true,true,true,true,true,true,true,false,false,true,true,true,true,true,true,true,true,true,true,true,true,true,true,true,false,true,true,true,true,true,true,true,true,true,true,true,true,true,true,true,true,true,true,true,true,true,true,true,true,true,true,true,false,true,true,false,true,true,true,false,false,true,true,true,true,true,true,false,true,true,true,true,true,false,true,true,true,true,true,true,true,true,true,true,true,false,false,false,false,false,false,false,false,false,false,false,false,false,false,false,false,false,false,false,false,false,false,false,false,false,false,false,false,false,false,false,false,false,false,false,false,false,false,false,false,false,false,false,false,false,false,false,false,false,false,false,false,false,false,false,false,false,false,false,false,false,false,false,false,false,false,false,false,false,false,false,false,false,false,false,false,false,false,false,false,false,false,false,false,false,false,false,false],"id":167,"left_children":[1,3,5,7,9,11,13,15,17,19,21,23,25,27,29,31,33,35,37,-1,-1,39,41,43,45,47,49,51,53,55,57,-1,-1,59,61,63,65,67,69,71,73,75,77,79,81,83,85,87,-1,89,91,93,95,97,99,101,103,105,107,109,111,113,115,117,119,121,123,125,127,129,131,133,135,137,139,141,-1,143,145,-1,147,149,151,-1,-1,153,155,157,159,161,163,-1,165,167,169,171,173,-1,175,177,179,181,183,185,187,189,191,193,195,-1,-1,-1,-1,-1,-1,-1,-1,-1,-1,-1,-1,-1,-1,-1,-1,-1,-1,-1,-1,-1,-1,-1,-1,-1,-1,-1,-1,-1,-1,-1,-1,-1,-1,-1,-1,-1,-1,-1,-1,-1,-1,-1,-1,-1,-1,-1,-1,-1,-1,-1,-1,-1,-1,-1,-1,-1,-1,-1,-1,-1,-1,-1,-1,-1,-1,-1,-1,-1,-1,-1,-1,-1,-1,-1,-1,-1,-1,-1,-1,-1,-1,-1,-1,-1,-1,-1,-1],"loss_changes":[1.456001E2,2.275364E1,4.7288513E1,3.6294904E0,2.4730797E1,3.1629486E1,1.9923965E1,2.244799E0,3.2214847E0,4.3455963E0,5.2873497E0,1.8514482E1,3.3967926E1,2.1558079E1,1.1765343E1,1.4829988E0,1.9421866E0,3.9475775E-1,1.1303499E0,0E0,0E0,6.6497936E0,9.496031E0,1.3500151E1,9.325751E0,5.0062218E1,5.8826973E1,2.4774535E0,2.2864365E1,1.5819716E0,8.9702E0,0E0,0E0,1.6568602E0,8.8118315E-2,5.794108E-1,9.285513E-1,8.051199E-1,1.0659065E0,4.335465E0,2.8418884E0,2.3315945E1,5.328602E0,6.543375E0,2.799791E0,4.445019E0,8.6157465E0,1.5564604E0,0E0,4.8730574E0,3.556897E1,6.3480988E0,2.2723467E0,8.489014E0,3.3573753E1,1.0666496E0,4.0096655E0,1.873256E1,2.1798916E0,1.018269E0,6.530926E-1,6.03714E-2,5.784495E-3,1.9730043E-1,1.8056744E-1,1.6166008E-1,5.1143956E-1,1.2172709E0,9.238732E-1,1.4392657E0,3.0688614E-1,3.6558425E0,7.4365525E0,2.4832296E0,5.64003E-2,9.551697E-1,0E0,2.870347E0,1.0190378E1,0E0,1.18370056E-1,6.0118574E-1,8.528919E-1,0E0,0E0,6.065495E0,5.2796993E0,1.4440165E0,8.286109E-1,2.830535E0,1.0305977E-1,0E0,4.6352516E1,4.396531E-1,4.055271E-1,1.6045218E0,5.019742E-1,0E0,2.0594025E0,1.7882106E0,5.1908707E1,8.595298E-1,3.000627E0,7.9753003E0,1.2640637E0,5.2224884E0,1.0689316E1,2.4767869E0,3.3438196E0,0E0,0E0,0E0,0E0,0E0,0E0,0E0,0E0,0E0,0E0,0E0,0E0,0E0,0E0,0E0,0E0,0E0,0E0,0E0,0E0,0E0,0E0,0E0,0E0,0E0,0E0,0E0,0E0,0E0,0E0,0E0,0E0,0E0,0E0,0E0,0E0,0E0,0E0,0E0,0E0,0E0,0E0,0E0,0E0,0E0,0E0,0E0,0E0,0E0,0E0,0E0,0E0,0E0,0E0,0E0,0E0,0E0,0E0,0E0,0E0,0E0,0E0,0E0,0E0,0E0,0E0,0E0,0E0,0E0,0E0,0E0,0E0,0E0,0E0,0E0,0E0,0E0,0E0,0E0,0E0,0E0,0E0,0E0,0E0,0E0,0E0,0E0,0E0],"parents":[2147483647,0,0,1,1,2,2,3,3,4,4,5,5,6,6,7,7,8,8,9,9,10,10,11,11,12,12,13,13,14,14,15,15,16,16,17,17,18,18,21,21,22,22,23,23,24,24,25,25,26,26,27,27,28,28,29,29,30,30,33,33,34,34,35,35,36,36,37,37,38,38,39,39,40,40,41,41,42,42,43,43,44,44,45,45,46,46,47,47,49,49,50,50,51,51,52,52,53,53,54,54,55,55,56,56,57,57,58,58,59,59,60,60,61,61,62,62,63,63,64,64,65,65,66,66,67,67,68,68,69,69,70,70,71,71,72,72,73,73,74,74,75,75,77,77,78,78,80,80,81,81,82,82,85,85,86,86,87,87,88,88,89,89,90,90,92,92,93,93,94,94,95,95,96,96,98,98,99,99,100,100,101,101,102,102,103,103,104,104,105,105,106,106,107,107,108,108],"right_children":[2,4,6,8,10,12,14,16,18,20,22,24,26,28,30,32,34,36,38,-1,-1,40,42,44,46,48,50,52,54,56,58,-1,-1,60,62,64,66,68,70,72,74,76,78,80,82,84,86,88,-1,90,92,94,96,98,100,102,104,106,108,110,112,114,116,118,120,122,124,126,128,130,132,134,136,138,140,142,-1,144,146,-1,148,150,152,-1,-1,154,156,158,160,162,164,-1,166,168,170,172,174,-1,176,178,180,182,184,186,188,190,192,194,196,-1,-1,-1,-1,-1,-1,-1,-1,-1,-1,-1,-1,-1,-1,-1,-1,-1,-1,-1,-1,-1,-1,-1,-1,-1,-1,-1,-1,-1,-1,-1,-1,-1,-1,-1,-1,-1,-1,-1,-1,-1,-1,-1,-1,-1,-1,-1,-1,-1,-1,-1,-1,-1,-1,-1,-1,-1,-1,-1,-1,-1,-1,-1,-1,-1,-1,-1,-1,-1,-1,-1,-1,-1,-1,-1,-1,-1,-1,-1,-1,-1,-1,-1,-1,-1,-1,-1,-1],"split_conditions":[6.621175E-1,6.572582E-1,4.699316E-2,4.4565028E-1,5E-1,8.2218254E-1,1.8427517E-2,2.7272727E-2,1.00918256E-1,2.7272727E-2,7.4990995E-2,7.876776E-1,8.307456E-1,6.818182E-1,6.3859776E-2,2.083415E-1,4.3256068E-1,6.242424E-1,8.30303E-1,-2.801718E-2,-1.347814E-2,5.2664746E-2,7.805186E-2,2.4216782E-2,2.7272727E-2,5.0082594E-1,8.571358E-1,1.0947065E-1,7.554066E-1,2.7518427E-1,8.4422266E-1,5.6237285E-4,3.3271663E-2,3.989272E-1,9.613792E-1,4.1296717E-4,6.965602E-1,6.430696E-1,6.03349E-1,4.95086E-1,6.461916E-1,6.461916E-1,9.2275836E-2,7.563675E-1,8.30303E-1,8.0442405E-1,9.8790765E-1,2.5387108E-2,9.2493735E-2,8.486788E-1,2.7272727E-2,8.5870504E-1,7.9132783E-1,9.8790765E-1,8.2552147E-1,9.02244E-1,2.923833E-1,8.2218254E-1,8.76709E-1,3.8835415E-1,4.044514E-1,2.7518427E-1,7.5757575E-1,6.6528626E-2,7.911548E-1,3.108108E-1,7.5757575E-1,6.2553835E-1,2.6233345E-1,5.302485E-1,6.4979887E-1,1.2389015E-3,8.2186735E-1,7.5757575E-1,5.181818E-1,7.562117E-2,5.2391615E-2,4.1296717E-4,4.1296717E-4,1.949764E-2,5E-1,5.181818E-1,7.6808906E-1,-4.247475E-2,4.0950873E-3,5E-1,4.95086E-1,2.8255528E-1,4.2424244E-1,2.2056175E-2,2.7272727E-2,-2.9347533E-2,9.8790765E-1,5.5365503E-2,8.873043E-1,7.386918E-1,1.485416E-1,-3.592529E-3,1.6258553E-1,9.8790765E-1,8.349742E-1,5.011703E-1,9.532107E-1,6.242424E-1,7.5122225E-1,8.0966675E-1,2.6161325E-1,8.5870504E-1,1.3503781E-1,-1.03155595E-4,-3.7158008E-3,5.868454E-3,1.6856254E-3,-4.545232E-3,-3.0849234E-3,5.6561246E-4,-1.0841299E-3,2.01872E-2,8.92678E-3,8.048321E-3,-8.7394885E-4,6.434462E-3,2.1112747E-3,2.806852E-3,2.1360697E-2,2.1910681E-3,-6.5200444E-4,1.1072818E-2,2.2509184E-3,3.4713144E-3,1.1387776E-2,1.9310865E-3,-2.7229893E-3,5.535577E-3,-5.2842977E-3,-1.306404E-2,7.4925153E-3,-5.0973766E-3,-1.6405199E-2,-1.5008274E-2,-2.4139186E-2,-2.3265604E-2,-3.729468E-3,-2.3126788E-2,-7.2869305E-3,1.769326E-2,-2.2201268E-3,7.2062485E-2,3.279476E-2,-2.8159171E-3,6.6092466E-3,2.7259924E-2,4.182404E-3,6.479392E-2,-6.0926846E-5,-7.0243934E-3,1.0323198E-2,4.4075105E-2,1.5993772E-2,2.3899155E-2,9.599129E-3,-1.2087414E-2,1.1420601E-2,-3.0410223E-2,-2.012409E-2,-3.6651082E-3,4.0992167E-2,3.2700093E-3,-5.7247374E-3,1.130774E-2,2.5620913E-2,-5.985232E-3,8.073292E-3,-1.077951E-3,-7.1917837E-3,3.667051E-2,6.838963E-2,1.0304577E-2,-5.376844E-3,5.1893733E-2,6.3540363E-3,1.9360755E-3,-1.5147107E-3,-1.0475049E-2,1.25828E-4,3.5039454E-3,3.4434076E-2,-1.2829776E-3,1.6156919E-3,3.8345451E-3,1.0718056E-4,1.3210906E-2,6.3071433E-3,1.7278921E-3,-2.7635798E-3,7.769672E-3,2.3709193E-3],"split_indices":[1,1,5,1,0,1,11,2,5,2,5,1,1,2,9,1,1,2,2,0,0,5,5,5,2,8,1,5,1,11,1,0,0,1,5,8,11,1,5,11,11,11,5,1,2,1,6,5,0,1,2,1,1,6,1,1,11,1,1,1,1,11,2,5,11,11,2,1,5,5,1,8,11,2,2,5,0,8,8,0,0,2,1,0,0,0,11,11,2,5,2,0,6,5,1,1,5,0,5,6,1,5,1,2,1,1,5,1,5,0,0,0,0,0,0,0,0,0,0,0,0,0,0,0,0,0,0,0,0,0,0,0,0,0,0,0,0,0,0,0,0,0,0,0,0,0,0,0,0,0,0,0,0,0,0,0,0,0,0,0,0,0,0,0,0,0,0,0,0,0,0,0,0,0,0,0,0,0,0,0,0,0,0,0,0,0,0,0,0,0,0,0,0,0,0,0,0],"split_type":[0,0,0,0,0,0,0,0,0,0,0,0,0,0,0,0,0,0,0,0,0,0,0,0,0,0,0,0,0,0,0,0,0,0,0,0,0,0,0,0,0,0,0,0,0,0,0,0,0,0,0,0,0,0,0,0,0,0,0,0,0,0,0,0,0,0,0,0,0,0,0,0,0,0,0,0,0,0,0,0,0,0,0,0,0,0,0,0,0,0,0,0,0,0,0,0,0,0,0,0,0,0,0,0,0,0,0,0,0,0,0,0,0,0,0,0,0,0,0,0,0,0,0,0,0,0,0,0,0,0,0,0,0,0,0,0,0,0,0,0,0,0,0,0,0,0,0,0,0,0,0,0,0,0,0,0,0,0,0,0,0,0,0,0,0,0,0,0,0,0,0,0,0,0,0,0,0,0,0,0,0,0,0,0,0,0,0,0,0,0,0,0,0,0,0,0,0],"sum_hessian":[7.912E3,3.761E3,4.151E3,1.559E3,2.202E3,1.56E2,3.995E3,1.114E3,4.45E2,4.2E1,2.16E3,6.4E1,9.2E1,1.31E2,3.864E3,2E0,1.112E3,2.8E1,4.17E2,1.2E1,3E1,1.31E2,2.029E3,2.1E1,4.3E1,1.8E1,7.4E1,5.6E1,7.5E1,7.08E2,3.156E3,1E0,1E0,1.042E3,7E1,1E1,1.8E1,3.07E2,1.1E2,8.8E1,4.3E1,1E1,2.019E3,6E0,1.5E1,4E0,3.9E1,1.2E1,6E0,1.8E1,5.6E1,1.6E1,4E1,8E0,6.7E1,1.66E2,5.42E2,2.296E3,8.6E2,9.38E2,1.04E2,6.7E1,3E0,5E0,5E0,1.5E1,3E0,2.53E2,5.4E1,5.1E1,5.9E1,5E1,3.8E1,3.3E1,1E1,6E0,4E0,2.5E1,1.994E3,3E0,3E0,1.1E1,4E0,3E0,1E0,2E0,3.7E1,4E0,8E0,8E0,1E1,4E0,5.2E1,9E0,7E0,1.7E1,2.3E1,1E0,7E0,2.6E1,4.1E1,1.16E2,5E1,1.9E1,5.23E2,1.692E3,6.04E2,2.71E2,5.89E2,9.06E2,3.2E1,1.8E1,8.6E1,2E1,4.7E1,2E0,1E0,3E0,2E0,4E0,1E0,7E0,8E0,1E0,2E0,9.8E1,1.55E2,5E0,4.9E1,3.9E1,1.2E1,5.3E1,6E0,2.8E1,2.2E1,2.9E1,9E0,2E1,1.3E1,3E0,7E0,1E0,5E0,6E0,1.9E1,1E1,1.984E3,2E0,1E0,4E0,7E0,3E0,1E0,1E0,1E0,2.8E1,9E0,2E0,2E0,3E0,5E0,5E0,3E0,3E0,7E0,1.2E1,4E1,3E0,6E0,2E0,5E0,4E0,1.3E1,9E0,1.4E1,3E0,4E0,3E0,2.3E1,1.7E1,2.4E1,6.4E1,5.2E1,1.5E1,3.5E1,1.5E1,4E0,6.9E1,4.54E2,1.525E3,1.67E2,1.1E2,4.94E2,2.07E2,6.4E1,5E1,5.39E2],"tree_param":{"num_deleted":"0","num_feature":"12","num_nodes":"197","size_leaf_vector":"0"}},{"base_weights":[8.148134E-2,-4.1296296E-2,1.9163051E-1,-2.9015088E-1,-2.8242148E-2,1.1977273E0,1.7987517E-1,1.0399313E-1,-4.629012E-1,-6.300951E-2,4.6422757E-2,1.8249266E0,-2.38986E0,8.8573754E-2,2.0300953E-1,4.14801E-1,4.2961735E-2,3.8976755E-2,-6.132359E-1,2.5641343E-2,-1.2270024E-1,-4.8965678E-1,6.313364E-2,2.8877847E0,7.8269494E-1,2.3466016E-1,-8.053145E0,1.59896E-1,6.117242E-2,3.0187464E-1,1.813966E-1,1.5345784E-1,1.170741E0,-2.154448E-2,9.766722E-2,8.3962806E-2,7.226306E-3,-8.735625E-1,-3.8721323E-1,-1.5281131E-3,2.0006163E-1,-1.832076E-2,-1.6055453E-1,2.00833E-1,-7.767565E-1,4.434348E-1,4.790257E-2,9.400647E-1,1.2722424E1,-7.723919E-1,1.9395157E0,-7.710531E-1,3.455007E0,7.580505E-2,3.1552923E-1,5.2835945E-2,1.9499005E-1,-4.6870333E-1,3.2219085E-1,2.1202563E-1,1.1687692E-1,2.5988936E-1,-1.0562364E-1,1.6386319E0,3.9937672E-1,6.486514E-2,-3.1809036E-2,1.8452641E-1,4.819466E-2,1.1178862E-2,-3.52622E-2,-5.673413E-1,-1.5430181E0,3.9582935E-1,-6.370305E-1,-1.3531805E-2,4.3263983E-2,3.2275036E-1,1.3544855E-1,2.2135897E-2,-2.3289455E-2,-4.0158067E-2,-2.0220123E-1,-4.9434897E-2,2.6458615E-1,-1.0662068E0,3.1837264E-1,-3.4090912E-1,8.3550686E-1,5.51868E-1,3.7519034E-2,2.9360905E0,-5.054338E-1,2.5940296E1,3.3447704E0,6.85541E-2,-1.7512504E0,-8.00927E-2,7.4045234E0,1.3649073E-1,-3.0045483E-2,9.808932E-1,1.9544679E-1,6.5353096E-2,-3.7294897E-1,2.2246514E-2,2.6232204E-1,-6.4343745E-1,2.20402E-1,3.918353E-1,2.7113846E-1,1.4425541E-1,4.1490626E-1,1.2321104E-2,1.7285669E-1,3.3917958E-1,-5.2080978E-2,8.773582E-2,1.5076188E-2,6.469271E-2,-3.8654108E-2,6.3624725E-2,2.685478E-1,-5.030371E-3,2.1154338E-1,-2.2177293E-3,2.1705795E-2,-5.000395E-1,-1.0985409E0,-1.7242055E0,6.438642E-1,1.2840068E0,-6.5117276E-1,-8.610093E-1,-1.4407611E-1,1.0831117E-3,-8.6259454E-2,1.4212322E-1,-4.2256106E-2,1.4023496E-1,5.4415166E-1,2.5260133E-1,7.242982E-2,-4.5121234E-2,2.3324974E-1,-3.3849727E-2,-1.5557052E-2,3.8450748E-1,-1.7741436E-1,-3.0066288E-1,-1.1162213E-1,-0E0,-8.8366345E-2,1.9450404E-1,4.1087762E-1,-1.1829464E0,-7.620515E-1,1.4648061E0,-5.117152E-1,7.851192E-1,-5.458908E-1,1.6621974E-1,1.3229569E0,6.5501386E-1,-1.1482664E0,-3.1384733E-3,8.589459E-2,5.144438E0,1.7836548E0,1.9449357E0,-1.1730528E0,4.3924809E-1,-4.6468344E-1,-1.598435E0,1.1559011E0,4.6792588E-1,1.0861373E-1,-1.7352492E-1,8.9643665E-2,1.9144522E0,-3.6139655E-1,7.2571844E-2,1.229034E0,4.6393152E-2,1.8393904E-1,-2.6384953E-1,-4.4381714E-1,-2.3210978E-2,9.026339E-2,1.3196146E-1,3.1912628E-1,5.9646255E-1,-7.716477E-1,-6.6267736E-3,5.73264E-1,-4.642562E-1,4.1790745E-1,4.0716413E-1,2.3323292E-1,1.9316788E-1,-4.099415E-2,1.3614124E0,3.6859772E-1,-6.227213E-1,2.5791626E-2,7.8449875E-1,1.5238735E-1],"categories":[],"categories_nodes":[],"categories_segments":[],"categories_sizes":[],"default_left":[true,true,true,true,true,true,true,true,true,true,true,true,true,true,true,true,true,true,true,true,true,true,true,true,true,true,false,true,true,true,true,true,true,true,true,false,true,true,true,true,true,true,true,true,true,true,true,true,true,true,true,false,false,true,true,true,true,true,true,true,true,true,false,false,false,true,true,true,true,true,false,true,true,true,true,true,true,true,true,true,true,true,true,true,true,true,true,true,true,true,true,true,true,false,false,true,false,true,false,true,true,true,true,true,true,true,true,true,true,true,true,true,true,true,true,false,false,false,false,false,false,false,false,false,false,false,false,false,false,false,false,false,false,false,false,false,false,false,false,false,false,false,false,false,false,false,false,false,false,false,false,false,false,false,false,false,false,false,false,false,false,false,false,false,false,false,false,false,false,false,false,false,false,false,false,false,false,false,false,false,false,false,false,false,false,false,false,false,false,false,false,false,false,false,false,false,false,false,false,false,false,false,false,false,false,false,false],"id":168,"left_children":[1,3,5,7,9,11,13,15,17,19,21,23,25,27,29,31,33,35,37,39,41,43,45,47,49,51,-1,53,55,57,59,61,63,65,67,-1,69,71,73,75,77,79,81,83,85,87,89,91,93,95,97,-1,-1,99,101,103,105,107,109,111,113,115,-1,-1,-1,117,119,121,123,125,-1,127,129,131,133,135,137,139,141,143,145,147,149,151,153,155,157,159,161,163,165,167,169,-1,-1,171,-1,173,-1,175,177,179,181,183,185,187,189,191,193,195,197,199,201,203,205,-1,-1,-1,-1,-1,-1,-1,-1,-1,-1,-1,-1,-1,-1,-1,-1,-1,-1,-1,-1,-1,-1,-1,-1,-1,-1,-1,-1,-1,-1,-1,-1,-1,-1,-1,-1,-1,-1,-1,-1,-1,-1,-1,-1,-1,-1,-1,-1,-1,-1,-1,-1,-1,-1,-1,-1,-1,-1,-1,-1,-1,-1,-1,-1,-1,-1,-1,-1,-1,-1,-1,-1,-1,-1,-1,-1,-1,-1,-1,-1,-1,-1,-1,-1,-1,-1,-1,-1,-1,-1,-1,-1],"loss_changes":[1.07537476E2,1.2208487E1,4.947946E1,1.2776429E1,9.277233E0,1.10203026E2,8.741379E0,1.0750886E0,9.849779E0,1.2905203E1,1.0174953E1,4.498082E1,1.0974208E2,1.6319609E0,7.0375824E0,1.7651186E0,1.7234877E-1,4.1823063E-2,5.772808E0,4.6533794E0,5.7546997E0,6.8664846E0,6.365267E0,3.8530704E2,3.8894203E1,1.8200407E1,0E0,3.02707E0,6.69435E-1,9.321384E0,5.34906E0,2.1357074E-1,5.948787E-1,2.0025348E-2,1.0687363E-1,0E0,2.8668153E-3,9.176403E0,1.0716108E1,4.564327E-1,1.0279326E0,7.82499E-2,5.3555984E0,1.7230496E-1,7.837221E0,1.31204E1,5.52812E0,5.0540974E1,3.8384137E2,7.747044E0,1.3642894E2,0E0,0E0,9.7499335E-1,6.417713E0,3.048726E0,4.049642E-1,1.8996315E0,2.0078316E0,2.5261543E1,5.11413E0,1.4191574E-1,0E0,0E0,0E0,7.4953306E-4,1.38939805E-2,8.4376514E-2,1.5400195E-1,2.7384849E-3,0E0,9.499607E-1,6.065048E0,1.2686957E1,4.5079803E0,7.137493E-1,1.5195934E0,1.7966781E0,6.3402975E-1,6.0728234E-1,2.7399957E-2,1.6068438E1,7.0672417E0,4.7100005E-3,5.015284E-2,3.5811615E-1,5.3391004E0,3.4478927E0,9.149052E0,3.9848537E0,2.0434952E0,1.5504803E1,1.7654472E1,0E0,0E0,1.1219589E0,0E0,1.8138212E1,0E0,8.6489356E-1,9.566216E-1,1.5708029E1,8.757178E0,1.242471E0,7.714105E-2,3.3604916E-2,1.671176E-1,2.1166081E0,2.7639323E-1,5.4952774E0,1.6830635E0,1.250297E1,1.9985E1,2.6087716E0,7.074772E0,0E0,0E0,0E0,0E0,0E0,0E0,0E0,0E0,0E0,0E0,0E0,0E0,0E0,0E0,0E0,0E0,0E0,0E0,0E0,0E0,0E0,0E0,0E0,0E0,0E0,0E0,0E0,0E0,0E0,0E0,0E0,0E0,0E0,0E0,0E0,0E0,0E0,0E0,0E0,0E0,0E0,0E0,0E0,0E0,0E0,0E0,0E0,0E0,0E0,0E0,0E0,0E0,0E0,0E0,0E0,0E0,0E0,0E0,0E0,0E0,0E0,0E0,0E0,0E0,0E0,0E0,0E0,0E0,0E0,0E0,0E0,0E0,0E0,0E0,0E0,0E0,0E0,0E0,0E0,0E0,0E0,0E0,0E0,0E0,0E0,0E0,0E0,0E0,0E0,0E0,0E0,0E0],"parents":[2147483647,0,0,1,1,2,2,3,3,4,4,5,5,6,6,7,7,8,8,9,9,10,10,11,11,12,12,13,13,14,14,15,15,16,16,17,17,18,18,19,19,20,20,21,21,22,22,23,23,24,24,25,25,27,27,28,28,29,29,30,30,31,31,32,32,33,33,34,34,36,36,37,37,38,38,39,39,40,40,41,41,42,42,43,43,44,44,45,45,46,46,47,47,48,48,49,49,50,50,53,53,54,54,55,55,56,56,57,57,58,58,59,59,60,60,61,61,65,65,66,66,67,67,68,68,69,69,71,71,72,72,73,73,74,74,75,75,76,76,77,77,78,78,79,79,80,80,81,81,82,82,83,83,84,84,85,85,86,86,87,87,88,88,89,89,90,90,91,91,92,92,95,95,97,97,99,99,100,100,101,101,102,102,103,103,104,104,105,105,106,106,107,107,108,108,109,109,110,110,111,111,112,112,113,113,114,114],"right_children":[2,4,6,8,10,12,14,16,18,20,22,24,26,28,30,32,34,36,38,40,42,44,46,48,50,52,-1,54,56,58,60,62,64,66,68,-1,70,72,74,76,78,80,82,84,86,88,90,92,94,96,98,-1,-1,100,102,104,106,108,110,112,114,116,-1,-1,-1,118,120,122,124,126,-1,128,130,132,134,136,138,140,142,144,146,148,150,152,154,156,158,160,162,164,166,168,170,-1,-1,172,-1,174,-1,176,178,180,182,184,186,188,190,192,194,196,198,200,202,204,206,-1,-1,-1,-1,-1,-1,-1,-1,-1,-1,-1,-1,-1,-1,-1,-1,-1,-1,-1,-1,-1,-1,-1,-1,-1,-1,-1,-1,-1,-1,-1,-1,-1,-1,-1,-1,-1,-1,-1,-1,-1,-1,-1,-1,-1,-1,-1,-1,-1,-1,-1,-1,-1,-1,-1,-1,-1,-1,-1,-1,-1,-1,-1,-1,-1,-1,-1,-1,-1,-1,-1,-1,-1,-1,-1,-1,-1,-1,-1,-1,-1,-1,-1,-1,-1,-1,-1,-1,-1,-1,-1,-1],"split_conditions":[6.621175E-1,7.4893616E-2,5E-1,6.572582E-1,2.777778E-1,3.888889E-1,9.8790765E-1,5E-1,5.5555556E-2,6.572582E-1,1.8427517E-2,8.349742E-1,8.76709E-1,2.923833E-1,1.6666667E-1,3.7589142E-1,3.470574E-1,5E-1,2.088452E-1,5.988887E-1,5.5555556E-2,6.474708E-1,1.2389015E-3,8.2218254E-1,8.7090075E-1,8.5870504E-1,-1.6106291E-1,8.5533917E-1,9.859468E-1,5.5555556E-2,8.349742E-1,2.8972855E-1,3.9780295E-1,6.5110564E-2,1.6666667E-1,1.6792561E-3,9.533169E-1,2.777778E-1,3.6977887E-1,3.989272E-1,1.6666667E-1,5.0082594E-1,2.7518427E-1,1.3484347E-1,5E-1,3.9234042E-1,7.985258E-2,7.876776E-1,1.6666667E-1,2.777778E-1,2.777778E-1,-1.5421061E-2,6.910014E-2,2.777778E-1,9.5682657E-1,9.699887E-1,6.4496315E-1,8.0838656E-1,4.127764E-1,8.2218254E-1,8.76709E-1,1.6666667E-1,-2.1124727E-3,3.2772638E-2,7.987535E-3,2.1682437E-1,3.4743626E-2,3.8020277E-1,8.587223E-1,1.48936175E-2,-7.05244E-4,5E-1,4.4444448E-1,1.48936175E-2,8.2186735E-1,3.9510223E-1,4.3256068E-1,9.689189E-1,6.324857E-1,6.965602E-1,3.9234042E-1,3.5106385E-1,6.4742017E-1,8.680547E-2,5.1303965E-1,3.888889E-1,6.142506E-3,1.6216215E-1,6.543547E-1,3.888889E-1,6.4742017E-1,1.6666667E-1,9.8790765E-1,5.188059E-1,6.689541E-2,8.4844077E-1,-3.5025008E-2,1.6666667E-1,1.4809047E-1,2.7027026E-2,7.008511E-1,2.777778E-1,2.7518427E-1,9.5665354E-1,7.008511E-1,9.998778E-1,3.5106385E-1,7.510687E-1,7.0297873E-1,4.1296717E-4,2.0297873E-1,7.958708E-1,1.8427517E-2,4.1296717E-4,1.48936175E-2,6.7835916E-3,-1.0416196E-3,1.7547163E-3,3.0152377E-4,1.2938542E-3,-7.7308214E-4,1.2724944E-3,5.370956E-3,-1.00607416E-4,4.2308676E-3,-4.4354587E-5,4.3411588E-4,-1.00007905E-2,-2.1970818E-2,-3.448411E-2,1.2877284E-2,2.5680136E-2,-1.3023455E-2,-1.7220186E-2,-2.881522E-3,2.1662234E-5,-1.725189E-3,2.8424645E-3,-8.451221E-4,2.8046991E-3,1.0883033E-2,5.0520264E-3,1.4485964E-3,-9.024247E-4,4.664995E-3,-6.7699456E-4,-3.1114102E-4,7.6901494E-3,-3.548287E-3,-6.0132574E-3,-2.2324426E-3,-0E0,-1.7673268E-3,3.8900806E-3,8.217552E-3,-2.3658928E-2,-1.524103E-2,2.929612E-2,-1.0234303E-2,1.5702384E-2,-1.0917816E-2,3.3243948E-3,2.6459137E-2,1.3100277E-2,-2.2965329E-2,-6.276946E-5,1.7178918E-3,1.02888756E-1,3.5673097E-2,3.8898714E-2,-2.3461055E-2,8.784962E-3,-9.293669E-3,-3.19687E-2,2.3118021E-2,9.358517E-3,2.1722745E-3,-3.4704981E-3,1.7928733E-3,3.8289044E-2,-7.2279307E-3,1.4514369E-3,2.4580678E-2,9.27863E-4,3.6787807E-3,-5.2769906E-3,-8.876342E-3,-4.6421954E-4,1.8052678E-3,2.6392292E-3,6.3825254E-3,1.192925E-2,-1.5432954E-2,-1.3253547E-4,1.1465279E-2,-9.285124E-3,8.358149E-3,8.1432825E-3,4.664658E-3,3.8633575E-3,-8.1988296E-4,2.7228247E-2,7.371954E-3,-1.2454426E-2,5.158325E-4,1.5689975E-2,3.0477468E-3],"split_indices":[1,10,0,1,4,4,6,0,4,1,11,1,1,11,4,1,1,0,11,1,4,1,8,1,1,1,0,1,1,4,1,1,1,11,4,0,11,4,11,1,4,8,11,6,4,10,11,1,4,4,4,0,0,4,6,1,11,1,11,1,1,4,0,0,0,1,1,1,11,10,0,0,4,10,11,6,1,6,1,11,10,10,11,1,1,4,11,11,1,4,11,4,6,0,0,1,0,4,0,11,10,4,11,1,10,1,10,1,10,8,10,1,11,8,10,0,0,0,0,0,0,0,0,0,0,0,0,0,0,0,0,0,0,0,0,0,0,0,0,0,0,0,0,0,0,0,0,0,0,0,0,0,0,0,0,0,0,0,0,0,0,0,0,0,0,0,0,0,0,0,0,0,0,0,0,0,0,0,0,0,0,0,0,0,0,0,0,0,0,0,0,0,0,0,0,0,0,0,0,0,0,0,0,0,0,0,0],"split_type":[0,0,0,0,0,0,0,0,0,0,0,0,0,0,0,0,0,0,0,0,0,0,0,0,0,0,0,0,0,0,0,0,0,0,0,0,0,0,0,0,0,0,0,0,0,0,0,0,0,0,0,0,0,0,0,0,0,0,0,0,0,0,0,0,0,0,0,0,0,0,0,0,0,0,0,0,0,0,0,0,0,0,0,0,0,0,0,0,0,0,0,0,0,0,0,0,0,0,0,0,0,0,0,0,0,0,0,0,0,0,0,0,0,0,0,0,0,0,0,0,0,0,0,0,0,0,0,0,0,0,0,0,0,0,0,0,0,0,0,0,0,0,0,0,0,0,0,0,0,0,0,0,0,0,0,0,0,0,0,0,0,0,0,0,0,0,0,0,0,0,0,0,0,0,0,0,0,0,0,0,0,0,0,0,0,0,0,0,0,0,0,0,0,0,0,0,0,0,0,0,0,0,0,0,0,0,0],"sum_hessian":[7.951E3,3.76E3,4.191E3,1.87E2,3.573E3,4.8E1,4.143E3,5.7E1,1.3E2,2.438E3,1.135E3,4.1E1,7E0,8.38E2,3.305E3,9E0,4.8E1,3E1,1E2,9.81E2,1.457E3,3.4E1,1.101E3,2E1,2.1E1,5E0,2E0,2.32E2,6.06E2,5.92E2,2.713E3,7E0,2E0,2.2E1,2.6E1,1.2E1,1.8E1,4.6E1,5.4E1,8.49E2,1.32E2,3.88E2,1.069E3,1E1,2.4E1,4.2E1,1.059E3,1.7E1,3E0,9E0,1.2E1,4E0,1E0,1.51E2,8.1E1,5.71E2,3.5E1,1.5E1,5.77E2,1.839E3,8.74E2,5E0,2E0,1E0,1E0,2E0,2E1,9E0,1.7E1,1.7E1,1E0,3.2E1,1.4E1,1.3E1,4.1E1,6.7E2,1.79E2,4.5E1,8.7E1,4.2E1,3.46E2,2.75E2,7.94E2,2E0,8E0,1.9E1,5E0,1.4E1,2.8E1,2.1E1,1.038E3,7E0,1E1,1E0,2E0,5E0,4E0,9E0,3E0,9.6E1,5.5E1,1.2E1,6.9E1,5.55E2,1.6E1,1E1,2.5E1,1.2E1,3E0,2.43E2,3.34E2,1.379E3,4.6E2,3.05E2,5.69E2,4E0,1E0,1E0,1E0,1E0,1.9E1,4E0,5E0,1.3E1,4E0,7E0,1E1,2.9E1,3E0,1.3E1,1E0,7E0,6E0,2.8E1,1.3E1,5.58E2,1.12E2,8.3E1,9.6E1,2.5E1,2E1,3E1,5.7E1,3.2E1,1E1,1.45E2,2.01E2,6.7E1,2.08E2,3.8E2,4.14E2,1E0,1E0,6E0,2E0,1.3E1,6E0,2E0,3E0,2E0,1.2E1,1.2E1,1.6E1,2E1,1E0,5.64E2,4.74E2,2E0,5E0,2E0,8E0,3E0,2E0,4E0,5E0,7E0,8.9E1,2.5E1,3E1,7E0,5E0,6.2E1,7E0,4.79E2,7.6E1,7E0,9E0,6E0,4E0,8E0,1.7E1,1E0,1.1E1,2E0,1E0,7E0,2.36E2,7.2E1,2.62E2,1.091E3,2.88E2,2.1E1,4.39E2,6E0,2.99E2,1.8E1,5.51E2],"tree_param":{"num_deleted":"0","num_feature":"12","num_nodes":"207","size_leaf_vector":"0"}},{"base_weights":[6.75752E-2,-2.199745E0,7.452946E-2,1.0879637E0,-2.8650472E0,3.0854836E-1,6.7055896E-2,4.1432485E-2,3.4213564E0,-4.913501E0,-2.0892904E0,2.4923041E-1,4.585641E0,1.4283636E-2,8.16987E-2,-9.1547556E-2,1.17616236E-1,-6.231156E-1,-2.5871646E0,1.7831802E-1,1.688069E0,5.347845E0,2.0943787E0,5.3481996E-2,2.7935065E-3,-1.6528934E-2,8.960373E-2,2.2609778E-2,1.7251255E-1,-2.849542E0,8.237178E-2,8.4462255E-2,4.0628663E-1,3.2620404E0,6.7927694E-1,2.9627986E-2,1.6953379E-1,7.1565785E-2,-2.609159E-3,1.1368511E-1,-3.717066E-2,1.2532634E-1,6.817868E-2,1.4290343E-1,-3.5557052E-1,4.111602E0,3.2954285E-1,6.235954E-2,-4.782707E-3,4.502357E-1,1.3239461E-1,1.4543049E-2,1.8560736E-1,-4.0919848E-2,2.2135908E-3,6.681525E-1,9.099962E-2,1.3507828E-2,-4.9805496E-2,1.1948671E-1,7.1629333E-1,1.06152624E-1,4.292772E-2,-2.794617E-1,1.7490666E-1,-1.3138909E0,-2.1889564E-1,8.403725E-1,8.6412825E-2,2.0431144E-2,1.2208987E-1,-7.917319E-3,3.438091E-1,-0E0,5.197775E-1,-2.171896E-1,1.5329228E-1,-0E0,1.2389215E-1,9.263313E-2,4.837236E-1,4.322753E-3,-1.001336E-1,7.639158E-2,-2.1508434E-3,2.9984564E-1,8.5867244E-1,-3.504089E-2,1.3423009E-1,-2.0547075E-2,1.2425364E-1,-4.395434E-1,-4.4191383E-2,1.3492772E-1,-1.4150481E-2,4.6258602E-1,1.1430588E0,7.955596E-2,2.9022565E-1,-1.1356493E-1,6.0599357E-2],"categories":[],"categories_nodes":[],"categories_segments":[],"categories_sizes":[],"default_left":[true,true,true,true,true,true,true,true,false,false,true,true,true,true,true,false,true,false,true,true,true,false,false,true,true,true,true,false,false,false,false,true,true,false,false,true,true,true,true,true,true,true,true,true,true,false,true,true,true,true,true,true,true,true,true,true,true,true,true,true,true,true,true,false,false,false,false,false,false,false,false,false,false,false,false,false,false,false,false,false,false,false,false,false,false,false,false,false,false,false,false,false,false,false,false,false,false,false,false,false,false],"id":169,"left_children":[1,3,5,7,9,11,13,15,-1,-1,17,19,21,23,25,-1,27,-1,29,31,33,-1,-1,35,37,39,41,-1,-1,-1,-1,43,45,-1,-1,47,49,51,53,55,57,59,61,63,65,-1,67,69,71,73,75,77,79,81,83,85,87,89,91,93,95,97,99,-1,-1,-1,-1,-1,-1,-1,-1,-1,-1,-1,-1,-1,-1,-1,-1,-1,-1,-1,-1,-1,-1,-1,-1,-1,-1,-1,-1,-1,-1,-1,-1,-1,-1,-1,-1,-1,-1],"loss_changes":[1.2547609E2,5.428988E1,1.3861046E1,1.0485535E1,2.8788742E1,6.1793045E1,5.9385033E0,3.7733626E-2,0E0,0E0,1.0609604E1,2.4598644E1,2.4885864E0,7.514561E-1,4.67395E0,0E0,8.086294E-3,0E0,8.056E0,4.931206E0,1.720026E1,0E0,0E0,1.0428249E0,4.8121706E-1,1.2053676E0,4.2569275E0,0E0,0E0,0E0,0E0,4.239917E0,1.8631754E1,0E0,0E0,3.549594E-1,6.424905E-1,6.096919E-1,2.2198984E-1,7.403705E-1,2.487573E-1,7.1629868E0,3.3354893E0,1.9792881E0,2.4144943E0,0E0,8.201051E0,4.011783E-1,1.6366406E-1,2.2452116E-1,4.2904067E-1,9.916836E-2,8.453102E-1,3.613882E-1,3.4568635E-1,6.1355352E-2,3.2627904E-1,2.93989E-1,6.6564244E-1,4.2682915E0,2.002346E0,6.793723E0,5.7878494E0,0E0,0E0,0E0,0E0,0E0,0E0,0E0,0E0,0E0,0E0,0E0,0E0,0E0,0E0,0E0,0E0,0E0,0E0,0E0,0E0,0E0,0E0,0E0,0E0,0E0,0E0,0E0,0E0,0E0,0E0,0E0,0E0,0E0,0E0,0E0,0E0,0E0,0E0],"parents":[2147483647,0,0,1,1,2,2,3,3,4,4,5,5,6,6,7,7,10,10,11,11,12,12,13,13,14,14,16,16,18,18,19,19,20,20,23,23,24,24,25,25,26,26,31,31,32,32,35,35,36,36,37,37,38,38,39,39,40,40,41,41,42,42,43,43,44,44,46,46,47,47,48,48,49,49,50,50,51,51,52,52,53,53,54,54,55,55,56,56,57,57,58,58,59,59,60,60,61,61,62,62],"right_children":[2,4,6,8,10,12,14,16,-1,-1,18,20,22,24,26,-1,28,-1,30,32,34,-1,-1,36,38,40,42,-1,-1,-1,-1,44,46,-1,-1,48,50,52,54,56,58,60,62,64,66,-1,68,70,72,74,76,78,80,82,84,86,88,90,92,94,96,98,100,-1,-1,-1,-1,-1,-1,-1,-1,-1,-1,-1,-1,-1,-1,-1,-1,-1,-1,-1,-1,-1,-1,-1,-1,-1,-1,-1,-1,-1,-1,-1,-1,-1,-1,-1,-1,-1,-1],"split_conditions":[2.2506302E-3,9.8790765E-1,4.1231543E-2,2.777778E-1,1.6666667E-1,4.078142E-2,9.5682657E-1,1.3484347E-1,6.842713E-2,-9.8270014E-2,2.777778E-1,5E-1,2.862069E-1,3.0788618E-1,5.5555556E-2,-1.8309511E-3,1.1111111E-1,-1.2462311E-2,4.4444448E-1,2.9258192E-2,5E-1,1.069569E-1,4.1887574E-2,7.920965E-1,2.5344828E-1,9.8790765E-1,4.1348577E-1,4.5219556E-4,3.450251E-3,-5.6990836E-2,1.6474356E-3,2.7097587E-2,2.9438242E-2,6.524081E-2,1.3585539E-2,4.127764E-1,1.0517241E-1,2.3620689E-1,2.9655173E-1,7.125307E-2,2.1398991E-1,4.1087502E-1,6.0565114E-1,1.8427517E-2,2.7277637E-2,8.2232036E-2,3.28592E-2,3.9510223E-1,6.1111116E-1,4.699316E-2,5.5555556E-2,6.164926E-1,7.920965E-1,6.053295E-1,3.0172414E-1,1.4310345E-1,3.1941032E-1,6.965602E-1,2.2722362E-1,8.2186735E-1,4.0172416E-1,6.9482756E-1,6.4496315E-1,-5.589234E-3,3.498133E-3,-2.6277818E-2,-4.3779127E-3,1.680745E-2,1.7282565E-3,4.0862287E-4,2.4417974E-3,-1.5834639E-4,6.876182E-3,-0E0,1.0395549E-2,-4.343792E-3,3.0658457E-3,-0E0,2.4778428E-3,1.8526625E-3,9.674472E-3,8.645505E-5,-2.0026718E-3,1.5278315E-3,-4.3016866E-5,5.9969127E-3,1.7173449E-2,-7.0081773E-4,2.6846018E-3,-4.109415E-4,2.4850727E-3,-8.790867E-3,-8.838276E-4,2.6985544E-3,-2.830096E-4,9.25172E-3,2.2861175E-2,1.5911191E-3,5.804513E-3,-2.2712986E-3,1.2119871E-3],"split_indices":[5,6,5,4,4,5,6,6,0,0,4,4,3,5,4,0,4,0,4,5,0,0,0,6,3,6,5,0,0,0,0,5,5,0,0,11,3,3,3,11,5,5,11,11,5,0,5,6,4,5,4,5,6,5,3,3,11,11,5,11,3,3,11,0,0,0,0,0,0,0,0,0,0,0,0,0,0,0,0,0,0,0,0,0,0,0,0,0,0,0,0,0,0,0,0,0,0,0,0,0,0],"split_type":[0,0,0,0,0,0,0,0,0,0,0,0,0,0,0,0,0,0,0,0,0,0,0,0,0,0,0,0,0,0,0,0,0,0,0,0,0,0,0,0,0,0,0,0,0,0,0,0,0,0,0,0,0,0,0,0,0,0,0,0,0,0,0,0,0,0,0,0,0,0,0,0,0,0,0,0,0,0,0,0,0,0,0,0,0,0,0,0,0,0,0,0,0,0,0,0,0,0,0,0,0],"sum_hessian":[7.956E3,2.4E1,7.932E3,4E0,2E1,2.45E2,7.687E3,3E0,1E0,5E0,1.5E1,2.42E2,3E0,1.67E3,6.017E3,1E0,2E0,4E0,1.1E1,2.31E2,1.1E1,2E0,1E0,3.78E2,1.292E3,4.48E2,5.569E3,1E0,1E0,1E1,1E0,1.64E2,6.7E1,4E0,7E0,3.14E2,6.4E1,9.4E1,1.198E3,6.1E1,3.87E2,2.087E3,3.482E3,1.45E2,1.9E1,1E0,6.6E1,1.61E2,1.53E2,7E0,5.7E1,6.3E1,3.1E1,1.34E2,1.064E3,2E0,5.9E1,7.7E1,3.1E2,2.067E3,2E1,1.39E3,2.092E3,1E1,1.35E2,2E0,1.7E1,2.1E1,4.5E1,9.5E1,6.6E1,1.52E2,1E0,1E0,6E0,3E0,5.4E1,5.6E1,7E0,2.4E1,7E0,7.6E1,5.8E1,5.9E1,1.005E3,1E0,1E0,1.5E1,4.4E1,5.9E1,1.8E1,4E0,3.06E2,1.853E3,2.14E2,1.3E1,7E0,1.215E3,1.75E2,2.12E2,1.88E3],"tree_param":{"num_deleted":"0","num_feature":"12","num_nodes":"101","size_leaf_vector":"0"}},{"base_weights":[8.2587905E-2,-6.734751E-2,2.1493718E-1,2.6036551E-2,-1.3246664E-1,2.7945044E0,1.8333563E-1,1.6137156E0,2.4617719E-2,-6.3183004E-1,-1.1616118E-1,9.089708E-1,4.0272446E0,7.616445E-2,2.1125546E-1,-1.0634264E-2,8.086151E-2,-1.3014503E0,-4.955382E-1,-3.2152277E-1,-1.06244735E-1,4.68088E0,-7.7785945E-1,9.367859E0,2.5814228E0,1.698306E0,7.357095E-2,5.817017E-1,2.0187451E-1,-5.3431666E-3,-1.4778624E-1,4.0252814E-1,7.090848E-2,-5.5539536E-1,5.253891E-1,3.080784E-1,-4.3907607E-1,2.2719005E-1,-1.1188352E-1,2.5682564E0,6.3209624E0,1.0969783E0,-1.3076696E0,1.8188402E1,3.8940346E0,-6.839873E-1,3.9141173E0,4.0931363E-2,1.606459E-1,4.3979567E-1,5.256173E0,2.3307258E-1,1.3513292E-1,-1.2378297E-2,1.6520348E-1,-1.01485424E-1,-2.8646973E-1,2.4758065E-1,1.357066E0,5.3551156E-2,2.2091985E-1,-3.8255093E-1,-9.4883627E-1,1.4080482E0,-1.1398867E0,-7.886524E-2,1.7131863E0,-6.1466E-1,-1.9232908E-1,2.3431148E-2,1.585669E0,-4.8040962E-1,-1.0724248E-1,4.3615313E0,1.1703453E0,-5.869617E-1,1.9086183E0,-2.2929828E0,-6.6402334E-1,-1.651417E-1,-1.027177E0,6.451117E0,3.2320406E0,3.427611E-2,2.3539627E-1,2.6457292E-1,1.6515536E-2,4.819691E-1,-2.1053E0,-2.8540637E0,1.2062655E1,1.7955038E-1,4.2139938E-1,4.7938995E-2,1.8842646E-1,-6.344413E-3,-1.5671384E-1,2.7708036E-1,-2.525146E-2,-1.3124433E-1,5.6401405E-2,-1.8902248E-1,-3.2678947E-1,1.497322E-1,7.651933E-1,2.0444906E-1,3.646865E-2,4.1968474E-1,-2.538892E-2,-4.3496463E-1,-2.8379317E-2,1.2153721E-2,-1.0127035E0,-2.355371E-1,1.2617493E0,-1.2967658E0,-4.6457037E-1,-4.237776E-2,-7.405401E-1,3.5353342E-1,-5.0998616E-1,2.3947713E0,-8.2280445E-1,-1.010666E-1,-1.2029802E0,5.695895E-1,-1.13676265E-1,3.1593118E0,1.6992502E-1,-4.5688793E-1,-1.0364529E0,3.7833983E-1,-4.5822915E-1,3.5121477E0,-3.6633247E-1,4.292339E-2,-1.8874711E-1,4.3118396E-1,2.0541683E-1,1.421173E-1,7.1652284E0,5.333745E-2,-1.072971E-1,-2.3872703E-1,6.0289645E-1,2.0175323E-1,-2.2582227E-2,7.536499E-1,3.1459215E-1,1.7998049E-2,3.855597E-1,3.4672332E-1,1.314326E-1],"categories":[],"categories_nodes":[],"categories_segments":[],"categories_sizes":[],"default_left":[true,true,true,true,true,true,true,false,true,true,true,true,true,true,true,true,true,false,true,true,true,true,true,true,true,false,true,true,true,true,true,true,true,true,true,true,true,true,true,true,false,true,true,false,false,true,true,true,true,true,true,true,true,true,true,true,true,true,false,true,true,true,true,false,false,true,false,true,true,true,true,true,true,false,false,false,true,false,true,true,false,false,true,true,true,true,true,true,false,false,false,true,true,true,true,false,false,false,false,false,false,false,false,false,false,false,false,false,false,false,false,false,false,false,false,false,false,false,false,false,false,false,false,false,false,false,false,false,false,false,false,false,false,false,false,false,false,false,false,false,false,false,false,false,false,false,false,false,false,false,false,false,false],"id":170,"left_children":[1,3,5,7,9,11,13,-1,15,17,19,21,23,25,27,29,31,-1,33,35,37,39,41,43,45,-1,47,49,51,53,55,57,59,61,63,65,67,69,71,73,-1,75,77,-1,-1,79,81,83,85,87,89,91,93,95,97,99,101,103,-1,105,107,109,111,-1,-1,113,-1,115,117,119,121,123,125,-1,-1,-1,127,-1,129,131,-1,-1,133,135,137,139,141,143,-1,-1,-1,145,147,149,151,-1,-1,-1,-1,-1,-1,-1,-1,-1,-1,-1,-1,-1,-1,-1,-1,-1,-1,-1,-1,-1,-1,-1,-1,-1,-1,-1,-1,-1,-1,-1,-1,-1,-1,-1,-1,-1,-1,-1,-1,-1,-1,-1,-1,-1,-1,-1,-1,-1,-1,-1,-1,-1,-1,-1,-1,-1,-1],"loss_changes":[1.5547021E2,2.2340536E1,3.390116E2,3.3633828E0,1.7587612E1,1.1570264E2,1.2292465E1,0E0,2.991869E0,5.995678E0,4.2515984E0,1.3064302E2,2.259877E2,3.5104265E0,1.1283249E1,6.705039E-1,1.8449013E0,0E0,3.6013727E0,7.1767797E0,3.7677937E0,1.6404373E1,1.4718918E1,2.818598E2,1.068331E2,0E0,2.4088144E0,5.243594E1,6.608444E0,1.0703394E0,2.0523202E-1,2.4287474E0,1.461549E0,3.554863E0,5.4388237E0,8.405138E0,3.472825E0,9.191435E0,3.3392582E0,6.575363E0,0E0,4.948468E0,6.6376915E0,0E0,0E0,1.2322419E0,2.2903229E1,7.9371786E-1,3.4596863E0,8.723168E0,1.404247E2,2.1812195E1,4.707094E0,7.448685E-1,7.5879335E-1,1.2726489E-1,4.7863126E-3,7.2534585E-1,0E0,1.29926E0,2.8650405E0,7.008753E-1,1.0208569E0,0E0,0E0,2.6749463E0,0E0,4.6198387E0,2.8007493E0,5.222996E0,9.124146E0,6.6107116E0,8.47751E0,0E0,0E0,0E0,4.8477917E0,0E0,3.8651443E-1,5.8993304E-1,0E0,0E0,1.4921051E1,1.1545341E0,8.0732584E-2,1.1307119E2,4.4488385E-1,6.792946E0,0E0,0E0,0E0,7.5811806E0,1.6915688E1,3.8871434E0,5.6558E0,0E0,0E0,0E0,0E0,0E0,0E0,0E0,0E0,0E0,0E0,0E0,0E0,0E0,0E0,0E0,0E0,0E0,0E0,0E0,0E0,0E0,0E0,0E0,0E0,0E0,0E0,0E0,0E0,0E0,0E0,0E0,0E0,0E0,0E0,0E0,0E0,0E0,0E0,0E0,0E0,0E0,0E0,0E0,0E0,0E0,0E0,0E0,0E0,0E0,0E0,0E0,0E0,0E0,0E0,0E0,0E0,0E0,0E0],"parents":[2147483647,0,0,1,1,2,2,3,3,4,4,5,5,6,6,8,8,9,9,10,10,11,11,12,12,13,13,14,14,15,15,16,16,18,18,19,19,20,20,21,21,22,22,23,23,24,24,26,26,27,27,28,28,29,29,30,30,31,31,32,32,33,33,34,34,35,35,36,36,37,37,38,38,39,39,41,41,42,42,45,45,46,46,47,47,48,48,49,49,50,50,51,51,52,52,53,53,54,54,55,55,56,56,57,57,59,59,60,60,61,61,62,62,65,65,67,67,68,68,69,69,70,70,71,71,72,72,76,76,78,78,79,79,82,82,83,83,84,84,85,85,86,86,87,87,91,91,92,92,93,93,94,94],"right_children":[2,4,6,8,10,12,14,-1,16,18,20,22,24,26,28,30,32,-1,34,36,38,40,42,44,46,-1,48,50,52,54,56,58,60,62,64,66,68,70,72,74,-1,76,78,-1,-1,80,82,84,86,88,90,92,94,96,98,100,102,104,-1,106,108,110,112,-1,-1,114,-1,116,118,120,122,124,126,-1,-1,-1,128,-1,130,132,-1,-1,134,136,138,140,142,144,-1,-1,-1,146,148,150,152,-1,-1,-1,-1,-1,-1,-1,-1,-1,-1,-1,-1,-1,-1,-1,-1,-1,-1,-1,-1,-1,-1,-1,-1,-1,-1,-1,-1,-1,-1,-1,-1,-1,-1,-1,-1,-1,-1,-1,-1,-1,-1,-1,-1,-1,-1,-1,-1,-1,-1,-1,-1,-1,-1,-1,-1,-1,-1],"split_conditions":[6.621175E-1,6.572582E-1,1.8095067E-2,2.7272727E-2,7.4137926E-2,8.2218254E-1,9.8790765E-1,3.2274313E-2,3.989272E-1,2.7272727E-2,6.274757E-2,7.703592E-1,8.349742E-1,6.724138E-2,4.1141517E-2,3.893812E-1,3.3636364E-1,-2.6029004E-2,1.389089E-1,2.349658E-2,7.787181E-2,7.563675E-1,9.8790765E-1,2.7272727E-2,8.571358E-1,3.396612E-2,8.30303E-1,4.0691394E-2,8.349742E-1,3.8399246E-1,3.9342475E-1,4.1551724E-1,6.474741E-1,3.5106385E-1,1.3989916E-1,2.1696076E-2,6.242424E-1,7.67915E-2,9.245589E-2,7.290039E-1,1.2641925E-1,7.847458E-1,2.7272727E-2,3.6376804E-1,7.788069E-2,8.4844077E-1,2.7272727E-2,9.998778E-1,6.46561E-1,4.0331293E-2,8.39857E-1,8.2218254E-1,8.76709E-1,3.757258E-1,3.8608843E-1,9.212121E-1,3.2413793E-1,9.689189E-1,2.714132E-2,4.1206574E-1,6.4979887E-1,6.724138E-2,1.9895572E-2,2.8160963E-2,-2.2797734E-2,3.0344826E-1,3.4263726E-2,2.6917538E-2,5.3114872E-2,7.008511E-1,8.30303E-1,8.7324455E-2,1.0361902E-1,8.723062E-2,2.3406906E-2,-1.17392335E-2,8.074397E-1,-4.5859654E-2,8.0966675E-1,2.7272727E-2,-2.054354E-2,1.2902234E-1,9.28372E-1,9.699887E-1,9.542672E-2,6.381887E-1,9.345995E-1,2.3406554E-2,-4.2106E-2,-5.7081275E-2,2.4125311E-1,8.0966675E-1,2.8132877E-1,9.2401874E-1,3.0410516E-1,-1.2688826E-4,-3.1342767E-3,5.541607E-3,-5.0502917E-4,-2.6248866E-3,1.128028E-3,-3.7804495E-3,-6.535789E-3,2.994644E-3,1.5303865E-2,4.088981E-3,7.29373E-4,8.393695E-3,-5.0777843E-4,-8.699292E-3,-5.6758634E-4,2.4307442E-4,-2.025407E-2,-4.710742E-3,2.5234984E-2,-2.5935315E-2,-9.291408E-3,-8.475552E-4,-1.48108015E-2,7.070668E-3,-1.0199723E-2,4.7895424E-2,-1.6456088E-2,-2.0213318E-3,-2.4059603E-2,1.139179E-2,-2.2735253E-3,6.3186236E-2,3.3985004E-3,-9.137758E-3,-2.0729057E-2,7.566796E-3,-9.164583E-3,7.024295E-2,-7.326649E-3,8.5846777E-4,-3.7749421E-3,8.623679E-3,4.1083363E-3,2.842346E-3,1.4330457E-1,1.066749E-3,-2.145942E-3,-4.7745407E-3,1.2057928E-2,4.0350645E-3,-4.5164453E-4,1.5072998E-2,6.291843E-3,3.5996098E-4,7.711194E-3,6.9344663E-3,2.628652E-3],"split_indices":[1,1,5,2,3,1,6,0,1,2,5,1,1,3,5,1,2,0,5,5,5,1,6,2,1,0,2,5,1,1,1,3,1,10,5,5,2,5,5,1,0,1,2,0,0,1,2,1,5,5,1,1,1,1,1,2,3,6,0,1,1,3,5,0,0,3,0,5,5,10,2,5,5,0,0,0,1,0,1,2,0,0,1,1,5,5,1,5,0,0,0,1,5,5,5,0,0,0,0,0,0,0,0,0,0,0,0,0,0,0,0,0,0,0,0,0,0,0,0,0,0,0,0,0,0,0,0,0,0,0,0,0,0,0,0,0,0,0,0,0,0,0,0,0,0,0,0,0,0,0,0,0,0],"split_type":[0,0,0,0,0,0,0,0,0,0,0,0,0,0,0,0,0,0,0,0,0,0,0,0,0,0,0,0,0,0,0,0,0,0,0,0,0,0,0,0,0,0,0,0,0,0,0,0,0,0,0,0,0,0,0,0,0,0,0,0,0,0,0,0,0,0,0,0,0,0,0,0,0,0,0,0,0,0,0,0,0,0,0,0,0,0,0,0,0,0,0,0,0,0,0,0,0,0,0,0,0,0,0,0,0,0,0,0,0,0,0,0,0,0,0,0,0,0,0,0,0,0,0,0,0,0,0,0,0,0,0,0,0,0,0,0,0,0,0,0,0,0,0,0,0,0,0,0,0,0,0,0,0],"sum_hessian":[7.834E3,3.673E3,4.161E3,1.509E3,2.164E3,5E1,4.111E3,1E0,1.508E3,6.8E1,2.096E3,2E1,3E1,8.5E2,3.261E3,9.27E2,5.81E2,1.1E1,5.7E1,9.6E1,2E3,6E0,1.4E1,6E0,2.4E1,1E0,8.49E2,8E1,3.181E3,8.93E2,3.4E1,1.7E1,5.64E2,5.4E1,3E0,1.5E1,8.1E1,3.3E1,1.967E3,3E0,3E0,3E0,1.1E1,2E0,4E0,7E0,1.7E1,6.18E2,2.31E2,7.8E1,2E0,2.167E3,1.014E3,8.58E2,3.5E1,2.6E1,8E0,1.5E1,2E0,5.06E2,5.8E1,3.8E1,1.6E1,2E0,1E0,1.2E1,3E0,4.7E1,3.4E1,2.9E1,4E0,2.4E1,1.943E3,1E0,2E0,1E0,2E0,4E0,7E0,3E0,4E0,3E0,1.4E1,5.98E2,2E1,1.34E2,9.7E1,7.7E1,1E0,1E0,1E0,1.688E3,4.79E2,3.85E2,6.29E2,8.24E2,3.4E1,2.2E1,1.3E1,2.2E1,4E0,3E0,5E0,1.3E1,2E0,5.1E1,4.55E2,3.2E1,2.6E1,3.3E1,5E0,1E0,1.5E1,1.1E1,1E0,8E0,3.9E1,2.7E1,7E0,1.8E1,1.1E1,3E0,1E0,1.6E1,8E0,1.8E1,1.925E3,1E0,1E0,5E0,2E0,1E0,2E0,1.3E1,1E0,5.76E2,2.2E1,2E0,1.8E1,1.32E2,2E0,7.5E1,2.2E1,1.1E1,6.6E1,1.521E3,1.67E2,1.16E2,3.63E2,3.54E2,3.1E1,1.66E2,4.63E2],"tree_param":{"num_deleted":"0","num_feature":"12","num_nodes":"153","size_leaf_vector":"0"}},{"base_weights":[6.7843534E-2,3.4284008E-1,6.2075634E-2,6.2035773E-2,8.953577E-1,3.3754501E-3,7.34179E-2,-3.0562064E-2,1.1872375E0,1.3560463E0,4.0636945E-1,-1.8541712E-2,1.4340917E-2,2.9889658E-1,6.984524E-2,-1.543949E-1,7.8951776E-1,6.4340717E-1,1.6364154E0,8.6176133E-1,6.734202E0,-1.3955759E-1,5.6276053E-1,-2.2791663E-2,-4.459365E-3,3.6788067E-1,1.2501667E-2,4.040891E0,2.485304E-1,2.3141801E-2,8.528897E-2,-1.0362515E0,-1.1048811E-2,1.2540493E0,1.1655579E-2,1.9507248E0,1.0821364E0,1.5979261E0,2.072719E-1,3.330318E-2,-4.4674486E-1,6.4873874E-1,1.7225835E-1,-2.7123177E-3,-2.941327E-2,4.2206503E-2,-1.8891484E-2,-5.82391E-2,7.475402E-1,-8.3598626E-1,1.4866981E-2,5.172092E-1,8.437501E-2,2.130264E-2,2.2235358E0,-1.7612705E-2,9.404405E-2,2.806917E-1,-1.6813176E0,2.29596E-2,-7.62378E-1,5.925668E-1,2.8641083E0,-3.0866727E-1,4.7369865E-1,3.3788433E0,1.340112E0,3.844447E-1,-4.1155398E-1,3.7730086E-1,9.997725E-1,-1.1310173E-2,7.134458E-2,3.6520902E-2,-3.0907452E-2,1.041481E-2,1.7750335E-1,-1.53539935E-2,-6.2348645E-2,8.790465E-2,-2.0051548E-1,1.8054923E-2,-5.5537812E-2,2.706241E-1,1.3923596E0,-2.640102E-1,2.8557673E-1,7.63779E-3,2.479348E-1,5.660637E-2,-3.411512E-2,1.5690291E-1,8.061099E-2,-0E0,3.6138976E-1,-2.3776624E0,4.4285145E-1,-4.437404E-2,1.2495031E-1,-0E0,-1.0843681E0,-1.1437759E-1,7.3494124E-1,1.6737612E-1,-5.4270595E-1,2.3036297E-1,5.878759E-1,-1.4849442E-1,4.4219124E-1,4.5869297E-1,2.2601846E-1,-2.5410594E-3,-4.349448E-2,-4.7241594E-3,2.7372622E-1,-8.968882E-2,2.1771099E-1,-2.9521024E-2,-8.695528E-2,7.437083E-2,-6.956376E-3,2.9150835E-1,1.0986251E-1,-1.8982073E-2,1.5226751E-2,4.6121456E-2,1.2257281E-2,-1.7671885E-1,3.1760786E-2,6.7890507E-1,1.8054312E-1,2.2136815E0,-5.67439E-2,-1.2362157E0,-9.95954E-2,1.185117E0,-2.3532026E-2,5.771463E-2,-8.128138E-2,3.5653734E-1,-2.5715208E-1,4.652124E-1,2.2216352E-2,-2.3518326E-2,-5.9912663E-2,4.474907E-2,2.893581E-1,1.2984705E-1,6.64024E-2],"categories":[],"categories_nodes":[],"categories_segments":[],"categories_sizes":[],"default_left":[true,true,true,true,true,true,true,true,true,true,true,true,true,true,true,true,true,false,true,true,false,true,true,true,true,true,true,false,true,true,true,true,true,true,true,false,false,true,true,false,false,true,false,true,true,true,true,true,false,false,true,true,true,true,false,true,true,true,true,true,true,true,false,true,true,false,false,true,false,true,false,true,true,true,true,true,true,true,false,false,false,true,true,true,true,true,true,true,true,true,true,true,true,false,false,false,false,false,false,false,false,false,false,false,false,false,false,false,false,false,false,false,false,false,false,false,false,false,false,false,false,false,false,false,false,false,false,false,false,false,false,false,false,false,false,false,false,false,false,false,false,false,false,false,false,false,false,false,false],"id":171,"left_children":[1,3,5,7,9,11,13,15,17,19,21,23,25,27,29,31,33,-1,35,37,-1,39,41,43,45,47,49,-1,51,53,55,57,59,61,63,-1,-1,65,67,-1,-1,69,-1,71,73,75,77,79,-1,-1,81,83,85,87,-1,89,91,93,95,97,99,101,-1,103,105,-1,-1,107,-1,109,-1,111,113,115,117,119,121,123,-1,-1,-1,125,127,129,131,133,135,137,139,141,143,145,147,-1,-1,-1,-1,-1,-1,-1,-1,-1,-1,-1,-1,-1,-1,-1,-1,-1,-1,-1,-1,-1,-1,-1,-1,-1,-1,-1,-1,-1,-1,-1,-1,-1,-1,-1,-1,-1,-1,-1,-1,-1,-1,-1,-1,-1,-1,-1,-1,-1,-1,-1,-1,-1,-1,-1,-1],"loss_changes":[1.2684811E1,2.5464048E1,5.219528E0,1.142019E1,1.22561455E1,3.0533043E-1,5.2813835E0,1.0322289E1,1.6520462E0,7.327647E1,2.3659067E0,2.4913609E-2,5.440174E-1,1.8890705E1,4.663965E0,1.1147539E1,4.7950087E0,0E0,7.753372E-3,1.2551588E1,0E0,3.4717005E-1,6.672883E-1,4.263772E-2,6.683316E-2,7.2542113E-1,1.6849518E0,0E0,4.446186E0,6.4609118E0,4.381283E0,1.0654829E1,1.9668196E0,8.260097E0,8.404822E-1,0E0,0E0,4.085581E0,1.6238844E0,0E0,0E0,1.5061665E0,0E0,5.1200245E-2,2.4268985E-2,9.7067684E-2,1.0307098E-2,5.600356E-2,0E0,0E0,1.8863401E-1,8.122949E0,4.4648533E0,4.973465E0,0E0,4.6737814E-1,3.775528E0,9.39351E-2,1.2705217E1,5.06609E-1,8.063414E-1,6.7435265E-1,0E0,4.0703565E-1,8.000016E-3,0E0,0E0,3.7487805E-1,0E0,8.289933E-2,0E0,2.0003239E-2,1.3256139E-1,1.3030313E-1,1.6002566E-2,2.261346E-2,1.7012209E-2,8.064358E-3,0E0,0E0,0E0,1.300224E-1,3.8830882E-1,1.0624816E0,9.99099E0,3.6696262E0,1.1240823E1,6.7531443E0,5.0419726E0,9.6387255E-1,8.372307E-2,1.1701893E1,2.5773888E0,0E0,0E0,0E0,0E0,0E0,0E0,0E0,0E0,0E0,0E0,0E0,0E0,0E0,0E0,0E0,0E0,0E0,0E0,0E0,0E0,0E0,0E0,0E0,0E0,0E0,0E0,0E0,0E0,0E0,0E0,0E0,0E0,0E0,0E0,0E0,0E0,0E0,0E0,0E0,0E0,0E0,0E0,0E0,0E0,0E0,0E0,0E0,0E0,0E0,0E0,0E0,0E0,0E0,0E0,0E0,0E0],"parents":[2147483647,0,0,1,1,2,2,3,3,4,4,5,5,6,6,7,7,8,8,9,9,10,10,11,11,12,12,13,13,14,14,15,15,16,16,18,18,19,19,21,21,22,22,23,23,24,24,25,25,26,26,28,28,29,29,30,30,31,31,32,32,33,33,34,34,37,37,38,38,41,41,43,43,44,44,45,45,46,46,47,47,50,50,51,51,52,52,53,53,55,55,56,56,57,57,58,58,59,59,60,60,61,61,63,63,64,64,67,67,69,69,71,71,72,72,73,73,74,74,75,75,76,76,77,77,81,81,82,82,83,83,84,84,85,85,86,86,87,87,88,88,89,89,90,90,91,91,92,92],"right_children":[2,4,6,8,10,12,14,16,18,20,22,24,26,28,30,32,34,-1,36,38,-1,40,42,44,46,48,50,-1,52,54,56,58,60,62,64,-1,-1,66,68,-1,-1,70,-1,72,74,76,78,80,-1,-1,82,84,86,88,-1,90,92,94,96,98,100,102,-1,104,106,-1,-1,108,-1,110,-1,112,114,116,118,120,122,124,-1,-1,-1,126,128,130,132,134,136,138,140,142,144,146,148,-1,-1,-1,-1,-1,-1,-1,-1,-1,-1,-1,-1,-1,-1,-1,-1,-1,-1,-1,-1,-1,-1,-1,-1,-1,-1,-1,-1,-1,-1,-1,-1,-1,-1,-1,-1,-1,-1,-1,-1,-1,-1,-1,-1,-1,-1,-1,-1,-1,-1,-1,-1,-1,-1,-1,-1],"split_conditions":[2.5207058E-2,2.777778E-1,7.920965E-1,2.3406554E-2,5E-1,1.3484347E-1,9.6551724E-2,7.090609E-2,1.8965518E-1,5E-1,2.0075621E-2,6.103448E-1,3.9791144E-2,3.0158445E-2,2.7021277E-1,2.2506302E-3,1.6666667E-1,1.2868143E-2,1.6666667E-1,2.2506302E-3,1.3468404E-1,8.275862E-2,4.2068964E-1,2.862069E-1,6.3737845E-1,3.610011E-2,4.1141517E-2,8.081782E-2,3.9234042E-1,8.555095E-1,5.5555556E-2,5.5555556E-2,2.2236226E-2,9.5682657E-1,5E-1,3.9014496E-2,2.1642728E-2,9.689189E-1,3.888889E-1,6.6606357E-4,-8.934897E-3,1.6034482E-1,3.4451669E-3,2.689655E-1,4.5912854E-2,6.2549514E-1,9.919877E-1,3.9827585E-1,1.49508035E-2,-1.6719725E-2,5E-1,2.777778E-1,9.9787235E-1,7.1209943E-1,4.4470716E-2,9.8790765E-1,2.6206896E-1,5.719247E-1,1.6666667E-1,1.6666667E-1,5.5555556E-2,3.8609636E-1,5.7282165E-2,2.2506302E-3,5.318377E-1,6.757686E-2,2.6802238E-2,3.2317758E-1,-8.231079E-3,8.275862E-2,1.999545E-2,2.777778E-1,4.4976592E-1,6.658651E-2,5.982759E-1,1.1406194E-1,6.5689653E-1,8.7068963E-1,-1.2469728E-3,1.7580929E-3,-4.0103095E-3,2.5344828E-1,5.3709036E-1,6.670868E-2,1.3296723E-1,4.9873963E-2,1.3422757E-1,4.004321E-1,7.689053E-1,2.0172414E-1,9.9787235E-1,1.9137931E-1,4.5849836E-1,-0E0,7.2277947E-3,-4.755325E-2,8.857029E-3,-8.874808E-4,2.4990062E-3,-0E0,-2.1687362E-2,-2.2875518E-3,1.4698825E-2,3.3475223E-3,-1.08541185E-2,4.6072593E-3,1.1757518E-2,-2.9698883E-3,8.843824E-3,9.173859E-3,4.520369E-3,-5.0821185E-5,-8.698896E-4,-9.4483185E-5,5.4745246E-3,-1.7937764E-3,4.3542194E-3,-5.9042044E-4,-1.7391056E-3,1.4874166E-3,-1.3912751E-4,5.830167E-3,2.19725E-3,-3.7964145E-4,3.04535E-4,9.224291E-4,2.451456E-4,-3.5343769E-3,6.352157E-4,1.3578101E-2,3.6108624E-3,4.427363E-2,-1.134878E-3,-2.4724314E-2,-1.9919078E-3,2.370234E-2,-4.706405E-4,1.1542926E-3,-1.6256275E-3,7.1307467E-3,-5.1430417E-3,9.304248E-3,4.4432702E-4,-4.703665E-4,-1.1982532E-3,8.949814E-4,5.787162E-3,2.5969408E-3,1.328048E-3],"split_indices":[5,4,6,5,0,6,3,7,3,4,5,3,5,5,10,5,4,0,4,5,0,3,3,3,5,5,5,0,10,5,4,4,5,6,0,0,0,6,4,0,0,3,0,3,5,5,5,3,0,0,4,4,10,5,0,6,3,6,4,4,4,6,0,5,6,0,0,6,0,3,0,4,5,6,3,5,3,3,0,0,0,3,5,5,5,5,5,5,5,3,10,3,5,0,0,0,0,0,0,0,0,0,0,0,0,0,0,0,0,0,0,0,0,0,0,0,0,0,0,0,0,0,0,0,0,0,0,0,0,0,0,0,0,0,0,0,0,0,0,0,0,0,0,0,0,0,0,0,0],"split_type":[0,0,0,0,0,0,0,0,0,0,0,0,0,0,0,0,0,0,0,0,0,0,0,0,0,0,0,0,0,0,0,0,0,0,0,0,0,0,0,0,0,0,0,0,0,0,0,0,0,0,0,0,0,0,0,0,0,0,0,0,0,0,0,0,0,0,0,0,0,0,0,0,0,0,0,0,0,0,0,0,0,0,0,0,0,0,0,0,0,0,0,0,0,0,0,0,0,0,0,0,0,0,0,0,0,0,0,0,0,0,0,0,0,0,0,0,0,0,0,0,0,0,0,0,0,0,0,0,0,0,0,0,0,0,0,0,0,0,0,0,0,0,0,0,0,0,0,0,0],"sum_hessian":[8.005E3,1.64E2,7.841E3,1.09E2,5.5E1,1.27E3,6.571E3,1.01E2,8E0,2.8E1,2.7E1,4.23E2,8.47E2,1.02E2,6.469E3,8.8E1,1.3E1,4E0,4E0,2.6E1,2E0,6E0,2.1E1,3.24E2,9.9E1,4E0,8.43E2,1E0,1.01E2,1.608E3,4.861E3,1.2E1,7.6E1,8E0,5E0,2E0,2E0,1.2E1,1.4E1,4E0,2E0,1.7E1,4E0,8.1E1,2.43E2,2.3E1,7.6E1,2E0,2E0,2E0,8.41E2,3.8E1,6.3E1,1.607E3,1E0,3.81E2,4.48E3,4E0,8E0,7.3E1,3E0,6E0,2E0,3E0,2E0,1E0,1.1E1,1.1E1,3E0,1E1,7E0,7.3E1,8E0,5E0,2.38E2,1.9E1,4E0,7.1E1,5E0,1E0,1E0,8.05E2,3.6E1,3E1,8E0,2.3E1,4E1,1.516E3,9.1E1,6.9E1,3.12E2,7.88E2,3.692E3,1E0,3E0,6E0,2E0,4.4E1,2.9E1,1E0,2E0,1E0,5E0,1E0,2E0,1E0,1E0,1E0,1E1,6E0,4E0,5.8E1,1.5E1,6E0,2E0,3E0,2E0,2.33E2,5E0,4E0,1.5E1,1E0,3E0,6.4E1,7E0,1.37E2,6.68E2,1.5E1,2.1E1,5E0,2.5E1,5E0,3E0,3E0,2E1,1E1,3E1,9.7E2,5.46E2,7.5E1,1.6E1,5E0,6.4E1,2.22E2,9E1,4.27E2,3.61E2,8.26E2,2.866E3],"tree_param":{"num_deleted":"0","num_feature":"12","num_nodes":"149","size_leaf_vector":"0"}},{"base_weights":[5.7281483E-2,-1.887249E0,6.4012796E-2,6.726093E-1,-2.3363032E0,2.7613145E-1,5.876852E-2,2.3866963E-1,1.5784894E0,-3.8339977E0,-1.6152896E0,1.9040968E-1,1.9301656E0,4.135255E-2,1.0169788E-1,-0E0,3.3594212E-1,-1.12662226E-1,-4.41338E0,3.333369E-1,-2.4860337E0,1.4897993E-2,3.1123528E-1,5.070251E0,8.4129256E-1,8.2154855E-2,2.9552937E-2,2.626591E-1,8.8660896E-2,-7.368314E-2,1.4547402E0,5.9907436E-1,4.6848398E-2,-1.5462622E-1,1.0089331E0,4.967086E-2,1.8854377E-1,2.2445532E-2,9.3468435E-2,3.7714738E-1,9.224802E-2,3.616226E-2,1.3003145E-1,-1.512779E-1,2.3199917E-1,2.815012E0,-1.07312776E-1,-1.3551944E-1,7.566518E-1,-5.604251E-1,2.1575986E-1,1.3954865E0,7.198516E-1,-5.4700654E-2,7.9278365E-2,-6.3791126E-3,3.0954692E-1,1.7231055E-2,8.663733E-2,4.3619093E-1,6.1368108E-2,4.149553E-2,4.9576777E-1,-4.3707237E-2,3.0501923E-1,1.4980261E-1,6.968427E-3,8.301392E-2,2.0687306E-1,8.3199695E-2,-2.5368756E-1,8.9572483E-1,2.8695198E-2,-3.4558666E-1,1.4710072E-1,-3.3766484E-1,3.4523506E-2,8.1888515E-1,-4.2105412E-1,5.0005037E-1,-2.559935E0,4.5429483E-1,8.8131495E-2,8.1289536E-1,-9.077106E-2,-2.8753545E-2,1.0567098E-1,4.966728E-1,-5.2833237E-2,5.2484876E-1,1.4242893E-1,8.9712E-2,1.3131498E-2,3.2809946E-1,6.31549E-2,3.2219293E0,2.4220641E-1,7.930808E-1,4.528655E-2,7.910531E-3,6.584738E-1,1.1396612E-1,5.8497465E-1,7.420001E-2,-2.2656418E-1,7.066653E-1,1.9916926E-1,5.422469E-3,2.1380459E-1,-1.7261587E-1,2.1295806E-2,1.7673377E-2,1.6801095E-1,2.4671616E-1,-1.6392145E-2],"categories":[],"categories_nodes":[],"categories_segments":[],"categories_sizes":[],"default_left":[true,true,true,true,true,true,true,true,false,true,true,true,true,true,true,false,false,false,false,false,false,true,true,false,true,true,true,true,true,true,true,true,true,false,true,true,true,true,true,true,true,true,true,true,true,false,true,true,true,true,true,false,false,true,true,true,true,true,true,true,true,true,true,true,true,true,true,true,true,false,false,false,false,false,false,false,false,false,false,false,false,false,false,false,false,false,false,false,false,false,false,false,false,false,false,false,false,false,false,false,false,false,false,false,false,false,false,false,false,false,false,false,false,false,false],"id":172,"left_children":[1,3,5,7,9,11,13,15,-1,17,19,21,23,25,27,-1,-1,-1,-1,-1,-1,29,31,-1,33,35,37,39,41,43,45,47,49,-1,51,53,55,57,59,61,63,65,67,69,71,-1,73,75,77,79,81,-1,-1,83,85,87,89,91,93,95,97,99,101,103,105,107,109,111,113,-1,-1,-1,-1,-1,-1,-1,-1,-1,-1,-1,-1,-1,-1,-1,-1,-1,-1,-1,-1,-1,-1,-1,-1,-1,-1,-1,-1,-1,-1,-1,-1,-1,-1,-1,-1,-1,-1,-1,-1,-1,-1,-1,-1,-1,-1],"loss_changes":[1.0371158E2,3.1967987E1,8.772648E0,1.5519248E0,2.3053917E1,2.6833954E1,5.757498E0,7.346366E-2,0E0,1.5581146E1,2.802095E1,3.8392153E0,3.0405819E1,2.6370745E0,4.652775E0,0E0,0E0,0E0,0E0,0E0,0E0,9.536147E0,8.1496E0,0E0,1.288579E0,4.2419786E0,1.9298229E0,3.22688E0,4.4643803E0,1.678816E0,9.347194E0,5.985182E0,5.8138375E0,0E0,3.425765E-1,2.9137766E0,6.782111E0,1.279466E0,4.6632843E0,3.9404535E0,1.9559528E0,3.0075831E0,4.146179E0,1.3621932E0,1.9123738E0,0E0,1.6123886E-1,3.290346E-1,3.223381E0,2.6608538E1,1.3285921E0,0E0,0E0,6.5340056E0,2.0958748E0,2.5807843E0,6.346155E0,1.050411E0,1.616724E0,1.9324606E1,4.5573826E0,5.344192E-1,2.4654884E0,8.989356E-1,1.0596914E0,1.7090816E0,1.8576114E0,3.9635925E0,3.886074E0,0E0,0E0,0E0,0E0,0E0,0E0,0E0,0E0,0E0,0E0,0E0,0E0,0E0,0E0,0E0,0E0,0E0,0E0,0E0,0E0,0E0,0E0,0E0,0E0,0E0,0E0,0E0,0E0,0E0,0E0,0E0,0E0,0E0,0E0,0E0,0E0,0E0,0E0,0E0,0E0,0E0,0E0,0E0,0E0,0E0,0E0],"parents":[2147483647,0,0,1,1,2,2,3,3,4,4,5,5,6,6,7,7,9,9,10,10,11,11,12,12,13,13,14,14,21,21,22,22,24,24,25,25,26,26,27,27,28,28,29,29,30,30,31,31,32,32,34,34,35,35,36,36,37,37,38,38,39,39,40,40,41,41,42,42,43,43,44,44,46,46,47,47,48,48,49,49,50,50,53,53,54,54,55,55,56,56,57,57,58,58,59,59,60,60,61,61,62,62,63,63,64,64,65,65,66,66,67,67,68,68],"right_children":[2,4,6,8,10,12,14,16,-1,18,20,22,24,26,28,-1,-1,-1,-1,-1,-1,30,32,-1,34,36,38,40,42,44,46,48,50,-1,52,54,56,58,60,62,64,66,68,70,72,-1,74,76,78,80,82,-1,-1,84,86,88,90,92,94,96,98,100,102,104,106,108,110,112,114,-1,-1,-1,-1,-1,-1,-1,-1,-1,-1,-1,-1,-1,-1,-1,-1,-1,-1,-1,-1,-1,-1,-1,-1,-1,-1,-1,-1,-1,-1,-1,-1,-1,-1,-1,-1,-1,-1,-1,-1,-1,-1,-1,-1,-1,-1],"split_conditions":[2.7272727E-2,5.5555556E-2,1.7021276E-2,7.090609E-2,1.6666667E-1,5E-1,8.30303E-1,5.719247E-1,3.1569786E-2,5.629188E-1,2.777778E-1,1.6666667E-1,1.8181819E-1,5.181818E-1,7.125307E-2,-0E0,6.7188423E-3,-2.2532444E-3,-8.82676E-2,6.6667376E-3,-4.972067E-2,1.3137093E-1,2.777778E-1,1.0140502E-1,8.231776E-1,4.1551724E-1,5E-1,2.777778E-1,3.0221128E-1,4.5208848E-1,1.8181819E-1,9.8790765E-1,1.8181819E-1,-3.0925244E-3,3.3636364E-1,1.3234043E-1,1.6666667E-1,7.827586E-1,2.923833E-1,3.5106385E-1,1.4310345E-1,2.6206896E-1,2.777778E-1,5.5555556E-2,6.0565114E-1,5.6300238E-2,3.3636364E-1,1.8181819E-1,2.9482758E-1,3.888889E-1,1.4482759E-1,2.790973E-2,1.4397032E-2,8.793104E-2,1.4482759E-1,2.923833E-1,6.0565114E-1,2.3620689E-1,7.896552E-1,7.2727275E-1,2.6206896E-1,5.4282683E-1,5.5555556E-2,3.888889E-1,3.5106385E-1,9.8790765E-1,2.8103447E-1,3.8793105E-1,5E-1,1.6639938E-3,-5.0737513E-3,1.7914496E-2,5.7390396E-4,-6.911733E-3,2.9420143E-3,-6.7532966E-3,6.904701E-4,1.6377702E-2,-8.421082E-3,1.00010075E-2,-5.1198702E-2,9.085896E-3,1.7626298E-3,1.6257906E-2,-1.815421E-3,-5.750709E-4,2.1134196E-3,9.933456E-3,-1.0566647E-3,1.0496975E-2,2.8485786E-3,1.79424E-3,2.6262997E-4,6.561989E-3,1.263098E-3,6.443858E-2,4.844128E-3,1.5861616E-2,9.05731E-4,1.5821062E-4,1.3169476E-2,2.2793224E-3,1.1699493E-2,1.4840002E-3,-4.5312834E-3,1.4133305E-2,3.9833854E-3,1.08449385E-4,4.2760917E-3,-3.4523173E-3,4.259161E-4,3.5346753E-4,3.3602188E-3,4.934323E-3,-3.278429E-4],"split_indices":[2,4,10,7,4,4,2,6,0,6,4,4,2,2,11,0,0,0,0,0,0,7,4,0,6,3,4,4,11,11,2,6,2,0,2,10,4,3,11,10,3,3,4,4,11,0,2,2,3,4,3,0,0,3,3,11,11,3,3,2,3,7,4,4,10,6,3,3,4,0,0,0,0,0,0,0,0,0,0,0,0,0,0,0,0,0,0,0,0,0,0,0,0,0,0,0,0,0,0,0,0,0,0,0,0,0,0,0,0,0,0,0,0,0,0],"split_type":[0,0,0,0,0,0,0,0,0,0,0,0,0,0,0,0,0,0,0,0,0,0,0,0,0,0,0,0,0,0,0,0,0,0,0,0,0,0,0,0,0,0,0,0,0,0,0,0,0,0,0,0,0,0,0,0,0,0,0,0,0,0,0,0,0,0,0,0,0,0,0,0,0,0,0,0,0,0,0,0,0,0,0,0,0,0,0,0,0,0,0,0,0,0,0,0,0,0,0,0,0,0,0,0,0,0,0,0,0,0,0,0,0,0,0],"sum_hessian":[7.922E3,2.7E1,7.895E3,4E0,2.3E1,1.9E2,7.705E3,3E0,1E0,7E0,1.6E1,1.81E2,9E0,5.482E3,2.223E3,1E0,2E0,1E0,6E0,5E0,1.1E1,7.4E1,1.07E2,2E0,7E0,1.229E3,4.253E3,1.66E2,2.057E3,7E1,4E0,5.1E1,5.6E1,1E0,6E0,9.42E2,2.87E2,3.828E3,4.25E2,9.9E1,6.7E1,9.07E2,1.15E3,5.6E1,1.4E1,2E0,2E0,9E0,4.2E1,1.2E1,4.4E1,2E0,4E0,2.08E2,7.34E2,1.1E2,1.77E2,3.541E3,2.87E2,3.6E1,3.89E2,2.6E1,7.3E1,4.1E1,2.6E1,1.85E2,7.22E2,7.14E2,4.36E2,1.7E1,3.9E1,3E0,1.1E1,1E0,1E0,4E0,5E0,4E1,2E0,8E0,4E0,1.5E1,2.9E1,8E0,2E2,1.44E2,5.9E2,9E0,1.01E2,7.7E1,1E2,1.89E2,3.352E3,2.5E1,2.62E2,2E0,3.4E1,8E0,3.81E2,2.5E1,1E0,1.4E1,5.9E1,2.5E1,1.6E1,5E0,2.1E1,5.7E1,1.28E2,5.3E1,6.69E2,4.04E2,3.1E2,3.7E2,6.6E1],"tree_param":{"num_deleted":"0","num_feature":"12","num_nodes":"115","size_leaf_vector":"0"}},{"base_weights":[6.5970555E-2,-6.530097E-2,1.8799512E-1,-6.177719E-1,-5.1539037E-2,1.7227342E0,1.6885193E-1,5.3996015E-2,-7.922606E-1,2.1797566E-2,-1.03610285E-1,4.5248313E0,1.3091472E0,1.9127385E-1,6.5082215E-2,-0E0,4.515608E-1,-1.3697783E0,-6.480537E-1,1.5774973E-2,3.6731526E-1,-4.2243573E-1,-8.957584E-2,2.3561122E0,6.236619E0,-8.339682E-1,2.65275E0,2.9898438E-1,1.7178419E-1,1.6644135E0,6.205903E-2,1.263105E-1,-5.541402E-2,-4.4161975E-1,-1.1009009E0,-4.049265E-3,7.2508365E-2,4.0858105E-1,-1.0938444E-1,-3.033527E-1,-8.903033E-1,2.1335356E0,-9.099538E-2,4.2819586E0,9.127598E-1,-1.7750996E0,-4.0328115E-1,1.1389992E1,9.915541E-1,1.3104978E-1,4.74575E-1,7.915612E-2,1.9039263E-1,4.0131856E-2,1.8374248E-1,-0E0,1.5276122E-1,-9.5946975E-2,1.2588713E-1,-4.6368632E-1,-4.3741922E-4,-1.2876645E0,-5.624916E-1,5.8919257E-3,-1.8242605E-1,3.4407377E-1,5.5247523E-2,4.7869378E-1,2.7727026E-1,-8.4713376E-1,-1.5843634E-1,-3.535245E-1,-9.867056E-1,4.5791283E-2,-1.1127266E-1,1.598667E-1,-2.2372098E0,-2.4626413E-1,-1.0348655E0,1.7944643E1,3.201507E0,-9.007391E-1,1.999348E0,5.3096205E-1,-1.40202055E-2,9.991109E-1,2.626044E-1,2.528021E0,7.2126746E-2,6.0004115E-1,1.7430653E-1,6.284654E-1,3.684633E-2,4.111841E-1,5.0343037E-2,1.8920048E-1,1.2769594E-2,-0E0,-2.3105636E-1,-0E0,2.1459445E-1,-4.3863294E-1,-1.0572447E0,-9.577455E-1,-1.7199733E0,5.0190713E-2,-1.3634648E0,-1.0399936E-2,1.2578903E-1,-1.9729143E-1,-1.04189165E-1,2.8806812E-1,1.1853352E0,2.6122542E-2,1.4763768E-1,1.9272918E-2,5.0930256E-1,7.647063E-2,3.266104E-1,-1.0012032E0,1.4816959E-1,-1.9870485E-1,1.6018591E0,-9.419469E-1,2.7140446E-2,-1.1375316E0,-7.1023285E-1,7.47477E-1,3.203891E-3,-4.2085573E-1,-9.440774E-2,-5.649549E-1,-1.904059E-1,-3.8720188E-1,-1.1627122E0,-2.9563324E0,2.8177004E0,3.0103588E-1,1.1196643E0,-4.4023004E-1,2.562937E-2,1.8939596E0,8.2525736E-1,-3.28995E-1,4.5876178E-1,1.4527617E-1,-3.6618806E-2,4.0714434E-1,1.0738201E0,-2.3671483E-1,1.8310049E-1,-1.1797494E0,3.9534036E-2,6.170528E-2,3.306414E0,1.731341E-1,-1.7852151E-1],"categories":[],"categories_nodes":[],"categories_segments":[],"categories_sizes":[],"default_left":[true,true,true,true,true,true,true,true,true,true,true,true,true,true,true,true,false,false,true,true,true,true,true,true,false,true,true,true,true,false,true,true,true,true,true,true,true,true,false,true,true,false,true,false,false,true,true,true,true,true,true,true,true,true,true,false,true,true,true,true,false,true,true,true,true,true,true,true,true,true,true,true,true,true,true,false,false,true,false,false,false,true,true,true,true,true,true,false,true,true,true,false,true,true,true,false,false,false,false,false,false,false,false,false,false,false,false,false,false,false,false,false,false,false,false,false,false,false,false,false,false,false,false,false,false,false,false,false,false,false,false,false,false,false,false,false,false,false,false,false,false,false,false,false,false,false,false,false,false,false,false,false,false,false,false,false,false],"id":173,"left_children":[1,3,5,7,9,11,13,15,17,19,21,23,25,27,29,31,-1,-1,33,35,37,39,41,43,-1,45,47,49,51,-1,53,55,57,59,61,63,65,67,-1,69,71,-1,73,-1,-1,75,77,79,81,83,85,87,89,91,93,-1,95,97,99,101,-1,103,105,107,109,111,113,115,117,119,121,123,125,127,129,-1,-1,131,-1,-1,-1,133,135,137,139,141,143,-1,145,147,149,-1,151,153,155,-1,-1,-1,-1,-1,-1,-1,-1,-1,-1,-1,-1,-1,-1,-1,-1,-1,-1,-1,-1,-1,-1,-1,-1,-1,-1,-1,-1,-1,-1,-1,-1,-1,-1,-1,-1,-1,-1,-1,-1,-1,-1,-1,-1,-1,-1,-1,-1,-1,-1,-1,-1,-1,-1,-1,-1,-1,-1,-1,-1,-1,-1],"loss_changes":[1.2639598E2,2.8881632E1,1.2001979E2,1.0847748E1,1.4166857E1,5.6273407E1,9.390572E0,4.1944346E-1,5.7825584E0,3.1979022E0,9.686842E0,1.848964E1,1.2842175E2,6.948433E0,3.4141214E0,1.2296459E-1,0E0,0E0,5.362543E0,1.7042396E0,5.371876E-1,4.9815617E0,6.5943813E0,7.888529E0,0E0,6.7560368E0,3.9278265E2,1.4960224E1,4.84037E0,0E0,1.9083185E0,1.603382E-2,9.4235376E-2,3.9570808E-1,1.5756035E0,1.9930856E0,1.8270078E0,1.6898346E-1,0E0,5.71978E0,8.1325626E-1,0E0,5.764454E0,0E0,0E0,4.9179173E0,1.1198449E0,2.131294E2,4.5114117E1,1.51131735E1,2.7505756E1,8.015641E0,1.5389229E1,1.1586883E0,3.3037555E0,0E0,1.841928E-2,1.3622312E-1,2.4427563E-2,4.089327E-1,0E0,1.3141918E0,2.6589127E0,2.0791414E0,5.7850957E-2,9.64483E-1,9.900607E-1,2.0481086E-1,7.83928E-2,2.412962E0,4.221067E0,7.682444E-1,3.4362316E-1,8.007093E0,9.426104E0,0E0,0E0,1.3730496E-1,0E0,0E0,0E0,9.488883E-1,6.496065E1,9.252178E0,3.2430282E0,1.0537529E1,2.0631126E1,0E0,3.7446742E0,7.905918E0,8.161995E0,0E0,1.9786422E0,4.0694195E1,1.9586754E0,0E0,0E0,0E0,0E0,0E0,0E0,0E0,0E0,0E0,0E0,0E0,0E0,0E0,0E0,0E0,0E0,0E0,0E0,0E0,0E0,0E0,0E0,0E0,0E0,0E0,0E0,0E0,0E0,0E0,0E0,0E0,0E0,0E0,0E0,0E0,0E0,0E0,0E0,0E0,0E0,0E0,0E0,0E0,0E0,0E0,0E0,0E0,0E0,0E0,0E0,0E0,0E0,0E0,0E0,0E0,0E0,0E0,0E0,0E0,0E0,0E0,0E0],"parents":[2147483647,0,0,1,1,2,2,3,3,4,4,5,5,6,6,7,7,8,8,9,9,10,10,11,11,12,12,13,13,14,14,15,15,18,18,19,19,20,20,21,21,22,22,23,23,25,25,26,26,27,27,28,28,30,30,31,31,32,32,33,33,34,34,35,35,36,36,37,37,39,39,40,40,42,42,45,45,46,46,47,47,48,48,49,49,50,50,51,51,52,52,53,53,54,54,56,56,57,57,58,58,59,59,61,61,62,62,63,63,64,64,65,65,66,66,67,67,68,68,69,69,70,70,71,71,72,72,73,73,74,74,77,77,81,81,82,82,83,83,84,84,85,85,86,86,88,88,89,89,90,90,92,92,93,93,94,94],"right_children":[2,4,6,8,10,12,14,16,18,20,22,24,26,28,30,32,-1,-1,34,36,38,40,42,44,-1,46,48,50,52,-1,54,56,58,60,62,64,66,68,-1,70,72,-1,74,-1,-1,76,78,80,82,84,86,88,90,92,94,-1,96,98,100,102,-1,104,106,108,110,112,114,116,118,120,122,124,126,128,130,-1,-1,132,-1,-1,-1,134,136,138,140,142,144,-1,146,148,150,-1,152,154,156,-1,-1,-1,-1,-1,-1,-1,-1,-1,-1,-1,-1,-1,-1,-1,-1,-1,-1,-1,-1,-1,-1,-1,-1,-1,-1,-1,-1,-1,-1,-1,-1,-1,-1,-1,-1,-1,-1,-1,-1,-1,-1,-1,-1,-1,-1,-1,-1,-1,-1,-1,-1,-1,-1,-1,-1,-1,-1,-1,-1,-1,-1],"split_conditions":[6.8848956E-1,7.4137926E-2,1.7554916E-2,6.32388E-1,6.4979887E-1,7.703592E-1,1.3137093E-1,3.9780295E-1,2.7272727E-2,6.474741E-1,6.1667267E-2,7.563675E-1,8.2218254E-1,1.7806986E-1,6.724138E-2,6.157965E-2,9.031216E-3,-2.7395565E-2,3.5106385E-1,4.4565028E-1,8.9683115E-1,5.2304644E-2,6.1847318E-2,7.290039E-1,1.24732375E-1,2.7272727E-2,8.349742E-1,8.2218254E-1,7.635859E-1,3.3288267E-2,9.212121E-1,2.7272727E-2,1.3053656E-1,1.3062659E-1,1.389089E-1,4.3256068E-1,1.0415916E-1,6.206337E-1,-2.1876888E-3,1.3234043E-1,2.7413794E-1,4.2670712E-2,1.4127764E-1,8.563917E-2,1.8255195E-2,9.8790765E-1,8.0460525E-1,2.7272727E-2,8.571358E-1,7.6933527E-1,8.349742E-1,1.8427517E-2,7.6706135E-1,2.4936981E-2,1.4619164E-1,-0E0,1.2432481E-1,2.607362E-2,1.5821919E-1,6.545454E-1,-8.748384E-6,1.3341735E-1,1.39269E-1,3.989272E-1,9.212121E-1,9.533169E-1,8.30303E-1,9.3103446E-2,3.9234042E-1,8.2186735E-1,5.344828E-1,4.878788E-1,7.008511E-1,1.4809147E-1,1.9137931E-1,3.197334E-3,-4.4744194E-2,7.8173023E-1,-2.0697309E-2,3.5889286E-1,6.403014E-2,2.7272727E-2,2.7272727E-2,8.30303E-1,9.6551724E-2,4.7803383E-2,8.5870504E-1,5.0560422E-2,7.4267364E-1,8.30303E-1,7.6933527E-1,1.2569308E-2,7.7586204E-2,6.2630534E-1,8.9569235E-1,3.7840095E-3,2.5539187E-4,-0E0,-4.621127E-3,-0E0,4.291889E-3,-8.772658E-3,-2.1144893E-2,-1.915491E-2,-3.4399465E-2,1.0038143E-3,-2.7269296E-2,-2.0799872E-4,2.5157805E-3,-3.9458284E-3,-2.0837833E-3,5.761362E-3,2.3706703E-2,5.2245083E-4,2.9527536E-3,3.8545835E-4,1.0186051E-2,1.5294126E-3,6.5322076E-3,-2.0024063E-2,2.9633918E-3,-3.974097E-3,3.203718E-2,-1.8838938E-2,5.428089E-4,-2.2750633E-2,-1.4204657E-2,1.494954E-2,6.4077816E-5,-8.417115E-3,-1.8881547E-3,-1.1299097E-2,-3.808118E-3,-7.7440375E-3,-2.3254244E-2,-5.912665E-2,5.6354005E-2,6.0207173E-3,2.2393286E-2,-8.804601E-3,5.125874E-4,3.787919E-2,1.6505146E-2,-6.5798997E-3,9.175235E-3,2.9055234E-3,-7.323761E-4,8.142887E-3,2.1476401E-2,-4.7342964E-3,3.6620097E-3,-2.3594987E-2,7.906807E-4,1.2341056E-3,6.612828E-2,3.462682E-3,-3.5704302E-3],"split_indices":[1,3,5,1,1,1,7,1,2,1,5,1,1,5,3,1,0,0,10,1,5,5,5,1,0,2,1,1,1,0,2,2,5,5,5,1,5,5,0,10,3,0,11,0,0,6,1,2,1,1,1,11,1,5,11,0,5,7,1,2,0,5,5,1,2,11,2,3,10,11,3,2,10,5,3,0,0,1,0,0,0,2,2,2,3,5,1,0,1,2,1,0,3,5,1,0,0,0,0,0,0,0,0,0,0,0,0,0,0,0,0,0,0,0,0,0,0,0,0,0,0,0,0,0,0,0,0,0,0,0,0,0,0,0,0,0,0,0,0,0,0,0,0,0,0,0,0,0,0,0,0,0,0,0,0,0,0],"split_type":[0,0,0,0,0,0,0,0,0,0,0,0,0,0,0,0,0,0,0,0,0,0,0,0,0,0,0,0,0,0,0,0,0,0,0,0,0,0,0,0,0,0,0,0,0,0,0,0,0,0,0,0,0,0,0,0,0,0,0,0,0,0,0,0,0,0,0,0,0,0,0,0,0,0,0,0,0,0,0,0,0,0,0,0,0,0,0,0,0,0,0,0,0,0,0,0,0,0,0,0,0,0,0,0,0,0,0,0,0,0,0,0,0,0,0,0,0,0,0,0,0,0,0,0,0,0,0,0,0,0,0,0,0,0,0,0,0,0,0,0,0,0,0,0,0,0,0,0,0,0,0,0,0,0,0,0,0],"sum_hessian":[7.89E3,3.801E3,4.089E3,9.2E1,3.709E3,5E1,4.039E3,1.9E1,7.3E1,1.54E3,2.169E3,6E0,4.4E1,3.321E3,7.18E2,1.7E1,2E0,1.4E1,5.9E1,1.514E3,2.6E1,9.1E1,2.078E3,3E0,3E0,1.7E1,2.7E1,5.08E2,2.813E3,1E0,7.17E2,5E0,1.2E1,4.1E1,1.8E1,1.122E3,3.92E2,2.4E1,2E0,7.3E1,1.8E1,1E0,2.077E3,1E0,2E0,5E0,1.2E1,4E0,2.3E1,2.6E2,2.48E2,4.71E2,2.342E3,6.08E2,1.09E2,1E0,4E0,1E1,2E0,3.9E1,2E0,1.3E1,5E0,1.063E3,5.9E1,2.3E1,3.69E2,1.5E1,9E0,1.5E1,5.8E1,3E0,1.5E1,2.68E2,1.809E3,1E0,4E0,1E1,2E0,2E0,2E0,8E0,1.5E1,6.9E1,1.91E2,7.1E1,1.77E2,1E0,4.7E2,8.8E1,2.254E3,3E0,6.05E2,4E1,6.9E1,3E0,1E0,6E0,4E0,1E0,1E0,3.8E1,1E0,8E0,5E0,3E0,2E0,9.36E2,1.27E2,4.9E1,1E1,2.2E1,1E0,2.81E2,8.8E1,1E0,1.4E1,2E0,7E0,1.3E1,2E0,5.7E1,1E0,1E0,2E0,9E0,6E0,1.5E1,2.53E2,9.3E1,1.716E3,1E0,9E0,3E0,5E0,2E0,1.3E1,5E1,1.9E1,1.6E1,1.75E2,1.1E1,6E1,4.4E1,1.33E2,2.81E2,1.89E2,6.3E1,2.5E1,4.7E1,2.207E3,1E0,6.04E2,3.6E1,4E0,4.5E1,2.4E1],"tree_param":{"num_deleted":"0","num_feature":"12","num_nodes":"157","size_leaf_vector":"0"}},{"base_weights":[5.917948E-2,-1.2726774E0,6.382317E-2,-2.3657312E0,-6.9228256E-1,6.758268E-1,5.7800252E-2,8.7519926E-1,-3.9492087E0,-7.396118E-1,8.536624E-2,7.7971214E-1,-1.1471998E-2,1.5061158E-2,6.963793E-2,1.5582806E0,3.5366398E-1,-1.0750719E-1,-4.660113E0,-3.590731E-1,-8.43722E-1,4.5367333E-1,1.2686718E0,-4.9766022E-1,4.7275904E-1,4.6850806E-1,1.3338508E-2,8.209188E-2,8.935831E-3,3.099211E-1,2.7442393E0,-3.6398676E-1,1.5671599E0,1.7774437E-1,5.8573294E-1,5.2372795E-2,3.2599454E-4,-3.5424277E-1,8.464179E-2,1.53652E0,2.500486E-3,1.03552334E-1,4.1389415E-1,-1.2292087E-1,-5.469233E-1,1.7185973E0,5.277997E-1,7.874161E-2,2.216003E-1,2.2842535E-1,6.657907E-1,5.483917E-3,9.629734E-2,-4.5239415E-2,6.700924E-3,-6.156654E-1,2.2640872E-1,-2.3092212E-2,9.459775E-2,7.755969E-1,1.6829199E0,-3.3540726E-1,1.3098205E-2,4.5911065E-1,6.1153665E-2,3.847373E-1,8.3175117E-1,-2.7499367E-2,2.577266E-2,2.7761215E-1,8.322363E-2,-6.537733E-2,-3.2883367E-4,-1.2073328E-2,2.1301223E-2,-2.417152E-1,-1.0462214E0,3.788282E-1,-7.720528E-1,8.930412E-2,-4.0300097E-2,8.1020004E-1,9.2816696E-2,9.4282195E-2,-4.8468724E-1,7.343062E-1,6.2891888E-3],"categories":[],"categories_nodes":[],"categories_segments":[],"categories_sizes":[],"default_left":[true,true,true,true,true,true,true,true,true,true,false,true,true,true,true,false,false,false,false,false,false,true,true,false,false,true,true,true,true,true,false,true,true,true,true,true,true,true,true,true,true,true,true,false,false,false,false,false,false,false,false,true,true,true,true,true,true,true,true,false,false,true,true,false,false,false,false,false,false,false,false,false,false,false,false,false,false,false,false,false,false,false,false,false,false,false,false],"id":174,"left_children":[1,3,5,7,9,11,13,15,17,19,-1,21,23,25,27,-1,-1,-1,-1,-1,-1,29,31,-1,-1,33,35,37,39,41,-1,43,45,47,49,51,53,55,57,59,61,63,65,-1,-1,-1,-1,-1,-1,-1,-1,67,69,71,73,75,77,79,81,-1,-1,83,85,-1,-1,-1,-1,-1,-1,-1,-1,-1,-1,-1,-1,-1,-1,-1,-1,-1,-1,-1,-1,-1,-1,-1,-1],"loss_changes":[4.8654823E1,1.6750668E1,2.8868988E1,4.909526E1,7.0516014E-1,5.4641724E0,3.9256516E0,9.765017E-1,1.706215E1,5.6853294E-1,0E0,1.0358368E1,2.5115948E0,1.3067263E0,4.593563E0,0E0,0E0,0E0,0E0,0E0,0E0,1.2953579E1,1.3040459E1,0E0,0E0,1.7026639E-1,8.517255E-1,5.6174355E0,1.0154645E1,8.008399E-1,0E0,1.5913159E-1,3.1807175E0,2.8692186E-5,6.0489297E-2,8.620198E-1,3.6535788E-1,4.5047226E0,5.3801003E0,1.2406349E-2,3.690126E0,1.8422103E-1,1.8458223E-1,0E0,0E0,0E0,0E0,0E0,0E0,0E0,0E0,1.3628031E-1,4.9995756E-1,1.386356E-1,3.032E-1,3.1711192E0,1.5123374E0,8.2120585E-1,5.812565E0,0E0,0E0,2.0306628E0,4.900251E0,0E0,0E0,0E0,0E0,0E0,0E0,0E0,0E0,0E0,0E0,0E0,0E0,0E0,0E0,0E0,0E0,0E0,0E0,0E0,0E0,0E0,0E0,0E0,0E0],"parents":[2147483647,0,0,1,1,2,2,3,3,4,4,5,5,6,6,7,7,8,8,9,9,11,11,12,12,13,13,14,14,21,21,22,22,25,25,26,26,27,27,28,28,29,29,31,31,32,32,33,33,34,34,35,35,36,36,37,37,38,38,39,39,40,40,41,41,42,42,51,51,52,52,53,53,54,54,55,55,56,56,57,57,58,58,61,61,62,62],"right_children":[2,4,6,8,10,12,14,16,18,20,-1,22,24,26,28,-1,-1,-1,-1,-1,-1,30,32,-1,-1,34,36,38,40,42,-1,44,46,48,50,52,54,56,58,60,62,64,66,-1,-1,-1,-1,-1,-1,-1,-1,68,70,72,74,76,78,80,82,-1,-1,84,86,-1,-1,-1,-1,-1,-1,-1,-1,-1,-1,-1,-1,-1,-1,-1,-1,-1,-1,-1,-1,-1,-1,-1,-1],"split_conditions":[2.2506302E-3,1.6666667E-1,1.7644942E-2,5.5555556E-2,4.4444448E-1,3.888889E-1,9.5682657E-1,8.231776E-1,5.629188E-1,2.777778E-1,1.7073248E-3,1.6666667E-1,5E-1,2.4666907E-2,8.2186735E-1,3.1165611E-2,7.0732795E-3,-2.1501437E-3,-9.3202256E-2,-7.181462E-3,-1.687444E-2,1.3137093E-1,9.8790765E-1,-9.953205E-3,9.455181E-3,4.127764E-1,3.2508102E-1,2.2686351E-2,3.7450485E-2,5.5555556E-2,5.4884784E-2,5.4084355E-1,1.0803025E-2,1.6666667E-1,3.8609636E-1,3.9510223E-1,1.4619164E-1,5.34398E-1,5.5555556E-2,3.888889E-1,8.633418E-2,7.559238E-2,1.0983076E-2,-2.4584173E-3,-1.0938466E-2,3.4371946E-2,1.0555995E-2,1.5748321E-3,4.432006E-3,4.568507E-3,1.3315814E-2,2.0297873E-1,1.8427517E-2,5.6616855E-1,3.9510223E-1,1.6666667E-1,2.1696076E-2,9.8790765E-1,2.4576882E-2,1.5511938E-2,3.3658396E-2,5.257472E-2,1.08210295E-1,9.182213E-3,1.2230732E-3,7.694746E-3,1.6635023E-2,-5.499873E-4,5.1545317E-4,5.552243E-3,1.6644726E-3,-1.3075466E-3,-6.5766735E-6,-2.4146655E-4,4.2602446E-4,-4.8343036E-3,-2.0924427E-2,7.576564E-3,-1.5441056E-2,1.7860824E-3,-8.0600195E-4,1.6204E-2,1.8563339E-3,1.8856438E-3,-9.693745E-3,1.4686124E-2,1.2578377E-4],"split_indices":[5,4,5,4,4,4,6,6,6,4,0,4,4,5,11,0,0,0,0,0,0,7,6,0,0,11,5,5,5,4,0,6,5,4,6,6,11,11,4,4,5,6,5,0,0,0,0,0,0,0,0,10,11,5,6,4,5,6,5,0,0,5,5,0,0,0,0,0,0,0,0,0,0,0,0,0,0,0,0,0,0,0,0,0,0,0,0],"split_type":[0,0,0,0,0,0,0,0,0,0,0,0,0,0,0,0,0,0,0,0,0,0,0,0,0,0,0,0,0,0,0,0,0,0,0,0,0,0,0,0,0,0,0,0,0,0,0,0,0,0,0,0,0,0,0,0,0,0,0,0,0,0,0,0,0,0,0,0,0,0,0,0,0,0,0,0,0,0,0,0,0,0,0,0,0,0,0],"sum_hessian":[7.865E3,2.7E1,7.838E3,9E0,1.8E1,7.6E1,7.762E3,3E0,6E0,1.7E1,1E0,6.6E1,1E1,1.684E3,6.078E3,1E0,2E0,1E0,5E0,4E0,1.3E1,4E1,2.6E1,5E0,5E0,6E0,1.678E3,5.043E3,1.035E3,3.8E1,2E0,4E0,2.2E1,2E0,4E0,4.19E2,1.259E3,2.9E1,5.014E3,4E0,1.031E3,1.3E1,2.5E1,2E0,2E0,1.9E1,3E0,1E0,1E0,1E0,3E0,2.03E2,2.16E2,1.54E2,1.105E3,2E1,9E0,4.24E2,4.59E3,1E0,3E0,3.1E1,1E3,1E0,1.2E1,2.4E1,1E0,7.7E1,1.26E2,1.4E1,2.02E2,1.06E2,4.8E1,4.83E2,6.22E2,1.1E1,9E0,8E0,1E0,5.6E1,3.68E2,1.1E1,4.579E3,8E0,2.3E1,9E0,9.91E2],"tree_param":{"num_deleted":"0","num_feature":"12","num_nodes":"87","size_leaf_vector":"0"}},{"base_weights":[5.7628904E-2,2.8718364E0,4.8581067E-2,-3.9104605E-3,2.990657E0,1.691216E-1,4.096393E-2,3.1102223E0,1.9220093E0,9.0211354E-2,2.7538827E-1,-2.6436555E-1,4.3175846E-2,8.1050265E-1,3.3757107E0,-1.3108778E-1,1.6672188E-1,-6.1289147E-2,3.5749915E-1,-3.5170543E-1,1.076583E0,-2.524992E-1,4.4480026E-2,1.37364E0,-1.8279742E-1,5.3260442E-2,2.667219E-1,-1.2058832E-1,8.900908E-1,4.288554E0,2.987214E-1,-8.354726E-1,-1.1773127E-1,1.6380576E0,5.957611E-1,-1.3957728E-1,-1.6782066E0,1.701485E0,4.3948434E-2,-4.685998E-1,-3.0677952E-2,1.1036448E-2,1.2005445E0,5.9815633E-1,1.5122889E-1,2.4771369E-1,-2.7811375E-1,7.762176E-1,1.5086055E-1,-2.9203326E-1,-1.4871838E0,8.186266E-1,-4.131012E-1,3.8825832E-2,-4.021528E-1,-7.06421E-1,-2.219613E0,3.305583E-2,7.132278E-2,-2.8704615E-2,-6.5566534E-1,-8.615254E-2,3.7768164E-1,5.187586E-1,-2.02068E-2,2.9884448E0,1.1616239E-3,4.270886E-1,1.4699451E0,1.9555801E0,9.594756E-2,-3.717365E-2,1.3579249E0,-2.9979348E-3,-6.408864E-1,3.6929998E-1,3.8432426E0,2.1627268E-1,-3.8331145E-1,-4.6190476E-1,5.565143E-2,-1.6941643E0,-1.2149847E-1,-1.1657286E-2,1.5892067E0,-3.1780687E-1,-1.3416836E0,-2.3050661E-1,1.7723991E-1,3.0576393E-1,-4.7487053E-1,6.9318466E-2,2.2779323E-2,2.8213704E-1,6.0314428E-2],"categories":[],"categories_nodes":[],"categories_segments":[],"categories_sizes":[],"default_left":[true,true,true,false,true,true,true,false,true,true,true,true,true,false,false,true,true,true,true,true,true,true,true,false,true,true,true,true,false,false,true,true,true,false,false,true,true,false,true,true,true,true,true,true,true,true,true,true,true,true,true,true,true,true,true,false,false,true,true,false,false,false,false,false,false,false,false,false,false,false,false,false,false,false,false,false,false,false,false,false,false,false,false,false,false,false,false,false,false,false,false,false,false,false,false],"id":175,"left_children":[1,3,5,-1,7,9,11,-1,13,15,17,19,21,-1,-1,23,25,27,29,31,33,35,37,-1,39,41,43,45,-1,-1,47,49,51,-1,-1,53,55,-1,57,59,61,63,65,67,69,71,73,75,77,79,81,83,85,87,89,-1,-1,91,93,-1,-1,-1,-1,-1,-1,-1,-1,-1,-1,-1,-1,-1,-1,-1,-1,-1,-1,-1,-1,-1,-1,-1,-1,-1,-1,-1,-1,-1,-1,-1,-1,-1,-1,-1,-1],"loss_changes":[2.0127773E2,8.702881E0,7.2329636E0,0E0,1.04393E0,3.913725E0,5.0087013E0,0E0,4.4141216E0,4.568073E0,5.5220814E0,6.3622513E0,2.8397903E0,0E0,0E0,5.4615107E0,2.2637115E0,2.2438557E0,3.655378E1,5.650799E0,5.426395E-1,5.10144E0,6.407074E0,0E0,2.915481E0,4.5480876E0,4.029416E0,2.189381E0,0E0,0E0,1.1126543E1,5.614544E0,9.602663E0,0E0,0E0,1.4313393E0,6.630974E-1,0E0,2.1828709E0,1.9040556E0,1.0110041E0,1.4594197E0,7.1044183E0,3.839963E0,7.8214364E0,3.6202815E0,2.6183739E0,4.6059776E1,4.2648153E0,5.6561774E-1,1.9784126E0,5.3604374E0,2.1643515E0,6.96325E-1,6.8573546E-1,0E0,0E0,1.952105E0,4.82891E0,0E0,0E0,0E0,0E0,0E0,0E0,0E0,0E0,0E0,0E0,0E0,0E0,0E0,0E0,0E0,0E0,0E0,0E0,0E0,0E0,0E0,0E0,0E0,0E0,0E0,0E0,0E0,0E0,0E0,0E0,0E0,0E0,0E0,0E0,0E0,0E0],"parents":[2147483647,0,0,1,1,2,2,4,4,5,5,6,6,8,8,9,9,10,10,11,11,12,12,15,15,16,16,17,17,18,18,19,19,20,20,21,21,22,22,24,24,25,25,26,26,27,27,30,30,31,31,32,32,35,35,36,36,38,38,39,39,40,40,41,41,42,42,43,43,44,44,45,45,46,46,47,47,48,48,49,49,50,50,51,51,52,52,53,53,54,54,57,57,58,58],"right_children":[2,4,6,-1,8,10,12,-1,14,16,18,20,22,-1,-1,24,26,28,30,32,34,36,38,-1,40,42,44,46,-1,-1,48,50,52,-1,-1,54,56,-1,58,60,62,64,66,68,70,72,74,76,78,80,82,84,86,88,90,-1,-1,92,94,-1,-1,-1,-1,-1,-1,-1,-1,-1,-1,-1,-1,-1,-1,-1,-1,-1,-1,-1,-1,-1,-1,-1,-1,-1,-1,-1,-1,-1,-1,-1,-1,-1,-1,-1,-1],"split_conditions":[2.7272727E-2,2.9613025E-2,7.0849836E-2,-7.820921E-5,7.090609E-2,3.5106385E-1,6.724138E-2,6.2204447E-2,5.4282683E-1,4.1296717E-4,2.8628016E-2,1.3137093E-1,7.4990995E-2,1.6210053E-2,6.751421E-2,1.4137931E-1,2.5477134E-2,7.911548E-1,2.9618293E-2,1.3197695E-1,5.8854413E-1,7.0638824E-1,7.5171046E-2,2.7472798E-2,3.783784E-1,1.3137093E-1,3.5199855E-2,3.9234042E-1,1.7801816E-2,8.5771084E-2,4.1231543E-2,3.5106385E-1,1.3404754E-1,3.2761153E-2,1.1915222E-2,6.4742017E-1,5.939394E-1,3.40297E-2,8.30303E-1,5.261916E-2,7.3939395E-1,1.3267812E-1,5.8854413E-1,7.911548E-1,3.3636364E-1,1.15517244E-1,2.1155924E-2,4.078142E-2,8.2186735E-1,1.3062659E-1,7.090609E-2,6.893617E-1,1.39269E-1,3.0172414E-1,7.008511E-1,-1.41284205E-2,-4.439226E-2,5.181818E-1,7.125307E-2,-5.7409226E-4,-1.3113307E-2,-1.7230507E-3,7.553633E-3,1.0375172E-2,-4.04136E-4,5.9768897E-2,2.3232476E-5,8.541771E-3,2.9398901E-2,3.9111603E-2,1.9189513E-3,-7.43473E-4,2.7158499E-2,-5.9958697E-5,-1.2817728E-2,7.3859994E-3,7.686485E-2,4.3254537E-3,-7.666229E-3,-9.238095E-3,1.1130286E-3,-3.3883285E-2,-2.4299694E-3,-2.3314572E-4,3.1784132E-2,-6.3561373E-3,-2.6833672E-2,-4.610132E-3,3.5447981E-3,6.1152787E-3,-9.497411E-3,1.3863692E-3,4.5558644E-4,5.6427405E-3,1.2062886E-3],"split_indices":[2,7,5,0,7,10,3,0,7,8,5,7,5,0,0,3,5,11,5,5,7,11,5,0,11,7,5,10,0,0,5,10,5,0,0,11,2,0,2,7,2,11,7,11,2,3,5,5,11,5,7,10,5,3,10,0,0,2,11,0,0,0,0,0,0,0,0,0,0,0,0,0,0,0,0,0,0,0,0,0,0,0,0,0,0,0,0,0,0,0,0,0,0,0,0],"split_type":[0,0,0,0,0,0,0,0,0,0,0,0,0,0,0,0,0,0,0,0,0,0,0,0,0,0,0,0,0,0,0,0,0,0,0,0,0,0,0,0,0,0,0,0,0,0,0,0,0,0,0,0,0,0,0,0,0,0,0,0,0,0,0,0,0,0,0,0,0,0,0,0,0,0,0,0,0,0,0,0,0,0,0,0,0,0,0,0,0,0,0,0,0,0,0],"sum_hessian":[7.908E3,2.5E1,7.883E3,1E0,2.4E1,4.68E2,7.415E3,2.1E1,3E0,2.69E2,1.99E2,5.3E1,7.362E3,2E0,1E0,6.9E1,2E2,3.9E1,1.6E2,5E1,3E0,3.2E1,7.33E3,2E0,6.7E1,9.4E1,1.06E2,3.7E1,2E0,2E0,1.58E2,1.6E1,3.4E1,1E0,2E0,3E1,2E0,2E0,7.328E3,2.3E1,4.4E1,9.1E1,3E0,2.7E1,7.9E1,1.1E1,2.6E1,3.7E1,1.21E2,9E0,7E0,8E0,2.6E1,1.8E1,1.2E1,1E0,1E0,5.243E3,2.085E3,7E0,1.6E1,3.9E1,5E0,5E0,8.6E1,1E0,2E0,2.3E1,4E0,2E0,7.7E1,9E0,2E0,1.5E1,1.1E1,3.3E1,4E0,1.08E2,1.3E1,6E0,3E0,6E0,1E0,4E0,4E0,2.4E1,2E0,6E0,1.2E1,1E0,1.1E1,1.157E3,4.086E3,1.03E2,1.982E3],"tree_param":{"num_deleted":"0","num_feature":"12","num_nodes":"95","size_leaf_vector":"0"}},{"base_weights":[6.0870536E-2,-6.47055E-2,1.7369746E-1,2.2468386E-2,-1.2506038E-1,9.948737E-1,1.5484282E-1,6.0544917E-3,1.3657793E-1,-1.3978788E0,-1.1854407E-1,1.7088431E0,3.0328864E-1,5.117728E-2,1.766879E-1,1.37982005E-2,-1.9001451E-1,3.949574E-1,1.0937492E-1,2.9428658E-1,-1.772523E0,-4.984314E-1,-1.107879E-1,7.751763E0,9.149622E-1,-1.0406183E0,7.5708956E-1,7.385779E-2,-3.428296E-2,2.6808026E-1,1.5431528E-1,-7.440503E-4,1.7570445E-1,1.16800845E-1,-2.1706674E-1,9.8235056E-2,6.201243E-1,5.6320506E-1,1.0035434E-1,-2.1413004E0,-1.3593893E0,4.1517425E-2,-6.180924E-1,-1.2122144E-1,8.500686E-2,1.7803928E0,2.5208082E1,3.8598767E-1,1.9014177E0,4.3664657E-2,-1.7838187E0,-1.7726883E0,1.2774413E0,1.6955713E-2,1.1474605E-1,-1.1895492E-1,1.3443855E-2,-1.7895524E-1,2.91453E-1,1.8872319E-1,7.845193E-2,3.0053383E-1,-3.8986749E-3,2.8446332E-1,5.4932956E-2,3.8767543E-2,1.7202957E-1,-2.786239E-1,-1.1384924E-1,-3.4054464E-1,1.7549802E-1,7.315188E-1,1.2757017E-1,4.562885E-3,7.958441E-1,-5.1194136E-3,1.397203E-1,-0E0,-1.6711063E0,4.6354685E-2,-0E0,-7.6103234E-1,9.6794546E-2,-1.8780006E-2,-1.4501387E-1,5.6286937E-1,-8.751067E-2,6.319816E0,-3.00735E0,4.192262E0,1.8781635E-1,2.5306795E0,6.7866266E-1,7.019271E-1,-1.5896069E-1,-2.4651396E0,-1.3715245E0,-1.1274067E1,7.110027E-1,1.7217989E0,3.3745438E-2,9.478794E-2,-3.6034133E-2,7.8494914E-2,3.8099232E-1,-5.0458394E-2,-2.9114515E-1,1.1407388E-1,-1.8441543E-2,1.9402415E-1,-6.788742E-1,2.3756829E-1,3.7054896E-1,1.2565875E-1,3.710011E-1,5.089116E-2,2.525505E-1,4.4928282E-2,9.8186666E-1,-1.2553019E-2,4.290215E-2,4.3087524E-1,2.2750878E-1,-3.0619282E-2,3.274444E-1,6.561203E-2,2.2472939E-1,-3.777247E-1,-2.6200905E-1,-1.7055029E-1,3.234509E-2,2.0037584E-1,2.7529392E-3,1.1840788E0,5.240117E-1,1.4657851E-2,1.9788308E-1,-1.460532E-1,1.1862927E-1,1.7422386E-1,-6.592645E-2,2.8802061E-2,1.07433595E-1,-5.8873665E-1,-1.1906148E0,4.1454822E-1,8.623487E-3,1.9502746E-2,-2.2967834E-2,-6.256049E-2,-1.7630325E-1,8.4990114E-1,-1.1551408E0,9.765834E-1,-1.616642E-1,7.723408E0,3.3250816E0,5.53547E-1,-7.8296685E-1,2.6721647E0,1.0029106E0,1.6426741E0,3.2650605E-1,1.7684251E-1,-9.693609E-1,3.7528965E-1,1.613489E0,2.1732209E0,4.6471214E-1,3.4281248E-1,-2.746268E-1,2.4807192E-1,2.4001528E-2,-2.0452468E-1,2.2063246E-2,-1.3293478E-1,1.2166609E-1,2.0242207E0,3.9253817E-3,-1.0109541E-1,1.4024194E-1,2.6445875E-1,-3.821688E-1,1.6355671E-1,-1.9489354E-1,-2.1000087E-1,-1.2005524E-4,1.6917959E-2,2.5441602E-1,-8.4713113E-1,3.0134493E-1,-2.7402344E-1,2.6491305E-1,1.1853139E0,3.4603202E-1,1.690727E-1,-4.1166726E-2,1.9363197E0,3.498985E-1,1.6721958E-1,1.5111138E-3,1.3360634E0,9.982451E-2],"categories":[],"categories_nodes":[],"categories_segments":[],"categories_sizes":[],"default_left":[true,true,true,true,true,true,true,true,true,true,true,true,true,true,true,true,true,true,true,false,true,true,true,true,true,true,true,true,true,true,true,true,true,true,true,true,true,true,true,false,true,true,true,true,true,true,false,true,true,true,true,true,true,true,true,true,true,true,true,true,true,true,true,true,true,false,true,true,true,false,true,true,true,false,false,true,true,false,false,true,false,true,true,true,true,true,true,true,false,false,true,true,true,false,true,false,false,false,true,true,true,true,true,true,true,true,true,true,true,true,true,true,true,true,true,true,true,false,false,false,false,false,false,false,false,false,false,false,false,false,false,false,false,false,false,false,false,false,false,false,false,false,false,false,false,false,false,false,false,false,false,false,false,false,false,false,false,false,false,false,false,false,false,false,false,false,false,false,false,false,false,false,false,false,false,false,false,false,false,false,false,false,false,false,false,false,false,false,false,false,false,false,false,false,false,false,false,false,false,false,false,false,false],"id":176,"left_children":[1,3,5,7,9,11,13,15,17,19,21,23,25,27,29,31,33,35,37,-1,39,41,43,45,47,49,51,53,55,57,59,61,63,65,67,69,71,73,75,-1,77,79,81,83,85,87,-1,89,91,93,95,97,99,101,103,105,107,109,111,113,115,117,119,121,123,-1,125,127,129,-1,131,133,135,-1,-1,137,139,-1,-1,141,-1,143,145,147,149,151,153,155,-1,-1,157,159,161,-1,163,-1,-1,-1,165,167,169,171,173,175,177,179,181,183,185,187,189,191,193,195,197,199,201,-1,-1,-1,-1,-1,-1,-1,-1,-1,-1,-1,-1,-1,-1,-1,-1,-1,-1,-1,-1,-1,-1,-1,-1,-1,-1,-1,-1,-1,-1,-1,-1,-1,-1,-1,-1,-1,-1,-1,-1,-1,-1,-1,-1,-1,-1,-1,-1,-1,-1,-1,-1,-1,-1,-1,-1,-1,-1,-1,-1,-1,-1,-1,-1,-1,-1,-1,-1,-1,-1,-1,-1,-1,-1,-1,-1,-1,-1,-1,-1,-1,-1,-1,-1,-1,-1],"loss_changes":[1.1314438E2,1.9886871E1,6.505883E1,2.8939443E0,1.844656E1,4.6377563E1,9.30645E0,2.0516107E0,1.3443122E0,7.380001E0,6.520937E0,2.1978946E2,2.9735632E1,1.389865E0,6.9246216E0,3.0665047E0,4.359547E-1,1.1943357E0,6.935625E-1,0E0,4.013729E-1,2.8812027E0,4.4539223E0,5.4059985E2,2.1290844E1,9.9895935E0,4.8576523E1,1.3151195E0,6.0955435E-1,6.991596E0,7.115631E0,1.1312761E0,1.3997693E0,1.3445072E-2,2.8456998E-1,3.0009216E-1,5.2360153E-1,4.205966E-1,7.218522E-1,0E0,2.2457056E0,1.3934709E-3,3.746808E0,5.0379677E0,9.11906E0,1.0056708E2,0E0,2.0292442E1,1.0410137E1,7.563353E-1,8.7781525E-1,1.5228409E2,1.6719246E1,9.808157E-1,3.1621113E0,6.310609E-1,3.1116393E-1,6.266181E0,2.6655388E0,2.15578E1,4.0811305E0,2.1185474E0,4.7862777E-1,4.276743E-1,1.204364E0,0E0,4.028067E-3,6.170988E-3,1.5578389E-1,0E0,2.8434366E-2,5.5131817E-1,1.4526937E-2,0E0,0E0,8.316822E-1,9.017794E-1,0E0,0E0,4.887039E-3,0E0,1.9860077E0,1.7021456E-1,6.27777E-2,4.322872E0,1.4788058E1,6.4587507E0,1.0870209E0,0E0,0E0,9.490829E0,1.0713844E0,1.6036797E0,0E0,1.2477589E0,0E0,0E0,0E0,1.3856227E0,1.2299316E1,8.2661134E-1,1.0393925E0,1.3876009E0,2.6553001E0,2.4339722E1,3.8399297E-1,8.1084347E-1,3.6691853E-1,2.5436938E-1,2.014808E-1,2.456914E0,5.316719E0,4.9617767E0,1.0109924E1,1.5674057E1,4.227231E0,1.9185976E1,0E0,0E0,0E0,0E0,0E0,0E0,0E0,0E0,0E0,0E0,0E0,0E0,0E0,0E0,0E0,0E0,0E0,0E0,0E0,0E0,0E0,0E0,0E0,0E0,0E0,0E0,0E0,0E0,0E0,0E0,0E0,0E0,0E0,0E0,0E0,0E0,0E0,0E0,0E0,0E0,0E0,0E0,0E0,0E0,0E0,0E0,0E0,0E0,0E0,0E0,0E0,0E0,0E0,0E0,0E0,0E0,0E0,0E0,0E0,0E0,0E0,0E0,0E0,0E0,0E0,0E0,0E0,0E0,0E0,0E0,0E0,0E0,0E0,0E0,0E0,0E0,0E0,0E0,0E0,0E0,0E0,0E0,0E0,0E0,0E0,0E0],"parents":[2147483647,0,0,1,1,2,2,3,3,4,4,5,5,6,6,7,7,8,8,9,9,10,10,11,11,12,12,13,13,14,14,15,15,16,16,17,17,18,18,20,20,21,21,22,22,23,23,24,24,25,25,26,26,27,27,28,28,29,29,30,30,31,31,32,32,33,33,34,34,35,35,36,36,37,37,38,38,40,40,41,41,42,42,43,43,44,44,45,45,47,47,48,48,49,49,50,50,51,51,52,52,53,53,54,54,55,55,56,56,57,57,58,58,59,59,60,60,61,61,62,62,63,63,64,64,66,66,67,67,68,68,70,70,71,71,72,72,75,75,76,76,79,79,81,81,82,82,83,83,84,84,85,85,86,86,87,87,90,90,91,91,92,92,94,94,98,98,99,99,100,100,101,101,102,102,103,103,104,104,105,105,106,106,107,107,108,108,109,109,110,110,111,111,112,112,113,113,114,114,115,115,116,116],"right_children":[2,4,6,8,10,12,14,16,18,20,22,24,26,28,30,32,34,36,38,-1,40,42,44,46,48,50,52,54,56,58,60,62,64,66,68,70,72,74,76,-1,78,80,82,84,86,88,-1,90,92,94,96,98,100,102,104,106,108,110,112,114,116,118,120,122,124,-1,126,128,130,-1,132,134,136,-1,-1,138,140,-1,-1,142,-1,144,146,148,150,152,154,156,-1,-1,158,160,162,-1,164,-1,-1,-1,166,168,170,172,174,176,178,180,182,184,186,188,190,192,194,196,198,200,202,-1,-1,-1,-1,-1,-1,-1,-1,-1,-1,-1,-1,-1,-1,-1,-1,-1,-1,-1,-1,-1,-1,-1,-1,-1,-1,-1,-1,-1,-1,-1,-1,-1,-1,-1,-1,-1,-1,-1,-1,-1,-1,-1,-1,-1,-1,-1,-1,-1,-1,-1,-1,-1,-1,-1,-1,-1,-1,-1,-1,-1,-1,-1,-1,-1,-1,-1,-1,-1,-1,-1,-1,-1,-1,-1,-1,-1,-1,-1,-1,-1,-1,-1,-1,-1,-1],"split_conditions":[6.621175E-1,6.572582E-1,7.4137926E-2,6.341465E-1,2.7272727E-2,8.349742E-1,6.3859776E-2,6.324857E-1,1.6666667E-1,5.5555556E-2,6.724138E-2,2.7272727E-2,8.5870504E-1,3.888889E-1,1.6666667E-1,6.028142E-1,1.6666667E-1,9.689189E-1,1.3793103E-1,5.8857314E-3,1.6666667E-1,5.5555556E-2,7.827586E-1,8.2218254E-1,8.2218254E-1,2.777778E-1,1.6666667E-1,8.147807E-1,3.783784E-1,5.5555556E-2,8.349742E-1,1.8181819E-1,6.2553835E-1,7.172414E-1,6.965602E-1,1.6680852E-1,7.764128E-1,4.3030304E-1,2.7021277E-1,-4.2826008E-2,2.777778E-1,6.893617E-1,3.888889E-1,5.5555556E-2,6.242424E-1,7.876776E-1,5.0416166E-1,7.201557E-1,3.888889E-1,2.7272727E-2,2.7272727E-2,2.7272727E-2,6.893617E-1,9.5682657E-1,9.212121E-1,9.02244E-1,6.4496315E-1,7.807063E-1,7.5757575E-1,8.2218254E-1,6.9482756E-1,3.7589142E-1,9.212121E-1,3.0689657E-1,6.294689E-1,7.7535084E-4,7.5757575E-1,2.6034483E-1,5E-1,-6.810893E-3,6.916462E-1,3.8793105E-1,9.212121E-1,9.12577E-5,1.5916882E-2,6.413083E-1,6.4979887E-1,-0E0,-3.3422127E-2,5.272727E-1,-0E0,5.272727E-1,5.272727E-1,1.6034484E-1,5.818182E-1,9.2413795E-1,7.896552E-1,7.753007E-1,-6.0147E-2,8.384524E-2,7.9888636E-1,6.724138E-2,6.545454E-1,1.4038542E-2,1.6666667E-1,-4.930279E-2,-2.7430488E-2,-2.2548133E-1,5.272727E-1,3.888889E-1,2.777778E-1,7.251228E-1,7.564304E-1,9.5682657E-1,9.5682657E-1,8.0089754E-1,1.3390663E-1,7.5E-1,1.3234043E-1,2.3620689E-1,8.0838656E-1,1.4482759E-1,1.8427517E-2,7.958708E-1,1.48936175E-2,5.818182E-1,7.017242E-1,8.9856563E-4,1.9637333E-2,-2.5106038E-4,8.58043E-4,8.6175045E-3,4.5501757E-3,-6.1238563E-4,6.548888E-3,1.3122406E-3,4.494588E-3,-7.554494E-3,-5.240181E-3,-3.4110057E-3,6.469018E-4,4.007517E-3,5.5058783E-5,2.3681575E-2,1.04802335E-2,2.93157E-4,3.957662E-3,-2.921064E-3,2.3725852E-3,3.484477E-3,-1.3185289E-3,5.7604123E-4,2.1486718E-3,-1.1774733E-2,-2.3812296E-2,8.290964E-3,1.7246974E-4,3.9005492E-4,-4.5935667E-4,-1.2512098E-3,-3.526065E-3,1.6998023E-2,-2.3102814E-2,1.9531667E-2,-3.233284E-3,1.5446816E-1,6.650163E-2,1.1070941E-2,-1.5659336E-2,5.3443294E-2,2.0058211E-2,3.285348E-2,6.530121E-3,3.5368502E-3,-1.9387217E-2,7.5057927E-3,3.226978E-2,4.3464415E-2,9.294243E-3,6.8562496E-3,-5.492536E-3,4.9614385E-3,4.8003055E-4,-4.0904935E-3,4.412649E-4,-2.6586954E-3,2.4333217E-3,4.0484414E-2,7.850763E-5,-2.021908E-3,2.8048386E-3,5.2891746E-3,-7.643376E-3,3.271134E-3,-3.8978707E-3,-4.2000175E-3,-2.401105E-6,3.3835918E-4,5.0883205E-3,-1.6942622E-2,6.0268985E-3,-5.4804687E-3,5.298261E-3,2.3706278E-2,6.9206404E-3,3.381454E-3,-8.233345E-4,3.8726393E-2,6.9979695E-3,3.3443915E-3,3.0222276E-5,2.6721267E-2,1.9964902E-3],"split_indices":[1,1,3,1,2,1,9,1,4,4,3,2,1,4,4,1,4,6,3,0,4,4,3,1,1,4,4,1,11,4,1,2,1,3,11,10,11,2,10,0,4,10,4,4,2,1,0,1,4,2,2,2,10,6,2,1,11,1,2,1,3,1,2,3,1,0,2,3,4,0,11,3,2,0,0,1,1,0,0,2,0,2,2,3,2,3,3,1,0,0,1,3,2,0,4,0,0,0,2,4,4,1,1,6,6,1,11,3,10,3,1,3,11,1,10,2,3,0,0,0,0,0,0,0,0,0,0,0,0,0,0,0,0,0,0,0,0,0,0,0,0,0,0,0,0,0,0,0,0,0,0,0,0,0,0,0,0,0,0,0,0,0,0,0,0,0,0,0,0,0,0,0,0,0,0,0,0,0,0,0,0,0,0,0,0,0,0,0,0,0,0,0,0,0,0,0,0,0,0,0,0,0,0],"split_type":[0,0,0,0,0,0,0,0,0,0,0,0,0,0,0,0,0,0,0,0,0,0,0,0,0,0,0,0,0,0,0,0,0,0,0,0,0,0,0,0,0,0,0,0,0,0,0,0,0,0,0,0,0,0,0,0,0,0,0,0,0,0,0,0,0,0,0,0,0,0,0,0,0,0,0,0,0,0,0,0,0,0,0,0,0,0,0,0,0,0,0,0,0,0,0,0,0,0,0,0,0,0,0,0,0,0,0,0,0,0,0,0,0,0,0,0,0,0,0,0,0,0,0,0,0,0,0,0,0,0,0,0,0,0,0,0,0,0,0,0,0,0,0,0,0,0,0,0,0,0,0,0,0,0,0,0,0,0,0,0,0,0,0,0,0,0,0,0,0,0,0,0,0,0,0,0,0,0,0,0,0,0,0,0,0,0,0,0,0,0,0,0,0,0,0,0,0,0,0,0,0,0,0],"sum_hessian":[7.985E3,3.779E3,4.206E3,1.546E3,2.233E3,9.4E1,4.112E3,1.352E3,1.94E2,1.1E1,2.222E3,4.6E1,4.8E1,7.16E2,3.396E3,1.301E3,5.1E1,1.8E1,1.76E2,2E0,9E0,4.4E1,2.178E3,5E0,4.1E1,1.2E1,3.6E1,5.66E2,1.5E2,6.67E2,2.729E3,1.194E3,1.07E2,4E0,4.7E1,8E0,1E1,3E0,1.73E2,4E0,5E0,8E0,3.6E1,2.068E3,1.1E2,4E0,1E0,2.7E1,1.4E1,5E0,7E0,6E0,3E1,2.37E2,3.29E2,5.4E1,9.6E1,3.3E1,6.34E2,1.877E3,8.52E2,1.2E1,1.182E3,5.6E1,5.1E1,2E0,2E0,2.9E1,1.8E1,1E0,7E0,8E0,2E0,1E0,2E0,4.7E1,1.26E2,1E0,4E0,7E0,1E0,3E1,6E0,3.9E2,1.678E3,2.9E1,8.1E1,2E0,2E0,1E0,2.6E1,9E0,5E0,1E0,4E0,2E0,5E0,1E0,5E0,2.2E1,8E0,9.6E1,1.41E2,2.9E2,3.9E1,3.9E1,1.5E1,2.3E1,7.3E1,1.9E1,1.4E1,3.78E2,2.56E2,1.395E3,4.82E2,7.36E2,1.16E2,9E0,3E0,9.98E2,1.84E2,1.5E1,4.1E1,3.9E1,1.2E1,1E0,1E0,3E0,2.6E1,1.3E1,5E0,6E0,1E0,2E0,6E0,1E0,1E0,2.2E1,2.5E1,1.08E2,1.8E1,6E0,1E0,2.2E1,8E0,1E0,5E0,3.8E1,3.52E2,4.62E2,1.216E3,2.5E1,4E0,5E0,7.6E1,1E0,1E0,1.9E1,7E0,8E0,1E0,1E0,4E0,3E0,1E0,4E0,1E0,1.6E1,6E0,4E0,4E0,3E1,6.6E1,3.6E1,1.05E2,4.9E1,2.41E2,7E0,3.2E1,3.1E1,8E0,2E0,1.3E1,2E1,3E0,6E0,6.7E1,5E0,1.4E1,1.2E1,2E0,1.9E1,3.59E2,7E0,2.49E2,1.107E3,2.88E2,6E0,4.76E2,2.19E2,5.17E2,1.4E1,1.02E2],"tree_param":{"num_deleted":"0","num_feature":"12","num_nodes":"203","size_leaf_vector":"0"}},{"base_weights":[6.668428E-2,3.156127E0,5.7968177E-2,-1.2042464E-1,8.667173E0,-6.8641335E-2,1.7444852E-1,4.60369E-1,-1.4993931E0,1.7198786E1,5.065232E0,2.4339909E-2,-1.3496667E-1,9.281114E-1,1.6773456E-1,-5.7567036E-1,7.6075687E0,1.9580315E-1,-2.0317974E0,-9.883856E-1,1.5589607E1,-1.215983E-3,1.0473197E-1,-4.8287404E-1,-1.2470179E-1,2.9142218E0,6.51911E-1,7.069593E-2,1.9202468E-1,7.8780895E-1,-9.852901E-1,3.1504056E-1,-1.4151921E0,4.8023358E-2,-8.337209E-3,2.5025058E-1,6.937593E-2,-9.221308E-1,-3.9448044E-1,-2.76896E-1,-1.0974113E-1,1.1019325E0,4.3039327E0,9.488114E-2,1.5514706E0,5.5568818E-2,1.800118E-1,2.3131691E-1,1.0946908E-1,-1.18724816E-1,1.5080261E0,-5.3360876E-2,5.2429527E-2,-2.8349673E-2,1.6151572E-2,4.3569824E-1,2.0834237E-1,-6.060619E-2,1.3411283E-1,-5.1700026E-2,-5.539962E-1,-8.18478E-1,-2.5489092E-1,-2.4880688E-1,-9.502166E-2,3.2591012E-1,-7.7990973E-1,2.0458884E0,-8.5359776E-1,4.819355E-2,1.8599257E-1,4.6695685E-1,2.125994E-2,1.5871294E-1,4.5847943E-1,3.2897317E-1,8.9619696E-2,-1.14676386E-1,6.202056E-2,1.4386012E-1,4.6650294E-2,-1.5028444E-2,-1.3427454E-1,4.3835975E-2,-4.9816612E-2,2.4452947E-1,7.0448047E-1,1.417091E-1,3.7393782E-1,2.1364562E-2,-1.424611E-1,5.597148E-1,1.2029415E-1,-6.5719414E-1,4.063913E-2,-3.3800542E-1,-6.204692E-1,-1.1442378E0,3.6945075E-2,-3.63685E-1,-1.3125716E-1,-1.4597762E-1,-4.444291E-1,-1.6364733E-2,-1.1441856E-1,-2.3336528E-1,1.8958731E0,6.1464764E-2,-3.1092864E-1,7.067864E-2,2.3710372E-1,1.8722136E0,3.230118E-2,1.1472609E-1,-1.9753009E-1,1.2496956E-1,2.707475E-1,1.4307963E0,4.0797985E-1,-4.4418853E-2,5.4543567E-1,-1.6482054E-1,9.923537E-2],"categories":[],"categories_nodes":[],"categories_segments":[],"categories_sizes":[],"default_left":[true,true,true,true,true,true,true,true,true,false,true,true,true,true,true,true,false,false,false,true,false,true,true,true,true,true,true,true,true,true,false,false,false,true,true,true,true,false,true,true,true,false,false,true,true,true,true,true,true,false,false,true,true,true,true,true,true,true,true,true,true,true,true,true,true,true,false,false,false,true,true,true,true,true,true,true,true,false,false,false,false,false,false,false,false,false,false,false,false,false,false,false,false,false,false,false,false,false,false,false,false,false,false,false,false,false,false,false,false,false,false,false,false,false,false,false,false,false,false,false,false,false,false],"id":177,"left_children":[1,3,5,7,9,11,13,15,17,-1,19,21,23,25,27,29,-1,-1,-1,31,-1,33,35,37,39,41,43,45,47,49,-1,-1,-1,51,53,55,57,-1,59,61,63,-1,-1,65,67,69,71,73,75,-1,-1,77,79,81,83,85,87,89,91,93,95,97,99,101,103,105,-1,-1,-1,107,109,111,113,115,117,119,121,-1,-1,-1,-1,-1,-1,-1,-1,-1,-1,-1,-1,-1,-1,-1,-1,-1,-1,-1,-1,-1,-1,-1,-1,-1,-1,-1,-1,-1,-1,-1,-1,-1,-1,-1,-1,-1,-1,-1,-1,-1,-1,-1,-1,-1,-1],"loss_changes":[2.1376366E2,4.0375055E2,1.1681077E2,1.1724628E1,2.2672241E2,2.3408543E1,2.0806892E1,7.807781E1,4.0699425E0,0E0,4.0885547E2,3.2482996E0,7.8827133E0,1.924685E1,9.630608E0,5.4744835E0,0E0,0E0,0E0,2.5751252E0,0E0,4.2010707E-1,1.9515977E0,2.3189945E0,4.8850555E0,9.255455E0,1.6129135E1,1.3481808E0,1.0594986E1,1.6030483E0,0E0,0E0,0E0,6.852275E-2,5.140949E-1,5.382457E-1,2.589859E0,0E0,2.8980236E0,2.207265E0,3.9999638E0,0E0,0E0,4.187722E0,1.5265202E1,6.865661E-1,4.5146685E0,3.6504204E1,4.582308E0,0E0,0E0,4.793007E-2,7.183862E-2,8.1184363E-1,8.614345E-1,6.141281E-1,6.517377E-1,6.8937004E-1,1.1754663E0,9.8682946E-1,4.3805218E-1,2.0734549E0,2.4698715E0,3.738286E0,2.7030869E0,1.4512721E1,0E0,0E0,0E0,3.254807E0,2.1595228E-1,2.153445E1,1.3219609E0,6.331669E0,2.6113945E1,7.073986E0,2.3736587E0,0E0,0E0,0E0,0E0,0E0,0E0,0E0,0E0,0E0,0E0,0E0,0E0,0E0,0E0,0E0,0E0,0E0,0E0,0E0,0E0,0E0,0E0,0E0,0E0,0E0,0E0,0E0,0E0,0E0,0E0,0E0,0E0,0E0,0E0,0E0,0E0,0E0,0E0,0E0,0E0,0E0,0E0,0E0,0E0,0E0,0E0],"parents":[2147483647,0,0,1,1,2,2,3,3,4,4,5,5,6,6,7,7,8,8,10,10,11,11,12,12,13,13,14,14,15,15,19,19,21,21,22,22,23,23,24,24,25,25,26,26,27,27,28,28,29,29,33,33,34,34,35,35,36,36,38,38,39,39,40,40,43,43,44,44,45,45,46,46,47,47,48,48,51,51,52,52,53,53,54,54,55,55,56,56,57,57,58,58,59,59,60,60,61,61,62,62,63,63,64,64,65,65,69,69,70,70,71,71,72,72,73,73,74,74,75,75,76,76],"right_children":[2,4,6,8,10,12,14,16,18,-1,20,22,24,26,28,30,-1,-1,-1,32,-1,34,36,38,40,42,44,46,48,50,-1,-1,-1,52,54,56,58,-1,60,62,64,-1,-1,66,68,70,72,74,76,-1,-1,78,80,82,84,86,88,90,92,94,96,98,100,102,104,106,-1,-1,-1,108,110,112,114,116,118,120,122,-1,-1,-1,-1,-1,-1,-1,-1,-1,-1,-1,-1,-1,-1,-1,-1,-1,-1,-1,-1,-1,-1,-1,-1,-1,-1,-1,-1,-1,-1,-1,-1,-1,-1,-1,-1,-1,-1,-1,-1,-1,-1,-1,-1,-1,-1],"split_conditions":[2.7272727E-2,8.2218254E-1,6.8848956E-1,7.7843237E-1,8.349742E-1,6.572582E-1,5E-1,7.1394306E-1,9.8790765E-1,3.4397572E-1,8.7090075E-1,5.988887E-1,6.142506E-3,7.703592E-1,9.8790765E-1,5.247395E-1,1.5215138E-1,3.916063E-3,-4.0635947E-2,8.4844077E-1,3.1179214E-1,8.23977E-2,6.2553835E-1,2.2170213E-1,1.3234043E-1,7.563675E-1,8.7090075E-1,9.212121E-1,8.349742E-1,2.4097994E-1,-1.9705802E-2,6.300811E-3,-2.8303841E-2,4.1296717E-4,3.279013E-1,2.7518427E-1,6.341465E-1,-1.8442616E-2,6.818182E-1,1.2389015E-3,5.0082594E-1,2.203865E-2,8.607865E-2,8.4844077E-1,9.28372E-1,9.859468E-1,1.4619164E-1,8.2218254E-1,1.3234043E-1,-2.3744963E-3,3.0160522E-2,6.5679386E-2,5.0082594E-1,3.2117623E-1,4.3256068E-1,9.212121E-1,6.228082E-1,6.324857E-1,3.3636364E-1,5.0082594E-1,3.5106385E-1,8.2186735E-1,4.2424244E-1,8.30303E-1,5.818182E-1,8.2218254E-1,-1.5598195E-2,4.091777E-2,-1.7071955E-2,9.699887E-1,6.0565114E-1,9.5682657E-1,8.9569235E-1,9.9787235E-1,1.8427517E-2,8.76709E-1,6.142506E-3,-2.2935276E-3,1.2404112E-3,2.8772024E-3,9.330059E-4,-3.0056888E-4,-2.6854908E-3,8.767195E-4,-9.963323E-4,4.8905895E-3,1.40896095E-2,2.834182E-3,7.4787564E-3,4.2729123E-4,-2.8492222E-3,1.1194295E-2,2.405883E-3,-1.3143882E-2,8.1278256E-4,-6.7601083E-3,-1.2409384E-2,-2.2884754E-2,7.389015E-4,-7.2737E-3,-2.6251432E-3,-2.9195521E-3,-8.888582E-3,-3.2729463E-4,-2.288371E-3,-4.6673054E-3,3.791746E-2,1.2292953E-3,-6.2185726E-3,1.4135727E-3,4.7420743E-3,3.744427E-2,6.460236E-4,2.2945218E-3,-3.950602E-3,2.499391E-3,5.41495E-3,2.8615925E-2,8.1595965E-3,-8.88377E-4,1.0908713E-2,-3.2964107E-3,1.9847073E-3],"split_indices":[2,1,1,1,1,1,0,1,6,0,1,1,11,1,6,1,0,0,0,1,0,1,1,10,10,1,1,2,1,1,0,0,0,8,1,11,1,0,2,8,8,0,0,1,1,1,11,1,10,0,0,1,8,1,1,2,1,1,2,8,10,11,2,2,2,1,0,0,0,1,11,6,1,10,11,1,11,0,0,0,0,0,0,0,0,0,0,0,0,0,0,0,0,0,0,0,0,0,0,0,0,0,0,0,0,0,0,0,0,0,0,0,0,0,0,0,0,0,0,0,0,0,0],"split_type":[0,0,0,0,0,0,0,0,0,0,0,0,0,0,0,0,0,0,0,0,0,0,0,0,0,0,0,0,0,0,0,0,0,0,0,0,0,0,0,0,0,0,0,0,0,0,0,0,0,0,0,0,0,0,0,0,0,0,0,0,0,0,0,0,0,0,0,0,0,0,0,0,0,0,0,0,0,0,0,0,0,0,0,0,0,0,0,0,0,0,0,0,0,0,0,0,0,0,0,0,0,0,0,0,0,0,0,0,0,0,0,0,0,0,0,0,0,0,0,0,0,0,0],"sum_hessian":[7.942E3,2.2E1,7.92E3,1.4E1,8E0,3.795E3,4.125E3,1E1,4E0,2E0,6E0,1.58E3,2.215E3,3.6E1,4.089E3,9E0,1E0,1E0,3E0,4E0,2E0,1.199E3,3.81E2,6.3E1,2.152E3,4E0,3.2E1,8.19E2,3.27E3,2E0,7E0,1E0,3E0,1.51E2,1.048E3,7.4E1,3.07E2,1E1,5.3E1,1.92E2,1.96E3,2E0,2E0,2E1,1.2E1,7.2E2,9.9E1,2.215E3,1.055E3,1E0,1E0,6E0,1.45E2,5.77E2,4.71E2,1.3E1,6.1E1,1.02E2,2.05E2,1.7E1,3.6E1,7E0,1.85E2,1.87E2,1.773E3,1.6E1,4E0,1E1,2E0,6.82E2,3.8E1,3.5E1,6.4E1,1.679E3,5.36E2,8.7E1,9.68E2,4E0,2E0,8E0,1.37E2,5.13E2,6.4E1,3.32E2,1.39E2,8E0,5E0,4.4E1,1.7E1,5.1E1,5.1E1,6E0,1.99E2,2E0,1.5E1,9E0,2.7E1,5E0,2E0,9.8E1,8.7E1,1.23E2,6.4E1,3.51E2,1.422E3,1.2E1,4E0,6.58E2,2.4E1,1.2E1,2.6E1,8E0,2.7E1,4.5E1,1.9E1,1.291E3,3.88E2,2.6E1,5.1E2,3.2E1,5.5E1,3.5E1,9.33E2],"tree_param":{"num_deleted":"0","num_feature":"12","num_nodes":"123","size_leaf_vector":"0"}},{"base_weights":[6.079994E-2,3.3423462E0,5.3132877E-2,-1.2241766E-1,1.1797817E1,-6.193464E-2,1.5696417E-1,-1.1685576E0,3.1284926E0,2.4572044E1,6.95584E0,2.3436323E-2,-1.21403635E-1,7.861966E-1,1.4540833E-1,-1.16944015E-1,-1.2755224E0,7.4934673E0,1.8091118E-1,-2.398624E0,1.5322372E1,1.6693695E-2,4.0752313E-1,-4.4458807E-1,-1.1131001E-1,2.9397342E-1,1.155617E0,4.9469586E-2,1.6190553E-1,-3.336959E-3,7.4647814E-2,4.4001245E-1,1.3505937E-1,-3.5609502E-1,-1.0445281E0,2.281934E-1,-1.1901628E-1,1.010742E0,8.2052305E-2,2.6564322E0,6.63611E-1,1.2551253E-1,-8.4851876E-2,3.9566174E-1,1.4925182E-1,6.128433E-3,-1.5851848E-1,1.5532899E-1,2.7487721E-2,2.564682E-1,4.6218494E-1,-5.2354716E-2,2.2896965E-1,-5.144123E-1,-2.7122546E-2,-1.199808E0,-4.6768603E-1,7.416632E-1,-4.1440815E-2,-1.2176843E-1,7.872495E-1,3.1571013E-1,1.1016064E0,1.3572179E0,-4.603239E-2,3.2492125E0,1.0823233E0,-5.782234E-1,1.0803933E0,5.206046E-1,1.2187344E-1,2.8960976E-1,-1.5567462E-1,1.5254866E-1,6.3441676E-1,-2.1201017E-1,1.5853764E-1,-2.6405603E-3,1.8489578E-1,2.3170915E-2,-1.7092864E-1,5.526702E-2,2.9078263E-1,-8.259799E-2,1.0667184E-1,3.2327268E-1,6.473165E-2,4.91564E-1,3.1259316E-1,3.0070636E-1,-4.7359422E-1,8.999833E-2,-9.1910946E-1,-1.4075336E-1,4.201305E0,-8.701459E-1,2.545094E-1,-1.1770893E-1,-8.567021E-1,9.378425E-1,-1.2520078E-3,9.186316E-1,1.5472642E0,-5.5309784E-1,2.9388206E0,4.6911457E-1,-4.4519103E-1,3.5818646E0,2.0184393E0,5.0833935E-1,1.8053887E0,-1.1274464E-1,-1.260855E0,3.8645315E0,9.0523237E-1,-1.2127003E-2,7.567505E-1,8.120299E-2,1.473628E-1,-6.698615E-2,6.848306E-1,-8.9443155E-2,-2.4027348E-1,1.4607397E-2,2.470723E-1,1.8510026E0,5.9932494E-1,-2.5053728E-1,7.2182816E-1,1.9798154E-1,1.06830575E-1],"categories":[],"categories_nodes":[],"categories_segments":[],"categories_sizes":[],"default_left":[true,true,true,true,true,true,true,true,true,false,true,true,true,true,true,false,false,false,false,false,false,true,true,true,true,true,true,true,true,true,true,true,true,true,true,true,true,true,true,true,true,true,true,true,true,true,true,true,true,true,true,false,false,false,true,false,true,true,true,true,true,false,true,true,true,true,true,true,true,true,true,true,true,true,true,true,true,false,false,false,false,false,false,false,false,false,false,false,false,false,false,false,false,false,false,false,false,false,false,false,false,false,false,false,false,false,false,false,false,false,false,false,false,false,false,false,false,false,false,false,false,false,false,false,false,false,false,false,false,false,false],"id":178,"left_children":[1,3,5,7,9,11,13,15,17,-1,19,21,23,25,27,-1,-1,-1,-1,-1,-1,29,31,33,35,37,39,41,43,45,47,49,51,53,55,57,59,61,63,65,67,69,71,73,75,77,79,81,83,85,87,-1,-1,-1,89,-1,91,93,95,97,99,-1,101,103,105,107,109,111,113,115,117,119,121,123,125,127,129,-1,-1,-1,-1,-1,-1,-1,-1,-1,-1,-1,-1,-1,-1,-1,-1,-1,-1,-1,-1,-1,-1,-1,-1,-1,-1,-1,-1,-1,-1,-1,-1,-1,-1,-1,-1,-1,-1,-1,-1,-1,-1,-1,-1,-1,-1,-1,-1,-1,-1,-1,-1,-1,-1],"loss_changes":[1.9788338E2,5.3774945E2,9.380926E1,4.6537056E1,2.724422E2,1.891051E1,2.9959679E1,1.092761E0,4.2327297E1,0E0,3.51597E2,3.9522786E0,7.1369705E0,1.3382629E1,6.409607E0,0E0,0E0,0E0,0E0,0E0,0E0,1.7462583E0,2.0508766E-1,3.3776636E0,5.5784836E0,4.8681583E0,3.062424E1,6.0849853E0,1.0201889E1,1.6436973E0,1.4659412E0,4.5179367E-2,6.518625E-2,3.0257487E0,5.355377E-1,6.5735106E0,5.2161922E0,3.269415E-1,4.1772323E0,8.407669E0,1.695047E1,5.165105E-1,5.723855E0,1.0249725E1,1.1018051E1,1.6539783E0,1.4848721E-1,1.9188585E0,2.1331463E0,3.0185223E-2,2.6651382E-2,0E0,0E0,0E0,2.8797257E0,0E0,6.2686634E-1,5.0118675E1,7.767337E0,6.1471386E0,7.6580477E-1,0E0,7.2984695E-3,7.6263328E0,4.867256E0,5.116577E-1,1.0444369E0,2.580967E0,1.0632145E1,4.3304032E-1,3.8391733E-1,4.8628683E0,1.0041609E0,1.1468184E0,3.4089584E0,3.0157845E0,6.513733E0,0E0,0E0,0E0,0E0,0E0,0E0,0E0,0E0,0E0,0E0,0E0,0E0,0E0,0E0,0E0,0E0,0E0,0E0,0E0,0E0,0E0,0E0,0E0,0E0,0E0,0E0,0E0,0E0,0E0,0E0,0E0,0E0,0E0,0E0,0E0,0E0,0E0,0E0,0E0,0E0,0E0,0E0,0E0,0E0,0E0,0E0,0E0,0E0,0E0,0E0,0E0,0E0,0E0,0E0],"parents":[2147483647,0,0,1,1,2,2,3,3,4,4,5,5,6,6,7,7,8,8,10,10,11,11,12,12,13,13,14,14,21,21,22,22,23,23,24,24,25,25,26,26,27,27,28,28,29,29,30,30,31,31,32,32,33,33,34,34,35,35,36,36,37,37,38,38,39,39,40,40,41,41,42,42,43,43,44,44,45,45,46,46,47,47,48,48,49,49,50,50,54,54,56,56,57,57,58,58,59,59,60,60,62,62,63,63,64,64,65,65,66,66,67,67,68,68,69,69,70,70,71,71,72,72,73,73,74,74,75,75,76,76],"right_children":[2,4,6,8,10,12,14,16,18,-1,20,22,24,26,28,-1,-1,-1,-1,-1,-1,30,32,34,36,38,40,42,44,46,48,50,52,54,56,58,60,62,64,66,68,70,72,74,76,78,80,82,84,86,88,-1,-1,-1,90,-1,92,94,96,98,100,-1,102,104,106,108,110,112,114,116,118,120,122,124,126,128,130,-1,-1,-1,-1,-1,-1,-1,-1,-1,-1,-1,-1,-1,-1,-1,-1,-1,-1,-1,-1,-1,-1,-1,-1,-1,-1,-1,-1,-1,-1,-1,-1,-1,-1,-1,-1,-1,-1,-1,-1,-1,-1,-1,-1,-1,-1,-1,-1,-1,-1,-1,-1,-1,-1],"split_conditions":[2.2506302E-3,8.2200134E-1,6.621175E-1,7.1394306E-1,8.3943033E-1,6.4979887E-1,2.6917538E-2,3.7807107E-1,7.7843237E-1,4.9144086E-1,8.7090075E-1,6.474741E-1,2.6917538E-2,8.2218254E-1,7.568615E-1,-2.3388802E-3,-2.5510447E-2,1.4986934E-1,3.6182236E-3,-4.7972478E-2,3.0644745E-1,4.4565028E-1,8.718941E-1,2.4396831E-2,4.1296717E-4,7.703592E-1,8.307456E-1,7.281138E-1,7.664299E-1,4.3256068E-1,6.2553835E-1,1.3234043E-1,6.595745E-1,1.7194815E-2,2.646741E-2,5.2664746E-2,9.9783945E-1,7.161156E-1,9.8790765E-1,1.5446809E-1,8.571358E-1,3.7630536E-2,2.4540871E-1,7.645392E-1,7.6906526E-1,4.1965395E-1,1.0406914E-1,6.028142E-1,3.9234042E-1,2.6116312E-1,7.988837E-1,-1.0470942E-3,4.5793927E-3,-1.0288245E-2,2.2326251E-2,-2.399616E-2,2.6737487E-2,4.8523586E-2,7.102989E-2,9.9198776E-1,9.9945986E-1,6.314202E-3,7.5888205E-1,7.847458E-1,5.0082594E-1,2.5567159E-2,6.8723404E-1,8.4844077E-1,2.1276595E-3,2.9708318E-2,7.059096E-1,3.5106385E-1,7.274937E-1,3.5106385E-1,1.48936175E-2,9.7587323E-1,8.3047175E-1,-5.2811203E-5,3.6979157E-3,4.6341828E-4,-3.4185727E-3,1.1053404E-3,5.8156527E-3,-1.6519598E-3,2.1334367E-3,6.465453E-3,1.294633E-3,9.8312795E-3,6.251863E-3,6.014127E-3,-9.471884E-3,1.7999666E-3,-1.8382188E-2,-2.815067E-3,8.40261E-2,-1.7402917E-2,5.090188E-3,-2.3541786E-3,-1.713404E-2,1.875685E-2,-2.5040155E-5,1.8372633E-2,3.0945284E-2,-1.1061956E-2,5.8776412E-2,9.382291E-3,-8.90382E-3,7.163729E-2,4.0368784E-2,1.0166787E-2,3.6107775E-2,-2.2548926E-3,-2.52171E-2,7.729063E-2,1.8104646E-2,-2.4254005E-4,1.513501E-2,1.6240597E-3,2.947256E-3,-1.339723E-3,1.3696612E-2,-1.7888631E-3,-4.8054694E-3,2.9214792E-4,4.941446E-3,3.702005E-2,1.1986499E-2,-5.0107455E-3,1.4436563E-2,3.9596306E-3,2.1366114E-3],"split_indices":[5,1,1,1,1,1,5,1,1,0,1,1,5,1,1,0,0,0,0,0,0,1,5,5,8,1,1,1,1,1,1,10,10,5,5,5,5,1,6,10,1,5,5,1,1,1,5,1,10,5,5,0,0,0,5,0,5,5,5,5,5,0,1,1,8,5,10,1,10,5,1,10,5,10,10,5,1,0,0,0,0,0,0,0,0,0,0,0,0,0,0,0,0,0,0,0,0,0,0,0,0,0,0,0,0,0,0,0,0,0,0,0,0,0,0,0,0,0,0,0,0,0,0,0,0,0,0,0,0,0,0],"split_type":[0,0,0,0,0,0,0,0,0,0,0,0,0,0,0,0,0,0,0,0,0,0,0,0,0,0,0,0,0,0,0,0,0,0,0,0,0,0,0,0,0,0,0,0,0,0,0,0,0,0,0,0,0,0,0,0,0,0,0,0,0,0,0,0,0,0,0,0,0,0,0,0,0,0,0,0,0,0,0,0,0,0,0,0,0,0,0,0,0,0,0,0,0,0,0,0,0,0,0,0,0,0,0,0,0,0,0,0,0,0,0,0,0,0,0,0,0,0,0,0,0,0,0,0,0,0,0,0,0,0,0],"sum_hessian":[7.869E3,1.8E1,7.851E3,1.3E1,5E0,3.724E3,4.127E3,1E1,3E0,1E0,4E0,1.529E3,2.195E3,7.4E1,4.053E3,1E0,9E0,1E0,2E0,2E0,2E0,1.503E3,2.6E1,6.6E1,2.129E3,3.2E1,4.2E1,5.95E2,3.458E3,1.117E3,3.86E2,2.3E1,3E0,5.8E1,8E0,4.7E1,2.082E3,7E0,2.5E1,1E1,3.2E1,3.8E2,2.15E2,1.77E2,3.281E3,1.053E3,6.4E1,1.42E2,2.44E2,3E0,2E1,1E0,2E0,3.9E1,1.9E1,6E0,2E0,1.6E1,3.1E1,2.076E3,6E0,1E0,6E0,2E0,2.3E1,7E0,3E0,8E0,2.4E1,3E0,3.77E2,3.4E1,1.81E2,8.8E1,8.9E1,8.2E1,3.199E3,1.004E3,4.9E1,4E0,6E1,8.2E1,6E1,1.02E2,1.42E2,2E0,1E0,1.6E1,4E0,1.1E1,8E0,1E0,1E0,1.3E1,3E0,8E0,2.3E1,2.065E3,1.1E1,5E0,1E0,5E0,1E0,1E0,1E0,1E1,1.3E1,5E0,2E0,2E0,1E0,5E0,3E0,1E0,2.3E1,1E0,2E0,1.46E2,2.31E2,1.8E1,1.6E1,1.02E2,7.9E1,3.6E1,5.2E1,2E0,8.7E1,7.9E1,3E0,1.814E3,1.385E3],"tree_param":{"num_deleted":"0","num_feature":"12","num_nodes":"131","size_leaf_vector":"0"}},{"base_weights":[6.682752E-2,2.9089327E0,5.841495E-2,-6.7421955E-1,7.4398475E0,-6.559486E-2,1.6839194E-1,2.2492623E-1,-9.4389737E-1,1.1187362E1,4.4817557E0,1.9189946E-2,-1.2578139E-1,8.456183E-1,1.5510659E-1,-9.907319E-4,3.2799646E-1,-1.5829393E0,-4.5470324E-1,1.8055246E1,2.7146015E0,-4.181188E0,1.2700636E1,-9.826099E-3,9.449194E-2,-5.1667213E-1,-1.1168743E-1,1.6445592E-1,1.2087405E0,1.7629467E-1,5.6910813E-2,-1.1519003E-1,-2.0074434E0,2.5294391E-2,-6.8147165E-1,7.3810763E0,2.4203503E1,1.1030355E-1,4.629341E0,6.317929E-1,-1.1568605E1,-2.0929997E0,1.9345608E1,-3.183146E-3,-1.2529132E-1,2.8222787E-1,6.654413E-2,-3.2777265E-1,-1.141625E0,-1.3375573E-1,4.5186047E-2,4.1081223E0,-2.9421557E-2,2.2548716E0,8.435069E-1,5.4040885E-1,1.6772763E-1,1.0256553E-2,1.0860258E-1,-1.0506096E-2,1.5908387E-1,-1.3019109E-1,1.1336221E-1,2.624288E-1,1.0076827E0,6.36856E-1,5.818704E-2,3.6408644E-2,-5.043614E-1,-1.7429676E0,-2.4042569E-1,-7.5798267E-3,-1.6316193E-1,-1.605349E-1,1.7135091E-1,5.453752E-1,-4.920495E-1,4.2314563E0,1.5430983E0,-6.3301015E-1,1.2276804E0,3.958623E-1,2.94163E0,1.9716744E-1,9.489145E-2,-4.4798303E-2,7.8549296E-2,7.51495E-2,3.605984E-1,-6.336651E-3,-3.1979406E-1,2.6326364E-1,1.04202196E-1,-6.329857E-2,-1.540735E-1,2.8270197E-1,-2.2363426E-1,-1.3897026E-1,1.1205137E0,9.5028855E-2,-6.8772845E-3,5.483729E-2,1.8145887E-3,-3.7492153E-1,-7.76433E-1,-1.3393121E0,-2.0349708E0,-5.0252265E-1,1.0538611E0,2.8588919E-2,-1.9573353E-2,-1.5478078E-1,-5.5078185E-1,-2.2797499E-2,-2.96898E-1,-5.199704E-1,2.6009634E-1,1.0628293E0,-1.9754383E-1,9.87612E-1,-7.397665E-1,2.549262E0,6.1062756E0,1.1878428E0,2.1659963E0,3.596621E-1,-1.2165359E0,1.460585E0,-3.325517E-1,4.398397E-1,-2.0779667E0,-1.2989876E0,6.767978E0,1.5897706E-1,3.056839E-1,-1.0313908E-2,1.409622E-1,-1.408144E-1,1.8303279E-2,1.7050695E-1,2.3054829E-2,1.2529747E-1,-1.3766262E-1,8.036513E-3,2.2505825E0],"categories":[],"categories_nodes":[],"categories_segments":[],"categories_sizes":[],"default_left":[true,true,true,true,true,true,true,true,true,true,true,true,true,true,true,false,false,true,true,true,true,true,true,true,true,true,true,true,true,true,true,false,false,false,false,false,false,false,false,false,false,false,false,true,true,true,true,true,true,true,true,false,true,true,true,true,true,true,true,true,true,true,false,true,false,true,true,true,true,true,true,true,true,true,true,true,true,true,true,true,true,true,true,true,true,true,true,true,true,false,false,false,false,false,false,false,false,false,false,false,false,false,false,false,false,false,false,false,false,false,false,false,false,false,false,false,false,false,false,false,false,false,false,false,false,false,false,false,false,false,false,false,false,false,false,false,false,false,false,false,false,false,false,false,false],"id":179,"left_children":[1,3,5,7,9,11,13,15,17,19,21,23,25,27,29,-1,-1,31,33,35,37,39,41,43,45,47,49,51,53,55,57,-1,-1,-1,-1,-1,-1,-1,-1,-1,-1,-1,-1,59,61,63,65,67,69,71,73,-1,75,77,79,81,83,85,87,89,91,93,-1,95,-1,97,99,101,103,105,107,109,111,113,115,117,119,121,123,125,127,129,131,133,135,137,139,141,143,-1,-1,-1,-1,-1,-1,-1,-1,-1,-1,-1,-1,-1,-1,-1,-1,-1,-1,-1,-1,-1,-1,-1,-1,-1,-1,-1,-1,-1,-1,-1,-1,-1,-1,-1,-1,-1,-1,-1,-1,-1,-1,-1,-1,-1,-1,-1,-1,-1,-1,-1,-1,-1,-1,-1,-1],"loss_changes":[1.8903238E2,3.8058716E2,1.0757437E2,3.3141499E0,9.7608154E1,1.8920486E1,3.7553246E1,8.2393736E-2,2.961316E0,2.355238E2,4.6877136E2,3.3649092E0,1.1917576E1,1.9784218E1,8.524399E0,0E0,0E0,2.5926495E0,7.0449555E-1,9.311548E1,1.1398088E1,1.2111658E2,3.4143976E2,8.5046047E-1,2.2361457E0,8.747622E0,7.250252E0,2.176192E1,1.931723E1,1.0479263E1,1.7544124E0,0E0,0E0,0E0,0E0,0E0,0E0,0E0,0E0,0E0,0E0,0E0,0E0,1.2477095E0,7.571262E-2,6.884713E-1,1.7570914E0,3.7642431E0,9.225485E0,6.8068924E0,6.714309E0,0E0,7.357163E0,1.6498802E1,2.2579107E1,2.6405605E1,7.055725E0,1.4429301E0,2.8959217E0,1.2923989E0,2.4480736E-1,8.843565E-2,0E0,5.5732965E-1,0E0,2.0672305E0,8.844029E-1,1.1484237E-2,1.2717066E0,2.6099968E-1,2.6564627E0,1.5072806E-1,4.796665E0,1.8401117E0,9.878109E0,4.8236694E0,5.8603897E0,5.1986885E0,1.3808556E0,4.985292E0,1.1564178E1,8.259549E0,7.332498E1,9.701042E0,4.6036625E0,1.289086E0,8.7026703E-1,3.264124E0,2.6837406E1,0E0,0E0,0E0,0E0,0E0,0E0,0E0,0E0,0E0,0E0,0E0,0E0,0E0,0E0,0E0,0E0,0E0,0E0,0E0,0E0,0E0,0E0,0E0,0E0,0E0,0E0,0E0,0E0,0E0,0E0,0E0,0E0,0E0,0E0,0E0,0E0,0E0,0E0,0E0,0E0,0E0,0E0,0E0,0E0,0E0,0E0,0E0,0E0,0E0,0E0,0E0,0E0,0E0,0E0,0E0,0E0],"parents":[2147483647,0,0,1,1,2,2,3,3,4,4,5,5,6,6,7,7,8,8,9,9,10,10,11,11,12,12,13,13,14,14,17,17,18,18,19,19,20,20,21,21,22,22,23,23,24,24,25,25,26,26,27,27,28,28,29,29,30,30,43,43,44,44,45,45,46,46,47,47,48,48,49,49,50,50,52,52,53,53,54,54,55,55,56,56,57,57,58,58,59,59,60,60,61,61,63,63,65,65,66,66,67,67,68,68,69,69,70,70,71,71,72,72,73,73,74,74,75,75,76,76,77,77,78,78,79,79,80,80,81,81,82,82,83,83,84,84,85,85,86,86,87,87,88,88],"right_children":[2,4,6,8,10,12,14,16,18,20,22,24,26,28,30,-1,-1,32,34,36,38,40,42,44,46,48,50,52,54,56,58,-1,-1,-1,-1,-1,-1,-1,-1,-1,-1,-1,-1,60,62,64,66,68,70,72,74,-1,76,78,80,82,84,86,88,90,92,94,-1,96,-1,98,100,102,104,106,108,110,112,114,116,118,120,122,124,126,128,130,132,134,136,138,140,142,144,-1,-1,-1,-1,-1,-1,-1,-1,-1,-1,-1,-1,-1,-1,-1,-1,-1,-1,-1,-1,-1,-1,-1,-1,-1,-1,-1,-1,-1,-1,-1,-1,-1,-1,-1,-1,-1,-1,-1,-1,-1,-1,-1,-1,-1,-1,-1,-1,-1,-1,-1,-1,-1,-1,-1,-1],"split_conditions":[2.7272727E-2,7.1394306E-1,6.621175E-1,5.5555556E-2,8.349742E-1,6.572582E-1,7.4137926E-2,3.4543264E-1,1.6666667E-1,2.2222222E-1,2.777778E-1,4.4565028E-1,9.6551724E-2,8.2218254E-1,1.3137093E-1,-1.9814637E-5,6.559929E-3,3.7807107E-1,2.777778E-1,7.9600966E-1,8.0838656E-1,8.7090075E-1,8.7090075E-1,4.3256068E-1,2.4099748E-1,2.777778E-1,7.017242E-1,7.290039E-1,8.349742E-1,4.3122075E-2,8.224432E-1,-2.3038005E-3,-4.014887E-2,5.0588785E-4,-1.3629433E-2,1.4762153E-1,4.8407003E-1,2.206071E-3,9.258682E-2,1.2635858E-2,-2.313721E-1,-4.185999E-2,3.8691214E-1,4.1965395E-1,9.206897E-1,2.3973712E-1,3.3636364E-1,5.5555556E-2,6.724138E-2,5.5555556E-2,1.6666667E-1,8.216245E-2,1.6666667E-1,5E-1,8.571358E-1,4.0691394E-2,8.4422266E-1,5.8854413E-1,9.212121E-1,4.1206574E-1,4.264353E-1,5.5555556E-2,2.267244E-3,6.2586206E-1,2.0153653E-2,3.4827587E-1,3.888889E-1,6.724138E-2,3.3849478E-2,5E-1,3.888889E-1,2.3028448E-1,6.827586E-1,9.1213536E-1,6.9598484E-1,7.9888636E-1,7.6117396E-1,3.3333334E-1,3.888889E-1,1.6666667E-1,9.28372E-1,4.0151242E-2,8.39857E-1,8.2218254E-1,8.76709E-1,7.684338E-1,5.2529705E-1,5.8854413E-1,5.8854413E-1,-1.2673301E-4,-6.395881E-3,5.2652727E-3,2.0840438E-3,-1.2659713E-3,-3.08147E-3,5.6540393E-3,-4.472685E-3,-2.779405E-3,2.2410274E-2,1.9005771E-3,-1.3754569E-4,1.0967458E-3,3.629177E-5,-7.4984306E-3,-1.5528659E-2,-2.6786242E-2,-4.0699415E-2,-1.0050452E-2,2.1077223E-2,5.717784E-4,-3.9146707E-4,-3.0956154E-3,-1.1015637E-2,-4.5594998E-4,-5.93796E-3,-1.0399408E-2,5.201927E-3,2.1256585E-2,-3.9508766E-3,1.975224E-2,-1.4795329E-2,5.098524E-2,1.2212551E-1,2.3756856E-2,4.3319926E-2,7.1932417E-3,-2.4330718E-2,2.92117E-2,-6.6510336E-3,8.796793E-3,-4.155933E-2,-2.5979752E-2,1.3535956E-1,3.179541E-3,6.113678E-3,-2.0627814E-4,2.8192438E-3,-2.8162878E-3,3.6606556E-4,3.4101391E-3,4.6109656E-4,2.5059495E-3,-2.7532524E-3,1.6073025E-4,4.5011647E-2],"split_indices":[2,1,1,4,1,1,3,1,4,4,4,1,3,1,7,0,0,1,4,1,1,1,1,1,5,4,3,1,1,5,1,0,0,0,0,0,0,0,0,0,0,0,0,1,3,5,2,4,3,4,4,0,4,0,1,5,1,7,2,1,1,4,0,3,0,3,4,3,5,0,4,5,3,5,5,1,1,4,4,4,1,5,1,1,1,1,5,7,7,0,0,0,0,0,0,0,0,0,0,0,0,0,0,0,0,0,0,0,0,0,0,0,0,0,0,0,0,0,0,0,0,0,0,0,0,0,0,0,0,0,0,0,0,0,0,0,0,0,0,0,0,0,0,0,0],"split_type":[0,0,0,0,0,0,0,0,0,0,0,0,0,0,0,0,0,0,0,0,0,0,0,0,0,0,0,0,0,0,0,0,0,0,0,0,0,0,0,0,0,0,0,0,0,0,0,0,0,0,0,0,0,0,0,0,0,0,0,0,0,0,0,0,0,0,0,0,0,0,0,0,0,0,0,0,0,0,0,0,0,0,0,0,0,0,0,0,0,0,0,0,0,0,0,0,0,0,0,0,0,0,0,0,0,0,0,0,0,0,0,0,0,0,0,0,0,0,0,0,0,0,0,0,0,0,0,0,0,0,0,0,0,0,0,0,0,0,0,0,0,0,0,0,0],"sum_hessian":[7.91E3,2.3E1,7.887E3,1.3E1,1E1,3.707E3,4.18E3,3E0,1E1,4E0,6E0,1.539E3,2.168E3,8E1,4.1E3,1E0,2E0,4E0,6E0,2E0,2E0,3E0,3E0,1.111E3,4.28E2,7.5E1,2.093E3,2.8E1,5.2E1,3.372E3,7.28E2,1E0,3E0,2E0,4E0,1E0,1E0,1E0,1E0,2E0,1E0,1E0,2E0,1.051E3,6E1,5.5E1,3.73E2,5.8E1,1.7E1,1.835E3,2.58E2,1E0,2.7E1,1.3E1,3.9E1,7.7E1,3.295E3,3.83E2,3.45E2,1.006E3,4.5E1,5.9E1,1E0,5.4E1,1E0,5E0,3.68E2,1.9E1,3.9E1,1E1,7E0,3.47E2,1.488E3,9.8E1,1.6E2,1.2E1,1.5E1,3E0,1E1,8E0,3.1E1,7.3E1,4E0,2.346E3,9.49E2,2.12E2,1.71E2,3.05E2,4E1,9.93E2,1.3E1,1.5E1,3E1,1.6E1,4.3E1,5.2E1,2E0,2E0,3E0,2.35E2,1.33E2,1.2E1,7E0,2.7E1,1.2E1,5E0,5E0,6E0,1E0,8.6E1,2.61E2,1.457E3,3.1E1,4.9E1,4.9E1,1.8E1,1.42E2,7E0,5E0,2E0,1.3E1,2E0,1E0,7E0,3E0,3E0,5E0,2.7E1,4E0,7.2E1,1E0,2E0,2E0,1.736E3,6.1E2,2.89E2,6.6E2,8.4E1,1.28E2,6.4E1,1.07E2,2.47E2,5.8E1,3.4E1,6E0],"tree_param":{"num_deleted":"0","num_feature":"12","num_nodes":"145","size_leaf_vector":"0"}},{"base_weights":[5.330346E-2,1.6004224E0,4.7322117E-2,7.4129575E-1,2.5411966E0,4.9798492E-1,4.2601082E-2,1.108811E0,-7.98598E-1,2.7198486E0,1.0864916E-1,3.605013E-1,2.909852E0,2.044409E-1,3.6965076E-2,-7.150899E-2,1.320463E0,5.107624E-1,-3.021973E0,-2.11817E-2,2.7033737E-1,1.294174E-1,2.927614E-2,-9.75713E-4,-1.1346251E-1,4.1382203E-1,1.0964243E0,1.2605736E-1,-7.248188E-1,1.5132746E0,2.5533852E-1,9.568968E-2,3.6754304E-1,-6.215132E-1,3.0530673E-2,1.1041297E-1,4.9719882E-1,1.1328419E-1,1.3261293E0,4.915765E-2,9.175313E-1,2.2796533E-1,-9.643171E-1,5.414797E-1,2.0959363E0,3.2803708E-1,5.7713605E-2,1.3376114E-1,-2.3443767E-1,1.1337796E0,2.6456052E-1,-1.4817923E-1,-8.1754506E-1,-4.2348642E-2,3.6443934E-2,6.078872E-1,-1.762778E-1,4.451117E-2,5.6965333E-1,-1.5193444E-1,3.608699E-1,-5.367248E-2,1.3160844E-1,-1.2084229E-1,1.2453982E0,-1.5303905E0,-3.2074544E-1,2.861556E-1,1.4146836E0,-4.5540622E-1,2.2311677E-1,1.7026585E-1,-6.2322404E-2,7.2172534E-1,-2.9775023E-1,5.989694E-2,1.4674872E0,2.2904462E-1,1.8479034E0,-6.3494223E-1,5.708249E-2,-1.16850324E-1,-8.9523953E-1,2.2536117E-1,-6.980158E-2,7.9177715E-2,2.2501735E-2],"categories":[],"categories_nodes":[],"categories_segments":[],"categories_sizes":[],"default_left":[true,true,true,true,true,true,true,true,false,false,false,true,false,true,true,true,false,true,false,true,true,true,true,false,false,true,true,true,true,true,true,true,true,true,true,true,true,true,false,true,true,false,true,false,false,true,true,true,true,true,true,true,true,true,true,false,false,false,false,false,false,false,false,false,false,false,false,false,false,false,false,false,false,false,false,false,false,false,false,false,false,false,false,false,false,false,false],"id":180,"left_children":[1,3,5,7,9,11,13,15,-1,-1,-1,17,-1,19,21,23,-1,25,-1,27,29,31,33,-1,-1,35,37,39,41,43,45,47,49,51,53,55,57,59,-1,61,63,-1,65,-1,-1,67,69,71,73,75,77,79,81,83,85,-1,-1,-1,-1,-1,-1,-1,-1,-1,-1,-1,-1,-1,-1,-1,-1,-1,-1,-1,-1,-1,-1,-1,-1,-1,-1,-1,-1,-1,-1,-1,-1],"loss_changes":[7.288392E1,2.3841843E1,1.6689669E1,9.543388E0,6.0901413E0,2.6573086E1,7.0815897E0,3.38023E0,0E0,0E0,0E0,3.9783962E1,0E0,3.8908997E0,5.3345585E0,5.23575E-3,0E0,4.0473824E0,0E0,6.1861267E0,3.6179476E0,4.61045E0,5.6585226E0,0E0,0E0,1.6004877E0,2.2630014E0,2.973808E0,2.4418077E0,9.051962E-1,2.8663855E0,6.3602686E0,5.5088787E0,1.1830206E0,2.9827785E0,2.0861485E0,1.6336851E0,1.7448993E-1,0E0,3.8782373E-1,1.5415504E0,0E0,2.845862E0,0E0,0E0,6.50043E0,4.641941E0,3.2500286E0,3.2337308E0,2.9353075E0,3.3907175E0,4.5330262E-1,4.5879412E-1,3.8198261E0,3.8118887E0,0E0,0E0,0E0,0E0,0E0,0E0,0E0,0E0,0E0,0E0,0E0,0E0,0E0,0E0,0E0,0E0,0E0,0E0,0E0,0E0,0E0,0E0,0E0,0E0,0E0,0E0,0E0,0E0,0E0,0E0,0E0,0E0],"parents":[2147483647,0,0,1,1,2,2,3,3,4,4,5,5,6,6,7,7,11,11,13,13,14,14,15,15,17,17,19,19,20,20,21,21,22,22,25,25,26,26,27,27,28,28,29,29,30,30,31,31,32,32,33,33,34,34,35,35,36,36,37,37,39,39,40,40,42,42,45,45,46,46,47,47,48,48,49,49,50,50,51,51,52,52,53,53,54,54],"right_children":[2,4,6,8,10,12,14,16,-1,-1,-1,18,-1,20,22,24,-1,26,-1,28,30,32,34,-1,-1,36,38,40,42,44,46,48,50,52,54,56,58,60,-1,62,64,-1,66,-1,-1,68,70,72,74,76,78,80,82,84,86,-1,-1,-1,-1,-1,-1,-1,-1,-1,-1,-1,-1,-1,-1,-1,-1,-1,-1,-1,-1,-1,-1,-1,-1,-1,-1,-1,-1,-1,-1,-1,-1],"split_conditions":[2.2506302E-3,2.777778E-1,1.0803025E-2,1.6666667E-1,4.4444448E-1,5E-1,1.8427517E-2,3.9510223E-1,-1.5971959E-2,5.4396972E-2,2.172983E-3,3.888889E-1,5.819704E-2,1.3188693E-1,1.0361902E-1,5.5555556E-2,2.6409259E-2,2.777778E-1,-6.0439456E-2,1.2945625E-1,1.3224703E-1,9.245589E-2,1.05239466E-1,-1.951426E-5,-2.26925E-3,9.8790765E-1,8.231776E-1,1.2828591E-1,8.231776E-1,1.6666667E-1,1.7383868E-1,8.2186735E-1,9.398632E-2,6.081081E-1,2.1119913E-1,5.5555556E-2,5.5555556E-2,3.2317758E-1,2.6522586E-2,1.6666667E-1,8.231776E-1,4.5593064E-3,2.777778E-1,1.0829594E-2,4.1918725E-2,1.7329854E-1,1.8023047E-1,7.976233E-2,2.4576882E-2,9.689189E-1,1.03438966E-1,1.6666667E-1,8.231776E-1,1.1244148E-1,4.1564637E-1,1.2157744E-2,-3.525556E-3,8.9022337E-4,1.13930665E-2,-3.0386888E-3,7.217398E-3,-1.0734496E-3,2.6321688E-3,-2.4168459E-3,2.4907963E-2,-3.060781E-2,-6.4149085E-3,5.7231123E-3,2.8293671E-2,-9.108124E-3,4.4623353E-3,3.405317E-3,-1.246448E-3,1.4434506E-2,-5.9550046E-3,1.1979387E-3,2.9349744E-2,4.580892E-3,3.6958065E-2,-1.2698844E-2,1.1416498E-3,-2.3370064E-3,-1.790479E-2,4.507223E-3,-1.3960315E-3,1.5835543E-3,4.5003468E-4],"split_indices":[5,4,5,4,4,4,11,6,0,0,0,4,0,5,5,4,0,4,0,5,5,5,5,0,0,6,6,5,6,4,5,11,5,11,5,4,4,6,0,4,6,0,4,0,0,5,5,5,5,6,5,4,6,5,5,0,0,0,0,0,0,0,0,0,0,0,0,0,0,0,0,0,0,0,0,0,0,0,0,0,0,0,0,0,0,0,0],"split_type":[0,0,0,0,0,0,0,0,0,0,0,0,0,0,0,0,0,0,0,0,0,0,0,0,0,0,0,0,0,0,0,0,0,0,0,0,0,0,0,0,0,0,0,0,0,0,0,0,0,0,0,0,0,0,0,0,0,0,0,0,0,0,0,0,0,0,0,0,0,0,0,0,0,0,0,0,0,0,0,0,0,0,0,0,0,0,0],"sum_hessian":[7.881E3,3E1,7.851E3,1.6E1,1.4E1,8.1E1,7.77E3,1.3E1,3E0,1.3E1,1E0,7.7E1,4E0,2.61E2,7.509E3,2E0,1.1E1,7.4E1,3E0,5.9E1,2.02E2,5.76E2,6.933E3,1E0,1E0,6.4E1,1E1,4.9E1,1E1,2E0,2E2,5.05E2,7.1E1,1.3E1,6.92E3,1.4E1,5E1,2E0,8E0,4.5E1,4E0,2E0,8E0,1E0,1E0,1.46E2,5.4E1,4.53E2,5.2E1,8E0,6.3E1,4E0,9E0,5.19E2,6.401E3,5E0,9E0,7E0,4.3E1,1E0,1E0,2E1,2.5E1,1E0,3E0,4E0,4E0,1.41E2,5E0,1.3E1,4.1E1,3.82E2,7.1E1,3E0,4.9E1,2E0,6E0,6.2E1,1E0,1E0,3E0,1E0,8E0,4.8E1,4.71E2,1.574E3,4.827E3],"tree_param":{"num_deleted":"0","num_feature":"12","num_nodes":"87","size_leaf_vector":"0"}},{"base_weights":[5.4957855E-2,7.639223E-2,2.4473833E-2,1.7903969E-2,8.789339E-2,-5.844996E-2,3.98271E-2,5.38313E-1,1.5592728E-2,8.48984E-2,3.8641107E-1,-9.825954E-2,7.924624E-2,2.7466489E-2,1.2023646E-1,-7.052813E-2,1.4798144E0,-1.8005334E-2,3.106397E-2,8.934067E-2,-8.233475E-2,-7.507906E-2,1.0104109E0,3.2905096E-1,-1.11959666E-1,-8.9890987E-1,9.0647824E-2,4.0169578E-2,-7.622051E-2,6.1056274E-4,1.777338E-1,-9.610518E-4,-1.11760736E-1,3.859761E-2,-2.5938548E-2,2.367385E-1,2.5610005E-2,-6.563971E-3,9.732514E-2,1.0505972E-1,-1.8061073E-1,6.2929136E-1,-2.911908E-1,1.3241279E0,5.632453E-1,-2.8131866E-1,3.9244244E-1,1.1309753E-3,-1.5246779E-1,4.9549416E-1,5.4004602E-2,2.932899E-2,1.03018895E-1,-9.767612E-1,-5.3639017E-2,3.6259913E-1,-3.7129637E-2,3.746416E-1,1.1803362E-1,2.0581117E-1,8.321772E-4,-1.0337115E-1,-2.4583085E-2,7.44434E-2,3.2942337E-1,-8.962311E-1,2.9878106E-2,1.2140638E-1,-4.422282E-2,-2.6405135E-1,9.978081E-2,-2.494128E-1,1.8356304E-1,-2.8424275E-1,1.6256823E-1,1.206266E0,4.0003076E-1,-1.9288762E-1,-4.9763265E-1,2.5169106E0,8.824343E-1,7.2964126E-1,4.5255366E-1,1.5975316E-1,5.6547695E-1,-8.833353E-2,1.2509154E-2,-1.4496237E-1,-1.0262345E0,2.7644232E-1,1.7298399E0,3.1304233E-2,5.7214206E-1,3.0548098E-2,-9.150688E-1,1.8120241E0,6.752635E-2,-2.0051764E-1,-1.3162941E0,-4.0819183E-2,-6.4692277E-1,-1.5369079E-1,7.805319E-1,-1.2024803E0,-1.130561E-2,4.9092546E-1,-2.0299563E-2,9.0801455E-2,3.8725954E-1,4.4309685E-1,1.1366566E-1,-1.5896882E-1,4.5639478E-2,-1.2088867E-1,-3.6169082E-2,9.522498E-2,-2.5386767E-2,4.6412135E-3,1.1157964E-1,3.634912E-1,1.8376693E-1,7.003681E-2,1.3139937E-2,4.5402E-1,4.346226E-2,-1.4327484E-1,-3.4125216E-2,3.2271132E0,-4.6919543E-1,2.5267E-1,9.314057E-2,6.4630026E-1,2.0957178E-2,-3.4820157E-1,1.761743E-1,-1.7709114E-1,2.1901546E-1,-6.324146E-1,-1.3423981E-1,1.5841469E-1,1.3681806E0,1.9382304E-1,5.84117E-1,6.744049E-1,-2.1221173E-1,2.241449E-1,6.127861E-1,2.1748343E-2,-1.5131108E-1,-3.9939284E-2,3.0834317E-2,-1.15323484E-1,-3.3646688E-1,-3.8200997E-2,5.7310426E-1,7.974856E-2,-3.502095E-1,1.0000365E-1,2.066675E-2,4.228618E-1,4.126761E0,7.771278E-2,-2.9813236E-1,-1.4760878E0,-5.769618E-1,-7.784506E-2,8.920545E-2,-2.0010497E-2,-1.4439327E0,-3.4172356E-1,1.3077351E-1,6.005654E-2,1.4186459E0,2.4462454E-2,-2.1394064E0,-1.2317378E-1,3.508445E-2,7.688684E-1,1.1751952E-1,1.6244748E-1,-2.3308413E-1,1.4748201E-1,-7.000748E-2,2.258984E-1,1.3861241E0],"categories":[],"categories_nodes":[],"categories_segments":[],"categories_sizes":[],"default_left":[true,true,true,true,true,true,true,true,true,true,true,true,true,true,true,true,false,true,true,true,true,true,true,true,true,false,true,true,true,true,true,false,false,true,true,true,true,true,true,true,true,true,true,true,true,false,true,true,true,true,true,true,true,true,true,true,true,true,true,true,true,true,true,true,true,false,true,true,true,true,true,false,true,true,true,false,false,true,false,false,true,false,true,true,true,true,true,true,false,true,false,true,false,true,false,true,true,false,true,true,true,true,true,true,true,true,true,true,true,false,false,false,false,false,false,false,false,false,false,false,false,false,false,false,false,false,false,false,false,false,false,false,false,false,false,false,false,false,false,false,false,false,false,false,false,false,false,false,false,false,false,false,false,false,false,false,false,false,false,false,false,false,false,false,false,false,false,false,false,false,false,false,false,false,false,false,false,false,false,false,false,false,false,false,false],"id":181,"left_children":[1,3,5,7,9,11,13,15,17,19,21,23,25,27,29,31,-1,33,35,37,39,41,43,45,47,-1,49,51,53,55,57,-1,-1,59,61,63,65,67,69,71,73,75,77,79,81,-1,83,85,87,89,91,93,95,97,99,101,103,105,107,109,111,113,115,117,119,-1,121,123,125,127,129,-1,131,133,135,-1,-1,137,-1,-1,139,-1,141,143,145,147,149,151,-1,153,-1,155,-1,157,-1,159,161,-1,163,165,167,169,171,173,175,177,179,181,183,-1,-1,-1,-1,-1,-1,-1,-1,-1,-1,-1,-1,-1,-1,-1,-1,-1,-1,-1,-1,-1,-1,-1,-1,-1,-1,-1,-1,-1,-1,-1,-1,-1,-1,-1,-1,-1,-1,-1,-1,-1,-1,-1,-1,-1,-1,-1,-1,-1,-1,-1,-1,-1,-1,-1,-1,-1,-1,-1,-1,-1,-1,-1,-1,-1,-1,-1,-1,-1,-1,-1,-1,-1,-1,-1,-1],"loss_changes":[5.1567974E0,3.1160736E0,4.151409E0,9.062278E-1,3.445324E0,2.794844E0,2.7313666E0,1.9657347E0,3.9507717E-1,2.851801E0,1.1077518E1,2.3235538E0,1.290751E0,3.1423373E0,2.5171237E0,5.049715E-3,0E0,1.0762439E-1,5.779158E-1,2.8625927E0,1.8367677E0,3.455946E0,2.0156898E0,5.1561034E-1,1.7583008E0,0E0,1.6645261E0,1.4451442E0,5.2618566E0,1.6394088E0,2.8857374E0,0E0,0E0,1.8223304E-1,1.9403443E-2,1.8662745E-1,1.9926805E0,1.3854114E0,3.0674667E0,9.6973467E-1,2.3406863E0,5.216718E-1,3.0990493E-1,4.1281548E0,8.096695E-3,0E0,4.1585314E-1,1.02438636E-1,1.7852216E0,2.3355534E0,1.2125809E0,2.0844355E0,1.8877579E1,1.5595984E0,1.915793E0,2.4944184E0,3.2383454E0,2.6430922E0,1.3769042E0,9.1878384E-2,1.7503665E-1,2.2584572E-4,1.9773677E-2,1.19949E-2,1.12710595E-2,0E0,3.381834E-1,1.6801118E0,2.1821436E-1,1.7176823E1,3.4657059E0,0E0,2.1178832E0,1.505116E0,3.07518E-1,0E0,0E0,2.7867776E-1,0E0,0E0,2.4850564E0,0E0,1.3269782E-1,1.0753173E0,4.4532537E-2,8.151686E-2,8.710265E-2,1.5717831E0,0E0,7.927994E-1,0E0,1.8598365E0,0E0,1.2407339E0,0E0,1.971874E1,1.1455996E0,0E0,1.9867468E-1,1.2025139E0,2.6343799E0,3.031913E-1,2.8622804E0,2.7300727E0,5.545227E-1,4.558399E0,5.321162E-1,1.5844376E0,2.666361E0,0E0,0E0,0E0,0E0,0E0,0E0,0E0,0E0,0E0,0E0,0E0,0E0,0E0,0E0,0E0,0E0,0E0,0E0,0E0,0E0,0E0,0E0,0E0,0E0,0E0,0E0,0E0,0E0,0E0,0E0,0E0,0E0,0E0,0E0,0E0,0E0,0E0,0E0,0E0,0E0,0E0,0E0,0E0,0E0,0E0,0E0,0E0,0E0,0E0,0E0,0E0,0E0,0E0,0E0,0E0,0E0,0E0,0E0,0E0,0E0,0E0,0E0,0E0,0E0,0E0,0E0,0E0,0E0,0E0,0E0,0E0,0E0,0E0,0E0,0E0,0E0],"parents":[2147483647,0,0,1,1,2,2,3,3,4,4,5,5,6,6,7,7,8,8,9,9,10,10,11,11,12,12,13,13,14,14,15,15,17,17,18,18,19,19,20,20,21,21,22,22,23,23,24,24,26,26,27,27,28,28,29,29,30,30,33,33,34,34,35,35,36,36,37,37,38,38,39,39,40,40,41,41,42,42,43,43,44,44,46,46,47,47,48,48,49,49,50,50,51,51,52,52,53,53,54,54,55,55,56,56,57,57,58,58,59,59,60,60,61,61,62,62,63,63,64,64,66,66,67,67,68,68,69,69,70,70,72,72,73,73,74,74,77,77,80,80,82,82,83,83,84,84,85,85,86,86,87,87,89,89,91,91,93,93,95,95,96,96,98,98,99,99,100,100,101,101,102,102,103,103,104,104,105,105,106,106,107,107,108,108],"right_children":[2,4,6,8,10,12,14,16,18,20,22,24,26,28,30,32,-1,34,36,38,40,42,44,46,48,-1,50,52,54,56,58,-1,-1,60,62,64,66,68,70,72,74,76,78,80,82,-1,84,86,88,90,92,94,96,98,100,102,104,106,108,110,112,114,116,118,120,-1,122,124,126,128,130,-1,132,134,136,-1,-1,138,-1,-1,140,-1,142,144,146,148,150,152,-1,154,-1,156,-1,158,-1,160,162,-1,164,166,168,170,172,174,176,178,180,182,184,-1,-1,-1,-1,-1,-1,-1,-1,-1,-1,-1,-1,-1,-1,-1,-1,-1,-1,-1,-1,-1,-1,-1,-1,-1,-1,-1,-1,-1,-1,-1,-1,-1,-1,-1,-1,-1,-1,-1,-1,-1,-1,-1,-1,-1,-1,-1,-1,-1,-1,-1,-1,-1,-1,-1,-1,-1,-1,-1,-1,-1,-1,-1,-1,-1,-1,-1,-1,-1,-1,-1,-1,-1,-1,-1,-1],"split_conditions":[4.2413792E-1,7.920965E-1,4.6034485E-1,2.7272727E-2,4.1896552E-1,9.9787235E-1,7.827586E-1,3.9510223E-1,1.3484347E-1,6.1111116E-1,3.3636364E-1,3.1688873E-2,1.1325171E-1,7.310345E-1,1.6666667E-1,5.5555556E-2,2.9596288E-2,1.3665827E-1,3.871084E-2,5.5555556E-2,3.5106385E-1,1.2389015E-3,2.777778E-1,9.8790765E-1,9.8790765E-1,-1.7978197E-2,5.254772E-1,9.1357577E-1,5.5347496E-1,6.1937344E-1,6.242424E-1,-1.9221035E-5,-2.2352147E-3,5.5555556E-2,1.4440043E-1,3.9510223E-1,4.1141517E-2,1.7437883E-1,2.7272727E-2,2.413793E-1,8.452467E-1,3.888889E-1,6.110011E-1,2.8583002E-1,5.5545554E-2,-5.626373E-3,2.6287362E-2,2.0480734E-1,9.7758377E-1,2.777778E-1,6.666667E-1,9.129456E-1,9.149262E-1,9.8790765E-1,9.957688E-1,8.206897E-1,6.3062656E-1,9.011523E-1,9.189655E-1,5E-1,3.4479655E-2,1.6666667E-1,1.4692114E-1,5.5555556E-2,2.3103449E-1,-1.7924622E-2,2.5344828E-1,9.8790765E-1,1.6034484E-1,9.5682657E-1,3.2589123E-2,-4.988256E-3,3.2413793E-1,3.948276E-1,9.5682657E-1,2.412532E-2,8.000615E-3,1.6060497E-1,-9.952653E-3,5.033821E-2,3.7972635E-1,1.45928245E-2,2.1669067E-1,2.5117032E-2,5.181818E-1,3.9510223E-1,1.3484347E-1,5E-1,-2.052469E-2,4.8685634E-1,3.4596797E-2,5E-1,1.1442841E-2,1.189233E-1,-1.8301375E-2,9.146561E-1,6.1111116E-1,-4.010353E-3,7.5689656E-1,3.888889E-1,7.5689656E-1,5.735506E-1,9.8790765E-1,9.689189E-1,3.9234042E-1,3.888889E-1,7.008511E-1,9.137931E-1,9.9787235E-1,8.861937E-3,2.2733132E-3,-3.1793762E-3,9.1278955E-4,-2.4177735E-3,-7.2338164E-4,1.9044995E-3,-5.0773536E-4,9.2824266E-5,2.2315928E-3,7.269824E-3,3.6753386E-3,1.4007363E-3,2.6279874E-4,9.0804E-3,8.692452E-4,-2.8654968E-3,-6.825043E-4,6.4542264E-2,-9.3839085E-3,5.0533996E-3,1.8628114E-3,1.2926005E-2,4.1914353E-4,-6.964031E-3,3.523486E-3,-3.5418225E-3,4.380309E-3,-1.2648291E-2,-2.684796E-3,3.1682937E-3,2.7363611E-2,3.8764607E-3,1.168234E-2,1.3488098E-2,-4.2442344E-3,4.482898E-3,1.2255722E-2,4.3496687E-4,-3.0262216E-3,-7.9878565E-4,6.166863E-4,-2.3064697E-3,-6.7293374E-3,-7.640199E-4,1.1462085E-2,1.5949713E-3,-7.00419E-3,2.000073E-3,4.13335E-4,8.457236E-3,8.2535215E-2,1.5542556E-3,-5.962647E-3,-2.9521756E-2,-1.1539236E-2,-1.5569011E-3,1.7841089E-3,-4.0020994E-4,-2.8878652E-2,-6.834471E-3,2.6154702E-3,1.2011308E-3,2.8372917E-2,4.8924907E-4,-4.278813E-2,-2.4634756E-3,7.01689E-4,1.5377368E-2,2.3503904E-3,3.2489495E-3,-4.6616825E-3,2.9496402E-3,-1.4001495E-3,4.517968E-3,2.7722482E-2],"split_indices":[3,6,3,2,3,10,3,6,6,4,2,5,5,3,4,4,0,5,5,4,10,8,4,6,6,0,5,5,5,5,2,0,0,4,5,6,5,5,2,3,5,4,5,5,5,0,5,5,5,4,4,5,5,6,5,3,5,5,3,0,5,4,5,4,3,0,3,6,3,6,5,0,3,3,6,0,0,5,0,0,5,0,5,5,2,6,6,4,0,5,0,4,0,5,0,5,4,0,3,4,3,5,6,6,10,4,10,3,10,0,0,0,0,0,0,0,0,0,0,0,0,0,0,0,0,0,0,0,0,0,0,0,0,0,0,0,0,0,0,0,0,0,0,0,0,0,0,0,0,0,0,0,0,0,0,0,0,0,0,0,0,0,0,0,0,0,0,0,0,0,0,0,0,0,0,0,0,0,0,0,0,0,0,0,0],"split_type":[0,0,0,0,0,0,0,0,0,0,0,0,0,0,0,0,0,0,0,0,0,0,0,0,0,0,0,0,0,0,0,0,0,0,0,0,0,0,0,0,0,0,0,0,0,0,0,0,0,0,0,0,0,0,0,0,0,0,0,0,0,0,0,0,0,0,0,0,0,0,0,0,0,0,0,0,0,0,0,0,0,0,0,0,0,0,0,0,0,0,0,0,0,0,0,0,0,0,0,0,0,0,0,0,0,0,0,0,0,0,0,0,0,0,0,0,0,0,0,0,0,0,0,0,0,0,0,0,0,0,0,0,0,0,0,0,0,0,0,0,0,0,0,0,0,0,0,0,0,0,0,0,0,0,0,0,0,0,0,0,0,0,0,0,0,0,0,0,0,0,0,0,0,0,0,0,0,0,0,0,0,0,0,0,0],"sum_hessian":[7.895E3,4.635E3,3.26E3,7.62E2,3.873E3,5.09E2,2.751E3,3E0,7.59E2,3.835E3,3.8E1,3.95E2,1.14E2,2.385E3,3.66E2,2E0,1E0,2.39E2,5.2E2,3.736E3,9.9E1,2.2E1,1.6E1,1.2E1,3.83E2,1E0,1.13E2,2.125E3,2.6E2,1.19E2,2.47E2,1E0,1E0,2.9E1,2.1E2,1.3E1,5.07E2,2.87E2,3.449E3,3.4E1,6.5E1,5E0,1.7E1,9E0,7E0,1E0,1.1E1,1.01E2,2.82E2,9E0,1.04E2,1.813E3,3.12E2,6E0,2.54E2,1.1E1,1.08E2,5.7E1,1.9E2,5E0,2.4E1,3E0,2.07E2,5E0,8E0,2E0,5.05E2,6.5E1,2.22E2,2.3E1,3.426E3,6E0,2.8E1,5E1,1.5E1,1E0,4E0,1.2E1,5E0,2E0,7E0,2E0,5E0,5E0,6E0,1.1E1,9E1,2.8E2,2E0,8E0,1E0,1E2,4E0,1.811E3,2E0,6E0,3.06E2,2E0,4E0,2.49E2,5E0,5E0,6E0,2E0,1.06E2,4.4E1,1.3E1,1.73E2,1.7E1,1E0,4E0,5E0,1.9E1,2E0,1E0,1E0,2.06E2,2E0,3E0,6E0,2E0,1.48E2,3.57E2,1.2E1,5.3E1,2E1,2.02E2,1E0,2.2E1,1.42E2,3.284E3,7E0,2.1E1,4.4E1,6E0,2E0,1.3E1,1E0,1.1E1,3E0,4E0,2E0,3E0,2E0,3E0,1E0,5E0,4E0,7E0,2.3E1,6.7E1,2.43E2,3.7E1,4E0,4E0,8.9E1,1.1E1,2.25E2,1.586E3,4E0,2E0,2.98E2,8E0,3E0,1E0,1.94E2,5.5E1,3E0,2E0,3E0,2E0,3E0,3E0,1E0,1E0,3.1E1,7.5E1,2.5E1,1.9E1,7E0,6E0,1.28E2,4.5E1,1.5E1,2E0],"tree_param":{"num_deleted":"0","num_feature":"12","num_nodes":"185","size_leaf_vector":"0"}},{"base_weights":[5.9330236E-2,-6.931649E-2,1.7810711E-1,-6.9627875E-1,-5.879333E-2,3.2037933E0,1.6894569E-1,2.6277295E-1,-9.510665E-1,2.2795362E-2,-1.1832477E-1,2.4174934E-2,5.36863E0,2.8514642E-1,1.444832E-1,7.966625E-1,8.068537E-2,-1.641906E0,-6.8842417E-1,-3.665533E-3,8.811409E-2,-1.3531706E-1,1.9300242E-1,7.2576046E0,-2.2002242E0,2.3827719E1,1.1972651E0,3.9841914E-1,9.27411E-2,3.57386E-2,1.6212767E-1,1.4576194E0,2.989938E-1,-1.4990853E-1,1.1227578E-1,-1.1008435E-1,-1.7619734E0,-2.143212E-1,-1.0177569E0,6.6659315E-3,-1.67452E-1,1.2619776E-1,9.684161E-3,-6.7462884E-3,-1.660171E-1,4.8484865E-1,3.321539E-2,-2.910169E0,1.14056826E-1,-1.1407862E1,4.276608E0,2.0319988E-1,1.2233256E0,-1.5276849E0,1.92728E-1,1.17317446E-1,-1.3198493E-1,3.6918637E-1,1.4991243E-1,5.044305E-1,4.332108E-2,-2.0712245E0,-1.4549955E0,1.6887839E-1,-2.77094E-1,1.5809847E-2,-1.2573974E0,-9.937471E-3,1.2934445E-1,-9.422141E-2,-1.9377881E-1,4.5873344E-1,1.1433164E-1,9.3501055E-1,1.1905731E-3,2.2636741E-2,-9.67713E-3,-8.578954E-1,-1.6160263E-1,-1.0208758E0,5.333812E-1,-1.3883951E0,1.4586823E-1,3.5582986E-1,5.1507006E0,5.177527E-1,4.405511E-2,4.470967E0,1.0867089E0,-5.8557943E-2,-3.6100109E0,1.8543533E0,1.4191028E-1,9.474313E-2,2.757017E-1,3.583606E-1,-1.6688482E-1,1.6689115E0,3.325146E-1,-1.03451215E-1,1.6254914E-1,4.65931E-2,-2.0236642E0,2.4030711E-1,4.451999E-2,-1.151793E-1,3.500056E-1,-1.0560311E0,-1.5492768E0,-4.2453413E-3,-1.37756E-1,2.492224E-1,1.0428242E-1,-5.413416E-2,-1.858724E-1,-2.8941274E-1,-1.6908024E-1,2.0343052E-1,1.2988212E0,6.860461E-2,2.205499E-1,-1.7588392E-2,1.5303667E-1,1.3044046E-2,4.4043243E-2,-3.8819987E-2,-5.1902253E-3,-7.443468E-1,-1.427427E0,-2.0052643E-1,-8.678249E-2,1.2723906E0,4.3450952E-1,-1.4548048E-1,3.0867878E-1,2.8596756E0,3.8752666E-1,2.931247E-1,-5.8792293E-2,2.920014E0,6.056227E0,6.1722475E-1,1.8438418E0,-9.199225E-1,2.650734E0,-5.388833E0,2.0321216E-1,-3.6664674E-1,4.5604005E0,-1.1015937E-1,2.3708662E-1,1.861459E-1,6.247819E-2,9.318397E-2,3.7477654E-1,4.052304E-1,-4.8620038E-2,2.650031E-1,-1.8311979E-1,7.8119975E-1,2.3120096E0,2.649274E-1,5.7165784E-1,3.431623E-1,-1.5403077E-1,2.0873097E-1,1.0153266E-1],"categories":[],"categories_nodes":[],"categories_segments":[],"categories_sizes":[],"default_left":[true,true,true,true,true,true,true,true,true,true,true,true,true,true,true,true,true,true,true,true,true,true,true,false,true,false,true,true,true,true,true,false,false,false,true,false,true,true,true,true,true,true,true,true,true,true,true,false,false,false,true,true,true,true,true,true,true,true,true,false,false,false,true,true,false,true,true,true,true,true,true,true,true,false,true,true,true,true,true,false,true,false,true,false,false,true,true,true,true,true,true,true,true,true,true,true,true,true,true,true,true,false,false,false,false,false,false,false,false,false,false,false,false,false,false,false,false,false,false,false,false,false,false,false,false,false,false,false,false,false,false,false,false,false,false,false,false,false,false,false,false,false,false,false,false,false,false,false,false,false,false,false,false,false,false,false,false,false,false,false,false,false,false,false,false,false,false],"id":182,"left_children":[1,3,5,7,9,11,13,15,17,19,21,23,25,27,29,31,33,35,37,39,41,43,45,-1,47,-1,49,51,53,55,57,-1,-1,-1,59,-1,61,63,65,67,69,71,73,75,77,79,81,-1,-1,-1,83,85,87,89,91,93,95,97,99,-1,-1,-1,101,103,-1,105,107,109,111,113,115,117,119,-1,121,123,125,127,129,-1,131,-1,133,-1,-1,135,137,139,141,143,145,147,149,151,153,155,157,159,161,163,165,-1,-1,-1,-1,-1,-1,-1,-1,-1,-1,-1,-1,-1,-1,-1,-1,-1,-1,-1,-1,-1,-1,-1,-1,-1,-1,-1,-1,-1,-1,-1,-1,-1,-1,-1,-1,-1,-1,-1,-1,-1,-1,-1,-1,-1,-1,-1,-1,-1,-1,-1,-1,-1,-1,-1,-1,-1,-1,-1,-1,-1,-1,-1,-1,-1,-1],"loss_changes":[1.2029696E2,2.491021E1,1.13237076E2,1.5324625E1,1.8057695E1,8.4775444E1,1.1581566E1,1.262259E0,8.541077E0,2.7120073E0,1.1378204E1,9.1212875E1,5.54804E2,1.5440079E1,6.465889E0,9.261143E-1,8.0350645E-2,2.3609314E0,5.5827065E0,1.8916739E0,1.3487291E0,8.042725E0,5.17908E0,0E0,7.2705135E0,0E0,2.6200427E2,7.177325E1,4.2744797E1,6.4540653E0,7.312401E0,0E0,0E0,0E0,2.372852E-1,0E0,1.15600586E-1,3.8598758E-1,5.3083115E0,2.141536E0,1.1768949E-1,1.1752076E0,1.1520782E0,3.3760898E-2,4.964527E0,3.0489864E0,1.1633906E1,0E0,0E0,0E0,1.7588745E1,1.807253E1,3.6161423E1,4.6785347E1,2.0853052E1,1.1206045E0,2.6583214E0,7.4760723E0,8.780136E0,0E0,0E0,0E0,6.321744E0,1.30972415E-2,0E0,2.0649509E-1,4.36018E-1,6.710147E-1,3.6284065E-1,6.0578972E-2,9.130669E-2,2.1067526E0,1.4204209E0,0E0,4.2295286E-1,6.249711E-3,4.616117E-2,2.8296852E-1,4.752655E0,0E0,2.5922031E0,0E0,3.2112427E0,0E0,0E0,3.6588333E1,6.16551E0,2.1706543E0,2.8851791E1,2.2569883E1,4.339937E1,4.469252E1,5.800367E0,8.1341004E-1,6.9294286E-1,2.0876896E-1,1.0270357E0,1.8274984E0,2.480547E0,2.9590979E0,7.34404E0,0E0,0E0,0E0,0E0,0E0,0E0,0E0,0E0,0E0,0E0,0E0,0E0,0E0,0E0,0E0,0E0,0E0,0E0,0E0,0E0,0E0,0E0,0E0,0E0,0E0,0E0,0E0,0E0,0E0,0E0,0E0,0E0,0E0,0E0,0E0,0E0,0E0,0E0,0E0,0E0,0E0,0E0,0E0,0E0,0E0,0E0,0E0,0E0,0E0,0E0,0E0,0E0,0E0,0E0,0E0,0E0,0E0,0E0,0E0,0E0,0E0,0E0,0E0,0E0,0E0,0E0],"parents":[2147483647,0,0,1,1,2,2,3,3,4,4,5,5,6,6,7,7,8,8,9,9,10,10,11,11,12,12,13,13,14,14,15,15,16,16,17,17,18,18,19,19,20,20,21,21,22,22,24,24,26,26,27,27,28,28,29,29,30,30,34,34,36,36,37,37,38,38,39,39,40,40,41,41,42,42,43,43,44,44,45,45,46,46,50,50,51,51,52,52,53,53,54,54,55,55,56,56,57,57,58,58,62,62,63,63,65,65,66,66,67,67,68,68,69,69,70,70,71,71,72,72,74,74,75,75,76,76,77,77,78,78,80,80,82,82,85,85,86,86,87,87,88,88,89,89,90,90,91,91,92,92,93,93,94,94,95,95,96,96,97,97,98,98,99,99,100,100],"right_children":[2,4,6,8,10,12,14,16,18,20,22,24,26,28,30,32,34,36,38,40,42,44,46,-1,48,-1,50,52,54,56,58,-1,-1,-1,60,-1,62,64,66,68,70,72,74,76,78,80,82,-1,-1,-1,84,86,88,90,92,94,96,98,100,-1,-1,-1,102,104,-1,106,108,110,112,114,116,118,120,-1,122,124,126,128,130,-1,132,-1,134,-1,-1,136,138,140,142,144,146,148,150,152,154,156,158,160,162,164,166,-1,-1,-1,-1,-1,-1,-1,-1,-1,-1,-1,-1,-1,-1,-1,-1,-1,-1,-1,-1,-1,-1,-1,-1,-1,-1,-1,-1,-1,-1,-1,-1,-1,-1,-1,-1,-1,-1,-1,-1,-1,-1,-1,-1,-1,-1,-1,-1,-1,-1,-1,-1,-1,-1,-1,-1,-1,-1,-1,-1,-1,-1,-1,-1,-1,-1],"split_conditions":[6.8848956E-1,5E-1,2.7272727E-2,5.5555556E-2,6.572582E-1,8.2218254E-1,2.5344828E-1,2.7272727E-2,2.7272727E-2,4.4565028E-1,5E-1,7.7843237E-1,8.349742E-1,8.3047175E-1,7.568615E-1,5.247395E-1,3.8604596E-1,3.7807107E-1,1.6666667E-1,4.3256068E-1,3.888889E-1,5.5555556E-2,3.3965516E-1,1.4515209E-1,4.4444448E-1,4.7655436E-1,1.6666667E-1,8.2552147E-1,5E-1,7.281138E-1,7.664299E-1,2.9152388E-2,5.9798756E-3,-2.9981704E-3,5.348941E-1,-2.2016868E-3,1.6666667E-1,1.8071677E-1,5.348941E-1,3.989272E-1,5.5555556E-2,3.3636364E-1,1.2068965E-1,1.6034484E-1,6.724138E-2,3.3636364E-1,3.6551723E-1,-5.8203377E-2,2.2811366E-3,-2.2815722E-1,8.664447E-1,7.716272E-1,5E-1,8.76709E-1,4.1296717E-4,9.212121E-1,4.2424244E-1,3.3636364E-1,7.7778685E-1,1.00886095E-2,8.664216E-4,-4.1424487E-2,2.777778E-1,7.9619184E-2,-5.54188E-3,2.7038732E-1,2.777778E-1,3.8608843E-1,2.5344828E-1,5.086207E-1,2.982759E-1,4.1551724E-1,8.30303E-1,1.870021E-2,6.474741E-1,1.3793103E-1,2.6206896E-1,3.888889E-1,2.777778E-1,-2.0417515E-2,5.6060606E-1,-2.77679E-2,4.6551722E-1,7.116597E-3,1.0301401E-1,5E-1,1.6666667E-1,3.3333334E-1,9.212121E-1,8.571358E-1,3.888889E-1,1.8965518E-1,8.571358E-1,9.5682657E-1,9.8790765E-1,7.4976736E-1,1.2389015E-3,3.7068963E-1,8.30303E-1,5.0082594E-1,8.352535E-1,9.31862E-4,-4.0473282E-2,4.806142E-3,8.903998E-4,-2.3035859E-3,7.000112E-3,-2.112062E-2,-3.0985536E-2,-8.4906824E-5,-2.75512E-3,4.9844477E-3,2.0856482E-3,-1.0826832E-3,-3.717448E-3,-5.7882546E-3,-3.3816048E-3,4.0686103E-3,2.5976423E-2,1.3720922E-3,4.410998E-3,-3.5176784E-4,3.0607332E-3,2.6088092E-4,8.8086486E-4,-7.7639974E-4,-1.038045E-4,-1.4886935E-2,-2.854854E-2,-4.0105283E-3,-1.7356498E-3,2.5447812E-2,8.6901905E-3,-2.9096096E-3,6.1735753E-3,5.719351E-2,7.750533E-3,5.862494E-3,-1.1758459E-3,5.8400277E-2,1.2112454E-1,1.2344494E-2,3.6876835E-2,-1.8398449E-2,5.3014677E-2,-1.0777666E-1,4.064243E-3,-7.3329345E-3,9.120801E-2,-2.2031872E-3,4.7417325E-3,3.722918E-3,1.2495638E-3,1.8636794E-3,7.495531E-3,8.104607E-3,-9.724007E-4,5.300062E-3,-3.6623958E-3,1.5623995E-2,4.6240192E-2,5.2985474E-3,1.1433156E-2,6.8632457E-3,-3.0806153E-3,4.1746194E-3,2.0306532E-3],"split_indices":[1,0,2,4,1,1,3,2,2,1,4,1,1,1,1,1,1,1,4,1,4,4,3,0,4,0,4,1,0,1,1,0,0,0,1,0,4,1,1,1,4,2,3,3,3,2,3,0,0,0,1,1,0,1,8,2,2,2,1,0,0,0,4,1,0,1,4,1,3,3,3,3,2,0,1,3,3,4,4,0,2,0,3,0,0,0,4,4,2,1,4,3,1,6,6,1,8,3,2,8,1,0,0,0,0,0,0,0,0,0,0,0,0,0,0,0,0,0,0,0,0,0,0,0,0,0,0,0,0,0,0,0,0,0,0,0,0,0,0,0,0,0,0,0,0,0,0,0,0,0,0,0,0,0,0,0,0,0,0,0,0,0,0,0,0,0,0],"split_type":[0,0,0,0,0,0,0,0,0,0,0,0,0,0,0,0,0,0,0,0,0,0,0,0,0,0,0,0,0,0,0,0,0,0,0,0,0,0,0,0,0,0,0,0,0,0,0,0,0,0,0,0,0,0,0,0,0,0,0,0,0,0,0,0,0,0,0,0,0,0,0,0,0,0,0,0,0,0,0,0,0,0,0,0,0,0,0,0,0,0,0,0,0,0,0,0,0,0,0,0,0,0,0,0,0,0,0,0,0,0,0,0,0,0,0,0,0,0,0,0,0,0,0,0,0,0,0,0,0,0,0,0,0,0,0,0,0,0,0,0,0,0,0,0,0,0,0,0,0,0,0,0,0,0,0,0,0,0,0,0,0,0,0,0,0,0,0],"sum_hessian":[7.872E3,3.779E3,4.093E3,6.2E1,3.717E3,1.2E1,4.081E3,1.3E1,4.9E1,1.568E3,2.149E3,5E0,7E0,7.09E2,3.372E3,3E0,1E1,1.3E1,3.6E1,1.116E3,4.52E2,2.038E3,1.11E2,1E0,4E0,1E0,6E0,4.46E2,2.63E2,4.71E2,2.901E3,1E0,2E0,1E0,9E0,1E0,1.2E1,1.5E1,2.1E1,1.05E3,6.6E1,3.04E2,1.48E2,3.93E2,1.645E3,3.9E1,7.2E1,3E0,1E0,1E0,5E0,3.61E2,8.5E1,1.5E1,2.48E2,3.17E2,1.54E2,1.61E2,2.74E3,1E0,8E0,5E0,7E0,2E0,1.3E1,4E0,1.7E1,9.25E2,1.25E2,1.8E1,4.8E1,1E1,2.94E2,1E0,1.47E2,3.5E1,3.58E2,1E1,1.635E3,1E0,3.8E1,5E0,6.7E1,1E0,4E0,1.21E2,2.4E2,3E0,8.2E1,9E0,6E0,7E0,2.41E2,2.78E2,3.9E1,1E1,1.44E2,4E0,1.57E2,1.3E2,2.61E3,2E0,5E0,1E0,1E0,3E0,1E0,1.1E1,6E0,8.86E2,3.9E1,2.1E1,1.04E2,1.3E1,5E0,9E0,3.9E1,8E0,2E0,2.06E2,8.8E1,1.31E2,1.6E1,2.5E1,1E1,4.7E1,3.11E2,9E0,1E0,1.075E3,5.6E2,4E0,3.4E1,2.4E1,4.3E1,6E0,1.15E2,7E1,1.7E2,2E0,1E0,5.1E1,3.1E1,7E0,2E0,4E0,2E0,4E0,3E0,6.6E1,1.75E2,7.2E1,2.06E2,1.4E1,2.5E1,9E0,1E0,5E0,1.39E2,2E0,2E0,1.23E2,3.4E1,1.3E1,1.17E2,1.485E3,1.125E3],"tree_param":{"num_deleted":"0","num_feature":"12","num_nodes":"167","size_leaf_vector":"0"}},{"base_weights":[5.468811E-2,-5.7748582E-2,1.5670386E-1,-4.7980535E-1,-4.7964156E-2,-2.3708153E0,1.6483231E-1,2.1701361E-1,-6.5442777E-1,1.7872673E-2,-9.308252E-2,5.344412E-1,-1.1143966E1,8.5194486E-1,1.5431604E-1,1.5013932E-2,8.1854635E-1,-7.1069914E-1,-6.390059E-2,1.0714927E-2,3.0539784E-1,-2.401484E-2,-1.3054073E-1,5.9327264E0,-9.9681765E-1,2.7464294E0,6.705056E-1,2.8231335E-1,1.3324045E-1,1.3045712E-1,-5.775954E-2,1.4357578E0,4.8548216E-1,-6.0423213E-1,-1.0857794E0,1.8295942E-1,-1.0459807E0,5.0320894E-1,8.560864E-3,3.9590392E-1,-1.28283035E-2,-1.5014966E-1,2.5288029E-2,-2.1100973E-1,-4.3736625E-2,-2.1604574E0,2.4023816E-1,1.8640957E0,4.9162903E0,-3.134831E-1,1.2008226E0,1.02286406E-1,4.619643E-1,3.3254523E-2,1.5177199E-1,-2.2808775E-2,1.7087185E-1,-1.04847126E-1,2.0494765E-1,-9.076428E-1,-4.982183E-1,-1.3712007E0,-8.57948E-1,8.8449016E-2,2.8571272E-1,9.209869E-1,3.6461908E-1,-1.6165283E-2,4.6786077E-2,4.3715075E-1,-1.2003601E-1,-4.1146705E-1,5.829589E-2,-4.8574407E-2,-7.7198863E-1,9.412599E-2,-1.7173985E-1,-2.970001E-1,-1.2867889E-1,2.2624698E0,-5.846914E-2,4.1687727E0,-1.3510271E0,3.9912832E0,8.224096E-1,-2.1687523E-1,-1.0215936E0,9.6145505E-1,3.54181E0,3.760607E-1,-1.8528542E-2,1.0284624E0,2.7177143E-1,2.4546726E0,2.7308889E-2,3.586559E-1,1.3925453E-1,2.253266E-1,8.588534E-2,-4.427794E-2,-1.400794E-1,-5.133235E-1,2.7252344E-2,-8.710341E-1,-1.5798732E0,-5.81084E-1,-1.4806874E0,8.150216E-2,4.2038828E-1,-1.397091E-2,-3.173804E-1,2.597049E-1,3.929272E-2,-0E0,4.5449227E-1,9.0120524E-2,-9.674031E-2,6.6423945E-2,-4.2890808E-1,-8.861099E-1,-1.5802773E-2,3.289059E-2,4.0568736E-1,-6.798139E-1,-3.5123665E-2,-6.0142964E-2,-3.7838364E-1,-8.4014036E-2,-6.191158E-1,1.1323843E0,2.4839215E0,2.521083E-1,-1.301892E-1,-5.33971E-1,-1.874856E-1,1.1304786E0,-1.5118867E0,1.8495531E-1,7.046972E-1,-1.3770974E-1,2.9087596E-2,9.352871E-1,3.6837811E0,-2.1058436E-1,4.3673447E-1,1.009487E-1,-1.1430878E-1,1.3628925E-1,5.3670335E-1,-2.3544101E-1,1.4908254E-1],"categories":[],"categories_nodes":[],"categories_segments":[],"categories_sizes":[],"default_left":[true,true,true,true,true,true,true,true,true,true,true,true,false,true,true,true,true,true,true,true,true,true,true,false,true,true,true,true,true,true,true,false,false,true,true,true,false,true,true,true,true,true,true,true,true,false,true,true,false,true,true,true,true,true,true,false,true,true,false,false,true,true,true,false,false,false,true,true,true,true,false,false,true,true,true,true,true,true,true,true,true,false,false,false,false,true,false,true,false,true,true,true,true,false,true,true,true,false,false,false,false,false,false,false,false,false,false,false,false,false,false,false,false,false,false,false,false,false,false,false,false,false,false,false,false,false,false,false,false,false,false,false,false,false,false,false,false,false,false,false,false,false,false,false,false,false,false,false,false,false,false],"id":183,"left_children":[1,3,5,7,9,11,13,15,17,19,21,23,-1,25,27,29,31,33,35,37,39,41,43,-1,45,47,49,51,53,55,57,-1,-1,59,61,63,-1,65,67,69,71,73,75,77,79,-1,81,83,-1,85,87,89,91,93,95,-1,97,99,-1,-1,101,103,105,-1,-1,-1,107,109,111,113,-1,-1,115,117,119,121,123,125,127,129,131,-1,-1,-1,-1,133,-1,135,-1,137,139,141,143,-1,145,147,149,-1,-1,-1,-1,-1,-1,-1,-1,-1,-1,-1,-1,-1,-1,-1,-1,-1,-1,-1,-1,-1,-1,-1,-1,-1,-1,-1,-1,-1,-1,-1,-1,-1,-1,-1,-1,-1,-1,-1,-1,-1,-1,-1,-1,-1,-1,-1,-1,-1,-1,-1,-1,-1,-1],"loss_changes":[9.088754E1,1.5550575E1,8.544882E1,1.0436993E1,1.0945757E1,3.419843E2,2.9866486E1,2.0901916E0,2.2445126E0,3.0780184E0,5.653126E0,8.7460754E1,0E0,2.0763302E1,1.0986023E1,1.155669E-1,6.3099027E-1,2.2463188E0,1.6115909E0,1.5425992E0,1.0536125E0,4.7873845E0,9.893415E0,0E0,1.2196396E1,7.058361E0,3.0056278E1,1.8615974E1,6.4869843E0,3.6448233E-2,1.0882495E-1,0E0,0E0,1.4159966E0,4.429493E-1,3.8030475E-2,0E0,2.3638582E-1,1.3771603E0,6.249838E-1,2.4931435E-1,1.364016E1,7.509144E0,5.1870956E0,2.3195787E1,0E0,2.9008354E1,8.4391E0,0E0,1.2994444E0,1.972025E1,9.54435E0,3.0954418E1,7.83653E0,7.6295624E0,0E0,9.162381E-3,1.0951534E-2,0E0,0E0,3.0792522E-1,6.2802315E-2,1.1204786E0,0E0,0E0,0E0,6.562668E-2,5.783204E-1,9.0547705E-1,2.0061636E-1,0E0,0E0,3.899601E-2,8.164477E0,2.6001492E0,7.817876E0,9.9307785E0,6.9127636E0,8.21632E0,9.493637E-2,1.51188345E1,0E0,0E0,0E0,0E0,1.2718022E-1,0E0,1.49177265E1,0E0,5.491559E0,1.1397673E0,1.6681198E1,1.7247738E1,0E0,5.7116327E0,6.630636E0,1.027486E1,0E0,0E0,0E0,0E0,0E0,0E0,0E0,0E0,0E0,0E0,0E0,0E0,0E0,0E0,0E0,0E0,0E0,0E0,0E0,0E0,0E0,0E0,0E0,0E0,0E0,0E0,0E0,0E0,0E0,0E0,0E0,0E0,0E0,0E0,0E0,0E0,0E0,0E0,0E0,0E0,0E0,0E0,0E0,0E0,0E0,0E0,0E0,0E0,0E0,0E0,0E0,0E0,0E0,0E0],"parents":[2147483647,0,0,1,1,2,2,3,3,4,4,5,5,6,6,7,7,8,8,9,9,10,10,11,11,13,13,14,14,15,15,16,16,17,17,18,18,19,19,20,20,21,21,22,22,24,24,25,25,26,26,27,27,28,28,29,29,30,30,33,33,34,34,35,35,37,37,38,38,39,39,40,40,41,41,42,42,43,43,44,44,46,46,47,47,49,49,50,50,51,51,52,52,53,53,54,54,56,56,57,57,60,60,61,61,62,62,66,66,67,67,68,68,69,69,72,72,73,73,74,74,75,75,76,76,77,77,78,78,79,79,80,80,85,85,87,87,89,89,90,90,91,91,92,92,94,94,95,95,96,96],"right_children":[2,4,6,8,10,12,14,16,18,20,22,24,-1,26,28,30,32,34,36,38,40,42,44,-1,46,48,50,52,54,56,58,-1,-1,60,62,64,-1,66,68,70,72,74,76,78,80,-1,82,84,-1,86,88,90,92,94,96,-1,98,100,-1,-1,102,104,106,-1,-1,-1,108,110,112,114,-1,-1,116,118,120,122,124,126,128,130,132,-1,-1,-1,-1,134,-1,136,-1,138,140,142,144,-1,146,148,150,-1,-1,-1,-1,-1,-1,-1,-1,-1,-1,-1,-1,-1,-1,-1,-1,-1,-1,-1,-1,-1,-1,-1,-1,-1,-1,-1,-1,-1,-1,-1,-1,-1,-1,-1,-1,-1,-1,-1,-1,-1,-1,-1,-1,-1,-1,-1,-1,-1,-1,-1,-1,-1,-1],"split_conditions":[6.621175E-1,6.724138E-2,2.2506302E-3,6.32388E-1,6.52107E-1,8.7090075E-1,6.724138E-2,3.7589142E-1,1.389089E-1,6.474741E-1,3.783784E-1,7.876776E-1,-2.228793E-1,7.703592E-1,1.7131796E-1,6.675328E-2,3.9780295E-1,7.2830394E-2,1.3989916E-1,3.420958E-2,6.4979887E-1,2.2731364E-1,6.7257833E-1,1.1865453E-1,8.2218254E-1,7.573734E-1,8.2218254E-1,8.2174015E-1,7.5122225E-1,2.2506302E-3,1.2657544E-1,2.8715154E-2,9.709643E-3,2.2506302E-3,1.3206697E-1,1.39269E-1,-2.0919614E-2,1.2068965E-1,3.989272E-1,8.9683115E-1,2.5862068E-1,3.7931034E-1,6.0433924E-1,3.7931034E-1,6.7419875E-1,-4.3209147E-2,8.3943033E-1,7.290039E-1,9.8325804E-2,8.0966675E-1,1.3809867E-1,7.7033323E-1,8.3047175E-1,1.8427517E-2,7.664299E-1,-4.561755E-4,3.4743626E-2,1.3151047E-1,4.0989527E-3,-1.8152855E-2,5E-1,1.296363E-1,1.3665827E-1,1.7689803E-3,5.7142545E-3,1.8419737E-2,3.580851E-1,3.9342475E-1,4.044514E-1,9.3103446E-2,-2.4007203E-3,-8.22934E-3,7.1034485E-1,1.967951E-1,1.9256392E-1,3.1941032E-1,3.2931036E-1,6.0565114E-1,6.378286E-1,5.4137933E-1,7.575621E-1,8.3375454E-2,-2.7020542E-2,7.982566E-2,1.644819E-2,7.8173023E-1,-2.043187E-2,1.3728845E-1,7.08362E-2,7.4818814E-1,5.689593E-2,1.6906734E-1,8.571358E-1,4.909345E-2,7.281138E-1,7.645392E-1,7.6906526E-1,4.5065316E-3,1.7177067E-3,-8.855588E-4,-2.8015878E-3,-1.026647E-2,5.450469E-4,-1.7420681E-2,-3.159746E-2,-1.162168E-2,-2.9613746E-2,1.6300431E-3,8.407765E-3,-2.794182E-4,-6.347608E-3,5.1940978E-3,7.8585435E-4,-0E0,9.089845E-3,1.8024105E-3,-1.9348062E-3,1.3284789E-3,-8.578162E-3,-1.7722197E-2,-3.1605543E-4,6.578118E-4,8.113747E-3,-1.3596278E-2,-7.024733E-4,-1.2028592E-3,-7.5676725E-3,-1.6802807E-3,-1.2382316E-2,2.2647686E-2,4.967843E-2,5.042166E-3,-2.6037837E-3,-1.067942E-2,-3.7497121E-3,2.2609571E-2,-3.0237734E-2,3.6991062E-3,1.4093944E-2,-2.7541947E-3,5.817519E-4,1.8705742E-2,7.367562E-2,-4.211687E-3,8.734689E-3,2.018974E-3,-2.2861755E-3,2.725785E-3,1.0734066E-2,-4.70882E-3,2.9816509E-3],"split_indices":[1,3,5,1,1,1,3,1,5,1,11,1,0,1,5,1,1,5,5,5,1,5,5,0,1,1,1,1,1,5,5,0,0,5,5,5,0,3,1,5,3,3,5,3,5,0,1,1,0,1,5,1,1,11,1,0,1,1,0,0,0,5,5,0,0,0,1,1,1,3,0,0,3,5,5,11,3,11,5,3,5,0,0,0,0,1,0,5,0,1,5,5,1,0,1,1,1,0,0,0,0,0,0,0,0,0,0,0,0,0,0,0,0,0,0,0,0,0,0,0,0,0,0,0,0,0,0,0,0,0,0,0,0,0,0,0,0,0,0,0,0,0,0,0,0,0,0,0,0,0,0],"split_type":[0,0,0,0,0,0,0,0,0,0,0,0,0,0,0,0,0,0,0,0,0,0,0,0,0,0,0,0,0,0,0,0,0,0,0,0,0,0,0,0,0,0,0,0,0,0,0,0,0,0,0,0,0,0,0,0,0,0,0,0,0,0,0,0,0,0,0,0,0,0,0,0,0,0,0,0,0,0,0,0,0,0,0,0,0,0,0,0,0,0,0,0,0,0,0,0,0,0,0,0,0,0,0,0,0,0,0,0,0,0,0,0,0,0,0,0,0,0,0,0,0,0,0,0,0,0,0,0,0,0,0,0,0,0,0,0,0,0,0,0,0,0,0,0,0,0,0,0,0,0,0],"sum_hessian":[7.923E3,3.769E3,4.154E3,8.5E1,3.684E3,1.3E1,4.141E3,1.7E1,6.8E1,1.498E3,2.186E3,1E1,3E0,6.2E1,4.079E3,1.3E1,4E0,6.2E1,6E0,1.462E3,3.6E1,7.69E2,1.417E3,2E0,8E0,5E0,5.7E1,5.76E2,3.503E3,5E0,8E0,1E0,3E0,4.9E1,1.3E1,5E0,1E0,6E0,1.456E3,2.8E1,8E0,2.16E2,5.53E2,7.35E2,6.82E2,4E0,4E0,4E0,1E0,2E1,3.7E1,2.88E2,2.88E2,5.48E2,2.955E3,1E0,4E0,7E0,1E0,1.2E1,3.7E1,5E0,8E0,3E0,2E0,1E0,5E0,8.84E2,5.72E2,2.6E1,2E0,1E0,7E0,1.86E2,3E1,4.1E2,1.43E2,3.59E2,3.76E2,4E0,6.78E2,1E0,3E0,1E0,3E0,1.8E1,2E0,3.4E1,3E0,8.8E1,2E2,7.2E1,2.16E2,1E0,5.47E2,1.68E2,2.787E3,2E0,2E0,3E0,4E0,3.6E1,1E0,2E0,3E0,6E0,2E0,1E0,4E0,8.78E2,6E0,1.9E1,5.53E2,1E0,2.5E1,6E0,1E0,1.43E2,4.3E1,2.6E1,4E0,3.43E2,6.7E1,3E1,1.13E2,9.2E1,2.67E2,3.45E2,3.1E1,1E0,3E0,1.27E2,5.51E2,1E0,1.7E1,3.2E1,2E0,5.6E1,3.2E1,5.7E1,1.43E2,7E1,2E0,5.5E1,1.61E2,3.6E2,1.87E2,7.5E1,9.3E1,7.1E1,2.716E3],"tree_param":{"num_deleted":"0","num_feature":"12","num_nodes":"151","size_leaf_vector":"0"}},{"base_weights":[4.9165804E-2,9.9522793E-1,4.6237994E-2,1.6161255E0,4.4150352E-1,2.0139588E-1,4.1012824E-2,2.413697E-1,2.3530574E0,1.373692E-1,3.1333785E0,1.6655235E-1,2.2115083E0,2.7614245E-2,7.396705E-2,-2.246656E-2,3.2704383E-1,-5.0629973E-1,3.6387736E-1,-3.41318E-2,2.1504004E-1,4.998901E0,-8.858137E-1,-1.2467254E-1,3.273955E-2,5.3344283E-2,1.806563E-1,-8.526975E-1,2.1578676E-1,3.8266832E-1,1.4474955E-1,-1.9042315E-1,2.3282628E-1,2.6935574E-1,-1.374627E-1,-8.79284E-1,-1.0085619E-1,5.1828712E-2,-6.9356808E-3,1.1326222E-1,3.0091389E-3,1.0104524E0,1.4061333E-1,-2.3512775E-1,8.634294E-1,2.6803622E-2,6.1951303E-1,3.4475484E-1,-5.712601E-2,-1.1742946E0,2.3803407E-1,-1.5773085E0,2.3741989E-1,4.9112162E-1,-1.3477305E-1,5.000621E-2,6.7106426E-1,-6.589262E-2,2.5161572E-2,-2.8826026E-2,1.4975607E-1,6.9515733E-3,-9.03088E-1,-4.3582198E-1,1.2233908E0,3.8744068E-1,1.15413636E-1,-3.0986714E-1,1.3190381E-1,-2.5881642E-1,9.181682E-2,-1.104322E-1,9.681897E-1,2.1430257E-1,8.2789695E-1,6.582549E-2,-2.2263327E-1,-2.9981735E0,3.1577596E-1,5.379159E-1,-6.814897E-2,4.1607693E-1,-0E0,1.8238885E0,4.2764697E-2,-1.1044268E-1,-6.4205134E-1,3.5128552E-2,1.0878416E-1,3.677581E-1,1.2669122E0,-7.9566665E-2,2.3263115E-1,-3.332549E-5,1.054886E-1,6.5303765E-2,-1.4492545E-1,-4.1383244E-2,1.8410963E-1,-1.9246581E-1,2.3217076E-2,-1.8389896E0,1.5575927E-1,-7.282707E-1,-2.368693E-2,-1.293166E-2,1.4253795E0,7.423283E-2,1.1215248E0,-2.8631357E-3,1.7714748E-1],"categories":[],"categories_nodes":[],"categories_segments":[],"categories_sizes":[],"default_left":[true,true,true,true,true,true,true,true,false,true,false,true,true,true,true,false,false,true,true,true,true,false,false,true,true,true,true,false,false,false,false,true,true,true,true,true,true,true,true,true,true,true,true,true,false,true,true,true,true,true,true,false,true,true,true,true,true,true,true,true,true,true,true,true,true,true,true,false,false,false,false,false,false,false,false,false,false,false,false,false,false,false,false,false,false,false,false,false,false,false,false,false,false,false,false,false,false,false,false,false,false,false,false,false,false,false,false,false,false,false,false],"id":184,"left_children":[1,3,5,7,9,11,13,15,-1,17,-1,19,21,23,25,-1,-1,27,29,31,33,-1,-1,35,37,39,41,-1,-1,-1,-1,43,45,47,49,51,53,55,57,59,61,63,65,67,-1,69,71,73,75,77,79,-1,81,83,85,87,89,91,93,95,97,99,101,103,105,107,109,-1,-1,-1,-1,-1,-1,-1,-1,-1,-1,-1,-1,-1,-1,-1,-1,-1,-1,-1,-1,-1,-1,-1,-1,-1,-1,-1,-1,-1,-1,-1,-1,-1,-1,-1,-1,-1,-1,-1,-1,-1,-1,-1,-1],"loss_changes":[2.1844557E1,8.098707E0,6.3769054E0,1.125555E1,1.0725811E1,1.7796694E1,3.361226E0,1.0474825E-1,0E0,1.8575785E0,0E0,2.4604115E0,3.8948135E1,4.2275867E0,4.8368826E0,0E0,0E0,9.0424246E-1,1.2437105E-2,2.072532E0,3.90734E0,0E0,0E0,3.125528E0,3.9696155E0,5.5637126E0,1.1776267E1,0E0,0E0,0E0,0E0,1.5349225E0,1.4458023E0,4.35137E0,1.0748227E1,4.301362E0,3.4570265E0,3.9717426E0,3.2225547E0,4.3709574E0,3.5734472E0,5.2192116E0,2.0947814E0,8.4826744E-1,0E0,2.3456357E-1,1.6598525E0,8.959845E0,6.8543875E-1,2.0284212E1,1.8859189E0,0E0,9.9317014E-2,5.5246286E0,1.9691818E0,3.0821238E0,1.6888232E0,2.4545655E0,2.2324421E0,1.8876235E0,4.4061956E0,3.2405381E0,4.413899E0,2.64771E-1,3.6056957E0,7.159401E0,2.2613087E0,0E0,0E0,0E0,0E0,0E0,0E0,0E0,0E0,0E0,0E0,0E0,0E0,0E0,0E0,0E0,0E0,0E0,0E0,0E0,0E0,0E0,0E0,0E0,0E0,0E0,0E0,0E0,0E0,0E0,0E0,0E0,0E0,0E0,0E0,0E0,0E0,0E0,0E0,0E0,0E0,0E0,0E0,0E0,0E0],"parents":[2147483647,0,0,1,1,2,2,3,3,4,4,5,5,6,6,7,7,9,9,11,11,12,12,13,13,14,14,17,17,18,18,19,19,20,20,23,23,24,24,25,25,26,26,31,31,32,32,33,33,34,34,35,35,36,36,37,37,38,38,39,39,40,40,41,41,42,42,43,43,45,45,46,46,47,47,48,48,49,49,50,50,52,52,53,53,54,54,55,55,56,56,57,57,58,58,59,59,60,60,61,61,62,62,63,63,64,64,65,65,66,66],"right_children":[2,4,6,8,10,12,14,16,-1,18,-1,20,22,24,26,-1,-1,28,30,32,34,-1,-1,36,38,40,42,-1,-1,-1,-1,44,46,48,50,52,54,56,58,60,62,64,66,68,-1,70,72,74,76,78,80,-1,82,84,86,88,90,92,94,96,98,100,102,104,106,108,110,-1,-1,-1,-1,-1,-1,-1,-1,-1,-1,-1,-1,-1,-1,-1,-1,-1,-1,-1,-1,-1,-1,-1,-1,-1,-1,-1,-1,-1,-1,-1,-1,-1,-1,-1,-1,-1,-1,-1,-1,-1,-1,-1,-1],"split_conditions":[2.7272727E-2,1.6666667E-1,4.096147E-2,5.5555556E-2,5.8854413E-1,4.060137E-2,8.30303E-1,2.9613025E-2,4.7061145E-2,2.777778E-1,6.266757E-2,4.1296717E-4,7.090609E-2,1.3793103E-1,8.3282316E-1,-4.4933122E-4,6.5408763E-3,1.166234E-1,4.4444448E-1,2.777778E-1,3.888889E-1,9.9978015E-2,-1.7716274E-2,4.9873963E-2,7.314548E-1,4.5831832E-1,8.3813465E-1,-1.7053949E-2,4.315735E-3,7.6533663E-3,2.894991E-3,3.9341018E-2,2.913793E-1,3.303925E-2,5E-1,1.166234E-1,6.049694E-2,7.3019445E-1,5.206896E-1,1.2931034E-1,8.32103E-1,3.7413794E-1,3.1379312E-1,9.212121E-1,1.7268589E-2,5.181818E-1,5.318799E-1,1.6034484E-1,3.862069E-1,5E-1,2.2596326E-2,-3.154617E-2,3.3636364E-1,7.7586204E-2,1.9346416E-1,5.9479654E-1,8.2586205E-1,7.222222E-1,3.888889E-1,2.777778E-1,1.2389015E-3,4.7911415E-1,1.166234E-1,9.212121E-1,5.318799E-1,2.9655173E-1,5.4310346E-1,-6.1973426E-3,2.6380762E-3,-5.176328E-3,1.8363363E-3,-2.208644E-3,1.9363794E-2,4.2860513E-3,1.655794E-2,1.3165098E-3,-4.4526653E-3,-5.996347E-2,6.315519E-3,1.0758317E-2,-1.3629794E-3,8.321539E-3,-0E0,3.647777E-2,8.5529394E-4,-2.2088536E-3,-1.2841026E-2,7.02571E-4,2.1756832E-3,7.355162E-3,2.5338244E-2,-1.5913333E-3,4.6526226E-3,-6.665098E-7,2.1097718E-3,1.3060753E-3,-2.898509E-3,-8.2766486E-4,3.6821924E-3,-3.8493162E-3,4.6434152E-4,-3.677979E-2,3.1151855E-3,-1.4565414E-2,-4.737386E-4,-2.586332E-4,2.850759E-2,1.4846566E-3,2.2430496E-2,-5.726271E-5,3.5429494E-3],"split_indices":[2,4,5,4,7,5,2,7,0,4,0,8,7,3,5,0,0,7,4,4,4,0,0,5,5,5,5,0,0,0,0,5,3,5,0,7,5,5,3,3,5,3,3,2,0,2,9,3,3,4,5,0,2,3,5,5,3,4,4,4,8,5,7,2,9,3,3,0,0,0,0,0,0,0,0,0,0,0,0,0,0,0,0,0,0,0,0,0,0,0,0,0,0,0,0,0,0,0,0,0,0,0,0,0,0,0,0,0,0,0,0],"split_type":[0,0,0,0,0,0,0,0,0,0,0,0,0,0,0,0,0,0,0,0,0,0,0,0,0,0,0,0,0,0,0,0,0,0,0,0,0,0,0,0,0,0,0,0,0,0,0,0,0,0,0,0,0,0,0,0,0,0,0,0,0,0,0,0,0,0,0,0,0,0,0,0,0,0,0,0,0,0,0,0,0,0,0,0,0,0,0,0,0,0,0,0,0,0,0,0,0,0,0,0,0,0,0,0,0,0,0,0,0,0,0],"sum_hessian":[7.897E3,2.4E1,7.873E3,1.1E1,1.3E1,2.56E2,7.617E3,4E0,7E0,1.2E1,1E0,2.52E2,4E0,5.416E3,2.201E3,1E0,3E0,3E0,9E0,4.9E1,2.03E2,2E0,2E0,1.76E2,5.24E3,1.845E3,3.56E2,2E0,1E0,8E0,1E0,3.1E1,1.8E1,1.76E2,2.7E1,5E0,1.71E2,3.538E3,1.702E3,8.42E2,1.003E3,1.6E1,3.4E2,3E1,1E0,1.2E1,6E0,1.43E2,3.3E1,7E0,2E1,3E0,2E0,9E0,1.62E2,3.528E3,1E1,6E2,1.102E3,1.72E2,6.7E2,9.99E2,4E0,2E0,1.4E1,3.1E1,3.09E2,2.5E1,5E0,2E0,1E1,2E0,4E0,1.13E2,3E1,1.9E1,1.4E1,3E0,4E0,1E1,1E1,1E0,1E0,2E0,7E0,1.55E2,7E0,2.816E3,7.12E2,7E0,3E0,5.74E2,2.6E1,8.39E2,2.63E2,9.5E1,7.7E1,1.02E2,5.68E2,7.5E1,9.24E2,2E0,2E0,1E0,1E0,2E0,1.2E1,2.2E1,9E0,1.06E2,2.03E2],"tree_param":{"num_deleted":"0","num_feature":"12","num_nodes":"111","size_leaf_vector":"0"}},{"base_weights":[4.7679268E-2,-6.1736155E-2,1.4726149E-1,-1.0866121E0,-5.725256E-2,2.6213038E0,1.3741961E-1,5.904583E-1,-1.6476421E0,1.9123735E-2,-1.0877563E-1,5.2857885E0,4.3258804E-1,1.7689754E-1,6.310516E-2,-2.212971E-2,7.8071994E-1,-1.4306137E-1,-1.7749296E0,-6.9204033E-3,8.763921E-2,-4.4120088E-1,-9.85828E-2,1.1971817E0,2.3372524E1,-1.1104912E1,2.26315E0,1.2205203E-1,3.9809605E-1,-8.4149694E-1,8.009936E-2,1.4093182E0,3.0382103E-1,2.0443045E-3,-1.5785854E-1,3.25143E-1,6.9493495E-2,-8.957412E-1,-1.5870641E-1,1.2846607E-1,-1.135664E-1,5.784003E0,-1.361547E0,-8.988385E-1,5.2542753E0,1.4285137E-1,-7.014603E-2,2.407733E0,3.4631684E-1,2.9280426E-2,-3.5950541E0,6.482459E-1,6.580334E-2,-1.3972732E-2,1.2818609E-1,-6.809073E-2,-1.8872568E-1,5.860067E-1,1.7936899E-1,4.8415735E-1,6.0260825E-2,-2.6142153E-1,-1.5561162E0,-3.396017E-1,3.9355105E-1,2.7907267E-1,-1.16581574E-1,-3.2749292E-1,-9.973499E-2,7.0244756E0,3.0863826E0,-1.8592985E0,2.1254985E-1,6.7437124E-1,-2.34971E0,9.643937E-1,1.3671267E-1,-1.1432381E0,-5.2711423E-2,3.1805933E0,1.0469339E0,1.4696028E0,2.862162E-1,-9.038689E-1,1.7265148E0,-5.9357986E0,-8.9039105E-1,1.22755215E-1,2.5754435E0,-8.76194E-1,6.948558E-2,-1.10418955E-2,-1.969527E-1,8.669511E-2,2.0242736E-1,-1.2447494E-1,4.821908E-3,-2.1060385E-1,-8.144903E-2,7.229676E-1,7.0235124E-3,2.4663663E-1,5.6136474E-2,1.6493559E-1,1.2752813E0,3.9195452E-2,2.5193754E-1,6.669986E-2,-9.51307E-1,-1.1942973E0,-1.7465534E0,-2.3903303E-1,-1.1561521E0,1.0705402E0,-1.1308821E0,1.894395E-1,1.5754048E0,7.8559864E-1,-4.2974347E-1,-4.5105284E-1,7.309997E-2,-7.677129E-2,-2.2525236E-1,-2.7436833E0,1.4257863E-1,2.7105353E0,1.9962479E-1,1.8809682E-2,1.6432007E-1,7.817357E-2,-1.00232214E-1,2.5225546E0,5.9934053E0,1.0902612E-1,1.5944695E0,-8.4006095E-1,2.3210819E0,8.394536E-1,2.4471526E-1,2.2585103E-1,-1.397625E0,-1.267437E0,5.450178E0,-4.5219216E-1,-8.215041E0,-1.4191864E0,2.4692969E-1,3.9753032E-1,-6.4274895E-1,7.249516E0,3.6676645E-1,-1.4173804E-1,-1.2983912E0,-1.7524205E-1,8.180315E-2],"categories":[],"categories_nodes":[],"categories_segments":[],"categories_sizes":[],"default_left":[true,true,true,true,true,true,true,true,true,true,true,true,true,true,true,false,true,false,false,true,true,true,true,true,false,false,true,true,true,true,true,false,false,true,true,true,true,true,true,true,true,true,true,true,false,true,true,true,true,true,true,true,true,true,true,true,true,true,true,true,true,true,true,true,true,true,true,true,true,false,false,true,false,false,false,true,true,false,true,true,true,true,true,true,true,true,true,true,true,true,true,false,false,false,false,false,false,false,false,false,false,false,false,false,false,false,false,false,false,false,false,false,false,false,false,false,false,false,false,false,false,false,false,false,false,false,false,false,false,false,false,false,false,false,false,false,false,false,false,false,false,false,false,false,false,false,false,false,false,false,false,false,false,false,false],"id":185,"left_children":[1,3,5,7,9,11,13,15,17,19,21,23,25,27,29,-1,31,-1,-1,33,35,37,39,41,-1,-1,43,45,47,49,51,-1,-1,53,55,57,59,61,63,65,67,69,71,73,-1,75,77,79,81,83,85,87,89,91,93,95,97,99,101,103,105,107,109,111,113,115,117,119,121,-1,-1,123,-1,-1,-1,125,127,-1,129,131,133,135,137,139,141,143,145,147,149,151,153,-1,-1,-1,-1,-1,-1,-1,-1,-1,-1,-1,-1,-1,-1,-1,-1,-1,-1,-1,-1,-1,-1,-1,-1,-1,-1,-1,-1,-1,-1,-1,-1,-1,-1,-1,-1,-1,-1,-1,-1,-1,-1,-1,-1,-1,-1,-1,-1,-1,-1,-1,-1,-1,-1,-1,-1,-1,-1,-1,-1,-1,-1,-1,-1],"loss_changes":[8.592151E1,1.722838E1,1.0036221E2,1.5707447E1,1.4724647E1,9.440946E1,1.2057533E1,5.2165675E-1,2.2500038E0,2.6910799E0,7.5485115E0,5.326255E2,2.0537865E2,3.255416E1,2.1953993E1,0E0,8.320787E-1,0E0,0E0,1.4803843E0,1.776789E0,8.455111E0,7.3813457E0,7.702159E1,0E0,0E0,8.045419E1,8.608528E0,5.5179955E1,6.3226658E1,1.1357545E1,0E0,0E0,2.0859509E0,1.6199899E-1,1.0694993E0,1.4615651E0,1.0450327E1,4.1730447E0,4.9708505E0,6.0024147E0,4.3458557E-1,3.5505886E0,1.0443565E1,0E0,9.735901E0,3.897961E0,1.2852196E1,3.496252E1,3.2735737E1,3.8236908E1,3.4626427E1,4.7516084E0,4.8718715E-1,3.4837067E-1,6.905579E-2,9.651232E-2,8.073182E-1,1.5133017E-1,2.0138826E0,1.520167E0,3.0520246E0,1.12285614E-1,2.4610267E0,1.1067257E1,9.558182E0,1.4610672E1,6.12105E0,5.4990444E0,0E0,0E0,6.069231E0,0E0,0E0,0E0,1.8918894E1,6.2730713E0,0E0,1.2924917E0,1.0261627E1,2.6566715E0,5.2459553E1,1.1265858E1,7.5594683E0,8.412018E1,4.0300896E1,2.1383653E0,5.8310714E0,7.4711914E1,1.5719194E0,4.1101336E0,0E0,0E0,0E0,0E0,0E0,0E0,0E0,0E0,0E0,0E0,0E0,0E0,0E0,0E0,0E0,0E0,0E0,0E0,0E0,0E0,0E0,0E0,0E0,0E0,0E0,0E0,0E0,0E0,0E0,0E0,0E0,0E0,0E0,0E0,0E0,0E0,0E0,0E0,0E0,0E0,0E0,0E0,0E0,0E0,0E0,0E0,0E0,0E0,0E0,0E0,0E0,0E0,0E0,0E0,0E0,0E0,0E0,0E0,0E0,0E0,0E0,0E0,0E0,0E0],"parents":[2147483647,0,0,1,1,2,2,3,3,4,4,5,5,6,6,7,7,8,8,9,9,10,10,11,11,12,12,13,13,14,14,16,16,19,19,20,20,21,21,22,22,23,23,26,26,27,27,28,28,29,29,30,30,33,33,34,34,35,35,36,36,37,37,38,38,39,39,40,40,41,41,42,42,43,43,45,45,46,46,47,47,48,48,49,49,50,50,51,51,52,52,53,53,54,54,55,55,56,56,57,57,58,58,59,59,60,60,61,61,62,62,63,63,64,64,65,65,66,66,67,67,68,68,71,71,75,75,76,76,78,78,79,79,80,80,81,81,82,82,83,83,84,84,85,85,86,86,87,87,88,88,89,89,90,90],"right_children":[2,4,6,8,10,12,14,16,18,20,22,24,26,28,30,-1,32,-1,-1,34,36,38,40,42,-1,-1,44,46,48,50,52,-1,-1,54,56,58,60,62,64,66,68,70,72,74,-1,76,78,80,82,84,86,88,90,92,94,96,98,100,102,104,106,108,110,112,114,116,118,120,122,-1,-1,124,-1,-1,-1,126,128,-1,130,132,134,136,138,140,142,144,146,148,150,152,154,-1,-1,-1,-1,-1,-1,-1,-1,-1,-1,-1,-1,-1,-1,-1,-1,-1,-1,-1,-1,-1,-1,-1,-1,-1,-1,-1,-1,-1,-1,-1,-1,-1,-1,-1,-1,-1,-1,-1,-1,-1,-1,-1,-1,-1,-1,-1,-1,-1,-1,-1,-1,-1,-1,-1,-1,-1,-1,-1,-1,-1,-1,-1,-1],"split_conditions":[6.621175E-1,2.7272727E-2,2.7272727E-2,5.5555556E-2,6.52107E-1,8.349742E-1,8.352535E-1,2.083415E-1,3.7807107E-1,4.4565028E-1,6.142506E-3,8.2200134E-1,1.6666667E-1,8.2552147E-1,2.349658E-2,-4.425942E-4,5.247395E-1,-2.8612274E-3,-3.5498593E-2,4.3256068E-1,1.7924018E-1,3.9234042E-1,1.3267812E-1,7.876776E-1,4.6745047E-1,-2.2209823E-1,8.7090075E-1,8.1822E-1,3.132877E-2,3.888889E-1,4.6903133E-2,2.8186364E-2,6.07642E-3,3.989272E-1,5.5555556E-2,3.5106385E-1,3.3636364E-1,1.6666667E-1,1.6897732E-1,2.6620454E-1,3.3636364E-1,7.753007E-1,8.0442405E-1,2.777778E-1,1.0508551E-1,1.8181819E-1,2.349658E-2,4.2424244E-1,1.8427517E-2,2.777778E-1,1.8181819E-1,4.0061217E-2,5.0054014E-2,3.9022523E-1,8.30303E-1,6.4496315E-1,9.212121E-1,5E-1,6.341465E-1,4.9666905E-1,6.474741E-1,1.6276558E-1,1.2657544E-1,1.6636658E-1,1.810407E-1,2.5990278E-1,3.5106385E-1,3.307526E-1,9.212121E-1,1.404895E-1,6.172765E-2,4.4444448E-1,4.2509967E-3,1.3487425E-2,-4.6994198E-2,7.703592E-1,6.3859776E-2,-2.286476E-2,1.6666667E-1,3.3333334E-1,1.3636363E-1,6.818182E-1,4.2424244E-1,8.7090075E-1,8.7090075E-1,8.7090075E-1,8.664447E-1,8.30303E-1,4.204177E-2,9.8790765E-1,9.5682657E-1,-2.208379E-4,-3.939054E-3,1.7339023E-3,4.0485472E-3,-2.4894988E-3,9.643816E-5,-4.212077E-3,-1.6289806E-3,1.4459352E-2,1.4047025E-4,4.9327323E-3,1.1227295E-3,3.2987117E-3,2.5505625E-2,7.83909E-4,5.038751E-3,1.3339972E-3,-1.902614E-2,-2.3885945E-2,-3.4931067E-2,-4.7806604E-3,-2.3123043E-2,2.1410804E-2,-2.2617642E-2,3.78879E-3,3.1508096E-2,1.5711972E-2,-8.59487E-3,-9.021057E-3,1.4619994E-3,-1.5354258E-3,-4.505047E-3,-5.4873664E-2,2.8515726E-3,5.4210704E-2,3.9924956E-3,3.7619364E-4,3.2864013E-3,1.5634714E-3,-2.0046441E-3,5.0451092E-2,1.1986811E-1,2.1805223E-3,3.188939E-2,-1.680122E-2,4.6421636E-2,1.6789071E-2,4.894305E-3,4.5170207E-3,-2.79525E-2,-2.534874E-2,1.0900356E-1,-9.043843E-3,-1.6430081E-1,-2.8383726E-2,4.9385936E-3,7.950606E-3,-1.2854978E-2,1.4499031E-1,7.335329E-3,-2.8347608E-3,-2.5967823E-2,-3.504841E-3,1.636063E-3],"split_indices":[1,2,2,4,1,1,1,1,1,1,11,1,4,1,5,0,1,0,0,1,5,10,11,1,0,0,1,1,5,4,5,0,0,1,4,10,2,4,5,5,2,1,1,4,0,2,5,2,11,4,2,5,5,1,2,11,2,4,1,5,1,5,5,5,5,5,10,5,2,0,0,4,0,0,0,1,9,0,4,4,11,2,2,1,1,1,1,2,5,6,6,0,0,0,0,0,0,0,0,0,0,0,0,0,0,0,0,0,0,0,0,0,0,0,0,0,0,0,0,0,0,0,0,0,0,0,0,0,0,0,0,0,0,0,0,0,0,0,0,0,0,0,0,0,0,0,0,0,0,0,0,0,0,0,0],"split_type":[0,0,0,0,0,0,0,0,0,0,0,0,0,0,0,0,0,0,0,0,0,0,0,0,0,0,0,0,0,0,0,0,0,0,0,0,0,0,0,0,0,0,0,0,0,0,0,0,0,0,0,0,0,0,0,0,0,0,0,0,0,0,0,0,0,0,0,0,0,0,0,0,0,0,0,0,0,0,0,0,0,0,0,0,0,0,0,0,0,0,0,0,0,0,0,0,0,0,0,0,0,0,0,0,0,0,0,0,0,0,0,0,0,0,0,0,0,0,0,0,0,0,0,0,0,0,0,0,0,0,0,0,0,0,0,0,0,0,0,0,0,0,0,0,0,0,0,0,0,0,0,0,0,0,0],"sum_hessian":[7.885E3,3.757E3,4.128E3,1.6E1,3.741E3,1.6E1,4.112E3,4E0,1.2E1,1.507E3,2.234E3,7E0,9E0,2.685E3,1.427E3,1E0,3E0,1E0,1.1E1,1.092E3,4.15E2,6.6E1,2.168E3,6E0,1E0,1E0,8E0,2.152E3,5.33E2,2.6E1,1.401E3,1E0,2E0,1.031E3,6.1E1,2.9E1,3.86E2,2.5E1,4.1E1,1.34E2,2.034E3,2E0,4E0,4E0,4E0,1.942E3,2.1E2,1.3E1,5.2E2,2E1,6E0,3.4E1,1.367E3,9.15E2,1.16E2,1.6E1,4.5E1,1E1,1.9E1,8E0,3.78E2,1.3E1,1.2E1,3.1E1,1E1,8.3E1,5.1E1,1.23E2,1.911E3,1E0,1E0,3E0,1E0,2E0,2E0,1.4E1,1.928E3,3E0,2.07E2,8E0,5E0,2.6E1,4.94E2,1.3E1,7E0,3E0,3E0,2.7E1,7E0,5E0,1.362E3,9.01E2,1.4E1,7.5E1,4.1E1,9E0,7E0,3.7E1,8E0,8E0,2E0,1.2E1,7E0,6E0,2E0,3.41E2,3.7E1,9E0,4E0,5E0,7E0,2.8E1,3E0,7E0,3E0,7.8E1,5E0,1.3E1,3.8E1,9.4E1,2.9E1,1.616E3,2.95E2,2E0,1E0,4E0,1E1,3.66E2,1.562E3,5.5E1,1.52E2,7E0,1E0,2E0,3E0,7E0,1.9E1,3.4E1,4.6E2,4E0,9E0,4E0,3E0,1E0,2E0,2E0,1E0,2E1,7E0,2E0,5E0,2E0,3E0,6.5E1,1.297E3],"tree_param":{"num_deleted":"0","num_feature":"12","num_nodes":"155","size_leaf_vector":"0"}},{"base_weights":[5.703976E-2,-6.1730005E-2,1.6401498E-1,1.8806782E-2,-1.1865558E-1,3.9090133E0,1.5108033E-1,-7.6858057E-3,8.832729E-2,-2.6449433E-1,-6.724137E-2,4.032398E-1,1.5432968E1,1.7701791E-1,3.535511E-2,1.6930525E-4,-1.4671093E-1,3.4864983E-1,6.9840014E-2,-1.0690372E0,-2.4955434E-1,3.7766755E-1,-8.23083E-2,5.6973433E0,-9.3322384E-1,3.085979E-1,1.5147826E-1,2.5182098E-2,1.8833074E-1,-1.4755667E-2,1.0565364E-1,-1.5332232E-1,3.34179E-2,2.4477798E-1,6.3301975E-1,5.544538E-1,5.947713E-2,-1.8254048E-1,-4.331568E-1,-1.9143131E-1,8.459542E-1,-1.4225282E-1,-9.5455785E-4,6.919121E0,3.0400903E0,-1.6563158E0,2.5252517E-2,1.4325726E-1,4.7172752E-1,1.8120606E-1,7.523437E-2,4.033288E-2,-3.7062302E-1,4.4491908E-1,1.3976686E-1,-1.1584854E-2,-1.9185697E-1,4.022321E-1,9.284248E-2,2.9371785E-2,-1.6023557E-1,1.1304225E-1,-4.3866582E-2,8.949532E-1,1.974235E-1,8.4604496E-1,4.954489E-2,2.654846E-1,1.2534207E0,3.7609734E-2,2.8027973E-1,-1.4489937E-1,-6.9180524E-1,9.385008E-2,-4.8337507E-1,7.861566E-1,-4.5855168E-1,9.9559355E-1,-1.0216496E0,-9.9535257E-1,-1.3618308E-1,1.9769107E0,-1.3877238E-2,2.0936157E-1,-2.1062455E0,3.7499595E0,-1.4629701E0,6.397109E-1,-4.798399E-2,9.872821E-1,2.7185476E-1,5.214485E-2,2.2239311E-1,-2.3949234E-1,8.679622E-2,-6.1205337E-3,7.843911E-2,-8.736885E-1,-3.387016E-1,5.6550488E-2,1.9312298E-1,-1.7398281E-2,8.8499494E-2,-1.1859897E-1,-2.7442476E-1,4.3667808E-1,1.7900443E-1,-8.7211555E-1,1.1067496E-1,5.6163773E-2,-0E0,-1.7114487E-1,-6.2848024E-2,-8.098414E-2,2.300461E-1,2.7954376E-1,9.519686E-1,8.6038996E-4,7.514237E-2,1.1808956E-1,7.779302E-1,-1.9932774E-4,1.4357343E-1,3.669922E-1,2.4086753E-2,-1.6301617E-1,1.1534077E0,-8.7855214E-1,-3.3677652E-1,-1.383268E0,3.964741E-1,-6.0110396E-1,-2.4751875E-1,-1.0336093E0,1.2889196E0,-1.0651344E0,-0E0,6.097474E-1,1.3844081E0,-7.309569E-1,-1.338003E0,2.0800795E-1,-1.5566465E-1,-4.372103E-2,2.591728E0,3.4195897E-1,-5.4668438E-2,3.7343085E-1,-2.3094316E0,2.9710305E0,4.6221197E-1,9.227142E-3,-3.4224218E-1,6.923937E-1,1.8592606E0,-3.1153366E-1,4.6152982E-1,2.4126308E0,4.5713376E-2,5.257298E-1,2.0268387E-1,-5.783457E-1,-9.598744E-2,1.0525703E0,8.380687E-2,1.3283831E-1,-3.8292937E-2,4.7869612E-3,1.6183127E-1,-5.8136184E-2,-4.060377E-1,9.413005E-2,-9.514117E-2,2.2337247E-1,1.10898085E-1],"categories":[],"categories_nodes":[],"categories_segments":[],"categories_sizes":[],"default_left":[true,true,true,true,true,true,true,true,true,true,true,true,false,true,true,true,true,true,true,false,true,true,true,true,true,true,true,true,true,true,true,true,true,true,true,true,true,true,true,true,true,true,true,false,false,true,true,true,true,true,true,true,true,false,true,true,true,true,true,true,true,false,false,false,true,true,true,true,false,true,true,true,true,true,true,true,true,true,false,true,true,true,true,false,false,false,true,true,true,true,true,true,true,true,true,true,true,false,true,true,true,false,false,false,false,false,false,false,false,false,false,false,false,false,false,false,false,false,false,false,false,false,false,false,false,false,false,false,false,false,false,false,false,false,false,false,false,false,false,false,false,false,false,false,false,false,false,false,false,false,false,false,false,false,false,false,false,false,false,false,false,false,false,false,false,false,false,false,false,false,false,false,false,false,false],"id":186,"left_children":[1,3,5,7,9,11,13,15,17,19,21,23,-1,25,27,29,31,33,35,-1,37,39,41,43,45,47,49,51,53,55,57,59,61,63,65,67,69,71,73,75,77,79,81,-1,-1,83,85,87,89,91,93,95,97,-1,99,101,103,105,107,109,111,-1,-1,-1,113,115,117,119,-1,121,123,125,127,129,131,133,135,137,-1,139,141,143,145,-1,-1,-1,147,149,151,153,155,157,159,161,163,165,167,-1,169,171,173,-1,-1,-1,-1,-1,-1,-1,-1,-1,-1,-1,-1,-1,-1,-1,-1,-1,-1,-1,-1,-1,-1,-1,-1,-1,-1,-1,-1,-1,-1,-1,-1,-1,-1,-1,-1,-1,-1,-1,-1,-1,-1,-1,-1,-1,-1,-1,-1,-1,-1,-1,-1,-1,-1,-1,-1,-1,-1,-1,-1,-1,-1,-1,-1,-1,-1,-1,-1,-1,-1,-1,-1,-1,-1],"loss_changes":[1.0068683E2,1.721888E1,2.0170868E2,2.8659556E0,1.6487843E1,5.767765E2,1.2467674E1,1.2321198E0,2.052144E0,6.7836075E0,1.0914843E1,8.202958E1,0E0,1.1384529E1,1.1801775E0,1.6805996E0,7.5270176E-2,7.727227E-1,1.9957409E0,0E0,6.896057E0,1.4276785E1,7.67548E0,4.192276E-1,6.505931E0,1.4839237E1,6.4363937E0,4.283957E0,5.60742E-1,5.210367E-1,4.832878E-1,7.711184E-2,1.6999884E-2,5.823289E-1,8.847599E-1,1.5505607E0,1.891113E0,7.877944E0,3.9993153E0,6.469829E0,8.536554E0,4.631731E0,1.7063297E1,0E0,0E0,4.6511497E0,2.5883343E1,2.606456E1,2.8470451E1,1.0864494E1,2.9097466E0,1.2196552E0,3.0690312E-1,0E0,1.718815E-1,5.338161E-1,8.233762E-2,6.161928E-3,2.2124279E0,2.1931722E-3,5.2925825E-2,0E0,0E0,0E0,1.9301504E-1,2.1373105E-1,1.8023052E-3,4.34964E-1,0E0,1.4376776E0,7.764113E-1,9.11207E0,1.7625217E0,6.129024E0,3.7516327E0,5.3275576E0,5.389175E0,3.790699E0,0E0,2.181282E-1,6.0471325E0,5.4576855E0,9.644927E0,0E0,0E0,0E0,5.4968953E0,3.1080397E1,3.344716E0,1.9419556E1,2.2217834E1,7.448015E0,9.222801E0,1.3496442E0,2.1783524E0,1.3877368E0,2.3210936E0,0E0,4.6411157E-1,9.608106E-2,4.7495067E-2,0E0,0E0,0E0,0E0,0E0,0E0,0E0,0E0,0E0,0E0,0E0,0E0,0E0,0E0,0E0,0E0,0E0,0E0,0E0,0E0,0E0,0E0,0E0,0E0,0E0,0E0,0E0,0E0,0E0,0E0,0E0,0E0,0E0,0E0,0E0,0E0,0E0,0E0,0E0,0E0,0E0,0E0,0E0,0E0,0E0,0E0,0E0,0E0,0E0,0E0,0E0,0E0,0E0,0E0,0E0,0E0,0E0,0E0,0E0,0E0,0E0,0E0,0E0,0E0,0E0,0E0,0E0,0E0,0E0,0E0,0E0,0E0,0E0,0E0],"parents":[2147483647,0,0,1,1,2,2,3,3,4,4,5,5,6,6,7,7,8,8,9,9,10,10,11,11,13,13,14,14,15,15,16,16,17,17,18,18,20,20,21,21,22,22,23,23,24,24,25,25,26,26,27,27,28,28,29,29,30,30,31,31,32,32,33,33,34,34,35,35,36,36,37,37,38,38,39,39,40,40,41,41,42,42,45,45,46,46,47,47,48,48,49,49,50,50,51,51,52,52,54,54,55,55,56,56,57,57,58,58,59,59,60,60,64,64,65,65,66,66,67,67,69,69,70,70,71,71,72,72,73,73,74,74,75,75,76,76,77,77,79,79,80,80,81,81,82,82,86,86,87,87,88,88,89,89,90,90,91,91,92,92,93,93,94,94,95,95,96,96,98,98,99,99,100,100],"right_children":[2,4,6,8,10,12,14,16,18,20,22,24,-1,26,28,30,32,34,36,-1,38,40,42,44,46,48,50,52,54,56,58,60,62,64,66,68,70,72,74,76,78,80,82,-1,-1,84,86,88,90,92,94,96,98,-1,100,102,104,106,108,110,112,-1,-1,-1,114,116,118,120,-1,122,124,126,128,130,132,134,136,138,-1,140,142,144,146,-1,-1,-1,148,150,152,154,156,158,160,162,164,166,168,-1,170,172,174,-1,-1,-1,-1,-1,-1,-1,-1,-1,-1,-1,-1,-1,-1,-1,-1,-1,-1,-1,-1,-1,-1,-1,-1,-1,-1,-1,-1,-1,-1,-1,-1,-1,-1,-1,-1,-1,-1,-1,-1,-1,-1,-1,-1,-1,-1,-1,-1,-1,-1,-1,-1,-1,-1,-1,-1,-1,-1,-1,-1,-1,-1,-1,-1,-1,-1,-1,-1,-1,-1,-1,-1,-1,-1],"split_conditions":[6.621175E-1,6.52107E-1,2.7272727E-2,4.4565028E-1,2.6134318E-1,8.7090075E-1,1.3137093E-1,4.3256068E-1,1.0415916E-1,2.7272727E-2,2.8447968E-1,7.876776E-1,3.0865934E-1,1.7491898E-1,9.859468E-1,3.989272E-1,9.789341E-1,6.621622E-1,3.3636364E-1,-2.1380743E-2,8.30303E-1,1.6584766E-1,6.9940585E-1,7.753007E-1,8.2218254E-1,8.2218254E-1,8.4422266E-1,9.699887E-1,2.0345697E-1,3.9022523E-1,3.682031E-2,7.148001E-2,7.5757575E-1,2.8267916E-2,7.008511E-1,4.9666905E-1,6.474741E-1,2.4567878E-1,3.790061E-2,2.664746E-1,9.533169E-1,2.8592008E-1,7.019266E-1,1.3838242E-1,6.0801804E-2,9.8790765E-1,8.349742E-1,7.6933527E-1,8.349742E-1,7.635859E-1,2.0255671E-1,7.998252E-1,4.1951746E-2,8.898381E-3,6.4496315E-1,3.8253418E-1,3.9342475E-1,7.4242425E-1,5.3745046E-2,6.969697E-1,9.212121E-1,2.260845E-3,-8.7733165E-4,1.7899064E-2,2.0297873E-1,4.2424244E-1,5.648677E-1,6.433126E-1,2.5068413E-2,8.30303E-1,6.4979887E-1,2.4405834E-1,3.6468086E-1,3.5106385E-1,2.2481573E-1,2.635038E-1,2.735866E-1,2.7376664E-1,-2.0432992E-2,8.30303E-1,3.0554554E-1,2.7021277E-1,7.3541594E-1,4.1872314E-3,-4.212491E-2,7.499919E-2,8.4844077E-1,1.8181819E-1,8.0966675E-1,9.212121E-1,8.5870504E-1,1.8427517E-2,7.6706135E-1,2.0884521E-2,1.8427517E-2,7.2128004E-1,6.040691E-1,-1.747377E-2,3.1382787E-1,7.065178E-1,9.533169E-1,-3.479656E-4,1.7699898E-3,-2.3719794E-3,-5.488495E-3,8.733561E-3,3.5800885E-3,-1.744231E-2,2.2134993E-3,1.1232755E-3,-0E0,-3.4228973E-3,-1.2569604E-3,-1.6196828E-3,4.6009216E-3,5.590875E-3,1.9039372E-2,1.7207798E-5,1.5028473E-3,2.361791E-3,1.5558603E-2,-3.986555E-6,2.8714687E-3,7.339844E-3,4.8173504E-4,-3.2603233E-3,2.3068154E-2,-1.7571043E-2,-6.73553E-3,-2.766536E-2,7.929482E-3,-1.2022079E-2,-4.950375E-3,-2.0672185E-2,2.577839E-2,-2.1302687E-2,-0E0,1.2194948E-2,2.7688162E-2,-1.4619138E-2,-2.676006E-2,4.160159E-3,-3.113293E-3,-8.744206E-4,5.1834557E-2,6.8391794E-3,-1.0933687E-3,7.4686166E-3,-4.618863E-2,5.9420608E-2,9.244239E-3,1.8454283E-4,-6.8448433E-3,1.38478745E-2,3.718521E-2,-6.2306733E-3,9.230596E-3,4.8252616E-2,9.142675E-4,1.0514596E-2,4.0536774E-3,-1.1566914E-2,-1.9197487E-3,2.1051407E-2,1.6761374E-3,2.6567662E-3,-7.6585874E-4,9.5739226E-5,3.2366253E-3,-1.1627236E-3,-8.120754E-3,1.882601E-3,-1.9028235E-3,4.4674496E-3,2.2179617E-3],"split_indices":[1,1,2,1,5,1,7,1,5,2,5,1,0,5,1,1,5,11,2,0,2,11,5,1,1,1,1,1,5,1,5,5,2,5,10,5,1,5,5,5,11,5,5,0,0,6,1,1,1,1,5,1,5,0,11,1,1,2,5,2,2,0,0,0,10,2,1,1,0,2,1,5,10,10,11,5,5,5,0,2,5,10,5,0,0,0,1,2,1,2,1,11,1,11,11,1,5,0,5,5,11,0,0,0,0,0,0,0,0,0,0,0,0,0,0,0,0,0,0,0,0,0,0,0,0,0,0,0,0,0,0,0,0,0,0,0,0,0,0,0,0,0,0,0,0,0,0,0,0,0,0,0,0,0,0,0,0,0,0,0,0,0,0,0,0,0,0,0,0,0,0,0,0,0,0],"split_type":[0,0,0,0,0,0,0,0,0,0,0,0,0,0,0,0,0,0,0,0,0,0,0,0,0,0,0,0,0,0,0,0,0,0,0,0,0,0,0,0,0,0,0,0,0,0,0,0,0,0,0,0,0,0,0,0,0,0,0,0,0,0,0,0,0,0,0,0,0,0,0,0,0,0,0,0,0,0,0,0,0,0,0,0,0,0,0,0,0,0,0,0,0,0,0,0,0,0,0,0,0,0,0,0,0,0,0,0,0,0,0,0,0,0,0,0,0,0,0,0,0,0,0,0,0,0,0,0,0,0,0,0,0,0,0,0,0,0,0,0,0,0,0,0,0,0,0,0,0,0,0,0,0,0,0,0,0,0,0,0,0,0,0,0,0,0,0,0,0,0,0,0,0,0,0],"sum_hessian":[7.924E3,3.755E3,4.169E3,1.555E3,2.2E3,1.4E1,4.155E3,1.126E3,4.29E2,5.73E2,1.627E3,1.1E1,3E0,3.394E3,7.61E2,1.066E3,6E1,2.8E1,4.01E2,1E1,5.63E2,5.3E1,1.574E3,2E0,9E0,5.51E2,2.843E3,7.14E2,4.7E1,9.34E2,1.32E2,5.8E1,2E0,2.1E1,7E0,8E0,3.93E2,4.13E2,1.5E2,2.4E1,2.9E1,9.06E2,6.68E2,1E0,1E0,5E0,4E0,2.74E2,2.77E2,2.045E3,7.98E2,6.88E2,2.6E1,7E0,4E1,9.18E2,1.6E1,5E0,1.27E2,2E0,5.6E1,1E0,1E0,1E0,2E1,5E0,2E0,6E0,2E0,3.58E2,3.5E1,3.85E2,2.8E1,1.3E1,1.37E2,5E0,1.9E1,2.7E1,2E0,6E0,9E2,4E0,6.64E2,1E0,4E0,1E0,3E0,7.6E1,1.98E2,7.7E1,2E2,4.95E2,1.55E3,2.8E1,7.7E2,3.1E2,3.78E2,1E0,2.5E1,1.6E1,2.4E1,8.68E2,5E1,9E0,7E0,4E0,1E0,2E0,1.25E2,1E0,1E0,5E1,6E0,2E0,1.8E1,1E0,4E0,1E0,1E0,5E0,1E0,2.64E2,9.4E1,2.6E1,9E0,3.8E2,5E0,1.8E1,1E1,2E0,1.1E1,9.1E1,4.6E1,1E0,4E0,8E0,1.1E1,1.4E1,1.3E1,4E0,2E0,4.8E1,8.52E2,1E0,3E0,6.8E1,5.96E2,1E0,2E0,5E0,7.1E1,1.66E2,3.2E1,5.8E1,1.9E1,4.9E1,1.51E2,1E0,4.94E2,9.4E1,1.456E3,8E0,2E1,2E0,7.68E2,5.8E1,2.52E2,2.01E2,1.77E2,5E0,2E1,1.3E1,3E0,1.7E1,7E0],"tree_param":{"num_deleted":"0","num_feature":"12","num_nodes":"175","size_leaf_vector":"0"}},{"base_weights":[4.5467578E-2,-6.595254E-2,1.4595173E-1,1.4391882E-2,-1.2355583E-1,8.912582E-1,1.2927802E-1,-5.9217014E-3,8.28191E-2,-3.7930626E-1,-8.576829E-2,-5.415414E-1,1.1104399E0,4.1910055E-1,1.20921776E-1,7.741025E-1,-7.4344585E-3,2.6272848E-1,4.581572E-2,-1.3344252E0,-3.3150008E-1,-8.810234E-2,1.8311789E0,-7.5023727E0,1.0464271E0,5.150628E-1,1.4687217E0,-5.5609908E-2,8.1564116E-1,3.966824E-2,1.4178994E-1,-2.1536825E-2,1.386853E0,-2.0526867E-2,1.2962955E-2,1.0827266E0,2.4291658E-1,-7.545702E-2,1.1447534E-1,3.1693822E-1,-1.6364228E0,3.4873445E-2,-4.151379E-1,9.5953934E-2,-1.0564463E-1,-1.9480463E0,-1.1169826E1,-4.6947697E-1,4.2809377E0,2.5151873E0,-1.2030559E-1,2.0555723E0,9.70781E-1,3.581488E-1,-1.5650605E-1,2.7354646E0,5.947174E-1,-8.95998E-2,5.2108217E-2,-6.527655E-1,1.4539914E-1,-8.6942455E-3,-1.4215198E-1,3.8272124E-2,-4.1405246E-2,3.8471845E-1,1.8399704E-1,9.762077E-3,-1.544316E-1,5.8082205E-1,1.034077E-1,-2.006168E0,-1.2366437E0,-2.508953E-2,4.1986194E-2,-3.3536023E-1,-8.413333E-1,3.0916072E-2,1.0754246E0,4.309617E-1,-1.1736607E-1,2.9944932E0,-1.1763266E0,1.9091109E0,4.7541246E0,3.8714403E-1,-5.1164114E-1,4.790329E0,1.5478531E0,1.9413124E0,2.7665538E-1,-2.672533E-1,1.24792E0,1.7035508E-1,-3.3848035E-1,1.7072834E0,3.075323E0,-2.6818597E-1,1.0026104E0,5.128922E-1,-1.281433E-1,2.4294981E-1,3.5770524E-2,5.479807E-1,-7.575954E-1,2.706076E-1,1.16881184E-1,3.9977383E-2,-1.9406728E-2,-1.810386E-1,-5.2421447E-2,4.1341134E-3,1.06826395E-1,-1.4413519E-1,3.1082088E-2,5.2855587E-1,1.6260035E-1,2.960136E-1,9.188972E-2,-2.1697691E-1,7.936897E-2,7.657978E-2,-1.77708E-1,-0E0,1.075581E0,2.873564E-1,7.699245E-2,1.037773E-1,-1.4971292E0,2.4395678E-2,-9.830875E-2,-2.289734E-2,4.5486186E-2,-5.6475765E-1,-1.4732224E-1,-8.8825077E-1,-4.4488573E-1,-8.308172E-1,7.935547E-2,-1.176375E0,1.3602438E0,6.300172E-3,9.2000777E-1,-2.4983913E-2,-1.9216186E-1,-1.9039992E0,-3.2669848E-1,3.8429904E0,1.3035632E0,1.6390086E0,1.9403368E-2,-4.1840976E-1,-1.235305E0,3.0717057E-1,1.1426856E1,5.778646E-1,2.3726418E0,1.2116731E0,3.0233898E0,7.3534626E-1,-7.1267253E-1,-3.222351E-1,8.793899E-3,-2.0906974E-1,2.694559E-1,-9.456925E-2,-3.9103624E-1,5.216182E-1,-3.7641877E-1,2.2316415E0,1.8001875E-1,7.346635E-1,-1.5906768E-1,-1.5601465E-1,2.0293318E-1,6.526236E-1,6.2976894E-3,-2.4056055E-2,5.292722E-2,-8.117115E-1,-5.6913104E-2,-8.068515E-2,2.8575453E-1,2.5485358E-1,1.0018942E-1],"categories":[],"categories_nodes":[],"categories_segments":[],"categories_sizes":[],"default_left":[true,true,true,true,true,true,true,true,true,true,true,true,true,true,true,true,true,true,true,true,true,true,false,true,true,true,true,true,true,true,true,false,false,true,true,false,true,true,true,false,true,true,true,true,true,false,false,true,false,true,true,true,true,true,true,true,true,true,true,true,true,true,true,true,true,true,true,true,true,true,true,false,true,true,true,true,true,true,true,true,true,false,true,true,false,true,true,true,true,true,true,true,false,true,true,false,false,true,true,true,true,true,true,false,true,true,true,false,false,false,false,false,false,false,false,false,false,false,false,false,false,false,false,false,false,false,false,false,false,false,false,false,false,false,false,false,false,false,false,false,false,false,false,false,false,false,false,false,false,false,false,false,false,false,false,false,false,false,false,false,false,false,false,false,false,false,false,false,false,false,false,false,false,false,false,false,false,false,false,false,false,false,false,false,false],"id":187,"left_children":[1,3,5,7,9,11,13,15,17,19,21,23,25,27,29,31,33,35,37,39,41,43,-1,45,47,49,51,53,55,57,59,-1,-1,61,63,-1,65,67,69,-1,71,73,75,77,79,-1,-1,81,-1,83,85,87,89,91,93,95,97,99,101,103,105,107,109,111,113,115,117,119,121,123,125,-1,127,129,131,133,135,137,139,141,143,-1,145,147,-1,149,151,153,155,157,159,161,-1,163,165,-1,-1,167,169,171,173,175,177,-1,179,181,183,-1,-1,-1,-1,-1,-1,-1,-1,-1,-1,-1,-1,-1,-1,-1,-1,-1,-1,-1,-1,-1,-1,-1,-1,-1,-1,-1,-1,-1,-1,-1,-1,-1,-1,-1,-1,-1,-1,-1,-1,-1,-1,-1,-1,-1,-1,-1,-1,-1,-1,-1,-1,-1,-1,-1,-1,-1,-1,-1,-1,-1,-1,-1,-1,-1,-1,-1,-1,-1,-1,-1,-1,-1,-1,-1,-1,-1,-1],"loss_changes":[8.894876E1,1.743776E1,5.185885E1,2.1881971E0,2.118895E1,2.8891335E1,9.871796E0,1.4227016E0,2.3904164E0,1.2720234E1,8.585177E0,1.390391E2,1.664228E1,2.1548325E1,6.7310715E0,1.1670686E0,3.2368475E-1,8.8979053E-1,2.4958491E0,6.841278E0,8.263353E0,6.171543E0,0E0,4.009012E1,5.139174E1,3.8683323E1,1.37074585E1,2.2005632E0,2.5847778E1,1.3073292E0,9.087311E0,0E0,0E0,1.0600044E0,6.517972E-1,0E0,4.7236228E-1,7.3166597E-1,9.577515E-1,0E0,8.017006E-1,2.20596E-2,7.346653E0,1.0569019E1,1.0983902E1,0E0,0E0,1.9104773E1,0E0,6.8295937E0,4.7014623E0,2.8446754E1,1.8203024E1,5.8754177E0,2.5396352E0,3.940506E-1,1.9927963E1,1.6729448E0,2.3045382E0,1.9456425E0,1.1218498E1,3.510373E-1,2.2147429E-1,7.5496936E-1,1.1225828E0,5.1526666E-1,4.324913E-1,8.2973796E-1,3.08892E-1,1.2376186E0,8.9768815E-1,0E0,2.283082E0,2.1178668E-2,1.0964386E-2,7.9565372E0,4.8781967E-1,6.5369143E0,7.16366E0,7.738234E0,1.1792627E1,0E0,3.676426E0,5.672886E0,0E0,4.7228723E0,7.036369E-1,9.784159E1,1.4968166E1,7.6660347E0,7.587142E0,1.0154262E-1,0E0,5.962062E-1,3.3112812E-1,0E0,0E0,1.6305999E0,3.858642E1,6.9296026E-1,6.312119E-1,5.6446714E0,7.022279E-1,0E0,4.777851E-1,3.11454E0,5.889786E0,0E0,0E0,0E0,0E0,0E0,0E0,0E0,0E0,0E0,0E0,0E0,0E0,0E0,0E0,0E0,0E0,0E0,0E0,0E0,0E0,0E0,0E0,0E0,0E0,0E0,0E0,0E0,0E0,0E0,0E0,0E0,0E0,0E0,0E0,0E0,0E0,0E0,0E0,0E0,0E0,0E0,0E0,0E0,0E0,0E0,0E0,0E0,0E0,0E0,0E0,0E0,0E0,0E0,0E0,0E0,0E0,0E0,0E0,0E0,0E0,0E0,0E0,0E0,0E0,0E0,0E0,0E0,0E0,0E0,0E0,0E0,0E0,0E0,0E0,0E0,0E0,0E0,0E0],"parents":[2147483647,0,0,1,1,2,2,3,3,4,4,5,5,6,6,7,7,8,8,9,9,10,10,11,11,12,12,13,13,14,14,15,15,16,16,17,17,18,18,19,19,20,20,21,21,23,23,24,24,25,25,26,26,27,27,28,28,29,29,30,30,33,33,34,34,36,36,37,37,38,38,40,40,41,41,42,42,43,43,44,44,47,47,49,49,50,50,51,51,52,52,53,53,54,54,55,55,56,56,57,57,58,58,59,59,60,60,61,61,62,62,63,63,64,64,65,65,66,66,67,67,68,68,69,69,70,70,72,72,73,73,74,74,75,75,76,76,77,77,78,78,79,79,80,80,82,82,83,83,85,85,86,86,87,87,88,88,89,89,90,90,91,91,93,93,94,94,97,97,98,98,99,99,100,100,101,101,102,102,104,104,105,105,106,106],"right_children":[2,4,6,8,10,12,14,16,18,20,22,24,26,28,30,32,34,36,38,40,42,44,-1,46,48,50,52,54,56,58,60,-1,-1,62,64,-1,66,68,70,-1,72,74,76,78,80,-1,-1,82,-1,84,86,88,90,92,94,96,98,100,102,104,106,108,110,112,114,116,118,120,122,124,126,-1,128,130,132,134,136,138,140,142,144,-1,146,148,-1,150,152,154,156,158,160,162,-1,164,166,-1,-1,168,170,172,174,176,178,-1,180,182,184,-1,-1,-1,-1,-1,-1,-1,-1,-1,-1,-1,-1,-1,-1,-1,-1,-1,-1,-1,-1,-1,-1,-1,-1,-1,-1,-1,-1,-1,-1,-1,-1,-1,-1,-1,-1,-1,-1,-1,-1,-1,-1,-1,-1,-1,-1,-1,-1,-1,-1,-1,-1,-1,-1,-1,-1,-1,-1,-1,-1,-1,-1,-1,-1,-1,-1,-1,-1,-1,-1,-1,-1,-1,-1,-1,-1,-1,-1],"split_conditions":[6.621175E-1,6.572582E-1,7.4137926E-2,6.028142E-1,2.086207E-1,2.7272727E-2,1.8427517E-2,2.7272727E-2,6.2553835E-1,2.7272727E-2,8.333334E-1,1.6666667E-1,8.2218254E-1,6.818182E-1,9.8790765E-1,2.083415E-1,3.279013E-1,5.0082594E-1,6.341465E-1,5.5555556E-2,5.5555556E-2,2.6206896E-1,3.662358E-2,8.39857E-1,8.7090075E-1,7.703592E-1,2.2170213E-1,6E-2,7.563598E-1,1.3882065E-1,5.5555556E-2,-4.307365E-4,2.7737059E-2,3.2117623E-1,4.3256068E-1,2.1654531E-2,3.1034482E-1,6.324857E-1,3.3636364E-1,6.3387644E-3,1.6666667E-1,5.0041294E-1,6.621622E-1,3.888889E-1,4.1296717E-4,-3.8960926E-2,-2.2339651E-1,7.876776E-1,8.561875E-2,7.6706135E-1,1.6666667E-1,1.6666667E-1,8.349742E-1,8.574343E-1,7.9132783E-1,7.305125E-1,8.2174015E-1,1.4482759E-1,1.4619164E-1,7.510687E-1,1.6666667E-1,6.0824133E-2,3.230865E-1,3.989272E-1,4.4565028E-1,6.4742017E-1,6.108357E-1,6.26517E-1,1.6666667E-1,6.4487445E-1,1.6666667E-1,-4.012336E-2,2.777778E-1,1.5862069E-1,2.1276595E-3,3.9234042E-1,3.888889E-1,2.7021277E-1,3.3636364E-1,7.008511E-1,3.9234042E-1,5.9889864E-2,8.31193E-1,7.290039E-1,9.508249E-2,9.8790765E-1,8.0966675E-1,8.7090075E-1,2.777778E-1,9.9787235E-1,2.777778E-1,8.2218254E-1,2.49584E-2,7.5787616E-1,9.8790765E-1,3.414567E-2,6.150646E-2,7.86195E-1,8.349742E-1,7.4242425E-1,9.859468E-1,9.5682657E-1,3.4520882E-1,1.0959614E-2,8.0838656E-1,4.1296717E-4,2.3620689E-1,7.9954765E-4,-3.8813456E-4,-3.620772E-3,-1.0484289E-3,8.2682265E-5,2.1365278E-3,-2.8827037E-3,6.2164175E-4,1.05711175E-2,3.252007E-3,5.920272E-3,1.8377943E-3,-4.339538E-3,1.5873794E-3,1.5315956E-3,-3.55416E-3,-0E0,2.1511618E-2,5.747128E-3,1.539849E-3,2.075546E-3,-2.9942583E-2,4.8791355E-4,-1.966175E-3,-4.579468E-4,9.097237E-4,-1.1295153E-2,-2.9464448E-3,-1.7765015E-2,-8.897714E-3,-1.6616344E-2,1.5871094E-3,-2.35275E-2,2.7204875E-2,1.2600343E-4,1.8400155E-2,-4.9967825E-4,-3.8432372E-3,-3.8079984E-2,-6.5339697E-3,7.685981E-2,2.6071263E-2,3.278017E-2,3.8806736E-4,-8.368195E-3,-2.47061E-2,6.143411E-3,2.2853711E-1,1.1557291E-2,4.7452834E-2,2.4233462E-2,6.0467795E-2,1.4706925E-2,-1.4253451E-2,-6.444702E-3,1.7587797E-4,-4.181395E-3,5.389118E-3,-1.891385E-3,-7.8207245E-3,1.04323635E-2,-7.5283754E-3,4.463283E-2,3.600375E-3,1.46932695E-2,-3.1813534E-3,-3.120293E-3,4.0586633E-3,1.3052472E-2,1.2595378E-4,-4.811211E-4,1.0585444E-3,-1.623423E-2,-1.1382621E-3,-1.6137031E-3,5.7150903E-3,5.0970716E-3,2.0037882E-3],"split_indices":[1,1,3,1,3,2,11,2,1,2,4,4,1,2,6,1,1,8,1,4,4,3,0,1,1,1,10,10,1,11,4,0,0,1,1,0,3,1,2,0,4,8,11,4,8,0,0,1,0,1,4,4,1,1,1,1,1,3,11,1,4,1,1,1,1,11,1,1,4,1,4,0,4,3,10,10,4,10,2,10,10,0,1,1,0,6,1,1,4,10,4,1,0,1,6,0,0,1,1,2,1,6,11,0,1,8,3,0,0,0,0,0,0,0,0,0,0,0,0,0,0,0,0,0,0,0,0,0,0,0,0,0,0,0,0,0,0,0,0,0,0,0,0,0,0,0,0,0,0,0,0,0,0,0,0,0,0,0,0,0,0,0,0,0,0,0,0,0,0,0,0,0,0,0,0,0,0,0,0,0,0,0,0,0,0],"split_type":[0,0,0,0,0,0,0,0,0,0,0,0,0,0,0,0,0,0,0,0,0,0,0,0,0,0,0,0,0,0,0,0,0,0,0,0,0,0,0,0,0,0,0,0,0,0,0,0,0,0,0,0,0,0,0,0,0,0,0,0,0,0,0,0,0,0,0,0,0,0,0,0,0,0,0,0,0,0,0,0,0,0,0,0,0,0,0,0,0,0,0,0,0,0,0,0,0,0,0,0,0,0,0,0,0,0,0,0,0,0,0,0,0,0,0,0,0,0,0,0,0,0,0,0,0,0,0,0,0,0,0,0,0,0,0,0,0,0,0,0,0,0,0,0,0,0,0,0,0,0,0,0,0,0,0,0,0,0,0,0,0,0,0,0,0,0,0,0,0,0,0,0,0,0,0,0,0,0,0,0,0,0,0,0,0],"sum_hessian":[7.944E3,3.767E3,4.177E3,1.573E3,2.194E3,9.1E1,4.086E3,1.213E3,3.6E2,2.82E2,1.912E3,1.2E1,7.9E1,1.14E2,3.972E3,2E0,1.211E3,6.1E1,2.99E2,1.3E1,2.69E2,1.91E3,2E0,2E0,1E1,3E1,4.9E1,5.2E1,6.2E1,8.12E2,3.16E3,1E0,1E0,7.38E2,4.73E2,1E0,6E1,1.08E2,1.91E2,2E0,1.1E1,5E1,2.19E2,1.66E2,1.744E3,1E0,1E0,7E0,3E0,7E0,2.3E1,2.2E1,2.7E1,1E1,4.2E1,6E0,5.6E1,7.1E1,7.41E2,1.4E1,3.146E3,6.73E2,6.5E1,3.23E2,1.5E2,1.7E1,4.3E1,5.2E1,5.6E1,4E0,1.87E2,5E0,6E0,5E0,4.5E1,1.85E2,3.4E1,1.56E2,1E1,3.7E1,1.707E3,1E0,6E0,6E0,1E0,1E1,1.3E1,3E0,1.9E1,1.1E1,1.6E1,6E0,4E0,1.5E1,2.7E1,2E0,4E0,1.8E1,3.8E1,4E0,6.7E1,5.8E1,6.83E2,1E0,1.3E1,5.83E2,2.563E3,1.21E2,5.52E2,4.5E1,2E1,2.16E2,1.07E2,6.2E1,8.8E1,1E1,7E0,1.9E1,2.4E1,1.2E1,4E1,5E0,5.1E1,2E0,2E0,2.3E1,1.64E2,1E0,5E0,3E0,2E0,2E0,4.3E1,8.3E1,1.02E2,3E1,4E0,8E0,1.48E2,1E0,9E0,2E1,1.7E1,7.64E2,9.43E2,3E0,3E0,1E0,5E0,2E0,8E0,1.2E1,1E0,2E0,1E0,9E0,1E1,7E0,4E0,1.1E1,5E0,5E0,1E0,3E0,1.2E1,5E0,2.2E1,2E0,1.6E1,1.5E1,2.3E1,3E0,1E0,6.2E1,5E0,2.1E1,3.7E1,1.52E2,5.31E2,1.2E1,1E0,2.4E1,5.59E2,2.76E2,2.287E3],"tree_param":{"num_deleted":"0","num_feature":"12","num_nodes":"185","size_leaf_vector":"0"}},{"base_weights":[4.630904E-2,2.2560608E0,3.8601473E-2,1.3304245E0,3.193625E0,1.628209E-1,2.6547657E-2,1.7443945E0,-1.041613E0,3.4297209E0,2.0058772E-1,1.7857547E-1,-3.6085284E-1,-6.0026306E-1,2.7984051E-2,5.4200524E-1,2.5375986E0,2.1351492E-1,-7.2915845E-2,-2.0220828E0,8.638599E-2,4.9949142E-1,-6.837787E-1,3.3059068E-2,-3.8271543E-2,2.4343371E-1,1.3660526E0,-1.4033188E-1,2.9700613E0,3.4682178E-1,1.4607933E-1,-5.2120256E-1,-8.340794E-3,-1.12403E-1,3.37406E-1,-3.8470805E-1,-8.607622E-1,3.182254E-2,4.5421532E-1,7.119988E-1,-4.624045E-2,-2.121392E-2,3.2922596E-1,2.6271632E-1,9.732429E-1,-6.002389E-2,2.2521013E-1,-6.2290514E-1,3.1029657E-1,-8.377779E-2,2.7297726E-1,-0E0,-1.9408856E-1,9.044815E-2,3.6938402E-1,1.6151503E-1,-4.9989527E-1,-1.328813E-1,-9.410774E-1,-2.2008585E-2,3.8710997E-2,1.1695922E-1,7.4279577E-1,1.0502298E0,-5.545313E-1,-1.8510418E-1,-1.1536986E-2,4.047598E-1,-1.353613E-1,1.4826777E0,-1.343783E-3,2.4223447E-1,-1.5546885E-1,1.1346836E0,1.9062673E-1,-0E0,-6.9642085E-1,1.355873E-1,-3.1040257E-1,2.0919135E0,9.641195E-2,2.7694193E-1,4.821568E-1,-1.1795586E-1,-7.129704E-1,1.6409788E-2,-1.5574889E-1,6.759586E-2,2.2850744E-2,-1.4237136E-2,1.5533184E-1,1.042775E0,3.936993E-1,-1.5397081E-2,1.375724E0,4.1248944E-2,-2.8671408E-1,-5.7647996E-2,1.6773984E-1],"categories":[],"categories_nodes":[],"categories_segments":[],"categories_sizes":[],"default_left":[true,true,true,true,true,true,true,true,false,false,false,true,true,true,true,true,true,true,true,false,true,false,true,true,true,true,false,false,false,true,true,true,true,true,true,true,true,true,true,true,true,false,false,true,true,true,true,true,false,true,true,false,false,false,true,false,true,false,false,true,true,true,true,true,false,true,true,false,false,false,false,false,false,false,false,false,false,false,false,false,false,false,false,false,false,false,false,false,false,false,false,false,false,false,false,false,false,false,false],"id":188,"left_children":[1,3,5,7,9,11,13,15,-1,-1,-1,17,19,21,23,25,27,29,31,-1,33,-1,35,37,39,41,-1,-1,-1,43,45,47,49,51,53,55,57,59,61,63,65,-1,-1,67,69,71,73,75,-1,77,79,-1,-1,-1,81,-1,83,-1,-1,85,87,89,91,93,-1,95,97,-1,-1,-1,-1,-1,-1,-1,-1,-1,-1,-1,-1,-1,-1,-1,-1,-1,-1,-1,-1,-1,-1,-1,-1,-1,-1,-1,-1,-1,-1,-1,-1],"loss_changes":[1.3393317E2,2.2239761E1,1.173533E1,1.4690723E1,9.140808E0,5.7390633E0,6.432521E0,1.1260342E1,0E0,0E0,0E0,5.9237576E0,1.5192949E1,1.6166987E0,2.3982463E0,1.17838E0,8.672287E0,5.2919407E0,2.3743973E0,0E0,8.3089703E-1,0E0,6.834173E-1,3.4380193E0,3.0347443E0,1.0511273E-1,0E0,0E0,0E0,1.0346386E1,6.4217834E0,9.427707E-1,1.5399734E0,8.299071E-2,4.0213704E-2,4.3024033E-1,4.886136E-1,2.44987E0,1.8404057E0,2.4860308E0,2.417254E0,0E0,0E0,9.936226E0,1.1606592E1,3.165486E0,8.852016E0,4.2026234E-1,0E0,2.8667793E0,4.826043E0,0E0,0E0,0E0,1.0670006E-2,0E0,3.9415038E-1,0E0,0E0,3.8529785E0,2.6811056E0,4.973799E-2,9.2474556E-1,1.5295553E0,0E0,2.3150866E0,3.3275983E0,0E0,0E0,0E0,0E0,0E0,0E0,0E0,0E0,0E0,0E0,0E0,0E0,0E0,0E0,0E0,0E0,0E0,0E0,0E0,0E0,0E0,0E0,0E0,0E0,0E0,0E0,0E0,0E0,0E0,0E0,0E0,0E0],"parents":[2147483647,0,0,1,1,2,2,3,3,4,4,5,5,6,6,7,7,11,11,12,12,13,13,14,14,15,15,16,16,17,17,18,18,20,20,22,22,23,23,24,24,25,25,29,29,30,30,31,31,32,32,33,33,34,34,35,35,36,36,37,37,38,38,39,39,40,40,43,43,44,44,45,45,46,46,47,47,49,49,50,50,54,54,56,56,59,59,60,60,61,61,62,62,63,63,65,65,66,66],"right_children":[2,4,6,8,10,12,14,16,-1,-1,-1,18,20,22,24,26,28,30,32,-1,34,-1,36,38,40,42,-1,-1,-1,44,46,48,50,52,54,56,58,60,62,64,66,-1,-1,68,70,72,74,76,-1,78,80,-1,-1,-1,82,-1,84,-1,-1,86,88,90,92,94,-1,96,98,-1,-1,-1,-1,-1,-1,-1,-1,-1,-1,-1,-1,-1,-1,-1,-1,-1,-1,-1,-1,-1,-1,-1,-1,-1,-1,-1,-1,-1,-1,-1,-1],"split_conditions":[2.2506302E-3,2.777778E-1,1.03438966E-1,1.6666667E-1,4.4444448E-1,5E-1,1.05239466E-1,5.5555556E-2,-2.083226E-2,6.859442E-2,4.0117544E-3,7.2727275E-1,5E-1,1.9999999E-1,9.3833274E-1,7.090609E-2,5.629188E-1,2.3620689E-1,2.5344828E-1,-4.0441655E-2,3.0221128E-1,9.989828E-3,6.068796E-1,9.3653226E-1,3.8793105E-1,5.719247E-1,2.7321052E-2,-2.8066374E-3,5.9401225E-2,1.9137931E-1,4.7443286E-2,3.888889E-1,9.299604E-2,1.0689655E-1,9.689189E-1,4.8103446E-1,8.231776E-1,2.086207E-1,9.8790765E-1,9.5435727E-1,6.586207E-1,-4.242784E-4,6.584519E-3,2.777778E-1,4.1951746E-2,2.8628016E-2,4.924379E-2,5.5555556E-2,6.2059313E-3,3.948276E-1,9.317609E-2,-0E0,-3.8817711E-3,1.8089629E-3,4.7068965E-1,3.2303005E-3,1.0415916E-1,-2.6576258E-3,-1.8821549E-2,2.8168887E-1,4.7200215E-1,3.268453E-1,9.3761253E-1,5.719247E-1,-1.1090625E-2,9.8790765E-1,3.888889E-1,8.0951955E-3,-2.707226E-3,2.9653553E-2,-2.687566E-5,4.8446893E-3,-3.1093769E-3,2.2693671E-2,3.8125345E-3,-0E0,-1.3928417E-2,2.7117461E-3,-6.2080515E-3,4.183827E-2,1.928239E-3,5.5388384E-3,9.643136E-3,-2.3591171E-3,-1.4259407E-2,3.2819575E-4,-3.1149776E-3,1.3519172E-3,4.570149E-4,-2.847427E-4,3.1066367E-3,2.08555E-2,7.873986E-3,-3.079416E-4,2.7514478E-2,8.2497887E-4,-5.7342816E-3,-1.1529599E-3,3.3547967E-3],"split_indices":[5,4,5,4,4,4,5,4,0,0,0,11,0,3,5,7,6,3,3,0,11,0,11,5,3,6,0,0,0,3,5,4,5,3,6,3,6,3,6,5,3,0,0,4,5,5,5,4,0,3,5,0,0,0,3,0,5,0,0,5,5,6,5,6,0,6,4,0,0,0,0,0,0,0,0,0,0,0,0,0,0,0,0,0,0,0,0,0,0,0,0,0,0,0,0,0,0,0,0],"split_type":[0,0,0,0,0,0,0,0,0,0,0,0,0,0,0,0,0,0,0,0,0,0,0,0,0,0,0,0,0,0,0,0,0,0,0,0,0,0,0,0,0,0,0,0,0,0,0,0,0,0,0,0,0,0,0,0,0,0,0,0,0,0,0,0,0,0,0,0,0,0,0,0,0,0,0,0,0,0,0,0,0,0,0,0,0,0,0,0,0,0,0,0,0,0,0,0,0,0,0],"sum_hessian":[7.867E3,2.7E1,7.84E3,1.4E1,1.3E1,6.93E2,7.147E3,1.2E1,2E0,1.2E1,1E0,6.73E2,2E1,1.6E1,7.131E3,5E0,7E0,5.91E2,8.2E1,4E0,1.6E1,1E0,1.5E1,6.624E3,5.07E2,4E0,1E0,1E0,6E0,1.98E2,3.93E2,1E1,7.2E1,9E0,7E0,6E0,9E0,6.605E3,1.9E1,5E0,5.02E2,1E0,3E0,1.75E2,2.3E1,1.09E2,2.84E2,9E0,1E0,5.7E1,1.5E1,4E0,5E0,1E0,6E0,1E0,5E0,1E0,8E0,7.49E2,5.856E3,9E0,1E1,4E0,1E0,1E2,4.02E2,1.29E2,4.6E1,1.5E1,8E0,2.6E1,8.3E1,1E1,2.74E2,1E0,8E0,2.9E1,2.8E1,1E0,1.4E1,4E0,2E0,2E0,3E0,5.82E2,1.67E2,2.075E3,3.781E3,2E0,7E0,5E0,5E0,1E0,3E0,3.1E1,6.9E1,3.2E2,8.2E1],"tree_param":{"num_deleted":"0","num_feature":"12","num_nodes":"99","size_leaf_vector":"0"}},{"base_weights":[4.5507394E-2,1.8041707E0,4.0481202E-2,-9.704415E-2,1.9934673E0,1.7158188E-1,3.5169292E-2,-2.0895666E-2,-1.382271E-1,2.88254E0,1.3376836E0,1.438721E-1,3.7311325E0,7.443812E-2,2.1262307E-2,7.5664526E-1,4.028342E0,-2.5274384E-1,2.1129014E0,-6.320241E-2,2.8224346E-1,1.5893736E-1,5.6971453E-2,-2.5850603E-1,2.3464518E-2,1.3455641E0,3.058618E-1,2.3631473E0,1.9757913E-1,-2.7594668E-1,9.216762E-2,4.269856E-1,3.4858957E-2,8.033289E-2,4.2613485E-1,-7.876936E-2,7.086372E-2,-1.7621562E-1,-1.6730851E0,3.3311296E-1,2.0776745E-2,1.3434519E-1,-4.9927527E-1,1.8406714E0,3.1800676E-2,3.137448E-1,1.5551789E0,3.7368283E-1,-1.9469215E-1,1.6391337E-1,-1.254559E-1,3.9536482E-1,2.047201E0,-6.4899676E-2,-6.837864E-1,1.3046894E0,6.6371545E-2,-1.4591792E0,-9.824676E-2,-5.979252E-1,-2.3191466E0,1.2089348E0,2.1980971E-1,-5.5742E-2,2.7938282E-2,-8.5904664E-1,2.0900556E-1,2.903209E-1,-6.107337E-1,3.7836008E0,-5.518722E-1,1.4075288E-1,-2.270031E-1,2.2924002E-1,9.367431E-1,1.816732E-1,6.2319865E0,8.88493E-2,1.1445017E0,-3.0123484E-1,7.102927E-1,6.6326246E-2,4.644819E-1,-1.1739784E0,-6.097224E-2,8.022214E-1,3.28778E-1,-1.1162754E-1,6.079171E-2,-8.53914E-2,-9.219103E-1,1.613859E0,6.7046326E-1,4.0086497E-2,1.5346244E-1,-2.0602249E-1,9.3530364E-2,3.3586982E-1,-4.5531803E-1,-3.1708035E-1,-3.496007E-2,1.9092673E-1,2.1617217E-2],"categories":[],"categories_nodes":[],"categories_segments":[],"categories_sizes":[],"default_left":[true,true,true,true,true,true,true,false,false,true,true,true,false,true,true,true,false,false,true,true,true,true,true,true,true,false,false,false,false,true,true,true,true,true,true,true,true,true,true,true,true,true,true,true,true,true,true,true,true,true,true,true,false,true,true,true,true,false,true,false,false,false,true,true,true,false,false,false,false,false,false,false,false,false,false,false,false,false,false,false,false,false,false,false,false,false,false,false,false,false,false,false,false,false,false,false,false,false,false,false,false,false,false],"id":189,"left_children":[1,3,5,7,9,11,13,-1,-1,15,17,19,-1,21,23,25,-1,-1,27,29,31,33,35,37,39,-1,-1,-1,-1,41,43,45,47,49,51,53,55,57,59,61,63,65,67,69,71,73,75,77,79,81,83,85,-1,87,89,91,93,-1,95,-1,-1,-1,97,99,101,-1,-1,-1,-1,-1,-1,-1,-1,-1,-1,-1,-1,-1,-1,-1,-1,-1,-1,-1,-1,-1,-1,-1,-1,-1,-1,-1,-1,-1,-1,-1,-1,-1,-1,-1,-1,-1,-1],"loss_changes":[6.92707E1,8.129227E0,5.441079E0,4.0848926E-3,1.0509178E1,2.9783451E1,4.1028595E0,0E0,0E0,1.921444E1,1.5410894E1,8.671887E0,0E0,2.894575E0,3.4188948E0,7.241545E-1,0E0,0E0,3.802021E0,4.0216694E0,6.48145E0,7.0453453E0,3.0742588E0,4.919595E0,4.577035E0,0E0,0E0,0E0,0E0,4.7312546E0,7.377599E0,1.4417587E1,5.2638364E0,4.485122E0,3.5027828E0,1.2444212E0,8.145319E0,4.0646152E0,1.1168485E0,4.588069E0,2.9928887E0,1.41034E0,2.997281E0,1.1589653E1,1.9362402E0,5.4045343E0,6.590928E1,5.949699E0,3.9544506E0,5.418285E0,5.0520043E0,1.9367943E0,0E0,8.7419355E-1,4.3437338E-1,6.523943E-1,3.3679252E0,0E0,8.2101077E-1,0E0,0E0,0E0,3.3663492E0,2.5294235E0,5.141057E0,0E0,0E0,0E0,0E0,0E0,0E0,0E0,0E0,0E0,0E0,0E0,0E0,0E0,0E0,0E0,0E0,0E0,0E0,0E0,0E0,0E0,0E0,0E0,0E0,0E0,0E0,0E0,0E0,0E0,0E0,0E0,0E0,0E0,0E0,0E0,0E0,0E0,0E0],"parents":[2147483647,0,0,1,1,2,2,3,3,4,4,5,5,6,6,9,9,10,10,11,11,13,13,14,14,15,15,18,18,19,19,20,20,21,21,22,22,23,23,24,24,29,29,30,30,31,31,32,32,33,33,34,34,35,35,36,36,37,37,38,38,39,39,40,40,41,41,42,42,43,43,44,44,45,45,46,46,47,47,48,48,49,49,50,50,51,51,53,53,54,54,55,55,56,56,58,58,62,62,63,63,64,64],"right_children":[2,4,6,8,10,12,14,-1,-1,16,18,20,-1,22,24,26,-1,-1,28,30,32,34,36,38,40,-1,-1,-1,-1,42,44,46,48,50,52,54,56,58,60,62,64,66,68,70,72,74,76,78,80,82,84,86,-1,88,90,92,94,-1,96,-1,-1,-1,98,100,102,-1,-1,-1,-1,-1,-1,-1,-1,-1,-1,-1,-1,-1,-1,-1,-1,-1,-1,-1,-1,-1,-1,-1,-1,-1,-1,-1,-1,-1,-1,-1,-1,-1,-1,-1,-1,-1,-1],"split_conditions":[2.7272727E-2,4.2840246E-2,4.924379E-2,5.5555556E-2,1.6666667E-1,4.8973713E-2,2.923833E-1,-4.179133E-4,-2.7645421E-3,5.5555556E-2,2.777778E-1,1.6666667E-1,7.4622646E-2,1.6034484E-1,5.707598E-2,5.3197986E-1,8.056683E-2,-5.0548767E-3,4.4444448E-1,3.3636364E-1,5.181818E-1,1.3793103E-1,2.0237666E-1,5.6625854E-2,6.913936E-2,2.6911281E-2,6.117236E-3,4.7262944E-2,3.9515826E-3,5.5555556E-2,9.6551724E-2,4.0331293E-2,3.1598847E-2,1.7005762E-1,2.888909E-1,1.9994599E-1,2.060677E-1,9.6551724E-2,4.3030304E-1,3.3636364E-1,3.4520882E-1,1.2389015E-3,5.4792248E-2,3.790061E-2,8.30303E-1,3.2068965E-1,4.2424244E-1,2.6287362E-2,4.735326E-2,1.6231546E-1,1.7374864E-1,1.5925458E-1,4.0944017E-2,2.777778E-1,5.039181E-1,2.0363702E-1,2.2481573E-1,-2.9183583E-2,1.2389015E-3,-1.1958503E-2,-4.638293E-2,2.4178695E-2,5.982759E-1,2.3620689E-1,3.3636364E-1,-1.7180933E-2,4.180111E-3,5.806418E-3,-1.2214674E-2,7.5672016E-2,-1.1037444E-2,2.8150575E-3,-4.540062E-3,4.5848E-3,1.8734861E-2,3.633464E-3,1.2463973E-1,1.7769859E-3,2.2890033E-2,-6.024697E-3,1.4205853E-2,1.3265249E-3,9.289637E-3,-2.3479568E-2,-1.2194448E-3,1.6044429E-2,6.5755597E-3,-2.2325509E-3,1.2158342E-3,-1.707828E-3,-1.8438205E-2,3.227718E-2,1.3409265E-2,8.017299E-4,3.0692487E-3,-4.1204495E-3,1.8706073E-3,6.7173964E-3,-9.10636E-3,-6.341607E-3,-6.9920137E-4,3.8185345E-3,4.3234433E-4],"split_indices":[2,9,5,4,4,5,11,0,0,4,4,4,0,3,5,9,0,0,4,2,2,3,5,5,5,0,0,0,0,4,3,5,5,5,5,5,5,3,2,2,11,8,9,5,2,3,2,5,5,5,5,5,0,4,9,5,11,0,8,0,0,0,3,3,2,0,0,0,0,0,0,0,0,0,0,0,0,0,0,0,0,0,0,0,0,0,0,0,0,0,0,0,0,0,0,0,0,0,0,0,0,0,0],"split_type":[0,0,0,0,0,0,0,0,0,0,0,0,0,0,0,0,0,0,0,0,0,0,0,0,0,0,0,0,0,0,0,0,0,0,0,0,0,0,0,0,0,0,0,0,0,0,0,0,0,0,0,0,0,0,0,0,0,0,0,0,0,0,0,0,0,0,0,0,0,0,0,0,0,0,0,0,0,0,0,0,0,0,0,0,0,0,0,0,0,0,0,0,0,0,0,0,0,0,0,0,0,0,0],"sum_hessian":[7.842E3,2.2E1,7.82E3,2E0,2E1,3.04E2,7.516E3,1E0,1E0,8E0,1.2E1,3.02E2,2E0,1.965E3,5.551E3,3E0,5E0,4E0,8E0,1.21E2,1.81E2,3.36E2,1.629E3,4.3E1,5.508E3,1E0,2E0,7E0,1E0,5.1E1,7E1,1.14E2,6.7E1,2.6E2,7.6E1,1.51E2,1.478E3,4.1E1,2E0,4.7E1,5.461E3,1.8E1,3.3E1,2E0,6.8E1,1.04E2,1E1,2.7E1,4E1,1.85E2,7.5E1,7.5E1,1E0,1.48E2,3E0,5E0,1.473E3,2E0,3.9E1,1E0,1E0,5E0,4.2E1,4.67E2,4.994E3,1E0,1.7E1,4E0,2.9E1,1E0,1E0,4.8E1,2E1,9.2E1,1.2E1,8E0,2E0,2E1,7E0,3.6E1,4E0,1.4E2,4.5E1,4E0,7.1E1,1E1,6.5E1,1.08E2,4E1,1E0,2E0,3E0,2E0,1.132E3,3.41E2,2.5E1,1.4E1,3.6E1,6E0,3.4E1,4.33E2,1.86E2,4.808E3],"tree_param":{"num_deleted":"0","num_feature":"12","num_nodes":"103","size_leaf_vector":"0"}},{"base_weights":[4.115554E-2,1.7410473E0,3.5281144E-2,3.781078E-1,3.1615925E0,-2.0811486E-1,3.8185954E-2,6.0610855E-1,-4.306178E-1,3.395737E0,1.9461577E-1,-3.1088424E-1,2.5933642E0,9.619214E-2,2.6444437E-2,1.3253824E0,4.923505E-1,2.54192E-1,-7.665292E-1,4.5812997E-1,-4.3082285E-1,3.2958508E-1,8.3379135E-2,9.5779255E-2,1.4899689E-2,3.1779483E-1,5.4736227E-1,9.1519535E-2,1.1245934E0,-4.050706E-1,-1.8058639E0,8.372878E-1,2.1622603E-1,-3.7225494E-1,9.66365E-2,8.971469E-2,7.5999427E-1,6.5373923E-3,4.9415566E-2,2.0319423E-1,-5.3482926E-1,1.3179709E0,3.4924716E-1,3.73403E-2,-4.6373022E-1,1.7626563E-2,1.3933907E0,-1.14020385E-1,3.373381E-1,-1.08214E-1,-1.0061827E0,5.2597404E-1,9.255079E-2,-3.9512455E-1,9.628067E-2,2.4953723E-1,1.2086762E0,1.0675589E-2,-1.0811648E-1,1.9241656E-1,2.2644091E-2,9.723403E-2,2.6577494E-1,4.755041E-2,-2.5108375E-2,-5.0903654E-1,-6.177876E-2,-2.5391834E-2,3.279914E-2,2.3852317E0,8.696505E-1,9.722267E-2,-1.3108829E0,2.6319373E-1,1.1519407E0,-5.2779157E-2,-1.0820417E0,5.0273467E-2,-1.4425921E0,-1.1963166E0,7.3263186E-1,8.484535E-2,3.134881E-1,-8.3835316E-1,6.665609E-2,1.1018859E0,9.252677E-2,3.5962605E-1,-7.737448E-2,1.3513913E-2,-1.3224658E-1,-1.8289284E-1,-1.2890645E-5,9.523844E-2,8.386894E-1,-5.601483E-1,2.9947227E-2],"categories":[],"categories_nodes":[],"categories_segments":[],"categories_sizes":[],"default_left":[true,true,true,true,true,true,true,true,true,false,false,true,false,true,true,false,true,false,false,true,true,true,true,true,true,false,false,true,true,true,false,true,true,true,true,true,true,true,true,true,false,false,false,true,true,true,true,true,true,true,true,true,true,true,true,true,false,true,true,true,true,false,false,false,false,false,false,false,false,false,false,false,false,false,false,false,false,false,false,false,false,false,false,false,false,false,false,false,false,false,false,false,false,false,false,false,false],"id":190,"left_children":[1,3,5,7,9,11,13,15,17,-1,-1,19,-1,21,23,-1,25,-1,-1,27,29,31,33,35,37,-1,-1,39,41,43,-1,45,47,49,51,53,55,57,59,61,-1,-1,-1,63,65,67,69,71,73,75,77,79,81,83,85,87,-1,89,91,93,95,-1,-1,-1,-1,-1,-1,-1,-1,-1,-1,-1,-1,-1,-1,-1,-1,-1,-1,-1,-1,-1,-1,-1,-1,-1,-1,-1,-1,-1,-1,-1,-1,-1,-1,-1,-1],"loss_changes":[7.925504E1,5.247168E1,5.595812E0,2.7324886E0,8.99118E0,2.710759E1,5.324359E0,6.838045E-1,8.3910006E-1,0E0,0E0,8.397291E0,0E0,3.9213934E0,5.205159E0,0E0,2.8880835E-2,0E0,0E0,2.961799E0,2.4983444E0,3.8573751E0,7.548627E0,3.7046309E0,1.608891E0,0E0,0E0,6.144132E-1,4.7245932E-1,2.0187883E0,0E0,5.5934763E0,2.269172E0,5.862012E0,2.1033068E0,2.9382534E0,1.7872605E0,2.1294796E0,4.1581697E0,3.4833044E-2,0E0,0E0,0E0,6.669347E-3,1.2257881E0,3.8645398E-3,3.0713415E0,3.9365568E0,2.3751793E0,1.3323703E0,4.8082666E0,4.319524E0,2.0323248E0,2.5539885E0,3.3778667E0,1.6926393E-1,0E0,1.7571661E0,1.2611263E0,1.0720396E1,3.898141E0,0E0,0E0,0E0,0E0,0E0,0E0,0E0,0E0,0E0,0E0,0E0,0E0,0E0,0E0,0E0,0E0,0E0,0E0,0E0,0E0,0E0,0E0,0E0,0E0,0E0,0E0,0E0,0E0,0E0,0E0,0E0,0E0,0E0,0E0,0E0,0E0],"parents":[2147483647,0,0,1,1,2,2,3,3,4,4,5,5,6,6,7,7,8,8,11,11,13,13,14,14,16,16,19,19,20,20,21,21,22,22,23,23,24,24,27,27,28,28,29,29,31,31,32,32,33,33,34,34,35,35,36,36,37,37,38,38,39,39,43,43,44,44,45,45,46,46,47,47,48,48,49,49,50,50,51,51,52,52,53,53,54,54,55,55,57,57,58,58,59,59,60,60],"right_children":[2,4,6,8,10,12,14,16,18,-1,-1,20,-1,22,24,-1,26,-1,-1,28,30,32,34,36,38,-1,-1,40,42,44,-1,46,48,50,52,54,56,58,60,62,-1,-1,-1,64,66,68,70,72,74,76,78,80,82,84,86,88,-1,90,92,94,96,-1,-1,-1,-1,-1,-1,-1,-1,-1,-1,-1,-1,-1,-1,-1,-1,-1,-1,-1,-1,-1,-1,-1,-1,-1,-1,-1,-1,-1,-1,-1,-1,-1,-1,-1,-1],"split_conditions":[2.7272727E-2,2.777778E-1,1.953547E-2,1.6666667E-1,4.4444448E-1,5E-1,5.181818E-1,8.231776E-1,9.8790765E-1,6.791474E-2,3.8923153E-3,9.8790765E-1,5.1867284E-2,3.3309326E-2,2.6206896E-1,2.6507646E-2,5.5555556E-2,5.08384E-3,-1.5330584E-2,9.5682657E-1,1.935542E-2,9.6551724E-2,4.474253E-2,7.934822E-1,6.9482756E-1,6.3558966E-3,1.0947245E-2,7.920965E-1,5E-1,5.5555556E-2,-3.6117278E-2,5.5555556E-2,1.6206896E-1,7.008511E-1,7.7586204E-2,2.6107311E-2,9.212121E-1,6.586207E-1,7.017242E-1,8.513586E-2,-1.0696585E-2,2.6359417E-2,6.984943E-3,6.818182E-1,5E-1,9.8790765E-1,1.6666667E-1,2.664746E-2,7.008511E-1,4.3662228E-2,6.3859776E-2,9.8790765E-1,4.9310344E-1,3.888889E-1,2.9708318E-2,8.30303E-1,2.4173524E-2,9.478754E-1,9.100648E-1,3.888889E-1,5.1971555E-1,1.9446806E-3,5.3154984E-3,9.510082E-4,-5.021675E-4,-1.018073E-2,-1.2355752E-3,-5.0783664E-4,6.5598276E-4,4.7704633E-2,1.739301E-2,1.9444533E-3,-2.6217658E-2,5.2638743E-3,2.3038814E-2,-1.0555831E-3,-2.1640833E-2,1.0054694E-3,-2.8851843E-2,-2.392633E-2,1.4652637E-2,1.696907E-3,6.269762E-3,-1.6767062E-2,1.3331218E-3,2.2037718E-2,1.8505354E-3,7.192521E-3,-1.5474895E-3,2.7027825E-4,-2.6449317E-3,-3.6578567E-3,-2.578129E-7,1.9047688E-3,1.6773788E-2,-1.1202966E-2,5.9894455E-4],"split_indices":[2,4,5,4,4,4,2,6,6,0,0,6,0,5,3,0,4,0,0,6,5,3,5,5,3,0,0,6,0,4,0,4,3,10,3,5,2,3,3,6,0,0,0,2,0,6,4,5,10,5,9,6,3,4,5,2,0,5,5,4,5,0,0,0,0,0,0,0,0,0,0,0,0,0,0,0,0,0,0,0,0,0,0,0,0,0,0,0,0,0,0,0,0,0,0,0,0],"split_type":[0,0,0,0,0,0,0,0,0,0,0,0,0,0,0,0,0,0,0,0,0,0,0,0,0,0,0,0,0,0,0,0,0,0,0,0,0,0,0,0,0,0,0,0,0,0,0,0,0,0,0,0,0,0,0,0,0,0,0,0,0,0,0,0,0,0,0,0,0,0,0,0,0,0,0,0,0,0,0,0,0,0,0,0,0,0,0,0,0,0,0,0,0,0,0,0,0],"sum_hessian":[7.941E3,2.7E1,7.914E3,1.4E1,1.3E1,9.3E1,7.821E3,1.1E1,3E0,1.2E1,1E0,9E1,3E0,1.316E3,6.505E3,1E0,1E1,1E0,2E0,1.2E1,7.8E1,6.8E1,1.248E3,9.28E2,5.577E3,3E0,7E0,8E0,4E0,7.7E1,1E0,1.2E1,5.6E1,3.5E1,1.213E3,9.2E2,8E0,4.49E3,1.087E3,7E0,1E0,3E0,1E0,9E0,6.8E1,5E0,7E0,1.5E1,4.1E1,2.5E1,1E1,1.1E1,1.202E3,1.2E1,9.08E2,4E0,4E0,4.334E3,1.56E2,1.71E2,9.16E2,3E0,4E0,8E0,1E0,6.1E1,7E0,1E0,4E0,2E0,5E0,1.3E1,2E0,3.8E1,3E0,2.4E1,1E0,3E0,7E0,1E0,1E1,1.162E3,4E1,6E0,6E0,3E0,9.05E2,3E0,1E0,4.25E3,8.4E1,9.2E1,6.4E1,1.49E2,2.2E1,1.1E1,9.05E2],"tree_param":{"num_deleted":"0","num_feature":"12","num_nodes":"97","size_leaf_vector":"0"}},{"base_weights":[4.3398026E-2,-5.156817E-2,1.5981916E-1,-1.0713463E0,-4.6976127E-2,2.7451093E0,1.5071915E-1,4.3507352E-1,-1.3577892E0,9.531551E-3,-7.768676E-2,-3.907887E-1,4.9028964E0,3.8867387E-1,1.378187E-1,-1.1840001E-1,1.305504E0,-2.73274E-3,9.3908794E-2,-1.1146787E-1,4.5883093E-2,1.7559874E0,-1.8587443E0,1.5130343E1,1.1901454E-1,1.7071304E-1,6.304909E-1,1.1719979E-1,2.4885271E-1,-4.0461246E-2,-1.5603262E-1,3.3101195E-3,-1.557499E-1,3.2912967E-1,6.2799945E-2,-3.0514127E-1,-8.1466645E-2,6.6824365E-1,9.134866E-3,2.8117642E0,2.503801E-1,-3.2271925E-1,7.3915625E-1,2.9712135E-1,4.0130097E-2,1.7530665E0,5.225308E-1,2.5312623E-1,1.04237825E-1,6.872999E-2,3.6546376E-1,-1.6237011E-3,3.2383624E-1,3.2812336E-1,-1.6806522E-1,8.8007313E-1,2.8887898E-1,6.5042746E-1,5.088335E-2,-2.238978E-1,-6.5297806E-1,-9.422664E-2,1.5963596E-1,3.5236794E-1,2.7517064E0,8.445541E-2,-1.3816702E-1,4.036399E-1,-6.977937E-1,1.9109802E-1,5.695805E-1,1.1350101E-2,1.9464776E-1,1.4301906E0,2.2344043E0,2.891761E-1,1.0678338E0,1.3765107E0,2.2285941E-1,-2.599552E-1,1.1255077E-1,-6.391089E-2,1.7671694E-1,9.15989E-1,1.2414707E-1,-4.0155705E-3,3.157888E-1,1.1275871E-1,3.451989E-1,-2.278552E-1,-1.20565325E-1,8.540931E-2,3.657091E-1,6.969644E-2,8.832244E-1,1.1419528E-2,1.5055037E-1,-3.6827573E-1,1.0893957E-1,-4.0413225E-1,-9.213627E-1,1.623273E-2,-1.25793E-1,4.950065E-1,-8.552538E-2,1.8104148E0,9.7757235E-2,2.1235731E-1,5.2658018E-2,4.4540736E-1,-1.547001E-1,8.5963555E-2,3.6134833E-1,-5.520537E-1,6.766057E-1,-3.6271702E-2,1.5215601E-1,4.5976898E-1,6.380869E-2,2.4802758E-1,5.4528326E-1,1.8713615E0,8.138749E-1,4.680946E0,4.61598E-1,-2.5064765E-2,4.1826916E-1,-2.8107336E-1,6.8650943E-1,1.20686784E-1,-5.8105536E-2,-1.0676879E-1,3.1949908E-1,2.5545555E-1,4.7229204E-2,1.7966661E0,4.474256E-1,2.3075223E0,5.9369463E-2],"categories":[],"categories_nodes":[],"categories_segments":[],"categories_sizes":[],"default_left":[true,true,true,true,true,true,true,true,false,true,true,true,true,true,true,true,false,true,true,true,true,true,false,false,true,true,true,true,true,false,false,true,true,true,true,true,true,true,true,false,false,true,false,true,true,true,true,true,true,true,true,true,true,false,true,false,true,true,true,true,true,true,true,true,false,true,true,false,false,true,true,true,true,false,false,true,true,true,true,true,true,true,true,true,true,false,false,false,false,false,false,false,false,false,false,false,false,false,false,false,false,false,false,false,false,false,false,false,false,false,false,false,false,false,false,false,false,false,false,false,false,false,false,false,false,false,false,false,false,false,false,false,false,false,false,false,false,false,false],"id":191,"left_children":[1,3,5,7,9,11,13,15,-1,17,19,21,23,25,27,29,-1,31,33,35,37,39,-1,-1,41,43,45,47,49,-1,-1,51,53,55,57,59,61,63,65,-1,-1,67,-1,69,71,73,75,77,79,81,83,85,87,-1,89,-1,91,93,95,97,99,101,103,105,-1,107,109,-1,-1,111,113,115,117,-1,-1,119,121,123,125,127,129,131,133,135,137,-1,-1,-1,-1,-1,-1,-1,-1,-1,-1,-1,-1,-1,-1,-1,-1,-1,-1,-1,-1,-1,-1,-1,-1,-1,-1,-1,-1,-1,-1,-1,-1,-1,-1,-1,-1,-1,-1,-1,-1,-1,-1,-1,-1,-1,-1,-1,-1,-1,-1,-1,-1,-1,-1],"loss_changes":[8.670969E1,2.0194115E1,8.2711235E1,8.552612E0,7.4639606E0,8.415896E1,1.0753456E1,1.6744121E0,0E0,1.5684595E0,1.1633709E1,1.7897646E1,3.5798605E2,9.457449E0,7.611805E0,1.9360632E-3,0E0,1.2250568E0,1.3949076E0,1.2701372E1,1.3672576E1,3.4308062E0,0E0,0E0,1.5465245E0,1.5648613E0,1.0003925E1,4.937557E0,1.0935673E1,0E0,0E0,2.0168629E0,3.1604636E-1,3.9381003E-1,1.1717236E0,8.228188E0,5.8350153E0,2.1569653E1,6.27542E0,0E0,0E0,1.0062875E0,0E0,1.3490629E0,2.0681767E-1,2.1791458E-2,9.845528E0,8.18254E0,7.7772713E0,2.9464664E0,4.1972443E1,9.475181E-1,6.7665815E-2,0E0,1.2597716E-1,0E0,3.166467E-1,4.165399E-1,6.5527916E-1,1.1470043E1,3.5524464E0,6.279646E0,7.858266E0,1.0803355E1,0E0,1.514885E0,1.8648703E0,0E0,0E0,6.1570096E-1,1.7269273E0,2.7394673E-1,2.3713356E-1,0E0,0E0,5.2671194E-1,4.2153015E0,1.8353903E1,1.1555598E1,1.2045221E0,3.4873486E0,1.5255781E0,1.1471713E0,3.9452225E1,3.108316E1,0E0,0E0,0E0,0E0,0E0,0E0,0E0,0E0,0E0,0E0,0E0,0E0,0E0,0E0,0E0,0E0,0E0,0E0,0E0,0E0,0E0,0E0,0E0,0E0,0E0,0E0,0E0,0E0,0E0,0E0,0E0,0E0,0E0,0E0,0E0,0E0,0E0,0E0,0E0,0E0,0E0,0E0,0E0,0E0,0E0,0E0,0E0,0E0,0E0,0E0,0E0,0E0,0E0,0E0],"parents":[2147483647,0,0,1,1,2,2,3,3,4,4,5,5,6,6,7,7,9,9,10,10,11,11,12,12,13,13,14,14,15,15,17,17,18,18,19,19,20,20,21,21,24,24,25,25,26,26,27,27,28,28,31,31,32,32,33,33,34,34,35,35,36,36,37,37,38,38,41,41,43,43,44,44,45,45,46,46,47,47,48,48,49,49,50,50,51,51,52,52,54,54,56,56,57,57,58,58,59,59,60,60,61,61,62,62,63,63,65,65,66,66,69,69,70,70,71,71,72,72,75,75,76,76,77,77,78,78,79,79,80,80,81,81,82,82,83,83,84,84],"right_children":[2,4,6,8,10,12,14,16,-1,18,20,22,24,26,28,30,-1,32,34,36,38,40,-1,-1,42,44,46,48,50,-1,-1,52,54,56,58,60,62,64,66,-1,-1,68,-1,70,72,74,76,78,80,82,84,86,88,-1,90,-1,92,94,96,98,100,102,104,106,-1,108,110,-1,-1,112,114,116,118,-1,-1,120,122,124,126,128,130,132,134,136,138,-1,-1,-1,-1,-1,-1,-1,-1,-1,-1,-1,-1,-1,-1,-1,-1,-1,-1,-1,-1,-1,-1,-1,-1,-1,-1,-1,-1,-1,-1,-1,-1,-1,-1,-1,-1,-1,-1,-1,-1,-1,-1,-1,-1,-1,-1,-1,-1,-1,-1,-1,-1,-1,-1],"split_conditions":[7.5122225E-1,2.7272727E-2,2.7272727E-2,5.247395E-1,6.572582E-1,8.2200134E-1,7.664299E-1,2.4097994E-1,-2.7155783E-2,6.341465E-1,6.621175E-1,9.8790765E-1,8.349742E-1,7.645392E-1,9.212121E-1,6.167303E-2,2.611008E-2,6.324857E-1,2.303745E-1,2.086207E-1,1.6034484E-1,8.012924E-1,-3.7174884E-2,3.0260685E-1,8.7090075E-1,5.022507E-1,4.2424244E-1,9.0475336E-2,8.2174015E-1,-8.092249E-4,-3.1206524E-3,9.689189E-1,1.9137931E-1,2.4306806E-2,3.3636364E-1,1.724138E-1,7.827586E-1,1.5E-1,7.281138E-1,5.6235284E-2,5.007602E-3,8.4844077E-1,1.4783124E-2,8.30303E-1,9.212121E-1,3.7068963E-1,8.30303E-1,7.6933527E-1,7.6906526E-1,2.9137933E-1,8.3047175E-1,6.294689E-1,2.8275862E-1,6.562467E-3,5.860641E-1,1.7601462E-2,2.7068967E-1,3.4827587E-1,8.30303E-1,2.135398E-1,2.581923E-1,3.1034482E-1,8.914296E-1,7.241379E-2,5.5034127E-2,3.4875762E-1,6.796903E-2,8.072798E-3,-1.3955874E-2,4.1551724E-1,7.241379E-2,7.1034485E-1,3.1724137E-1,2.860381E-2,4.4688087E-2,9.276197E-1,2.6034483E-1,5E-1,8.2174015E-1,9.634498E-1,5.8854413E-1,5.5140436E-1,7.9132783E-1,2.413793E-1,9.5682657E-1,-8.031141E-5,6.315776E-3,2.255174E-3,6.903978E-3,-4.557104E-3,-2.4113064E-3,1.7081862E-3,7.314182E-3,1.3939288E-3,1.7664488E-2,2.2839056E-4,3.0110073E-3,-7.3655145E-3,2.1787914E-3,-8.082645E-3,-1.8427253E-2,3.246546E-4,-2.51586E-3,9.900129E-3,-1.7105076E-3,3.6208294E-2,1.9551446E-3,4.247146E-3,1.0531603E-3,8.908147E-3,-3.094002E-3,1.7192711E-3,7.2269663E-3,-1.1041073E-2,1.3532113E-2,-7.2543405E-4,3.04312E-3,9.195379E-3,1.2761737E-3,4.9605514E-3,1.0905665E-2,3.7427228E-2,1.6277498E-2,9.3618914E-2,9.23196E-3,-5.0129526E-4,8.365383E-3,-5.6214673E-3,1.3730188E-2,2.4137357E-3,-1.1621107E-3,-2.1353757E-3,6.389981E-3,5.109111E-3,9.445841E-4,3.5933323E-2,8.948511E-3,4.6150446E-2,1.1873893E-3],"split_indices":[1,2,2,1,1,1,1,1,0,1,1,6,1,1,2,1,0,1,5,3,3,1,0,0,1,5,2,5,1,0,0,6,3,5,2,3,3,3,1,0,0,1,0,2,2,3,2,1,1,3,1,1,3,0,5,0,3,3,2,5,5,3,5,3,0,5,5,0,0,3,3,3,3,0,0,5,3,0,1,5,7,5,1,3,6,0,0,0,0,0,0,0,0,0,0,0,0,0,0,0,0,0,0,0,0,0,0,0,0,0,0,0,0,0,0,0,0,0,0,0,0,0,0,0,0,0,0,0,0,0,0,0,0,0,0,0,0,0,0],"split_type":[0,0,0,0,0,0,0,0,0,0,0,0,0,0,0,0,0,0,0,0,0,0,0,0,0,0,0,0,0,0,0,0,0,0,0,0,0,0,0,0,0,0,0,0,0,0,0,0,0,0,0,0,0,0,0,0,0,0,0,0,0,0,0,0,0,0,0,0,0,0,0,0,0,0,0,0,0,0,0,0,0,0,0,0,0,0,0,0,0,0,0,0,0,0,0,0,0,0,0,0,0,0,0,0,0,0,0,0,0,0,0,0,0,0,0,0,0,0,0,0,0,0,0,0,0,0,0,0,0,0,0,0,0,0,0,0,0,0,0],"sum_hessian":[7.842E3,4.319E3,3.523E3,1.9E1,4.3E3,1.2E1,3.511E3,3E0,1.6E1,1.514E3,2.786E3,5E0,7E0,1.8E2,3.331E3,2E0,1E0,1.322E3,1.92E2,2.188E3,5.98E2,2E0,3E0,2E0,5E0,9.5E1,8.5E1,2.81E3,5.21E2,1E0,1E0,1.272E3,5E1,2.2E1,1.7E2,2.93E2,1.895E3,3.3E1,5.65E2,1E0,1E0,3E0,2E0,4.8E1,4.7E1,7E0,7.8E1,2.44E2,2.566E3,2.05E2,3.16E2,1.253E3,1.9E1,1E0,4.9E1,1E0,2.1E1,3E0,1.67E2,2.38E2,5.5E1,1.8E3,9.5E1,2.9E1,4E0,3.74E2,1.91E2,1E0,2E0,3.5E1,1.3E1,4E1,7E0,5E0,2E0,5.5E1,2.3E1,6E0,2.38E2,5.7E1,2.509E3,9.2E1,1.13E2,9.6E1,2.2E2,1.244E3,9E0,2E0,1.7E1,2.1E1,2.8E1,6E0,1.5E1,1E0,2E0,1.2E2,4.7E1,1.66E2,7.2E1,2.9E1,2.6E1,4E2,1.4E3,4E1,5.5E1,4E0,2.5E1,7.4E1,3E2,5E0,1.86E2,2.2E1,1.3E1,1E0,1.2E1,3E1,1E1,2E0,5E0,4.8E1,7E0,5E0,1.8E1,1E0,5E0,1.05E2,1.33E2,5.6E1,1E0,2.395E3,1.14E2,8.3E1,9E0,7E1,4.3E1,3.3E1,6.3E1,6E0,2.14E2],"tree_param":{"num_deleted":"0","num_feature":"12","num_nodes":"139","size_leaf_vector":"0"}},{"base_weights":[4.0841985E-2,-6.941057E-2,1.4222698E-1,-7.427774E-1,-5.86758E-2,9.3626416E-1,1.3218293E-1,2.6787606E-1,-9.497389E-1,1.7975038E-2,-1.1276058E-1,3.1925044E0,6.138465E-1,3.978586E-1,1.2523791E-1,-7.3264044E-4,8.3628327E-1,-1.3574624E0,-7.580078E-1,1.1638793E-2,3.3300397E-1,-1.2051996E-1,2.8046298E-1,6.514654E-1,5.409895E0,-1.931619E-1,9.769341E-1,6.061914E-3,7.944252E-1,1.5390185E-1,6.73286E-2,7.780695E-2,-1.8625383E-1,1.2859237E0,4.537101E-1,-9.622352E-3,4.6355847E-2,4.0553272E-1,3.4559768E-2,-3.9267433E-1,-1.1274285E-1,-9.924392E-1,4.2229265E-1,-1.5728699E0,2.1707138E-1,1.0594465E0,-1.1336486E0,-7.136572E-1,3.0199033E-1,4.760089E-1,3.0294924E0,1.1230678E-1,3.1245357E-1,-7.018489E-1,6.987002E-2,-3.255598E-2,4.276999E-1,-4.6195313E-3,-1.20491214E-1,1.6209866E-1,3.494591E-2,3.7364364E-1,8.5142565E-1,1.2503284E-1,-1.3228312E-1,-8.187319E-1,-2.420398E-1,-4.2209804E-2,-1.4158894E-1,1.2813389E0,2.4922642E-1,-1.0136753E0,-2.14738E0,6.097213E-1,-7.819652E-1,6.232262E-1,1.2330651E0,-3.972742E-1,-1.8085674E0,-6.379573E-1,3.907331E-1,1.4007902E0,4.7447164E-2,1.1329089E1,7.623404E-1,1.2790085E-1,-7.394017E-2,6.334943E-1,2.0549853E-1,-1.7912594E0,-1.9156753E-1,4.938886E-1,6.314867E-2,2.9112148E-1,-1.6305725E-1,-1.1472552E-2,1.9091138E-1,7.2461165E-2,-1.4279124E-1,-5.627805E-1,1.8051215E-1,-3.2701847E-1,4.440806E-2,-5.587025E-3,3.9134613E-1,-6.7059025E-2,1.9364546E-1,-2.3556415E-3,-1.1055332E0,1.5744416E0,-3.8692817E-1,3.0297043E-2,-2.8263748E-1,-7.5199693E-1,-1.304788E-1,1.5220504E-1,1.7874569E0,7.562597E-1,1.0267246E-2,1.7641054E-1,2.8295536E0,1.5794603E0,-1.90011E-1,2.5257604E0,1.0550358E0,-6.165007E-1,2.5200677E-1,5.797105E-1,-2.9210124E0,-1.2370371E0,-1.9832878E-1,6.414611E-1,2.4579778E-1,8.8458455E-1,3.0114279E0,-7.0281506E-1,4.107849E-1,1.3290535E-1,1.1224113E0,4.4760495E-2,1.6455325E-1,-2.580539E-1,-6.7569455E-3,8.324531E-1,4.7991458E-1,3.0917138E-1,1.1677377E-1,5.348613E-2,-3.103407E-1,-1.1498293E-1,8.174884E-1,-1.5209883E-1,7.445346E-2],"categories":[],"categories_nodes":[],"categories_segments":[],"categories_sizes":[],"default_left":[true,true,true,true,true,true,true,true,true,true,true,true,true,true,true,true,true,false,false,true,true,true,true,false,false,true,true,true,true,true,true,true,false,false,false,true,true,true,true,true,true,false,true,true,true,true,false,true,true,true,true,true,true,true,true,true,false,true,true,true,true,true,false,true,false,true,true,true,true,true,true,false,false,true,false,true,true,true,true,true,true,true,true,false,true,true,true,true,true,false,true,true,true,false,false,false,false,false,false,false,false,false,false,false,false,false,false,false,false,false,false,false,false,false,false,false,false,false,false,false,false,false,false,false,false,false,false,false,false,false,false,false,false,false,false,false,false,false,false,false,false,false,false,false,false,false,false,false,false,false,false,false,false],"id":192,"left_children":[1,3,5,7,9,11,13,15,17,19,21,23,25,27,29,31,33,-1,-1,35,37,39,41,-1,-1,43,45,47,49,51,53,55,-1,-1,-1,57,59,61,63,65,67,-1,69,71,73,75,-1,77,79,81,83,85,87,89,91,93,-1,95,97,99,101,103,-1,105,-1,107,109,111,113,115,117,-1,-1,119,-1,121,123,125,127,129,131,133,135,-1,137,139,141,143,145,-1,147,149,151,-1,-1,-1,-1,-1,-1,-1,-1,-1,-1,-1,-1,-1,-1,-1,-1,-1,-1,-1,-1,-1,-1,-1,-1,-1,-1,-1,-1,-1,-1,-1,-1,-1,-1,-1,-1,-1,-1,-1,-1,-1,-1,-1,-1,-1,-1,-1,-1,-1,-1,-1,-1,-1,-1,-1,-1,-1,-1,-1,-1],"loss_changes":[8.8302734E1,2.7328861E1,3.2764725E1,1.2505131E1,1.5445934E1,3.663483E1,7.475113E0,1.589828E0,3.4832497E0,3.0704482E0,6.673765E0,3.4424057E1,1.3357483E1,1.6042257E1,6.568844E0,1.1323376E-1,3.5405135E-1,0E0,0E0,1.1162248E0,6.4564085E-1,4.512436E0,7.774311E0,0E0,0E0,8.245971E0,5.8561516E0,1.1212258E1,3.6002205E1,1.745451E1,2.572689E0,2.162328E-1,0E0,0E0,0E0,5.179284E-1,7.537757E-1,2.2243881E-1,1.01014525E-1,3.7267485E0,4.2341404E0,0E0,5.570787E0,2.9994774E-1,4.602336E0,2.0145874E0,0E0,5.0406203E0,3.1937163E0,1.7924007E1,1.1612088E2,6.10112E0,1.8841377E1,2.2662892E0,3.710372E0,1.9705021E-1,0E0,1.2005774E0,1.7800218E-1,7.136004E-1,1.7932085E0,1.6287684E-1,0E0,6.325083E-2,0E0,3.573474E0,1.1854206E1,1.0559024E1,9.980341E0,3.501028E0,3.9040082E0,0E0,0E0,7.806443E0,0E0,7.378027E0,3.9699364E0,1.8125494E0,9.454537E0,7.756568E-1,1.1824212E0,1.0973244E1,8.633571E0,0E0,1.1411333E0,5.898182E0,2.0036016E0,4.044422E0,3.7838707E0,0E0,1.0622242E-1,4.0476832E0,3.1376047E0,0E0,0E0,0E0,0E0,0E0,0E0,0E0,0E0,0E0,0E0,0E0,0E0,0E0,0E0,0E0,0E0,0E0,0E0,0E0,0E0,0E0,0E0,0E0,0E0,0E0,0E0,0E0,0E0,0E0,0E0,0E0,0E0,0E0,0E0,0E0,0E0,0E0,0E0,0E0,0E0,0E0,0E0,0E0,0E0,0E0,0E0,0E0,0E0,0E0,0E0,0E0,0E0,0E0,0E0,0E0,0E0,0E0,0E0,0E0,0E0],"parents":[2147483647,0,0,1,1,2,2,3,3,4,4,5,5,6,6,7,7,8,8,9,9,10,10,11,11,12,12,13,13,14,14,15,15,16,16,19,19,20,20,21,21,22,22,25,25,26,26,27,27,28,28,29,29,30,30,31,31,35,35,36,36,37,37,38,38,39,39,40,40,42,42,43,43,44,44,45,45,47,47,48,48,49,49,50,50,51,51,52,52,53,53,54,54,55,55,57,57,58,58,59,59,60,60,61,61,63,63,65,65,66,66,67,67,68,68,69,69,70,70,73,73,75,75,76,76,77,77,78,78,79,79,80,80,81,81,82,82,84,84,85,85,86,86,87,87,88,88,90,90,91,91,92,92],"right_children":[2,4,6,8,10,12,14,16,18,20,22,24,26,28,30,32,34,-1,-1,36,38,40,42,-1,-1,44,46,48,50,52,54,56,-1,-1,-1,58,60,62,64,66,68,-1,70,72,74,76,-1,78,80,82,84,86,88,90,92,94,-1,96,98,100,102,104,-1,106,-1,108,110,112,114,116,118,-1,-1,120,-1,122,124,126,128,130,132,134,136,-1,138,140,142,144,146,-1,148,150,152,-1,-1,-1,-1,-1,-1,-1,-1,-1,-1,-1,-1,-1,-1,-1,-1,-1,-1,-1,-1,-1,-1,-1,-1,-1,-1,-1,-1,-1,-1,-1,-1,-1,-1,-1,-1,-1,-1,-1,-1,-1,-1,-1,-1,-1,-1,-1,-1,-1,-1,-1,-1,-1,-1,-1,-1,-1,-1,-1,-1],"split_conditions":[6.621175E-1,5E-1,1.7734967E-2,5.348941E-1,6.4979887E-1,7.703592E-1,4.6903133E-2,3.7589142E-1,2.2506302E-3,6.474741E-1,8.5862064E-1,7.563675E-1,8.2218254E-1,8.2218254E-1,8.352535E-1,7.6129995E-2,3.9780295E-1,-2.7149247E-2,-1.5160156E-2,3.989272E-1,7.988837E-1,6.142506E-3,6.85542E-1,1.3029308E-2,1.081979E-1,2.2506302E-3,9.28372E-1,4.1296717E-4,4.0511344E-2,8.224432E-1,5.0054014E-2,2.4243233E-1,-3.7250766E-3,2.5718473E-2,9.074202E-3,3.8835415E-1,4.1206574E-1,7.514404E-1,8.9683115E-1,1.389089E-1,3.1526828E-1,-1.9848784E-2,6.621622E-1,8.0460525E-1,7.9888636E-1,8.571358E-1,-2.2672972E-2,4.0061217E-2,1.48936175E-2,8.349742E-1,4.204177E-2,8.1822E-1,2.807886E-1,1.637931E-1,6.1127115E-2,1.24566406E-1,8.553998E-3,3.8399246E-1,1.5880446E-1,6.364782E-2,4.1965395E-1,1.637931E-1,1.7028512E-2,5.137931E-1,-2.6456623E-3,1.0199856E-1,1.396291E-1,6.621622E-1,3.293122E-1,3.1148937E-1,9.055636E-1,-2.0273507E-2,-4.29476E-2,7.938249E-1,-1.5639303E-2,8.349742E-1,8.76709E-1,7.008511E-1,7.759628E-1,1.0172413E-1,7.715645E-1,5.0082594E-1,2.7367663E-2,2.2658178E-1,4.4382427E-2,7.5122225E-1,2.604429E-1,1.6474614E-1,6.0565114E-1,-3.582519E-2,8.751397E-1,5.3565E-2,2.7027026E-2,5.8224294E-3,-3.261145E-3,-2.2945103E-4,3.8182277E-3,1.4492233E-3,-2.8558248E-3,-1.125561E-2,3.6102429E-3,-6.5403692E-3,8.881612E-4,-1.117405E-4,7.826922E-3,-1.3411805E-3,3.8729091E-3,-4.711283E-5,-2.2110665E-2,3.1488832E-2,-7.738563E-3,6.059408E-4,-5.6527494E-3,-1.50399385E-2,-2.6095759E-3,3.0441007E-3,3.5749137E-2,1.5125194E-2,2.0534491E-4,3.5282108E-3,5.659107E-2,3.1589206E-2,-3.8002199E-3,5.051521E-2,2.1100717E-2,-1.2330013E-2,5.0401352E-3,1.159421E-2,-5.842025E-2,-2.474074E-2,-3.9665755E-3,1.2829221E-2,4.9159555E-3,1.769169E-2,6.0228556E-2,-1.4056301E-2,8.2156975E-3,2.6581069E-3,2.2448225E-2,8.952099E-4,3.291065E-3,-5.1610777E-3,-1.3513891E-4,1.6649062E-2,9.5982915E-3,6.1834273E-3,2.3354753E-3,1.0697226E-3,-6.2068137E-3,-2.2996585E-3,1.6349766E-2,-3.0419766E-3,1.4890691E-3],"split_indices":[1,0,5,1,1,1,5,1,5,1,3,1,1,1,1,6,1,0,0,1,5,11,5,0,0,5,1,8,5,1,5,1,0,0,0,1,1,5,5,5,5,0,11,1,1,1,0,5,10,1,5,1,5,3,5,1,0,1,5,5,1,3,0,3,0,5,5,11,5,10,5,0,0,1,0,1,1,10,1,3,1,8,5,0,5,1,5,5,11,0,1,5,11,0,0,0,0,0,0,0,0,0,0,0,0,0,0,0,0,0,0,0,0,0,0,0,0,0,0,0,0,0,0,0,0,0,0,0,0,0,0,0,0,0,0,0,0,0,0,0,0,0,0,0,0,0,0,0,0,0,0,0,0],"split_type":[0,0,0,0,0,0,0,0,0,0,0,0,0,0,0,0,0,0,0,0,0,0,0,0,0,0,0,0,0,0,0,0,0,0,0,0,0,0,0,0,0,0,0,0,0,0,0,0,0,0,0,0,0,0,0,0,0,0,0,0,0,0,0,0,0,0,0,0,0,0,0,0,0,0,0,0,0,0,0,0,0,0,0,0,0,0,0,0,0,0,0,0,0,0,0,0,0,0,0,0,0,0,0,0,0,0,0,0,0,0,0,0,0,0,0,0,0,0,0,0,0,0,0,0,0,0,0,0,0,0,0,0,0,0,0,0,0,0,0,0,0,0,0,0,0,0,0,0,0,0,0,0,0],"sum_hessian":[7.899E3,3.784E3,4.115E3,5.9E1,3.725E3,5.1E1,4.064E3,1E1,4.9E1,1.541E3,2.184E3,6E0,4.5E1,1.03E2,3.961E3,7E0,3E0,1.5E1,3.4E1,1.511E3,3E1,2.142E3,4.2E1,3E0,3E0,1.4E1,3.1E1,5.2E1,5.1E1,2.649E3,1.312E3,5E0,2E0,1E0,2E0,9.37E2,5.74E2,2.4E1,6E0,5.9E1,2.083E3,4E0,3.8E1,3E0,1.1E1,3E1,1E0,1.5E1,3.7E1,4.5E1,6E0,2.099E3,5.5E2,4E0,1.308E3,4E0,1E0,8.97E2,4E1,5.1E1,5.23E2,2.3E1,1E0,4E0,2E0,1.5E1,4.4E1,6.05E2,1.478E3,6E0,3.2E1,2E0,1E0,8E0,3E0,9E0,2.1E1,1.2E1,3E0,3E0,3.4E1,1.4E1,3.1E1,1E0,5E0,1.937E3,1.62E2,1.37E2,4.13E2,1E0,3E0,2E1,1.288E3,1E0,3E0,8.67E2,3E1,4E0,3.6E1,1E0,5E1,1.3E1,5.1E2,1E0,2.2E1,1E0,3E0,4E0,1.1E1,3E0,4.1E1,4.65E2,1.4E2,2.6E1,1.452E3,2E0,4E0,1E1,2.2E1,7E0,1E0,4E0,5E0,2E0,1.9E1,9E0,3E0,1E0,2E0,1E0,2E0,1.2E1,2.2E1,1.1E1,3E0,1E1,2.1E1,2E0,3E0,5.93E2,1.344E3,4.3E1,1.19E2,5.9E1,7.8E1,1.9E2,2.23E2,1E0,2E0,7E0,1.3E1,6.4E1,1.224E3],"tree_param":{"num_deleted":"0","num_feature":"12","num_nodes":"153","size_leaf_vector":"0"}},{"base_weights":[4.758683E-2,-6.956201E-2,1.5251276E-1,2.0527646E-2,-1.3499434E-1,4.6383667E0,1.3810652E-1,-2.386637E-3,8.0167286E-2,-4.2818114E-1,-1.1244567E-1,-3.5810363E-1,7.6522403E0,7.713026E-1,1.2545472E-1,5.392208E-3,-1.3003065E-1,3.555761E-1,6.2392797E-2,2.9265678E-2,-5.8843076E-1,-7.768024E-1,-1.0325905E-1,-1.8070428E0,1.7568358E0,2.2631157E1,4.578658E0,1.4046712E-1,1.1013446E0,1.4704299E-1,2.8599937E-2,-6.9985115E-3,1.03351496E-1,-1.3461566E-1,1.1299416E-1,2.960276E-1,9.1962117E-1,1.9548662E-1,3.665134E-2,3.6094725E-1,-2.2920265E-4,-6.34694E-1,6.314552E-1,7.6390594E-2,-9.2476624E-1,-1.4786987E-1,7.3350425E-4,-2.721722E0,2.3477858E-1,2.7847962E0,2.7883288E-1,-3.9446647E0,1.0786076E1,1.7765214E0,-3.249545E-1,2.146662E0,6.732625E-1,1.2649544E-1,2.6350772E-1,5.2422654E-2,-6.461319E-2,-4.5782938E-3,-3.1605738E-1,2.4011871E-1,7.179342E-2,1.10366486E-1,-1.3929012E-1,4.6599418E-1,1.6561079E-1,4.1802514E-1,1.1568646E-1,1.2815039E-1,6.90903E-3,-8.93255E-2,1.4028621E-2,-5.253179E-1,-1.2106047E0,1.1695013E0,-8.607923E-1,3.683336E-2,1.4547698E-1,-1.0174993E0,8.4892774E-1,-7.5616296E-3,-1.9665247E-1,4.220226E-1,-3.8125146E-2,7.2611034E-1,-1.1142382E1,-2.1358967E0,1.4880454E1,3.7465525E0,1.1702251E0,6.020271E-2,-5.423197E-1,4.259835E0,1.516319E0,1.1486452E0,-3.587849E-1,3.8369793E-1,1.1516695E-1,8.8535714E-1,2.369156E-1,1.2394034E-2,1.037509E-1,-2.3088665E-1,-2.2749538E-2,2.6355563E-2,-1.3907291E-2,-3.418587E-1,-1.0377511E-1,1.7605402E-1,2.707843E-1,-1.1235001E-2,1.5805727E-1,-1.524292E-1,-4.476241E-2,3.086345E-1,9.5526206E-1,2.2692682E-1,3.3625932E-3,5.818349E-1,2.5530243E-1,4.902896E-1,7.871214E-2,-4.829201E-3,2.182928E-1,-2.8496325E-1,1.779553E-2,-0E0,-2.0126861E-1,6.0456276E-2,-4.1317837E-3,-5.981749E-1,-7.215033E-2,-9.546932E-1,-1.4470699E0,2.008373E0,-5.8022845E-1,-1.1948241E0,1.08458E-1,-6.338317E-2,-3.627349E-3,4.494545E-1,-2.1422051E-1,2.0575464E-1,2.231197E0,-1.1236293E0,-2.5327893E-2,5.5451936E-1,1.876442E0,4.7704208E-1,-2.0141563E-1,-3.8723886E-1,-8.6709654E-1,2.745505E0,5.833807E0,2.2797818E0,3.6908385E-1,-1.9820462E-1,1.4680779E0,-1.0624857E0,1.6431375E0,-5.7213817E-2,7.486346E-1,-8.6777575E-2,1.2179108E-1,1.701561E0,-3.5633478E-1,3.085263E-1,9.503957E-2,7.328311E-2,-3.8701408E-2,2.0145154E0,4.8025437E-2,-1.3189691E-1,-4.4736952E-1,-5.5989295E-1,-1.2063019E-2],"categories":[],"categories_nodes":[],"categories_segments":[],"categories_sizes":[],"default_left":[true,true,true,true,true,true,true,true,true,true,true,true,true,true,true,true,true,true,true,true,true,true,true,true,true,false,true,true,true,true,true,true,true,true,false,true,false,true,true,false,true,true,true,true,true,true,true,false,false,false,false,true,true,true,true,true,true,true,true,true,true,true,true,true,true,false,true,true,true,true,true,true,true,true,true,true,true,true,false,false,false,true,false,true,true,true,true,false,false,false,false,false,true,true,true,true,true,true,true,true,true,true,true,true,true,true,true,false,false,false,false,false,false,false,false,false,false,false,false,false,false,false,false,false,false,false,false,false,false,false,false,false,false,false,false,false,false,false,false,false,false,false,false,false,false,false,false,false,false,false,false,false,false,false,false,false,false,false,false,false,false,false,false,false,false,false,false,false,false,false,false,false,false,false,false,false,false,false,false],"id":193,"left_children":[1,3,5,7,9,11,13,15,17,19,21,23,25,27,29,31,33,35,37,39,41,43,45,47,49,-1,51,53,55,57,59,61,63,65,-1,67,-1,69,71,-1,73,75,77,79,81,83,85,-1,-1,-1,-1,87,89,91,93,95,97,99,101,103,105,107,109,111,113,-1,115,117,119,121,123,125,127,129,131,133,135,137,-1,-1,-1,139,-1,141,143,145,147,-1,-1,-1,-1,-1,149,151,153,155,157,159,161,163,165,167,169,171,173,175,177,-1,-1,-1,-1,-1,-1,-1,-1,-1,-1,-1,-1,-1,-1,-1,-1,-1,-1,-1,-1,-1,-1,-1,-1,-1,-1,-1,-1,-1,-1,-1,-1,-1,-1,-1,-1,-1,-1,-1,-1,-1,-1,-1,-1,-1,-1,-1,-1,-1,-1,-1,-1,-1,-1,-1,-1,-1,-1,-1,-1,-1,-1,-1,-1,-1,-1,-1,-1,-1,-1,-1,-1],"loss_changes":[9.7152115E1,2.201562E1,2.691584E2,2.148557E0,1.4277977E1,2.0180304E2,3.3251648E1,1.1293104E0,2.1226017E0,1.1327242E1,1.2224043E1,1.7403372E1,3.4872153E2,1.6864506E1,8.517319E0,1.3007716E0,7.8179955E-2,7.763672E-1,1.4001139E0,3.9975154E-1,6.586197E0,3.4862823E0,9.198563E0,6.4741907E0,3.2426724E0,0E0,4.0228394E2,2.178788E1,2.3343575E1,7.957802E0,1.6515944E0,7.0578355E-1,5.091747E-1,7.9211235E-2,0E0,5.0464344E-1,0E0,1.1542504E0,9.348451E-1,0E0,4.891735E-2,6.7131653E0,3.8194442E0,7.455433E-3,4.1283436E0,9.492334E0,9.756883E0,0E0,0E0,0E0,0E0,1.1491426E2,2.4005353E2,6.0326633E0,1.8875175E0,1.8188171E1,1.8955769E1,8.233681E0,8.171169E0,1.2149221E0,1.0480348E0,2.7217358E-1,2.197975E-2,2.1604657E-2,7.069855E-1,0E0,7.357252E-2,6.792402E-1,1.3905603E-1,4.0055752E-1,6.623174E-1,1.0143102E0,8.2508135E-1,5.1970713E-2,2.814852E-2,3.0575829E0,5.539665E-1,5.3018365E0,0E0,0E0,0E0,4.5178127E0,0E0,7.766383E-2,1.17125435E1,1.9505949E1,7.5496063E0,0E0,0E0,0E0,0E0,0E0,1.9374495E0,9.447613E-1,5.9206676E-1,2.481865E0,1.0484156E1,1.1444538E1,1.7948727E1,1.9225481E1,3.6350098E0,2.0828821E1,4.854418E0,1.0384909E0,2.755169E1,6.220938E-1,6.860668E-1,0E0,0E0,0E0,0E0,0E0,0E0,0E0,0E0,0E0,0E0,0E0,0E0,0E0,0E0,0E0,0E0,0E0,0E0,0E0,0E0,0E0,0E0,0E0,0E0,0E0,0E0,0E0,0E0,0E0,0E0,0E0,0E0,0E0,0E0,0E0,0E0,0E0,0E0,0E0,0E0,0E0,0E0,0E0,0E0,0E0,0E0,0E0,0E0,0E0,0E0,0E0,0E0,0E0,0E0,0E0,0E0,0E0,0E0,0E0,0E0,0E0,0E0,0E0,0E0,0E0,0E0,0E0,0E0,0E0,0E0,0E0,0E0],"parents":[2147483647,0,0,1,1,2,2,3,3,4,4,5,5,6,6,7,7,8,8,9,9,10,10,11,11,12,12,13,13,14,14,15,15,16,16,17,17,18,18,19,19,20,20,21,21,22,22,23,23,24,24,26,26,27,27,28,28,29,29,30,30,31,31,32,32,33,33,35,35,37,37,38,38,40,40,41,41,42,42,43,43,44,44,45,45,46,46,51,51,52,52,53,53,54,54,55,55,56,56,57,57,58,58,59,59,60,60,61,61,62,62,63,63,64,64,66,66,67,67,68,68,69,69,70,70,71,71,72,72,73,73,74,74,75,75,76,76,77,77,81,81,83,83,84,84,85,85,86,86,92,92,93,93,94,94,95,95,96,96,97,97,98,98,99,99,100,100,101,101,102,102,103,103,104,104,105,105,106,106],"right_children":[2,4,6,8,10,12,14,16,18,20,22,24,26,28,30,32,34,36,38,40,42,44,46,48,50,-1,52,54,56,58,60,62,64,66,-1,68,-1,70,72,-1,74,76,78,80,82,84,86,-1,-1,-1,-1,88,90,92,94,96,98,100,102,104,106,108,110,112,114,-1,116,118,120,122,124,126,128,130,132,134,136,138,-1,-1,-1,140,-1,142,144,146,148,-1,-1,-1,-1,-1,150,152,154,156,158,160,162,164,166,168,170,172,174,176,178,-1,-1,-1,-1,-1,-1,-1,-1,-1,-1,-1,-1,-1,-1,-1,-1,-1,-1,-1,-1,-1,-1,-1,-1,-1,-1,-1,-1,-1,-1,-1,-1,-1,-1,-1,-1,-1,-1,-1,-1,-1,-1,-1,-1,-1,-1,-1,-1,-1,-1,-1,-1,-1,-1,-1,-1,-1,-1,-1,-1,-1,-1,-1,-1,-1,-1,-1,-1,-1,-1,-1,-1],"split_conditions":[6.621175E-1,6.572582E-1,2.7272727E-2,4.4565028E-1,7.418077E-2,8.2200134E-1,7.4137926E-2,4.3256068E-1,1.00918256E-1,5.5555556E-2,9.6551724E-2,1.166234E-1,8.349742E-1,8.2218254E-1,1.3137093E-1,3.989272E-1,9.206897E-1,6.965602E-1,1.6666667E-1,2.7272727E-2,5.6379306E-1,5.5555556E-2,2.777778E-1,4.4444448E-1,8.012924E-1,4.5262313E-1,2.777778E-1,7.7843237E-1,8.349742E-1,9.212121E-1,3.888889E-1,3.9342475E-1,4.044514E-1,1.2931034E-1,2.259883E-3,6.242424E-1,1.8392423E-2,7.090609E-2,6.2553835E-1,7.218945E-3,1.3267812E-1,3.948276E-1,6.081081E-1,1.3098668E-1,5E-1,5.5555556E-2,1.9670507E-1,-5.4434437E-2,4.6955715E-3,5.5695925E-2,5.5766576E-3,8.7090075E-1,8.7090075E-1,7.201557E-1,1.6666667E-1,1.8181819E-1,2.777778E-1,6.1127115E-2,6.142506E-3,6.0316885E-1,2.7518427E-1,2.800684E-1,9.212121E-1,4.5912856E-1,4.1965395E-1,2.2073297E-3,9.212121E-1,3.888889E-1,2.777778E-1,6.2234426E-1,4.2424244E-1,5.988887E-1,6.26517E-1,2.4666905E-2,2.2596326E-2,3.2586205E-1,2.777778E-1,8.181818E-1,-1.7215846E-2,7.366672E-4,2.9095395E-3,1.7644942E-1,1.6978554E-2,1.4314008E-1,9.650702E-2,1.8986318E-1,2.0795822E-1,1.4522206E-2,-2.2284763E-1,-4.2717934E-2,2.9760906E-1,7.493105E-2,7.4818814E-1,7.958708E-1,7.958708E-1,3.3333334E-1,3.888889E-1,8.571358E-1,5E-1,8.2218254E-1,1.3793103E-1,1.6807705E-1,8.349742E-1,1.6666667E-1,1.4619164E-1,9.02244E-1,5.4195177E-2,5.2711123E-4,-2.781458E-4,-6.8371743E-3,-2.0755022E-3,3.5210801E-3,5.4156855E-3,-2.2470001E-4,3.1611454E-3,-3.0485839E-3,-8.952482E-4,6.1726896E-3,1.910524E-2,4.538536E-3,6.7251865E-5,1.1636698E-2,5.1060487E-3,9.805792E-3,1.5742428E-3,-9.6584015E-5,4.365856E-3,-5.699265E-3,3.5591057E-4,-0E0,-4.025372E-3,1.2091255E-3,-8.263567E-5,-1.1963499E-2,-1.4430066E-3,-1.9093864E-2,-2.8941397E-2,4.016746E-2,-1.1604569E-2,-2.3896482E-2,2.16916E-3,-1.2676633E-3,-7.254698E-5,8.989089E-3,-4.2844103E-3,4.1150926E-3,4.462394E-2,-2.2472586E-2,-5.065579E-4,1.1090387E-2,3.752884E-2,9.540841E-3,-4.0283124E-3,-7.744777E-3,-1.734193E-2,5.49101E-2,1.1667614E-1,4.5595635E-2,7.3816767E-3,-3.964092E-3,2.9361557E-2,-2.1249713E-2,3.286275E-2,-1.1442763E-3,1.4972691E-2,-1.7355515E-3,2.4358216E-3,3.403122E-2,-7.1266955E-3,6.170526E-3,1.9007913E-3,1.4656623E-3,-7.740281E-4,4.0290307E-2,9.605087E-4,-2.6379381E-3,-8.94739E-3,-1.11978585E-2,-2.4126038E-4],"split_indices":[1,1,2,1,5,1,3,1,5,4,3,7,1,1,7,1,3,11,4,2,3,4,4,4,1,0,4,1,1,2,4,1,1,3,0,2,0,7,1,0,11,3,11,5,4,4,5,0,0,0,0,1,1,1,4,2,4,5,11,5,11,5,2,5,1,0,2,4,4,5,2,1,1,5,5,3,4,2,0,0,0,5,0,5,5,5,5,0,0,0,0,0,1,1,1,4,4,1,4,1,3,5,1,4,11,1,5,0,0,0,0,0,0,0,0,0,0,0,0,0,0,0,0,0,0,0,0,0,0,0,0,0,0,0,0,0,0,0,0,0,0,0,0,0,0,0,0,0,0,0,0,0,0,0,0,0,0,0,0,0,0,0,0,0,0,0,0,0,0,0,0,0,0,0,0,0,0,0,0],"split_type":[0,0,0,0,0,0,0,0,0,0,0,0,0,0,0,0,0,0,0,0,0,0,0,0,0,0,0,0,0,0,0,0,0,0,0,0,0,0,0,0,0,0,0,0,0,0,0,0,0,0,0,0,0,0,0,0,0,0,0,0,0,0,0,0,0,0,0,0,0,0,0,0,0,0,0,0,0,0,0,0,0,0,0,0,0,0,0,0,0,0,0,0,0,0,0,0,0,0,0,0,0,0,0,0,0,0,0,0,0,0,0,0,0,0,0,0,0,0,0,0,0,0,0,0,0,0,0,0,0,0,0,0,0,0,0,0,0,0,0,0,0,0,0,0,0,0,0,0,0,0,0,0,0,0,0,0,0,0,0,0,0,0,0,0,0,0,0,0,0,0,0,0,0,0,0,0,0,0,0],"sum_hessian":[7.903E3,3.734E3,4.169E3,1.571E3,2.163E3,1.3E1,4.156E3,1.135E3,4.36E2,1.54E2,2.009E3,5E0,8E0,8.1E1,4.075E3,1.07E3,6.5E1,2.6E1,4.1E2,4E1,1.14E2,2.7E1,1.982E3,3E0,2E0,1E0,7E0,2.8E1,5.3E1,3.332E3,7.43E2,9.5E2,1.2E2,6.4E1,1E0,2.4E1,2E0,6.6E1,3.44E2,3E0,3.7E1,1.1E2,4E0,4E0,2.3E1,1.387E3,5.95E2,2E0,1E0,1E0,1E0,3E0,4E0,6E0,2.2E1,1.5E1,3.8E1,2.833E3,4.99E2,5.92E2,1.51E2,9.43E2,7E0,2.2E1,9.8E1,1E0,6.3E1,1E1,1.4E1,1.7E1,4.9E1,8.4E1,2.6E2,5E0,3.2E1,9.3E1,1.7E1,3E0,1E0,3E0,1E0,2.2E1,1E0,3.58E2,1.029E3,5E1,5.45E2,2E0,1E0,1E0,3E0,1E0,5E0,8E0,1.4E1,3E0,1.2E1,2.6E1,1.2E1,1.19E2,2.714E3,2E1,4.79E2,3.33E2,2.59E2,3E1,1.21E2,2.18E2,7.25E2,6E0,1E0,8E0,1.4E1,5E1,4.8E1,5.5E1,8E0,8E0,2E0,1E1,4E0,8E0,9E0,4E0,4.5E1,3.4E1,5E1,9E0,2.51E2,3E0,2E0,9E0,2.3E1,8E1,1.3E1,9E0,8E0,2E0,1E0,1.9E1,3E0,2.3E1,3.35E2,2.7E1,1.002E3,4.5E1,5E0,6E0,5.39E2,3E0,2E0,3E0,5E0,1E1,4E0,2E0,1E0,7E0,5E0,5E0,2.1E1,9E0,3E0,5.4E1,6.5E1,8.6E1,2.628E3,1.2E1,8E0,3.18E2,1.61E2,1.52E2,1.81E2,7E0,2.52E2,2.1E1,9E0,2E0,1.19E2],"tree_param":{"num_deleted":"0","num_feature":"12","num_nodes":"179","size_leaf_vector":"0"}},{"base_weights":[4.4230904E-2,-5.544277E-2,1.3454731E-1,8.203134E-3,-1.0153796E-1,1.0608871E0,1.2362946E-1,-4.3001734E-3,9.966261E-2,-1.21793814E-1,2.9831603E-1,1.8490441E0,-2.6166937E-1,1.4675663E-1,2.1275429E-2,1.766744E-3,-1.6623196E-1,3.0976608E-1,7.970535E-2,-5.159906E-1,-1.0735098E-1,1.8270648E-1,8.8091433E-1,5.270996E-1,8.009868E0,-1.1887592E0,6.258912E0,2.4904245E-1,1.2128555E-1,1.1974709E-2,1.5732923E-1,-2.0634884E-3,2.789837E-1,7.3167674E-2,-1.8773396E-1,4.3431467E-1,8.79949E-2,4.511387E-2,1.5763505E-1,-1.0577479E-1,-9.102275E-1,1.0730287E-3,-1.3387167E-1,2.4056743E-1,-7.300982E-1,1.796733E0,6.4643663E-1,2.9457388E0,-4.4917655E-1,2.2291725E1,2.9954631E0,-4.054859E0,1.9373123E-1,2.8193173E0,8.122596E0,-1.8106976E-1,2.7296746E-1,2.1225306E-1,1.025167E-1,3.0205006E-2,-4.1049182E-1,4.4521075E-1,1.2768447E-1,-5.2470225E-3,2.8779873E-1,3.3203E-1,1.5874289E-1,-4.3900196E-2,1.16957285E-1,2.5498855E-1,-1.996902E-1,5.168496E-1,7.1379945E-2,-7.70182E-2,2.4848428E-1,3.178121E-1,1.4083808E-2,3.2692844E-1,-3.3218093E-2,-8.222539E-1,-8.217099E-3,-1.0639392E0,-2.3109367E-1,-9.138923E-3,1.3287451E-2,-1.9139215E-1,-2.0976832E-2,8.0876094E-1,1.1168674E-1,-1.3531225E0,2.5814462E-1,9.622783E-1,4.9174285E-1,6.718947E0,1.9939623E0,-7.5613433E-1,1.7574971E0,5.557114E-1,5.0010266E0,-1.0975264E1,-1.610028E0,-7.209696E-1,7.2737896E-1,1.6131979E-1,-6.8745375E-1,-5.9391793E-2,2.8727543E-1,8.761694E-2,3.4320524E-1,6.746365E-2,1.696931E-1,2.2547814E-1,2.3849815E-2,-7.601306E-1,-3.751131E-1,5.1706113E-2,1.5181203E-1,2.6746832E-2,-1.2449367E-2,1.2406966E-1,3.990053E-1,2.4297531E-1,4.3104494E-1,2.6260957E-2,1.7926621E-1,1.6198787E-1,-0E0,-2.5681558E-1,-1.584162E-1,2.4269868E-1,5.412519E-1,1.7455958E-1,-3.8953286E-2,-5.9406823E-3,-1.0051641E-1,3.5418543E-1,-0E0,4.7419474E-1,-4.0839883E-3,1.02284186E-1,-2.1074299E-2,2.563811E-1,4.8426825E-1,-1.5681697E-2,-1.9771278E-1,3.3552828E-1,-1.8686422E0,-1.0497484E-1,1.9978777E-1,-9.5215285E-1,-1.3692932E0,-1.3272116E-1,-2.8569072E-1,4.0283173E-2,-1.3265563E-2,6.595374E-2,6.4917183E-3,-6.4069983E-3,-2.3092301E-1,-1.3481584E-1,9.70933E-2,2.187515E-1,1.6334071E0,4.3548245E-2,1.111365E0,-1.0409458E0,1.5033756E0,-1.5950907E-2,1.8091031E0,8.0426526E-1,-2.4070445E-1,4.221177E-1,2.6836312E0,-2.0076065E0,-2.9481798E-1,2.7901359E0,2.7465048E-1,3.895451E-1,-2.2531233E0,1.9006722E-1,-1.0175622E0,-3.4744868E-1,5.6611876E0,9.6089885E-2,3.0849677E-1,-7.943779E-1,5.4290813E-1,4.5005855E-1,-1.8649709E-1,3.2811856E-1,1.9526331E-1,4.5951352E-1,-6.434272E-2,2.0194712E0,2.8578666E-1,-2.2128241E-2,9.783042E-2,2.4559231E-1,2.798288E-2,4.261821E-2,3.3305728E-1,-7.359887E-2,4.093196E-2,-1.0242075E0,-2.9526508E-1,-2.2417241E-1,-4.1339216E-1,-1.4841737E-1,7.72426E-2,-0E0,1.566064E-1],"categories":[],"categories_nodes":[],"categories_segments":[],"categories_sizes":[],"default_left":[true,true,true,true,true,true,true,true,true,true,true,true,true,true,true,true,true,true,true,true,true,true,true,true,true,true,true,true,true,true,true,true,true,true,true,true,true,true,true,true,true,true,true,true,true,false,true,true,true,false,true,true,true,false,false,true,true,true,true,true,true,false,true,true,true,true,true,false,true,false,true,true,true,true,true,true,true,true,true,true,true,true,true,true,true,true,true,true,true,false,true,true,true,false,true,true,true,false,false,false,true,true,true,true,true,true,true,true,true,true,true,true,true,true,true,true,true,false,false,false,false,false,false,false,false,false,false,false,false,false,false,false,false,false,false,false,false,false,false,false,false,false,false,false,false,false,false,false,false,false,false,false,false,false,false,false,false,false,false,false,false,false,false,false,false,false,false,false,false,false,false,false,false,false,false,false,false,false,false,false,false,false,false,false,false,false,false,false,false,false,false,false,false,false,false,false,false,false,false,false,false,false,false,false,false,false,false,false,false,false,false],"id":194,"left_children":[1,3,5,7,9,11,13,15,17,19,21,23,25,27,29,31,33,35,37,39,41,43,45,47,49,51,53,55,57,59,61,63,65,67,69,71,73,75,77,79,81,83,85,87,89,-1,91,93,95,-1,97,99,101,-1,-1,103,105,107,109,111,113,-1,115,117,119,121,123,-1,125,-1,127,129,131,133,135,137,139,141,143,145,147,149,151,153,155,157,159,161,163,-1,165,167,169,-1,171,173,175,-1,-1,-1,177,179,181,183,185,187,189,191,193,195,197,199,201,203,205,207,209,-1,-1,-1,-1,-1,-1,-1,-1,-1,-1,-1,-1,-1,-1,-1,-1,-1,-1,-1,-1,-1,-1,-1,-1,-1,-1,-1,-1,-1,-1,-1,-1,-1,-1,-1,-1,-1,-1,-1,-1,-1,-1,-1,-1,-1,-1,-1,-1,-1,-1,-1,-1,-1,-1,-1,-1,-1,-1,-1,-1,-1,-1,-1,-1,-1,-1,-1,-1,-1,-1,-1,-1,-1,-1,-1,-1,-1,-1,-1,-1,-1,-1,-1,-1,-1,-1,-1,-1,-1,-1,-1,-1,-1,-1],"loss_changes":[7.128579E1,1.1045299E1,4.1954803E1,1.8098307E0,1.7693253E1,5.056594E1,9.716915E0,1.3693272E0,7.842965E-1,1.1805254E1,7.0257807E0,2.4551422E2,1.13237686E2,8.71077E0,9.5528525E-1,1.4283772E0,2.653098E-1,4.3095672E-1,4.646877E-1,1.1813051E1,5.768238E0,4.716986E0,3.300006E0,6.0295753E1,3.5932867E2,6.503607E1,7.1656494E0,6.884941E0,4.5679474E0,5.4617767E0,3.853581E-1,1.2176272E0,9.236014E-2,2.4969202E-2,2.6144803E-1,2.888435E-1,1.7655611E-1,1.0204779E0,1.731025E0,2.5255396E0,3.7968082E0,4.9286105E-2,1.0459253E1,6.05919E0,3.4159155E0,0E0,5.217781E-1,2.174443E1,1.2847149E1,0E0,2.0197987E1,8.416608E1,5.707155E0,0E0,0E0,6.1706247E0,3.015934E0,7.4644585E0,5.2305202E0,8.389428E-1,2.5157118E-1,0E0,7.575023E-2,3.016178E-1,2.3701072E-1,6.4213514E-2,1.2718976E-2,0E0,1.563188E-2,0E0,8.73971E-2,7.6293945E-4,3.0766366E-2,3.8499031E-3,8.690441E-2,6.2820554E-1,3.409157E-1,2.6253128E-1,6.900026E-2,5.480905E0,6.5638745E-1,5.675278E-1,2.0774394E-2,4.3505535E-2,6.3366294E-2,7.8011284E0,7.321282E0,7.314913E0,4.6220284E0,0E0,4.303238E0,3.625E0,2.437991E0,0E0,6.443756E0,9.199498E0,3.2738562E0,0E0,0E0,0E0,5.8917484E0,1.2472317E0,3.9621082E1,1.8915224E-1,2.0330505E0,1.7294239E0,2.2498055E0,1.3314963E1,2.1270239E1,3.9802504E0,8.193232E0,4.095782E-1,1.0980864E0,1.6679037E-1,1.17931604E-1,6.0726866E-2,2.4763763E-2,0E0,0E0,0E0,0E0,0E0,0E0,0E0,0E0,0E0,0E0,0E0,0E0,0E0,0E0,0E0,0E0,0E0,0E0,0E0,0E0,0E0,0E0,0E0,0E0,0E0,0E0,0E0,0E0,0E0,0E0,0E0,0E0,0E0,0E0,0E0,0E0,0E0,0E0,0E0,0E0,0E0,0E0,0E0,0E0,0E0,0E0,0E0,0E0,0E0,0E0,0E0,0E0,0E0,0E0,0E0,0E0,0E0,0E0,0E0,0E0,0E0,0E0,0E0,0E0,0E0,0E0,0E0,0E0,0E0,0E0,0E0,0E0,0E0,0E0,0E0,0E0,0E0,0E0,0E0,0E0,0E0,0E0,0E0,0E0,0E0,0E0,0E0,0E0,0E0,0E0,0E0,0E0,0E0,0E0],"parents":[2147483647,0,0,1,1,2,2,3,3,4,4,5,5,6,6,7,7,8,8,9,9,10,10,11,11,12,12,13,13,14,14,15,15,16,16,17,17,18,18,19,19,20,20,21,21,22,22,23,23,24,24,25,25,26,26,27,27,28,28,29,29,30,30,31,31,32,32,33,33,34,34,35,35,36,36,37,37,38,38,39,39,40,40,41,41,42,42,43,43,44,44,46,46,47,47,48,48,50,50,51,51,52,52,55,55,56,56,57,57,58,58,59,59,60,60,62,62,63,63,64,64,65,65,66,66,68,68,70,70,71,71,72,72,73,73,74,74,75,75,76,76,77,77,78,78,79,79,80,80,81,81,82,82,83,83,84,84,85,85,86,86,87,87,88,88,90,90,91,91,92,92,94,94,95,95,96,96,100,100,101,101,102,102,103,103,104,104,105,105,106,106,107,107,108,108,109,109,110,110,111,111,112,112,113,113,114,114,115,115,116,116],"right_children":[2,4,6,8,10,12,14,16,18,20,22,24,26,28,30,32,34,36,38,40,42,44,46,48,50,52,54,56,58,60,62,64,66,68,70,72,74,76,78,80,82,84,86,88,90,-1,92,94,96,-1,98,100,102,-1,-1,104,106,108,110,112,114,-1,116,118,120,122,124,-1,126,-1,128,130,132,134,136,138,140,142,144,146,148,150,152,154,156,158,160,162,164,-1,166,168,170,-1,172,174,176,-1,-1,-1,178,180,182,184,186,188,190,192,194,196,198,200,202,204,206,208,210,-1,-1,-1,-1,-1,-1,-1,-1,-1,-1,-1,-1,-1,-1,-1,-1,-1,-1,-1,-1,-1,-1,-1,-1,-1,-1,-1,-1,-1,-1,-1,-1,-1,-1,-1,-1,-1,-1,-1,-1,-1,-1,-1,-1,-1,-1,-1,-1,-1,-1,-1,-1,-1,-1,-1,-1,-1,-1,-1,-1,-1,-1,-1,-1,-1,-1,-1,-1,-1,-1,-1,-1,-1,-1,-1,-1,-1,-1,-1,-1,-1,-1,-1,-1,-1,-1,-1,-1,-1,-1,-1,-1,-1,-1],"split_conditions":[6.621175E-1,6.572582E-1,5E-1,6.341465E-1,5E-1,8.349742E-1,1.3137093E-1,6.324857E-1,5.0082594E-1,1.7021276E-2,9.212121E-1,8.2218254E-1,5E-1,1.6666667E-1,9.859468E-1,5.3197986E-1,1.6666667E-1,7.008511E-1,6.474741E-1,1.6666667E-1,5.5555556E-2,8.333334E-1,3.5106385E-1,7.876776E-1,1.6666667E-1,2.7272727E-2,8.76709E-1,5.5555556E-2,5.181818E-1,9.699887E-1,1.2389015E-3,6.294689E-1,3.888889E-1,6.8723404E-1,4.2424244E-1,6.5037763E-1,7.5757575E-1,1.6666667E-1,6.4979887E-1,2.7272727E-2,3.3636364E-1,7.008511E-1,2.777778E-1,5.818182E-1,9.444444E-1,3.593466E-2,6.893617E-1,1.6666667E-1,1.166234E-1,4.458345E-1,2.777778E-1,1.6666667E-1,8.7090075E-1,5.6386344E-2,1.6245191E-1,7.807063E-1,4.1296717E-4,8.2218254E-1,8.30303E-1,6.747408E-1,5.5555556E-2,8.904215E-3,3.5106385E-1,1.0025515E-1,2.777778E-1,3.9234042E-1,5.181818E-1,-8.780039E-4,9.090909E-1,5.099771E-3,3.888889E-1,4.5757577E-1,2.777778E-1,4.1296717E-4,2.777778E-1,6.374643E-1,6.242424E-1,9.9787235E-1,5E-1,5.5555556E-2,3.3636364E-1,5E-1,2.777778E-1,7.4893616E-2,5.0082594E-1,5.181818E-1,7.008511E-1,1.6680852E-1,7.222222E-1,-2.706245E-2,5.6060606E-1,6.1111116E-1,6.1111116E-1,1.3437894E-1,7.563675E-1,2.7272727E-2,8.074397E-1,1.1114228E-2,1.0002053E-1,-2.1950527E-1,8.664447E-1,2.2222222E-1,2.777778E-1,7.008511E-1,8.2185304E-1,7.759628E-1,8.349742E-1,7.6706135E-1,4.1296717E-4,7.807063E-1,8.349742E-1,3.9234042E-1,7.5122225E-1,3.3636364E-1,1.6666667E-1,5.0082594E-1,5.181818E-1,5.349366E-4,-2.4898734E-4,2.481393E-3,7.9801055E-3,4.859506E-3,8.620898E-3,5.2521913E-4,3.5853242E-3,3.2397574E-3,-0E0,-5.1363115E-3,-3.1683238E-3,4.8539736E-3,1.0825038E-2,3.4911914E-3,-7.790657E-4,-1.18813645E-4,-2.0103282E-3,7.0837084E-3,-0E0,9.483894E-3,-8.167976E-5,2.0456836E-3,-4.2148598E-4,5.127622E-3,9.685365E-3,-3.1363394E-4,-3.9542555E-3,6.7105656E-3,-3.7372842E-2,-2.0994968E-3,3.995755E-3,-1.9043056E-2,-2.7385864E-2,-2.654423E-3,-5.7138144E-3,8.0566347E-4,-2.6531125E-4,1.3190748E-3,1.2983437E-4,-1.2813996E-4,-4.6184603E-3,-2.6963167E-3,1.9418659E-3,4.37503E-3,3.266814E-2,8.709649E-4,2.2227298E-2,-2.0818915E-2,3.0067513E-2,-3.1901815E-4,3.618206E-2,1.6085304E-2,-4.814089E-3,8.442354E-3,5.3672623E-2,-4.015213E-2,-5.8963597E-3,5.5802718E-2,5.4930095E-3,7.790902E-3,-4.5062464E-2,3.8013442E-3,-2.0351242E-2,-6.9489735E-3,1.13223754E-1,1.9217976E-3,6.169935E-3,-1.5887558E-2,1.0858162E-2,9.001171E-3,-3.7299418E-3,6.5623713E-3,3.905266E-3,9.19027E-3,-1.2868544E-3,4.0389422E-2,5.715733E-3,-4.425648E-4,1.9566084E-3,4.911846E-3,5.596576E-4,8.5236423E-4,6.6611455E-3,-1.4719773E-3,8.186392E-4,-2.048415E-2,-5.9053013E-3,-4.4834483E-3,-8.267843E-3,-2.9683474E-3,1.5448519E-3,-0E0,3.1321282E-3],"split_indices":[1,1,0,1,4,1,7,1,8,10,2,1,4,4,1,9,4,10,1,4,4,4,10,1,4,2,1,4,2,1,8,1,4,10,2,1,2,4,1,2,2,10,4,2,4,0,10,4,7,0,4,4,1,0,0,1,8,1,2,1,4,0,10,1,4,10,2,0,2,0,4,2,4,8,4,1,2,10,4,4,2,0,4,10,8,2,10,10,4,0,2,4,4,0,1,2,1,0,0,0,1,4,4,10,1,1,1,1,8,1,1,10,1,2,4,8,2,0,0,0,0,0,0,0,0,0,0,0,0,0,0,0,0,0,0,0,0,0,0,0,0,0,0,0,0,0,0,0,0,0,0,0,0,0,0,0,0,0,0,0,0,0,0,0,0,0,0,0,0,0,0,0,0,0,0,0,0,0,0,0,0,0,0,0,0,0,0,0,0,0,0,0,0,0,0,0,0,0,0,0,0,0,0,0,0,0,0,0,0,0,0],"split_type":[0,0,0,0,0,0,0,0,0,0,0,0,0,0,0,0,0,0,0,0,0,0,0,0,0,0,0,0,0,0,0,0,0,0,0,0,0,0,0,0,0,0,0,0,0,0,0,0,0,0,0,0,0,0,0,0,0,0,0,0,0,0,0,0,0,0,0,0,0,0,0,0,0,0,0,0,0,0,0,0,0,0,0,0,0,0,0,0,0,0,0,0,0,0,0,0,0,0,0,0,0,0,0,0,0,0,0,0,0,0,0,0,0,0,0,0,0,0,0,0,0,0,0,0,0,0,0,0,0,0,0,0,0,0,0,0,0,0,0,0,0,0,0,0,0,0,0,0,0,0,0,0,0,0,0,0,0,0,0,0,0,0,0,0,0,0,0,0,0,0,0,0,0,0,0,0,0,0,0,0,0,0,0,0,0,0,0,0,0,0,0,0,0,0,0,0,0,0,0,0,0,0,0,0,0,0,0,0,0,0,0],"sum_hessian":[7.918E3,3.764E3,4.154E3,1.581E3,2.183E3,4.8E1,4.106E3,1.391E3,1.9E2,2.078E3,1.05E2,3E1,1.8E1,3.349E3,7.57E2,1.341E3,5E1,1.6E1,1.74E2,7.3E1,2.005E3,8.8E1,1.7E1,2.5E1,5E0,1.6E1,2E0,6.67E2,2.682E3,7.09E2,4.8E1,1.323E3,1.8E1,4E0,4.6E1,1E1,6E0,1.21E2,5.3E1,3.6E1,3.7E1,3.94E2,1.611E3,8.3E1,5E0,3E0,1.4E1,7E0,1.8E1,1E0,4E0,5E0,1.1E1,1E0,1E0,3.5E1,6.32E2,4.58E2,2.224E3,6.8E2,2.9E1,4E0,4.4E1,1.309E3,1.4E1,1.2E1,6E0,1E0,3E0,1E0,4.5E1,8E0,2E0,3E0,3E0,1.2E1,1.09E2,2.8E1,2.5E1,4E0,3.2E1,3E1,7E0,2.14E2,1.8E2,1.067E3,5.44E2,1.5E1,6.8E1,3E0,2E0,4E0,1E1,1E0,6E0,1.6E1,2E0,2E0,2E0,1E0,4E0,4E0,7E0,2.1E1,1.4E1,2.6E1,6.06E2,2.35E2,2.23E2,1.462E3,7.62E2,2.1E1,6.59E2,2E0,2.7E1,1.1E1,3.3E1,2.4E2,1.069E3,6E0,8E0,7E0,5E0,1E0,5E0,2E0,1E0,1.8E1,2.7E1,1E0,7E0,1E0,1E0,1E0,2E0,2E0,1E0,8E0,4E0,3.1E1,7.8E1,2E1,8E0,2.3E1,2E0,2E0,2E0,2.2E1,1E1,2.3E1,7E0,3E0,4E0,1.6E1,1.98E2,2E1,1.6E2,1.88E2,8.79E2,2.77E2,2.67E2,9E0,6E0,6.4E1,4E0,1E0,1E0,2E0,2E0,7E0,3E0,2E0,4E0,4E0,1.2E1,1E0,1E0,1E0,3E0,1E0,3E0,6E0,1E0,1.5E1,6E0,1.3E1,1E0,5E0,2.1E1,4.19E2,1.87E2,6.8E1,1.67E2,7E0,2.16E2,3.7E2,1.092E3,4.96E2,2.66E2,8E0,1.3E1,9.8E1,5.61E2,1E0,1E0,6E0,2.1E1,1E0,1E1,1E0,3.2E1],"tree_param":{"num_deleted":"0","num_feature":"12","num_nodes":"211","size_leaf_vector":"0"}},{"base_weights":[3.3952463E-2,-6.299298E-2,1.2200547E-1,1.4916772E-2,-1.1552145E-1,2.6860979E0,1.12491645E-1,6.748819E-4,1.2330442E-1,-5.328492E-1,-9.9473156E-2,5.815713E-1,4.428887E0,1.3333005E-1,1.6610054E-2,6.9545805E-3,-1.604049E-1,6.8346655E-1,1.0889729E-1,-2.274474E-1,-8.1267816E-1,-1.3512136E-1,-1.6790554E-2,5.3326077E0,-1.5307642E0,1.4222048E1,5.8530235E-1,1.5877908E-1,6.1864596E-2,6.8760933E-3,1.7648385E-1,2.7688884E-3,2.8198972E-1,2.511641E-1,-1.7073439E-1,-1.6029928E-2,8.991895E-1,3.227388E-1,8.002171E-2,1.8514363E-2,-3.5898733E-1,-8.8831985E-1,-5.4106855E-1,-5.7865498E-3,-1.8223989E-1,1.0482127E-1,-1.657015E-1,6.618172E0,2.7027793E0,2.7053106E-1,-1.9705441E0,2.1957386E1,2.9193933E0,-1.0810652E1,3.4005914E0,1.22596495E-1,2.0003636E-1,4.3389324E-2,1.769771E-1,2.286441E-2,-4.0026814E-1,7.282001E-2,2.1622275E-1,4.2184463E-4,2.6305205E-1,3.4237355E-1,1.65668E-1,-2.1896714E-1,-7.665448E-2,4.205125E-1,1.0381172E0,-0E0,5.787535E-1,2.2244206E-2,3.0244827E-1,-1.7231637E-1,-4.8822445E-1,-7.062728E-1,-1.0857352E0,-1.5949928E0,-3.696347E-1,3.4841123E-1,-8.751858E-3,-3.4095752E-1,-1.7046541E-1,-9.2867684E-1,1.202756E-1,-7.0900954E-2,-3.899661E-1,-2.6705158E0,2.6136813E-1,-1.3222402E0,9.667515E0,1.4281332E-1,-6.472954E-2,3.9137408E-1,1.11048386E-1,-1.8614703E-1,5.5403963E-2,2.676373E-1,-1.1446636E-2,-3.8216382E-2,5.7579514E-2,-6.7263305E-1,-3.68078E-1,3.402781E-1,8.693129E-3,1.8335399E-1,4.5982736E-1,-6.594708E-3,4.5542486E-2,3.3363494E-1,-5.0746445E-2,3.9444166E-1,2.466993E-1,5.0697606E-2,2.0293649E-1,-3.264993E-1,-1.9944003E-1,-1.2290437E-1,1.25603E-1,-1.6552426E-1,2.0443955E-1,6.3650876E-1,-2.8462703E-3,1.3830827E-1,-1.4554103E-2,3.460155E-1,-9.383703E-2,-6.445799E-1,-3.9038798E-1,-6.64288E-2,-8.822915E-1,-1.1485561E0,-7.404115E-1,-1.8097953E-1,-1.4454923E0,2.9535838E-3,-2.6886854E-2,-1.9791614E-1,-4.6013904E-1,2.7671529E-2,-1.8332738E-1,2.9630998E-1,3.98409E-2,-1.342933E-1,5.1359785E-1,1.798138E0,-4.224216E-1,8.427709E-1,-2.3765986E0,1.3308234E0,1.345E-1,-9.5257175E-1,-4.120512E-2,1.4874746E0,3.3081722E-1,-1.0635841E0,1.279066E-1,-7.4203864E-2,-4.8569784E-1,1.13929175E-1,1.7785303E-2,1.444924E-1,5.318186E-1,1.3552858E0,-1.3376075E-1,1.1911751E-2,-4.192422E-1,-1.5625966E-1,1.0097367E-1,-1.008846E0,-1.5751252E-1,-4.7674102E-1,-3.1420043E-1,-4.031748E-2,5.9834648E-2,2.0920713E-1,8.4364876E-2],"categories":[],"categories_nodes":[],"categories_segments":[],"categories_sizes":[],"default_left":[true,true,true,true,true,true,true,true,true,true,true,true,true,true,true,true,true,true,true,true,true,true,true,true,true,true,true,true,true,true,true,true,true,false,true,false,true,true,true,false,true,true,true,true,true,true,true,false,false,false,true,false,false,false,true,true,true,true,true,true,true,true,true,true,true,true,true,true,true,false,false,true,true,true,true,false,true,true,true,false,true,false,true,true,true,false,true,true,true,false,false,true,false,true,true,true,true,true,true,true,true,true,true,true,true,false,true,true,false,false,false,false,false,false,false,false,false,false,false,false,false,false,false,false,false,false,false,false,false,false,false,false,false,false,false,false,false,false,false,false,false,false,false,false,false,false,false,false,false,false,false,false,false,false,false,false,false,false,false,false,false,false,false,false,false,false,false,false,false,false,false,false,false,false,false,false,false,false,false],"id":195,"left_children":[1,3,5,7,9,11,13,15,17,19,21,23,25,27,29,31,33,35,37,39,41,43,45,47,49,51,53,55,57,59,61,63,65,-1,67,-1,69,71,73,-1,75,77,79,81,83,85,87,-1,-1,-1,89,-1,-1,-1,91,93,95,97,99,101,103,105,107,109,111,113,115,117,119,-1,-1,121,123,125,127,-1,129,131,133,-1,135,-1,137,139,141,-1,143,145,147,-1,-1,149,-1,151,153,155,157,159,161,163,165,167,169,171,173,-1,175,177,-1,-1,-1,-1,-1,-1,-1,-1,-1,-1,-1,-1,-1,-1,-1,-1,-1,-1,-1,-1,-1,-1,-1,-1,-1,-1,-1,-1,-1,-1,-1,-1,-1,-1,-1,-1,-1,-1,-1,-1,-1,-1,-1,-1,-1,-1,-1,-1,-1,-1,-1,-1,-1,-1,-1,-1,-1,-1,-1,-1,-1,-1,-1,-1,-1,-1,-1,-1,-1,-1,-1],"loss_changes":[6.765673E1,1.5440208E1,1.0117709E2,2.3435152E0,1.5064779E1,5.5308884E1,8.2655945E0,1.3570087E0,1.3869464E0,7.045223E0,6.394102E0,7.6373474E1,3.1069177E2,6.176033E0,1.1475345E0,1.4845793E0,2.2713518E-1,6.7131376E-1,1.049767E0,1.3120139E0,7.096176E-1,9.237602E0,1.1856203E1,1.7911224E0,4.4270563E0,1.82284E2,2.1534975E2,3.7286606E0,1.8941791E0,4.5369964E0,1.6501856E-1,7.7469E-1,1.0963595E-1,0E0,2.1404815E-1,0E0,5.5300713E-2,1.6782684E0,1.9508009E0,0E0,5.978136E-1,9.1669273E-1,1.6424077E0,4.218959E-1,2.0502014E0,5.7809715E0,6.2418556E0,0E0,0E0,0E0,7.037197E0,0E0,0E0,0E0,1.6223982E2,5.065075E0,1.9905323E1,2.1259968E0,2.1115243E0,1.4245229E0,1.3347149E-1,2.0557031E-1,2.0558977E-1,4.0061617E-1,2.6070392E-1,1.9845128E-2,2.4373531E-2,3.8676858E-2,1.6725336E-1,0E0,0E0,3.2724768E-1,3.9033985E-1,5.2064705E-1,5.5539894E-1,0E0,1.3588357E-1,2.031722E0,2.2108078E-2,0E0,1.7839404E0,0E0,8.577447E-2,1.261569E0,2.6423874E0,0E0,5.022532E0,7.699867E0,6.435746E0,0E0,0E0,8.299106E0,0E0,1.183354E1,2.6948774E0,2.4457748E1,1.5860588E1,1.2654184E0,1.6097801E0,2.6757808E0,6.7856026E0,4.6551723E0,3.9791384E0,3.3450675E-1,8.1226826E-2,0E0,2.6983468E-2,5.987805E-2,0E0,0E0,0E0,0E0,0E0,0E0,0E0,0E0,0E0,0E0,0E0,0E0,0E0,0E0,0E0,0E0,0E0,0E0,0E0,0E0,0E0,0E0,0E0,0E0,0E0,0E0,0E0,0E0,0E0,0E0,0E0,0E0,0E0,0E0,0E0,0E0,0E0,0E0,0E0,0E0,0E0,0E0,0E0,0E0,0E0,0E0,0E0,0E0,0E0,0E0,0E0,0E0,0E0,0E0,0E0,0E0,0E0,0E0,0E0,0E0,0E0,0E0,0E0,0E0,0E0,0E0,0E0,0E0,0E0,0E0,0E0],"parents":[2147483647,0,0,1,1,2,2,3,3,4,4,5,5,6,6,7,7,8,8,9,9,10,10,11,11,12,12,13,13,14,14,15,15,16,16,17,17,18,18,19,19,20,20,21,21,22,22,23,23,24,24,25,25,26,26,27,27,28,28,29,29,30,30,31,31,32,32,34,34,36,36,37,37,38,38,40,40,41,41,42,42,43,43,44,44,45,45,46,46,50,50,54,54,55,55,56,56,57,57,58,58,59,59,60,60,61,61,62,62,63,63,64,64,65,65,66,66,67,67,68,68,71,71,72,72,73,73,74,74,76,76,77,77,78,78,80,80,82,82,83,83,84,84,86,86,87,87,88,88,91,91,93,93,94,94,95,95,96,96,97,97,98,98,99,99,100,100,101,101,102,102,103,103,104,104,106,106,107,107],"right_children":[2,4,6,8,10,12,14,16,18,20,22,24,26,28,30,32,34,36,38,40,42,44,46,48,50,52,54,56,58,60,62,64,66,-1,68,-1,70,72,74,-1,76,78,80,82,84,86,88,-1,-1,-1,90,-1,-1,-1,92,94,96,98,100,102,104,106,108,110,112,114,116,118,120,-1,-1,122,124,126,128,-1,130,132,134,-1,136,-1,138,140,142,-1,144,146,148,-1,-1,150,-1,152,154,156,158,160,162,164,166,168,170,172,174,-1,176,178,-1,-1,-1,-1,-1,-1,-1,-1,-1,-1,-1,-1,-1,-1,-1,-1,-1,-1,-1,-1,-1,-1,-1,-1,-1,-1,-1,-1,-1,-1,-1,-1,-1,-1,-1,-1,-1,-1,-1,-1,-1,-1,-1,-1,-1,-1,-1,-1,-1,-1,-1,-1,-1,-1,-1,-1,-1,-1,-1,-1,-1,-1,-1,-1,-1,-1,-1,-1,-1,-1,-1],"split_conditions":[6.621175E-1,6.52107E-1,2.7272727E-2,6.341465E-1,1.8427517E-2,8.2218254E-1,1.3137093E-1,6.324857E-1,3.3636364E-1,1.6666667E-1,2.777778E-1,7.876776E-1,8.3943033E-1,3.888889E-1,9.859468E-1,9.689189E-1,4.2424244E-1,9.689189E-1,1.6666667E-1,5.5555556E-2,3.888889E-1,5.5555556E-2,3.888889E-1,7.753007E-1,9.8790765E-1,2.2222222E-1,1.6666667E-1,8.2218254E-1,9.212121E-1,9.699887E-1,6.0565114E-1,6.294689E-1,3.888889E-1,5.023282E-3,7.2727275E-1,-3.2059854E-4,6.4103043E-1,9.689189E-1,6.474741E-1,3.7028725E-4,6.818182E-1,2.777778E-1,6.818182E-1,2.7272727E-2,1.3636363E-1,5E-1,7.2727275E-1,1.3236344E-1,5.4055586E-2,5.410621E-3,4.4444448E-1,4.391477E-1,5.8387864E-2,-2.1621303E-1,8.7090075E-1,8.0966675E-1,8.349742E-1,1.3267812E-1,8.349742E-1,9.5682657E-1,5.5555556E-2,7.985258E-2,8.30303E-1,9.212121E-1,9.212121E-1,6.4742017E-1,2.923833E-1,5.181818E-1,5E-1,8.41025E-3,2.0762343E-2,6.666666E-1,8.378378E-1,6.242424E-1,6.4979887E-1,-3.4463273E-3,6.142506E-3,6.818182E-1,6.142506E-3,-3.1899855E-2,6.142506E-3,6.9682244E-3,7.5757575E-1,1.6666667E-1,1.4127764E-1,-1.8573536E-2,3.4520882E-1,6.965602E-1,4.2424244E-1,-5.3410314E-2,5.2273623E-3,2.777778E-1,1.9335029E-1,5E-1,5E-1,1.8427517E-2,5E-1,5E-1,6.242424E-1,8.2218254E-1,6.142506E-3,9.345995E-1,7.684338E-1,4.6060607E-1,2.5921375E-1,6.8055615E-3,3.888889E-1,9.533169E-1,9.196547E-3,-1.3189416E-4,9.108497E-4,6.6726985E-3,-1.0149289E-3,7.888833E-3,4.933986E-3,1.0139521E-3,4.0587294E-3,-6.529986E-3,-3.9888006E-3,-2.4580874E-3,2.51206E-3,-3.310485E-3,4.088791E-3,1.2730175E-2,-5.6925404E-5,2.7661654E-3,-2.9108205E-4,6.92031E-3,-1.8767406E-3,-1.2891597E-2,-7.8077596E-3,-1.328576E-3,-1.764583E-2,-2.2971122E-2,-1.480823E-2,-3.6195905E-3,-2.8909845E-2,5.9071677E-5,-5.377371E-4,-3.9583226E-3,-9.20278E-3,5.534306E-4,-3.6665474E-3,5.9261993E-3,7.9681794E-4,-2.685866E-3,1.0271957E-2,3.596276E-2,-8.448432E-3,1.6855417E-2,-4.753197E-2,2.6616467E-2,2.69E-3,-1.9051434E-2,-8.241024E-4,2.974949E-2,6.616344E-3,-2.1271681E-2,2.5581322E-3,-1.4840772E-3,-9.713956E-3,2.2785834E-3,3.5570606E-4,2.889848E-3,1.06363725E-2,2.7105715E-2,-2.675215E-3,2.38235E-4,-8.384844E-3,-3.125193E-3,2.0194734E-3,-2.0176921E-2,-3.1502503E-3,-9.53482E-3,-6.2840083E-3,-8.0634956E-4,1.1966929E-3,4.1841427E-3,1.6872975E-3],"split_indices":[1,1,2,1,11,1,7,1,2,4,4,1,1,4,1,6,2,6,4,4,4,4,4,1,6,4,4,1,2,1,11,1,4,0,11,0,1,6,1,0,2,4,2,2,11,0,11,0,0,0,4,0,0,0,1,1,1,11,1,6,4,11,2,2,2,11,11,2,4,0,0,2,11,2,1,0,11,2,11,0,11,0,2,4,11,0,11,11,2,0,0,4,0,0,0,11,0,4,2,1,11,1,1,2,11,0,4,11,0,0,0,0,0,0,0,0,0,0,0,0,0,0,0,0,0,0,0,0,0,0,0,0,0,0,0,0,0,0,0,0,0,0,0,0,0,0,0,0,0,0,0,0,0,0,0,0,0,0,0,0,0,0,0,0,0,0,0,0,0,0,0,0,0,0,0,0,0,0,0],"split_type":[0,0,0,0,0,0,0,0,0,0,0,0,0,0,0,0,0,0,0,0,0,0,0,0,0,0,0,0,0,0,0,0,0,0,0,0,0,0,0,0,0,0,0,0,0,0,0,0,0,0,0,0,0,0,0,0,0,0,0,0,0,0,0,0,0,0,0,0,0,0,0,0,0,0,0,0,0,0,0,0,0,0,0,0,0,0,0,0,0,0,0,0,0,0,0,0,0,0,0,0,0,0,0,0,0,0,0,0,0,0,0,0,0,0,0,0,0,0,0,0,0,0,0,0,0,0,0,0,0,0,0,0,0,0,0,0,0,0,0,0,0,0,0,0,0,0,0,0,0,0,0,0,0,0,0,0,0,0,0,0,0,0,0,0,0,0,0,0,0,0,0,0,0,0,0,0,0,0,0],"sum_hessian":[7.925E3,3.772E3,4.153E3,1.519E3,2.253E3,1.5E1,4.138E3,1.343E3,1.76E2,8.3E1,2.17E3,7E0,8E0,3.399E3,7.39E2,1.293E3,5E1,4E0,1.72E2,4E1,4.3E1,1.516E3,6.54E2,2E0,5E0,2E0,6E0,2.506E3,8.93E2,6.97E2,4.2E1,1.274E3,1.9E1,1E0,4.9E1,1E0,3E0,2E1,1.52E2,1.4E1,2.6E1,3.3E1,1E1,4.05E2,1.111E3,3.6E2,2.94E2,1E0,1E0,1E0,4E0,1E0,1E0,1E0,5E0,1.336E3,1.17E3,7.7E2,1.23E2,6.71E2,2.6E1,1.2E1,3E1,1.263E3,1.1E1,1.2E1,7E0,3.2E1,1.7E1,1E0,2E0,9E0,1.1E1,1.21E2,3.1E1,1.1E1,1.5E1,1.8E1,1.5E1,1E0,9E0,3E0,4.02E2,7.6E1,1.035E3,5E0,3.55E2,2.07E2,8.7E1,3E0,1E0,3E0,2E0,1.206E3,1.3E2,3.71E2,7.99E2,3.8E1,7.32E2,8.3E1,4E1,2.43E2,4.28E2,2E0,2.4E1,2E0,1E1,2.7E1,3E0,1.093E3,1.7E2,9E0,2E0,7E0,5E0,2E0,5E0,4E0,2.8E1,1.4E1,3E0,5E0,4E0,1E1,1E0,2.9E1,9.2E1,2.8E1,3E0,5E0,1E1,4E0,1.4E1,1.2E1,3E0,8E0,1E0,2.44E2,1.58E2,3.5E1,4.1E1,6.3E1,9.72E2,1.11E2,2.44E2,1.87E2,2E1,1E0,8.6E1,1E0,2E0,8E0,1.198E3,3E0,1.27E2,1.9E1,3.52E2,1.1E1,7.88E2,2.8E1,1E1,2.86E2,4.46E2,5.7E1,2.6E1,3E0,3.7E1,2.15E2,2.8E1,7.2E1,3.56E2,1E0,1E0,7E0,1.7E1,5E0,5E0,2.1E1,6E0],"tree_param":{"num_deleted":"0","num_feature":"12","num_nodes":"179","size_leaf_vector":"0"}},{"base_weights":[4.4272333E-2,2.2483562E-1,4.1533273E-2,1.6238923E-1,4.632539E-1,-5.470069E-3,4.9452376E-2,6.775209E-2,2.9967976E-1,7.695907E-1,2.6578185E-1,4.0799744E-2,-1.3497134E-2,5.518756E-4,5.6429327E-2,1.4215058E-1,-2.3057406E-1,8.824719E-3,3.7582114E-1,-1.3459398E-1,8.851886E-1,-1.2604594E-1,4.6082142E-1,-9.2258095E-4,1.0391727E-1,-1.06293306E-1,-8.3457045E-3,1.7932389E-2,-3.927332E-1,1.8797734E-1,4.5294892E-2,-6.954198E-2,2.963123E-1,-3.9573336E-1,2.0110092E-1,-8.2521036E-2,5.196738E-1,4.9456587E-1,8.945109E-2,3.7309998E-1,1.1472287E0,1.9916014E-1,-5.7871765E-1,1.4343357E0,3.0374283E-1,8.460045E-2,-2.5484018E-2,1.197618E-2,3.2648325E-1,-1.4889964E-2,-2.6478362E-1,4.6623465E-2,-1.4561966E-2,-3.4202542E-2,1.19670846E-1,-2.883615E0,-4.360509E-2,6.9279796E-3,2.496379E-1,1.6577964E-1,3.8809117E-2,-1.7637308E-1,3.105269E-1,1.9871168E-1,4.6545422E-1,6.119102E-2,-8.254967E-1,-1.9365385E-2,-3.511522E-1,1.5013756E-1,5.7033736E-1,4.581787E-1,-2.1306032E-1,1.6986474E-1,3.9085367E-1,-4.0627945E-2,1.5643507E-1,5.525143E-3,-9.0993874E-2,4.863757E-2,-1.733421E-2,1.6583823E-1,5.301834E-1,-5.6280002E-2,6.219979E-2,-4.4046666E-2,-4.3287262E-1,3.1359482E-3,1.6103153E-1,7.6522277E-4,-3.84354E-2,9.020961E-2,-6.0132235E-2,1.5389529E-1,-2.1412745E-1,2.5744805E-1,-3.8559284E0,-4.2642868E-1,2.7297708E-1,1.8187663E-1,-7.2049536E-2,2.2357253E-2,3.0630872E-1,3.330139E-2,2.2684279E-1,3.2774262E-2,1.2884028E-1,-2.056227E-3,-2.3657684E-1,1.6249041E-1,5.9224224E-1,5.9524125E-1,1.3311537E-1,2.8169963E-1,9.7031546E-1,1.0138706E-1,-4.3898407E-2,-2.515564E-1,-1.2753541E0,4.3568563E-2,-8.4641114E-2,5.254702E-1,-1.0745156E-2,1.6560264E-1,5.9086245E-1,1.0429162E-1,-4.3427306E-1,3.0678218E-2,3.1141493E-1,3.6641594E-2,-7.899705E-2,5.617559E-2,-1.2880564E-1,-3.5221152E-2,1.0090296E-1,-2.96109E-2,1.2498009E-3,4.002075E-1,1.7859343E-2,8.1121165E-1,2.3227908E-2,-6.8565585E-2,-1.2462749E-2,-3.4520598E-4,2.1661513E-1,-2.2839268E-1,2.3939807E-2,-1.8154703E-1,-7.635887E-1,-1.5352442E-2,2.7747508E-2,7.9941176E-2,2.747816E-1,4.730468E-2,-7.2258976E-3,-2.4851692E-1,-3.5471868E-2,-2.2541259E-1,1.9775198E-1,-9.996031E-2,-1.2447259E-3,-3.5902525E-3,1.7096476E-1,1.6577902E-1,-3.1096676E-1,-5.925767E-1,-2.8137997E-1,3.2046923E-1,-7.199615E-2,6.1568297E-2,3.117446E-1,-4.1503736E-1,-3.2004867E-2,7.419701E-2,-9.2342645E-2,-2.7266795E-2,3.4615958E-1,1.5645957E-1,-1.0467847E-1,6.658006E-2,3.2350904E-1,3.625558E-2,-3.532587E-2,1.6714561E-1,-1.2459179E-1],"categories":[],"categories_nodes":[],"categories_segments":[],"categories_sizes":[],"default_left":[true,true,true,true,true,true,true,true,true,true,true,true,true,true,true,true,true,true,true,false,true,true,true,true,true,true,true,true,true,true,true,true,true,true,false,true,false,true,true,false,false,false,false,false,true,true,true,true,true,true,true,true,true,true,true,true,true,true,true,true,true,true,true,true,true,true,true,true,false,true,true,false,false,false,false,true,true,true,true,true,true,true,true,true,true,true,true,true,true,true,true,true,true,true,true,false,false,true,true,true,true,true,true,true,true,true,true,false,false,false,false,false,false,false,false,false,false,false,false,false,false,false,false,false,false,false,false,false,false,false,false,false,false,false,false,false,false,false,false,false,false,false,false,false,false,false,false,false,false,false,false,false,false,false,false,false,false,false,false,false,false,false,false,false,false,false,false,false,false,false,false,false,false,false,false,false,false,false,false,false,false,false,false,false,false],"id":196,"left_children":[1,3,5,7,9,11,13,15,17,19,21,23,25,27,29,31,33,35,37,-1,39,41,43,45,47,49,51,53,55,57,59,61,63,65,-1,67,-1,69,71,-1,-1,-1,-1,-1,73,75,77,79,81,83,85,87,89,91,93,95,97,99,101,103,105,107,109,111,113,115,117,119,-1,121,123,-1,-1,-1,-1,125,127,129,131,133,135,137,139,141,143,145,147,149,151,153,155,157,159,161,163,-1,-1,165,167,169,171,173,175,177,179,181,183,-1,-1,-1,-1,-1,-1,-1,-1,-1,-1,-1,-1,-1,-1,-1,-1,-1,-1,-1,-1,-1,-1,-1,-1,-1,-1,-1,-1,-1,-1,-1,-1,-1,-1,-1,-1,-1,-1,-1,-1,-1,-1,-1,-1,-1,-1,-1,-1,-1,-1,-1,-1,-1,-1,-1,-1,-1,-1,-1,-1,-1,-1,-1,-1,-1,-1,-1,-1,-1,-1,-1,-1,-1,-1,-1,-1,-1,-1],"loss_changes":[3.9147253E0,1.7277808E0,2.9082842E0,1.2136424E0,1.3890257E0,4.1812658E-1,2.280054E0,1.2599908E0,8.4234476E-1,1.0259886E0,1.1959581E0,4.3952534E-1,4.5714E-1,5.706921E0,8.562891E0,1.4895592E0,8.3733606E-1,4.0940845E-1,1.0084047E0,0E0,9.538274E-1,8.2899797E-1,1.4101009E0,2.1063305E-1,1.3512474E0,7.2385395E-1,3.108325E-1,4.2476544E0,3.0643602E1,5.090088E0,4.210268E0,8.013505E-1,3.944056E-1,1.6641852E0,0E0,1.1686382E-1,0E0,5.1792574E-1,1.0771455E0,0E0,0E0,0E0,0E0,0E0,7.871103E-2,2.0467727E-1,1.6051382E-1,5.1590297E-2,5.934086E-1,1.0425087E-1,6.670742E-1,4.5687872E-1,2.9998565E-1,1.7089932E0,3.1098602E0,1.3617214E1,3.838471E0,1.6133171E0,4.376587E0,2.2210913E0,2.7777472E0,1.5735143E-1,1.37867E-1,4.1404653E-1,7.5686216E-1,2.0609576E-2,9.900992E-1,2.7833879E-2,0E0,2.708996E-1,1.0057354E-1,0E0,0E0,0E0,0E0,4.952087E-1,2.7129066E-1,1.4062978E-1,1.4442301E-1,9.562468E-2,6.4248703E-3,3.8471726E-1,1.169074E0,1.0043487E-2,1.1256745E-1,1.09183334E-1,7.991817E-1,3.0957485E-2,2.212919E-1,1.8601708E-1,1.9244358E-1,3.1145804E0,1.0265718E0,6.6478443E-1,9.512774E-1,0E0,0E0,2.773614E-1,2.9522157E-1,5.559559E-1,1.0925608E0,4.0833777E-1,3.6278992E0,1.4902883E0,2.9049149E0,1.13802E0,3.1269917E0,0E0,0E0,0E0,0E0,0E0,0E0,0E0,0E0,0E0,0E0,0E0,0E0,0E0,0E0,0E0,0E0,0E0,0E0,0E0,0E0,0E0,0E0,0E0,0E0,0E0,0E0,0E0,0E0,0E0,0E0,0E0,0E0,0E0,0E0,0E0,0E0,0E0,0E0,0E0,0E0,0E0,0E0,0E0,0E0,0E0,0E0,0E0,0E0,0E0,0E0,0E0,0E0,0E0,0E0,0E0,0E0,0E0,0E0,0E0,0E0,0E0,0E0,0E0,0E0,0E0,0E0,0E0,0E0,0E0,0E0,0E0,0E0,0E0,0E0,0E0,0E0,0E0,0E0],"parents":[2147483647,0,0,1,1,2,2,3,3,4,4,5,5,6,6,7,7,8,8,9,9,10,10,11,11,12,12,13,13,14,14,15,15,16,16,17,17,18,18,20,20,21,21,22,22,23,23,24,24,25,25,26,26,27,27,28,28,29,29,30,30,31,31,32,32,33,33,35,35,37,37,38,38,44,44,45,45,46,46,47,47,48,48,49,49,50,50,51,51,52,52,53,53,54,54,55,55,56,56,57,57,58,58,59,59,60,60,61,61,62,62,63,63,64,64,65,65,66,66,67,67,69,69,70,70,75,75,76,76,77,77,78,78,79,79,80,80,81,81,82,82,83,83,84,84,85,85,86,86,87,87,88,88,89,89,90,90,91,91,92,92,93,93,94,94,97,97,98,98,99,99,100,100,101,101,102,102,103,103,104,104,105,105,106,106],"right_children":[2,4,6,8,10,12,14,16,18,20,22,24,26,28,30,32,34,36,38,-1,40,42,44,46,48,50,52,54,56,58,60,62,64,66,-1,68,-1,70,72,-1,-1,-1,-1,-1,74,76,78,80,82,84,86,88,90,92,94,96,98,100,102,104,106,108,110,112,114,116,118,120,-1,122,124,-1,-1,-1,-1,126,128,130,132,134,136,138,140,142,144,146,148,150,152,154,156,158,160,162,164,-1,-1,166,168,170,172,174,176,178,180,182,184,-1,-1,-1,-1,-1,-1,-1,-1,-1,-1,-1,-1,-1,-1,-1,-1,-1,-1,-1,-1,-1,-1,-1,-1,-1,-1,-1,-1,-1,-1,-1,-1,-1,-1,-1,-1,-1,-1,-1,-1,-1,-1,-1,-1,-1,-1,-1,-1,-1,-1,-1,-1,-1,-1,-1,-1,-1,-1,-1,-1,-1,-1,-1,-1,-1,-1,-1,-1,-1,-1,-1,-1,-1,-1,-1,-1,-1,-1],"split_conditions":[2.1276595E-3,3.888889E-1,5.4792248E-2,2.3103449E-1,1.4482759E-1,2.5344828E-1,2.086207E-1,1.6206896E-1,9.8790765E-1,8.231776E-1,2.6551723E-1,8.30303E-1,2.7758622E-1,5E-1,2.6206896E-1,1.6666667E-1,2.777778E-1,2.777778E-1,2.777778E-1,-2.6918794E-3,3.3636364E-1,1.9827586E-1,2.9482758E-1,1.2068965E-1,5.4084355E-1,5.4084355E-1,5.181818E-1,9.212121E-1,5E-1,6.545454E-1,4.2424244E-1,7.090609E-2,1.4482759E-1,9.8790765E-1,4.022018E-3,9.5682657E-1,1.0393476E-2,5.5555556E-2,3.3636364E-1,7.4619995E-3,2.2944573E-2,3.983203E-3,-1.1574353E-2,2.8686713E-2,3.3636364E-1,5E-1,2.777778E-1,1.8793103E-1,1.7931035E-1,9.212121E-1,2.689655E-1,5.4084355E-1,2.777778E-1,7.4893616E-2,1.6551724E-1,2.7272727E-2,1.2931034E-1,2.3103449E-1,9.8790765E-1,2.6297873E-1,7.827586E-1,5.5555556E-2,7.920965E-1,1.1034483E-1,3.3636364E-1,9.5682657E-1,1.6666667E-1,3.9510223E-1,-7.023044E-3,3.3636364E-1,2.6551723E-1,9.163573E-3,-4.2612064E-3,3.3972948E-3,7.817074E-3,6.736668E-2,6.736668E-2,7.1515155E-1,5.910807E-2,7.6129995E-2,1.7815007E-2,9.3103446E-2,9.212121E-1,2.689655E-1,6.736668E-2,6.8723404E-1,9.212121E-1,1.3484347E-1,4.1206896E-1,3.2068965E-1,2.9137933E-1,2.7272727E-2,7.008511E-1,5.5555556E-2,9.8790765E-1,5.1489607E-3,-7.711857E-2,9.3103446E-2,6.1111116E-1,1.6666667E-1,1.6851063E-1,2.5344828E-1,5.5555556E-2,3.913793E-1,1.6666667E-1,7.310345E-1,9.189655E-1,-4.1124542E-5,-4.731537E-3,3.2498082E-3,1.1844845E-2,1.19048245E-2,2.6623073E-3,5.6339926E-3,1.940631E-2,2.0277412E-3,-8.7796815E-4,-5.031128E-3,-2.5507083E-2,8.7137125E-4,-1.6928222E-3,1.0509403E-2,-2.149031E-4,3.3120527E-3,1.1817249E-2,2.0858324E-3,-8.685461E-3,6.1356433E-4,6.2282984E-3,7.328319E-4,-1.579941E-3,1.1235118E-3,-2.5761127E-3,-7.04423E-4,2.0180591E-3,-5.92218E-4,2.4996018E-5,8.004149E-3,3.5718686E-4,1.6224233E-2,4.6455814E-4,-1.3713116E-3,-2.4925498E-4,-6.9041193E-6,4.3323026E-3,-4.5678536E-3,4.7879614E-4,-3.6309406E-3,-1.52717745E-2,-3.0704885E-4,5.5495015E-4,1.5988235E-3,5.495632E-3,9.460935E-4,-1.4451795E-4,-4.970338E-3,-7.0943736E-4,-4.508252E-3,3.9550397E-3,-1.9992061E-3,-2.4894518E-5,-7.180505E-5,3.4192952E-3,3.3155803E-3,-6.219335E-3,-1.1851533E-2,-5.627599E-3,6.4093843E-3,-1.4399231E-3,1.231366E-3,6.2348917E-3,-8.300747E-3,-6.400973E-4,1.4839402E-3,-1.8468528E-3,-5.453359E-4,6.9231912E-3,3.1291912E-3,-2.0935694E-3,1.3316011E-3,6.4701806E-3,7.251116E-4,-7.0651737E-4,3.342912E-3,-2.4918357E-3],"split_indices":[10,4,9,3,3,3,3,3,6,6,3,2,3,4,3,4,4,4,4,0,2,3,3,3,6,6,2,2,0,2,2,7,3,6,0,6,0,4,2,0,0,0,0,0,2,0,4,3,3,2,3,6,4,10,3,2,3,3,6,10,3,4,6,3,2,6,4,6,0,2,3,0,0,0,0,7,7,2,7,6,7,3,2,3,7,10,2,6,3,3,3,2,10,4,6,0,0,3,4,4,10,3,4,3,4,3,3,0,0,0,0,0,0,0,0,0,0,0,0,0,0,0,0,0,0,0,0,0,0,0,0,0,0,0,0,0,0,0,0,0,0,0,0,0,0,0,0,0,0,0,0,0,0,0,0,0,0,0,0,0,0,0,0,0,0,0,0,0,0,0,0,0,0,0,0,0,0,0,0,0,0,0,0,0,0],"split_type":[0,0,0,0,0,0,0,0,0,0,0,0,0,0,0,0,0,0,0,0,0,0,0,0,0,0,0,0,0,0,0,0,0,0,0,0,0,0,0,0,0,0,0,0,0,0,0,0,0,0,0,0,0,0,0,0,0,0,0,0,0,0,0,0,0,0,0,0,0,0,0,0,0,0,0,0,0,0,0,0,0,0,0,0,0,0,0,0,0,0,0,0,0,0,0,0,0,0,0,0,0,0,0,0,0,0,0,0,0,0,0,0,0,0,0,0,0,0,0,0,0,0,0,0,0,0,0,0,0,0,0,0,0,0,0,0,0,0,0,0,0,0,0,0,0,0,0,0,0,0,0,0,0,0,0,0,0,0,0,0,0,0,0,0,0,0,0,0,0,0,0,0,0,0,0,0,0,0,0,0,0,0,0,0,0],"sum_hessian":[7.929E3,1.18E2,7.811E3,9.4E1,2.4E1,1.126E3,6.685E3,5.6E1,3.8E1,9E0,1.5E1,1.66E2,9.6E2,8.35E2,5.85E3,4.5E1,1.1E1,8E0,3E1,1E0,8E0,5E0,1E1,1E2,6.6E1,5E1,9.1E2,8E2,3.5E1,4.56E2,5.394E3,1.9E1,2.6E1,8E0,3E0,7E0,1E0,2.1E1,9E0,3E0,5E0,3E0,2E0,1E0,9E0,2.2E1,7.8E1,4.7E1,1.9E1,3.2E1,1.8E1,9.2E1,8.18E2,5.29E2,2.71E2,4E0,3.1E1,1.16E2,3.4E2,2.75E2,5.119E3,1.5E1,4E0,1.7E1,9E0,4E0,4E0,6E0,1E0,4E0,1.7E1,4E0,5E0,4E0,5E0,8E0,1.4E1,5.3E1,2.5E1,2.1E1,2.6E1,1.1E1,8E0,2.1E1,1.1E1,8E0,1E1,6.7E1,2.5E1,4.98E2,3.2E2,9.1E1,4.38E2,2.46E2,2.5E1,1E0,3E0,1.4E1,1.7E1,3.6E1,8E1,6.8E1,2.72E2,8.7E1,1.88E2,4.798E3,3.21E2,4E0,1.1E1,3E0,1E0,2E0,1.5E1,7E0,2E0,3E0,1E0,2E0,2E0,3E0,3E0,1E0,3E0,1E0,1.6E1,6E0,2E0,8E0,6E0,3.9E1,1.4E1,5E0,2E1,8E0,1.3E1,1.6E1,1E1,4E0,7E0,5E0,3E0,1.6E1,5E0,8E0,3E0,2E0,6E0,6E0,4E0,3.8E1,2.9E1,1.5E1,1E1,7.3E1,4.25E2,4E0,3.16E2,2.3E1,6.8E1,2.61E2,1.77E2,2.4E1,2.22E2,5E0,2E1,6E0,8E0,1.5E1,2E0,1.9E1,1.7E1,8E0,7.2E1,4.7E1,2.1E1,2.9E1,2.43E2,4.6E1,4.1E1,7.1E1,1.17E2,4.565E3,2.33E2,2.79E2,4.2E1],"tree_param":{"num_deleted":"0","num_feature":"12","num_nodes":"185","size_leaf_vector":"0"}},{"base_weights":[4.4910274E-2,9.242311E-1,4.2065307E-2,8.1537926E-1,2.6687565E0,2.4027297E-1,3.721001E-2,-1.1149187E-1,9.0068555E-1,2.980443E-1,-8.692902E-2,2.5465202E-2,9.8446384E-2,-3.932232E-2,-1.4508283E-1,1.4056431E0,6.386634E-1,2.970468E-2,3.679469E-1,-1.3372636E0,3.4356898E-1,6.772688E-2,1.568737E-2,-2.5150549E-2,1.4814547E-1,8.92584E-1,1.5395526E0,2.0739014E-1,6.629318E-1,-1.8224387E-1,1.237551E-1,5.2933063E-2,4.1333935E-1,-4.0274243E0,-7.3993035E-2,-9.642361E-2,7.358887E-1,1.422499E-2,1.766128E-1,4.2660655E-3,3.4297146E-2,9.993608E-2,-9.72921E-2,1.25728E-1,3.020795E-1,2.8134856E-1,1.2699072E0,6.8622035E-1,2.535868E-1,5.0693884E-2,-9.9419767E-1,6.3952394E-2,3.777457E-1,7.6424986E-2,-0E0,4.547105E-1,2.679804E-1,2.7853444E-1,-1.211818E0,-2.7365234E-1,1.6672884E-1,8.255912E-1,-1.325752E-1,1.813145E-1,-4.6762964E-3,1.0469767E-1,2.970016E-1,7.410098E-3,-2.2691022E-1,2.0263968E-1,2.1073243E-2,-1.1937895E-1,1.2078005E-1,3.0461377E-2,-1.629124E-1,1.0968585E-1,5.581775E-1,4.7735354E-1,1.2300358E-2,-0E0,3.1015784E-1,-2.9917171E-2,1.9076699E-1,7.76029E-2,4.5574257E-1,5.245765E-2,1.5525551E-1,1.991276E-2,-6.4919847E-3,3.7548086E-1,9.1235036E-1,6.365563E-1,-2.8620395E-1,-4.1598743E-1,2.3671279E-2,1.1607159E0,4.361725E-1,-9.451666E-2,3.0238795E-1,-1.5632242E-2,2.557156E-1,7.0193775E-2,4.37276E-1,4.607991E-1,1.2257977E-1,-8.3242E-3,5.395115E-2,-1.17577285E-1,-3.8782337E-1,5.349038E-1,1.3477014E-1,4.7932327E-2,-1.8620688E-2,4.887244E-1,-2.6867458E-1,7.410302E-3,1.7419882E-1,-2.3033668E-1,5.400441E-2,-4.8461547E-1,-1.1713348E-1,1.492692E-1,-1.0769122E-2,-4.095753E-3,2.4249845E0,5.4829128E-2,6.24877E-1,-5.9513994E-2,8.627261E-1],"categories":[],"categories_nodes":[],"categories_segments":[],"categories_sizes":[],"default_left":[true,true,true,true,false,true,true,true,true,true,true,true,true,false,false,true,true,true,true,true,true,true,true,true,true,true,false,false,true,true,true,true,true,false,true,true,true,true,true,true,true,true,true,true,true,false,false,false,false,true,false,true,true,true,true,true,true,false,false,true,false,true,false,true,true,true,true,true,true,true,true,true,true,true,true,true,true,true,true,false,false,false,false,false,false,false,false,false,false,false,false,false,false,false,false,false,false,false,false,false,false,false,false,false,false,false,false,false,false,false,false,false,false,false,false,false,false,false,false,false,false,false,false,false,false,false,false,false,false],"id":197,"left_children":[1,3,5,7,-1,9,11,13,15,17,19,21,23,-1,-1,25,27,29,31,33,35,37,39,41,43,45,-1,-1,47,49,51,53,55,-1,57,59,61,63,65,67,69,71,73,75,77,-1,-1,-1,-1,79,-1,81,83,85,87,89,91,-1,-1,93,-1,95,-1,97,99,101,103,105,107,109,111,113,115,117,119,121,123,125,127,-1,-1,-1,-1,-1,-1,-1,-1,-1,-1,-1,-1,-1,-1,-1,-1,-1,-1,-1,-1,-1,-1,-1,-1,-1,-1,-1,-1,-1,-1,-1,-1,-1,-1,-1,-1,-1,-1,-1,-1,-1,-1,-1,-1,-1,-1,-1,-1,-1,-1],"loss_changes":[1.9649475E1,4.035349E0,7.5382624E0,1.9687424E0,0E0,3.5527973E0,5.501747E0,1.1240859E-3,2.6264133E0,2.9794035E0,1.5418344E1,2.652341E0,7.5666533E0,0E0,0E0,1.0893822E-2,1.0222292E-1,6.7115116E-1,1.7925262E0,2.4764198E1,3.7153199E0,7.0240593E0,1.108122E0,3.1916661E0,3.0121956E0,3.96904E-1,0E0,0E0,6.520653E-2,1.9846833E0,3.4006333E-1,2.0431392E-2,6.12566E-1,0E0,2.265203E0,4.9867433E-1,9.293003E-1,2.5588446E0,3.4239254E0,2.3474998E0,4.4105735E0,5.9606254E-1,1.8841813E0,5.2933693E0,5.645769E0,0E0,0E0,0E0,0E0,1.068612E-1,0E0,2.3434381E-1,8.204585E-2,1.573424E-2,7.113834E-4,2.9614677E0,5.240341E0,0E0,0E0,2.7690956E-1,0E0,1.1569519E0,0E0,2.7620907E0,2.0728743E0,2.8436887E0,4.2107096E0,2.3370526E0,7.399552E-1,3.2212167E0,1.9617076E0,1.0695825E0,7.1361506E-1,4.7031865E-1,2.1570263E0,3.5324287E0,2.8728573E1,4.3005924E0,2.6140013E0,0E0,0E0,0E0,0E0,0E0,0E0,0E0,0E0,0E0,0E0,0E0,0E0,0E0,0E0,0E0,0E0,0E0,0E0,0E0,0E0,0E0,0E0,0E0,0E0,0E0,0E0,0E0,0E0,0E0,0E0,0E0,0E0,0E0,0E0,0E0,0E0,0E0,0E0,0E0,0E0,0E0,0E0,0E0,0E0,0E0,0E0,0E0,0E0,0E0,0E0],"parents":[2147483647,0,0,1,1,2,2,3,3,5,5,6,6,7,7,8,8,9,9,10,10,11,11,12,12,15,15,16,16,17,17,18,18,19,19,20,20,21,21,22,22,23,23,24,24,25,25,28,28,29,29,30,30,31,31,32,32,34,34,35,35,36,36,37,37,38,38,39,39,40,40,41,41,42,42,43,43,44,44,49,49,51,51,52,52,53,53,54,54,55,55,56,56,59,59,61,61,63,63,64,64,65,65,66,66,67,67,68,68,69,69,70,70,71,71,72,72,73,73,74,74,75,75,76,76,77,77,78,78],"right_children":[2,4,6,8,-1,10,12,14,16,18,20,22,24,-1,-1,26,28,30,32,34,36,38,40,42,44,46,-1,-1,48,50,52,54,56,-1,58,60,62,64,66,68,70,72,74,76,78,-1,-1,-1,-1,80,-1,82,84,86,88,90,92,-1,-1,94,-1,96,-1,98,100,102,104,106,108,110,112,114,116,118,120,122,124,126,128,-1,-1,-1,-1,-1,-1,-1,-1,-1,-1,-1,-1,-1,-1,-1,-1,-1,-1,-1,-1,-1,-1,-1,-1,-1,-1,-1,-1,-1,-1,-1,-1,-1,-1,-1,-1,-1,-1,-1,-1,-1,-1,-1,-1,-1,-1,-1,-1,-1,-1],"split_conditions":[2.7272727E-2,5.4282683E-1,1.7021276E-2,5.1907774E-2,5.337513E-2,3.888889E-1,9.212121E-1,5.5555556E-2,1.6666667E-1,5.3197986E-1,1.0517241E-1,5.181818E-1,1.6666667E-1,-7.864464E-4,-2.9016566E-3,5.5555556E-2,2.777778E-1,5E-1,5.5555556E-2,5E-1,3.3636364E-1,4.0172416E-1,5.206896E-1,2.689655E-1,6.189655E-1,7.090609E-2,3.079105E-2,4.147803E-3,4.4444448E-1,1.3137093E-1,2.777778E-1,3.3636364E-1,1.8965518E-1,-8.054849E-2,5E-1,2.9482758E-1,7.090609E-2,5.0082594E-1,2.777778E-1,5.086207E-1,5.5517244E-1,5.0082594E-1,5.3197986E-1,5.8854413E-1,7.155173E-1,5.626971E-3,2.5398144E-2,1.3724406E-2,5.071736E-3,5.910807E-2,-1.9883953E-2,5.4792248E-2,1.04825385E-1,1.6724138E-1,5.0082594E-1,1.3793103E-1,2.777778E-1,5.5706888E-3,-2.4236359E-2,7.090609E-2,3.3345767E-3,2.2413793E-1,-2.651504E-3,1.6666667E-1,5E-1,4.9310344E-1,4.586207E-1,8.30303E-1,6.893617E-1,5.0082594E-1,7.1034485E-1,6.893617E-1,5.5555556E-2,2.8103447E-1,5.0082594E-1,3.327586E-1,3.2586205E-1,5.3197986E-1,9.5862067E-1,-0E0,6.2031564E-3,-5.9834344E-4,3.8153396E-3,1.552058E-3,9.114851E-3,1.0491529E-3,3.1051103E-3,3.9825522E-4,-1.298397E-4,7.509617E-3,1.8247006E-2,1.27311265E-2,-5.724079E-3,-8.319749E-3,4.7342558E-4,2.3214318E-2,8.72345E-3,-1.8903331E-3,6.0477587E-3,-3.1264484E-4,5.1143123E-3,1.4038754E-3,8.74552E-3,9.215982E-3,2.4515954E-3,-1.6648401E-4,1.079023E-3,-2.3515457E-3,-7.7564674E-3,1.0698076E-2,2.6954028E-3,9.5864653E-4,-3.7241375E-4,9.774488E-3,-5.3734914E-3,1.4820603E-4,3.4839762E-3,-4.6067336E-3,1.0800882E-3,-9.692309E-3,-2.3426695E-3,2.9853838E-3,-2.1538245E-4,-8.191506E-5,4.849969E-2,1.0965825E-3,1.249754E-2,-1.1902798E-3,1.7254522E-2],"split_indices":[2,7,10,9,0,4,2,4,4,9,3,2,4,0,0,4,4,0,4,4,2,3,3,3,3,7,0,0,4,7,4,2,3,0,0,3,7,8,4,3,3,8,9,7,3,0,0,0,0,7,0,9,7,3,8,3,4,0,0,7,0,3,0,4,4,3,3,2,10,8,3,10,4,3,8,3,3,9,3,0,0,0,0,0,0,0,0,0,0,0,0,0,0,0,0,0,0,0,0,0,0,0,0,0,0,0,0,0,0,0,0,0,0,0,0,0,0,0,0,0,0,0,0,0,0,0,0,0,0],"split_type":[0,0,0,0,0,0,0,0,0,0,0,0,0,0,0,0,0,0,0,0,0,0,0,0,0,0,0,0,0,0,0,0,0,0,0,0,0,0,0,0,0,0,0,0,0,0,0,0,0,0,0,0,0,0,0,0,0,0,0,0,0,0,0,0,0,0,0,0,0,0,0,0,0,0,0,0,0,0,0,0,0,0,0,0,0,0,0,0,0,0,0,0,0,0,0,0,0,0,0,0,0,0,0,0,0,0,0,0,0,0,0,0,0,0,0,0,0,0,0,0,0,0,0,0,0,0,0,0,0],"sum_hessian":[7.865E3,2.5E1,7.84E3,2.4E1,1E0,1.87E2,7.653E3,2E0,2.2E1,1.59E2,2.8E1,6.422E3,1.231E3,1E0,1E0,7E0,1.5E1,3.3E1,1.26E2,7E0,2.1E1,1.206E3,5.216E3,3.53E2,8.78E2,2E0,5E0,1E0,1.4E1,1E1,2.3E1,1.6E1,1.1E2,2E0,5E0,1E1,1.1E1,8.09E2,3.97E2,3.233E3,1.983E3,1.29E2,2.24E2,7.67E2,1.11E2,1E0,1E0,1.3E1,1E0,8E0,2E0,1.9E1,4E0,1.1E1,5E0,8.5E1,2.5E1,4E0,1E0,6E0,4E0,1E1,1E0,8.2E1,7.27E2,2.49E2,1.48E2,3.19E3,4.3E1,1.44E2,1.839E3,1.1E1,1.18E2,7.6E1,1.48E2,7.4E2,2.7E1,6.9E1,4.2E1,7E0,1E0,1.1E1,8E0,1E0,3E0,9E0,2E0,1E0,4E0,7.3E1,1.2E1,1.5E1,1E1,4E0,2E0,5E0,5E0,2.5E1,5.7E1,6.98E2,2.9E1,2.26E2,2.3E1,7.6E1,7.2E1,2.384E3,8.06E2,2.6E1,1.7E1,2.4E1,1.2E2,1.097E3,7.42E2,2E0,9E0,3.8E1,8E1,6E0,7E1,1.8E1,1.3E2,5.57E2,1.83E2,2.1E1,6E0,1.8E1,5.1E1,3.9E1,3E0],"tree_param":{"num_deleted":"0","num_feature":"12","num_nodes":"129","size_leaf_vector":"0"}},{"base_weights":[3.61181E-2,-5.763177E-2,1.21925004E-1,1.2620436E-2,-1.05253115E-1,1.0361044E0,1.113765E-1,6.974081E-3,2.1644342E-1,-1.0573342E0,-9.9597536E-2,2.0752602E0,1.8059358E-1,1.2999277E-1,2.4785412E-2,-8.117007E-3,4.959127E-2,3.024906E-1,-1.8967533E-2,3.2284546E-1,-1.3116502E0,2.9567096E-3,-1.23306714E-1,1.4545615E-1,1.2476939E1,-3.0223799E0,1.1759958E0,1.5533473E-1,7.455869E-2,-1.5112232E-2,5.8901835E-2,-8.326182E-4,-1.4088784E-1,2.7808264E-1,3.3037152E-2,2.3608075E-1,4.4194743E-1,-2.9453102E-1,4.907581E-2,-2.0018404E0,-8.4221613E-1,4.905938E-2,-2.8065871E-3,-2.25654E-1,-7.491473E-2,2.4293807E0,-7.706959E-1,2.1608349E1,5.4695916E0,-1.0668218E1,-9.1912526E-1,-8.607808E-1,2.8200023E0,1.0449995E-1,3.4194854E-1,-1.8997252E-2,1.2762868E-1,4.089915E-2,-7.3565625E-2,4.4737637E-2,3.8317803E-1,-7.741487E-3,1.5161555E-1,-7.486788E-2,-1.6549475E-1,4.7018987E-1,4.614792E-2,2.9241773E-1,1.8484682E-2,3.0352196E-1,1.3699923E-1,-1.04073785E-1,-4.0063563E-1,7.9185024E-2,-4.6449855E-2,2.3958561E-1,-1.2655356E0,-6.7216773E-3,4.1276655E-1,4.060435E-2,-6.3758986E-3,-1.4400534E-1,-3.2382768E-1,-8.9695436E-1,-6.664902E-2,3.8224232E-1,3.6150951E0,-1.9400237E0,-1.9872034E-1,8.566993E-1,-3.330735E0,-1.13202676E-1,-1.4116975E0,4.1390233E0,-2.8527348E0,1.2257119E-1,-7.217182E-2,2.6696518E-1,6.9192785E-1,-7.152059E-1,-1.1010578E-2,4.2253286E-1,8.1594385E-2,9.883649E-2,-6.331478E-2,-1.8161954E-1,1.9925531E-2,-1.6720574E-1,5.9373382E-2,1.3195204E0,-6.7475624E-2,-3.7902396E-3,-3.2364663E-1,2.480167E-1,7.837822E-2,-1.8531474E-1,-1.9430708E-2,-1.1722831E-1,-2.2924647E-1,2.430287E-1,6.223065E-1,8.611642E-2,-2.9439685E-1,1.8859375E-1,1.0157404E0,8.262479E-2,-3.9951347E-2,3.3692366E-1,1.0611847E-1,-1.1047178E-2,2.0995878E-1,9.350161E-3,1.2351958E-1,6.8223225E-3,-9.8802894E-2,-1.4574525E-2,3.51899E-2,-5.6213364E-3,1.1368766E0,-2.1474596E-2,4.613279E-2,-1.7096294E-2,3.4498835E-3,-8.6118914E-2,-3.391802E-1,7.0562506E-1,-3.525773E-1,-1.3262502E0,-0E0,4.0025212E-2,-1.00437164E-1,5.3370214E-1,1.2449526E-1,2.6674345E-1,-2.6329896E0,2.0266853E-1,-9.457438E-1,3.7481442E-1,1.475022E0,-4.6948075E0,-1.1230224E0,6.9284827E-1,-9.0918887E-1,-1.6152117E0,-3.865925E-1,2.7041135E0,5.0434303E0,2.8289795E0,-7.8317404E0,-1.3321926E-1,1.3057964E-1,-5.256831E-1,-5.144816E-2,6.7328E-1,2.2594701E-1,3.3211994E-1,8.424164E-1,-3.1752625E-1,-1.0045642E0,-1.8857874E-1,1.2963136E-2,3.645341E-1,1.9128901E0,2.6400012E-1,5.1734045E-2,1.7147215E-1,4.9579088E-2,-2.285693E-1,1.2317881E-2,-9.032958E-2,-2.4306647E-1,3.6049145E-1,-1.0688078E-2,-4.752782E-1,-5.69598E-2,-5.7882955E-4,1.00397035E-1,3.0547805E0,-2.2905555E-2,-1.9779189E-1,1.5495753E-1],"categories":[],"categories_nodes":[],"categories_segments":[],"categories_sizes":[],"default_left":[true,true,true,true,true,true,true,true,true,true,true,true,true,true,true,true,true,true,true,false,true,true,true,true,true,true,true,true,true,true,true,true,true,true,true,true,false,true,true,false,true,true,true,true,true,true,true,false,false,false,true,true,true,true,true,true,true,true,true,true,true,true,true,true,true,true,true,true,true,true,true,false,false,true,true,false,false,true,true,true,true,true,true,true,true,true,false,true,true,true,true,true,true,true,true,true,true,true,true,true,true,true,true,true,true,true,true,true,true,true,true,false,false,false,false,false,false,false,false,false,false,false,false,false,false,false,false,false,false,false,false,false,false,false,false,false,false,false,false,false,false,false,false,false,false,false,false,false,false,false,false,false,false,false,false,false,false,false,false,false,false,false,false,false,false,false,false,false,false,false,false,false,false,false,false,false,false,false,false,false,false,false,false,false,false,false,false,false,false,false,false,false,false,false,false,false,false,false,false,false,false],"id":198,"left_children":[1,3,5,7,9,11,13,15,17,19,21,23,25,27,29,31,33,35,37,-1,39,41,43,45,47,49,51,53,55,57,59,61,63,65,67,69,-1,71,73,-1,75,77,79,81,83,85,87,-1,-1,-1,89,91,93,95,97,99,101,103,105,107,109,111,113,115,117,119,121,123,125,127,129,-1,-1,131,133,-1,-1,135,137,139,141,143,145,147,149,151,-1,153,155,157,159,161,163,165,167,169,171,173,175,177,179,181,183,185,187,189,191,193,195,197,199,-1,-1,-1,-1,-1,-1,-1,-1,-1,-1,-1,-1,-1,-1,-1,-1,-1,-1,-1,-1,-1,-1,-1,-1,-1,-1,-1,-1,-1,-1,-1,-1,-1,-1,-1,-1,-1,-1,-1,-1,-1,-1,-1,-1,-1,-1,-1,-1,-1,-1,-1,-1,-1,-1,-1,-1,-1,-1,-1,-1,-1,-1,-1,-1,-1,-1,-1,-1,-1,-1,-1,-1,-1,-1,-1,-1,-1,-1,-1,-1,-1,-1,-1,-1,-1,-1,-1,-1,-1,-1],"loss_changes":[6.400708E1,1.2722487E1,4.000631E1,1.7644098E0,1.2151615E1,4.192272E1,6.617752E0,9.624342E-1,8.432268E-1,4.835387E0,5.4807644E0,4.274458E2,8.511654E1,4.741577E0,9.9094224E-1,1.0660005E0,1.4727066E0,2.3646331E-1,2.2082683E-1,0E0,3.0692368E0,1.131868E-1,9.055328E0,3.9009384E1,1.7349988E2,9.841437E1,6.892351E1,2.1984005E1,5.2718925E0,1.0993698E0,1.7902113E0,1.1014372E0,8.558059E-2,1.1587219E0,1.3727609E0,1.2240386E-1,0E0,2.6052177E-2,2.8538449E-2,0E0,3.474091E0,9.670172E-1,5.7909895E-2,4.685692E0,8.414453E0,1.2428226E1,8.758716E0,0E0,0E0,0E0,2.3827932E1,3.7689776E0,8.8758064E1,5.8249855E0,1.2949821E1,2.12406E0,9.176591E0,1.0370841E0,1.6636238E0,1.1691399E0,6.939721E0,1.2460524E0,3.089236E-1,9.588632E-2,1.13281965E-1,4.325161E-1,1.7335501E-1,1.3708503E0,1.2997997E0,6.3079715E-2,1.0442534E-1,0E0,0E0,2.0424739E-2,8.04476E-3,0E0,0E0,1.3480858E-2,1.9370487E0,1.04061365E-2,3.6906473E-2,3.6146107E0,7.960436E0,4.7354603E0,4.4403276E0,5.9549272E-2,0E0,6.8947678E0,2.8731291E0,7.8249335E-1,5.1860313E0,2.9935284E0,8.759041E-1,7.4540405E0,7.347195E1,3.394638E0,1.574215E0,6.7585125E0,4.6187897E0,3.734331E-1,1.6223875E0,7.6297398E0,3.1845229E0,3.8876784E-1,7.706085E-1,4.1611433E-1,9.27235E-1,8.0983603E-1,8.6799276E-1,1.2490681E1,3.3935115E-1,0E0,0E0,0E0,0E0,0E0,0E0,0E0,0E0,0E0,0E0,0E0,0E0,0E0,0E0,0E0,0E0,0E0,0E0,0E0,0E0,0E0,0E0,0E0,0E0,0E0,0E0,0E0,0E0,0E0,0E0,0E0,0E0,0E0,0E0,0E0,0E0,0E0,0E0,0E0,0E0,0E0,0E0,0E0,0E0,0E0,0E0,0E0,0E0,0E0,0E0,0E0,0E0,0E0,0E0,0E0,0E0,0E0,0E0,0E0,0E0,0E0,0E0,0E0,0E0,0E0,0E0,0E0,0E0,0E0,0E0,0E0,0E0,0E0,0E0,0E0,0E0,0E0,0E0,0E0,0E0,0E0,0E0,0E0,0E0,0E0,0E0,0E0,0E0,0E0,0E0],"parents":[2147483647,0,0,1,1,2,2,3,3,4,4,5,5,6,6,7,7,8,8,9,9,10,10,11,11,12,12,13,13,14,14,15,15,16,16,17,17,18,18,20,20,21,21,22,22,23,23,24,24,25,25,26,26,27,27,28,28,29,29,30,30,31,31,32,32,33,33,34,34,35,35,37,37,38,38,40,40,41,41,42,42,43,43,44,44,45,45,46,46,50,50,51,51,52,52,53,53,54,54,55,55,56,56,57,57,58,58,59,59,60,60,61,61,62,62,63,63,64,64,65,65,66,66,67,67,68,68,69,69,70,70,73,73,74,74,77,77,78,78,79,79,80,80,81,81,82,82,83,83,84,84,85,85,87,87,88,88,89,89,90,90,91,91,92,92,93,93,94,94,95,95,96,96,97,97,98,98,99,99,100,100,101,101,102,102,103,103,104,104,105,105,106,106,107,107,108,108,109,109,110,110],"right_children":[2,4,6,8,10,12,14,16,18,20,22,24,26,28,30,32,34,36,38,-1,40,42,44,46,48,50,52,54,56,58,60,62,64,66,68,70,-1,72,74,-1,76,78,80,82,84,86,88,-1,-1,-1,90,92,94,96,98,100,102,104,106,108,110,112,114,116,118,120,122,124,126,128,130,-1,-1,132,134,-1,-1,136,138,140,142,144,146,148,150,152,-1,154,156,158,160,162,164,166,168,170,172,174,176,178,180,182,184,186,188,190,192,194,196,198,200,-1,-1,-1,-1,-1,-1,-1,-1,-1,-1,-1,-1,-1,-1,-1,-1,-1,-1,-1,-1,-1,-1,-1,-1,-1,-1,-1,-1,-1,-1,-1,-1,-1,-1,-1,-1,-1,-1,-1,-1,-1,-1,-1,-1,-1,-1,-1,-1,-1,-1,-1,-1,-1,-1,-1,-1,-1,-1,-1,-1,-1,-1,-1,-1,-1,-1,-1,-1,-1,-1,-1,-1,-1,-1,-1,-1,-1,-1,-1,-1,-1,-1,-1,-1,-1,-1,-1,-1,-1,-1],"split_conditions":[6.621175E-1,6.52107E-1,5E-1,6.474741E-1,2.7272727E-2,8.349742E-1,1.3137093E-1,4.4565028E-1,6.4979887E-1,5.5555556E-2,5.5555556E-2,8.2218254E-1,1.6666667E-1,8.349742E-1,8.147807E-1,4.3256068E-1,5.0082594E-1,9.9787235E-1,5.181818E-1,6.4569092E-3,1.6666667E-1,5.0082594E-1,1.6666667E-1,7.876776E-1,2.7272727E-2,2.7272727E-2,8.5870504E-1,8.2218254E-1,8.76709E-1,9.5682657E-1,5E-1,4.1965395E-1,5.818182E-1,7.008511E-1,4.2424244E-1,3.9234042E-1,8.838949E-3,4.2424244E-1,1.6666667E-1,-4.0036805E-2,2.777778E-1,9.9787235E-1,3.3636364E-1,7.008511E-1,5E-1,7.563675E-1,2.7272727E-2,4.3216696E-1,1.0939183E-1,-2.1336435E-1,8.751397E-1,2.777778E-1,4.4444448E-1,8.0966675E-1,9.212121E-1,4.1296717E-4,4.2424244E-1,7.738564E-1,7.684338E-1,1.2389015E-3,9.3332297E-1,4.1206574E-1,4.264353E-1,1.3234043E-1,1.6666667E-1,7.920965E-1,3.888889E-1,6.4487445E-1,6.324857E-1,9.090909E-1,2.777778E-1,-2.0814757E-3,-8.012712E-3,5.818182E-1,6.666666E-1,4.791712E-3,-2.5310712E-2,8.30303E-1,1.2389015E-3,2.1276595E-3,3.9234042E-1,8.30303E-1,4.1296717E-4,2.777778E-1,2.7021277E-1,2.777778E-1,7.23019E-2,9.8790765E-1,8.0460525E-1,8.5267967E-1,9.28372E-1,2.7272727E-2,3.888889E-1,2.777778E-1,8.76709E-1,4.1296717E-4,1.48936175E-2,5.0082594E-1,3.5106385E-1,1.6666667E-1,4.2424244E-1,5E-1,1.6666667E-1,7.251228E-1,7.7832115E-1,1.6666667E-1,7.752876E-1,5.818182E-1,3.9234042E-1,3.1148937E-1,6.1111116E-1,-7.580479E-5,-6.4729326E-3,4.960334E-3,1.5675644E-3,-3.7062948E-3,-3.8861416E-4,-2.3445662E-3,-4.5849294E-3,4.860574E-3,1.2446131E-2,1.7223284E-3,-5.887937E-3,3.7718748E-3,2.0314807E-2,1.6524958E-3,-7.990269E-4,6.738473E-3,2.1223694E-3,-2.2094355E-4,4.1991756E-3,1.8700321E-4,2.4703916E-3,1.3644644E-4,-1.976058E-3,-2.914905E-4,7.0379797E-4,-1.1242672E-4,2.2737531E-2,-4.2949192E-4,9.226558E-4,-3.419259E-4,6.8997666E-5,-1.7223782E-3,-6.7836037E-3,1.41125005E-2,-7.0515457E-3,-2.6525004E-2,-0E0,8.0050423E-4,-2.0087434E-3,1.0674043E-2,2.489905E-3,5.334869E-3,-5.265979E-2,4.0533706E-3,-1.8914875E-2,7.496288E-3,2.9500438E-2,-9.389615E-2,-2.2460448E-2,1.3856965E-2,-1.8183777E-2,-3.2304235E-2,-7.73185E-3,5.4082267E-2,1.00868605E-1,5.657959E-2,-1.5663481E-1,-2.6643851E-3,2.6115926E-3,-1.0513661E-2,-1.0289631E-3,1.34656E-2,4.51894E-3,6.642399E-3,1.6848328E-2,-6.3505247E-3,-2.0091282E-2,-3.7715747E-3,2.592627E-4,7.290682E-3,3.82578E-2,5.280002E-3,1.0346809E-3,3.4294429E-3,9.915817E-4,-4.5713857E-3,2.463576E-4,-1.8065915E-3,-4.861329E-3,7.209829E-3,-2.1376155E-4,-9.505563E-3,-1.139196E-3,-1.1576591E-5,2.0079406E-3,6.1095607E-2,-4.5811108E-4,-3.955838E-3,3.0991505E-3],"split_indices":[1,1,0,1,2,1,7,1,1,4,4,1,4,1,1,1,8,10,2,0,4,8,4,1,2,2,1,1,1,6,4,1,2,10,2,10,0,2,4,0,4,10,2,10,0,1,2,0,0,0,1,4,4,1,2,8,2,1,1,8,1,1,1,10,4,6,4,1,1,2,4,0,0,2,2,0,0,2,8,10,10,2,8,4,10,4,0,6,1,1,1,2,4,4,1,8,10,8,10,4,2,4,4,1,1,4,1,2,10,10,4,0,0,0,0,0,0,0,0,0,0,0,0,0,0,0,0,0,0,0,0,0,0,0,0,0,0,0,0,0,0,0,0,0,0,0,0,0,0,0,0,0,0,0,0,0,0,0,0,0,0,0,0,0,0,0,0,0,0,0,0,0,0,0,0,0,0,0,0,0,0,0,0,0,0,0,0,0,0,0,0,0,0,0,0,0,0,0,0,0,0],"split_type":[0,0,0,0,0,0,0,0,0,0,0,0,0,0,0,0,0,0,0,0,0,0,0,0,0,0,0,0,0,0,0,0,0,0,0,0,0,0,0,0,0,0,0,0,0,0,0,0,0,0,0,0,0,0,0,0,0,0,0,0,0,0,0,0,0,0,0,0,0,0,0,0,0,0,0,0,0,0,0,0,0,0,0,0,0,0,0,0,0,0,0,0,0,0,0,0,0,0,0,0,0,0,0,0,0,0,0,0,0,0,0,0,0,0,0,0,0,0,0,0,0,0,0,0,0,0,0,0,0,0,0,0,0,0,0,0,0,0,0,0,0,0,0,0,0,0,0,0,0,0,0,0,0,0,0,0,0,0,0,0,0,0,0,0,0,0,0,0,0,0,0,0,0,0,0,0,0,0,0,0,0,0,0,0,0,0,0,0,0,0,0,0,0,0,0,0,0,0,0,0,0],"sum_hessian":[7.956E3,3.802E3,4.154E3,1.536E3,2.266E3,4.7E1,4.107E3,1.495E3,4.1E1,1.3E1,2.253E3,2.1E1,2.6E1,3.38E3,7.27E2,1.104E3,3.91E2,3E1,1.1E1,2E0,1.1E1,4.23E2,1.83E3,1.8E1,3E0,6E0,2E1,2.319E3,1.061E3,3.35E2,3.92E2,1.047E3,5.7E1,2.6E1,3.65E2,2.1E1,9E0,2E0,9E0,4E0,7E0,4.7E1,3.76E2,5.87E2,1.243E3,5E0,1.3E1,1E0,2E0,1E0,5E0,9E0,1.1E1,1.823E3,4.96E2,3.84E2,6.77E2,1.71E2,1.64E2,3.76E2,1.6E1,1.002E3,4.5E1,1.6E1,4.1E1,1.4E1,1.2E1,1.9E1,3.46E2,1.2E1,9E0,1E0,1E0,7E0,2E0,2E0,5E0,4.1E1,6E0,2.8E1,3.48E2,3.21E2,2.66E2,1.2E1,1.231E3,2E0,3E0,4E0,9E0,3E0,2E0,4E0,5E0,9E0,2E0,1.654E3,1.69E2,4.09E2,8.7E1,4E0,3.8E2,9.1E1,5.86E2,1.1E2,6.1E1,7.6E1,8.8E1,2.4E1,3.52E2,5E0,1.1E1,9.9E2,1.2E1,1.9E1,2.6E1,5E0,1.1E1,2.4E1,1.7E1,6E0,8E0,1.1E1,1E0,1.7E1,2E0,1.65E2,1.81E2,1E1,2E0,3E0,6E0,3E0,4E0,1E0,1E0,3.5E1,6E0,4E0,2E0,2E0,2.6E1,1.67E2,1.81E2,2.48E2,7.3E1,7E0,2.59E2,8E0,4E0,2.96E2,9.35E2,1E0,1E0,1E0,3E0,6E0,3E0,2E0,1E0,1E0,1E0,2E0,2E0,4E0,1E0,4E0,5E0,1E0,1E0,5E1,1.604E3,7E0,1.62E2,3.7E1,3.72E2,2.6E1,6.1E1,2E0,2E0,4.5E1,3.35E2,8.8E1,3E0,8.2E1,5.04E2,4.4E1,6.6E1,1.9E1,4.2E1,3.1E1,4.5E1,7E0,8.1E1,6E0,1.8E1,1.43E2,2.09E2,2E0,3E0,7E0,4E0],"tree_param":{"num_deleted":"0","num_feature":"12","num_nodes":"201","size_leaf_vector":"0"}},{"base_weights":[3.515853E-2,-4.7121946E-2,1.1088418E-1,-4.6175668E-1,-3.4872092E-2,1.3074727E-1,2.3307515E-2,1.6297704E-1,-5.95397E-1,1.3708489E-2,-7.005526E-2,1.5917063E-1,6.708715E-2,9.3645805E-1,1.5601168E-2,-2.6085246E-3,3.8336238E-1,-1.6118019E0,-4.456244E-1,8.14633E-3,2.998323E-1,-1.1028978E-1,6.5124608E-3,9.864509E-1,1.4961274E-1,-1.9597269E0,7.759138E-2,2.7556798E0,4.203914E-1,5.1517606E-2,-1.5077867E-2,8.648079E-2,-1.5646397E-1,9.6480066E-1,-1.3371872E-3,-2.4612308E-1,-7.942837E-1,-8.493282E-3,5.4724447E-2,2.3197685E-1,4.3541822E-1,-1.02531105E-1,-7.623714E-1,1.3538758E-1,-7.8825325E-2,3.231393E0,1.1715868E-1,1.03928454E-1,3.0342E-1,3.6094108E-1,-2.5263155E0,-2.8269855E-2,1.3762805E-1,4.619437E-2,1.5206169E0,4.8038803E-2,9.314629E-1,6.5337275E-3,-1.5246509E-1,-1.09846465E-1,1.6964412E-1,-2.9324576E-1,-0E0,2.032699E-1,-2.9954955E-1,-3.3870226E-1,1.0887933E0,-9.3778837E-1,-4.671194E-1,-1.2611528E-3,-1.345921E-1,1.3185866E-1,1.129721E-2,2.5748825E-1,-0E0,1.3857986E-1,5.664741E-1,-1.0829142E-1,9.781295E-1,-9.1618896E-1,-2.6263413E-1,1.283583E0,1.13868065E-1,1.4839593E-1,-1.3320573E-1,1.5433338E0,5.0983105E0,-5.543679E-1,1.9172062E0,1.3954523E-1,-2.523582E-2,6.952705E-1,2.5214562E-1,-4.2132145E-1,1.032621E-2,9.4978434E-1,1.168178E-1,9.865232E-1,-8.946232E-1,8.063639E-2,-2.3692053E-2,-2.0206608E-3,1.6272613E-1,-2.951136E-1,-3.1183602E-2,-3.8675796E-2,-1.4285004E-1,7.4569516E-2,2.7510628E-1,-6.9817305E-2,7.450322E-2,2.5788653E-1,4.6164818E-2,-3.743972E-1,3.970504E-1,4.9501705E-1,1.8448756E0,1.9832704E-2,-9.9116063E-1,-2.812242E-1,-9.7847E-1,-9.28652E-3,1.6554567E-1,-2.2164796E-1,-9.840466E-2,5.5838197E-2,2.4206734E-1,-9.858951E-2,6.640976E-2,3.0678654E-1,1.8434323E-1,1.5844189E-1,-1.612606E-1,7.604879E-3,3.224232E-1,4.1062436E-1,7.6883495E-1,-9.657489E-2,-6.431354E-1,-5.589239E-1,1.2524977E0,2.3011507E-2,-1.0009942E0,5.3928163E-2,-9.9900854E-1,-6.2572366E-1,2.4959943E0,1.3397379E-1,-4.2803112E-1,-2.1666257E-1,4.575417E-1,-8.459419E-1,-9.218297E-2,3.647467E0,5.4295814E-1,-1.7180145E0,-1.945388E-1,2.1792908E0,5.75345E-1,5.401461E-2,1.9775139E-1,-3.358489E-1,1.3497408E-2,5.4554325E-1,1.6060109E0,1.6420084E-1,4.4999963E-1,-5.377152E-1,3.9568353E-1,8.4380704E-1,-4.1248777E-4,2.2967782E0,9.2169575E-2,3.4887105E-1,8.764969E-2,2.6274273E-1,1.4528992E0,4.458604E-2,3.4680364E-1,-2.9064253E-1,4.9227957E-2,5.7456633E-3,-1.4453904E-1,2.5653288E-2,1.7811337E-1,-1.0126939E-1,-7.6435405E-1,5.0767675E-2,-2.1891338E-1],"categories":[],"categories_nodes":[],"categories_segments":[],"categories_sizes":[],"default_left":[true,true,true,true,true,true,true,true,true,true,true,true,true,true,true,true,true,false,true,true,true,true,true,true,true,true,true,false,true,true,true,true,true,false,true,true,true,true,true,true,true,true,true,true,true,true,true,true,true,false,false,true,true,true,false,true,false,true,true,true,true,false,true,true,false,true,true,true,true,true,true,true,true,true,true,true,true,true,true,true,true,true,true,true,true,true,false,true,true,true,true,true,true,true,true,true,true,true,false,true,true,true,true,true,true,false,false,false,false,false,false,false,false,false,false,false,false,false,false,false,false,false,false,false,false,false,false,false,false,false,false,false,false,false,false,false,false,false,false,false,false,false,false,false,false,false,false,false,false,false,false,false,false,false,false,false,false,false,false,false,false,false,false,false,false,false,false,false,false,false,false,false,false,false,false,false,false,false,false,false,false,false,false,false,false,false,false,false,false],"id":199,"left_children":[1,3,5,7,9,11,13,15,17,19,21,23,25,27,29,31,33,-1,35,37,39,41,43,45,47,49,51,-1,53,55,57,59,61,-1,63,65,67,69,71,73,75,77,79,81,83,85,87,89,91,-1,-1,93,95,97,-1,99,-1,101,103,105,107,-1,109,111,-1,113,115,117,119,121,123,125,127,129,131,133,135,137,139,141,143,145,147,149,151,153,-1,155,157,159,161,163,165,167,169,171,173,175,-1,177,179,181,183,185,187,-1,-1,-1,-1,-1,-1,-1,-1,-1,-1,-1,-1,-1,-1,-1,-1,-1,-1,-1,-1,-1,-1,-1,-1,-1,-1,-1,-1,-1,-1,-1,-1,-1,-1,-1,-1,-1,-1,-1,-1,-1,-1,-1,-1,-1,-1,-1,-1,-1,-1,-1,-1,-1,-1,-1,-1,-1,-1,-1,-1,-1,-1,-1,-1,-1,-1,-1,-1,-1,-1,-1,-1,-1,-1,-1,-1,-1,-1,-1,-1,-1,-1,-1,-1],"loss_changes":[4.910922E1,1.9173435E1,7.1364517E0,9.083246E0,6.2728176E0,6.0463753E0,5.3250194E0,7.112939E-1,1.3330332E1,2.447773E0,6.558404E0,1.8218304E1,2.202365E1,5.514495E0,8.308631E-1,1.6085698E-1,1.8781961E0,0E0,5.3686867E0,1.1729361E0,2.2667241E-1,7.0209923E0,8.069508E0,5.121604E1,1.604877E1,7.3477535E0,6.5384874E0,0E0,2.1500227E0,1.0343485E0,1.2088816E0,1.2680241E-1,9.457481E-2,0E0,3.471073E-1,6.332763E0,1.1641254E0,1.0142362E0,1.3317692E0,1.21302366E-1,3.2685947E-1,8.609184E0,1.1584721E0,7.1544843E0,5.45966E0,2.039257E1,2.3743773E1,8.114872E0,1.0442787E1,0E0,0E0,5.6557035E0,1.10405855E1,4.1293483E0,0E0,8.112646E-1,0E0,4.7182932E-1,9.495803E-1,1.0493863E-3,4.16487E-2,0E0,1.3901688E-2,2.0295933E-2,0E0,1.2923503E0,1.1586235E0,1.0085506E0,7.77488E-1,1.4097053E0,1.782316E-1,1.1921074E0,1.548059E0,4.024434E-2,6.8152145E-2,7.474104E-2,7.764268E-2,8.568487E0,3.336E0,1.0039816E0,1.0416149E0,1.2893762E1,3.1455066E0,9.666913E0,1.0379235E1,8.401438E0,0E0,5.86289E0,1.4182682E0,6.874668E0,4.5939507E0,7.9043694E0,8.028704E0,3.2427993E0,3.0493503E0,1.8763786E1,4.317709E0,6.3590145E-1,0E0,2.2761712E0,2.1170373E0,3.7120485E-1,3.423822E-2,2.2661614E0,4.7277576E-1,0E0,0E0,0E0,0E0,0E0,0E0,0E0,0E0,0E0,0E0,0E0,0E0,0E0,0E0,0E0,0E0,0E0,0E0,0E0,0E0,0E0,0E0,0E0,0E0,0E0,0E0,0E0,0E0,0E0,0E0,0E0,0E0,0E0,0E0,0E0,0E0,0E0,0E0,0E0,0E0,0E0,0E0,0E0,0E0,0E0,0E0,0E0,0E0,0E0,0E0,0E0,0E0,0E0,0E0,0E0,0E0,0E0,0E0,0E0,0E0,0E0,0E0,0E0,0E0,0E0,0E0,0E0,0E0,0E0,0E0,0E0,0E0,0E0,0E0,0E0,0E0,0E0,0E0,0E0,0E0,0E0,0E0,0E0,0E0],"parents":[2147483647,0,0,1,1,2,2,3,3,4,4,5,5,6,6,7,7,8,8,9,9,10,10,11,11,12,12,13,13,14,14,15,15,16,16,18,18,19,19,20,20,21,21,22,22,23,23,24,24,25,25,26,26,28,28,29,29,30,30,31,31,32,32,34,34,35,35,36,36,37,37,38,38,39,39,40,40,41,41,42,42,43,43,44,44,45,45,46,46,47,47,48,48,51,51,52,52,53,53,55,55,57,57,58,58,59,59,60,60,62,62,63,63,65,65,66,66,67,67,68,68,69,69,70,70,71,71,72,72,73,73,74,74,75,75,76,76,77,77,78,78,79,79,80,80,81,81,82,82,83,83,84,84,85,85,87,87,88,88,89,89,90,90,91,91,92,92,93,93,94,94,95,95,96,96,97,97,99,99,100,100,101,101,102,102,103,103,104,104],"right_children":[2,4,6,8,10,12,14,16,18,20,22,24,26,28,30,32,34,-1,36,38,40,42,44,46,48,50,52,-1,54,56,58,60,62,-1,64,66,68,70,72,74,76,78,80,82,84,86,88,90,92,-1,-1,94,96,98,-1,100,-1,102,104,106,108,-1,110,112,-1,114,116,118,120,122,124,126,128,130,132,134,136,138,140,142,144,146,148,150,152,154,-1,156,158,160,162,164,166,168,170,172,174,176,-1,178,180,182,184,186,188,-1,-1,-1,-1,-1,-1,-1,-1,-1,-1,-1,-1,-1,-1,-1,-1,-1,-1,-1,-1,-1,-1,-1,-1,-1,-1,-1,-1,-1,-1,-1,-1,-1,-1,-1,-1,-1,-1,-1,-1,-1,-1,-1,-1,-1,-1,-1,-1,-1,-1,-1,-1,-1,-1,-1,-1,-1,-1,-1,-1,-1,-1,-1,-1,-1,-1,-1,-1,-1,-1,-1,-1,-1,-1,-1,-1,-1,-1,-1,-1,-1,-1,-1,-1],"split_conditions":[6.621175E-1,3.5740007E-2,1.3137093E-1,6.572582E-1,6.4979887E-1,8.349742E-1,6.724138E-2,3.567353E-1,2.7272727E-2,6.474741E-1,6.8446165E-1,1.8095067E-2,2.7272727E-2,8.074397E-1,5.24937E-1,1.3151047E-1,1.2068965E-1,-3.2236036E-2,1.724138E-1,4.4565028E-1,7.5757575E-1,6.746489E-1,4.7413793E-1,7.7943826E-1,8.2218254E-1,8.4844077E-1,8.76709E-1,5.5113595E-2,5E-1,5.2367663E-1,9.212121E-1,2.7272727E-2,2.7594194E-1,1.9296013E-2,3.9655173E-1,1.5E-1,3.9234042E-1,4.3256068E-1,6.2553835E-1,7.034483E-1,2.6034483E-1,6.708678E-1,8.30303E-1,6.925639E-1,7.6971555E-1,7.563675E-1,8.2218254E-1,7.958708E-1,1.5799424E-1,7.2188214E-3,-5.0526306E-2,1.4482759E-1,2.1276595E-3,9.1460705E-1,3.0412337E-2,9.0605086E-1,1.8629257E-2,9.998778E-1,3.3965516E-1,6.167303E-2,1.7815007E-2,-5.864915E-3,5E-1,6.47778E-1,-5.990991E-3,2.9438242E-2,9.090909E-1,1.9805547E-2,3.042852E-2,4.1965395E-1,3.1034482E-1,6.028142E-1,3.5106385E-1,6.206337E-1,6.545454E-1,2.982535E-1,3.7931037E-1,6.5781415E-1,1.8085107E-1,5.4848486E-1,3.9827585E-1,6.913936E-1,9.550774E-1,6.8793106E-1,7.935722E-1,7.290039E-1,1.0196621E-1,2.7272727E-2,5E-1,7.635859E-1,1.6034484E-1,1.3764855E-1,8.30303E-1,8.5870504E-1,4.636298E-2,1.4482759E-1,1.0082823E-1,8.397068E-1,-1.7892463E-2,8.5533917E-1,9.5665354E-1,9.699887E-1,3.327586E-1,3.2586205E-1,8.835277E-1,-7.735159E-4,-2.8570008E-3,1.4913903E-3,5.5021257E-3,-1.396346E-3,1.4900644E-3,5.1577305E-3,9.232963E-4,-7.4879434E-3,7.941008E-3,9.900341E-3,3.689751E-2,3.9665407E-4,-1.9823212E-2,-5.624484E-3,-1.95694E-2,-1.857304E-4,3.3109135E-3,-4.432959E-3,-1.9680932E-3,1.1167639E-3,4.8413468E-3,-1.97179E-3,1.3281952E-3,6.1357305E-3,3.6868646E-3,3.1688376E-3,-3.225212E-3,1.5209758E-4,6.4484635E-3,8.212487E-3,1.5376698E-2,-1.9314977E-3,-1.2862708E-2,-1.1178478E-2,2.5049953E-2,4.6023013E-4,-2.0019883E-2,1.0785633E-3,-1.998017E-2,-1.2514473E-2,4.9919885E-2,2.6794758E-3,-8.560622E-3,-4.333251E-3,9.150834E-3,-1.6918838E-2,-1.8436594E-3,7.2949335E-2,1.0859163E-2,-3.436029E-2,-3.8907758E-3,4.3585815E-2,1.1506899E-2,1.0802922E-3,3.9550276E-3,-6.716978E-3,2.6994816E-4,1.0910865E-2,3.2120217E-2,3.2840169E-3,8.999992E-3,-1.0754304E-2,7.9136705E-3,1.687614E-2,-8.249755E-6,4.5935564E-2,1.8433915E-3,6.9774208E-3,1.7529937E-3,5.2548544E-3,2.9057983E-2,8.9172076E-4,6.9360724E-3,-5.8128503E-3,9.845591E-4,1.14913266E-4,-2.8907808E-3,5.130657E-4,3.5622674E-3,-2.0253877E-3,-1.5287081E-2,1.0153535E-3,-4.3782676E-3],"split_indices":[1,5,7,1,1,1,3,1,2,1,5,5,2,1,5,1,3,0,3,1,2,5,3,1,1,1,1,0,0,5,2,2,1,0,3,3,10,1,1,3,3,5,2,5,5,1,1,1,5,0,0,3,10,1,0,1,0,1,3,1,7,0,0,1,0,5,2,5,5,1,3,1,10,5,2,5,3,5,10,2,3,5,5,3,5,1,0,2,0,1,3,5,2,1,5,3,5,1,0,1,1,1,3,3,1,0,0,0,0,0,0,0,0,0,0,0,0,0,0,0,0,0,0,0,0,0,0,0,0,0,0,0,0,0,0,0,0,0,0,0,0,0,0,0,0,0,0,0,0,0,0,0,0,0,0,0,0,0,0,0,0,0,0,0,0,0,0,0,0,0,0,0,0,0,0,0,0,0,0,0,0,0,0,0,0,0,0,0,0],"split_type":[0,0,0,0,0,0,0,0,0,0,0,0,0,0,0,0,0,0,0,0,0,0,0,0,0,0,0,0,0,0,0,0,0,0,0,0,0,0,0,0,0,0,0,0,0,0,0,0,0,0,0,0,0,0,0,0,0,0,0,0,0,0,0,0,0,0,0,0,0,0,0,0,0,0,0,0,0,0,0,0,0,0,0,0,0,0,0,0,0,0,0,0,0,0,0,0,0,0,0,0,0,0,0,0,0,0,0,0,0,0,0,0,0,0,0,0,0,0,0,0,0,0,0,0,0,0,0,0,0,0,0,0,0,0,0,0,0,0,0,0,0,0,0,0,0,0,0,0,0,0,0,0,0,0,0,0,0,0,0,0,0,0,0,0,0,0,0,0,0,0,0,0,0,0,0,0,0,0,0,0,0,0,0,0,0,0,0,0,0],"sum_hessian":[7.881E3,3.777E3,4.104E3,1.08E2,3.669E3,3.345E3,7.59E2,1.9E1,8.9E1,1.541E3,2.128E3,2.312E3,1.033E3,6E0,7.53E2,1.1E1,8E0,1.1E1,7.8E1,1.512E3,2.9E1,1.395E3,7.33E2,2.6E1,2.286E3,5E0,1.028E3,1E0,5E0,3.47E2,4.06E2,7E0,4E0,3E0,5E0,5E1,2.8E1,1.114E3,3.98E2,2E1,9E0,1.379E3,1.6E1,2.92E2,4.41E2,7E0,1.9E1,1.763E3,5.23E2,1E0,4E0,3.72E2,6.56E2,4E0,1E0,3.46E2,1E0,3.51E2,5.5E1,2E0,5E0,2E0,2E0,3E0,2E0,4.7E1,3E0,1.9E1,9E0,1.054E3,6E1,1.43E2,2.55E2,1.8E1,2E0,3E0,6E0,1.372E3,7E0,1.2E1,4E0,5E0,2.87E2,8.5E1,3.56E2,4E0,3E0,1.4E1,5E0,1.382E3,3.81E2,6E1,4.63E2,3.3E1,3.39E2,1.6E1,6.4E2,2E0,2E0,2.38E2,1.08E2,3.33E2,1.8E1,2.5E1,3E1,1E0,1E0,3E0,2E0,1E0,1E0,2E0,1E0,4.5E1,2E0,2E0,1E0,1E0,1.8E1,7E0,2E0,1.006E3,4.8E1,1.7E1,4.3E1,8.5E1,5.8E1,8.5E1,1.7E2,1E1,8E0,1E0,1E0,2E0,1E0,4E0,2E0,1.343E3,2.9E1,1E0,6E0,1E0,1.1E1,3E0,1E0,2E0,3E0,2.77E2,1E1,3.9E1,4.6E1,1.9E1,3.37E2,1E0,3E0,3E0,1.1E1,4E0,1E0,5.6E2,8.22E2,4.2E1,3.39E2,5.2E1,8E0,3.21E2,1.42E2,2.9E1,4E0,4E0,3.35E2,6E0,1E1,7.1E1,5.69E2,1E0,1E0,2.1E2,2.8E1,2.3E1,8.5E1,3.16E2,1.7E1,2E0,1.6E1,1.8E1,7E0,2.1E1,9E0],"tree_param":{"num_deleted":"0","num_feature":"12","num_nodes":"189","size_leaf_vector":"0"}},{"base_weights":[3.760522E-2,9.443898E-2,2.5033504E-2,8.279151E-2,2.8220588E-1,-1.15751155E-1,2.8727157E-2,1.1403001E-1,-5.494383E-3,1.6536064E-1,8.398458E-1,1.3758658E-1,-1.9977513E-1,1.0232695E-1,2.397088E-2,-1.870976E-1,1.225055E-1,-3.1679377E-1,6.524516E-2,5.0839275E-1,-3.1580236E-2,-1.0183054E-2,1.1705937E0,4.6033642E-1,-0E0,-3.3441323E-1,-7.626372E-2,6.3845444E-1,7.210694E-2,1.2010198E0,2.3304151E-2,4.7776833E-2,-4.0222788E-1,5.0467562E-2,1.5686478E-1,1.909139E0,-3.615114E-1,2.2598164E-2,8.759929E-1,3.8710314E-1,1.6424577E0,-1.3616493E0,4.164658E-2,-9.594895E-2,1.9606794E-1,9.177856E-1,1.9000417E0,7.291414E-1,1.650415E-1,-2.508401E-1,9.842532E-2,-5.4983113E-2,-4.5531145E-1,1.1296188E-1,-2.1957345E-1,1.1875641E-1,4.624232E0,-3.0913746E-2,2.3525523E-1,5.6671566E-1,1.3857473E0,5.946884E-2,1.0853676E-2,-5.5766344E-1,1.1310063E-1,-1.4533564E-1,-9.805616E-1,1.0464314E-1,-2.469901E-1,1.0860502E0,1.4480004E-1,-1.9043567E-2,-4.7445324E-1,5.030047E-1,-3.9281663E-3,-1.3016194E-1,4.213466E0,4.5151743E-1,-7.778401E-1,-1.9705154E-1,2.0498161E-1,-1.6791232E-2,-1.9977716E-1,7.1653754E-1,1.1436856E0,2.0761563E-1,9.505698E-1,-5.9297938E-2,2.764342E-1,-4.9123034E-2,-5.4420996E-1,1.8424937E0,-1.686358E-2,-3.3633214E-1,1.7230599E-1,-6.39176E-2,-6.1421347E-1,-6.760586E-2,1.858147E-1,-4.1429728E-1,3.8368784E-2,8.4031504E-1,-1.01161815E-1,-2.0849688E-1,6.5437764E-2,3.7481984E-1,3.0782716E-2,2.3289921E0,5.744786E-2,-2.2065282E-2,3.427206E-2,2.5359097E-1,-2.87297E-1,-1.8438487E-1,8.776705E-3,7.135722E-2,-1.3075416E0,7.605566E-2,8.0626434E-1,-2.2724266E0,-1.8788837E-1,3.83468E-1,1.7017664E0,1.5662514E-2,1.8236902E-1,2.3293059E-1,-2.7196732E-1,-1.15546845E-2,-5.5240875E-1,1.0097646E-1,1.00325E0,5.4050934E-2,-1.6645901E-1,-2.7941552E-1,5.253981E-2,1.1876863E1,-7.618367E-1,5.0633955E-1,1.8154648E-1,1.20388055E-2,-4.2505875E-1,3.5207197E-1,1.166616E-2,9.716343E-2,-1.3724373E-1,1.8770234E-1,1.0107692E0,6.848218E-1,8.1136234E-2,1.615229E-1,-1.1345328E-1,-1.539782E-1,2.920804E-1,5.7966117E-2,-4.6614888E-1,3.2698023E-1,-9.427105E-1,-1.5809724E-2,-1.8794288E-1,-3.3532485E-1,-1.0460237E0,-8.923048E-2,5.7529233E-2,-2.233956E-2,3.225927E-1,-6.2863106E-1,-1.6447164E-1,2.4274753E-1,-1.6583367E-1,1.2995489E-1,1.4244747E0,9.8669775E-2,-4.4721258E-1,-1.715005E-1,-1.0194452E0,6.571584E-1,2.9003775E-2,8.0089915E-1,2.6138255E-1,7.89549E-2,-7.531937E-1,3.3110376E-2,1.6639051E-1,-4.009036E-5,-9.546035E-2,2.1049567E-1,2.8729757E-2],"categories":[],"categories_nodes":[],"categories_segments":[],"categories_sizes":[],"default_left":[true,true,true,true,true,true,true,true,true,true,true,true,true,true,true,true,true,true,true,true,true,true,true,true,true,true,true,true,true,true,true,true,true,true,true,false,true,true,true,true,false,false,true,true,false,true,false,true,true,true,true,true,true,true,true,true,false,true,true,false,false,true,true,false,true,true,true,true,true,true,true,true,true,true,true,true,true,true,false,true,true,true,false,true,false,false,false,false,true,true,false,false,true,true,true,true,true,true,true,true,true,true,true,true,true,true,true,false,true,true,true,false,false,false,false,false,false,false,false,false,false,false,false,false,false,false,false,false,false,false,false,false,false,false,false,false,false,false,false,false,false,false,false,false,false,false,false,false,false,false,false,false,false,false,false,false,false,false,false,false,false,false,false,false,false,false,false,false,false,false,false,false,false,false,false,false,false,false,false,false,false,false,false,false,false,false,false],"id":200,"left_children":[1,3,5,7,9,11,13,15,17,19,21,23,25,27,29,31,33,35,37,39,41,43,45,47,49,51,53,55,57,59,61,63,65,67,69,-1,71,73,75,77,-1,-1,79,81,-1,83,-1,85,87,89,91,93,95,97,99,101,-1,103,105,-1,-1,107,109,-1,111,113,115,117,119,121,123,125,127,129,131,133,135,137,-1,139,141,143,-1,145,-1,-1,-1,-1,147,149,-1,-1,151,153,155,157,159,161,163,165,167,169,171,173,175,177,179,-1,181,183,185,-1,-1,-1,-1,-1,-1,-1,-1,-1,-1,-1,-1,-1,-1,-1,-1,-1,-1,-1,-1,-1,-1,-1,-1,-1,-1,-1,-1,-1,-1,-1,-1,-1,-1,-1,-1,-1,-1,-1,-1,-1,-1,-1,-1,-1,-1,-1,-1,-1,-1,-1,-1,-1,-1,-1,-1,-1,-1,-1,-1,-1,-1,-1,-1,-1,-1,-1,-1,-1,-1,-1,-1,-1,-1,-1,-1],"loss_changes":[5.640848E0,3.1151543E0,3.3634648E0,3.7175941E0,5.3691564E0,3.5294144E0,2.2039318E0,2.547017E0,7.7692785E0,4.6961193E0,4.050316E0,1.8311357E0,2.0532217E0,6.168995E0,4.6200943E0,1.3925862E0,2.3911934E0,6.7112703E0,9.915411E0,3.2436543E0,4.355674E0,8.150142E-2,1.2838888E0,9.2610645E-1,7.3101735E-1,1.988812E0,1.7814965E0,4.1867985E1,6.0953135E0,1.0086107E-1,2.6636155E0,5.4202574E-1,2.0659332E0,5.055939E0,7.2765408E0,0E0,2.4782982E0,3.4909818E0,4.8373142E1,1.8633838E0,0E0,0E0,1.66407E0,2.3189368E-2,0E0,7.904339E-2,0E0,6.490612E-1,1.6683555E-1,4.7577763E-1,4.3259606E0,1.1940459E0,2.5478992E0,3.7859833E-1,1.8858299E0,2.9481177E0,0E0,3.8108056E0,3.995081E0,0E0,0E0,6.871669E0,3.394995E0,0E0,7.17597E-1,6.5231025E-2,1.5392718E0,5.288915E0,5.608371E0,3.3576288E0,3.1368036E0,1.0626183E0,1.7339649E0,2.8331106E0,2.4484046E0,3.171829E-1,1.3027354E2,2.900777E-1,0E0,8.339555E-1,7.1379507E-1,3.7048094E-2,0E0,7.49526E-1,0E0,0E0,0E0,0E0,3.1617123E-1,7.769866E-2,0E0,0E0,8.743686E-1,4.4139445E-1,1.8761646E0,6.9691606E-2,3.3958693E0,2.4714384E-2,5.855987E-1,1.0965323E0,6.9619286E-1,1.7143295E0,1.010873E0,2.2748816E0,3.0955045E0,3.9428196E0,2.1754613E0,0E0,4.010406E0,2.9574442E0,2.5079074E0,0E0,0E0,0E0,0E0,0E0,0E0,0E0,0E0,0E0,0E0,0E0,0E0,0E0,0E0,0E0,0E0,0E0,0E0,0E0,0E0,0E0,0E0,0E0,0E0,0E0,0E0,0E0,0E0,0E0,0E0,0E0,0E0,0E0,0E0,0E0,0E0,0E0,0E0,0E0,0E0,0E0,0E0,0E0,0E0,0E0,0E0,0E0,0E0,0E0,0E0,0E0,0E0,0E0,0E0,0E0,0E0,0E0,0E0,0E0,0E0,0E0,0E0,0E0,0E0,0E0,0E0,0E0,0E0,0E0,0E0,0E0,0E0,0E0,0E0,0E0,0E0],"parents":[2147483647,0,0,1,1,2,2,3,3,4,4,5,5,6,6,7,7,8,8,9,9,10,10,11,11,12,12,13,13,14,14,15,15,16,16,17,17,18,18,19,19,20,20,21,21,22,22,23,23,24,24,25,25,26,26,27,27,28,28,29,29,30,30,31,31,32,32,33,33,34,34,36,36,37,37,38,38,39,39,42,42,43,43,45,45,47,47,48,48,49,49,50,50,51,51,52,52,53,53,54,54,55,55,57,57,58,58,61,61,62,62,64,64,65,65,66,66,67,67,68,68,69,69,70,70,71,71,72,72,73,73,74,74,75,75,76,76,77,77,79,79,80,80,81,81,83,83,88,88,89,89,92,92,93,93,94,94,95,95,96,96,97,97,98,98,99,99,100,100,101,101,102,102,103,103,104,104,105,105,106,106,108,108,109,109,110,110],"right_children":[2,4,6,8,10,12,14,16,18,20,22,24,26,28,30,32,34,36,38,40,42,44,46,48,50,52,54,56,58,60,62,64,66,68,70,-1,72,74,76,78,-1,-1,80,82,-1,84,-1,86,88,90,92,94,96,98,100,102,-1,104,106,-1,-1,108,110,-1,112,114,116,118,120,122,124,126,128,130,132,134,136,138,-1,140,142,144,-1,146,-1,-1,-1,-1,148,150,-1,-1,152,154,156,158,160,162,164,166,168,170,172,174,176,178,180,-1,182,184,186,-1,-1,-1,-1,-1,-1,-1,-1,-1,-1,-1,-1,-1,-1,-1,-1,-1,-1,-1,-1,-1,-1,-1,-1,-1,-1,-1,-1,-1,-1,-1,-1,-1,-1,-1,-1,-1,-1,-1,-1,-1,-1,-1,-1,-1,-1,-1,-1,-1,-1,-1,-1,-1,-1,-1,-1,-1,-1,-1,-1,-1,-1,-1,-1,-1,-1,-1,-1,-1,-1,-1,-1,-1,-1,-1,-1],"split_conditions":[1.4619164E-1,5E-1,1.6584766E-1,4.685812E-1,3.2931036E-1,2.6206896E-1,1.2389015E-3,4.1296717E-4,5.045012E-1,1.9922578E-1,9.8790765E-1,1.6666667E-1,4.9513865E-1,2.086207E-1,2.0975873E-2,2.913793E-1,1.3793103E-1,2.5344828E-1,5.8854413E-1,1.4310345E-1,1.6034484E-1,9.5682657E-1,3.327586E-1,2.7268636E-1,2.2830392E-1,3.5812026E-1,5.9893775E-1,3.988117E-2,2.777778E-1,3.3333334E-1,4.127764E-1,1.5172413E-1,2.777778E-1,1.6492619E-1,2.5387108E-2,3.818278E-2,4.8316526E-1,5.14224E-1,6.385488E-1,1.788801E-1,3.2849155E-2,-2.7232984E-2,4.2050773E-1,3.327586E-1,3.921359E-3,6.4052933E-1,3.8000833E-2,2.5954267E-1,4.2131796E-1,9.3103446E-2,2.3271516E-1,3.114872E-1,9.8790765E-1,5.1170325E-1,6.435002E-1,8.275862E-2,9.248463E-2,6.256752E-2,3.888889E-1,1.1334313E-2,2.7714945E-2,3.2769173E-2,4.0172416E-1,-1.1153269E-2,4.0061217E-2,1.6666667E-1,5.719247E-1,1.632157E-1,1.6528627E-1,2.3766655E-2,9.5682657E-1,3.2586205E-1,1.6666667E-1,5.094527E-1,3.327586E-1,5.635578E-1,6.4566076E-1,1.735686E-1,-1.5556801E-2,3.4110552E-1,3.1034482E-1,6.4052933E-1,-3.995543E-3,6.1111116E-1,2.287371E-2,4.1523124E-3,1.9011395E-2,-1.1859587E-3,4.5840836E-1,8.231776E-1,-1.0884199E-2,3.684987E-2,2.3620689E-1,1.2389015E-3,5.280793E-1,2.777778E-1,3.3965516E-1,5.280793E-1,9.8790765E-1,3.888889E-1,7.048074E-1,2.777778E-1,1.362069E-1,6.139719E-2,6.832913E-2,4.951386E-2,1.1613251E-1,4.657984E-2,3.783784E-1,3.6551723E-1,4.0862072E-1,5.0718193E-3,-5.74594E-3,-3.6876972E-3,1.7553409E-4,1.4271444E-3,-2.6150832E-2,1.5211132E-3,1.6125286E-2,-4.544853E-2,-3.7577674E-3,7.66936E-3,3.4035325E-2,3.1325026E-4,3.6473803E-3,4.6586115E-3,-5.439346E-3,-2.3109368E-4,-1.1048174E-2,2.0195292E-3,2.0065E-2,1.0810186E-3,-3.3291802E-3,-5.5883103E-3,1.0507962E-3,2.3753725E-1,-1.52367335E-2,1.0126791E-2,3.6309294E-3,2.407761E-4,-8.501175E-3,7.0414394E-3,2.333232E-4,1.9432686E-3,-2.7448747E-3,3.7540467E-3,2.0215385E-2,1.3696436E-2,1.6227247E-3,3.230458E-3,-2.2690655E-3,-3.0795638E-3,5.8416077E-3,1.1593223E-3,-9.322978E-3,6.5396046E-3,-1.885421E-2,-3.1619446E-4,-3.7588575E-3,-6.7064967E-3,-2.0920474E-2,-1.7846095E-3,1.1505847E-3,-4.4679118E-4,6.451854E-3,-1.2572621E-2,-3.2894327E-3,4.8549506E-3,-3.3166732E-3,2.5990978E-3,2.8489493E-2,1.9733955E-3,-8.944252E-3,-3.43001E-3,-2.0388903E-2,1.3143167E-2,5.800755E-4,1.6017983E-2,5.227651E-3,1.5790979E-3,-1.50638735E-2,6.622075E-4,3.3278102E-3,-8.018072E-7,-1.909207E-3,4.2099133E-3,5.745951E-4],"split_indices":[11,4,11,5,3,3,8,8,5,5,6,4,5,3,5,3,3,3,7,3,3,6,3,5,5,5,5,5,4,4,11,3,4,5,5,0,5,5,5,5,0,0,5,3,0,5,0,5,5,3,5,5,6,5,5,3,0,5,4,0,0,5,3,0,5,4,6,5,5,5,6,3,4,5,3,5,5,5,0,5,3,5,0,4,0,0,0,0,5,6,0,0,3,8,7,4,3,7,6,4,5,4,3,5,5,5,5,0,11,3,3,0,0,0,0,0,0,0,0,0,0,0,0,0,0,0,0,0,0,0,0,0,0,0,0,0,0,0,0,0,0,0,0,0,0,0,0,0,0,0,0,0,0,0,0,0,0,0,0,0,0,0,0,0,0,0,0,0,0,0,0,0,0,0,0,0,0,0,0,0,0,0,0,0,0,0,0],"split_type":[0,0,0,0,0,0,0,0,0,0,0,0,0,0,0,0,0,0,0,0,0,0,0,0,0,0,0,0,0,0,0,0,0,0,0,0,0,0,0,0,0,0,0,0,0,0,0,0,0,0,0,0,0,0,0,0,0,0,0,0,0,0,0,0,0,0,0,0,0,0,0,0,0,0,0,0,0,0,0,0,0,0,0,0,0,0,0,0,0,0,0,0,0,0,0,0,0,0,0,0,0,0,0,0,0,0,0,0,0,0,0,0,0,0,0,0,0,0,0,0,0,0,0,0,0,0,0,0,0,0,0,0,0,0,0,0,0,0,0,0,0,0,0,0,0,0,0,0,0,0,0,0,0,0,0,0,0,0,0,0,0,0,0,0,0,0,0,0,0,0,0,0,0,0,0,0,0,0,0,0,0,0,0,0,0,0,0],"sum_hessian":[7.898E3,1.43E3,6.468E3,1.347E3,8.3E1,1.65E2,6.303E3,9.95E2,3.52E2,6.9E1,1.4E1,4.1E1,1.24E2,3.82E2,5.921E3,2.7E1,9.68E2,6.5E1,2.87E2,2.5E1,4.4E1,4E0,1E1,1.2E1,2.9E1,5.9E1,6.5E1,2E1,3.62E2,3E0,5.918E3,1.3E1,1.4E1,3.13E2,6.55E2,1E0,6.4E1,2.73E2,1.4E1,2.3E1,2E0,2E0,4.2E1,3E0,1E0,8E0,2E0,6E0,6E0,8E0,2.1E1,1.8E1,4.1E1,2.8E1,3.7E1,1.8E1,2E0,2.22E2,1.4E2,1E0,2E0,1.515E3,4.403E3,1E0,1.2E1,1E1,4E0,2.65E2,4.8E1,8E0,6.47E2,1.6E1,4.8E1,1.4E1,2.59E2,1.1E1,3E0,2.2E1,1E0,1.7E1,2.5E1,2E0,1E0,5E0,3E0,2E0,4E0,2E0,4E0,5E0,3E0,1E0,2E1,8E0,1E1,1.2E1,2.9E1,8E0,2E1,2.1E1,1.6E1,4E0,1.4E1,7.8E1,1.44E2,8.3E1,5.7E1,1E0,1.514E3,1.83E3,2.573E3,9E0,3E0,8E0,2E0,1E0,3E0,2.55E2,1E1,1E0,4.7E1,4E0,4E0,1.46E2,5.01E2,8E0,8E0,7E0,4.1E1,8E0,6E0,1.91E2,6.8E1,6E0,5E0,1E0,2E0,1.8E1,4E0,9E0,8E0,1.4E1,1.1E1,1E0,1E0,2E0,3E0,1E0,3E0,1E0,4E0,1.4E1,6E0,2E0,6E0,9E0,1E0,9E0,3E0,1.8E1,1.1E1,7E0,1E0,8E0,1.2E1,1.1E1,1E1,8E0,8E0,2E0,2E0,9E0,5E0,7.5E1,3E0,8E0,1.36E2,1.7E1,6.6E1,5.4E1,3E0,1.238E3,2.76E2,1.408E3,4.22E2,7.8E1,2.495E3],"tree_param":{"num_deleted":"0","num_feature":"12","num_nodes":"187","size_leaf_vector":"0"}},{"base_weights":[4.021611E-2,-4.5094006E-2,1.4353867E-1,-8.92471E-1,-4.188808E-2,1.1243025E0,1.2927626E-1,4.1315672E-1,-1.1976371E0,9.309201E-3,-7.067896E-2,5.005174E0,8.4859365E-1,3.2766095E-1,1.18219085E-1,-1.095943E-1,1.235306E0,-4.883328E-3,1.04433194E-1,-9.983541E-2,3.582466E-2,-4.9407062E-1,1.5827707E0,1.1486276E0,2.7388954E-1,5.346683E-1,1.1299827E-1,-3.9236497E-2,-1.4184807E-1,1.9903544E-3,-1.6076028E-1,1.4189844E-1,-1.2429385E-2,-4.1658533E-1,-8.544941E-2,1.5175779E0,2.4921596E-2,-7.954028E-1,8.46763E-1,7.5327063E0,6.196311E-1,5.434076E-1,1.5955586E0,1.7270094E-1,5.6247675E-1,3.173164E-1,2.9763548E0,-6.414293E-2,1.2435058E-1,-9.2938375E-3,1.3404155E-1,-1.7521466E-1,8.663992E-2,2.745085E-1,1.04652464E-1,-1.0078845E-1,9.525835E-2,-2.3986933E-1,-5.75868E-1,9.301832E-1,-9.149875E-2,3.5916197E0,5.3181607E-1,1.8025462E-1,-2.9881282E-2,-1.8683085E0,-3.1841746E-1,-6.729187E-1,1.6002948E0,1.358455E1,3.9826638E-1,-1.6882769E0,1.1621709E0,1.309095E-1,7.735213E-1,1.8025564E0,9.7701395E-1,2.6507882E-2,3.0098924E-1,2.6855507E-1,7.351647E-1,4.322527E-1,-1.5115411E0,8.871902E-2,4.1950483E0,1.4330362E0,-7.417311E-2,1.6572867E-1,7.216123E-2,2.285662E-2,-2.2295373E-2,3.1106248E-1,6.9029815E-2,-1.8585771E-1,8.240669E-2,1.6195232E-1,-5.6120683E-2,1.1339191E-1,3.884847E-1,6.7808695E-2,2.2866137E-1,1.5117083E-1,-1.3450962E-1,6.640141E-2,1.6241014E-1,-3.3766893E-1,2.0615417E-1,-1.1310998E0,-4.063294E-1,2.0290773E-1,6.868144E0,-4.2601728E-1,-8.364319E-2,5.566861E-2,5.839684E-1,-2.388396E0,-2.2617934E-2,5.8180988E-2,-8.476136E-1,2.532034E0,2.5766063E-1,3.543868E-1,-2.1902084E0,-4.355157E-1,1.9019448E0,-2.6385412E-1,5.036325E-1,-3.123042E-1,4.596232E-2,-1.4060402E-1,3.2188264E-1,-3.8803688E-1,3.6356598E-1,4.666949E-1,9.516984E-1,-2.642994E-1,7.006534E-1,-2.2633066E0,-3.7107593E-1,-2.1308924E-1,3.7313225E-3,1.0106309E-1,3.080317E-1,-1.1308659E-2,1.15234636E-1],"categories":[],"categories_nodes":[],"categories_segments":[],"categories_sizes":[],"default_left":[true,true,true,true,true,true,true,true,false,true,true,false,true,true,true,true,false,true,true,true,true,true,true,true,true,true,true,false,false,true,true,true,true,true,true,true,true,true,true,true,true,true,true,true,true,true,true,true,true,true,true,true,true,true,true,true,true,true,true,true,true,false,false,true,true,false,true,false,true,false,false,true,true,true,false,false,false,true,true,true,true,true,true,false,false,false,true,true,true,false,false,false,false,false,false,false,false,false,false,false,false,false,false,false,false,false,false,false,false,false,false,false,false,false,false,false,false,false,false,false,false,false,false,false,false,false,false,false,false,false,false,false,false,false,false,false,false,false,false,false,false,false,false,false,false],"id":201,"left_children":[1,3,5,7,9,11,13,15,-1,17,19,-1,21,23,25,27,-1,29,31,33,35,37,39,41,43,45,47,-1,-1,49,51,53,55,57,59,61,63,65,67,69,71,73,75,77,79,81,83,85,87,89,91,93,95,97,99,101,103,105,107,109,111,-1,-1,113,115,-1,117,-1,119,-1,-1,121,123,125,-1,-1,-1,127,129,131,133,135,137,-1,-1,-1,139,141,143,-1,-1,-1,-1,-1,-1,-1,-1,-1,-1,-1,-1,-1,-1,-1,-1,-1,-1,-1,-1,-1,-1,-1,-1,-1,-1,-1,-1,-1,-1,-1,-1,-1,-1,-1,-1,-1,-1,-1,-1,-1,-1,-1,-1,-1,-1,-1,-1,-1,-1,-1,-1,-1,-1,-1,-1],"loss_changes":[6.987872E1,1.1770714E1,5.0085518E1,6.6839943E0,6.378173E0,5.3426453E1,7.7335434E0,1.4938608E0,0E0,2.104068E0,8.601629E0,0E0,4.7921185E1,8.100409E0,7.25058E0,8.563753E-4,0E0,1.4545417E0,8.883085E-1,9.888895E0,9.5833845E0,7.227219E0,1.7788742E2,2.745965E0,5.07716E0,2.1573961E1,6.654438E0,0E0,0E0,1.9368299E0,2.1135128E-1,7.4235487E-1,4.7269776E-1,2.59758E0,1.2797786E1,8.164058E0,5.0377836E0,7.105727E0,4.1895866E0,1.8510054E2,3.48719E1,4.5959234E-1,1.8398857E-1,2.4370542E0,2.2208233E0,8.260263E0,1.1545744E1,3.0094478E0,6.7050514E0,5.002356E-1,1.1651161E0,1.5555847E-1,4.038076E-2,5.902693E-1,5.4039884E-1,2.387782E-1,3.6417678E-2,2.002577E0,4.468727E0,5.2696922E1,5.4160748E0,0E0,0E0,7.7425594E0,7.439428E0,0E0,2.087109E0,0E0,2.6617866E0,0E0,0E0,5.7533073E0,2.6693672E1,3.910749E-1,0E0,0E0,0E0,4.0526095E-1,6.5737486E-1,1.1280172E0,1.4787588E0,6.8607025E0,1.6829848E0,0E0,0E0,0E0,2.1496525E0,1.5934109E1,4.946698E0,0E0,0E0,0E0,0E0,0E0,0E0,0E0,0E0,0E0,0E0,0E0,0E0,0E0,0E0,0E0,0E0,0E0,0E0,0E0,0E0,0E0,0E0,0E0,0E0,0E0,0E0,0E0,0E0,0E0,0E0,0E0,0E0,0E0,0E0,0E0,0E0,0E0,0E0,0E0,0E0,0E0,0E0,0E0,0E0,0E0,0E0,0E0,0E0,0E0,0E0,0E0,0E0,0E0,0E0,0E0,0E0],"parents":[2147483647,0,0,1,1,2,2,3,3,4,4,5,5,6,6,7,7,9,9,10,10,12,12,13,13,14,14,15,15,17,17,18,18,19,19,20,20,21,21,22,22,23,23,24,24,25,25,26,26,29,29,30,30,31,31,32,32,33,33,34,34,35,35,36,36,37,37,38,38,39,39,40,40,41,41,42,42,43,43,44,44,45,45,46,46,47,47,48,48,49,49,50,50,51,51,52,52,53,53,54,54,55,55,56,56,57,57,58,58,59,59,60,60,63,63,64,64,66,66,68,68,71,71,72,72,73,73,77,77,78,78,79,79,80,80,81,81,82,82,86,86,87,87,88,88],"right_children":[2,4,6,8,10,12,14,16,-1,18,20,-1,22,24,26,28,-1,30,32,34,36,38,40,42,44,46,48,-1,-1,50,52,54,56,58,60,62,64,66,68,70,72,74,76,78,80,82,84,86,88,90,92,94,96,98,100,102,104,106,108,110,112,-1,-1,114,116,-1,118,-1,120,-1,-1,122,124,126,-1,-1,-1,128,130,132,134,136,138,-1,-1,-1,140,142,144,-1,-1,-1,-1,-1,-1,-1,-1,-1,-1,-1,-1,-1,-1,-1,-1,-1,-1,-1,-1,-1,-1,-1,-1,-1,-1,-1,-1,-1,-1,-1,-1,-1,-1,-1,-1,-1,-1,-1,-1,-1,-1,-1,-1,-1,-1,-1,-1,-1,-1,-1,-1,-1,-1,-1,-1],"split_conditions":[7.568615E-1,2.7272727E-2,1.7554916E-2,5.247395E-1,6.572582E-1,7.703592E-1,7.664299E-1,2.4097994E-1,-2.3952741E-2,6.341465E-1,6.621175E-1,1.0010348E-1,8.2218254E-1,4.2424244E-1,7.4137926E-2,6.167303E-2,2.470612E-2,6.324857E-1,7.090609E-2,4.4472452E-2,5E-1,1.166234E-1,8.349742E-1,7.638253E-1,8.30303E-1,1.3809867E-1,7.907306E-1,-7.847299E-4,-2.8369613E-3,6.028142E-1,9.2554915E-1,3.5613972E-1,6.430696E-1,2.3586605E-2,4.942384E-2,7.290039E-1,3.6991358E-1,2.7272727E-2,7.7859855E-1,2.7272727E-2,2.7272727E-2,2.0147642E-1,1.6411595E-1,7.645392E-1,7.623091E-1,1.3728845E-1,8.0838656E-1,2.5207058E-2,8.3047175E-1,3.306626E-1,3.086207E-1,7.862069E-1,8.30303E-1,5.818182E-1,8.554195E-1,2.2029167E-1,7.5757575E-1,3.3636364E-1,2.646741E-2,4.8883688E-2,7.4990995E-2,7.1832396E-2,1.0636321E-2,8.30303E-1,3.7081385E-1,-3.736617E-2,7.958708E-1,-1.3458373E-2,8.012924E-1,2.71691E-1,7.965327E-3,8.4844077E-1,8.571358E-1,7.6135576E-1,1.5470426E-2,3.6051128E-2,1.9540278E-2,1.7879006E-1,2.5344828E-1,1.7413794E-1,9.212121E-1,8.2218254E-1,1.3773857E-1,1.7743803E-3,8.3900966E-2,2.8660724E-2,7.6906526E-1,8.224432E-1,8.670317E-1,4.5713238E-4,-4.4590744E-4,6.2212497E-3,1.3805963E-3,-3.7171543E-3,1.6481339E-3,3.2390463E-3,-1.1224137E-3,2.2678382E-3,7.7696936E-3,1.3561739E-3,4.5732274E-3,3.0234167E-3,-2.6901923E-3,1.3280282E-3,3.2482026E-3,-6.7533785E-3,4.1230833E-3,-2.2621997E-2,-8.126588E-3,4.0581543E-3,1.3736288E-1,-8.520345E-3,-1.6728637E-3,1.1133722E-3,1.1679368E-2,-4.776792E-2,-4.5235868E-4,1.1636197E-3,-1.695227E-2,5.0640676E-2,5.153212E-3,7.087736E-3,-4.380417E-2,-8.710314E-3,3.8038895E-2,-5.2770823E-3,1.0072649E-2,-6.246084E-3,9.1924635E-4,-2.8120803E-3,6.4376527E-3,-7.7607376E-3,7.2713196E-3,9.333897E-3,1.9033968E-2,-5.2859876E-3,1.4013067E-2,-4.5266133E-2,-7.421518E-3,-4.2617847E-3,7.462645E-5,2.0212617E-3,6.160634E-3,-2.2617317E-4,2.3046928E-3],"split_indices":[1,2,5,1,1,1,1,1,0,1,1,0,1,2,3,1,0,1,7,5,0,7,1,1,2,5,1,0,0,1,5,5,1,5,5,1,5,2,1,2,2,5,5,1,1,5,1,5,1,5,3,3,2,2,5,5,2,2,5,5,5,0,0,2,5,0,1,0,1,0,0,1,1,1,0,0,0,5,3,3,2,1,5,0,0,0,1,1,1,0,0,0,0,0,0,0,0,0,0,0,0,0,0,0,0,0,0,0,0,0,0,0,0,0,0,0,0,0,0,0,0,0,0,0,0,0,0,0,0,0,0,0,0,0,0,0,0,0,0,0,0,0,0,0,0],"split_type":[0,0,0,0,0,0,0,0,0,0,0,0,0,0,0,0,0,0,0,0,0,0,0,0,0,0,0,0,0,0,0,0,0,0,0,0,0,0,0,0,0,0,0,0,0,0,0,0,0,0,0,0,0,0,0,0,0,0,0,0,0,0,0,0,0,0,0,0,0,0,0,0,0,0,0,0,0,0,0,0,0,0,0,0,0,0,0,0,0,0,0,0,0,0,0,0,0,0,0,0,0,0,0,0,0,0,0,0,0,0,0,0,0,0,0,0,0,0,0,0,0,0,0,0,0,0,0,0,0,0,0,0,0,0,0,0,0,0,0,0,0,0,0,0,0],"sum_hessian":[7.927E3,4.342E3,3.585E3,1.6E1,4.326E3,5.1E1,3.534E3,3E0,1.3E1,1.557E3,2.769E3,3E0,4.8E1,1.86E2,3.348E3,2E0,1E0,1.355E3,2.02E2,2.174E3,5.95E2,1.7E1,3.1E1,1.1E1,1.75E2,4.1E1,3.307E3,1E0,1E0,1.298E3,5.7E1,1.53E2,4.9E1,9.4E1,2.08E3,4E0,5.91E2,1.4E1,3E0,4E0,2.7E1,5E0,6E0,1.3E2,4.5E1,3.8E1,3E0,1.99E2,3.108E3,1.196E3,1.02E2,5.4E1,3E0,3.3E1,1.2E2,2.7E1,2.2E1,4.5E1,4.9E1,1.2E1,2.068E3,1E0,3E0,1.54E2,4.37E2,4E0,1E1,1E0,2E0,2E0,2E0,5E0,2.2E1,2E0,3E0,4E0,2E0,6.1E1,6.9E1,1.7E1,2.8E1,3.6E1,2E0,1E0,2E0,1E0,1.98E2,1.733E3,1.375E3,3.44E2,8.52E2,2.7E1,7.5E1,5.2E1,2E0,2E0,1E0,1.4E1,1.9E1,9.3E1,2.7E1,3E0,2.4E1,1.6E1,6E0,3.7E1,8E0,1.1E1,3.8E1,1.1E1,1E0,4.7E1,2.021E3,1.18E2,3.6E1,1E0,4.36E2,6E0,4E0,1E0,1E0,1E0,4E0,7E0,1.5E1,1E0,1E0,3E0,5.8E1,3E0,6.6E1,2E0,1.5E1,1.3E1,1.5E1,1E1,2.6E1,1E0,1E0,7.1E1,1.27E2,1.192E3,5.41E2,4.68E2,9.07E2],"tree_param":{"num_deleted":"0","num_feature":"12","num_nodes":"145","size_leaf_vector":"0"}},{"base_weights":[4.0393557E-2,-5.410385E-2,1.2555099E-1,7.6233647E-3,-9.809919E-2,1.9268173E0,1.1888748E-1,-5.115166E-3,1.0920907E-1,-2.833967E-1,-6.9809325E-2,-6.716828E-1,3.6227834E0,4.682171E-1,1.096078E-1,1.3475168E-3,-1.6728082E-1,8.802817E-3,1.4506477E-1,-9.7219056E-1,-2.4727522E-1,6.1486065E-2,-1.02047406E-1,1.5763847E0,-1.8338176E0,1.3351686E1,3.6041614E-1,7.4432135E-1,1.837409E-1,1.272772E-1,3.3906676E-2,-4.1204826E-3,3.3912927E-1,3.3163545E-1,-1.891513E-1,-6.1784886E-2,7.987603E-2,1.05208285E-1,3.0516407E-1,-2.1300122E-1,-8.6781514E-1,4.28693E-2,1.347636E0,-7.258881E-1,-8.682655E-2,2.4940577E0,2.537958E-1,-6.210783E-1,7.6997393E-1,1.1689425E-1,2.491549E0,-6.118263E-1,4.4557464E-1,1.5366249E-1,6.868727E-2,-2.2712413E-2,5.8835983E-2,1.7011507E-1,-6.728969E-3,1.0218406E0,2.8809372E-1,-2.6249528E-1,-1.2102771E-1,1.0804079E-1,-1.234717E-1,-3.3538517E-2,1.2060275E-1,6.8103366E-2,3.005834E-1,3.2720724E-1,-1.6270241E-1,-2.3192392E-1,1.2761537E0,-1.3256091E0,-3.686144E-1,-2.218491E-2,3.111796E-1,1.8012594E0,-4.528512E-1,-5.810172E-1,-1.0702666E0,-9.049292E-2,7.759137E-1,1.0117633E0,-1.14509396E-1,3.3652759E0,1.5025802E0,-7.216663E-1,-2.0584737E-1,7.67115E-1,-5.112923E-1,1.133011E-1,2.9204407E-1,1.8640486E0,6.629981E-2,4.4577106E-4,-2.6714996E-1,3.85563E-2,2.033789E-1,-1.7314048E-2,6.658608E-1,-2.6356477E-1,-5.0548357E-3,2.1044336E-1,4.4640562E-1,6.885556E-2,-2.782913E-1,3.847645E-1,-1.45649E-1,4.531238E-2,2.0298053E-1,-1.7200531E-1,-8.4497E-4,-7.457755E-4,-1.456151E-1,7.832414E-2,1.7274766E-1,4.1407487E-1,4.5242626E-2,1.3203377E0,2.0443338E-1,5.0357664E-1,2.721711E-1,-7.85282E-2,-3.4112838E-1,1.5527323E-2,1.8080584E0,-1.5274903E0,-2.454944E-2,-2.6524806E-2,-1.0917166E0,9.024478E-1,-4.874839E-2,7.565654E-1,8.45082E-2,1.0918268E0,2.2471647E0,-7.7991265E-1,-2.9356998E-1,-1.163637E0,-5.777527E-1,-8.681657E-2,-7.373337E-1,9.200253E-1,-0E0,1.6489654E0,2.934121E-1,5.411582E-2,-4.7663987E-1,5.522425E-1,1.6213012E0,-4.9376476E-1,-1.4263209E0,4.8401982E-1,1.6310331E0,-8.7417626E-1,-2.3382789E-1,1.3968492E-1,9.108154E-3,6.575304E-1,1.8393771E-1,-1.0100317E0,7.195712E-2,8.740524E-2,-1.1682665E-1,-1.9957185E-1,-1.1694329E0,-3.8237203E-2,5.7451546E-2,4.4597378E-1,-1.610112E-1],"categories":[],"categories_nodes":[],"categories_segments":[],"categories_sizes":[],"default_left":[true,true,true,true,true,true,true,true,true,true,true,true,true,true,true,true,true,true,true,false,true,true,true,true,false,false,true,true,true,true,true,true,true,false,true,true,true,true,true,true,true,true,true,true,true,false,false,false,false,true,true,true,true,true,true,true,true,true,true,false,true,true,true,true,true,true,true,true,true,true,false,true,true,true,true,true,true,true,false,true,true,true,true,true,true,false,true,true,false,true,true,true,true,false,true,true,true,true,true,false,false,false,false,false,false,false,false,false,false,false,false,false,false,false,false,false,false,false,false,false,false,false,false,false,false,false,false,false,false,false,false,false,false,false,false,false,false,false,false,false,false,false,false,false,false,false,false,false,false,false,false,false,false,false,false,false,false,false,false,false,false,false,false,false,false,false,false,false,false,false,false],"id":202,"left_children":[1,3,5,7,9,11,13,15,17,19,21,23,25,27,29,31,33,35,37,-1,39,41,43,45,-1,-1,47,49,51,53,55,57,59,-1,61,63,65,67,69,71,73,75,77,79,81,-1,-1,-1,-1,83,85,87,89,91,93,95,97,99,101,-1,103,105,107,109,111,113,115,117,119,121,-1,123,125,127,129,131,133,135,-1,137,139,141,143,145,147,-1,149,151,-1,153,155,157,159,-1,161,163,165,167,169,-1,-1,-1,-1,-1,-1,-1,-1,-1,-1,-1,-1,-1,-1,-1,-1,-1,-1,-1,-1,-1,-1,-1,-1,-1,-1,-1,-1,-1,-1,-1,-1,-1,-1,-1,-1,-1,-1,-1,-1,-1,-1,-1,-1,-1,-1,-1,-1,-1,-1,-1,-1,-1,-1,-1,-1,-1,-1,-1,-1,-1,-1,-1,-1,-1,-1,-1,-1,-1,-1,-1,-1],"loss_changes":[6.3771637E1,1.0202652E1,4.992595E1,2.0247068E0,1.14859085E1,6.842767E1,1.3438366E1,1.4584984E0,6.250038E-1,7.126011E0,8.058932E0,1.751423E1,2.9443707E2,8.371674E0,5.4086037E0,2.4734397E0,6.0083616E-1,2.3435394E-1,8.0233526E-1,0E0,5.800106E0,8.947867E0,1.4479508E1,2.5818672E0,0E0,0E0,3.1094944E0,5.942917E1,1.1198237E1,5.064419E0,1.0826211E0,5.958585E-1,6.2645817E-1,0E0,2.4042058E-1,2.4911019E-1,1.103681E-1,7.370181E-1,2.8137064E-1,7.476054E0,3.0885296E0,6.47049E0,4.6473236E0,1.5817719E0,4.7340765E0,0E0,0E0,0E0,0E0,8.403526E0,1.0629723E1,5.318074E-1,1.2543896E1,1.2613346E1,4.300481E0,1.3303424E0,1.5543549E0,1.8095069E0,5.531181E-1,0E0,2.0926201E-1,1.3673949E-1,3.5566804E-1,3.110969E-2,1.00646436E-1,2.1153485E-2,3.0120343E-2,6.779357E-1,1.4897264E0,1.7942667E-1,0E0,4.3293037E0,2.1998286E0,1.8915634E0,1.7884425E0,7.329999E0,7.269197E0,5.05044E-1,0E0,1.4138718E0,2.2616673E-1,3.5014172E0,7.014818E-1,3.625472E0,1.9890501E0,0E0,4.978218E-1,1.3972301E0,0E0,7.1252594E0,9.564817E-1,4.811882E0,2.0111652E1,0E0,6.211629E0,2.1887472E0,1.1424701E0,6.791225E-1,5.8034353E0,0E0,0E0,0E0,0E0,0E0,0E0,0E0,0E0,0E0,0E0,0E0,0E0,0E0,0E0,0E0,0E0,0E0,0E0,0E0,0E0,0E0,0E0,0E0,0E0,0E0,0E0,0E0,0E0,0E0,0E0,0E0,0E0,0E0,0E0,0E0,0E0,0E0,0E0,0E0,0E0,0E0,0E0,0E0,0E0,0E0,0E0,0E0,0E0,0E0,0E0,0E0,0E0,0E0,0E0,0E0,0E0,0E0,0E0,0E0,0E0,0E0,0E0,0E0,0E0,0E0,0E0,0E0,0E0,0E0,0E0,0E0,0E0],"parents":[2147483647,0,0,1,1,2,2,3,3,4,4,5,5,6,6,7,7,8,8,9,9,10,10,11,11,12,12,13,13,14,14,15,15,16,16,17,17,18,18,20,20,21,21,22,22,23,23,26,26,27,27,28,28,29,29,30,30,31,31,32,32,34,34,35,35,36,36,37,37,38,38,39,39,40,40,41,41,42,42,43,43,44,44,49,49,50,50,51,51,52,52,53,53,54,54,55,55,56,56,57,57,58,58,60,60,61,61,62,62,63,63,64,64,65,65,66,66,67,67,68,68,69,69,71,71,72,72,73,73,74,74,75,75,76,76,77,77,79,79,80,80,81,81,82,82,83,83,84,84,86,86,87,87,89,89,90,90,91,91,92,92,94,94,95,95,96,96,97,97,98,98],"right_children":[2,4,6,8,10,12,14,16,18,20,22,24,26,28,30,32,34,36,38,-1,40,42,44,46,-1,-1,48,50,52,54,56,58,60,-1,62,64,66,68,70,72,74,76,78,80,82,-1,-1,-1,-1,84,86,88,90,92,94,96,98,100,102,-1,104,106,108,110,112,114,116,118,120,122,-1,124,126,128,130,132,134,136,-1,138,140,142,144,146,148,-1,150,152,-1,154,156,158,160,-1,162,164,166,168,170,-1,-1,-1,-1,-1,-1,-1,-1,-1,-1,-1,-1,-1,-1,-1,-1,-1,-1,-1,-1,-1,-1,-1,-1,-1,-1,-1,-1,-1,-1,-1,-1,-1,-1,-1,-1,-1,-1,-1,-1,-1,-1,-1,-1,-1,-1,-1,-1,-1,-1,-1,-1,-1,-1,-1,-1,-1,-1,-1,-1,-1,-1,-1,-1,-1,-1,-1,-1,-1,-1,-1,-1],"split_conditions":[6.621175E-1,6.52107E-1,2.7272727E-2,6.341465E-1,1.4052933E-1,8.2218254E-1,8.275862E-2,6.324857E-1,9.689189E-1,2.7272727E-2,3.0356503E-1,9.8790765E-1,8.3943033E-1,8.349742E-1,1.3137093E-1,9.689189E-1,2.0172414E-1,6.430696E-1,6.474741E-1,-1.944381E-2,1.3152683E-1,4.9310344E-1,2.137931E-1,8.012924E-1,-3.667635E-2,2.670337E-1,8.7090075E-1,8.2218254E-1,8.571358E-1,8.349742E-1,7.7778685E-1,3.2949224E-2,1.782499E-1,6.632709E-3,6.2072384E-1,4.345517E-1,3.3103448E-1,8.799064E-1,6.9655174E-1,1.303565E-1,1.389089E-1,2.7124596E-1,5.181818E-1,9.212121E-1,9.9783945E-1,4.9881153E-2,5.0759157E-3,-1.2421566E-2,1.5399478E-2,7.554066E-1,6.724138E-2,5.9866764E-2,1.3629816E-1,8.2218254E-1,1.7554916E-2,7.738564E-1,9.212121E-1,3.7433144E-1,4.1141517E-2,2.043681E-2,6.4413035E-1,1.07850194E-1,6.267555E-1,3.7657544E-1,8.7342453E-1,3.2068965E-1,7.2551316E-1,2.5344828E-1,3.5344827E-1,2.8519985E-1,-3.254048E-3,2.689655E-1,3.3636364E-1,1.5E-1,1.3980915E-1,1.4287001E-1,2.8168887E-1,2.664746E-1,-9.057024E-3,7.1515155E-1,5.270076E-1,9.9270797E-1,8.484849E-1,6.724138E-2,7.9888636E-1,6.730551E-2,1.8635217E-2,5E-1,-4.1169473E-3,6.724138E-2,1.3854879E-1,7.958708E-1,2.8628016E-1,3.728097E-2,2.3406554E-2,9.5682657E-1,9.090909E-1,9.5682657E-1,6.4683115E-1,-3.4628095E-4,1.3317215E-2,-5.271295E-3,-1.0109671E-4,4.208867E-3,8.928112E-3,1.3771112E-3,-5.5658263E-3,7.69529E-3,-2.91298E-3,9.0624753E-4,4.0596104E-3,-3.440106E-3,-1.68994E-5,-1.491551E-5,-2.912302E-3,1.5664827E-3,3.454953E-3,8.281497E-3,9.048525E-4,2.6406752E-2,4.0886677E-3,1.0071533E-2,5.443422E-3,-1.570564E-3,-6.8225674E-3,3.1054646E-4,3.6161166E-2,-3.0549804E-2,-4.909888E-4,-5.304961E-4,-2.1834332E-2,1.8048955E-2,-9.749678E-4,1.5131308E-2,1.690164E-3,2.1836536E-2,4.494329E-2,-1.5598252E-2,-5.8713993E-3,-2.327274E-2,-1.1555054E-2,-1.7363314E-3,-1.4746674E-2,1.8400505E-2,-0E0,3.2979306E-2,5.8682417E-3,1.0823164E-3,-9.532797E-3,1.104485E-2,3.2426022E-2,-9.875295E-3,-2.8526418E-2,9.680396E-3,3.262066E-2,-1.7483525E-2,-4.6765576E-3,2.7936983E-3,1.8216307E-4,1.3150608E-2,3.6787542E-3,-2.0200634E-2,1.4391424E-3,1.7481048E-3,-2.336533E-3,-3.9914367E-3,-2.3388658E-2,-7.6474407E-4,1.1490309E-3,8.919476E-3,-3.220224E-3],"split_indices":[1,1,2,1,5,1,3,1,6,2,5,6,1,1,7,6,3,1,1,0,5,3,3,1,0,0,1,1,1,1,1,5,5,0,5,5,3,5,3,5,5,5,2,2,5,0,0,0,0,1,3,5,5,1,5,1,2,1,5,0,5,5,5,5,5,3,5,3,3,5,0,3,2,3,5,5,5,5,0,2,5,5,2,3,1,0,5,0,0,3,5,1,5,0,5,6,2,6,5,0,0,0,0,0,0,0,0,0,0,0,0,0,0,0,0,0,0,0,0,0,0,0,0,0,0,0,0,0,0,0,0,0,0,0,0,0,0,0,0,0,0,0,0,0,0,0,0,0,0,0,0,0,0,0,0,0,0,0,0,0,0,0,0,0,0,0,0,0,0,0,0],"split_type":[0,0,0,0,0,0,0,0,0,0,0,0,0,0,0,0,0,0,0,0,0,0,0,0,0,0,0,0,0,0,0,0,0,0,0,0,0,0,0,0,0,0,0,0,0,0,0,0,0,0,0,0,0,0,0,0,0,0,0,0,0,0,0,0,0,0,0,0,0,0,0,0,0,0,0,0,0,0,0,0,0,0,0,0,0,0,0,0,0,0,0,0,0,0,0,0,0,0,0,0,0,0,0,0,0,0,0,0,0,0,0,0,0,0,0,0,0,0,0,0,0,0,0,0,0,0,0,0,0,0,0,0,0,0,0,0,0,0,0,0,0,0,0,0,0,0,0,0,0,0,0,0,0,0,0,0,0,0,0,0,0,0,0,0,0,0,0,0,0,0,0],"sum_hessian":[7.924E3,3.756E3,4.168E3,1.563E3,2.193E3,1.5E1,4.153E3,1.389E3,1.74E2,2.9E2,1.903E3,6E0,9E0,1.07E2,4.046E3,1.336E3,5.3E1,4.6E1,1.28E2,1.4E1,2.76E2,3.75E2,1.528E3,2E0,4E0,2E0,7E0,5.4E1,5.3E1,3.28E3,7.66E2,1.315E3,2.1E1,2E0,5.1E1,2.3E1,2.3E1,1.03E2,2.5E1,2.62E2,1.4E1,3.7E2,5E0,3.6E1,1.492E3,1E0,1E0,2E0,5E0,4E1,1.4E1,1.3E1,4E1,2.261E3,1.019E3,2.34E2,5.32E2,1.9E1,1.296E3,1E0,2E1,2.4E1,2.7E1,6E0,1.7E1,6E0,1.7E1,8.7E1,1.6E1,2.4E1,1E0,2.59E2,3E0,7E0,7E0,2.98E2,7.2E1,4E0,1E0,2.6E1,1E1,1.486E3,6E0,8E0,3.2E1,7E0,7E0,1E1,3E0,3E1,1E1,1.751E3,5.1E2,1E0,1.018E3,2.14E2,2E1,4.67E2,6.5E1,1.4E1,5E0,8E0,1.288E3,1.4E1,6E0,1E0,2.3E1,1E0,2.6E1,4E0,2E0,1.2E1,5E0,5E0,1E0,1E1,7E0,5E0,8.2E1,1E0,1.5E1,5E0,1.9E1,1.08E2,1.51E2,1E0,2E0,6E0,1E0,5E0,2E0,8E0,2.9E2,2.4E1,4.8E1,2E0,2E0,1.5E1,1.1E1,8E0,2E0,1.478E3,8E0,5E0,1E0,4E0,4E0,2.2E1,1E1,1E0,6E0,8E0,2E0,2.3E1,7E0,4E0,6E0,1.397E3,3.54E2,1.16E2,3.94E2,5E0,1.013E3,1.23E2,9.1E1,1.9E1,1E0,9.2E1,3.75E2,3.9E1,2.6E1],"tree_param":{"num_deleted":"0","num_feature":"12","num_nodes":"171","size_leaf_vector":"0"}},{"base_weights":[2.9558364E-2,-6.3885756E-2,1.1469855E-1,1.456239E-2,-1.2043243E-1,4.2286384E-1,1.0349109E-1,-1.2983855E-2,5.4533735E-2,-3.822855E-1,-1.04134806E-1,1.7760948E0,3.2976475E-1,1.4925924E-1,5.3565674E-2,-6.721796E-3,-1.4587183E-1,1.7488247E-1,4.1953664E-2,4.913653E-2,-5.128891E-1,-2.6580444E-2,-1.3832289E-1,3.9777306E-1,2.7822645E0,-8.7979704E-2,5.8483833E-1,1.3812481E0,1.3178977E-1,-1.0476234E0,6.472002E-2,-1.3974779E-2,1.8791361E-1,-2.5442043E-1,-9.438671E-2,-2.6979882E-1,1.9162846E-1,-3.169135E-1,5.0256528E-2,1.1703245E-1,1.7995125E-2,-6.841779E-1,-3.7783912E-1,-4.587917E-2,7.0722216E-1,4.524017E-3,-1.696958E-1,-2.4898032E-2,1.3656077E0,6.5086216E-1,-1.5391074E-1,1.50916E0,9.98184E-2,2.5716681E0,-1.1048906E-1,7.569156E-2,1.7267184E-1,4.0441146E-1,-4.887076E0,9.246482E-2,7.315239E-3,-2.5784872E-3,-9.388964E-2,2.5128877E-1,-2.9476816E-3,-9.938085E-2,-2.7759728E-1,-5.686613E-2,-2.56995E-1,-6.239525E-1,1.411286E-1,4.081629E-1,1.8145214E-1,2.6090258E-1,4.210857E-2,3.9866503E-2,-4.743549E-2,-4.4255915E-1,-1.1148356E0,-8.9192055E-3,-5.966141E-1,4.9700994E-2,-2.9709634E-1,8.428406E-1,-1.0184058E0,5.732061E-2,2.0608846E-3,-2.8099656E-1,-1.15538575E-1,1.0365139E-1,-2.5432003E-1,-5.839394E-1,1.0839821E0,-3.6814053E-2,-3.440744E-1,3.9646837E-1,1.6790655E0,4.2574692E-1,-1.8375783E-1,6.8936646E-1,7.7276897E0,1.3941807E0,-2.7134025E-1,1.4095125E-1,2.9461373E-2,2.2355884E-1,9.9520124E-2,-5.1920456E-1,1.6006483E0,-2.0461745E0,-8.24092E0,5.6516733E-2,2.1733378E-1,1.6647529E-2,-3.6155015E-1,3.488555E-2,-1.2510992E-2,-6.0182855E-2,-1.9754566E-1,2.8739673E-1,5.9234444E-2,-3.2906998E-2,4.100231E-2,-1.1647109E-1,-2.9731432E-2,-8.234737E-2,-2.8766856E-1,2.424042E-1,1.4360571E-1,4.8107073E-2,2.6987737E-1,-7.014951E-2,6.65451E-2,1.4400915E-2,6.851922E-2,-2.4804512E-1,1.46536585E-2,-3.799147E-1,-1.0801504E0,-9.113869E-1,4.5202506E-1,-1.2316625E0,-5.01981E-1,-6.460306E-1,6.6022746E-2,-1.7316428E-1,-8.9458257E-1,6.017006E-1,1.6464372E0,1.272205E-1,3.6268607E-2,9.256208E-3,-1.3797944E-2,6.321031E-1,-3.0579174E-1,-7.4494207E-1,-1.0395432E-1,-1.3459983E-3,1.9342482E-1,-6.62366E-1,-7.4722753E-3,-1.8435031E-1,-4.3604347E-1,-2.325635E-1,9.7495455E-1,2.6958258E0,1.1571083E0,-7.0483E-1,5.817904E-1,4.1492216E-2,-2.6570216E-1,2.7893987E0,1.9151697E-1,2.084643E1,1.7025307E0,-1.1432377E0,1.9119966E-1,2.0279571E-1,2.3352724E-2,5.374989E-1,1.3749446E-2,4.4926625E-2,2.5160816E-1,2.9003534E-1,7.332464E-2,1.7222579E0,-1.8903519E0,-2.1216808E-1,4.7445827E0,8.776948E-2,-7.554184E-2,3.333704E-1,1.1929827E-1,-5.9799846E-2,4.9697183E-2,-2.091057E-1,-5.1639646E-1],"categories":[],"categories_nodes":[],"categories_segments":[],"categories_sizes":[],"default_left":[true,true,true,true,true,true,true,true,true,true,true,true,true,true,true,true,true,true,true,true,true,true,true,true,false,true,true,true,true,true,true,true,true,true,true,true,true,false,true,false,true,true,true,true,true,true,true,true,false,true,true,true,true,true,true,true,true,true,true,true,true,true,true,true,true,false,false,true,true,false,false,false,true,true,true,true,true,true,false,true,true,true,true,true,false,true,true,true,true,true,false,false,false,true,true,true,true,true,true,true,true,false,true,true,true,true,true,true,true,false,false,true,true,true,true,false,false,false,false,false,false,false,false,false,false,false,false,false,false,false,false,false,false,false,false,false,false,false,false,false,false,false,false,false,false,false,false,false,false,false,false,false,false,false,false,false,false,false,false,false,false,false,false,false,false,false,false,false,false,false,false,false,false,false,false,false,false,false,false,false,false,false,false,false,false,false,false,false,false,false,false,false,false,false,false,false,false],"id":203,"left_children":[1,3,5,7,9,11,13,15,17,19,21,23,25,27,29,31,33,35,37,39,41,43,45,47,-1,49,51,53,55,57,59,61,63,65,67,69,71,-1,73,-1,75,77,79,81,83,85,87,89,-1,91,93,95,97,99,101,103,105,107,109,111,113,115,117,119,121,-1,-1,123,125,-1,-1,-1,127,129,131,133,135,137,-1,139,141,143,145,147,-1,149,151,153,155,157,-1,-1,-1,159,161,163,165,167,169,171,173,-1,175,177,179,181,183,185,187,-1,-1,189,191,193,195,-1,-1,-1,-1,-1,-1,-1,-1,-1,-1,-1,-1,-1,-1,-1,-1,-1,-1,-1,-1,-1,-1,-1,-1,-1,-1,-1,-1,-1,-1,-1,-1,-1,-1,-1,-1,-1,-1,-1,-1,-1,-1,-1,-1,-1,-1,-1,-1,-1,-1,-1,-1,-1,-1,-1,-1,-1,-1,-1,-1,-1,-1,-1,-1,-1,-1,-1,-1,-1,-1,-1,-1,-1,-1,-1,-1,-1,-1,-1,-1,-1,-1],"loss_changes":[6.3469635E1,1.6873615E1,1.4395008E1,1.7551852E0,9.412563E0,1.8210407E1,9.199162E0,7.824936E-1,9.7906244E-1,7.302349E0,5.514944E0,1.252948E1,1.4657892E1,4.5142994E1,2.3682108E1,1.2707957E0,2.2360307E-1,4.7285318E-1,1.7575005E0,6.1507978E-2,2.1964817E0,9.026957E0,6.475424E0,1.8031805E0,0E0,2.5756168E0,3.8183037E1,5.222006E1,4.744812E0,1.0850748E2,3.0377235E0,7.9027396E-1,3.9489055E-1,3.3334553E-2,1.6961771E-1,3.7584525E-1,9.763479E-2,0E0,9.811958E-1,0E0,3.1052087E-2,4.322321E0,4.536289E0,1.4927526E1,4.106205E0,3.296865E-2,7.1223717E0,1.0925063E-1,0E0,2.535828E0,1.0666102E0,5.293968E0,5.2361946E0,1.5662288E2,3.3372073E0,2.6340199E0,4.4487343E0,1.6129093E1,4.5047142E1,5.7660933E0,2.1393826E0,2.8312752E-1,3.708666E-1,1.5812373E-1,1.1307248E-2,0E0,0E0,3.611584E-2,1.539427E-2,0E0,0E0,0E0,1.1514342E-1,3.1877518E-2,1.5248951E0,1.0406023E-2,7.0973225E-2,9.740114E-1,0E0,9.018385E0,1.8925152E0,5.1197376E0,1.2619962E1,2.6088839E0,0E0,1.2806881E-2,2.8429102E-2,8.829212E0,5.7755585E0,2.4821892E-2,0E0,0E0,0E0,5.455599E-1,2.3365736E-1,1.663091E0,1.2349426E1,4.7807174E0,5.6676865E-1,1.2673979E1,3.3037125E2,0E0,5.0604057E0,2.630381E0,4.079245E0,3.5310936E0,2.4447832E0,2.6699955E1,3.6497177E1,0E0,0E0,4.126828E0,3.2489033E0,1.5353111E0,3.155961E-1,0E0,0E0,0E0,0E0,0E0,0E0,0E0,0E0,0E0,0E0,0E0,0E0,0E0,0E0,0E0,0E0,0E0,0E0,0E0,0E0,0E0,0E0,0E0,0E0,0E0,0E0,0E0,0E0,0E0,0E0,0E0,0E0,0E0,0E0,0E0,0E0,0E0,0E0,0E0,0E0,0E0,0E0,0E0,0E0,0E0,0E0,0E0,0E0,0E0,0E0,0E0,0E0,0E0,0E0,0E0,0E0,0E0,0E0,0E0,0E0,0E0,0E0,0E0,0E0,0E0,0E0,0E0,0E0,0E0,0E0,0E0,0E0,0E0,0E0,0E0,0E0,0E0,0E0,0E0,0E0,0E0,0E0],"parents":[2147483647,0,0,1,1,2,2,3,3,4,4,5,5,6,6,7,7,8,8,9,9,10,10,11,11,12,12,13,13,14,14,15,15,16,16,17,17,18,18,19,19,20,20,21,21,22,22,23,23,25,25,26,26,27,27,28,28,29,29,30,30,31,31,32,32,33,33,34,34,35,35,36,36,38,38,40,40,41,41,42,42,43,43,44,44,45,45,46,46,47,47,49,49,50,50,51,51,52,52,53,53,54,54,55,55,56,56,57,57,58,58,59,59,60,60,61,61,62,62,63,63,64,64,67,67,68,68,72,72,73,73,74,74,75,75,76,76,77,77,79,79,80,80,81,81,82,82,83,83,85,85,86,86,87,87,88,88,89,89,93,93,94,94,95,95,96,96,97,97,98,98,99,99,100,100,102,102,103,103,104,104,105,105,106,106,107,107,108,108,111,111,112,112,113,113,114,114],"right_children":[2,4,6,8,10,12,14,16,18,20,22,24,26,28,30,32,34,36,38,40,42,44,46,48,-1,50,52,54,56,58,60,62,64,66,68,70,72,-1,74,-1,76,78,80,82,84,86,88,90,-1,92,94,96,98,100,102,104,106,108,110,112,114,116,118,120,122,-1,-1,124,126,-1,-1,-1,128,130,132,134,136,138,-1,140,142,144,146,148,-1,150,152,154,156,158,-1,-1,-1,160,162,164,166,168,170,172,174,-1,176,178,180,182,184,186,188,-1,-1,190,192,194,196,-1,-1,-1,-1,-1,-1,-1,-1,-1,-1,-1,-1,-1,-1,-1,-1,-1,-1,-1,-1,-1,-1,-1,-1,-1,-1,-1,-1,-1,-1,-1,-1,-1,-1,-1,-1,-1,-1,-1,-1,-1,-1,-1,-1,-1,-1,-1,-1,-1,-1,-1,-1,-1,-1,-1,-1,-1,-1,-1,-1,-1,-1,-1,-1,-1,-1,-1,-1,-1,-1,-1,-1,-1,-1,-1,-1,-1,-1,-1,-1,-1,-1],"split_conditions":[6.621175E-1,6.572582E-1,1.8427517E-2,3.989272E-1,7.4893616E-2,7.554066E-1,2.777778E-1,3.8835415E-1,4.1206574E-1,5.5555556E-2,3.5106385E-1,7.339886E-1,8.2552147E-1,5E-1,5E-1,3.8399246E-1,3.4520882E-1,4.1296717E-4,4.1965395E-1,5E-1,2.088452E-1,6.1111116E-1,5.5555556E-2,7.0297873E-1,5.5645287E-2,7.6706135E-1,8.349742E-1,8.349742E-1,3.9234042E-1,8.76709E-1,8.386767E-1,5.1907774E-2,3.8608843E-1,6.736668E-2,3.9342475E-1,2.777778E-1,5E-1,-6.3382694E-3,4.264353E-1,2.340649E-3,6.965602E-1,2.777778E-1,4.95086E-1,2.777778E-1,8.888889E-1,1.8427517E-2,1.6666667E-1,7.116951E-1,2.7312154E-2,7.635859E-1,2.777778E-1,2.2170213E-1,3.9234042E-1,8.2218254E-1,5.5555556E-2,1.6666667E-1,6.4742017E-1,3.888889E-1,3.888889E-1,8.2552147E-1,5.8854413E-1,8.23977E-2,3.7000573E-1,8.2186735E-1,9.9787235E-1,-1.987617E-3,-5.5519454E-3,6.0565114E-1,5.0041294E-1,-1.247905E-2,2.822572E-3,8.1632575E-3,4.044514E-1,6.879607E-2,4.4565028E-1,5.257985E-1,1.48936175E-2,5E-1,-2.2296712E-2,1.6666667E-1,5.0041294E-1,1.8427517E-2,8.2186735E-1,9.533169E-1,-2.0368116E-2,3.9234042E-1,9.9787235E-1,4.1296717E-4,4.1296717E-4,6.822485E-1,-5.0864005E-3,-1.1678787E-2,2.1679642E-2,5.5555556E-2,7.958708E-1,2.777778E-1,3.9234042E-1,8.7090075E-1,8.873043E-1,7.703592E-1,1.6666667E-1,2.7883612E-2,1.6666667E-1,7.090609E-2,1.48936175E-2,7.554772E-1,5.0082594E-1,7.876776E-1,8.0838656E-1,-4.092349E-2,-1.6481839E-1,7.943434E-1,6.0565114E-1,8.670317E-1,9.345995E-1,6.97711E-4,-2.5021983E-4,-1.203657E-3,-3.950913E-3,5.7479343E-3,1.1846889E-3,-6.5813994E-4,8.200462E-4,-2.3294217E-3,-5.946286E-4,-1.6469473E-3,-5.753371E-3,4.848084E-3,2.872114E-3,9.6214144E-4,5.3975475E-3,-1.4029902E-3,1.330902E-3,2.880183E-4,1.3703844E-3,-4.960902E-3,2.9307316E-4,-7.598294E-3,-2.1603007E-2,-1.8227737E-2,9.040501E-3,-2.463325E-2,-1.003962E-2,-1.2920612E-2,1.3204549E-3,-3.4632855E-3,-1.7891651E-2,1.2034012E-2,3.2928742E-2,2.5444098E-3,7.253721E-4,1.8512417E-4,-2.7595888E-4,1.2642061E-2,-6.1158347E-3,-1.4898841E-2,-2.0790864E-3,-2.6919965E-5,3.8684963E-3,-1.32473195E-2,-1.494455E-4,-3.6870062E-3,-8.720869E-3,-4.65127E-3,1.949909E-2,5.3916514E-2,2.3142166E-2,-1.4096599E-2,1.1635807E-2,8.298443E-4,-5.3140433E-3,5.5787973E-2,3.8303393E-3,4.169286E-1,3.4050614E-2,-2.2864753E-2,3.823993E-3,4.055914E-3,4.6705446E-4,1.0749978E-2,2.749889E-4,8.9853245E-4,5.032163E-3,5.800707E-3,1.4664928E-3,3.4445155E-2,-3.7807036E-2,-4.2433618E-3,9.489165E-2,1.7553895E-3,-1.5108368E-3,6.6674077E-3,2.3859653E-3,-1.1959969E-3,9.939437E-4,-4.182114E-3,-1.0327929E-2],"split_indices":[1,1,11,1,10,1,4,1,1,4,10,1,1,0,0,1,11,8,1,0,11,4,4,10,0,1,1,1,10,1,1,9,1,7,1,4,0,0,1,0,11,4,11,4,4,11,4,1,0,1,4,10,10,1,4,4,11,4,4,1,7,1,1,11,10,0,0,11,8,0,0,0,1,11,1,11,10,0,0,4,8,11,11,11,0,10,10,8,8,1,0,0,0,4,1,4,10,1,1,1,4,0,4,7,10,1,8,1,1,0,0,1,11,1,1,0,0,0,0,0,0,0,0,0,0,0,0,0,0,0,0,0,0,0,0,0,0,0,0,0,0,0,0,0,0,0,0,0,0,0,0,0,0,0,0,0,0,0,0,0,0,0,0,0,0,0,0,0,0,0,0,0,0,0,0,0,0,0,0,0,0,0,0,0,0,0,0,0,0,0,0,0,0,0,0,0,0],"split_type":[0,0,0,0,0,0,0,0,0,0,0,0,0,0,0,0,0,0,0,0,0,0,0,0,0,0,0,0,0,0,0,0,0,0,0,0,0,0,0,0,0,0,0,0,0,0,0,0,0,0,0,0,0,0,0,0,0,0,0,0,0,0,0,0,0,0,0,0,0,0,0,0,0,0,0,0,0,0,0,0,0,0,0,0,0,0,0,0,0,0,0,0,0,0,0,0,0,0,0,0,0,0,0,0,0,0,0,0,0,0,0,0,0,0,0,0,0,0,0,0,0,0,0,0,0,0,0,0,0,0,0,0,0,0,0,0,0,0,0,0,0,0,0,0,0,0,0,0,0,0,0,0,0,0,0,0,0,0,0,0,0,0,0,0,0,0,0,0,0,0,0,0,0,0,0,0,0,0,0,0,0,0,0,0,0,0,0,0,0,0,0,0,0,0,0,0,0],"sum_hessian":[7.977E3,3.803E3,4.174E3,1.593E3,2.21E3,1.46E2,4.028E3,9.43E2,6.5E2,1.29E2,2.081E3,9E0,1.37E2,2.101E3,1.927E3,9.01E2,4.2E1,6.1E1,5.89E2,3E1,9.9E1,6.37E2,1.444E3,4E0,5E0,5.2E1,8.5E1,2.9E1,2.072E3,1.9E1,1.908E3,8.69E2,3.2E1,1.3E1,2.9E1,2E0,5.9E1,1.3E1,5.76E2,9E0,2.1E1,4.3E1,5.6E1,6.21E2,1.6E1,2.6E2,1.184E3,3E0,1E0,4E0,4.8E1,2.9E1,5.6E1,1.6E1,1.3E1,8.74E2,1.198E3,1.4E1,5E0,1.286E3,6.22E2,7.61E2,1.08E2,2.4E1,8E0,2E0,1.1E1,2.4E1,5E0,1E0,1E0,2E0,5.7E1,2.1E1,5.55E2,1.6E1,5E0,2.8E1,1.5E1,2.1E1,3.5E1,4.5E2,1.71E2,1.5E1,1E0,1.1E1,2.49E2,3.87E2,7.97E2,2E0,1E0,1E0,3E0,3E1,1.8E1,4E0,2.5E1,2.6E1,3E1,1.2E1,4E0,1E0,1.2E1,3.62E2,5.12E2,7.06E2,4.92E2,8E0,6E0,3E0,2E0,9.99E2,2.87E2,6.07E2,1.5E1,1.59E2,6.02E2,8.2E1,2.6E1,2E1,4E0,5E0,3E0,7E0,1.7E1,1E0,4E0,2.1E1,3.6E1,1E0,2E1,9.9E1,4.56E2,9E0,7E0,1E0,4E0,2.6E1,2E0,7E0,1.4E1,4E0,3.1E1,1E1,4.4E2,1.42E2,2.9E1,1.2E1,3E0,2E0,9E0,1.72E2,7.7E1,1E1,3.77E2,1.4E1,7.83E2,1E0,1E0,1E0,2.9E1,7E0,1.1E1,2E0,2E0,8E0,1.7E1,3E0,2.3E1,8E0,2.2E1,2E0,1E1,1E0,3E0,4E0,8E0,2.37E2,1.25E2,1.5E1,4.97E2,9.6E1,6.1E2,5.9E1,4.33E2,3E0,5E0,4E0,2E0,8.08E2,1.91E2,1.31E2,1.56E2,1.83E2,4.24E2,8E0,7E0],"tree_param":{"num_deleted":"0","num_feature":"12","num_nodes":"197","size_leaf_vector":"0"}},{"base_weights":[2.7604671E-2,-9.328384E-1,3.0813983E-2,9.2683125E-1,-1.3838519E0,1.615286E-2,6.752105E-2,3.8941908E-1,2.4308186E0,1.9653702E-2,-8.846518E-2,1.8772532E-1,4.761671E-2,1.9016799E-2,1.2072852E0,2.2275742E-2,-1.899038E-1,-6.548329E-1,-5.4250643E-2,3.941877E-2,6.360375E-1,-5.661129E-1,5.3499665E-2,-1.0793705E-1,2.4711743E-1,2.127046E-2,8.725289E-1,-3.449958E-1,1.444566E-2,-1.1935116E-1,-1.3837695E0,-6.440981E-1,-3.159653E-2,9.2113875E-2,-6.394679E-1,5.713475E-1,2.0494735E0,-6.2687504E-1,3.5459545E-1,2.1442268E0,5.202424E-2,-1.3927306E-1,-3.8911447E-2,-1.4798603E-2,3.144579E-2,1.3239698E0,5.590037E-1,-5.3079512E-2,-4.768064E-1,6.619757E-1,-1.5695935E-2,3.397249E-2,-1.5289715E-1,-9.260246E-1,-2.1713138E0,-1.8217967E-1,-8.3997357E-1,3.3271995E-1,-6.853458E-2,6.455257E-2,6.567612E-1,-1.0419543E0,-2.5572884E-1,7.200211E-1,-3.0125618E-1,2.527249E0,6.901787E-1,-8.57999E-1,-3.9658836E-1,-6.792955E-1,5.3684186E-2,9.628492E-2,-5.17397E-2,1.95413E-1,2.2133712E-2,2.1246152E0,1.8153223E-1,1.783306E-1,8.53678E-1,-2.7244952E-1,9.1984427E-1,-4.664432E-2,-6.6288567E-1,-5.822763E-2,3.0482444E-1,-1.8290117E-1,-6.45796E-3,-2.7195606E-1,-3.614727E-2,4.246609E-2,8.7160224E-1,-2.6576847E-1,-2.4876142E-2,8.5106894E-2,-1.2345511E0,3.6734423E-1,1.2234846E0,-1.2195466E0,-6.492977E-1,5.078476E-1,-8.628236E-1,6.414971E-1,2.7422576E0,-8.281028E-1,2.1820169E-2,-9.485494E-1,-1.3475114E-1,-7.172621E-1,-1.08568534E-1,-4.4291982E-1,-1.0896243E0,1.13772236E-1,3.5948608E-2],"categories":[],"categories_nodes":[],"categories_segments":[],"categories_sizes":[],"default_left":[true,true,true,true,false,true,true,true,false,true,true,true,true,true,false,true,true,true,true,true,true,true,true,true,false,true,true,true,true,true,true,true,true,true,true,true,true,true,false,false,true,false,false,true,true,true,true,true,true,false,true,false,true,false,false,true,false,true,true,true,true,true,true,true,true,false,false,true,true,true,true,false,false,false,false,false,false,false,false,false,false,false,false,false,false,false,false,false,false,false,false,false,false,false,false,false,false,false,false,false,false,false,false,false,false,false,false,false,false,false,false,false,false],"id":204,"left_children":[1,3,5,7,-1,9,11,13,-1,15,17,19,21,23,-1,25,27,29,31,33,35,37,39,41,-1,43,45,47,49,51,53,55,57,59,61,63,65,67,-1,-1,69,-1,-1,71,73,75,77,79,81,-1,83,-1,85,-1,-1,87,-1,89,91,93,95,97,99,101,103,-1,-1,105,107,109,111,-1,-1,-1,-1,-1,-1,-1,-1,-1,-1,-1,-1,-1,-1,-1,-1,-1,-1,-1,-1,-1,-1,-1,-1,-1,-1,-1,-1,-1,-1,-1,-1,-1,-1,-1,-1,-1,-1,-1,-1,-1,-1],"loss_changes":[2.4373053E1,2.2521063E1,4.2404537E0,3.9549427E0,0E0,2.0628126E0,5.375388E0,1.2876315E0,0E0,2.994355E0,3.5112987E0,2.1213732E1,6.9723444E0,1.07411526E-1,0E0,4.583294E0,2.1403744E0,3.956973E0,2.286376E0,8.609526E0,6.826004E0,1.1036625E0,5.83047E0,6.984435E-4,0E0,1.9743197E0,6.2276506E-1,1.4589844E0,5.8520204E-1,3.6004044E-2,8.475027E-1,5.074334E-1,2.242209E0,3.4511824E0,2.5697832E0,9.981291E0,1.5373306E0,7.91204E-1,0E0,0E0,2.3235016E0,0E0,0E0,4.85689E0,6.4012046E0,1.9728861E0,4.2061806E-1,2.7066736E0,2.0874104E0,0E0,3.88651E-1,0E0,2.0339102E-2,0E0,0E0,2.2919424E-2,0E0,2.372968E0,1.2967706E0,5.715114E0,1.5223222E0,2.9039955E-1,4.4778395E0,9.739681E0,1.9466158E0,0E0,0E0,4.876852E-1,8.2429516E-1,2.3751187E-1,2.0291386E0,0E0,0E0,0E0,0E0,0E0,0E0,0E0,0E0,0E0,0E0,0E0,0E0,0E0,0E0,0E0,0E0,0E0,0E0,0E0,0E0,0E0,0E0,0E0,0E0,0E0,0E0,0E0,0E0,0E0,0E0,0E0,0E0,0E0,0E0,0E0,0E0,0E0,0E0,0E0,0E0,0E0,0E0],"parents":[2147483647,0,0,1,1,2,2,3,3,5,5,6,6,7,7,9,9,10,10,11,11,12,12,13,13,15,15,16,16,17,17,18,18,19,19,20,20,21,21,22,22,23,23,25,25,26,26,27,27,28,28,29,29,30,30,31,31,32,32,33,33,34,34,35,35,36,36,37,37,40,40,43,43,44,44,45,45,46,46,47,47,48,48,50,50,52,52,55,55,57,57,58,58,59,59,60,60,61,61,62,62,63,63,64,64,67,67,68,68,69,69,70,70],"right_children":[2,4,6,8,-1,10,12,14,-1,16,18,20,22,24,-1,26,28,30,32,34,36,38,40,42,-1,44,46,48,50,52,54,56,58,60,62,64,66,68,-1,-1,70,-1,-1,72,74,76,78,80,82,-1,84,-1,86,-1,-1,88,-1,90,92,94,96,98,100,102,104,-1,-1,106,108,110,112,-1,-1,-1,-1,-1,-1,-1,-1,-1,-1,-1,-1,-1,-1,-1,-1,-1,-1,-1,-1,-1,-1,-1,-1,-1,-1,-1,-1,-1,-1,-1,-1,-1,-1,-1,-1,-1,-1,-1,-1,-1,-1],"split_conditions":[2.7272727E-2,9.8790765E-1,8.30303E-1,5.8854413E-1,-2.7677037E-2,9.7065175E-1,1.810407E-1,6.3859776E-2,4.861637E-2,9.137931E-1,6.586207E-1,1.3854879E-1,1.8986318E-1,5.5983233E-1,2.4145702E-2,9.017241E-1,9.224138E-1,9.739827E-1,9.721822E-1,1.3404754E-1,1.8023047E-1,1.3137093E-1,1.9076341E-1,1.3484347E-1,4.9423487E-3,2.9137933E-1,7.8186893E-1,7.300144E-1,9.275862E-1,5.719247E-1,9.7875404E-1,9.709219E-1,9.7560316E-1,1.3161685E-1,1.3656825E-1,1.7383868E-1,1.806806E-1,1.4310345E-1,7.0919087E-3,4.2884536E-2,1.9193374E-1,-2.7854613E-3,-7.782289E-4,1.3197696E-1,4.2424244E-1,6.242424E-1,8.7774575E-1,7.242528E-1,9.8790765E-1,1.3239513E-2,1.3137093E-1,6.794498E-4,5.4137933E-1,-1.8520491E-2,-4.3426275E-2,9.5682657E-1,-1.679947E-2,7.87931E-1,9.8001444E-1,1.3134678E-1,6.893617E-1,1.3512784E-1,1.3728845E-1,1.7302845E-1,1.7491898E-1,5.054498E-2,1.3803573E-2,1.8590206E-1,6.893617E-1,1.5E-1,4.154663E-1,1.9256984E-3,-1.034794E-3,3.90826E-3,4.4267424E-4,4.2492304E-2,3.6306446E-3,3.566612E-3,1.7073559E-2,-5.4489905E-3,1.8396884E-2,-9.328864E-4,-1.3257713E-2,-1.1645525E-3,6.096489E-3,-3.6580234E-3,-1.2915919E-4,-5.439121E-3,-7.229454E-4,8.493218E-4,1.7432045E-2,-5.3153695E-3,-4.975228E-4,1.7021379E-3,-2.4691021E-2,7.3468843E-3,2.4469692E-2,-2.439093E-2,-1.2985954E-2,1.0156952E-2,-1.7256472E-2,1.2829941E-2,5.484515E-2,-1.6562056E-2,4.3640338E-4,-1.8970987E-2,-2.6950228E-3,-1.4345242E-2,-2.1713707E-3,-8.858397E-3,-2.1792484E-2,2.2754446E-3,7.189721E-4],"split_indices":[2,6,2,7,0,5,5,9,0,3,3,5,5,6,0,3,3,5,5,5,5,7,5,6,0,3,5,5,3,6,5,5,5,5,5,5,5,3,0,0,5,0,0,5,2,2,5,5,6,0,7,0,3,0,0,6,0,3,5,5,10,5,5,5,5,0,0,5,10,3,5,0,0,0,0,0,0,0,0,0,0,0,0,0,0,0,0,0,0,0,0,0,0,0,0,0,0,0,0,0,0,0,0,0,0,0,0,0,0,0,0,0,0],"split_type":[0,0,0,0,0,0,0,0,0,0,0,0,0,0,0,0,0,0,0,0,0,0,0,0,0,0,0,0,0,0,0,0,0,0,0,0,0,0,0,0,0,0,0,0,0,0,0,0,0,0,0,0,0,0,0,0,0,0,0,0,0,0,0,0,0,0,0,0,0,0,0,0,0,0,0,0,0,0,0,0,0,0,0,0,0,0,0,0,0,0,0,0,0,0,0,0,0,0,0,0,0,0,0,0,0,0,0,0,0,0,0,0,0],"sum_hessian":[7.908E3,2.6E1,7.882E3,5E0,2.1E1,5.633E3,2.249E3,4E0,1E0,5.451E3,1.82E2,3.19E2,1.93E3,3E0,1E0,5.384E3,6.7E1,1E1,1.72E2,2.4E2,7.9E1,1.8E1,1.912E3,2E0,1E0,5.378E3,6E0,3.8E1,2.9E1,6E0,4E0,6E0,1.66E2,2.23E2,1.7E1,7.6E1,3E0,1.7E1,1E0,1E0,1.911E3,1E0,1E0,1.183E3,4.195E3,2E0,4E0,1.2E1,2.6E1,1E0,2.8E1,1E0,5E0,3E0,1E0,2E0,4E0,1.5E1,1.51E2,2.13E2,1E1,8E0,9E0,6.5E1,1.1E1,2E0,1E0,8E0,9E0,4E0,1.907E3,2.95E2,8.88E2,2.25E2,3.97E3,1E0,1E0,2E0,2E0,1E1,2E0,8E0,1.8E1,2.5E1,3E0,4E0,1E0,1E0,1E0,1E1,5E0,2.7E1,1.24E2,2.1E2,3E0,7E0,3E0,5E0,3E0,4E0,5E0,6.3E1,2E0,4E0,7E0,7E0,1E0,4E0,5E0,3E0,1E0,4.34E2,1.473E3],"tree_param":{"num_deleted":"0","num_feature":"12","num_nodes":"113","size_leaf_vector":"0"}},{"base_weights":[3.3496734E-2,-6.0329724E-2,1.1907614E-1,-5.1782405E-1,-4.795214E-2,4.4178236E-1,1.0676602E-1,1.6227885E-1,-7.5060934E-1,1.2517133E-2,-8.958654E-2,-7.1448636E-1,5.5307364E-1,1.2377995E-1,2.9069657E-2,5.5325246E-1,5.6363527E-2,1.8558906E-1,-9.350198E-1,8.113173E-3,2.873503E-1,-2.1926011E-1,-6.176576E-2,4.9738092E0,-1.8658969E0,1.6199394E-1,8.740287E-1,-3.0606723E-1,1.274325E-1,-1.564032E-2,6.0765184E-2,3.1170338E-1,1.1891775E0,-6.940165E-2,8.0288514E-2,4.2472895E-2,5.6345874E-1,-1.0644132E0,-4.849747E-1,-1.4292019E-2,4.4448543E-2,4.1437837E-1,2.2357672E-1,4.104855E-2,-2.9887822E-1,1.575628E-1,-9.431087E-2,6.298721E0,2.3943615E0,-6.9620657E0,-5.23604E-1,9.838048E-1,-1.0506805E-1,1.7094197E0,6.01564E-1,1.2376473E-1,-7.6155126E-1,2.1975991E-1,1.05994426E-1,2.4038944E-1,-2.497698E-2,1.360636E-1,2.9181072E-3,-3.8327858E-2,4.2482167E-1,8.04103E-2,-1.5120704E-1,4.16368E-1,5.0338328E-2,-1.0448634E-1,1.6189684E-1,3.3726552E-1,8.076739E-1,-9.720244E-1,-1.4561777E0,4.0302357E-1,-1.1421618E0,-7.651075E-3,-1.5238056E-1,7.188908E-2,-4.203069E-2,2.47185E-1,4.5894474E-1,5.8447804E-2,2.934485E-1,1.5258856E-2,2.6002634E-1,7.69843E-1,-3.2230103E-1,-5.5800837E-2,3.650952E-1,-1.0206873E0,-9.0469666E-2,-1.7601184E0,-1.0412258E1,-1.1091799E0,6.3706934E-1,5.390719E-1,3.3783054E0,7.847053E-1,-1.7150229E-1,2.5182898E0,8.379463E-1,-6.9836205E-1,9.155127E-1,-6.0648844E-2,1.9848725E-1,-8.108183E-1,-1.0472925E-1,2.585088E-1,1.6264857E-1,1.3182417E-1,3.870901E-2,1.0163564E-1,6.954512E-1,4.029489E-2,-5.8395367E-2,4.9066354E-2,6.759193E0,-1.30610075E-2,1.7279215E-1,6.838309E-2,-1.6008266E-3,-5.660859E-2,-1.3131934E-1,1.8053903E-1,5.0130323E-2,-1.2470479E0,-8.199205E-1,-5.478292E-1,8.873131E-1,-1.399509E-2,1.8579875E-1,-1.09263524E-1,-2.947761E-1,2.34006E-1,6.487936E-2,7.722227E-1,-5.017592E-2,4.8064888E-1,-3.7397407E-2,-3.538093E-2,3.5944974E-1,7.7887117E-3,3.194609E-1,-5.7131007E-2,2.1550165E-2,-4.2854447E-2,2.0985365E0,4.7679248E-1,1.7387364E0,-2.6823497E-1,-7.572695E-1,-1.8900894E-1,3.6509928E-1,4.28274E-1,-9.738828E-1,-2.598854E-2,-1.2028892E0,-1.0875641E-1,5.7609968E-2,-1.4165555E0,3.869113E-1,2.5516427E-1,7.5780755E-1,1.7194203E0,4.1816545E0,-6.6795385E-1,1.5088053E0,1.5924796E-1,-2.826705E-1,1.1000347E0,3.1299088E0,1.0786973E0,4.7386548E-1,-9.106769E-1,2.4454822E-1,1.4896435E0,8.728329E-2,-2.1825664E-1,4.1863006E-3,3.4119195E-1,1.4887393E-1,1.710546E-1,3.2678586E-1,-2.256157E0,1.7568581E-1,7.795251E-2,2.712725E-1,-1.2893331E0,4.485664E-2,-3.5092103E-1,1.8124908E-1,-1.5063655E-3,1.3173346E-1,-5.466507E-1,-4.9431402E-2,3.4441238E-3,2.047796E-1,1.3136816E-1,1.1685997E1,-2.1427728E-1,-3.8687715E-3,3.892709E-1,1.10956565E-1],"categories":[],"categories_nodes":[],"categories_segments":[],"categories_sizes":[],"default_left":[true,true,true,true,true,true,true,true,true,true,true,true,true,true,true,true,true,true,true,true,true,true,true,true,true,true,true,true,true,true,true,true,false,true,true,true,true,true,true,true,true,true,true,true,true,true,true,false,false,true,true,true,true,true,true,true,true,true,true,true,true,true,true,false,false,false,false,false,true,true,true,false,false,true,false,true,false,true,true,true,true,true,false,true,true,true,true,true,true,true,true,true,true,false,false,true,false,true,true,true,true,true,true,true,true,true,true,false,false,true,true,true,true,true,false,true,true,true,true,true,true,false,false,false,false,false,false,false,false,false,false,false,false,false,false,false,false,false,false,false,false,false,false,false,false,false,false,false,false,false,false,false,false,false,false,false,false,false,false,false,false,false,false,false,false,false,false,false,false,false,false,false,false,false,false,false,false,false,false,false,false,false,false,false,false,false,false,false,false,false,false,false,false,false,false,false,false,false,false,false,false,false,false,false,false],"id":205,"left_children":[1,3,5,7,9,11,13,15,17,19,21,23,25,27,29,31,33,35,37,39,41,43,45,47,49,51,53,55,57,59,61,63,-1,65,67,69,71,73,75,77,79,81,83,85,87,89,91,-1,-1,93,95,97,99,101,103,105,107,109,111,113,115,117,119,-1,-1,-1,-1,-1,121,123,125,-1,-1,127,-1,129,-1,131,133,135,137,139,-1,141,143,145,147,149,151,153,155,157,159,-1,-1,161,-1,163,165,167,169,171,173,175,177,179,181,-1,-1,183,185,187,189,191,-1,193,195,197,199,201,203,-1,-1,-1,-1,-1,-1,-1,-1,-1,-1,-1,-1,-1,-1,-1,-1,-1,-1,-1,-1,-1,-1,-1,-1,-1,-1,-1,-1,-1,-1,-1,-1,-1,-1,-1,-1,-1,-1,-1,-1,-1,-1,-1,-1,-1,-1,-1,-1,-1,-1,-1,-1,-1,-1,-1,-1,-1,-1,-1,-1,-1,-1,-1,-1,-1,-1,-1,-1,-1,-1,-1,-1,-1,-1,-1,-1,-1,-1,-1,-1,-1,-1,-1,-1],"loss_changes":[6.2877773E1,2.113562E1,1.6245369E1,1.5616962E1,9.15883E0,1.9474777E1,5.21204E0,1.0299671E0,1.2729198E1,1.7903671E0,7.7634907E0,9.0378914E1,1.7175968E1,5.0916023E0,1.0061616E0,6.742424E-1,6.3195445E-2,6.503615E-1,3.3773804E0,1.1895009E0,1.4903069E-1,7.8902893E0,1.2669374E1,2.8215103E0,7.6204796E1,1.3727608E1,1.6771114E1,5.3919187E0,6.3398895E0,7.025228E-1,1.8069919E0,1.8252626E-1,0E0,4.591752E-2,1.6082606E-1,1.7026655E-1,7.6970935E-2,1.2065735E0,8.5287895E0,8.2571995E-1,1.3240061E0,6.740451E-3,1.7771417E-1,4.9924928E-1,7.369152E0,1.016606E1,5.4522724E0,0E0,0E0,3.5595406E1,6.5859823E0,1.5665638E1,2.8340802E0,1.2171864E1,2.3614677E1,2.0349354E-1,3.9009E-1,1.3173618E0,4.5238457E0,6.175311E-1,6.2125397E-1,1.03699356E2,6.4182884E-1,0E0,0E0,0E0,0E0,0E0,1.6297307E-2,4.0764734E-4,4.804313E-3,0E0,0E0,1.2749519E0,0E0,3.0834298E0,0E0,1.0567139E0,2.3727024E-1,4.717481E-1,8.93559E-1,1.6735192E-1,0E0,1.5949479E-1,7.871801E-2,3.6489066E-2,5.2566495E0,1.490237E0,6.6278343E0,6.3748026E0,9.972539E0,1.1198993E0,4.17117E0,0E0,0E0,3.1099792E0,0E0,7.490876E-1,6.2789345E-1,3.8544514E0,1.646865E0,6.887665E0,6.2550306E-1,2.3526587E0,2.1966267E1,4.7639888E-2,4.923266E-2,0E0,0E0,2.1198807E0,7.8389826E0,1.4128647E1,5.9070587E0,3.190416E-1,0E0,3.70134E-1,8.067662E-1,1.2636731E0,7.551667E1,3.948986E-1,2.5064713E-1,0E0,0E0,0E0,0E0,0E0,0E0,0E0,0E0,0E0,0E0,0E0,0E0,0E0,0E0,0E0,0E0,0E0,0E0,0E0,0E0,0E0,0E0,0E0,0E0,0E0,0E0,0E0,0E0,0E0,0E0,0E0,0E0,0E0,0E0,0E0,0E0,0E0,0E0,0E0,0E0,0E0,0E0,0E0,0E0,0E0,0E0,0E0,0E0,0E0,0E0,0E0,0E0,0E0,0E0,0E0,0E0,0E0,0E0,0E0,0E0,0E0,0E0,0E0,0E0,0E0,0E0,0E0,0E0,0E0,0E0,0E0,0E0,0E0,0E0,0E0,0E0,0E0,0E0,0E0,0E0,0E0,0E0,0E0,0E0],"parents":[2147483647,0,0,1,1,2,2,3,3,4,4,5,5,6,6,7,7,8,8,9,9,10,10,11,11,12,12,13,13,14,14,15,15,16,16,17,17,18,18,19,19,20,20,21,21,22,22,23,23,24,24,25,25,26,26,27,27,28,28,29,29,30,30,31,31,33,33,34,34,35,35,36,36,37,37,38,38,39,39,40,40,41,41,42,42,43,43,44,44,45,45,46,46,49,49,50,50,51,51,52,52,53,53,54,54,55,55,56,56,57,57,58,58,59,59,60,60,61,61,62,62,68,68,69,69,70,70,73,73,75,75,77,77,78,78,79,79,80,80,81,81,83,83,84,84,85,85,86,86,87,87,88,88,89,89,90,90,91,91,92,92,95,95,97,97,98,98,99,99,100,100,101,101,102,102,103,103,104,104,105,105,106,106,109,109,110,110,111,111,112,112,113,113,115,115,116,116,117,117,118,118,119,119,120,120],"right_children":[2,4,6,8,10,12,14,16,18,20,22,24,26,28,30,32,34,36,38,40,42,44,46,48,50,52,54,56,58,60,62,64,-1,66,68,70,72,74,76,78,80,82,84,86,88,90,92,-1,-1,94,96,98,100,102,104,106,108,110,112,114,116,118,120,-1,-1,-1,-1,-1,122,124,126,-1,-1,128,-1,130,-1,132,134,136,138,140,-1,142,144,146,148,150,152,154,156,158,160,-1,-1,162,-1,164,166,168,170,172,174,176,178,180,182,-1,-1,184,186,188,190,192,-1,194,196,198,200,202,204,-1,-1,-1,-1,-1,-1,-1,-1,-1,-1,-1,-1,-1,-1,-1,-1,-1,-1,-1,-1,-1,-1,-1,-1,-1,-1,-1,-1,-1,-1,-1,-1,-1,-1,-1,-1,-1,-1,-1,-1,-1,-1,-1,-1,-1,-1,-1,-1,-1,-1,-1,-1,-1,-1,-1,-1,-1,-1,-1,-1,-1,-1,-1,-1,-1,-1,-1,-1,-1,-1,-1,-1,-1,-1,-1,-1,-1,-1,-1,-1,-1,-1,-1,-1],"split_conditions":[6.8848956E-1,2.9618293E-2,4.7083184E-2,5.5555556E-2,6.4979887E-1,2.2506302E-3,1.3137093E-1,2.2506302E-3,6.572582E-1,6.474741E-1,2.1696074E-1,7.876776E-1,8.2218254E-1,5.5555556E-2,3.9234042E-1,7.090609E-2,3.8604596E-1,3.888889E-1,2.088452E-1,3.989272E-1,2.8519985E-1,5.5555556E-2,3.0563557E-1,7.753007E-1,1.6666667E-1,7.703592E-1,8.349742E-1,7.807063E-1,1.6666667E-1,1.48936175E-2,6.46561E-1,3.4543264E-1,2.378355E-2,3.2323816E-1,5.348941E-1,1.3484347E-1,9.689189E-1,1.0803025E-2,2.2326251E-2,3.8835415E-1,3.888889E-1,2.064278E-1,2.777778E-1,9.9787235E-1,3.195895E-2,2.6062298E-1,3.1022686E-1,1.2597442E-1,4.788723E-2,8.39857E-1,8.7090075E-1,7.635859E-1,9.8790765E-1,2.923833E-1,8.571358E-1,2.4666905E-1,8.0838656E-1,5.7751167E-1,8.4422266E-1,6.818182E-1,1.6666667E-1,6.3890886E-1,9.711919E-1,-7.665571E-4,8.4964335E-3,1.608206E-3,-3.0241408E-3,8.32736E-3,1.0936171E-1,1.3151047E-1,5.3790987E-1,6.7453105E-3,1.6153477E-2,2.2506302E-3,-2.9123554E-2,1.6666667E-1,-2.2843236E-2,3.8399246E-1,3.9342475E-1,4.044514E-1,6.1667267E-2,1.4602089E-1,9.178895E-3,6.4742017E-1,3.0113432E-1,1.48936175E-2,3.7100738E-1,3.042852E-2,1.9661506E-1,2.777778E-1,9.533169E-1,5.5555556E-2,9.533169E-1,-3.5202365E-2,-2.0824516E-1,4.4444448E-1,1.2741387E-2,2.561702E-1,7.6706135E-1,7.847458E-1,1.3267812E-1,1.3267812E-1,2.777778E-1,3.3129275E-2,4.95086E-1,2.2170213E-1,2.8952107E-1,-1.6216366E-2,-2.094585E-3,2.760173E-1,5.7805187E-1,8.2218254E-1,5.014404E-2,7.1917176E-1,1.3909023E-2,5.299784E-1,6.967951E-2,9.5665354E-1,8.670223E-1,1.4619164E-1,9.7614336E-1,1.3676618E-3,-3.201653E-5,-1.1321718E-3,-2.626387E-3,3.6107805E-3,1.0026065E-3,-2.4940958E-2,-1.639841E-2,-1.0956584E-2,1.7746262E-2,-2.7990178E-4,3.715975E-3,-2.1852704E-3,-5.895522E-3,4.68012E-3,1.2975872E-3,1.5444454E-2,-1.0035184E-3,9.6129775E-3,-7.479481E-4,-7.076186E-4,7.188995E-3,1.5577424E-4,6.389218E-3,-1.1426201E-3,4.310033E-4,-8.5708895E-4,4.197073E-2,9.535849E-3,3.4774728E-2,-5.3646993E-3,-1.5145389E-2,-3.7801787E-3,7.3019853E-3,8.56548E-3,-1.9477656E-2,-5.197708E-4,-2.4057783E-2,-2.175128E-3,1.1521993E-3,-2.833111E-2,7.738226E-3,5.1032854E-3,1.5156151E-2,3.4388404E-2,8.363309E-2,-1.3359076E-2,3.0176105E-2,3.1849593E-3,-5.6534098E-3,2.2000695E-2,6.259818E-2,2.1573946E-2,9.477309E-3,-1.8213538E-2,4.8909644E-3,2.9792868E-2,1.7456658E-3,-4.3651327E-3,8.372601E-5,6.8238387E-3,2.9774786E-3,3.421092E-3,6.5357173E-3,-4.5123138E-2,3.5137162E-3,1.5590502E-3,5.42545E-3,-2.578666E-2,8.971328E-4,-7.0184204E-3,3.6249815E-3,-3.0127308E-5,2.6346692E-3,-1.0933014E-2,-9.88628E-4,6.888247E-5,4.0955916E-3,2.6273632E-3,2.3371993E-1,-4.2855456E-3,-7.737543E-5,7.785418E-3,2.2191312E-3],"split_indices":[1,5,5,4,1,5,7,5,1,1,5,1,1,4,10,7,1,4,11,1,5,4,5,1,4,1,1,1,4,10,5,1,0,1,1,6,6,5,5,1,4,5,4,10,5,5,5,0,0,1,1,1,6,11,1,5,1,5,1,11,4,5,5,0,0,0,0,0,10,1,1,0,0,5,0,4,0,1,1,1,5,5,0,11,5,10,11,5,5,4,11,4,11,0,0,4,0,10,1,1,11,11,4,5,11,10,5,0,0,5,5,1,5,1,0,5,5,1,1,11,5,0,0,0,0,0,0,0,0,0,0,0,0,0,0,0,0,0,0,0,0,0,0,0,0,0,0,0,0,0,0,0,0,0,0,0,0,0,0,0,0,0,0,0,0,0,0,0,0,0,0,0,0,0,0,0,0,0,0,0,0,0,0,0,0,0,0,0,0,0,0,0,0,0,0,0,0,0,0,0,0,0,0,0,0],"split_type":[0,0,0,0,0,0,0,0,0,0,0,0,0,0,0,0,0,0,0,0,0,0,0,0,0,0,0,0,0,0,0,0,0,0,0,0,0,0,0,0,0,0,0,0,0,0,0,0,0,0,0,0,0,0,0,0,0,0,0,0,0,0,0,0,0,0,0,0,0,0,0,0,0,0,0,0,0,0,0,0,0,0,0,0,0,0,0,0,0,0,0,0,0,0,0,0,0,0,0,0,0,0,0,0,0,0,0,0,0,0,0,0,0,0,0,0,0,0,0,0,0,0,0,0,0,0,0,0,0,0,0,0,0,0,0,0,0,0,0,0,0,0,0,0,0,0,0,0,0,0,0,0,0,0,0,0,0,0,0,0,0,0,0,0,0,0,0,0,0,0,0,0,0,0,0,0,0,0,0,0,0,0,0,0,0,0,0,0,0,0,0,0,0,0,0,0,0,0,0,0,0,0,0,0,0],"sum_hessian":[7.83E3,3.735E3,4.095E3,9.8E1,3.637E3,1.5E2,3.945E3,2.5E1,7.3E1,1.483E3,2.154E3,1.3E1,1.37E2,3.236E3,7.09E2,5E0,2E1,1.2E1,6.1E1,1.46E3,2.3E1,3.8E2,1.774E3,2E0,1.1E1,6.2E1,7.5E1,2.7E1,3.209E3,2.94E2,4.15E2,4E0,1E0,3E0,1.7E1,9E0,3E0,4.7E1,1.4E1,9.03E2,5.57E2,7E0,1.6E1,8.9E1,2.91E2,2.29E2,1.545E3,1E0,1E0,2E0,9E0,1.5E1,4.7E1,1.8E1,5.7E1,1.4E1,1.3E1,6.04E2,2.605E3,1E1,2.84E2,1.8E2,2.35E2,1E0,3E0,1E0,2E0,1E0,1.6E1,4E0,5E0,2E0,1E0,3.9E1,8E0,6E0,8E0,8.62E2,4.1E1,4.23E2,1.34E2,2E0,5E0,5E0,1.1E1,8E1,9E0,6E0,2.85E2,1.13E2,1.16E2,6E0,1.539E3,1E0,1E0,6E0,3E0,1.3E1,2E0,3E0,4.4E1,9E0,9E0,1.1E1,4.6E1,4E0,1E1,1.2E1,1E0,3.59E2,2.45E2,1.882E3,7.23E2,8E0,2E0,9.6E1,1.88E2,1.78E2,2E0,2.15E2,2E1,1.2E1,4E0,2E0,2E0,4E0,1E0,1.3E1,2.6E1,2E0,4E0,8.35E2,2.7E1,3.2E1,9E0,1.7E1,4.06E2,1E0,1.33E2,1E0,1E0,4E0,1E0,1E0,1E1,6E0,7.4E1,8E0,1E0,5E0,1E0,2.54E2,3.1E1,8.6E1,2.7E1,1.11E2,5E0,1E0,5E0,1.37E3,1.69E2,5E0,1E0,6E0,7E0,1E0,1E0,1E0,2E0,1.1E1,3.3E1,3E0,6E0,5E0,4E0,9E0,2E0,2.7E1,1.9E1,1E0,3E0,2E0,8E0,1.58E2,2.01E2,1E0,2.44E2,1.358E3,5.24E2,3E0,7.2E2,1E0,7E0,6.6E1,3E1,3E0,1.85E2,1.38E2,4E1,1E0,1E0,9E0,2.06E2,4E0,1.6E1],"tree_param":{"num_deleted":"0","num_feature":"12","num_nodes":"205","size_leaf_vector":"0"}},{"base_weights":[4.1731592E-2,1.7804953E0,3.6617868E-2,-5.350705E-1,4.712235E0,-2.204499E-1,3.9576575E-2,2.5730932E-1,-7.7479714E-1,2.3584507E0,4.87863E0,-5.0980646E-2,-1.6878294E0,2.742013E-1,3.6535256E-2,-3.775285E-2,3.95265E-1,-1.5324956E0,2.8670581E-2,-2.23189E-1,8.317851E-1,-2.4414868E0,-8.27835E-2,1.5074529E-1,6.78838E-1,9.87763E-4,4.632763E-2,-1.3633509E-1,-1.8408934E0,1.8359211E-1,-8.748423E-1,9.7286516E-1,2.1589445E-2,2.7519092E-1,-3.5749796E-1,3.897077E0,3.1554478E-1,-1.92002E-1,2.4280087E-3,-6.075592E-1,4.7117643E-2,2.5732943E-1,-1.7808574E-1,-9.438207E-2,-9.371097E-1,-1.4402954E-1,1.0869787E0,7.530835E-1,2.2888535E-1,2.6794592E-1,-7.706647E-1,-2.583749E-1,4.973814E-1,1.4878428E-2,-7.5632346E-1,-1.706015E-2,9.201611E-3,-1.3664979E0,-4.1352805E-1,4.1276973E-2,1.06219076E-1,2.1231729E-1,8.5743743E-1,-3.808042E-2,-3.3799666E-1,7.920428E-2,8.992025E-1,5.5186373E-1,1.2970491E-1,8.878684E-1,-8.3195165E-2,-1.2858844E0,-5.6973535E-1,-8.072671E-2,-4.691169E-1,3.0687252E-1,6.6627544E-1,2.4674349E-1,-1.0568942E-1,-8.0331996E-2,-1.028424E0,1.0319255E-1,-1.8595438E-2,1.5328275E-3,2.8743168E-2,-1.8228713E-1,-5.991217E-1,4.641631E-2,-1.6973187E-1,1.8034523E0,7.980432E-2],"categories":[],"categories_nodes":[],"categories_segments":[],"categories_sizes":[],"default_left":[true,true,true,true,true,true,true,true,true,false,false,true,true,true,true,false,false,true,false,true,true,false,false,true,true,true,true,false,false,true,true,true,false,true,true,false,true,true,true,true,true,true,true,false,false,false,false,true,true,true,true,true,true,true,true,true,true,false,true,true,true,false,false,false,false,false,false,false,false,false,false,false,false,false,false,false,false,false,false,false,false,false,false,false,false,false,false,false,false,false,false],"id":206,"left_children":[1,3,5,7,9,11,13,15,17,-1,-1,19,21,23,25,-1,-1,27,-1,29,31,-1,-1,33,35,37,39,-1,-1,41,43,45,-1,47,49,-1,51,53,55,57,59,61,63,-1,-1,-1,-1,65,67,69,71,73,75,77,79,81,83,-1,85,87,89,-1,-1,-1,-1,-1,-1,-1,-1,-1,-1,-1,-1,-1,-1,-1,-1,-1,-1,-1,-1,-1,-1,-1,-1,-1,-1,-1,-1,-1,-1],"loss_changes":[7.074991E1,1.5930284E2,6.0388927E0,2.6066172E0,1.07040405E-1,2.241024E1,5.593261E0,1.457664E-1,6.3269777E0,0E0,0E0,1.2417511E1,1.1186874E1,4.966184E0,2.6968079E0,0E0,0E0,2.1845503E0,0E0,1.8177275E1,1.5028601E0,0E0,0E0,4.9228716E0,2.6810509E1,4.628368E-1,3.1399517E0,0E0,0E0,1.1454103E0,1.235527E0,1.5101395E0,0E0,1.3078957E0,4.038394E0,0E0,2.2726166E0,1.4542252E0,2.1937667E-1,8.660803E-1,2.0911741E0,8.7846565E-1,1.5452804E-1,0E0,0E0,0E0,0E0,4.8746252E-1,1.8029792E0,1.414782E0,6.954522E-1,1.792025E-1,4.4347954E-1,2.7162993E-1,5.697856E-1,7.851329E-2,1.8453065E-1,0E0,2.2424734E-1,5.9906235E0,2.4373528E1,0E0,0E0,0E0,0E0,0E0,0E0,0E0,0E0,0E0,0E0,0E0,0E0,0E0,0E0,0E0,0E0,0E0,0E0,0E0,0E0,0E0,0E0,0E0,0E0,0E0,0E0,0E0,0E0,0E0,0E0],"parents":[2147483647,0,0,1,1,2,2,3,3,4,4,5,5,6,6,7,7,8,8,11,11,12,12,13,13,14,14,17,17,19,19,20,20,23,23,24,24,25,25,26,26,29,29,30,30,31,31,33,33,34,34,36,36,37,37,38,38,39,39,40,40,41,41,42,42,47,47,48,48,49,49,50,50,51,51,52,52,53,53,54,54,55,55,56,56,58,58,59,59,60,60],"right_children":[2,4,6,8,10,12,14,16,18,-1,-1,20,22,24,26,-1,-1,28,-1,30,32,-1,-1,34,36,38,40,-1,-1,42,44,46,-1,48,50,-1,52,54,56,58,60,62,64,-1,-1,-1,-1,66,68,70,72,74,76,78,80,82,84,-1,86,88,90,-1,-1,-1,-1,-1,-1,-1,-1,-1,-1,-1,-1,-1,-1,-1,-1,-1,-1,-1,-1,-1,-1,-1,-1,-1,-1,-1,-1,-1,-1],"split_conditions":[2.7272727E-2,2.777778E-1,1.9985596E-2,5.5555556E-2,9.689189E-1,3.888889E-1,3.2139E-2,5.719247E-1,1.6666667E-1,4.716901E-2,9.75726E-2,2.777778E-1,5E-1,2.9168166E-2,9.5682657E-1,-7.5505703E-4,7.9053E-3,5.629188E-1,5.734116E-4,1.6666667E-1,5E-1,-4.8829734E-2,-1.6556699E-3,2.7097587E-2,2.9618293E-2,4.1591644E-2,3.3759452E-2,-2.7267018E-3,-3.6817867E-2,5E-1,5.4084355E-1,5E-1,4.3178888E-4,2.0705797E-2,2.777778E-1,7.794154E-2,5.5555556E-2,4.0331293E-2,1.3484347E-1,4.5757577E-1,9.1357577E-1,1.3137093E-1,1.8905293E-2,-1.8876414E-3,-1.8742194E-2,-2.8805907E-3,2.1739572E-2,5.5555556E-2,1.4004913E-1,2.781779E-2,3.3636364E-1,4.2424244E-1,2.777778E-1,2.1621622E-1,4.2424244E-1,4.7443286E-2,8.30303E-1,-2.7329957E-2,3.3129275E-2,8.960209E-1,9.149262E-1,4.2463457E-3,1.7148748E-2,-7.616084E-4,-6.759933E-3,1.5840856E-3,1.798405E-2,1.1037274E-2,2.594098E-3,1.7757367E-2,-1.6639032E-3,-2.5717687E-2,-1.1394707E-2,-1.6145342E-3,-9.382337E-3,6.13745E-3,1.3325509E-2,4.9348697E-3,-2.1137884E-3,-1.6066399E-3,-2.056848E-2,2.063851E-3,-3.7190877E-4,3.065655E-5,5.7486334E-4,-3.6457425E-3,-1.19824335E-2,9.2832616E-4,-3.3946373E-3,3.6069043E-2,1.5960864E-3],"split_indices":[2,4,5,4,6,4,5,6,4,0,0,4,0,5,6,0,0,6,0,4,0,0,0,5,5,5,5,0,0,0,6,6,0,5,4,0,4,5,6,2,5,7,5,0,0,0,0,4,11,5,2,2,4,11,2,5,2,0,5,5,5,0,0,0,0,0,0,0,0,0,0,0,0,0,0,0,0,0,0,0,0,0,0,0,0,0,0,0,0,0,0],"split_type":[0,0,0,0,0,0,0,0,0,0,0,0,0,0,0,0,0,0,0,0,0,0,0,0,0,0,0,0,0,0,0,0,0,0,0,0,0,0,0,0,0,0,0,0,0,0,0,0,0,0,0,0,0,0,0,0,0,0,0,0,0,0,0,0,0,0,0,0,0,0,0,0,0,0,0,0,0,0,0,0,0,0,0,0,0,0,0,0,0,0,0],"sum_hessian":[7.962E3,2.3E1,7.939E3,1.3E1,1E1,9E1,7.849E3,3E0,1E1,1E0,9E0,8.1E1,9E0,1E2,7.749E3,1E0,2E0,5E0,5E0,6.8E1,1.3E1,6E0,3E0,7.7E1,2.3E1,1.674E3,6.075E3,1E0,4E0,4.2E1,2.6E1,1.1E1,2E0,6.2E1,1.5E1,2E0,2.1E1,1.2E1,1.662E3,7E0,6.068E3,3.5E1,7E0,2E0,2.4E1,1E0,1E1,5E0,5.7E1,6E0,9E0,5E0,1.6E1,9E0,3E0,4.28E2,1.234E3,1E0,6E0,5.523E3,5.45E2,3.3E1,2E0,4E0,3E0,1E0,4E0,1.3E1,4.4E1,2E0,4E0,2E0,7E0,3E0,2E0,8E0,8E0,3E0,6E0,1E0,2E0,5E0,4.23E2,8.87E2,3.47E2,3E0,3E0,5.392E3,1.31E2,8E0,5.37E2],"tree_param":{"num_deleted":"0","num_feature":"12","num_nodes":"91","size_leaf_vector":"0"}},{"base_weights":[3.2273233E-2,-4.7243845E-2,1.04256146E-1,-2.987977E-1,-3.8405053E-2,1.627294E0,9.93324E-2,7.313138E-2,-4.695892E-1,-6.893263E-1,-3.5272438E-2,1.0054339E1,-1.1423182E0,1.3756524E-1,5.6237914E-2,-4.2964917E-2,2.0071395E-1,-5.5211484E-1,3.3312255E-1,5.3837055E-1,-1.2027485E0,-6.77743E-2,8.6592E-3,2.5801473E0,2.0608532E1,6.4817655E-1,-1.906199E0,4.325979E-2,1.6750182E-1,-1.7673452E0,6.597742E-2,-8.547766E-2,3.092924E-1,9.740173E-2,4.0539065E-1,9.795161E-3,-7.0564395E-1,1.2284501E0,-1.2034787E-2,-3.7186787E-2,6.7734045E-1,-1.3429038E-1,-1.2918133E0,-9.517144E-4,-1.1365659E-1,1.1518488E-1,-1.852894E-2,6.2318625E0,-1.7061086E0,3.8402575E-1,9.3762845E-1,-2.4436952E-1,-2.5114152E0,1.870219E-2,1.9065897E-1,5.869992E-1,1.5676412E-1,7.068063E-2,-8.084989E0,9.204292E-2,1.0164631E-2,6.383335E-2,-1.1507845E-1,-3.1078232E-2,1.222474E-1,4.6963432E-1,3.6359858E-2,-3.028192E-3,1.995993E-2,-9.1687757E-1,-5.824917E-1,2.2381596E-2,-3.2932688E-2,1.1654134E0,4.100607E-1,-1.8069087E0,-9.2674756E-1,-9.800409E-3,1.3570118E-1,8.1463285E-2,-1.3874818E-1,5.5168647E-2,2.9103905E-1,-6.8172835E-2,5.697722E-2,-2.5422823E0,2.1039577E0,6.0085945E-2,-7.656256E-2,1.031992E-2,5.917963E-1,1.968063E0,2.858935E-1,-6.9759285E-1,1.6221951E-1,-4.0485117E-1,2.678905E0,4.671553E-2,2.3552507E-1,5.62514E-1,-2.0240846E-3,7.879816E-2,1.0985841E-2,-5.082713E-2,-2.1159735E-1,6.164376E-2,-1.267252E-1,6.472551E-2,2.0689201E-1,5.8890533E-1,2.2602287E-1,1.3481647E-2,-1.8786766E-2,2.9695647E-2,9.995477E-3,-2.937859E-1,-1.046702E0,-1.053952E0,-4.545311E-1,3.0099156E-1,-1.1386969E0,1.495537E-2,-4.4451833E-2,9.905704E-1,9.405948E-2,2.9154655E-1,-1.3486613E-1,7.0455265E-3,-1.7191923E-1,8.5544065E-2,-1.4111018E-1,3.5257132E-3,5.419647E-1,9.790316E-3,-1.2851308E-1,4.3423537E-2,1.0775026E0,1.3528731E-2,1.5726303E-1,-1.1616944E0,-4.933888E-2,1.4974093E0,-2.809885E-2,3.9706318E0,2.7462527E-2,1.4063762E0,4.132991E0,-3.267398E-1,5.7998556E-1,-8.216791E-1,-1.486422E-1,2.3701341E-1,1.1522491E-1,1.677329E0,-8.241766E-1,8.249385E-2,-9.39407E-2,1.4906059E-1,4.294126E-1,-7.388506E-2,3.5791748E0,5.9990786E-2,-6.428985E-2],"categories":[],"categories_nodes":[],"categories_segments":[],"categories_sizes":[],"default_left":[true,true,true,true,true,true,true,true,true,true,true,true,true,true,true,true,true,true,true,true,true,true,true,true,false,true,true,true,true,true,true,true,false,true,true,true,true,false,true,false,true,false,true,true,true,true,true,false,false,false,false,true,false,true,true,true,true,true,false,true,true,true,true,true,true,true,false,true,true,true,true,false,false,false,false,false,true,true,true,true,true,true,true,true,true,false,false,true,true,true,true,true,true,true,true,true,false,true,true,true,true,false,false,false,false,false,false,false,false,false,false,false,false,false,false,false,false,false,false,false,false,false,false,false,false,false,false,false,false,false,false,false,false,false,false,false,false,false,false,false,false,false,false,false,false,false,false,false,false,false,false,false,false,false,false,false,false,false,false,false,false,false,false],"id":207,"left_children":[1,3,5,7,9,11,13,15,17,19,21,23,25,27,29,31,33,35,37,39,41,43,45,47,-1,49,51,53,55,57,59,61,-1,63,65,67,69,-1,71,-1,73,-1,75,77,79,81,83,-1,-1,-1,-1,85,-1,87,89,91,93,95,-1,97,99,101,103,105,107,109,-1,111,113,115,117,-1,-1,-1,-1,-1,119,121,123,125,127,129,131,133,135,-1,-1,137,139,141,143,145,147,149,151,153,-1,155,157,159,161,-1,-1,-1,-1,-1,-1,-1,-1,-1,-1,-1,-1,-1,-1,-1,-1,-1,-1,-1,-1,-1,-1,-1,-1,-1,-1,-1,-1,-1,-1,-1,-1,-1,-1,-1,-1,-1,-1,-1,-1,-1,-1,-1,-1,-1,-1,-1,-1,-1,-1,-1,-1,-1,-1,-1,-1,-1,-1,-1,-1,-1,-1],"loss_changes":[4.5228672E1,8.338871E0,3.1022537E1,8.105625E0,7.378006E0,3.151557E2,6.806488E0,6.025398E-1,5.8498E0,1.1151162E1,5.1560907E0,2.4489532E2,1.4563307E1,6.1782875E0,3.4547535E1,3.2510146E-1,3.8847876E-1,6.8562927E0,2.5975642E0,4.4412923E-1,1.0954838E0,6.361245E0,4.448777E0,4.0134037E1,0E0,1.1594725E-1,7.131796E0,1.9082704E0,7.4465866E0,1.2029706E2,2.8122768E0,8.8629216E-2,0E0,4.5130104E-2,1.3724136E-1,2.5210278E-3,1.4220505E0,0E0,4.9515227E-3,0E0,3.834747E-1,0E0,1.533781E0,1.0208247E0,6.028138E0,3.2861075E0,4.5870223E0,0E0,0E0,0E0,0E0,1.4381941E1,0E0,1.7885269E0,5.439052E0,1.6968586E1,7.586899E0,1.0730059E1,0E0,8.566313E0,4.1577964E0,1.0669269E-3,9.3961805E-2,2.4227919E-2,4.6841785E-2,9.895682E-2,0E0,2.0680935E-3,3.3732224E-4,1.6849461E0,2.2519827E0,0E0,0E0,0E0,0E0,0E0,2.0345478E0,6.8204E-1,1.7808379E0,6.3931084E0,5.275749E0,1.3943789E0,5.7150536E0,3.475467E0,6.6814795E0,0E0,0E0,1.4280398E0,4.0206194E0,3.0249128E0,4.439866E1,6.9002533E0,6.2526884E0,6.493182E-1,5.649563E0,6.8517623E0,0E0,5.046607E0,5.2735405E0,2.5735783E1,2.3310614E0,0E0,0E0,0E0,0E0,0E0,0E0,0E0,0E0,0E0,0E0,0E0,0E0,0E0,0E0,0E0,0E0,0E0,0E0,0E0,0E0,0E0,0E0,0E0,0E0,0E0,0E0,0E0,0E0,0E0,0E0,0E0,0E0,0E0,0E0,0E0,0E0,0E0,0E0,0E0,0E0,0E0,0E0,0E0,0E0,0E0,0E0,0E0,0E0,0E0,0E0,0E0,0E0,0E0,0E0,0E0,0E0,0E0,0E0,0E0,0E0,0E0,0E0],"parents":[2147483647,0,0,1,1,2,2,3,3,4,4,5,5,6,6,7,7,8,8,9,9,10,10,11,11,12,12,13,13,14,14,15,15,16,16,17,17,18,18,19,19,20,20,21,21,22,22,23,23,25,25,26,26,27,27,28,28,29,29,30,30,31,31,33,33,34,34,35,35,36,36,38,38,40,40,42,42,43,43,44,44,45,45,46,46,51,51,53,53,54,54,55,55,56,56,57,57,59,59,60,60,61,61,62,62,63,63,64,64,65,65,67,67,68,68,69,69,70,70,76,76,77,77,78,78,79,79,80,80,81,81,82,82,83,83,84,84,87,87,88,88,89,89,90,90,91,91,92,92,93,93,94,94,95,95,97,97,98,98,99,99,100,100],"right_children":[2,4,6,8,10,12,14,16,18,20,22,24,26,28,30,32,34,36,38,40,42,44,46,48,-1,50,52,54,56,58,60,62,-1,64,66,68,70,-1,72,-1,74,-1,76,78,80,82,84,-1,-1,-1,-1,86,-1,88,90,92,94,96,-1,98,100,102,104,106,108,110,-1,112,114,116,118,-1,-1,-1,-1,-1,120,122,124,126,128,130,132,134,136,-1,-1,138,140,142,144,146,148,150,152,154,-1,156,158,160,162,-1,-1,-1,-1,-1,-1,-1,-1,-1,-1,-1,-1,-1,-1,-1,-1,-1,-1,-1,-1,-1,-1,-1,-1,-1,-1,-1,-1,-1,-1,-1,-1,-1,-1,-1,-1,-1,-1,-1,-1,-1,-1,-1,-1,-1,-1,-1,-1,-1,-1,-1,-1,-1,-1,-1,-1,-1,-1,-1,-1,-1,-1],"split_conditions":[6.8848956E-1,1.8427517E-2,2.7272727E-2,6.474708E-1,2.7272727E-2,1.6666667E-1,2.777778E-1,6.818182E-1,5E-1,5.5555556E-2,7.5757575E-1,8.0838656E-1,2.777778E-1,9.8790765E-1,5E-1,5.15408E-1,3.6344695E-1,5.5555556E-2,9.9999994E-2,2.083415E-1,3.7807107E-1,6.572582E-1,2.6206896E-1,7.7843237E-1,4.1217062E-1,8.4844077E-1,8.3943033E-1,9.212121E-1,1.7021276E-2,8.76709E-1,8.386767E-1,6E-2,6.185848E-3,6.29188E-2,2.777778E-1,3.9234042E-1,3.9234042E-1,2.4569001E-2,6.818182E-1,-7.437357E-4,5.247395E-1,-2.6858076E-3,1.6666667E-1,6.430696E-1,2.923833E-1,2.777778E-1,3.7586206E-1,1.24637246E-1,-3.412217E-2,7.680515E-3,1.875257E-2,8.0838656E-1,-5.0228305E-2,9.02244E-1,3.327586E-1,7.7943826E-1,5.5555556E-2,8.5870504E-1,-1.6169977E-1,8.2552147E-1,1.48936175E-2,2.1682437E-1,1.6666667E-1,1.3367382E-1,9.9999994E-2,1.4310345E-1,7.2719716E-4,3.5106385E-1,6.818182E-1,9.9999994E-2,9.9999994E-2,4.476319E-4,-6.5865373E-4,2.3308268E-2,8.201214E-3,-3.6138173E-2,2.777778E-1,6.242424E-1,3.969697E-1,2.0297873E-1,5.5555556E-2,8.2186735E-1,6.893617E-1,6.572582E-1,6.1111116E-1,-5.0845645E-2,4.207915E-2,8.147807E-1,8.793104E-2,7.241379E-2,3.3965516E-1,7.6706135E-1,1.6666667E-1,8.0838656E-1,1.6666667E-1,7.7843237E-1,5.3578097E-2,7.943434E-1,8.30303E-1,5E-1,7.008511E-1,1.5759631E-3,2.1971682E-4,-1.0165425E-3,-4.231947E-3,1.2328752E-3,-2.5345038E-3,1.2945102E-3,4.13784E-3,1.1778106E-2,4.5204572E-3,2.6963293E-4,-3.757353E-4,5.939129E-4,1.9990954E-4,-5.875718E-3,-2.093404E-2,-2.107904E-2,-9.090622E-3,6.019831E-3,-2.2773938E-2,2.991074E-4,-8.8903663E-4,1.9811409E-2,1.8811896E-3,5.830931E-3,-2.6973225E-3,1.4091053E-4,-3.4383845E-3,1.7108812E-3,-2.8222036E-3,7.051427E-5,1.0839294E-2,1.9580632E-4,-2.5702617E-3,8.684707E-4,2.1550052E-2,2.7057462E-4,3.1452605E-3,-2.3233887E-2,-9.867776E-4,2.9948186E-2,-5.61977E-4,7.941263E-2,5.492505E-4,2.8127525E-2,8.265982E-2,-6.5347957E-3,1.1599711E-2,-1.6433582E-2,-2.9728438E-3,4.740268E-3,2.304498E-3,3.354658E-2,-1.6483532E-2,1.6498769E-3,-1.878814E-3,2.9812118E-3,8.588252E-3,-1.4777012E-3,7.1583495E-2,1.1998157E-3,-1.285797E-3],"split_indices":[1,11,2,1,2,4,4,2,4,4,2,1,4,6,0,1,1,4,3,1,1,1,3,1,0,1,1,2,10,1,1,10,0,6,4,10,10,0,2,0,1,0,4,1,11,4,3,0,0,0,0,1,0,1,3,1,4,1,0,1,10,1,4,1,3,3,0,10,2,3,3,0,0,0,0,0,4,2,2,10,4,11,10,1,4,0,0,1,3,3,3,1,4,1,4,1,0,1,2,4,10,0,0,0,0,0,0,0,0,0,0,0,0,0,0,0,0,0,0,0,0,0,0,0,0,0,0,0,0,0,0,0,0,0,0,0,0,0,0,0,0,0,0,0,0,0,0,0,0,0,0,0,0,0,0,0,0,0,0,0,0,0,0],"split_type":[0,0,0,0,0,0,0,0,0,0,0,0,0,0,0,0,0,0,0,0,0,0,0,0,0,0,0,0,0,0,0,0,0,0,0,0,0,0,0,0,0,0,0,0,0,0,0,0,0,0,0,0,0,0,0,0,0,0,0,0,0,0,0,0,0,0,0,0,0,0,0,0,0,0,0,0,0,0,0,0,0,0,0,0,0,0,0,0,0,0,0,0,0,0,0,0,0,0,0,0,0,0,0,0,0,0,0,0,0,0,0,0,0,0,0,0,0,0,0,0,0,0,0,0,0,0,0,0,0,0,0,0,0,0,0,0,0,0,0,0,0,0,0,0,0,0,0,0,0,0,0,0,0,0,0,0,0,0,0,0,0,0,0],"sum_hessian":[7.901E3,3.754E3,4.147E3,1.27E2,3.627E3,1.3E1,4.134E3,4E1,8.7E1,1.7E1,3.61E3,3E0,1E1,2.19E3,1.944E3,2.1E1,1.9E1,7.9E1,8E0,5E0,1.2E1,2.075E3,1.535E3,2E0,1E0,3E0,7E0,5.28E2,1.662E3,1E1,1.934E3,1.9E1,2E0,1.3E1,6E0,1.7E1,6.2E1,2E0,6E0,1E0,4E0,1E0,1.1E1,8.45E2,1.23E3,3.12E2,1.223E3,1E0,1E0,2E0,1E0,2E0,5E0,4.53E2,7.5E1,4.1E1,1.621E3,8E0,2E0,1.318E3,6.16E2,3E0,1.6E1,2E0,1.1E1,5E0,1E0,7E0,1E1,2.2E1,4E1,2E0,4E0,1E0,3E0,4E0,7E0,7.94E2,5.1E1,1.4E2,1.09E3,2.33E2,7.9E1,7.38E2,4.85E2,1E0,1E0,3.16E2,1.37E2,5.2E1,2.3E1,7E0,3.4E1,1E1,1.611E3,7E0,1E0,1.002E3,3.16E2,1.3E1,6.03E2,2E0,1E0,1E1,6E0,1E0,1E0,7E0,4E0,3E0,2E0,3E0,4E0,4E0,6E0,4E0,1.8E1,8E0,3.2E1,1E0,6E0,4.63E2,3.31E2,2E0,4.9E1,7.1E1,6.9E1,2.02E2,8.88E2,2.02E2,3.1E1,3.7E1,4.2E1,3.22E2,4.16E2,4.79E2,6E0,2.14E2,1.02E2,3E0,1.34E2,1E0,5.1E1,3E0,2E1,6E0,1E0,1.1E1,2.3E1,8E0,2E0,6.21E2,9.9E2,1E0,6E0,7.99E2,2.03E2,2.19E2,9.7E1,1.1E1,2E0,3.02E2,3.01E2],"tree_param":{"num_deleted":"0","num_feature":"12","num_nodes":"163","size_leaf_vector":"0"}},{"base_weights":[4.0717628E-2,8.818975E-1,3.7998855E-2,2.0114264E0,7.557236E-1,1.5576376E-1,3.3016942E-2,2.5846738E-1,7.7349067E-1,1.3045083E-1,2.530407E0,1.821076E-2,6.894278E-2,-5.0064262E-2,1.774459E-1,-0E0,3.6103237E0,-1.7979425E-1,2.1662025E-2,7.900523E-2,-1.1970091E-1,-7.9532325E-2,7.507793E-1,2.4018763E-1,-4.4851158E-2,-2.3880157E-1,9.515756E-2,5.2765105E-2,-6.029141E-3,1.3032995E-1,5.0987907E-2,-3.745581E-1,-7.2297364E-2,4.463794E-1,-1.08386196E-1,-1.5425687E-1,1.4787592E0,5.3779487E-2,4.5209515E-1,8.4452784E-1,-1.3907842E-1,-1.4975096E-1,-5.565407E-1,8.955465E-1,-3.6363482E-2,3.4874644E-2,1.6693328E-1,3.50651E-2,-2.8964471E-2,1.6519014E-2,1.6014704E-1,5.049127E-3,1.2539203E-1,-2.9386752E-3,-6.2482166E-1,-1.8834211E-1,4.3955363E-2,9.922896E-2,-2.1250957E-1,8.26233E-2,-6.1489224E-1,6.780732E-1,2.1749197E-1,1.3378558E0,6.244436E-1,2.0056082E-2,-2.53718E-1,-2.0069504E-1,7.065615E-2,1.3322885E-1,-7.1613914E-1,-2.4829984E-1,8.4515296E-2,7.470291E-2,-6.899843E-3,7.241692E-3,2.3404141E-1,3.8479906E-2,-7.439437E-1,-7.9967104E-2,4.7211926E-3,7.9829514E-2,-6.89453E-2,1.2754662E-1,4.4180194E-1,-1.5703524E-2,3.6712363E-1,1.0744035E-3,1.778464E-1,1.6639728E-2,-1.0589053E-1,-3.2182914E-1,-1.2246057E0,-2.8946435E-1,2.3217773E-1,1.940257E-1,-1.7599517E-1],"categories":[],"categories_nodes":[],"categories_segments":[],"categories_sizes":[],"default_left":[true,true,true,false,true,true,true,false,false,true,true,true,true,true,true,false,false,true,true,true,true,true,true,true,true,true,true,true,true,true,true,true,true,false,true,false,false,true,true,true,true,true,true,false,true,true,true,true,true,true,true,true,true,true,true,true,true,false,false,false,false,false,false,false,false,false,false,false,false,false,false,false,false,false,false,false,false,false,false,false,false,false,false,false,false,false,false,false,false,false,false,false,false,false,false,false,false],"id":208,"left_children":[1,3,5,-1,7,9,11,-1,-1,13,15,17,19,21,23,-1,-1,25,27,29,31,33,35,37,39,41,43,45,47,49,51,53,55,-1,57,-1,-1,59,61,63,65,67,69,-1,71,73,75,77,79,81,83,85,87,89,91,93,95,-1,-1,-1,-1,-1,-1,-1,-1,-1,-1,-1,-1,-1,-1,-1,-1,-1,-1,-1,-1,-1,-1,-1,-1,-1,-1,-1,-1,-1,-1,-1,-1,-1,-1,-1,-1,-1,-1,-1,-1],"loss_changes":[1.7981848E1,3.0640774E0,4.6001635E0,0E0,1.2475777E-1,1.8986729E1,4.003907E0,0E0,0E0,2.679854E0,9.071405E0,3.64367E0,4.1735907E0,1.5521619E0,3.4978542E0,0E0,0E0,1.4914362E0,4.515892E0,2.995307E0,1.3296303E0,9.723719E-1,1.6323639E0,7.7005997E0,4.6662574E0,2.0936832E0,1.7425067E0,5.0388465E0,2.614146E0,2.4953537E0,4.613415E0,1.6024947E0,1.2774277E0,0E0,1.3129122E0,0E0,0E0,2.0216336E0,4.7801056E0,2.7249718E-1,9.232689E-1,6.728059E-1,1.8382201E0,0E0,3.7653774E-1,3.5539181E0,3.5789118E0,2.6419148E0,3.0599146E0,8.3164555E-1,5.3292933E0,6.283636E0,3.3578749E0,1.6642239E-2,1.7244182E0,2.0360332E0,1.57403E0,0E0,0E0,0E0,0E0,0E0,0E0,0E0,0E0,0E0,0E0,0E0,0E0,0E0,0E0,0E0,0E0,0E0,0E0,0E0,0E0,0E0,0E0,0E0,0E0,0E0,0E0,0E0,0E0,0E0,0E0,0E0,0E0,0E0,0E0,0E0,0E0,0E0,0E0,0E0,0E0],"parents":[2147483647,0,0,1,1,2,2,4,4,5,5,6,6,9,9,10,10,11,11,12,12,13,13,14,14,17,17,18,18,19,19,20,20,21,21,22,22,23,23,24,24,25,25,26,26,27,27,28,28,29,29,30,30,31,31,32,32,34,34,37,37,38,38,39,39,40,40,41,41,42,42,44,44,45,45,46,46,47,47,48,48,49,49,50,50,51,51,52,52,53,53,54,54,55,55,56,56],"right_children":[2,4,6,-1,8,10,12,-1,-1,14,16,18,20,22,24,-1,-1,26,28,30,32,34,36,38,40,42,44,46,48,50,52,54,56,-1,58,-1,-1,60,62,64,66,68,70,-1,72,74,76,78,80,82,84,86,88,90,92,94,96,-1,-1,-1,-1,-1,-1,-1,-1,-1,-1,-1,-1,-1,-1,-1,-1,-1,-1,-1,-1,-1,-1,-1,-1,-1,-1,-1,-1,-1,-1,-1,-1,-1,-1,-1,-1,-1,-1,-1,-1],"split_conditions":[2.7272727E-2,9.5682657E-1,4.924379E-2,4.0228527E-2,9.8790765E-1,4.8973713E-2,8.30303E-1,5.1693474E-3,1.5469813E-2,1.3267812E-1,5.036677E-1,1.2285012E-2,7.1034485E-1,4.6092905E-2,3.948276E-1,-0E0,7.2206475E-2,1.657364E-1,6.242424E-1,4.1573638E-1,7.224138E-1,1.7194815E-2,5.629188E-1,3.3636364E-1,2.4576882E-2,1.5601368E-1,1.6609651E-1,6.3620687E-1,3.7586206E-1,9.5682657E-1,3.5344827E-1,9.8790765E-1,9.470652E-1,8.927587E-3,9.8790765E-1,-3.0851373E-3,2.9575182E-2,6.965602E-1,2.3620689E-1,2.4126757E-2,3.3489376E-2,1.5034209E-1,6.3859776E-2,1.791093E-2,1.6852719E-1,5.181818E-1,9.8790765E-1,9.4328415E-1,5.862069E-1,3.2508102E-1,3.8377744E-1,5.8854413E-1,9.8790765E-1,9.832553E-1,9.751531E-1,9.533169E-1,8.2186735E-1,1.9845793E-3,-4.250191E-3,1.652466E-3,-1.22978445E-2,1.3561464E-2,4.3498394E-3,2.6757115E-2,1.2488872E-2,4.0112162E-4,-5.0743595E-3,-4.0139006E-3,1.413123E-3,2.664577E-3,-1.4322783E-2,-4.965997E-3,1.6903059E-3,1.4940582E-3,-1.3799686E-4,1.4483383E-4,4.680828E-3,7.695981E-4,-1.4878874E-2,-1.5993421E-3,9.442385E-5,1.5965903E-3,-1.3789061E-3,2.5509323E-3,8.836038E-3,-3.1407046E-4,7.3424727E-3,2.148807E-5,3.556928E-3,3.3279456E-4,-2.1178105E-3,-6.4365827E-3,-2.4492113E-2,-5.789287E-3,4.643555E-3,3.8805138E-3,-3.5199034E-3],"split_indices":[2,6,5,0,6,5,2,0,0,11,6,11,3,5,3,0,0,5,2,5,3,5,6,2,5,5,5,3,3,6,3,6,5,0,6,0,0,11,3,5,5,5,9,0,5,2,6,5,3,5,5,7,6,5,5,11,11,0,0,0,0,0,0,0,0,0,0,0,0,0,0,0,0,0,0,0,0,0,0,0,0,0,0,0,0,0,0,0,0,0,0,0,0,0,0,0,0],"split_type":[0,0,0,0,0,0,0,0,0,0,0,0,0,0,0,0,0,0,0,0,0,0,0,0,0,0,0,0,0,0,0,0,0,0,0,0,0,0,0,0,0,0,0,0,0,0,0,0,0,0,0,0,0,0,0,0,0,0,0,0,0,0,0,0,0,0,0,0,0,0,0,0,0,0,0,0,0,0,0,0,0,0,0,0,0,0,0,0,0,0,0,0,0,0,0,0,0],"sum_hessian":[7.873E3,2.5E1,7.848E3,2E0,2.3E1,3.18E2,7.53E3,1E0,2.2E1,3.15E2,3E0,5.333E3,2.197E3,6.5E1,2.5E2,1E0,2E0,9.1E1,5.242E3,2.086E3,1.11E2,6.3E1,2E0,1.95E2,5.5E1,7.5E1,1.6E1,2.469E3,2.773E3,7.36E2,1.35E3,1.7E1,9.4E1,3E0,6E1,1E0,1E0,1.04E2,9.1E1,5E0,5E1,5.9E1,1.6E1,2E0,1.4E1,2.135E3,3.34E2,9.93E2,1.78E3,1.53E2,5.83E2,8.35E2,5.15E2,7E0,1E1,4.7E1,4.7E1,2E1,4E1,1E2,4E0,4.6E1,4.5E1,1E0,4E0,2.1E1,2.9E1,4.8E1,1.1E1,3E0,1.3E1,5E0,9E0,1.093E3,1.042E3,9.9E1,2.35E2,9.89E2,4E0,7.08E2,1.072E3,8.8E1,6.5E1,5.23E2,6E1,7.9E2,4.5E1,1.53E2,3.62E2,6E0,1E0,7E0,3E0,3.8E1,9E0,2.8E1,1.9E1],"tree_param":{"num_deleted":"0","num_feature":"12","num_nodes":"97","size_leaf_vector":"0"}},{"base_weights":[4.3707002E-2,-2.9936995E-2,1.3719334E-1,-3.6934618E-2,1.1221099E-1,2.901718E0,1.2654825E-1,-2.3674594E-2,-1.1777594E-1,-8.647649E-2,2.4519338E-1,1.0620481E1,1.2258486E0,6.260712E-1,1.1393273E-1,-2.6475202E-2,1.3549848E0,-2.637735E-1,-5.695131E-2,2.458498E-3,-2.2033094E-1,5.1406544E-1,-4.2623203E-2,-1.692121E0,2.0287832E1,-5.514021E-1,4.1424236E0,5.341111E-1,3.8145876E0,4.321049E-1,1.0198198E-1,-4.1778713E-2,5.9592385E-2,-1.0839739E-1,2.3796961E0,-1.967255E-2,-4.0171528E-1,5.120086E-1,-8.145169E-2,-9.222967E-2,2.685919E-1,4.7449734E-2,-4.4106367E-1,-6.792499E-2,7.2386944E-1,-1.2081163E-1,3.3822113E-1,1.4836816E0,-1.4099792E0,2.8241277E0,4.366912E-1,1.1577703E0,3.4955212E-1,-2.2391279E-1,1.1136439E-1,1.0331731E-2,-7.7728026E-2,7.240755E-1,1.9045347E-2,3.009612E-2,-1.7816201E-1,-4.7633372E-2,1.238943E-1,-5.680967E-1,-2.5246495E-1,7.473685E-2,1.2652768E0,-2.8971782E-1,-4.3907434E-2,-2.8298527E-1,1.3249251E-1,5.408513E-1,-1.7092848E-1,1.5258191E-2,3.709132E-1,-5.247079E-1,2.0133503E-1,-2.4381013E-1,2.0927525E0,8.948991E-1,-1.1063459E-1,3.6683373E-2,-2.772794E-1,1.7533664E0,1.22427136E-1,2.3310392E0,2.5459108E-1,3.7973E-1,-1.8554887E0,3.2752273E0,1.31779E0,-1.3437904E-1,7.967359E-1,7.3755974E-1,4.4290037E0,9.696951E-2,4.1193184E-1,-2.564679E-1,1.0482972E0,1.457977E-1,6.591378E-2,4.832474E-3,3.2690987E-1,-1.8399093E-1,-3.6378838E-2,4.2234457E-1,2.568239E0,2.5201434E-1,-7.477648E-4,-3.671274E-2,-1.6499983E-1,1.6359636E-1,-1.7428173E-1,-3.1619525E-1,-7.7724606E-1,-1.2280872E-1,-7.420777E-1,3.411882E-1,-3.786345E-1,-5.676144E-2,1.8830882E0,-8.098335E-4,-5.0189835E-1,4.0867937E-1,-8.96026E-2,-1.0987368E-1,-5.261535E-1,5.816108E-1,-6.414944E-2,1.0647492E-1,9.3031615E-1,-2.747706E-2,-5.836698E-1,1.5327711E-1,-1.0110768E-2,-5.1880725E-2,-7.3052055E-1,2.1699797E-2,-4.0005577E-1,8.104629E-2,1.2506878E0,9.282024E-2,-3.088674E-1,8.5532926E-2,-8.350165E-3,-3.9360914E-3,-4.8596573E-1,-4.6492178E-2,2.5469467E-1,-2.550186E0,3.344656E-1,1.650933E0,4.069763E0,-3.7499055E-2,-2.2938783E0,1.7620686E0,4.347779E-1,-1.6893075E-1,9.393687E-1,4.8141575E-1,7.0754886E-2,1.317174E0,3.8570806E-1,-1.0072358E-2,-3.2277903E-1,9.50831E-2,2.6178706E-1,4.6854907E-1,6.2223073E-2],"categories":[],"categories_nodes":[],"categories_segments":[],"categories_sizes":[],"default_left":[true,true,true,true,true,true,true,true,true,true,true,true,true,true,true,true,true,true,true,true,true,true,true,false,false,true,false,true,false,true,true,true,true,true,false,true,true,true,true,true,true,true,true,true,true,true,true,true,true,true,true,true,true,true,true,true,true,true,true,false,false,true,true,true,true,true,true,true,true,true,true,true,true,true,false,true,false,true,false,true,true,true,true,false,true,false,false,false,true,true,false,true,true,true,false,true,true,true,false,true,true,false,false,false,false,false,false,false,false,false,false,false,false,false,false,false,false,false,false,false,false,false,false,false,false,false,false,false,false,false,false,false,false,false,false,false,false,false,false,false,false,false,false,false,false,false,false,false,false,false,false,false,false,false,false,false,false,false,false,false,false,false,false,false,false,false,false,false,false],"id":209,"left_children":[1,3,5,7,9,11,13,15,17,19,21,23,25,27,29,31,33,35,37,39,41,43,45,-1,-1,47,-1,49,-1,51,53,55,57,59,-1,61,63,65,67,69,71,73,75,77,79,81,83,85,87,89,91,93,95,97,99,101,103,105,107,-1,-1,109,111,113,115,117,119,121,123,125,127,129,131,133,-1,135,-1,137,-1,139,141,143,145,-1,147,-1,-1,-1,149,151,-1,153,155,157,-1,159,161,163,-1,165,167,-1,-1,-1,-1,-1,-1,-1,-1,-1,-1,-1,-1,-1,-1,-1,-1,-1,-1,-1,-1,-1,-1,-1,-1,-1,-1,-1,-1,-1,-1,-1,-1,-1,-1,-1,-1,-1,-1,-1,-1,-1,-1,-1,-1,-1,-1,-1,-1,-1,-1,-1,-1,-1,-1,-1,-1,-1,-1,-1,-1,-1,-1,-1,-1,-1,-1,-1,-1],"loss_changes":[5.439438E1,4.3962097E0,1.0228517E2,4.5124955E0,5.4874864E0,1.6796646E2,2.182219E1,1.3967562E1,5.259365E0,9.9531865E-1,9.635679E0,2.8946686E2,5.95598E1,2.4279709E1,1.2842453E1,4.7585115E0,1.1115283E1,5.8614616E0,5.8531623E0,1.2791641E0,1.9828672E0,7.8811226E0,1.807112E0,0E0,0E0,1.3510159E1,0E0,1.813336E1,0E0,7.172014E0,9.978817E0,5.7473717E0,1.4677624E1,3.610792E-2,0E0,2.551164E-1,2.7051544E0,5.658701E0,3.1369238E0,1.6150241E0,1.6316357E0,1.5226856E-1,1.0249529E0,6.7310324E0,6.7998676E0,1.2471862E0,3.0572946E0,2.195478E0,4.508559E0,7.603226E-1,1.656258E1,1.5790642E1,1.7178383E0,3.8611126E0,4.9553947E0,2.1749847E0,7.970989E0,1.7030863E1,2.3753316E0,0E0,0E0,6.346108E-2,1.3168523E-1,2.6596394E0,3.7238412E0,1.4116449E0,5.234687E0,3.7524748E0,7.066787E0,8.275918E-1,1.550637E0,1.3619883E0,3.017204E-1,5.2746095E-2,0E0,1.5656734E0,0E0,6.858821E-1,0E0,1.133659E1,3.4874284E-1,5.7069406E-2,1.4374715E0,0E0,2.1545203E-1,0E0,0E0,0E0,6.9087877E0,6.893196E-1,0E0,6.4934072E0,1.6950792E1,2.1372294E0,0E0,2.0584413E-1,1.9032269E0,1.4537668E0,0E0,1.0594452E1,2.014575E0,0E0,0E0,0E0,0E0,0E0,0E0,0E0,0E0,0E0,0E0,0E0,0E0,0E0,0E0,0E0,0E0,0E0,0E0,0E0,0E0,0E0,0E0,0E0,0E0,0E0,0E0,0E0,0E0,0E0,0E0,0E0,0E0,0E0,0E0,0E0,0E0,0E0,0E0,0E0,0E0,0E0,0E0,0E0,0E0,0E0,0E0,0E0,0E0,0E0,0E0,0E0,0E0,0E0,0E0,0E0,0E0,0E0,0E0,0E0,0E0,0E0,0E0,0E0,0E0,0E0,0E0,0E0,0E0],"parents":[2147483647,0,0,1,1,2,2,3,3,4,4,5,5,6,6,7,7,8,8,9,9,10,10,11,11,12,12,13,13,14,14,15,15,16,16,17,17,18,18,19,19,20,20,21,21,22,22,25,25,27,27,29,29,30,30,31,31,32,32,33,33,35,35,36,36,37,37,38,38,39,39,40,40,41,41,42,42,43,43,44,44,45,45,46,46,47,47,48,48,49,49,50,50,51,51,52,52,53,53,54,54,55,55,56,56,57,57,58,58,61,61,62,62,63,63,64,64,65,65,66,66,67,67,68,68,69,69,70,70,71,71,72,72,73,73,75,75,77,77,79,79,80,80,81,81,82,82,84,84,88,88,89,89,91,91,92,92,93,93,95,95,96,96,97,97,99,99,100,100],"right_children":[2,4,6,8,10,12,14,16,18,20,22,24,26,28,30,32,34,36,38,40,42,44,46,-1,-1,48,-1,50,-1,52,54,56,58,60,-1,62,64,66,68,70,72,74,76,78,80,82,84,86,88,90,92,94,96,98,100,102,104,106,108,-1,-1,110,112,114,116,118,120,122,124,126,128,130,132,134,-1,136,-1,138,-1,140,142,144,146,-1,148,-1,-1,-1,150,152,-1,154,156,158,-1,160,162,164,-1,166,168,-1,-1,-1,-1,-1,-1,-1,-1,-1,-1,-1,-1,-1,-1,-1,-1,-1,-1,-1,-1,-1,-1,-1,-1,-1,-1,-1,-1,-1,-1,-1,-1,-1,-1,-1,-1,-1,-1,-1,-1,-1,-1,-1,-1,-1,-1,-1,-1,-1,-1,-1,-1,-1,-1,-1,-1,-1,-1,-1,-1,-1,-1,-1,-1,-1,-1,-1,-1],"split_conditions":[7.6135576E-1,7.896552E-1,2.2506302E-3,8.510083E-1,1.6666667E-1,1.6666667E-1,2.9618293E-2,8.4920776E-1,8.929601E-1,8.810345E-1,9.4067335E-1,8.0838656E-1,8.7090075E-1,2.907814E-2,7.664299E-1,6.621175E-1,4.9176452E-1,6.572582E-1,8.96381E-1,8.4482753E-1,9.689189E-1,7.300144E-1,9.5862067E-1,-3.384242E-2,4.0575662E-1,9.8790765E-1,8.2848474E-2,7.7943826E-1,7.629175E-2,2.5344828E-1,7.6906526E-1,6.4979887E-1,1.6034484E-1,3.1290707E-1,4.759392E-2,9.689189E-1,5.5517244E-1,8.949406E-1,9.096147E-1,9.43104E-1,7.008511E-1,6.325437E-1,6.8196166E-1,3.1148937E-1,6.7586637E-1,6.543547E-1,9.6299964E-1,8.012924E-1,2.777778E-1,2.0689656E-1,8.2218254E-1,5.746309E-1,7.645392E-1,9.7587323E-1,8.352535E-1,6.474741E-1,2.3811668E-1,1.5E-1,1.4800145E-1,6.019224E-4,-3.5632402E-3,7.5E-1,8.333334E-1,4.2413795E-1,7.258621E-1,8.9395034E-1,5.457837E-1,6.543547E-1,9.149262E-1,5.7922757E-1,9.661505E-1,5.1298255E-1,9.707418E-1,6.710479E-1,7.418264E-3,5.5555556E-2,4.0267003E-3,6.5254986E-1,4.185505E-2,6.474708E-1,7.161156E-1,9.860461E-1,9.7641337E-1,3.5067327E-2,4.9632394E-1,4.6620782E-2,5.0918213E-3,7.5945994E-3,4.4444448E-1,7.6706135E-1,2.63558E-2,2.8357942E-2,8.307456E-1,1.2931034E-1,8.858007E-2,1.48936175E-2,8.552395E-2,2.5990278E-1,2.0965943E-2,8.224432E-1,3.5199855E-2,9.664948E-5,6.5381974E-3,-3.6798185E-3,-7.275767E-4,8.446891E-3,5.136478E-2,5.0402866E-3,-1.4955295E-5,-7.342548E-4,-3.2999965E-3,3.2719271E-3,-3.4856345E-3,-6.3239047E-3,-1.5544921E-2,-2.4561742E-3,-1.4841554E-2,6.8237637E-3,-7.57269E-3,-1.1352288E-3,3.7661765E-2,-1.6196671E-5,-1.0037967E-2,8.173587E-3,-1.792052E-3,-2.1974735E-3,-1.052307E-2,1.1632216E-2,-1.2829888E-3,2.1294984E-3,1.8606322E-2,-5.495412E-4,-1.16733955E-2,3.0655423E-3,-2.0221535E-4,-1.0376144E-3,-1.4610411E-2,4.3399594E-4,-8.001115E-3,1.6209257E-3,2.5013756E-2,1.8564048E-3,-6.1773476E-3,1.7106584E-3,-1.670033E-4,-7.872183E-5,-9.719314E-3,-9.298435E-4,5.0938935E-3,-5.1003717E-2,6.689312E-3,3.301866E-2,8.139526E-2,-7.499811E-4,-4.5877565E-2,3.5241373E-2,8.695558E-3,-3.378615E-3,1.8787375E-2,9.6283145E-3,1.4150977E-3,2.6343478E-2,7.714161E-3,-2.0144715E-4,-6.4555802E-3,1.901662E-3,5.235741E-3,9.370981E-3,1.2444614E-3],"split_indices":[1,3,5,5,4,4,5,5,5,3,5,1,1,5,1,1,1,1,5,3,6,5,3,0,0,6,0,1,0,3,1,1,3,1,0,6,3,5,5,5,10,1,1,10,1,1,5,1,4,3,1,5,1,5,1,1,5,3,5,0,0,3,4,3,3,5,1,1,5,1,5,1,5,5,0,4,0,1,0,1,1,5,5,0,1,0,0,0,4,1,0,5,1,3,0,10,5,5,0,1,5,0,0,0,0,0,0,0,0,0,0,0,0,0,0,0,0,0,0,0,0,0,0,0,0,0,0,0,0,0,0,0,0,0,0,0,0,0,0,0,0,0,0,0,0,0,0,0,0,0,0,0,0,0,0,0,0,0,0,0,0,0,0,0,0,0,0,0,0],"split_type":[0,0,0,0,0,0,0,0,0,0,0,0,0,0,0,0,0,0,0,0,0,0,0,0,0,0,0,0,0,0,0,0,0,0,0,0,0,0,0,0,0,0,0,0,0,0,0,0,0,0,0,0,0,0,0,0,0,0,0,0,0,0,0,0,0,0,0,0,0,0,0,0,0,0,0,0,0,0,0,0,0,0,0,0,0,0,0,0,0,0,0,0,0,0,0,0,0,0,0,0,0,0,0,0,0,0,0,0,0,0,0,0,0,0,0,0,0,0,0,0,0,0,0,0,0,0,0,0,0,0,0,0,0,0,0,0,0,0,0,0,0,0,0,0,0,0,0,0,0,0,0,0,0,0,0,0,0,0,0,0,0,0,0,0,0,0,0,0,0],"sum_hessian":[7.9E3,4.419E3,3.481E3,4.212E3,2.07E2,1.3E1,3.468E3,3.619E3,5.93E2,8.3E1,1.24E2,2E0,1.1E1,8.5E1,3.383E3,3.612E3,7E0,1.74E2,4.19E2,5E1,3.3E1,6.4E1,6E1,1E0,1E0,7E0,4E0,8.3E1,2E0,1.22E2,3.261E3,3.067E3,5.45E2,3E0,4E0,6.3E1,1.11E2,1.7E1,4.02E2,3.7E1,1.3E1,1.5E1,1.8E1,1.7E1,4.7E1,5E1,1E1,2E0,5E0,3E0,8E1,1.2E1,1.1E2,9.1E1,3.17E3,1.252E3,1.815E3,3.1E1,5.14E2,1E0,2E0,5.3E1,1E1,5.2E1,5.9E1,1.1E1,6E0,6.1E1,3.41E2,2E1,1.7E1,8E0,5E0,1.4E1,1E0,1.6E1,2E0,1.6E1,1E0,3.9E1,8E0,2.5E1,2.5E1,1E0,9E0,1E0,1E0,1E0,4E0,2E0,1E0,3.1E1,4.9E1,1.1E1,1E0,2.2E1,8.8E1,8.9E1,2E0,1.803E3,1.367E3,1.231E3,2.1E1,5.08E2,1.307E3,2.7E1,4E0,4E1,4.74E2,4.9E1,4E0,9E0,1E0,2.4E1,2.8E1,4.7E1,1.2E1,7E0,4E0,2E0,4E0,2.6E1,3.5E1,3.1E1,3.1E2,1.2E1,8E0,5E0,1.2E1,4E0,4E0,4E0,1E0,2E0,1.2E1,5E0,1.1E1,6E0,1E1,1.2E1,2.7E1,4E0,4E0,1.2E1,1.3E1,1.1E1,1.4E1,4E0,5E0,3E0,1E0,1E0,1E0,3E1,1E0,1.3E1,3.6E1,2E0,9E0,1E0,2.1E1,2E0,8.6E1,1.9E1,7E1,1.255E3,5.48E2,1.2E1,1.355E3],"tree_param":{"num_deleted":"0","num_feature":"12","num_nodes":"169","size_leaf_vector":"0"}},{"base_weights":[2.8701892E-2,-8.957321E-1,3.148205E-2,5.2764946E-1,-1.9775237E0,2.6003444E-1,2.6041603E-2,8.7094766E-1,-2.76095E-1,-2.3872657E0,2.2960782E0,3.1147975E-1,-5.1500297E-1,3.6142457E-2,-7.5012646E-3,1.3829541E-1,1.1343639E0,-5.438319E-1,2.50772E-1,-2.6379251E0,3.2944915E-1,3.5814893E-1,2.7889721E-2,-2.7870457E0,4.127334E-1,3.547753E-2,9.234479E-1,-1.4054318E-1,-7.74074E-4,-6.686968E-2,3.1957284E-1,3.0584484E-1,1.0302173E0,3.7371296E-1,-6.725485E-2,2.3516024E-2,6.886238E-2,-8.5744925E-2,1.2390499E0,-6.0790675E-3,-2.2245175E-1,4.8736936E-1,-3.820584E-3,3.5390684E-1,-4.390581E-1,1.3892877E0,4.2285797E-1,-2.0216566E-1,1.1490884E0,-4.6628264E-1,8.179257E-2,-1.6611889E-2,3.7866697E-2,1.4689845E-1,4.0374786E-2,8.439986E-1,1.6098033E0,-1.4811027E-1,2.2708727E-1,-3.136005E-2,-3.714415E-1,-5.954192E-2,1.2524805E0,-3.3270052E-1,6.547204E-4,4.659101E-1,4.5579813E-2,1.311525E-2,-5.0325835E-1,1.6743978E0,-8.779724E-2,3.9594523E-3,-5.230084E-1,1.8369539E-1,-4.623868E-1,1.9576956E-1,-3.179509E-2,5.65628E-2,-1.1917809E-2,6.6172905E-2,2.986415E-1,-2.1820283E-2,9.657608E-2,2.4640879E-2,-4.574107E-1,8.8863716E-2,4.721312E-1,3.2298565E-2,-2.508962E-1,-4.193026E-1,3.9526444E-2,-4.708287E-1,3.5342225E-1,1.6347805E0,-5.7306425E-3,-1.5005597E-1,-6.31822E-1,2.2271391E-2,-6.3602015E-2],"categories":[],"categories_nodes":[],"categories_segments":[],"categories_sizes":[],"default_left":[true,true,true,true,true,true,true,true,true,true,false,true,true,true,true,true,false,false,false,false,false,true,true,false,false,true,true,true,true,false,false,true,true,true,true,true,true,false,true,true,true,true,true,true,true,true,false,true,false,false,true,true,true,true,true,false,false,true,true,true,true,true,true,true,true,false,false,false,false,false,false,false,false,false,false,false,false,false,false,false,false,false,false,false,false,false,false,false,false,false,false,false,false,false,false,false,false,false,false],"id":210,"left_children":[1,3,5,7,9,11,13,15,17,19,-1,21,23,25,27,29,-1,-1,-1,-1,-1,31,33,-1,-1,35,37,39,41,-1,-1,43,45,47,49,51,53,-1,55,57,59,61,63,65,67,69,-1,71,-1,-1,73,75,77,79,81,-1,-1,83,85,87,89,91,93,95,97,-1,-1,-1,-1,-1,-1,-1,-1,-1,-1,-1,-1,-1,-1,-1,-1,-1,-1,-1,-1,-1,-1,-1,-1,-1,-1,-1,-1,-1,-1,-1,-1,-1,-1],"loss_changes":[2.0000803E1,3.629757E1,9.64307E0,2.9399264E0,2.5177086E1,7.2408543E0,2.5688043E0,1.3448372E0,5.1988363E-1,8.721458E0,0E0,2.232277E0,2.4306797E1,3.4128976E0,1.5680734E0,9.751678E-2,0E0,0E0,0E0,0E0,0E0,4.984623E0,8.13402E-1,0E0,0E0,2.3231926E0,1.4321043E0,9.251181E-1,2.477733E0,0E0,0E0,4.895746E0,2.0318193E0,2.4724874E0,1.1680425E0,2.469428E0,3.4084892E0,0E0,1.6260147E-4,1.0808736E0,1.480341E0,4.365905E0,2.4485505E0,4.3829107E0,2.5111032E-1,2.738881E0,0E0,2.2854926E-1,0E0,0E0,8.1918913E-1,3.6414194E0,2.9405632E0,5.0146027E0,3.9353087E0,0E0,0E0,1.0963898E0,3.9575213E-1,3.3191425E-1,5.879154E-1,1.1328841E0,2.1108217E0,1.1773736E0,2.2755551E0,0E0,0E0,0E0,0E0,0E0,0E0,0E0,0E0,0E0,0E0,0E0,0E0,0E0,0E0,0E0,0E0,0E0,0E0,0E0,0E0,0E0,0E0,0E0,0E0,0E0,0E0,0E0,0E0,0E0,0E0,0E0,0E0,0E0,0E0],"parents":[2147483647,0,0,1,1,2,2,3,3,4,4,5,5,6,6,7,7,8,8,9,9,11,11,12,12,13,13,14,14,15,15,21,21,22,22,25,25,26,26,27,27,28,28,31,31,32,32,33,33,34,34,35,35,36,36,38,38,39,39,40,40,41,41,42,42,43,43,44,44,45,45,47,47,50,50,51,51,52,52,53,53,54,54,57,57,58,58,59,59,60,60,61,61,62,62,63,63,64,64],"right_children":[2,4,6,8,10,12,14,16,18,20,-1,22,24,26,28,30,-1,-1,-1,-1,-1,32,34,-1,-1,36,38,40,42,-1,-1,44,46,48,50,52,54,-1,56,58,60,62,64,66,68,70,-1,72,-1,-1,74,76,78,80,82,-1,-1,84,86,88,90,92,94,96,98,-1,-1,-1,-1,-1,-1,-1,-1,-1,-1,-1,-1,-1,-1,-1,-1,-1,-1,-1,-1,-1,-1,-1,-1,-1,-1,-1,-1,-1,-1,-1,-1,-1,-1],"split_conditions":[2.2506302E-3,2.777778E-1,1.7021276E-2,1.6666667E-1,5.280793E-1,5E-1,7.2727275E-1,5.5555556E-2,1.166234E-1,4.4444448E-1,4.5921564E-2,6.4742017E-1,5E-1,9.9792945E-1,2.1896552E-1,2.9613025E-2,2.2687277E-2,-1.0876638E-2,5.01544E-3,-5.27585E-2,6.588983E-3,1.5124235E-1,1.4482759E-1,-5.574091E-2,8.254668E-3,9.9787235E-1,1.6666667E-1,1.15517244E-1,5.257472E-2,-1.3373937E-3,6.3914564E-3,1.474613E-1,3.888889E-1,1.13793105E-1,2.086207E-1,3.0172414E-1,2.6206896E-1,-1.7148985E-3,9.5862067E-1,2.3136479E-1,1.6666667E-1,4.303205E-2,7.490097E-2,2.777778E-1,2.9613025E-2,7.090609E-2,8.45716E-3,7.7586204E-2,2.2981767E-2,-9.325652E-3,1.6033489E-1,4.0151242E-2,7.6413393E-1,2.777778E-1,6.2981635E-1,1.6879972E-2,3.2196067E-2,1.9067338E-1,8.2186735E-1,5.739107E-1,7.090609E-2,2.777778E-1,3.7931034E-1,7.008511E-1,3.888889E-1,9.318202E-3,9.1159623E-4,2.62305E-4,-1.0065166E-2,3.3487957E-2,-1.7559448E-3,7.918904E-5,-1.0460168E-2,3.6739078E-3,-9.247735E-3,3.9153914E-3,-6.3590176E-4,1.131256E-3,-2.3835618E-4,1.323458E-3,5.97283E-3,-4.3640565E-4,1.9315216E-3,4.9281755E-4,-9.148214E-3,1.7772743E-3,9.442624E-3,6.459713E-4,-5.0179237E-3,-8.386052E-3,7.9052884E-4,-9.416574E-3,7.068445E-3,3.269561E-2,-1.1461285E-4,-3.0011195E-3,-1.263644E-2,4.454278E-4,-1.2720403E-3],"split_indices":[5,4,10,4,7,4,11,4,7,4,0,11,0,5,3,7,0,0,0,0,0,5,3,0,0,10,4,3,5,0,0,5,4,3,3,3,3,0,3,5,4,5,5,4,7,7,0,3,0,0,5,5,5,4,5,0,0,5,11,5,7,4,3,10,4,0,0,0,0,0,0,0,0,0,0,0,0,0,0,0,0,0,0,0,0,0,0,0,0,0,0,0,0,0,0,0,0,0,0],"split_type":[0,0,0,0,0,0,0,0,0,0,0,0,0,0,0,0,0,0,0,0,0,0,0,0,0,0,0,0,0,0,0,0,0,0,0,0,0,0,0,0,0,0,0,0,0,0,0,0,0,0,0,0,0,0,0,0,0,0,0,0,0,0,0,0,0,0,0,0,0,0,0,0,0,0,0,0,0,0,0,0,0,0,0,0,0,0,0,0,0,0,0,0,0,0,0,0,0,0,0],"sum_hessian":[7.783E3,2.3E1,7.76E3,1E1,1.3E1,1.8E2,7.58E3,7E0,3E0,1.2E1,1E0,1.69E2,1.1E1,5.826E3,1.754E3,2E0,5E0,2E0,1E0,1.1E1,1E0,1.45E2,2.4E1,3E0,8E0,5.822E3,4E0,8.4E1,1.67E3,1E0,1E0,1.35E2,1E1,5E0,1.9E1,4.287E3,1.535E3,1E0,3E0,3.2E1,5.2E1,1E1,1.66E3,1.27E2,8E0,6E0,4E0,3E0,2E0,5E0,1.4E1,1.129E3,3.158E3,4.1E2,1.125E3,2E0,1E0,2E1,1.2E1,2.3E1,2.9E1,6E0,4E0,2.2E1,1.638E3,9.3E1,3.4E1,1E0,7E0,5E0,1E0,2E0,1E0,1.2E1,2E0,7.5E1,1.054E3,2.296E3,8.62E2,2.68E2,1.42E2,5.34E2,5.91E2,1.3E1,7E0,8E0,4E0,1.8E1,5E0,2.6E1,3E0,3E0,3E0,3E0,1E0,1.4E1,8E0,1.226E3,4.12E2],"tree_param":{"num_deleted":"0","num_feature":"12","num_nodes":"99","size_leaf_vector":"0"}},{"base_weights":[2.4742698E-2,-5.5549655E-2,9.700789E-2,3.709743E-3,-9.8040685E-2,3.693739E-1,8.933829E-2,-1.3905986E-2,4.9575474E-2,-5.89532E-1,-8.8338375E-2,9.584546E-1,-2.4255422E-1,1.0664213E-1,8.75568E-3,-7.924193E-3,-1.22099616E-1,1.319905E-1,1.3247541E-2,-2.3128825E-1,-8.219139E-2,3.3128795E-1,3.065765E0,-9.4701517E-1,2.8966832E-1,7.7574335E-2,1.4063428E-1,2.967188E-1,4.123955E-3,-1.4663137E-2,1.3837817E-1,-1.712766E-1,-9.527972E-2,5.4027595E-2,2.4130636E-1,-9.168042E-2,7.1491815E-2,-5.068436E-1,-9.3518004E-2,4.6742234E-2,-9.010608E-2,9.4755524E-1,-1.2481585E-1,1.1306627E1,1.2775723E0,4.0847503E-2,-1.6381606E0,-7.0669687E-1,6.275095E-1,9.727592E-2,-1.0568653E-1,2.4882473E-1,8.614565E-2,7.2530575E-2,6.499845E-1,-4.1332855E-3,1.488537E-1,-9.8584285E-3,-3.11576E-1,2.2744781E-1,7.546904E-2,-1.1965187E-1,-3.0631176E-1,-2.0677805E-2,-1.167167E-1,2.3377876E-1,9.998896E-3,-2.956298E-1,2.5326556E-1,-1.7706608E-2,-1.7342706E-1,-3.940381E-2,1.0204627E-1,-5.8896273E-1,-9.781842E-2,2.589138E-1,-2.752777E-1,1.6637534E-1,-2.1712638E-1,-1.6524993E-1,-8.002204E-2,2.984135E0,1.667055E-1,1.2937405E0,-2.597248E-1,1.3557495E0,3.4156466E-1,-5.881702E-1,2.2875187E0,-1.725412E0,-9.367775E-1,-1.0966753E0,-2.5904477E-1,9.336254E-1,-1.2261863E-1,4.259784E-2,1.2081465E-1,-4.7710213E-1,-9.1502346E-2,7.8337556E-1,2.289637E-1,6.1074034E-3,1.295487E-1,-1.8912365E-1,6.663251E-1,2.066275E-1,9.943407E-1,9.454872E-3,-3.5078055E-1,3.7809297E-1,1.2541798E-1,-1.6779892E-2,1.0757037E-1,3.0065544E-2,2.3688912E-1,-9.638094E-2,1.0562521E-1,-1.57419E-1,-8.379154E-3,-1.504441E-1,-7.255466E-1,-1.03804685E-1,1.3504967E-1,-1.5188068E-1,-6.0133796E-2,4.608828E-1,1.6492E-1,-1.0857559E-1,5.114658E-2,9.996002E-1,2.327543E-1,-2.3428698E-1,6.054281E-2,-2.0367314E-1,-7.4980487E-3,-1.19362906E-1,4.0502593E-2,3.646233E-2,1.4278504E-1,-4.247572E-1,-1.3108324E0,-1.0153799E0,1.8876424E-1,-2.519907E-1,3.2000995E-1,-7.557619E-1,-2.5579673E-1,2.4275338E-2,2.5627258E-1,1.2665686E-1,-4.776106E-1,-2.4861282E-1,-5.517279E-2,-3.8416915E-2,-1.0401038E-1,-5.5788673E-2,6.877219E-1,2.6267447E0,-3.5210234E-1,-1.4354366E-1,-6.619599E-1,1.1500045E0,1.8906616E0,-1.062946E-1,-1.3788646E0,-4.0981185E-1,-6.514533E-2,7.051884E-1,3.4875357E0,1.3604942E-1,-4.5089647E-1,2.2299266E0,1.39951315E-2,3.5162875E-1,8.2145266E-2,-2.9684433E-1,-7.3756295E-1,-2.6886708E-1,-6.4312674E-2,2.6103029E-2,1.3674204E0,6.1688244E-1,2.0627534E-1,-2.0107095E-1,2.3754325E-2,2.1776786E-1,5.730739E-2,-8.278917E-3,-2.9251873E-1,3.866724E-1,-1.4393413E-2,-3.2358784E-2,4.7470167E-2,-6.2160957E-1,-3.0448052E-1,-0E0,1.5685898E-1],"categories":[],"categories_nodes":[],"categories_segments":[],"categories_sizes":[],"default_left":[true,true,true,true,true,true,true,true,true,false,true,true,true,true,true,true,true,true,true,true,true,true,true,true,true,true,true,true,true,true,true,true,true,true,true,true,true,true,true,true,true,true,true,false,true,true,true,true,true,true,true,true,true,true,true,true,true,true,false,true,true,true,true,true,true,true,true,false,true,true,true,true,true,true,true,true,true,true,true,true,true,false,true,true,true,true,false,false,false,false,false,true,true,true,true,true,true,true,true,true,true,true,true,true,false,true,false,true,true,false,true,false,false,false,false,false,false,false,false,false,false,false,false,false,false,false,false,false,false,false,false,false,false,false,false,false,false,false,false,false,false,false,false,false,false,false,false,false,false,false,false,false,false,false,false,false,false,false,false,false,false,false,false,false,false,false,false,false,false,false,false,false,false,false,false,false,false,false,false,false,false,false,false,false,false,false,false,false,false,false,false,false,false,false,false,false,false],"id":211,"left_children":[1,3,5,7,9,11,13,15,17,-1,19,21,23,25,27,29,31,33,35,37,39,41,43,45,47,49,51,53,55,57,59,61,63,65,67,69,71,73,75,77,79,81,83,-1,85,87,89,91,93,95,97,99,101,103,105,107,109,111,-1,113,115,117,119,121,123,125,127,-1,129,131,133,135,137,139,141,143,145,147,149,151,153,-1,155,157,159,161,-1,-1,-1,-1,-1,163,165,167,169,171,173,175,177,179,181,183,185,187,-1,189,-1,191,193,-1,195,-1,-1,-1,-1,-1,-1,-1,-1,-1,-1,-1,-1,-1,-1,-1,-1,-1,-1,-1,-1,-1,-1,-1,-1,-1,-1,-1,-1,-1,-1,-1,-1,-1,-1,-1,-1,-1,-1,-1,-1,-1,-1,-1,-1,-1,-1,-1,-1,-1,-1,-1,-1,-1,-1,-1,-1,-1,-1,-1,-1,-1,-1,-1,-1,-1,-1,-1,-1,-1,-1,-1,-1,-1,-1,-1,-1,-1,-1,-1,-1,-1,-1,-1,-1,-1,-1],"loss_changes":[4.608653E1,9.474996E0,8.714916E0,1.2703106E0,1.0422556E1,4.13021E1,5.668091E0,7.326014E-1,1.3037136E0,0E0,1.8778305E0,7.670839E1,2.1221964E1,3.3006744E0,9.5472324E-1,1.0600944E0,6.9011986E-2,1.1277854E0,1.8557061E0,3.329063E0,2.1055498E0,1.2793592E1,1.9148883E2,1.665894E1,1.1030624E1,6.5215197E0,9.080362E0,8.715613E-1,8.4877634E-1,1.462817E0,2.5517827E-1,1.2344974E-1,6.013903E-2,6.1569077E-1,3.7967777E-1,6.5135413E-1,6.640936E-1,9.5626736E-1,3.8247783E0,3.7783723E0,1.4639006E0,3.0534462E1,5.136895E0,0E0,6.5068626E-1,1.5076131E1,3.0018616E-1,1.3407388E0,5.6373444E0,2.0942774E0,9.0102804E-1,5.4075165E0,3.5631862E0,1.1882231E0,5.75958E-1,3.163445E0,1.8294704E-1,8.2292324E-1,0E0,2.9845953E-2,1.503603E-1,6.1633334E-2,2.9962152E-1,1.2505229E-1,5.4284036E-2,2.0551318E-1,3.1004083E-1,0E0,7.3658705E-1,9.7885525E-1,2.5410593E-1,2.7321592E-1,4.053849E-1,2.6739388E0,1.4781815E0,6.625564E-1,2.8927684E-1,1.0456843E0,3.3683949E0,2.0955362E0,1.7066078E0,0E0,1.6833892E0,5.460306E0,1.0939786E0,3.688259E-1,0E0,0E0,0E0,0E0,0E0,1.1410365E0,1.11005574E-1,9.232543E0,6.4766926E-1,3.0697142E1,1.01532345E1,2.0959151E-1,8.0609E-1,8.076768E0,4.3317776E0,1.3201202E0,4.23213E0,9.4629526E-2,0E0,1.00023605E-1,0E0,1.0265231E0,2.4134111E-1,0E0,1.4135379E-1,0E0,0E0,0E0,0E0,0E0,0E0,0E0,0E0,0E0,0E0,0E0,0E0,0E0,0E0,0E0,0E0,0E0,0E0,0E0,0E0,0E0,0E0,0E0,0E0,0E0,0E0,0E0,0E0,0E0,0E0,0E0,0E0,0E0,0E0,0E0,0E0,0E0,0E0,0E0,0E0,0E0,0E0,0E0,0E0,0E0,0E0,0E0,0E0,0E0,0E0,0E0,0E0,0E0,0E0,0E0,0E0,0E0,0E0,0E0,0E0,0E0,0E0,0E0,0E0,0E0,0E0,0E0,0E0,0E0,0E0,0E0,0E0,0E0,0E0,0E0,0E0,0E0,0E0,0E0,0E0,0E0,0E0,0E0,0E0,0E0,0E0],"parents":[2147483647,0,0,1,1,2,2,3,3,4,4,5,5,6,6,7,7,8,8,10,10,11,11,12,12,13,13,14,14,15,15,16,16,17,17,18,18,19,19,20,20,21,21,22,22,23,23,24,24,25,25,26,26,27,27,28,28,29,29,30,30,31,31,32,32,33,33,34,34,35,35,36,36,37,37,38,38,39,39,40,40,41,41,42,42,44,44,45,45,46,46,47,47,48,48,49,49,50,50,51,51,52,52,53,53,54,54,55,55,56,56,57,57,59,59,60,60,61,61,62,62,63,63,64,64,65,65,66,66,68,68,69,69,70,70,71,71,72,72,73,73,74,74,75,75,76,76,77,77,78,78,79,79,80,80,82,82,83,83,84,84,85,85,91,91,92,92,93,93,94,94,95,95,96,96,97,97,98,98,99,99,100,100,101,101,102,102,103,103,105,105,107,107,108,108,110,110],"right_children":[2,4,6,8,10,12,14,16,18,-1,20,22,24,26,28,30,32,34,36,38,40,42,44,46,48,50,52,54,56,58,60,62,64,66,68,70,72,74,76,78,80,82,84,-1,86,88,90,92,94,96,98,100,102,104,106,108,110,112,-1,114,116,118,120,122,124,126,128,-1,130,132,134,136,138,140,142,144,146,148,150,152,154,-1,156,158,160,162,-1,-1,-1,-1,-1,164,166,168,170,172,174,176,178,180,182,184,186,188,-1,190,-1,192,194,-1,196,-1,-1,-1,-1,-1,-1,-1,-1,-1,-1,-1,-1,-1,-1,-1,-1,-1,-1,-1,-1,-1,-1,-1,-1,-1,-1,-1,-1,-1,-1,-1,-1,-1,-1,-1,-1,-1,-1,-1,-1,-1,-1,-1,-1,-1,-1,-1,-1,-1,-1,-1,-1,-1,-1,-1,-1,-1,-1,-1,-1,-1,-1,-1,-1,-1,-1,-1,-1,-1,-1,-1,-1,-1,-1,-1,-1,-1,-1,-1,-1,-1,-1,-1,-1,-1,-1],"split_conditions":[6.621175E-1,6.572582E-1,1.7021276E-2,4.4565028E-1,5E-1,8.349742E-1,1.3137093E-1,4.3256068E-1,6.2553835E-1,-1.179064E-2,1.8427517E-2,8.2218254E-1,5E-1,8.2218254E-1,1.8427517E-2,4.1965395E-1,3.1941032E-1,6.028142E-1,6.341465E-1,3.9234042E-1,1.3390663E-1,7.876776E-1,5E-1,8.76709E-1,8.5870504E-1,8.0966675E-1,8.349742E-1,8.5539156E-1,9.859468E-1,4.1206574E-1,4.264353E-1,2.2481573E-1,4.127764E-1,4.7627014E-1,8.2593434E-4,6.324857E-1,9.689189E-1,6.142506E-3,7.0297873E-1,9.9787235E-1,1.6680852E-1,5E-1,9.8790765E-1,2.2613254E-1,8.120393E-1,8.571358E-1,9.28372E-1,8.4422266E-1,6.965602E-1,7.554066E-1,7.125307E-2,1.8427517E-2,8.76709E-1,6.142506E-3,7.0297873E-1,9.699887E-1,1.2389015E-3,3.989272E-1,-6.23152E-3,7.125307E-2,1.3234043E-1,1.4619164E-1,9.9787235E-1,3.783784E-1,6.621622E-1,5.0082594E-1,3.5106385E-1,-5.912596E-3,5.0082594E-1,6.26517E-1,9.533169E-1,6.430696E-1,3.5106385E-1,3.5106385E-1,3.5106385E-1,5.0082594E-1,5.0082594E-1,7.985258E-2,7.739557E-2,6.621622E-1,3.9234042E-1,5.9682697E-2,7.6135576E-1,5E-1,8.0966675E-1,6.818182E-1,6.831293E-3,-1.1763403E-2,4.5750372E-2,-3.450824E-2,-1.8735548E-2,3.5257986E-1,1.6830467E-1,6.609337E-1,8.120393E-1,1.8427517E-2,7.6706135E-1,6.142506E-3,5.0082594E-1,7.0297873E-1,1.2389015E-3,1.3390663E-1,4.95086E-1,7.867135E-1,1.33265015E-2,9.2677164E-1,1.9886814E-2,7.998252E-1,5.0041294E-1,7.561859E-3,3.4520882E-1,-3.3559784E-4,2.1514073E-3,6.0131087E-4,4.7377823E-3,-1.9276188E-3,2.112504E-3,-3.1483797E-3,-1.6758307E-4,-3.008882E-3,-1.4510931E-2,-2.0760936E-3,2.7009933E-3,-3.0376136E-3,-1.2026759E-3,9.217656E-3,3.2984E-3,-2.1715118E-3,1.0229317E-3,1.9992003E-2,4.655086E-3,-4.6857395E-3,1.2108561E-3,-4.073463E-3,-1.4996096E-4,-2.387258E-3,8.1005186E-4,7.292466E-4,2.8557007E-3,-8.495144E-3,-2.6216647E-2,-2.0307597E-2,3.7752849E-3,-5.039814E-3,6.4001987E-3,-1.5115238E-2,-5.1159346E-3,4.8550675E-4,5.1254514E-3,2.533137E-3,-9.5522115E-3,-4.9722563E-3,-1.1034558E-3,-7.683383E-4,-2.0802075E-3,-1.1157735E-3,1.3754438E-2,5.2534893E-2,-7.0420466E-3,-2.870873E-3,-1.3239197E-2,2.300009E-2,3.781323E-2,-2.125892E-3,-2.7577292E-2,-8.196237E-3,-1.3029065E-3,1.4103767E-2,6.975071E-2,2.7209884E-3,-9.017929E-3,4.459853E-2,2.7990263E-4,7.032575E-3,1.6429053E-3,-5.9368866E-3,-1.4751258E-2,-5.3773415E-3,-1.2862534E-3,5.2206055E-4,2.7348408E-2,1.2337648E-2,4.1255066E-3,-4.0214187E-3,4.7508648E-4,4.355357E-3,1.1461477E-3,-1.6557833E-4,-5.8503747E-3,7.733448E-3,-2.8786826E-4,-6.4717565E-4,9.4940333E-4,-1.24321915E-2,-6.0896105E-3,-0E0,3.1371797E-3],"split_indices":[1,1,10,1,0,1,7,1,1,0,11,1,0,1,11,1,11,1,1,10,11,1,0,1,1,1,1,1,1,1,1,11,11,1,8,1,6,11,10,10,10,0,6,0,11,1,1,1,11,1,11,11,1,11,10,1,8,1,0,11,10,11,10,11,11,8,10,0,8,1,11,1,10,10,10,8,8,11,11,11,10,0,1,0,1,11,0,0,0,0,0,11,11,11,11,11,1,11,8,10,8,11,11,1,0,1,0,1,8,0,11,0,0,0,0,0,0,0,0,0,0,0,0,0,0,0,0,0,0,0,0,0,0,0,0,0,0,0,0,0,0,0,0,0,0,0,0,0,0,0,0,0,0,0,0,0,0,0,0,0,0,0,0,0,0,0,0,0,0,0,0,0,0,0,0,0,0,0,0,0,0,0,0,0,0,0,0,0,0,0,0,0,0,0,0,0,0],"split_type":[0,0,0,0,0,0,0,0,0,0,0,0,0,0,0,0,0,0,0,0,0,0,0,0,0,0,0,0,0,0,0,0,0,0,0,0,0,0,0,0,0,0,0,0,0,0,0,0,0,0,0,0,0,0,0,0,0,0,0,0,0,0,0,0,0,0,0,0,0,0,0,0,0,0,0,0,0,0,0,0,0,0,0,0,0,0,0,0,0,0,0,0,0,0,0,0,0,0,0,0,0,0,0,0,0,0,0,0,0,0,0,0,0,0,0,0,0,0,0,0,0,0,0,0,0,0,0,0,0,0,0,0,0,0,0,0,0,0,0,0,0,0,0,0,0,0,0,0,0,0,0,0,0,0,0,0,0,0,0,0,0,0,0,0,0,0,0,0,0,0,0,0,0,0,0,0,0,0,0,0,0,0,0,0,0,0,0,0,0,0,0,0,0,0,0,0,0],"sum_hessian":[7.942E3,3.762E3,4.18E3,1.571E3,2.191E3,1.14E2,4.066E3,1.135E3,4.36E2,4.2E1,2.149E3,5.8E1,5.6E1,3.347E3,7.19E2,1.076E3,5.9E1,1.33E2,3.03E2,8.8E1,2.061E3,4.5E1,1.3E1,2.4E1,3.2E1,1.805E3,1.542E3,1.1E1,7.08E2,1.029E3,4.7E1,2E1,3.9E1,7.8E1,5.5E1,1.08E2,1.95E2,2.9E1,5.9E1,1.19E2,1.942E3,1.9E1,2.6E1,2E0,1.1E1,1E1,1.4E1,8E0,2.4E1,1.63E3,1.75E2,5.16E2,1.026E3,7E0,4E0,6.7E2,3.8E1,1.013E3,1.6E1,1.9E1,2.8E1,1.5E1,5E0,9E0,3E1,1.5E1,6.3E1,1E0,5.4E1,5.7E1,5.1E1,4.2E1,1.53E2,2.4E1,5E0,2E1,3.9E1,8.2E1,3.7E1,2.29E2,1.713E3,5E0,1.4E1,2E0,2.4E1,1E1,1E0,8E0,2E0,1.2E1,2E0,4E0,4E0,1.7E1,7E0,4.91E2,1.139E3,6E0,1.69E2,1.8E1,4.98E2,3.61E2,6.65E2,5E0,2E0,2E0,2E0,6.45E2,2.5E1,3E0,3.5E1,9.57E2,5.6E1,1E0,1.8E1,4E0,2.4E1,1.1E1,4E0,4E0,1E0,6E0,3E0,1.8E1,1.2E1,3E0,1.2E1,1.6E1,4.7E1,1E0,5.3E1,1.5E1,4.2E1,4.3E1,8E0,2.1E1,2.1E1,5.9E1,9.4E1,2E1,4E0,1E0,4E0,2E0,1.8E1,1E0,3.8E1,3.2E1,5E1,1.6E1,2.1E1,1.3E2,9.9E1,6.27E2,1.086E3,1E1,4E0,1E0,1E0,1.9E1,5E0,8E0,2E0,1E0,3E0,2E0,2E0,1.6E1,1E0,4E0,3E0,6E0,4.85E2,1.63E2,9.76E2,4E0,2E0,2.2E1,1.47E2,8E0,1E1,2.7E1,4.71E2,2.8E1,3.33E2,2.99E2,3.66E2,2E0,3E0,1E0,1E0,3.07E2,3.38E2,3E0,2.2E1,7E0,2.8E1],"tree_param":{"num_deleted":"0","num_feature":"12","num_nodes":"197","size_leaf_vector":"0"}},{"base_weights":[4.656233E-2,-1.6955694E-2,1.2544405E-1,-1.1568935E0,-1.34661095E-2,5.9034956E-1,1.10676624E-1,5.248001E-1,-1.8978872E0,-2.8661754E-2,2.489581E-2,2.4231257E0,4.556286E-1,1.4625606E-1,5.4686707E-2,2.3266597E-1,1.1131523E0,-1.3791949E0,-2.3869352E0,1.0634534E-1,-3.6447242E-2,8.009484E-3,1.7866664E-1,4.660093E0,5.12608E-1,-3.131117E-1,7.805937E-1,1.00969575E-1,2.7878642E-1,-2.399607E-1,6.367936E-2,-6.5614894E-2,3.7598276E-1,-1.7944924E0,3.0463424E-1,-1.8467435E-1,2.0217906E-1,2.9590966E-3,-5.732812E-2,5.8131333E-2,-3.657395E-2,3.8462663E-1,1.1314495E-1,5.74773E0,1.5807308E0,-9.070685E-2,1.0487798E0,-2.359011E0,-1.4042808E-1,3.187481E0,1.205863E-1,2.948135E-1,7.521733E-2,1.9624437E-1,6.460141E-1,-2.126004E-1,-9.55785E-1,9.880704E-2,2.2453042E-2,-1.1160678E0,-4.9583573E-2,8.702383E-2,5.290716E-1,-1.3251663E-2,6.646523E-2,1.8189082E-4,-7.7157624E-2,-2.3964694E-1,8.4873505E-2,4.7055975E-2,-8.669713E-2,6.7260634E-4,6.4960295E-1,-1.826897E-1,2.54464E-1,2.8385583E-2,-1.9781245E-1,4.611255E-1,1.3634608E0,3.3882436E-1,-5.0031984E-1,1.2444368E1,1.4866573E0,-3.7572107E0,6.080148E-1,1.1033101E0,2.555201E-1,-1.0334453E-1,9.486724E-2,5.4077303E-1,1.1909892E-1,6.4092907E-3,6.9539595E-1,-2.6169467E-1,4.8853694E-3,7.41977E-2,2.2095416E-1,6.33462E-2,-8.4342144E-2,-2.168557E-1,1.690329E-1,6.7097545E-1,6.547292E-2,1.3177847E0,6.415599E-2,7.116256E-3,-3.205879E-2,8.309134E-2,-1.2979794E-1,-1.4027729E-2,2.64554E-1,-3.636999E-1,-6.842921E-2,1.2026106E-1,-4.975157E-1,-5.846419E-3,1.5912889E-1,-7.041768E-3,1.0163109E-1,-9.689582E-2,6.1272955E-1,1.10562265E-1,-7.7333234E-2,2.943421E-1,1.4278412E0,2.5412733E-2,-2.5825152E-1,4.1079408E-1,-1.8788422E-2,7.5763655E-1,-2.5554857E-1,-3.3507028E-1,-8.1751376E-1,1.979695E1,1.9690315E0,3.3342218E0,8.4129566E-1,-1.08446E1,-1.7476343E0,3.8877764E-1,2.430798E0,-0E0,1.2527479E0,1.5653159E-1,5.275495E-1,5.6547E-1,-1.3569017E-1,1.5497036E-1,6.0823574E-3,1.057533E0,4.6943063E-1,3.3192798E-1,8.545224E-2,-3.1067586E-1,1.5215346E0,1.0056418E0,4.928382E-1,-3.684861E-1,-1.2546816E-1,4.6837607E-1,-1.9552958E-1,1.1308646E-1,-5.2338857E-2,9.916332E-1,1.5311833E-1,3.342627E-1,4.9105443E-2,-4.9687047E-2,-2.146619E-1],"categories":[],"categories_nodes":[],"categories_segments":[],"categories_sizes":[],"default_left":[true,true,true,true,true,true,true,true,true,true,true,true,true,true,true,true,false,true,false,true,true,true,true,true,true,true,true,true,true,true,true,false,false,false,false,true,true,true,true,true,true,true,true,false,false,true,true,false,true,true,true,true,true,true,true,true,false,true,true,false,true,true,true,true,true,true,true,true,true,true,true,true,true,true,true,false,false,false,false,true,true,true,true,true,true,true,true,true,true,true,true,true,true,true,true,true,true,true,true,false,false,false,false,false,false,false,false,false,false,false,false,false,false,false,false,false,false,false,false,false,false,false,false,false,false,false,false,false,false,false,false,false,false,false,false,false,false,false,false,false,false,false,false,false,false,false,false,false,false,false,false,false,false,false,false,false,false,false,false,false,false,false,false,false,false,false,false,false,false],"id":212,"left_children":[1,3,5,7,9,11,13,15,17,19,21,23,25,27,29,31,-1,33,-1,35,37,39,41,43,45,47,49,51,53,55,57,-1,-1,-1,-1,59,61,63,65,67,69,71,73,-1,-1,75,77,-1,79,81,83,85,87,89,91,93,-1,95,97,-1,99,101,103,105,107,109,111,113,115,117,119,121,123,125,127,-1,-1,-1,-1,129,131,133,135,137,139,141,143,145,147,149,151,153,155,157,159,161,163,165,167,-1,-1,-1,-1,-1,-1,-1,-1,-1,-1,-1,-1,-1,-1,-1,-1,-1,-1,-1,-1,-1,-1,-1,-1,-1,-1,-1,-1,-1,-1,-1,-1,-1,-1,-1,-1,-1,-1,-1,-1,-1,-1,-1,-1,-1,-1,-1,-1,-1,-1,-1,-1,-1,-1,-1,-1,-1,-1,-1,-1,-1,-1,-1,-1,-1,-1,-1,-1,-1,-1],"loss_changes":[3.9566135E1,1.7378817E1,2.4150646E1,1.6966892E1,2.5426617E0,2.6339745E1,6.7961235E0,6.3926387E-1,1.216053E0,3.284271E0,3.20975E0,3.0471157E1,2.5402668E1,1.2513023E1,3.5195658E0,1.551553E-1,0E0,3.9331913E0,0E0,4.7632165E0,2.431773E0,2.4933453E0,1.6292586E0,8.030228E0,1.4471831E0,1.057049E1,1.13142365E2,7.7564144E0,1.605135E1,6.8592525E-1,1.8632755E0,0E0,0E0,0E0,0E0,5.2914295E0,4.806765E0,1.0545567E0,2.2035851E0,4.18793E0,2.4764843E0,2.9749293E0,3.9185247E0,0E0,0E0,3.405369E-2,1.9582534E-1,0E0,4.945763E0,2.350472E2,1.0719553E2,5.679084E0,4.8253055E0,1.1513182E1,3.062767E0,4.1338754E-1,0E0,2.0804677E0,2.5926836E0,0E0,1.3781328E0,1.1745875E0,1.2174979E1,3.1275517E-1,6.82742E-1,1.8655943E0,3.5778942E0,4.0470715E0,3.2517085E0,6.550507E-1,2.646984E0,1.0904816E-1,4.627601E0,4.824915E-1,2.7136173E0,0E0,0E0,0E0,0E0,3.141905E0,7.483511E-1,1.6641626E2,1.4903158E1,8.370573E1,1.9758991E1,1.364706E0,4.6571207E0,2.96879E0,6.605444E0,2.7374496E0,2.5291271E0,3.6980784E0,5.4901505E0,4.333706E-1,7.156413E-1,2.8536537E0,6.014912E0,1.6454502E0,7.348424E-1,0E0,0E0,0E0,0E0,0E0,0E0,0E0,0E0,0E0,0E0,0E0,0E0,0E0,0E0,0E0,0E0,0E0,0E0,0E0,0E0,0E0,0E0,0E0,0E0,0E0,0E0,0E0,0E0,0E0,0E0,0E0,0E0,0E0,0E0,0E0,0E0,0E0,0E0,0E0,0E0,0E0,0E0,0E0,0E0,0E0,0E0,0E0,0E0,0E0,0E0,0E0,0E0,0E0,0E0,0E0,0E0,0E0,0E0,0E0,0E0,0E0,0E0,0E0,0E0,0E0,0E0,0E0,0E0,0E0,0E0],"parents":[2147483647,0,0,1,1,2,2,3,3,4,4,5,5,6,6,7,7,8,8,9,9,10,10,11,11,12,12,13,13,14,14,15,15,17,17,19,19,20,20,21,21,22,22,23,23,24,24,25,25,26,26,27,27,28,28,29,29,30,30,35,35,36,36,37,37,38,38,39,39,40,40,41,41,42,42,45,45,46,46,48,48,49,49,50,50,51,51,52,52,53,53,54,54,55,55,57,57,58,58,60,60,61,61,62,62,63,63,64,64,65,65,66,66,67,67,68,68,69,69,70,70,71,71,72,72,73,73,74,74,79,79,80,80,81,81,82,82,83,83,84,84,85,85,86,86,87,87,88,88,89,89,90,90,91,91,92,92,93,93,94,94,95,95,96,96,97,97,98,98],"right_children":[2,4,6,8,10,12,14,16,18,20,22,24,26,28,30,32,-1,34,-1,36,38,40,42,44,46,48,50,52,54,56,58,-1,-1,-1,-1,60,62,64,66,68,70,72,74,-1,-1,76,78,-1,80,82,84,86,88,90,92,94,-1,96,98,-1,100,102,104,106,108,110,112,114,116,118,120,122,124,126,128,-1,-1,-1,-1,130,132,134,136,138,140,142,144,146,148,150,152,154,156,158,160,162,164,166,168,-1,-1,-1,-1,-1,-1,-1,-1,-1,-1,-1,-1,-1,-1,-1,-1,-1,-1,-1,-1,-1,-1,-1,-1,-1,-1,-1,-1,-1,-1,-1,-1,-1,-1,-1,-1,-1,-1,-1,-1,-1,-1,-1,-1,-1,-1,-1,-1,-1,-1,-1,-1,-1,-1,-1,-1,-1,-1,-1,-1,-1,-1,-1,-1,-1,-1,-1,-1,-1,-1],"split_conditions":[7.5122225E-1,2.7272727E-2,1.7021276E-2,5.5555556E-2,8.30303E-1,7.703592E-1,8.352535E-1,7.090609E-2,2.777778E-1,1.2389015E-3,7.0264435E-1,5E-1,8.2174015E-1,8.2552147E-1,4.1296717E-4,3.4543264E-1,2.2263044E-2,1.6666667E-1,-4.7738705E-2,5.181818E-1,9.5682657E-1,9.212121E-1,1.6666667E-1,2.777778E-1,2.777778E-1,2.7272727E-2,8.349742E-1,7.664299E-1,9.212121E-1,5E-1,2.777778E-1,-1.3122979E-3,7.519655E-3,-3.5889845E-2,6.092685E-3,1.5446809E-1,2.777778E-1,5.988887E-1,5.181818E-1,5.0082594E-1,6.4979887E-1,9.8790765E-1,2.777778E-1,1.1495459E-1,3.1614617E-2,7.645918E-1,7.638253E-1,-4.7180217E-2,1.6666667E-1,2.7272727E-2,2.7272727E-2,4.2424244E-1,7.7778685E-1,5.181818E-1,5.0082594E-1,9.1471183E-1,-1.91157E-2,9.212121E-1,8.30303E-1,-2.2321355E-2,4.2424244E-1,8.723405E-2,6.242424E-1,6.242424E-1,7.281138E-1,7.4818814E-1,7.4893616E-2,6.4347535E-1,6.893617E-1,3.5061154E-1,6.1111116E-1,5.5555556E-2,7.4818814E-1,7.100899E-1,3.888889E-1,5.6771166E-4,-3.956249E-3,9.222509E-3,2.7269214E-2,7.9888636E-1,8.0966675E-1,2.2222222E-1,5E-1,1.6666667E-1,5E-1,2.6297873E-1,8.30303E-1,3.3636364E-1,7.9132783E-1,5.0082594E-1,1.6666667E-1,5E-1,2.777778E-1,7.008511E-1,3.9234042E-1,8.938559E-1,9.5682657E-1,1.2389015E-3,5E-1,-4.337114E-3,3.3806579E-3,1.3419509E-2,1.3094584E-3,2.6355693E-2,1.2831198E-3,1.4232511E-4,-6.411758E-4,1.6618267E-3,-2.5959588E-3,-2.8055458E-4,5.2910796E-3,-7.273998E-3,-1.3685841E-3,2.405221E-3,-9.950314E-3,-1.1692838E-4,3.1825777E-3,-1.4083536E-4,2.0326218E-3,-1.9379164E-3,1.2254591E-2,2.2112452E-3,-1.5466646E-3,5.886842E-3,2.8556824E-2,5.082546E-4,-5.1650302E-3,8.215881E-3,-3.7576843E-4,1.5152731E-2,-5.110971E-3,-6.7014056E-3,-1.6350275E-2,3.95939E-1,3.938063E-2,6.668443E-2,1.6825913E-2,-2.1689199E-1,-3.4952685E-2,7.7755526E-3,4.861596E-2,-0E0,2.5054958E-2,3.1306318E-3,1.055099E-2,1.1309399E-2,-2.7138032E-3,3.0994073E-3,1.2164714E-4,2.115066E-2,9.388613E-3,6.6385595E-3,1.7090448E-3,-6.213517E-3,3.0430691E-2,2.0112837E-2,9.856764E-3,-7.369722E-3,-2.5093632E-3,9.367521E-3,-3.9105914E-3,2.2617292E-3,-1.0467771E-3,1.9832663E-2,3.0623665E-3,6.6852537E-3,9.821089E-4,-9.937409E-4,-4.293238E-3],"split_indices":[1,2,10,4,2,1,1,7,4,8,1,0,1,1,8,1,0,4,0,2,6,2,4,4,4,2,1,1,2,4,4,0,0,0,0,10,4,1,2,8,1,6,4,0,0,1,1,0,4,2,2,2,1,2,8,1,0,2,2,0,2,10,2,2,1,1,10,1,10,1,4,4,1,1,4,0,0,0,0,1,1,4,0,4,4,10,2,2,1,8,4,4,4,10,10,1,6,8,4,0,0,0,0,0,0,0,0,0,0,0,0,0,0,0,0,0,0,0,0,0,0,0,0,0,0,0,0,0,0,0,0,0,0,0,0,0,0,0,0,0,0,0,0,0,0,0,0,0,0,0,0,0,0,0,0,0,0,0,0,0,0,0,0,0,0,0,0,0,0],"split_type":[0,0,0,0,0,0,0,0,0,0,0,0,0,0,0,0,0,0,0,0,0,0,0,0,0,0,0,0,0,0,0,0,0,0,0,0,0,0,0,0,0,0,0,0,0,0,0,0,0,0,0,0,0,0,0,0,0,0,0,0,0,0,0,0,0,0,0,0,0,0,0,0,0,0,0,0,0,0,0,0,0,0,0,0,0,0,0,0,0,0,0,0,0,0,0,0,0,0,0,0,0,0,0,0,0,0,0,0,0,0,0,0,0,0,0,0,0,0,0,0,0,0,0,0,0,0,0,0,0,0,0,0,0,0,0,0,0,0,0,0,0,0,0,0,0,0,0,0,0,0,0,0,0,0,0,0,0,0,0,0,0,0,0,0,0,0,0,0,0],"sum_hessian":[7.896E3,4.374E3,3.522E3,1.3E1,4.361E3,1.08E2,3.414E3,4E0,9E0,3.124E3,1.237E3,7E0,1.01E2,2.087E3,1.327E3,3E0,1E0,5E0,4E0,1.7E2,2.954E3,1.115E3,1.22E2,3E0,4E0,3E1,7.1E1,1.556E3,5.31E2,3.9E1,1.288E3,1E0,2E0,4E0,1E0,4.2E1,1.28E2,1.023E3,1.931E3,5.25E2,5.9E2,2.9E1,9.3E1,2E0,1E0,2E0,2E0,2E0,2.8E1,1.5E1,5.6E1,1.82E2,1.374E3,4.34E2,9.7E1,3.8E1,1E0,6.95E2,5.93E2,5E0,3.7E1,9.5E1,3.3E1,8.15E2,2.08E2,4.95E2,1.436E3,4.3E1,4.82E2,2.21E2,3.69E2,1.2E1,1.7E1,3E1,6.3E1,1E0,1E0,1E0,1E0,1.2E1,1.6E1,2E0,1.3E1,6E0,5E1,8E0,1.74E2,1.36E2,1.238E3,7.9E1,3.55E2,7E0,9E1,3.1E1,7E0,5.79E2,1.16E2,4.29E2,1.64E2,2.1E1,1.6E1,3E0,9.2E1,1.2E1,2.1E1,3.91E2,4.24E2,1.92E2,1.6E1,4.7E2,2.5E1,4.2E1,1.394E3,1.8E1,2.5E1,2.17E2,2.65E2,1.11E2,1.1E2,3.64E2,5E0,5E0,7E0,1.2E1,5E0,8E0,2.2E1,4E1,2.3E1,7E0,5E0,1.1E1,5E0,1E0,1E0,3E0,1E1,1E0,5E0,4.5E1,5E0,1E0,7E0,1.28E2,4.6E1,6E0,1.3E2,7.38E2,5E2,9E0,7E1,4.8E1,3.07E2,6E0,1E0,3.5E1,5.5E1,1.7E1,1.4E1,2E0,5E0,4.43E2,1.36E2,9E0,1.07E2,2.1E1,4.08E2,1.3E2,3.4E1],"tree_param":{"num_deleted":"0","num_feature":"12","num_nodes":"169","size_leaf_vector":"0"}},{"base_weights":[2.3560904E-2,1.7078611E-1,1.9154105E-2,2.708274E-1,-3.7781602E-1,2.9175414E-2,-1.3053949E-2,4.331983E-1,9.87417E-2,-2.0298517E0,2.1196392E-1,5.711557E-2,1.8341191E-2,-1.041885E-1,3.8347458E-3,-5.468866E-2,4.8817626E-1,2.512416E-1,-6.7625724E-2,1.2665685E0,1.0734104E-1,6.2213443E-2,-3.0930611E-1,-1.8586118E-2,3.2845218E-2,-1.1381058E-1,1.0646677E0,2.597198E-1,-6.489366E-3,1.45268645E-2,-3.001738E-1,5.6913376E-1,2.0341817E-1,-6.925057E-2,3.3367214E-1,-3.8493937E-1,5.0029773E-2,-2.0391227E-1,3.3023167E-1,3.1167569E-2,1.198551E-1,-3.549985E-1,-8.8903405E-2,-3.7844803E-2,2.3892966E-1,4.103673E-2,-5.1990252E-2,1.0836629E-2,-1.7645137E-1,-3.916682E-2,3.4416956E-1,-1.6757185E-2,8.421263E-2,1.0881123E-1,-1.3349997E-1,5.9236705E-1,-7.5308263E-1,5.785823E-2,2.2522664E0,1.3704619E-1,-1.6182001E-1,2.8788698E-1,1.5557227E0,-6.6507185E-1,4.3363994E-1,5.147719E-1,-1.2832853E-1,-2.7501413E-1,-2.2813862E-2,7.0737934E-1,2.4879065E-1,-2.2283753E-2,5.7377223E-2,7.127526E-2,1.8649997E-1,-1.4520371E-1,-3.9195678E-1,-1.339046E-1,-2.5084388E-2,-5.0780285E-2,2.1638682E-1,1.3242044E0,1.15996525E-1,7.970734E-2,2.4599925E-2,-1.5751863E-1,7.5487815E-2,3.343866E-1,-8.556251E-4,5.14667E-1,-2.043093E-1,-5.5447216E-3,-1.9075641E-1,-3.006824E-1,3.914561E-1,2.1259E-3,-5.638919E-2,-1.0837326E-1,1.6004182E-1,-8.907463E-2,2.4072765E-1,2.9482684E-1,6.739391E-1,2.4910563E-1,4.211756E-2,3.37827E-2,2.7278012E-1,-3.3863682E-1,-1.0061712E-2,1.3348016E-1,4.5312357E-1,1.3063444E-2,-7.486812E-1,3.0792879E-2,1.0675302E0,-2.3007485E-1,5.313837E-1,1.7662358E-1,-3.768056E-1,-9.445513E-2,1.3430109E0,1.0537724E-1,-5.4572973E-2,-1.6727509E-1,8.243651E-2,4.8785828E-2,4.6913052E-1,3.1577167E-1,1.2327731E-1,-2.7269268E-1,1.0350736E-1,2.5031036E-3,-8.3149195E-2,2.9577095E-2,7.2299486E-1,5.346833E-1,5.324352E0,1.9217192E-1,-4.1984054E-1,6.0803574E-1,6.2806085E-2,-1.5727918E-1,3.4369234E-2,-1.1536563E-1,-4.1406062E-1,2.801804E-1,2.6012287E-2,-7.122891E-2,2.4368793E-2,-1.1416414E-1,1.8845102E0,-4.0357876E-1,-1.5357578E-1,-3.2334995E-2,5.7704933E-2,-2.9902762E-1,-2.4084302E-2,2.187825E-1,7.010819E-1,-4.6800454E-3,4.5301092E-1,5.5407666E-2,-1.620488E-1,3.5795458E-3,-1.7698187E-1,4.1949347E-1,-5.1968418E-2],"categories":[],"categories_nodes":[],"categories_segments":[],"categories_sizes":[],"default_left":[true,true,true,true,true,true,true,true,true,false,true,true,true,true,true,true,true,true,true,false,true,true,true,true,true,true,false,true,true,true,false,true,true,true,true,true,true,true,true,true,true,true,true,true,true,true,true,true,true,true,true,true,true,true,false,true,false,true,false,true,true,true,false,true,false,true,true,false,true,true,false,true,true,true,true,true,false,false,false,true,true,true,true,true,true,true,true,false,true,true,true,true,true,false,true,true,true,true,true,false,false,false,false,false,false,false,false,false,false,false,false,false,false,false,false,false,false,false,false,false,false,false,false,false,false,false,false,false,false,false,false,false,false,false,false,false,false,false,false,false,false,false,false,false,false,false,false,false,false,false,false,false,false,false,false,false,false,false,false,false,false,false,false,false,false,false,false],"id":213,"left_children":[1,3,5,7,9,11,13,15,17,-1,19,21,23,25,27,29,31,33,35,-1,37,39,41,43,45,47,-1,49,51,53,-1,55,57,59,61,63,65,67,69,71,73,75,77,79,81,83,85,87,89,91,93,95,97,99,-1,101,-1,103,-1,105,107,109,-1,111,-1,113,115,-1,117,119,-1,121,123,125,127,129,-1,-1,-1,131,133,135,137,139,141,143,145,-1,147,149,151,153,155,-1,157,159,161,163,165,-1,-1,-1,-1,-1,-1,-1,-1,-1,-1,-1,-1,-1,-1,-1,-1,-1,-1,-1,-1,-1,-1,-1,-1,-1,-1,-1,-1,-1,-1,-1,-1,-1,-1,-1,-1,-1,-1,-1,-1,-1,-1,-1,-1,-1,-1,-1,-1,-1,-1,-1,-1,-1,-1,-1,-1,-1,-1,-1,-1,-1,-1,-1,-1,-1,-1,-1,-1],"loss_changes":[5.0965695E0,1.2564192E1,2.4641442E0,5.3802156E0,3.4596134E1,1.7610521E0,2.7894669E0,2.679512E0,2.4016209E0,0E0,2.840589E0,3.0408354E0,2.247941E0,3.2134469E0,4.0417037E0,1.8110858E-1,2.0098038E0,1.314786E0,1.7036654E0,0E0,1.7124026E0,2.867612E0,2.0805788E-1,5.8687887E0,2.0946128E0,2.1996517E0,0E0,1.5064759E0,1.3679157E0,1.20799E-1,0E0,2.2763557E0,5.9876485E0,2.0508468E-1,2.0251274E0,2.927671E0,2.7905734E0,1.2671775E-1,3.679304E-1,1.4625753E0,1.8092623E0,1.1551046E-1,9.057507E-3,3.6231568E0,1.0912857E1,1.7447572E0,3.5745482E0,3.6171913E-1,3.637394E0,6.480475E-2,1.4533834E0,9.8891795E-1,2.1873322E0,1.4854077E-1,0E0,1.5784416E0,0E0,5.054804E-2,0E0,3.927727E-2,1.9067201E-1,9.4949055E-1,0E0,5.4294777E-1,0E0,2.470294E0,1.6698145E0,0E0,2.6038933E-1,1.2494152E0,0E0,1.4164389E0,3.9460042E0,2.8959143E0,1.9122858E0,1.175232E-1,0E0,0E0,0E0,1.8093066E0,5.0295773E0,2.5285862E1,3.0577712E0,7.293865E0,3.428153E0,1.5481567E0,1.2118521E0,0E0,1.6337559E-1,6.4140487E0,1.7944908E0,1.9464632E-2,3.509883E-2,0E0,2.2525191E0,2.7515423E0,5.040542E0,3.278449E-1,5.916541E0,0E0,0E0,0E0,0E0,0E0,0E0,0E0,0E0,0E0,0E0,0E0,0E0,0E0,0E0,0E0,0E0,0E0,0E0,0E0,0E0,0E0,0E0,0E0,0E0,0E0,0E0,0E0,0E0,0E0,0E0,0E0,0E0,0E0,0E0,0E0,0E0,0E0,0E0,0E0,0E0,0E0,0E0,0E0,0E0,0E0,0E0,0E0,0E0,0E0,0E0,0E0,0E0,0E0,0E0,0E0,0E0,0E0,0E0,0E0,0E0,0E0,0E0,0E0,0E0,0E0,0E0,0E0,0E0],"parents":[2147483647,0,0,1,1,2,2,3,3,4,4,5,5,6,6,7,7,8,8,10,10,11,11,12,12,13,13,14,14,15,15,16,16,17,17,18,18,20,20,21,21,22,22,23,23,24,24,25,25,27,27,28,28,29,29,31,31,32,32,33,33,34,34,35,35,36,36,37,37,38,38,39,39,40,40,41,41,42,42,43,43,44,44,45,45,46,46,47,47,48,48,49,49,50,50,51,51,52,52,53,53,55,55,57,57,59,59,60,60,61,61,63,63,65,65,66,66,68,68,69,69,71,71,72,72,73,73,74,74,75,75,79,79,80,80,81,81,82,82,83,83,84,84,85,85,86,86,88,88,89,89,90,90,91,91,92,92,94,94,95,95,96,96,97,97,98,98],"right_children":[2,4,6,8,10,12,14,16,18,-1,20,22,24,26,28,30,32,34,36,-1,38,40,42,44,46,48,-1,50,52,54,-1,56,58,60,62,64,66,68,70,72,74,76,78,80,82,84,86,88,90,92,94,96,98,100,-1,102,-1,104,-1,106,108,110,-1,112,-1,114,116,-1,118,120,-1,122,124,126,128,130,-1,-1,-1,132,134,136,138,140,142,144,146,-1,148,150,152,154,156,-1,158,160,162,164,166,-1,-1,-1,-1,-1,-1,-1,-1,-1,-1,-1,-1,-1,-1,-1,-1,-1,-1,-1,-1,-1,-1,-1,-1,-1,-1,-1,-1,-1,-1,-1,-1,-1,-1,-1,-1,-1,-1,-1,-1,-1,-1,-1,-1,-1,-1,-1,-1,-1,-1,-1,-1,-1,-1,-1,-1,-1,-1,-1,-1,-1,-1,-1,-1,-1,-1,-1,-1],"split_conditions":[1.7021276E-2,3.888889E-1,7.2727275E-1,1.1034483E-1,3.448276E-2,2.9655173E-1,2.9655173E-1,3.9510223E-1,3.1941032E-1,-4.0597033E-2,1.0517241E-1,6.1111116E-1,3.5344827E-1,7.222222E-1,3.086207E-1,4.0821142E-2,2.777778E-1,5.5555556E-2,4.95086E-1,2.533137E-2,2.6551723E-1,9.9787235E-1,7.222222E-1,5E-1,5E-1,9.8790765E-1,2.1293353E-2,9.5682657E-1,7.896552E-1,1.6666667E-1,-6.0034757E-3,5.8854413E-1,5.4282683E-1,1.5862069E-1,2.9482758E-1,2.777778E-1,6.0565114E-1,1.4482759E-1,2.9482758E-1,1.5E-1,1.6584766E-1,9.8790765E-1,9.689189E-1,5.8854413E-1,2.7021277E-1,4.3103448E-1,4.7413793E-1,9.3103446E-2,1.2389015E-3,7.920965E-1,1.8085107E-1,6.2586206E-1,1.6666667E-1,5.5555556E-2,-2.6699991E-3,5.5555556E-2,-1.5061652E-2,8.231776E-1,4.5045327E-2,